#version: 0.2
e n
t e
Ġ d
e r
i n
a n
o f
en d
x t
of te
< |
| >
end ofte
endofte xt
a r
Ġ f
. <|
Ġ s
Ġd e
Ġ i
Ġ w
Ġ m
Ġ o
Ġ b
a t
Ġ h
e t
c h
e i
Ġ n
e l
Ġ k
y n
Ġi t
s t
j e
Ġ g
a l
Ġf an
Ġ t
Ġ D
Ġ in
Ġ yn
r o
o ar
Ġ en
Ġi s
r i
Ġ e
l e
Ã »
Ġ p
r e
Ġo p
l i
k e
in g
Ġd at
e d
n e
Ã ¢
Ġ te
a s
u r
o l
i t
er s
d e
Ã ª
a k
Ġm ei
te r
o n
i e
ch t
o m
Ã º
ĠD e
a m
g e
o r
Ġf oar
k en
Ã» n
Ġ "
d er
Ġ S
Ġb e
Ġ F
i s
Ġo m
Ã¢ n
i j
Ġ I
Ġ l
j o
in ne
Ġ v
Ġd er
r a
Ġo an
y s
Ġg e
Ġn et
Ġ al
a ar
Ġm o
Ġf er
' t
Ġn o
i er
e ar
o e
Ġs t
Ġ H
t en
t s
Ġw ur
Ġ j
i l
u w
d en
" <|
Ġe k
Ġ Ãº
Ġ M
g en
u s
Ġ B
Ġd y
in s
i et
Ġ W
Ġb y
Ġw ol
a d
Ãª r
Ġ N
i en
. "<|
z e
Ġo er
ĠI t
Ġ A
i m
y k
m e
s te
Ġn ei
Ġh a
Ġb inne
Ġk om
l Ã¢n
Ġs e
Ġw e
Ġ E
Ġm ar
j en
Ã ´
a an
Ġ z
j in
ĠÃº t
Ġ Ã»n
0 0
i el
Ġh at
r u
i d
r ys
Ã¢ l
Ġ as
Ġ L
o k
en s
Ġ O
g el
Ġno ch
ĠF rys
w e
Ġs ei
u n
Ġ re
ro ch
o p
Ġh et
Ġ c
i ch
Ã´ f
r en
Ġ K
li k
Ġ 1
m a
d t
e s
Ġ T
Ġp l
Ġs a
ro n
Ġd Ãªr
Ġs k
Ġw ie
Ġ Ã´f
Ġ J
Ġ G
2 0
Ġh e
a p
Ġmo at
Ġ er
i k
Ġ '
Ġd o
Ġw er
ins ken
Ġ V
Ġt roch
Ġs p
n en
Ġh ar
Ġ r
Ġj ier
k t
Ġo ar
ĠD at
e f
o ed
Ġe en
Ġ li
Ġw at
Ġv an
an t
Ġp ro
Ġi k
s k
an d
Ġm insken
Ġ R
Ġ P
er t
Ġsei t
o or
a ch
Ġm ear
jo uw
i r
o ron
u m
Ġk ri
Ġwur de
Ġm e
m en
ing en
Ġc oron
p en
Ġ Y
as je
Ġal le
Ġw aar
Ġd an
Ġ of
s je
Ġbe s
u t
a cht
in t
a st
Ġe ar
Ġ le
Ġw i
a f
an g
Ġk in
Ġ je
o t
ĠFrys lÃ¢n
Ġh iel
el s
a at
ĠY n
Ġwur dt
Ġt i
Ġg oed
u l
" ,
Ġs o
a g
te l
2 1
Ġt s
2 5
z en
ĠÃ»n der
i p
a al
a asje
2 4
Ġha w
3 0
o u
ĠM ar
Ġd it
o an
e k
on g
Ġs yn
3 5
9 4
7 5
l en
z ze
3 1
2 8
Ġt w
ar t
Ġ C
ij n
6 6
9 5
Ġk inne
Ġd i
3 4
9 8
3 8
s p
9 1
7 1
d ei
7 8
7 4
7 0
Ġhaw we
9 0
2 6
Ġn iet
v en
o er
9 6
3 6
et ter
Ġw y
Ġg ru
7 6
o s
st ra
b er
Ġh el
k er
Ġm ak
ol le
in e
me en
Ġb li
ei d
ef f
ĠL jouw
Ġm in
ed er
o g
or t
v e
a am
Ġg jin
ys je
Ġb r
d ers
b b
Ġge meen
eff ens
Ġv oor
ts je
s e
Ġi en
1 8
i g
5 0
v er
Ġgru t
al e
Ġg iet
Ġs it
st en
Ġ ri
Ġmoat te
Ġo n
Ġwaar d
Ġkom t
o cht
ĠI n
s en
Ġf ers
i je
y l
end e
1 4
Ã¢l d
Ġs il
ien e
y d
5 8
Ġk l
5 4
Ġh oe
p e
Ġz ijn
w ur
ro m
u it
Ġoar e
1 6
Ġh im
jo cht
f e
1 0
ĠD er
Ġ aan
Ġwur k
m er
b e
o al
Ġs l
2 2
Ġso ad
Ġm aar
Ġk on
ri j
Ġt a
ak t
Ġs i
gel s
5 6
k om
Ġts jin
o en
Ġoan t
Ġkom me
ar re
el d
Ġn ije
ri uw
ĠA l
Ġm an
Ġs te
Ġtw a
el e
ĠE n
ĠLjouw ert
Ġd ie
Ġb er
in k
Ġ a
Ġh y
f er
Ġgemeen te
ĠH y
an n
Ġbe g
4 4
8 8
ĠD Ãªr
e ch
i te
e m
w aan
9 9
ir us
h eid
bb en
Ġhar ren
Ġ ei
3 7
Ġn e
jo er
Ġ 20
ing s
2 7
Ġdi zze
Ġw Ãª
en n
Ġ el
4 0
ĠO p
ĠN eder
Ġm et
Ġb ed
Ã» s
Ġf ol
ste l
8 0
u ur
e pen
Ġf re
Ġd us
Ãª st
st ri
u p
3 9
Ġs oar
r Ã»
Ġs ne
1 5
ĠFrys ke
6 0
ro p
i ge
e p
i o
a te
Ġv er
Ġh ie
j ir
y ts
z je
ter s
2 9
Ġpl ak
Ġh Ã¢l
o ch
ij k
j er
Ġear ste
Ġo ok
re k
ins je
an nen
2 3
Ġ (
Ġf u
ri s
i ed
l ing
Ġs oe
Ġb et
ĠÃº s
Ġb el
Ãº s
7 7
y f
Ġb in
ei t
Ġd waan
ĠE k
a u
f al
ĠI k
4 6
i st
1 1
4 8
a gen
Ġw el
I k
ĠS e
5 5
Ãº t
Ġk aam
d at
Ġs jen
Ġd oar
3 3
li ke
Ġti id
ed stri
Ġpl ysje
t yd
Ġk e
Ã»n der
ear ren
us ken
g an
s j
il d
Ġs els
' s
in n
ĠO m
Ġp art
fe an
Ġei gen
b o
Ġge w
ri es
8 6
ĠwÃª ze
Ġt ri
u ro
ĠW e
et ten
gan is
it te
Ġ Z
ak sje
ĠN effens
u er
1 9
o el
? <|
Ġwi ke
Ġg ro
aat re
Ġgrut te
a b
Ġl ang
7 9
am p
Ġl yk
Ġge an
oe k
Ġi epen
wur k
Ġf ier
at en
Ġmak ke
ĠNeder lÃ¢n
earren fean
Ġhe bben
n im
i f
m an
m et
Ġ ze
ĠH earrenfean
am b
Ġw iene
Ġb o
Ġb en
4 5
Ãº d
Ġpro v
Ġmo et
re kt
Ġge b
Ġp ers
an ne
ĠV an
Ġk un
Ãª ste
Ġbli uw
a i
Ġk ear
Ġli t
der e
Ġmo og
W e
Ġfer tel
3 2
s ke
00 0
Ġs jo
ra cht
Ġbe st
ĠÃ»n ders
sk ip
Ġt h
I t
Ġf in
g er
d el
l and
ke s
Ġbe k
Ġcoron af
i v
6 8
Ġw ant
u or
Ġme ter
ĠS t
Ġo r
Ġh jir
Ġst iet
f oar
Ġa ut
li j
Ġre k
g ge
Ġwol le
Ġf i
a ad
Ġfers k
Ġcoronaf irus
1 7
m ers
Ġb ij
Ġe f
Ġ U
h Ã¢l
Ġtri je
Ġsk oal
s el
b al
k et
en t
a de
Ġ jo
Ġal l
e st
s ter
aatre gels
Ġmoog lik
u b
ens en
Ġn effens
Ãª d
ĠD y
Ġw edstri
9 7
Ġno g
Ġmin der
yk s
Ġdo ch
Ġprov insje
j on
D e
Ġf yn
8 4
Ġwer om
ite it
ad de
h e
n ei
8 5
Ġf ro
Ġw etter
0 6
i cht
Ġt usken
ĠF oar
Ġof t
Ġbr Ã¢n
jo ch
Ġor ganis
w acht
r y
Ġkon t
Ġs y
w enn
o op
Ġd oe
am men
Ġf l
a ak
Ġt al
ei li
am en
le in
h Ã»s
jouw er
ĠB y
l ine
Ġw or
as ter
Ġber n
ys ke
ĠÃ»n t
w i
Ġt ra
Ġaut o
b le
Ġbin nen
e el
Ġoer e
rÃ» ne
Ġbes met
Ġk an
Ġb oar
ĠH ar
Ġkri je
5 1
d iel
ra ach
Ġ ra
f ier
r an
ĠM ei
ĠA s
Ġoar s
Ã «
Ġw Ãªr
7 3
a c
w ol
Ġfer h
s els
Ġj ild
w er
te m
Ġn ij
ear re
6 4
Ġm ensen
ts en
Ġfertel t
Ġz o
Ġbed riuw
j u
ul t
Ġbek end
Ã» ten
7 2
le ar
0 8
Ġe cht
Ġl Ã¢n
Ġl eit
1 3
j Ã»n
9 3
r am
g et
Ġm is
Ãª rom
w ar
Ġe in
oar n
s l
u st
Ġk rekt
u k
s it
Ġkom m
ge m
Ġfu ort
Ġn at
H et
in ten
ĠS a
Ġste an
b y
6 5
Ġ uit
ĠÃ´f rÃ»ne
o d
p l
Ġhe el
4 1
k l
Ġsne on
9 2
Ġcoron a
st Ã¢n
Ġe uro
Ġkun nen
Ġg en
ei de
Ġd ien
ro k
Ġbes l
0 4
Ġk oe
ak en
Ġdoar p
1 2
Ġal s
j ier
Ġth Ãºs
ed en
Ġalle s
f ol
Ġd agen
Ġk w
Ġde i
Ġn aar
k el
Ġn u
ĠA n
ĠJ o
i id
ĠH et
te ar
ri e
Ġs w
er e
k oar
ĠJ an
ĠJ ong
Ġ Ã¢l
Ġdoch s
Ġ 2
8 1
it s
ĠS ch
amb uur
0 5
Ġmo ast
Ġ ap
Ġl Ãªste
Ġdo cht
w ei
m ei
Ġal tyd
Ġf olle
ĠS y
Ġp as
Ġf am
Ġw il
ys k
Ġom dat
Ġhiel e
Ġo ver
Ġt ak
ĠC ambuur
ĠÃ»nders yk
et te
Ġfer t
wenn ers
Ġk o
Ġl yts
re s
ĠÃº ts
al en
Ġfyn t
on d
5 9
5 7
Ã»n t
yl je
lij k
4 3
Ġt re
Ġme er
Ġsi ke
Ġd aar
e g
inn ich
Ġsit te
ru m
Ġpro ble
4 9
Ġwe st
Ġtw adde
ef t
u is
and ei
4 7
6 1
Ġsne in
5 3
Ġkri j
z oen
aasje s
Ġgew oan
Ġt in
f t
ĠN ei
i a
s ch
ĠN oar
Ġ af
Ġf rij
ĠS p
te ur
Ġte st
Ġn im
y t
Ġti cht
m el
ke ar
am er
gel yks
p t
Ġmei tsje
sit ter
r Ã¢ld
u d
ĠS k
8 9
g ers
p er
le at
Ġwi ken
us e
a ie
Ġf e
im ber
r et
Ġb oer
5 2
at ie
i c
je s
Ġfre ed
8 7
i on
oan s
Ġe ven
Ġst ik
Ġtak om
4 2
ri ge
Ġm y
ts jen
Ġjier ren
0 1
Ġdo el
Ġwedstri id
ĠF ries
an k
ge ar
D at
Ġm aatregels
Ġpart ij
Ġbesmet t
in en
Ġst uit
Ġg r
Ġb Ã»ten
ris is
Ġg ed
acht en
Ġf Ã»n
ĠS te
8 3
oans dei
Ġbr Ã»
en e
Ãºd lik
Ã ©
ong ers
ĠD an
Ġte r
Ġr jocht
Ġfan we
Ġby gelyks
Ġw itte
l ingen
Ġp ear
on ge
Ġp os
Ġn ed
wol s
ij d
uw en
er en
Ġlyk wols
ĠG G
Ġha st
Ġear st
6 9
8 2
b r
Ġf jouwer
Ġear der
ĠhÃ¢l de
Ġall innich
is s
Ġf Ãªst
Ġh Ã¢n
Ġp r
ĠhÃ¢l den
6 7
ĠW y
end al
Ġt ot
in d
Ġmo andei
Ġh ier
Ġmei e
jo en
Ġfer b
Ġbeg jin
uw e
nim mers
te jÃ»n
6 3
Ġsil le
Ġned ich
ot bal
Ġv eel
Ã´ ch
Ġg ie
0 9
et s
Ġw en
W y
Ġw as
is dei
Ġp o
gem aster
li t
Ġsoar ch
Ġ 5
h el
Ġbel ang
Ġf ak
e en
ĠOm rop
ge an
Ġdo or
Ġg aan
Ġkom men
f olle
Ġd Ãºdlik
is ter
s ma
ĠLjouw er
Ġfersk ate
ĠB o
Ġfro u
Ġ ad
Ġhe b
s s
u g
Ġm il
ma al
ach ter
Ġg u
6 2
ar k
Ġsei zoen
Ġw oansdei
as s
Ġon s
Ġde l
Ġfier der
Ġs tel
Ġkri jen
0 7
i ve
ĠS n
it ten
ge b
u z
stel ling
Ġs ch
Ġmei tsjen
f ers
en k
Ġfer w
Ġ an
Ġf le
oe ch
ok k
Ġw et
Ġm a
Ġhiel tyd
ongers dei
Ġ rom
s et
Ġre g
e e
ur d
Ġl etter
Ġpos it
ĠGG D
ru k
jier rige
Ġd re
0 3
Ġl an
Ġst r
ĠW aad
Ġkri gen
Ġh inne
Ġsp il
Ġ aksje
Ġs n
Ġw rÃ¢ld
Ġge ar
Ġwe er
u ten
b el
Ġcoron ak
Ġne at
un t
wi is
Ġk olle
ĠF an
Ġpl an
el en
Ã¢n s
Ġgro ep
' .<|
Ġs yk
Ġm om
f an
i Ã«
m o
Ġ ro
j itte
ra gen
Ġb l
ĠA r
ri ed
Ġle ar
Ġw ei
Ġjo ut
g ram
Ġm id
Ġdo gge
k ers
Ġfan sels
o st
ĠV ries
Ġti isdei
Ġskoal le
Ġm ed
Ġbe sk
Ġmoet en
Ġcoronak risis
ĠG e
ĠG r
ĠSn its
Ġb op
Ġdo en
Ġkl up
0 2
u te
Ġkomm ende
d i
Ġk ant
ak ke
Ġd rok
rek teur
Ġbest joer
Ġh iene
Ġkri ge
Ġl ok
Ġwur den
Ġgen Ã´ch
ĠR o
Ġbliuw e
use um
h ann
Ġri ed
Ġf al
Ġg aat
Ġfi if
g gen
c t
h a
k s
as te
ĠM aar
ĠT w
g ing
Ġe ins
, "
Ġt ongersdei
Ã» zen
Ġj ong
Ġf yts
l y
Ġad v
Ġl yn
Ġri s
Ġg el
ĠD us
oen e
aar d
Ġnat uer
Ġs ke
Ãº ts
Ġsjo en
Ġkom p
Ġfu otbal
im mer
f en
Ġp er
as jon
ĠÃº te
el f
ou d
Ġt oer
a as
m ing
t te
Ġd Ãªrom
ou den
of t
Ġh o
ro cht
w ik
Ġh Ã»s
Ġhe eft
Ġwaar den
ĠD racht
fal len
Ġpers oan
Ġd iel
Ġp ri
Ġsike hÃ»s
l ach
gram ma
ge arre
ĠÃ´f stÃ¢n
Ġfer oar
Ġbet sj
Ġst il
r in
Ġm yn
Ġb etter
Ġop l
ra ak
n s
Ġsk riuw
o on
li s
Ġts ien
Ġgemeen ten
Ġbliuw t
F rys
Ġ achter
ĠN o
Ġmak ket
Ġs jocht
Ġmo ai
ĠdÃªr nei
war is
Ġkont akt
u tsen
Ġf irus
Ġel k
ter n
Ġk amen
ik ers
ag ge
t ing
Ġg au
Ġj onge
Ġbetsj ut
Ġk ar
Ġsp ort
Ġs Ã»nt
as is
ĠH oe
Ġsi zze
Ġoant al
h eden
i sten
p ro
Ġek stra
i le
i ke
ĠE l
Ġwor dt
Ġfam ylje
Ġst ie
Ġsk ip
Ġef ter
Ġ Ã¢ld
le f
' <|
Ġhiel endal
Ġrek ke
ar d
Ġben ammen
ien en
t roch
Ġ 3
in oar
je kt
Ġts jer
g a
g je
g ro
an e
ĠB er
ru g
Ġge en
Ġdwaan de
n o
Ġd uor
Ġw ink
ĠA m
wur d
Ġsjo gge
Ġmil joen
s int
at yf
Ġwi cht
stel d
Ġbli ken
Ġbli id
d am
or g
ĠS C
ĠD Ãºts
Ġh oop
Ġw ij
st Ãªd
r ing
Ġh Ãºs
ĠW at
Ġr ei
an de
Ġyn f
ĠFrys k
Ġon der
l o
ien ing
Ġlyk as
Ġgoed e
icht ing
Frys lÃ¢n
un st
ĠT roch
c k
Ġg raach
ĠD oe
Ġp ar
il li
Ġby l
Ġ 4
Ġtra in
Ġboar gemaster
Ġfer p
Ġr Ã»n
Ġli bben
Ġsit u
Ġf ine
Ġh op
st joer
Ġp ra
Ġbli j
h o
Ġp ub
Ġfer line
iet en
Ġf eili
Ġs et
Ġyn t
Ġfoar sitter
Ġhel p
Ġwor den
Ġbesmett ingen
e ter
Ġp ak
ke ap
ar en
Ã» ne
Ġw in
Ġbe tel
is k
ĠLjouwer ter
Ġi de
Ġt ocht
ĠT h
Ġw a
Ġp e
Ġbe p
Ġef kes
Ġst ap
Ġboer en
ĠDracht en
h u
Ġw enn
Ġm eld
Ġh ear
Ġk amp
on t
Ġkom en
tsje s
es j
Ġlit ten
z zen
Ġk ab
Ġk lear
Ġge f
ĠK e
ach te
Ġm el
ri l
am me
ĠF er
Ġj aan
Ġorganis aasje
m p
Ġj aar
Ġde ze
an s
Ãº n
ĠK N
Ġcoron am
Ġso ene
ip e
p p
y zje
Ġs up
is j
Ġ1 9
Ġ 6
ĠG ro
Ġferh aal
Ġte lef
Ġplak ken
d de
ĠD it
e er
Ġb al
Ġh urd
Ġproble men
as se
Ġkrij t
or m
rie zen
Ġmin ister
Ġge v
Ġbop pe
i ers
id dei
heid s
u ma
sje s
ast en
Ġwil len
om men
ĠGr ins
i de
Ġw it
Ġlyts e
gel ok
j ild
Ġw oe
Ġk il
Ġ lik
Ġk Ã¢ns
ts te
op p
ĠbrÃ¢n wacht
f in
l et
li ed
un ten
l er
Ġre gel
ul ju
och s
Ġtre dde
Ġs immer
ĠI en
wurk ers
ĠNoar d
Ġw Ã»n
ĠNeder land
Ġlit te
in et
ĠB e
Ġsa ak
a a
et ysje
h ol
Ġli zze
Ġme e
j it
a v
h Ã¢ld
Ġj Ã»n
b ou
ken ien
b s
Ġf aak
le s
ĠJ e
w illi
Ġp re
Ġme aste
Ġalle gear
Ġdi rekteur
Ġtakom st
Ġoan p
Ġide e
Ġhe ech
os s
tem iddei
Ġ -
Ġ acht
in te
Ġhel e
joch te
Ġbesl Ãºt
e zje
Ġs Ã»nder
Ġk oar
Ġop n
ra af
Ġfi a
Ġkab inet
a ag
r yk
Ġwy l
Ġf raach
ch te
Ġk ult
al f
Ġp leat
gen s
ĠÃºte in
Ġb asis
ur g
Ġre st
Ġt af
Ġs Ã¢n
ĠDÃªr nei
Ġcoronam aatregels
Ġsp esj
Ġoer en
jin ten
ie s
Ġdre ech
s jen
w edstri
ar is
oar ek
Ġge fol
okk um
Ġf Ã»
Ġn acht
tem oarn
Ġtin kt
oor d
Ġsw ier
hann el
z j
Ġd ra
der en
en ing
ĠD okkum
om m
Ġfer k
Ġpl oech
hÃ¢l der
Ġfanwe ge
) .<|
er k
il m
a un
ar e
we st
wik kel
Ġ akt
Ġte am
Ġbe wenners
Ġdy k
Ġoar del
Ġlang er
Ġrom te
ts e
il le
m ar
Ġb eide
ear je
Ġmaar t
ĠW ol
ĠU n
Ġgu on
Ġs li
ĠD ochs
ri k
ĠE r
un d
Ġrek ken
ed s
Ġ1 5
mer k
sel de
Ġn aam
aar t
Ġsei s
Ġwedstri den
Ġpartij en
m on
r aksje
Ġs int
re g
Ġl Ã»
Ġsl acht
Ġpo lit
g t
t in
of fen
Ġz ien
Ġap ril
p el
ĠM insken
al l
ke in
m in
Ġb ys
Ġj il
Ġwi ze
eili g
Ġn amme
ĠF riezen
ĠÃ»n gelok
Ġ1 0
o o
p ers
Ġt we
Ġte l
j inne
l yk
Ġs m
on der
Ġb oek
Ġg ri
Ġtroch gean
Ġposit yf
A l
l ju
or ganis
ĠL e
Ġon ze
Ġke unst
Ġfro ulju
Ġm uz
Ġg ong
Ġbeg Ã»n
Ġk n
ĠD i
Ġ amb
Ġb rocht
Ġj un
jon ken
Ġwicht ich
st ann
ĠD ijk
ĠH e
kl up
Ġb ot
Ġh ad
Ġlik et
er d
Ġs ette
Ġel koar
ry p
Ġbedriuw en
Ġtot aal
Ġkolle ezje
Ġre s
Ġre gels
Ġm ijn
Ġh ol
oar en
Ġwurk je
Ġfol s
p ar
ing a
ĠE ar
Ġpro jekt
pl ak
Ġh oarek
Ġk oene
kom me
t al
ie k
ts jin
Ġfin an
Ġproble em
Ġb le
Ġk ij
Ġmo annen
ĠN et
gel ijk
Ġhel te
t re
Ġop rop
j ende
Ġd ruk
k ap
s um
ĠS Ãºd
Ġl os
Ġge z
oe ken
Ġst ud
Ġti ge
ĠhÃ¢l dt
Ã ¤
te ken
Ġi is
Ġwurk et
ĠHar ns
l og
Ġk op
Ġfin ale
an ten
Ġi ens
i li
Ġwyl st
am de
Ġl o
Ġr Ã»
Ġfanwe gen
ts jer
Ġhel le
Ġf ot
Ġst im
Ġ1 8
Ġel kenien
s es
ĠD Ãªrom
f re
Ġs el
Ġk le
Ġpl annen
Ġopl oss
Ġd ingen
Ġde s
ĠO f
Ġhe al
Ġnij s
Ġfrij willi
b ek
ei e
al iteit
Ġt och
Ġbe ste
ĠB oer
gro ep
reg io
b ed
on gen
is ch
Ġskoal len
oar ch
Ġpers int
Ġbys Ã»nder
Ġb us
ĠB uma
Ġbes ikers
och te
ron g
Ġslacht of
am e
Ġst ipe
ĠH enk
Ġse pt
Ġmak en
Ġsept imber
Ġ 25
st r
art ij
tear je
Ġgr Ã»n
D er
d o
oal s
ĠAl le
Ġfeili ch
Ġwur d
Ġfre ge
Ġkil om
f ear
i den
Ġt ink
ak ker
ĠB el
Ġwy kein
l och
Ġ ru
is je
uw er
ĠG er
Ġpro tte
Ġwink el
lied ing
an der
Ġ1 00
ĠD en
anne waris
Ġan dere
b re
b ier
Ġj annewaris
Ġon line
Ġop r
Ã¢n sje
ĠNederlÃ¢n ske
Ġbyl d
g ong
w inn
Ġst ad
Ġha ad
ocht en
hÃ¢l den
Ġsw im
k je
Ġs aken
c e
Ġfer st
ĠH o
ĠO er
I n
o et
is te
y p
Ġkin nen
rÃ» k
m id
Ġf ilm
Ġb ar
Ġfer kear
ĠP ro
Ġt op
as sen
Ġmin uten
Ġgeb iet
ĠbrÃ» kt
Ġpe tear
b ank
Ġnat uur
ĠFries land
Ġgefol gen
ing e
Ġst Ãªd
Ġsk oft
ster dam
Ġkont r
Ġ 24
ri t
joch ter
ĠÃ¢l de
l a
p unt
Ġyn s
Ãª ge
on iel
Ġpro gramma
Ġelk aar
d ag
n er
Ġs ter
ei l
Ġp res
am t
Ġv ol
Ġmo anne
Ġkl achten
Ġfe est
heids regio
Ġ 30
Ġbe he
ĠG raaf
ĠAm sterdam
h al
i alf
Ġz ich
Ġsitu aasje
Ġjun y
Ġw acht
Ġz ou
Ġra p
f ang
ri ef
kt or
Ġpub lyk
Ġf iel
Ġs inne
Ġs iet
Ġh eit
ear st
Ġj ul
aatre gel
Ġlear lingen
Ġhop et
t ich
Ġd u
ĠR ut
Ġper io
Ġf jir
Ġk r
ĠW ant
Ġle ech
di gen
ĠTh ialf
a it
h ear
Ġin oar
geb iet
d waan
at s
Ġbe f
Ġre ed
Ġsa folle
Ġme m
Ġt oe
li d
Ġof f
ĠÃ»nder wiis
k ker
o ber
Ġd en
le ech
Ġmei wurkers
ma at
Ġ2 00
ĠSp ort
Ġs am
Ġi eder
ol l
ĠM o
Ġz elf
ik s
Ġli ve
ig er
Ġsit ten
Ġon t
Ġsn el
i um
z er
Ġri de
Ġfersk il
h uis
st re
Ã» l
Ġbe w
ra ag
Ġman lju
Ġhoarek a
Ġkilom eter
Ã ¯
Ġn ie
Ġek sp
ĠV V
hu zen
ĠKe amer
jo ed
Ġfer g
kt ober
ant wurd
Ġmom int
' ,
Ġg o
Ġr inne
a den
Ġyn wenners
ge a
Ġpro d
iv iteit
ĠJo h
Ġnim me
Ġpr akt
u re
Ġin isj
ed at
on om
ys te
Ġmo cht
Ġfert ochte
Ġma aie
Ġ ar
Ġs j
Ġo ktober
Ġst ri
ken s
Ġfer d
Ġre aksje
Ġbel utsen
Ġgear wurk
m akke
Ġh ij
ĠF r
Ġmo o
ich te
Ġ1 4
Ġm useum
ĠD o
Ġfoar earst
ĠÃ»nder nimmers
aa zje
a ter
Ġmoast en
g jen
t ra
er m
Ġf joer
Ġs om
ers k
or d
Ġfin en
Ġfot o
w Ã¢l
Ġs ad
Ġh ouden
Ġal t
fer iening
ub s
D it
Ġby tsje
iss er
a ze
t jin
it en
ĠAl de
Ġreg io
k ing
ĠF ly
ap as
Ġgew oon
Ġferw achte
Ġfrijwilli gers
e in
Ġkon ten
Ġgean e
Ġferh alen
Ġt aal
oar d
Ġmo aie
Ġsoar gen
bed riuw
v oor
Ġd enk
ur en
on s
Ġfer n
ĠE uro
op en
st ik
ur s
ĠF N
ĠO an
Ġgeb ou
V M
w Ã¢ld
el ijk
st and
ik et
ĠC h
Ġman ier
Ġynt usken
k ien
u i
Ġ1 7
Ġsp ann
sk oal
bo d
es ke
Ġged achten
ĠTw adde
Ġt ijd
Ġr Ãªst
Ġoar en
M ar
Ġs ok
Ġs ane
le den
Ġp unten
Ã»n s
Ġso sj
Ġbegjin t
I VM
Ġs etten
Ġm aatregel
Ãª re
ĠF e
Ġge h
ĠV eilig
Ġjil dt
b es
d ok
v d
z oek
ins j
Ġalle gearre
Ġstean e
Ġpra at
winn ing
yk je
ĠdÃªr mei
Ġsp ile
Ġsup er
Ġmuz yk
ei den
ĠM in
ĠR IVM
c o
Ġw ar
Ġyn tern
li cht
ik ber
d ig
r offen
ri je
Ãª den
ĠF re
Ġmo gelijk
Ġsl agge
Ã© n
Ġferw Ã»ne
ĠEuro pe
Ġk re
Ġl Ãªst
ĠH oek
Ġmis kien
Ġbesl etten
ute arre
ĠSÃºd west
Ã¢ ne
Ġge fal
oe ke
rek ken
Ġdoarp s
Ġjong ere
ĠÃºtein lik
ĠFN P
Ġ1 3
Ġle af
" .<|
w etter
Ġn a
Ġop s
Ġsi fers
Ġgeb rÃ»k
Ġnim t
Ġfal t
Ġ ak
Ġb rief
ĠD aar
Ġge fallen
ĠAl s
eg je
Ġeven em
re aun
sp rong
Ġspil ers
Ġro l
b yl
Ġre den
Ġ1 2
ĠÃ´f sl
jouw ing
Ġgru tste
Ġ20 20
vd A
Ġw yn
ch n
st of
ge v
ru tsen
Ġsp or
Ġr int
Ġalle en
Ġtsjer ke
Ġbep aal
b aar
Ġ aard
Ġb u
ro uwen
ers te
Ġfer keap
ien skip
Ġ1 6
kom st
ĠSk yl
Ġdes imber
J e
k o
or ma
ĠA mel
Ġwer k
Ġtin ke
Ġgo eie
Ġalt ijd
Ġ 50
Ġf ragen
Ġp le
ĠF ier
ij ke
Ġkomp etysje
Ġfols lein
Ġjul y
p utearre
w ert
Ġd Ã»
ar je
Ġm aat
Ġt as
Ġfoar al
Ġst re
Ġse ach
Ġwi is
Ġri den
Ġsane amde
l ok
w en
in nen
ro e
ts k
Ġ20 19
ĠwÃª zen
ied en
Ġall inne
Ġspil et
ĠDijk stra
ĠRut te
p s
ro er
Ġbes ite
Ġsli m
Ã ¼
Ġh ing
Ġkij ken
Ġnatuur lijk
Ġh joed
ear jen
oor t
ĠDi zze
l an
Ġd rug
Ġi ets
Ġb i
ĠV isser
ĠP vdA
bel ang
wedstri id
j end
ĠS int
Ġoar loch
Ġmear dere
ĠÃ»nt st
br and
Ġskriuw t
t ocht
u lÃ¢n
Ġit en
Ġen er
ra f
ĠV er
Ġsp ylje
fier der
Ġmom ent
re in
Ġc ont
ĠJan sen
hel le
Ġhoop je
in ing
de ast
es ter
Ġperio ade
u li
Ġ un
Ġt ar
ĠS ne
ĠW ij
ĠT e
ig ing
kom sten
Ġadv ys
ĠSkyl ge
Ġb Ãªste
Ġv ers
Ġstud inten
ĠrÃ» te
Ġinisj atyf
b Ã»n
j Ã»
j ip
Ġ 8
Ġl Ãª
Ġge be
ĠB r
Ġfers p
Ġei lÃ¢n
hÃ¢l de
ug d
Ġske a
iviteit en
orma asje
l ende
ĠN ij
Ġoploss ing
a ur
in a
Ġb ou
Ġh un
Ġfer wacht
Ġgew eld
ry st
wer f
Ġbesk ikber
Ġsad at
i ken
s im
is tearje
Ġst joer
ĠK l
Ġbed oel
ĠbrÃ» ke
oll um
b ert
an je
asjon ale
ĠFr jen
m int
Ġl ei
Ġme ast
o at
u e
Ġte gen
Ġfer li
ĠW ille
Ġoer lis
iv al
koar t
Ġbestjoer der
ha ven
d ra
j a
k ar
Ġh Ã»nder
or en
Ġst art
Ġse in
Ġc amp
ek sje
Ġste eds
ĠfÃªst steld
Ġmed ia
V B
k aam
Ġ 7
Ġm Ã»l
Ġb art
ier en
oe p
ĠU t
Ġkult uer
ĠFrjen tsjer
A s
a ul
aat s
Ġ20 21
Ġgef aar
Ġieder een
Ġb arre
Ġn jo
Ġg asten
Ġte sten
Ġwur ke
Ġr jochter
ber e
Ġmak lik
ĠÃ»nt wikkel
Ġwet hÃ¢lder
Ġlan ge
u de
Ġs ubs
Ġyn d
uit en
Ġste k
Ġris ik
5 00
s jin
s ek
Ġh annen
Ġwe bs
Ġle s
Ġeigen er
Ġslachtof fer
a ke
Ġte chn
ĠB ro
Ġcoron ab
diel ing
Ġjongere in
ĠmÃ»l kap
on den
Ġz org
Ġhe ger
Ġpas jinten
n ing
w Ãª
al t
ĠB re
ĠV een
Ġkl asse
Ġke ap
Ġnim men
ĠKN VB
ĠUn der
Ġamb ulÃ¢n
ĠWille m
) ,
a y
r int
er lÃ¢n
ra st
Ġz itten
Ġle den
Ġbo at
Ġko sten
mel ling
yste em
r Ã»n
Ġfoar sprong
us ter
a zen
b li
Ġ 22
Ġm ij
Ġder foar
p or
Ġf raksje
Ġs Ã»n
am d
Ġst ichting
Ġsk Ã»
ag er
ve stÃªd
sch ap
Ġstel len
ct ie
urg um
i oen
Ġ ron
Ġd ok
er v
Ġyn set
le ver
or maal
ĠN at
Ġli ke
Ġhel pe
ac t
vestÃªd et
E r
Ġf ar
ĠF ran
ra ch
Ġkin st
ĠHoek stra
Ġw anne
at or
Ġop d
Ġwol ris
ou ten
Ġbelang rij
ĠfÃ» gels
! "<|
n is
Ġ 21
Ġb uor
ĠS m
ĠS melling
ra at
Ġle ver
bb e
au d
ĠZ w
nim me
ĠÃ¢l dere
D A
k und
n ers
Ġ rop
Ġk li
ĠB opp
ru kt
sk Ã´
ĠR e
ĠSte aten
Ġp racht
ok ker
Ġr el
Ġhel jen
kom en
Ġdoar ren
ĠVeilig heidsregio
vestÃªdet ocht
h Ã»zen
r jocht
an gen
Ġg ien
Ġl aten
sp ort
Ġbeg jinne
Ġsoar get
ist oar
Ġlok aasje
Ġpra te
Ġsubs yd
o ri
w aar
Ġd ak
an en
Ġs in
al is
Ġgemeente ried
Al s
a ge
n y
p artij
Ġ ag
Ġs u
Ġh ert
Ġmo t
es met
ĠdÃªr foar
ĠSt ichting
foar sitter
Ġkrij gen
Ġpri is
Ġgearwurk ing
Ġwar skÃ´
Y n
Ġn ammen
Ġg as
ĠB ru
Ġhel pen
Ġiepen bier
Ġpers oniel
Ġopn ij
k ip
n a
p ost
Ã» mer
ed e
ur ele
Ġfer antwurd
Ã´ le
Ġ1 1
ĠdÃªr fan
Ġbr Ãªge
Ġne ed
sj ele
Ġ5 00
Ġfak Ã¢nsje
Ġtrain er
bre waris
Ġster k
on en
ĠS yn
Ġbe h
Ġne a
Ġlan like
Ġmid den
Ġbedoel ing
Ġnjo ggen
Ġcoronab esmet
g oed
l Ãªst
t iid
Ġo ef
st ap
ĠB oar
ad iel
kom t
ĠDÃªr mei
Ġfe brewaris
Ġgu od
l oed
et en
Ġk ryst
om p
ĠA k
ĠÃ´f sp
Ġer g
ied e
Ġdoar pen
ĠNoar deast
Ġwenn ing
Ġsosj ale
Ġfoar m
Ã»n ders
ij l
ĠH ol
ĠB Ã»ten
ĠE aster
kom ste
Ġa ug
Ġjonge s
hol den
ĠBopp edat
w in
te st
ust us
Ġprakt yk
Ġaug ustus
b raak
z ig
Ġw ienen
Ãª ft
Ġoer heid
gel yk
ĠP ie
Ġmak sim
Ġber ne
Ġsoar gje
io ens
Ġblij ven
Ġfinan sjele
Ġfjir de
C L
p ark
s is
in ke
Ġm oarn
Ġl jocht
oe g
ĠL ee
ĠC DA
Ġien n
Ġri ge
Ġ20 18
Ġbest iet
Ġtelef yzje
Ġspesj ale
insj ale
in er
Ġt Ãºn
Ġp op
ij s
il der
ek er
ĠÃ¢l den
ĠÃºts p
Ġter m
ĠBer g
Ġwin ter
j ins
Ġb re
ing st
ĠH el
ĠdÃªr by
ĠLjouwer ters
Ġjong eren
Ġynf ormaasje
h of
r aken
je k
ĠS Ã»nt
Ġv ind
ĠH aag
Ġj u
Ġle uk
Ġfers oar
hannel ing
Ġener zj
Ġop p
Ġst ien
ĠÃºt fier
Ġcoron at
Ġje ugd
nim mer
Ġrjocht bank
Ġtelef oan
Ġwebs ide
D an
Ġde mon
al len
Ġt ro
Ġyn sp
Ġj ust
wenn er
Ġgef oel
tin ken
d agen
Ġf ear
Ġb oe
Ġt an
Ġfoar stel
Ġso an
kom men
bo uw
Ġwenn et
Ġrest aur
ĠEar der
c ent
i z
l ak
ĠB os
ĠO n
Ġsk oar
Ġdi g
os ter
ĠPro v
o ol
u cht
w oan
Ġd isk
Ġb ist
Ġbes ocht
str jitte
skoal le
a ai
b l
u ele
Ġf jild
Ġde selde
Ġh and
Ġno v
Ġse e
Ġnoch ris
Ġsl ag
Ġgro te
hÃ¢l ders
iss aris
Ġsam ar
Ġbu ert
o b
Ġst aan
Ġ1 94
Ġsk ied
ker ij
iv o
ram er
ĠAn ne
Ġferb Ã¢n
ĠAmel Ã¢n
y m
Ġkri sis
Ġalle maal
Ġfl agge
organis aasje
Ġdrug s
Ġsubsyd zje
Ġnov imber
b ad
Ġb isten
Ġh yn
or gen
Ġl aat
Ġfer fier
ĠB urgum
Ġso cht
u on
w n
z et
et je
ĠÃºt stjoer
Ġaan st
Ġaan tal
Ġel ke
Ġduor ret
Ġsint rum
Ġrisik o
c i
k eld
al ist
Ġt o
Ġt ol
Ġte gearre
ĠB en
Ã´ r
Ġli zzen
Ġpro mo
tsen ien
Ġfert ochten
lach jouwer
Ġk ap
le arre
Ġom tinken
Ġno dig
Ġek onom
Ġbes ykje
Ġko ste
ĠTw a
Ġferp leech
Ġdig it
g iet
Ġ 9
Ġm er
ke amer
us sen
ĠK ramer
Ġber op
ĠBoar gemaster
d ing
Ġk en
Ġk ie
Ġfoar s
Ġsjo ch
no ai
Ġaard ich
ĠLee uw
f Ã»
l ann
Ġfer rom
Ġst oar
ĠK an
ĠJ onge
Ġwurk jen
ĠAn t
sint rum
Ġtaf el
dok ter
ĠSmelling erlÃ¢n
b aan
b rocht
k ant
v ens
end en
Ġh ichte
Ġk u
Ġte ken
om en
ĠA cht
se e
Ġsl ach
Ġth uis
Ġra d
ĠbysÃ»nder e
Ġ 75
Ġf yf
Ġw oene
Ġte rug
ik t
Ġfre egje
bo uwen
Ġfak er
Ã¯ n
Ġf est
Ġs ieten
Ġw yk
ĠM CL
we g
Ġti tel
ve en
Ġgrut ter
Ġwen je
Ġstr jitte
Ġbelangrij k
! <|
f te
t lik
t iden
ri ch
Ġe as
Ġte Ã¤
ie m
ĠK ollum
um int
af ee
Ġorganis aasjes
stelling werf
Ġmel dt
u in
Ġe erste
Ã¢n sen
ĠM ear
ĠO ant
ĠÃ´f fal
Ġhe ge
ĠP l
int ich
Ġkin deren
Ġkw yt
Ġpr of
Ġbar de
M aar
k amp
t ingen
u rop
Ġ Ã©
ei j
Ġt ast
ers joch
ĠM useum
enn is
Ġeigen lijk
Ġmid del
Ġdiel nimmers
Ġbetel je
Ġkoar t
stann ich
ĠBÃ»ten post
k sje
n et
s y
Ġ 40
Ġs amen
Ġb aan
Ġg a
Ġge we
ĠT er
Ġfre get
Ġsoar ge
iv ers
Ġjo ech
ĠAn d
sch ien
Ġwink els
b in
Ġd yn
Ġm ienskip
al k
ke ma
Ġom jouwing
iel en
ĠT al
Ġhar t
ĠP C
Ġle st
ĠwrÃ¢ld bek
Ġklup s
Ġbetel le
iers ma
wÃ¢l de
ĠÃ´fsl etten
ĠambulÃ¢n se
. '<|
W ij
b oer
Ġ u
Ġ and
Ġh olle
ol o
ts ma
Ġpro sint
ĠSch outen
Ġres ult
Ġhol den
Ã»nders yk
O D
b ij
h oeke
Ġh u
Ġe er
Ġp ark
ĠS w
Ġfer f
Ġby inoar
Ġsk reaun
ĠÃ´f sk
Ġcoron apas
Ġhel je
del ijk
Ġkolle ga
Ġstri id
ioens kip
b oek
Ġf oel
Ġh earre
Ġyn st
ol og
ien ingen
Ġsp ul
Ġkl anten
ied ing
lij ke
Ġstik stof
Ġmaatregel en
f fe
g aan
Ġb ank
Ġfer tsjin
ĠH er
ĠW etter
Ġz ie
ap t
Ġsp it
kom m
Ġke at
oet bal
Ġcoronat iid
? "<|
m y
Ġf un
st ad
ear ret
Ġz it
ĠG ri
ĠP r
be eld
Ġber jocht
ink s
Ġbet ocht
Ġkw aliteit
Ġakt iviteiten
Ġhad den
kund ige
ar jen
Ġn ormaal
re gel
as e
Ġst aat
Ġwe et
ru tte
ant Ãª
sp e
ve ste
d ysje
h inne
m men
an den
el de
Ġk aart
ĠF C
Ġst Ã¢n
ĠR yks
ve el
Ġbr ingen
ĠNederlÃ¢n sk
Ġsneon tejÃ»n
res s
Ġgr eide
s in
Ġf is
Ġf ys
el le
Ġg er
Ġt Ã»zen
ur de
Ġkri t
Ġle a
sp elen
ĠDÃºts ke
Ġrei z
Ġhele maal
ĠLeeuw ar
Ġgewe est
v el
te ande
Ġd ag
Ġw is
st annen
Ġp unt
Ãª f
on k
Ġv log
Ġoan d
ĠhÃ»nder t
Ġopd racht
d a
k ken
Ġd Ãª
at ive
Ġh okker
Ġt en
on fer
Ġom he
Ġwi st
ac e
ĠSk ier
ĠPie ter
b je
g ri
i gen
v a
Ġde fin
Ġm on
Ġn Ã»mer
Ġit selde
ten s
Ġse ktor
Ġr Ãª
Ġme in
Ġle ger
Ġel ts
rÃ» te
ĠwÃªr troch
Ġap p
Ġbelang ryk
Ġwet en
N eder
k un
r yd
Ġw aren
Ġm ag
at te
at uer
Ġh ant
Ġl et
Ġv in
ru t
ĠdÃªr troch
ĠP aul
rij d
Ġprovinsje s
Ã« n
sl ach
Ġbyl den
Ġwin st
Ġmeld ing
Ġtwe intich
Ġwanne ar
jins teande
Ġrad io
S C
o ne
Ġde a
Ġst jer
ĠW ar
ĠW ie
Ġz al
ĠP iet
stra asje
Ġbo sk
ĠlÃ¢n bou
ĠÃºte ins
Ġpak te
wedstri den
Ġtwe e
Ġgri en
i zen
r ale
Ġh istoar
Ġp aad
li e
ie f
ra al
Ġst raf
ĠJ ac
Ġsp e
sp ro
Ġtoer isten
Ġnie uwe
ĠFly lÃ¢n
ĠEurope eske
Ġboe te
antÃª ne
m ier
Ġt yd
Ġt ran
Ġbe we
Ġl ast
Ġge k
ĠH a
ts jinsteande
im me
ĠL em
ĠT he
ĠR ot
Ġbr inge
be hear
Ġsl etten
inn er
Ġze ggen
Ġrjocht ing
Ġried s
ck do
ĠlÃ» d
K S
m Ã»n
r as
Ġh er
Ġk Ã¢nsen
Ġfoar by
ir k
Ġkl ap
Ġhim sels
ĠDÃªr by
ĠwÃªr by
Ġposit ive
Ġprod uk
Ġomhe ech
b urg
m ak
Ġ 23
Ġt oen
ri aal
Ġmei dwaan
ĠH aan
oed sel
Ġli j
eid ing
Ġmin Ãºt
Ġkun t
uor ren
Ġorganis earre
Ġrei s
Ġpak ken
Ġpleat s
Ġkontr Ã´le
por ters
Ġand ers
ĠW er
Ġwe g
ĠE urop
Ġli ed
ĠR yk
war te
Ġsom s
Ġfersp ried
Ġdefin it
ckdo wn
l Ãª
o ut
r ei
en en
Ġs en
ei zoen
ri den
Ġop set
ĠB rok
ĠV eer
ul len
Ġgru tsk
Ġbeg ryp
Ġel tsenien
Ġfam ke
Ġbesmett ings
Ġfle cht
ĠGrins lÃ¢n
Ġferst oarn
ĠVV D
Ġreaksje s
Ġcamp ing
c ke
k n
Ã ¶
Ġs le
at i
ĠD ie
ur t
ĠW a
ad skip
Ġoer winning
ma akt
ap en
Ġr yd
Ġgro epen
ly mp
eil annen
Ġmoo i
Ġferwachte t
Ġspann end
Ġienn ige
Ġskied nis
O p
b Ã¢n
b uro
h ink
Ġ art
Ġb Ãªst
ĠD am
Ġst iene
Ġj on
ĠM e
ĠW K
Ġle kker
ĠÃ»nder diel
joer n
Ġfest ival
c a
f jild
j itten
Ġm ate
Ġh uis
ur n
jo ne
Ġal tern
Ġwe ek
jouw e
ul d
wur ker
Ġsoar te
Ġze ker
Ġfl ink
Ġsyk je
ĠDÃºts ers
ĠFer line
Ġpleat st
Ġkonten ers
wÃª z
Ġt rek
Ġt ank
Ġe ens
Ġv irus
ra p
Ġnei st
ĠK ro
Ġmin istearje
ĠwÃª rom
Ġbel ied
Ġkw ets
ĠJo uwer
isch e
byl d
Ġnammen tlik
Ġterm yn
ivers iteit
a ien
Ġ at
Ġte ste
as ters
ur ing
Ġbe etje
Ġoer li
Ġhe ale
ĠP ost
Ġkear en
Ġpas s
ĠDÃºts lÃ¢n
Ġynf loed
ĠDÃªrnei st
Ġpolit yk
Ġmot or
jek ten
d els
j aan
Ġe chte
Ġop tre
ur k
Ġno ait
Ġhaw wen
ĠC ar
ĠC olle
be an
Ġbo adskip
ĠBo ys
Ġsitu atie
Ġlo ckdown
ĠFier der
Ġoef en
Ġcoronapas jinten
Ġhant haven
te am
Ġh ann
Ġg aten
al iÃ«
ol en
is me
Ġoan hÃ¢lden
Ġmo ei
Ġfer let
ĠW iersma
id int
Ġre in
ich ter
Ġsp oar
Ġle ven
Ġhoe folle
Ġsi ik
koar ten
Ġoprop pen
Ġsel eksje
fear t
voor beeld
a ut
g re
j us
Ġ 27
te re
Ġf Ãªste
Ġb ak
Ġn ommen
Ġfer digen
ĠG uon
Ġear dere
be stjoer
Ġta gelyk
ĠAl vestÃªdetocht
Ġtre in
ion ale
Ġfal le
kar spelen
Ġku ier
o it
v al
Ġ 28
Ġg ar
ro om
ra ke
Ġfer iening
ĠH of
ĠB akker
Ġsi cht
stel lingen
bo ok
Ġef fe
wer p
Ġkar antÃªne
tse ach
organis aasjes
Ġ 60
Ġn ivo
Ġop en
ĠN ie
ste at
Ġsl ot
Ġsi zzen
Ġne g
Ġgro ot
Ġaf stand
Ġfle an
Ġwurd fierder
Ġstad ion
Ġferd w
Ġkoste t
ĠAcht karspelen
ace book
ĠSkier mÃ»n
o v
t a
z elf
Ġ ele
er n
Ġs er
Ġw itten
Ġo u
Ġoan holden
Ġge ven
ĠH ans
ĠN e
Ġwe in
Ġre a
ag ue
Ġkl ok
oen en
Ġke er
uk ses
ĠFries e
Ġged aan
Ġpr aten
okk ich
ĠWaad eilannen
Ġmid dei
Ġskip pen
ĠsÃ»n ens
ĠÃ© Ã©n
ĠSkiermÃ»n tseach
d Ã»
f ak
k ri
u o
v an
der ing
Ġder op
Ġoan lieding
ĠB oals
ad ium
Ġien e
Ġtsjin st
Ġstik ken
Ġlok ale
hann ele
Ġkamp ioen
Ġferantwurd lik
Ġ ant
Ġde putearre
Ġb ru
at ten
Ġn jonken
Ġg oal
le ine
Ġbe teken
Ġl and
ĠM ul
ĠL el
ĠG ord
Ġsp rake
Ġli et
ĠR en
stra f
Ġfol gje
jer k
Ġbliuw en
Ġtel Ã¢ne
t wurd
u inen
z ing
Ġt ent
Ġen t
ge ven
Ġbe am
ĠM an
ĠN oord
ĠL a
Ġwer ken
ĠMar ren
34 2
os ysje
Ġbet iid
wei s
Ġleaf st
onfer insje
E n
in der
Ġs ukses
Ġk amer
is e
ĠI epen
Ġmo a
ĠB l
gel d
ĠK ening
ĠT sj
oek sen
Ġben aud
Ġmooglik heden
kel ijk
ĠGro u
Ġstre ek
0 58
b eid
l je
w et
Ġf eit
Ġw ed
Ġm erk
Ġg ere
Ġyn veste
ĠF acebook
ĠA ris
ĠA pp
un ning
Ġdo et
tel d
Ġhoe ge
ĠAl d
ĠDÃªr troch
Ġbij voorbeeld
ĠWaad hoeke
Ġwa ter
Ġkr Ãªft
Ġsok s
ja x
ĠVeer man
q u
u le
u ke
u ze
Ġd rie
Ġte k
ĠS ur
Ġfer ler
us je
35 0
ann ing
Ġfol get
Ġfol gjen
ĠWe st
Ġmoog like
Ġap par
Ġbesmett ing
Ġakt yf
Ġble ss
Ġfiel t
ĠskÃ» tsje
Ġspit ich
h er
r ass
u otbal
Ġ 0
Ġ am
Ġd rÃ»
Ġk aar
ĠD O
Ġl oft
Ġfer lear
Ġz oals
ĠL an
Ġre gear
es s
ĠT s
Ġhear t
Ġspesj aal
dra ge
Ġenerzj y
lann ers
Ġ 80
Ġm ins
Ġb oeken
el t
on de
Ġfoar komme
Ġal ve
ĠH am
ts jinne
ĠN K
ĠN jonken
im ming
Ġz orgen
ĠR ied
Ġne men
Ġfol g
rek ke
Ġmis schien
Ġpersoan en
l end
p ij
en L
le g
Ġfoar dat
ĠF or
Ġoan belang
oe gen
ĠM Ã¼
Ġsp yl
sje el
Ġti den
be ste
Ġoant roffen
Ġver wacht
Ġtri tich
uor re
Ġlan lik
ĠFan we
Ġpar sek
Ġtol ve
l ag
n ie
el der
re cht
ge fallen
Ġv oetbal
Ġoan wÃªz
Ġoer al
Ġc o
Ġmoat ten
ik ke
Ġwaar m
ĠC or
98 5
ĠIn gel
ĠSy brand
Ġsike hÃ»zen
Ġfreed tejÃ»n
Ġlok aasjes
ĠWol ve
Ġwacht sje
Ġmocht en
Ġbepaal de
Ġvers ch
ĠKl aas
ĠmÃ»lkap ke
woan wei
Ġlest ich
ĠLeeuwar den
ĠEurop a
Ġferler n
h ren
p o
u kt
u eel
Ġ 26
Ġ jouwe
Ġin keld
re gels
Ġbe gel
ĠF a
ĠI s
Ġoan jÃ»n
Ġsp ons
oor n
Ġhoe cht
Ġne amt
uer e
Ġkoar te
ĠfÃ» gel
Ġevenem int
Ġvin den
Ġparsek onferinsje
d yk
u ch
v ers
Ġ 31
Ġs h
ed if
ne ma
ol len
jo ers
Ġoan f
ĠA jax
aan ske
ĠK omm
ĠJ a
ik a
95 4
ĠAl l
fer li
Ġel tse
Ġan der
Ġtsjer ken
Ġswier e
Ġferk ocht
Ġble au
Ġyntern asjonale
ĠÃ¢ldere in
D Ãªr
l yn
l oop
p le
v eld
Ġb uiten
Ġe ach
ij f
ear de
ĠE ast
ĠÃ»n w
Ġc l
Ġtroch s
Ġli st
96 9
36 0
Ġkon k
Ġpart oer
diel d
iid s
Ġstel t
Ġoanp ak
Ġru im
Ġkontr akt
ĠJoh n
ĠBoals ert
Ġoanbelang et
ĠMÃ¼ hren
1 94
W at
g ra
n el
an ken
ar s
Ġf r
Ġh earren
ch ter
Ġk afee
Ġg raag
Ġbe stri
ĠH jir
ĠB ij
ĠN O
Ġha ven
ĠO ran
Ġr y
95 3
98 6
ĠZ oe
man s
Ġkont ro
Ġra pp
Ġgewoan wei
ĠFly ers
ĠFe an
ĠBro uwer
Ġron de
Ġmaksim aal
2 00
g ar
p ak
v ol
Ġ ch
Ġf racht
Ġs im
Ġn oar
yn t
Ġt roffen
ri d
it ter
Ġmo asje
gel open
Ġr in
Ġpro ef
Ġbes li
35 5
diel e
wer k
Ġdoel punt
Ġter rein
endal iks
Ġheb t
Ġstr ang
iÃ« n
Ġbesk erm
Ġbeste an
Ġrop t
ĠwrÃ¢ldbek er
Neder lÃ¢n
7 00
te in
ro uw
Ġte koart
as ke
Ã»n en
Ġbe ter
ĠM SC
ĠE en
es k
Ġsk jin
kt yf
25 0
ĠC O
98 0
96 8
ep er
Ġkult urele
Ġswim bad
mid del
Ġfjoer wurk
Ġferwacht ing
fÃ» gels
ĠLem mer
ĠGord yk
b id
k ie
m oed
p ort
p unten
z el
Ġm aan
Ġo ers
Ġh ienen
Ġop sje
ing t
ol f
or te
Ġge s
ĠA Z
Ġse ch
we ach
ik er
Ġbes ch
ong er
35 9
95 0
95 6
95 7
98 4
98 8
38 1
Ã»s j
Ġver d
Ġke ats
ĠSch ult
ond s
eg jen
ic o
Ġferoar e
Ġsup porters
ĠLe ague
Ġbew ust
ĠEaster wÃ¢lde
b os
g ings
l ers
p stra
Ġh Ã¢ld
Ġk ro
Ġek s
we in
ĠC it
95 9
98 2
96 2
96 5
96 7
ber g
au ffe
Ġtest s
Ġstel d
Ġpar kear
Ġmel de
Ġevenem inten
roe gen
Ġcoronabesmet tingen
Ġser ie
ĠWolve gea
ĠSchult ing
3 00
j il
Ãº zje
ĠW ester
Ġre d
ĠG rutte
20 2
ĠÃ»nder fin
35 1
95 1
98 7
96 1
Ġhel pt
99 7
Ġferb etter
Ġreed ryd
Ġmaat skip
ĠColle ge
f Ã¢ld
g d
m useum
n aam
o ot
Ġs ysteem
Ġp ap
ĠW il
ĠW ad
Ġwol kom
ĠÃ»n ts
ĠL and
Ġear edif
35 8
98 9
91 0
91 9
90 9
oer e
og lik
Ġri t
Ġ20 17
ĠZ e
ry pt
ĠJo ad
Ġtaf ersjoch
ĠOran je
D OD
f raksje
u id
Ġ 70
Ġd ri
Ġde b
Ġyn ienen
ĠS ander
ĠF ro
Ġl annen
Ġal len
Ġst u
ĠL DOD
Ġsk er
ĠC o
34 5
98 1
91 4
91 8
Ġkon s
Ġkon st
Ġdoch ter
Ġfuort endaliks
use a
Ġeven t
Ġadv ok
hu izen
Ġpracht ich
ĠKan ade
Ġent Ã»sj
Ġwed st
ĠLDOD K
f l
h Ãºs
l annen
t r
w at
Ġm ist
Ġk of
je fte
al s
Ġop sk
li er
Ġv rij
ĠT uinen
Ġli d
ut ing
Ġle ge
21 1
aal d
35 3
95 8
96 3
96 4
36 1
stra at
99 9
Ġbed rach
39 2
ab ryk
Ġrek Ã´r
Ġoars aak
Ġbop p
Ġtel oar
Ġslachtof fers
Ġbef rij
ĠProv insjale
ĠteÃ¤ ter
ĠWetter skip
Ġoptre den
2 75
9 66
E en
e gen
f orm
Ġ ast
end s
Ġf isk
Ġb Ã»
et ting
ĠS els
Ġbe zig
Ġz ullen
ĠL i
op pen
ich oan
ĠR oel
21 4
35 6
95 5
38 0
38 4
91 1
91 3
91 5
71 9
74 1
90 7
96 0
Ġsl ute
Ġgro ei
diel en
kl asse
Ġgewoan e
Ġsyk jen
ĠBel g
stik ke
Ġslag get
1 00
8 00
f le
o ten
t usken
in de
Ġb Ã»n
Ġb ard
Ġn oard
Ġg iene
ĠD rin
Ġst asjon
me ter
ĠL ang
Ġsk rast
20 3
ap p
21 2
Ġts jÃ»
25 2
ĠMar tin
35 4
35 7
28 2
95 2
98 3
91 6
91 7
71 4
78 0
90 2
90 3
90 4
90 5
36 9
ver en
39 3
ling e
Ġaut om
lij n
Ġsch ool
Ġma akt
Ġsyk te
Ġtrain ing
Ġmeld ingen
isj ele
Ġhing et
ĠBen ammen
hink lik
0 66
0 14
1 75
1 58
2 94
3 75
4 24
4 75
5 75
5 31
6 00
6 58
8 31
8 66
8 14
8 54
8 44
b log
o eld
u c
Ġ 29
en stra
re en
ke m
am a
Ġder fan
Ġfer fol
Ġst yp
ĠÃºt w
Ġc on
20 9
Ġoar der
21 7
21 8
25 5
30 6
28 8
34 0
34 1
34 3
34 7
38 2
38 5
91 2
71 1
71 3
71 5
71 6
78 1
78 2
78 4
78 5
74 4
70 3
90 1
90 6
36 3
36 8
76 0
76 1
76 2
76 4
ort tra
wur ke
37 7
37 9
Ġke azen
gem asters
Ġho tel
Ġfols leine
ĠDo uwe
Ġsuper merk
ĠPr ins
ĠMul der
Ġgere geld
ĠFa ber
Ġry dt
0 24
0 94
0 75
0 31
0 18
0 54
0 44
0 88
1 24
1 31
1 66
1 18
1 14
1 54
2 24
2 31
2 66
3 24
3 94
3 31
3 66
4 94
4 31
4 66
4 18
4 14
4 58
4 54
4 88
5 24
5 94
5 66
5 18
5 14
5 58
5 54
6 24
6 94
6 75
6 31
6 18
6 14
6 54
6 44
6 88
7 24
7 94
7 75
7 31
7 66
8 24
8 94
8 75
8 18
8 58
9 24
9 94
9 75
9 31
D y
f yts
Ġd jip
of lik
ar te
Ġs iket
Ġm usea
Ġk ennis
Ġg ast
Ġfan t
ro ep
Ġe xt
Ġp aar
ĠDe putearre
ĠM ich
Ã´ ge
Ġz iet
ĠdÃªr yn
20 1
20 4
20 5
20 6
20 7
20 8
ik op
21 0
21 3
21 5
21 6
21 9
25 1
25 3
25 4
25 6
25 7
25 8
25 9
30 1
30 2
30 3
30 4
30 5
30 7
30 8
30 9
35 2
28 0
28 1
28 3
28 4
28 5
28 6
28 7
28 9
34 4
34 6
34 8
34 9
38 3
38 6
38 7
38 8
38 9
71 0
71 2
71 7
71 8
78 3
78 6
78 7
78 8
78 9
74 0
74 2
74 3
74 5
74 6
74 7
74 8
74 9
70 1
70 2
70 4
70 5
70 6
70 7
70 8
70 9
90 8
26 0
26 1
26 2
26 3
26 4
26 5
26 7
26 8
26 9
36 2
36 4
36 5
36 7
76 3
76 5
76 7
76 8
76 9
ig je
em and
37 2
37 3
Ġne amd
Ġfre onen
39 7
Ġver der
ĠZ o
ĠÃ»nders ocht
leat s
Ġsn ap
ĠGe ert
ĠGe woanwei
Ġdrok te
Ġske at
Ġduor je
Ġfinan sjeel
sy ch
Ġbeteken t
4 00
g ien
l ang
al d
al je
Ġyn te
Ġyn stÃ¢n
Ġe agen
Ġop er
ol k
on ker
ĠS l
ĠF ort
ij den
Ġoan fal
Ġfer nim
ĠB ou
ĠB alk
Ġby drage
Ġse k
Ġli ch
ĠR oe
int rum
99 3
Ġter jochte
ĠRo bert
Ġwicht ige
ĠhÃºs dokter
isje el
Ġcont act
Ġdefinit yf
enL inks
a z
b us
g ie
k w
te it
ar a
Ġyn gong
ĠS iet
ĠS KS
Ġbe ammen
Ġv oel
Ġoer lÃªst
Ġwe ken
ĠJ or
Ġli bb
ĠP ier
men t
Ġvoor al
jocht en
99 2
ĠOm dat
Ġstr Ã¢n
Ġgear komste
ĠAr jen
pro gramma
Ġpre mier
Ġoff isjele
ĠSport klup
Ġfern iel
ĠSne on
kun digen
1 50
m eld
Ġf it
et al
Ġe a
ol der
ak k
Ġmei d
ĠF ers
Ġst uk
Ġj a
ĠB art
Ġkom st
ĠO ft
ĠK ok
Ġsa fier
Ġsp elen
Ġle ef
ĠÃ»nder hÃ¢ld
ĠÃ»nder dÃ»
Ġbed rij
Ġmooglik heid
Ġkomm issaris
Ġsike huzen
Ġheech ste
fre den
ĠrÃªst ich
ĠMin ister
Ġhart stikke
Ġtent oan
ĠoanwÃªz ich
k te
r eide
s u
y en
z jen
Ġs c
Ġk ran
Ġk ening
st ien
al if
li zze
Ġoan sp
Ġoan fre
Ġge bouwen
ĠN oor
ĠÃ»n bek
op ro
Ġdi rekt
Ġsl Ãºt
Ġsl uten
Ġbeg ri
ĠDÃªr foar
Ġfol ge
Ġplak je
Ġzo veel
rok ken
mei tsje
Ġko st
Ġdre ge
ha w
Ġgel yk
Ġferskil lende
ĠCh ri
Ġele kt
Ġearedif yzje
S B
j iers
Ġ &
er de
Ġm Ãªd
Ġyn wenner
Ġe m
Ġp ast
Ġp od
is se
ĠB eide
jin t
ĠP oep
se in
fe st
Ġfol dwaan
Ġbest joers
Ġein ige
ĠSp elen
ĠSte ate
Ġpo adium
geb ieten
Ġfal len
tsjin sten
wetter steat
ĠBerg sma
Ġdisk usje
Ġstoar m
1 10
9 00
c ast
f insje
i us
r ingen
s ters
ar io
Ġk ocht
Ġyn komsten
li kens
ter dam
or p
ĠS ij
ĠS ven
ij en
Ġfer rass
ien ings
ĠE K
ĠK rekt
Ġsa wol
ĠJ er
Ġhar d
Ġle eft
Ġniet s
ink el
27 2
Ġver h
yts jerk
Ġgeb ieten
ub ile
ĠlÃ¢n s
Ġaf gelopen
ĠbÃ»ten lÃ¢n
br Ãªge
Ġpersoan lik
Ġhear d
Ġkamp ioenskip
Ġmel den
Ġopn aam
tal len
Ġnie uw
Ġops m
ĠRyks wettersteat
ĠRot terdam
ĠPoep jes
ubile um
0 50
5 50
5 10
S V
f yzje
g rÃ»n
t end
v ing
Ġ 35
Ġm en
Ġh ou
ch e
Ġg eld
re au
li eder
Ġl og
ĠA d
un a
ĠK on
ma cht
Ġdo s
Ġbes iket
Ġsneon temiddei
ĠNei st
ĠNoar den
Ġfe e
Ġfak sin
Ġpri ma
Ġjil de
ĠHe eren
Ġoff isjeel
ĠJoh an
co ach
Ġhann el
ĠDO K
ikop ter
0 60
1 56
4 56
4 80
4 60
8 10
n jonken
p an
t je
v o
w ers
Ġf rije
Ġi emand
Ġm uo
Ġb ang
Ġh al
Ġg ra
Ġt ag
Ġp sych
Ġop fang
li chte
ak s
Ġder by
Ġoan sl
Ġfer ne
Ġno oit
ear ika
Ġj ubileum
ĠM id
ĠÃºt braak
ĠO lymp
Ġre ek
Ġhe m
ĠV oor
ven t
22 9
Ġste at
Ġbed oeld
23 3
wurk je
ĠU tre
ĠÃºts lach
ĠbrÃ» ken
Ġreg uli
Ġkamp anje
ĠjÃ»n s
Ġpolit ike
Ġmoo ie
Ġsom tiden
Ġpop ul
Ġdemon straasje
jone el
ĠWad den
Ġext ra
0 16
0 10
0 56
0 40
0 80
1 16
4 50
4 16
4 10
5 16
5 56
6 50
6 16
6 10
6 56
6 40
6 80
8 50
8 16
8 56
8 40
8 60
l ings
r assen
Ġ y
en ten
Ġw r
Ġh an
Ġop t
li ch
ak el
Ġv ert
Ġge maakt
Ġmo gen
ĠK ar
ĠÃ´f stannen
Ġtroch giet
Ġpro t
jouw ers
22 2
22 3
22 7
Ġkon kl
27 3
27 7
27 9
29 2
29 3
29 7
23 2
Ġbo aten
Ġwetter skip
Ġtin ken
Ġplan ten
di rekteur
Ġho ut
Ġopr Ã»n
Ġstad ichoan
ĠÃ»ntst ien
ĠTe am
Ġferspried ing
Ġfant ast
ĠUtre cht
A n
V V
d y
e uw
o dei
s h
z ingen
Ġd ro
in c
an ts
Ġin tens
is h
jo ert
Ġst rukt
ĠM et
ad s
ĠN ije
Ġse agen
Ġgrutte re
Ġgeb ru
Ġbek ende
Ġaksje s
Ġbl yk
fin ale
Ġsok ke
Ġgeh ad
ĠlÃª zen
Ġopp akt
Ġhu zen
stad ion
Ġserie us
c es
d ruk
w ijk
Ġd iene
Ġb ur
Ġb ele
ei s
yn f
Ġg ele
Ġp at
ĠS tel
Ġst Ãªden
il en
ĠO r
ĠK n
ĠP at
ĠÃ»nder weis
jer ke
Ġfl inke
Ġkan s
ĠHar ry
Ġra di
Ġwet hÃ¢lders
Ġreg ionale
Ġlear e
Ġ3 00
apas iteit
Ġoand acht
Ġspyl jen
ĠJohn ny
Ġrapp ort
ĠJoad ske
b i
s aak
ar ret
Ġdat um
Ġte folle
Ġbe ker
Ġv ak
Ġv ragen
ĠB ra
ĠA be
ĠA nema
ĠK ne
ĠÃ´f dieling
ik aasje
ĠP eter
Ġso enen
Ġ20 16
Ġall er
ster lÃ¢n
Ġbedriuw s
Ġkw art
Ġsnein temiddei
ic k
hel je
ĠRo o
Ġblij ft
Ġregel ing
ĠNederland se
Ġferk lear
oo i
klup s
ili e
dag ing
Ġden ken
Ġlive blog
ĠÃ´fsp raken
ĠÃºtstjoer ing
Ġekonom y
Ġruim te
b jen
o te
u lear
v irus
Ġ 90
Ġs al
at on
at ion
ei te
Ġop kn
Ġte m
or ts
Ġbe hear
Ġal gem
Ġst room
ĠM a
ĠW al
ĠW yl
ĠN A
un en
op fang
ĠV l
ant ie
ul jus
oer noai
Ã»nder wiis
Ġfi de
Ġzo dat
Ġkomm un
ind a
bel ied
Ġkar bid
inte arre
Ġkle an
Ġbeste ande
Ġdu id
Ġbepaal d
ĠSne in
ĠmÃ»lkap kes
ati ven
jil den
N S
h an
p ri
t ings
â Ģ
te arre
Ġs yl
Ġb ier
ei m
st aan
Ġt r
ri va
on ne
ie p
Ġge sp
ĠH iel
Ġwol f
ĠÃºt st
Ġcoron ap
yl s
be he
fer oar
ĠlÃ¢n skip
Ġkomm isje
Ġgen oeg
Ġwen ne
Ġfle ant
Ġho og
ĠhÃºs hÃ¢ld
Ġhop en
ho ven
Ġbus sen
Ġferg unning
ure el
Ġles sen
Ġtran s
Ġlied ing
Ġmate riaal
Ġfolg jende
ĠDrin te
ĠHeeren veen
i ter
p etysje
w aasje
z org
Ġ Ã©n
ch el
Ġn asjonale
Ġk apasiteit
Ġte freden
ĠF l
Ġl oop
Ġge eft
ĠH yl
Ġsk ot
Ġvan d
ĠP op
ĠMar k
Ġmak ken
bb el
Ġri j
mer ken
Ġa bs
ite in
Ġfier e
Ġfertel le
Ġboar gemasters
aie m
fan ge
ĠAr riva
Ġwin nen
pers oniel
ĠÃºtsp raak
ĠÃºteins et
Ġtyd lik
Ġwitten skip
Ġversch il
ĠÃ»nderfin ing
M ei
m akker
z o
Ġd joer
Ġs leat
Ġm es
Ġb ren
Ġt ussen
Ġyn ter
Ġp il
Ġp akt
as ket
or s
uw ers
ĠM el
Ġse ks
Ġz ouden
Ġz iek
op pe
ĠK lein
ĠT a
ĠÃ´f wacht
Ġsp its
um er
Ġkri min
sp il
ĠHar kem
pl an
ĠGe meen
asjon aal
Ġres erv
ĠMin istearje
ĠÃ»ntst ie
ĠVeen stra
Ġmoarn s
Ġdigit aal
stannich heden
ĠHof stra
Ġsh orttra
0 86
b u
l Ã»
w ier
Ġb oud
re d
am mer
ĠW im
ĠL etter
Ġsk ilder
Ġwer d
ĠV ol
Ġli gt
Ġle in
Ġwi sten
ip pen
Ġhel let
ver e
fe est
joer d
Ġ20 15
Ġke eper
Ġiepen e
Ġbo uwen
ade my
wi ke
atie s
ĠGG Z
br Ã¢n
Ġskriuw e
ĠAm earika
plak ken
Ġpres int
Ġfiel e
ĠÃ»ntwikkel ing
ĠNat uur
Ġlast ig
fak Ã¢nsje
Ġappar tem
opro gramma
0 46
0 48
6 46
6 48
6 86
8 46
8 48
S e
V oor
b ar
b Ã´ge
e es
k ele
m ond
ri ders
Ġp an
ne mers
or k
Ġl ucht
us ma
ĠB il
Ġz etten
ĠG o
ĠG al
Ġpro ses
and id
Ġdi fyzje
Ġne eds
stel len
Ġbel i
33 2
33 3
ab el
Ġfier en
Ġben e
Ġmil je
Ġferp lichte
ĠGro ot
Ġhol pen
ĠFre ed
Ġges icht
g o
h ou
i is
k jen
n ame
Ġk ust
st it
li st
ak ten
Ġbe hanneling
Ġv raag
Ġas s
Ġc ar
Ġ1 50
Ġtroch dat
ert ier
ek ken
Ġdi cht
Ġbr ingt
be wiis
Ġei lannen
fal t
Ġth Ãº
iv id
Ġrek re
Ġbij z
Ġtra inen
Ġkw am
Ġfyts en
Ġkomp le
Ġsm yt
Ġpres intearre
Ġwacht sjen
Ġkli maat
Ġkli Ã¯n
Ġiepenbier e
Ġhistoar yske
kri ten
Ġkonk ur
Ġkro ech
Ġreguli ere
odei boek
D C
M insken
s oarch
in ken
Ġk we
Ġt on
Ġop f
cht en
Ġbe hannele
Ġom kriten
oe pel
ĠO oster
Ġli l
Ġvan uit
ber n
Ġbeg rut
Ġbeg rypt
ĠFoar sitter
ust r
gear komste
ĠBo o
Ġadv is
ĠEl s
Ġstap pen
Ġgri f
Ġkeunst ner
hal ve
ĠSm it
ĠÃ´fsk ied
Ġbewe ging
Ġrea gear
ĠIepen bier
Ġbesli ss
Ġradi oprogramma
asket bal
ĠHarkem ase
b oar
b ele
b rutsen
d s
Ġw ier
ri g
it ie
Ġoan jefte
Ġge sk
Ġst ip
us s
ĠW Ãªr
ĠW ijn
ĠW oansdei
Ġse ker
Ġz om
ĠL enstra
ĠK u
ĠP as
ĠYn tusken
mer e
Ġtsjin stann
Ġste e
Ġfre on
Ġprov insjale
Ġfert rouwen
Ġtiisdei tejÃ»n
Ġtoer noai
Ġtoer isme
Ġkil o
Ġoanp ast
Ġferk ie
Ġgez ien
ĠHo og
Ġdu el
Ġferli es
ĠskÃ» tsjes
ĠFran k
ĠAk k
Ġrestaur ant
ĠOn der
Ġeer st
Ġten ei
ĠDam wÃ¢ld
Ġeffe kt
Ġmoa iste
Ġam ate
ĠJer oen
H y
a der
b en
f ro
g ed
k an
p pen
en te
Ġd riuw
Ġd ragen
Ġb oel
st asjon
Ġfan Ãºt
Ġt oan
ri min
Ġp Ã¢n
re arre
Ġv eilig
ra te
Ġno ed
Ġj im
ĠM eer
ĠW ark
Ġz ij
rys ke
ĠT rije
ron d
Ġbes joen
ul p
ek s
Ġmin st
ink ing
fer bod
ĠNeder lanners
Ġbed arre
Ġfu ot
Ġbet ingst
77 7
Ġfin zen
Ġall ro
Ġcorona virus
Ġter ras
Ġspil er
Ġbesk er
Ġkomp ens
Ġgev al
Ġregel e
all on
ĠGraaf schap
Ġyntern et
Ġgefaar lik
olo och
Ġresult aat
Ġresult aten
Ġlea ver
Ġmoei lijk
aut o
g ende
i isdei
l ysje
l inen
m inten
p ke
v ert
z aam
Ġd rin
of f
Ġh aar
re ca
Ġop ge
Ġal der
ok s
ok ken
lik s
ĠT j
ĠG oed
Ġhar sels
Ġkl am
Ġman nen
uur t
ac k
Ġwoansdei tejÃ»n
ĠAr ends
mid dels
Ġbehe ind
Ġbehe ining
Ġar beid
wÃ¢l den
Ġple k
sjin st
ĠAll innich
Ġbopp edat
Ġintens ive
D aar
b ro
m at
w rÃ¢ld
w inkel
Ġs Ãºd
Ġb roer
Ġin kel
Ġyn hÃ¢ld
Ã» gel
ak et
Ġfoar ige
ĠS joch
ĠF em
Ġder yn
Ġoan b
Ġfer bod
Ġst op
ĠW rÃ¢ld
Ġas yls
ens ch
ĠO ok
ĠT iisdei
Ġr jochte
ĠC oron
insje s
eili ch
Ġmis se
pl oech
ĠWaad see
Ġgefol ch
omm els
Ã¤ lysje
ĠMo andei
Ġhjoed dei
ĠÃºtfier d
Ġpromo asje
Ġfyf tjin
ĠApp els
ĠLan lik
Ġpap ier
Ġadvok aat
Ġdos inten
Ġalgem ien
ĠFem ke
d ien
f Ã»ns
k ocht
n Ã»
s ed
Ġh Ã»n
Ġn oflik
ri ts
ĠDe finsje
Ġl je
Ġl ab
ĠH ij
ĠM er
ĠA mer
im e
ĠÃ»n d
ĠT ak
ĠT ra
Ġsk reau
ant um
Ġpro cent
ek ten
ĠC ent
og ge
ve st
Ġman ager
fer b
ite s
Ġfier sten
icht ich
Ġfl ak
Ġtra ine
pl aat
ret aris
ion aal
Ġwen te
ĠAr no
Ġbetsjut te
ĠKN SB
hol t
Ġhol d
ĠBel ang
dok ters
Ġferwacht sje
ĠPost ma
ĠEast stellingwerf
fÃ¢ld ich
Ġtentoan stelling
ĠKne gt
b oarch
d in
n acht
s sen
u ts
y pe
Ġf arre
Ġm ass
Ġb ieden
Ġg at
Ġg ers
al es
ie ke
am ers
der heid
ĠF ok
ĠF ris
ĠF ide
ĠW agen
ĠJ oe
ant w
Ġtw iv
ber en
Ġver b
79 2
Ġfertel de
Ġboar ger
ĠwÃªr nei
Ġfrij heid
atie f
Ġfyts ers
Ġtsjer ket
Ġduor sum
Ġferp licht
Ġfeili gens
Ġhelp tsjinsten
Ġgev oel
tra iner
Ġgebe urt
Ġkryst dagen
Ġfun ksje
ĠHam stra
ĠentÃ»sj ast
ĠFers lachjouwer
ĠAkk rum
0 68
I S
T O
d oar
g um
p aad
r jochte
Ã ³
Ġd om
Ġf ru
Ġw inne
Ġw Ã¢l
je m
ĠD oeksen
oar loch
le x
Ġdat st
ed ers
ur f
ge meen
Ġfoar byld
Ġom rop
ĠH end
ĠH iem
ĠW in
me e
ĠK en
ĠV oedsel
ĠR ei
ĠP o
fe e
Ġwurk nimmers
Ġbel le
77 2
77 3
77 9
79 3
79 7
ĠwÃªr yn
Ġma it
Ġris ico
Ġdra ai
Ġpetear en
Ġsinne pan
Ġgebe uren
Ġjust ysje
ĠLel y
Ġkamer a
ĠCit y
Ġduid elijk
Ġbegrut ting
f is
v oer
el ing
Ġk oenen
al ling
oar te
ri der
ing sten
ol ke
ak ken
on nen
ĠF ersk
ĠI C
Ġnet tsjinsteande
Ġfer m
ĠH all
ĠW et
me ester
Ġre e
ich heid
Ġsk ou
ĠJ el
ĠJ ap
ĠR om
Ġwi te
ĠOp sterlÃ¢n
Ġbet tere
bo at
bo sk
anne s
ĠSt ien
foar m
Ġboar gers
kl aas
Ġko Ã¤lysje
Ġmoandei temoarn
lit ten
ĠGe a
Ġmuz ik
ĠDi rekteur
ui ter
gev ens
lok aasje
Ġfersoar gings
Ġpromo v
Ġdigit ale
Ġproduk ten
ĠKlein huis
antum adiel
a il
b are
p r
r inne
z ers
Ġ amt
Ġ antwurd
Ġs oort
Ġk lein
al isten
ĠD antumadiel
Ġyn sk
ri de
Ġop h
ke a
or den
Ġv aak
Ġge geven
ĠN opp
Ġre alis
ĠK allon
Ġpl aat
ĠG ent
Ġsp rekken
Ġli bje
Ġpro jekten
Ġle er
sp or
Ġgjin ien
rom te
Ġaan ge
yts e
fal le
uer y
Ġbo aiem
Ġorganis earje
Ġbinnen stÃªd
ĠwÃªr Ã»nder
uk k
Ġgr ins
hel ikopter
Ġfle ane
ĠRo uwe
ĠDracht ster
Ġferp leat
Ġteam s
Ġheal wei
Ġ25 0
Ġeksp lo
ĠEurope esk
Ġmaklik er
Ġklasse mint
Ġskoar e
Ġabs ol
Ġneeds aak
ĠWark um
b et
Ġf ijn
Ġb and
Ġh urde
el ijke
Ġk er
al ige
Ġyn koarten
Ġp ake
ne s
ĠS joerd
ĠF in
Ġom set
Ġom stannichheden
Ġoan lis
Ġfer ge
Ġno cht
ĠW W
ĠW ommels
ĠE x
ĠL o
ĠL aat
Ġc omp
Ġpl oegen
ĠÃ´f rin
ĠP ort
ir t
ĠAl les
Ġeigen ers
ĠZ onder
Ġbl oed
Ġferoar et
Ġtsien tallen
Ġonder zoek
ho cke
ĠlÃ» kt
ĠNet tsjinsteande
stre am
Ġstjoer d
Ġlaat ste
lÃª s
An ne
ĠFide odeiboek
i lit
j aal
l of
o ver
o od
p raat
s m
s eizoen
Ġw inn
Ġb iste
Ġt urn
Ġe dysje
Ġop lieding
ers ma
Ġfoar diel
Ġl aket
Ġmo e
ts ing
Ġoer brocht
Ġkom bin
ĠÃ»n tste
ĠJ ust
Ġsp rint
Ġr amt
ĠP SV
Ġkri get
wur de
ĠAl bert
Ġfol d
Ġfier lje
Ġkw alif
Ġmoandei tejÃ»n
geb ou
ĠGro ene
bedriuw en
Ġdoarps hÃ»s
Ġdok ter
Ġhyn ders
ĠGri enLinks
Ġlij kt
Ġcl ub
Ġnoard like
ĠtsjÃ» gen
Ġlich em
su me
Ġprot ok
Ġallro und
Ġinkel de
ĠAmer ik
ĠNopp ert
B er
b oeken
m ann
Ġ uur
ar ring
Ġs Ã¢l
Ġs joern
Ġm inne
Ġb ro
Ġb rie
st ing
ĠD ron
it t
Ãª de
ter en
ie w
Ġbe wenner
ra g
ĠN H
Ã¢l den
ĠT res
ĠJ elle
Ġmoat st
Ġr amp
Ġli ggen
Ġpro test
Ġmear derheid
ang st
ber ens
rij den
ĠDÃªr njonken
Ġfu orts
nim m
Ġbo ven
jon ele
Ġ2 000
Ġtongersdei tejÃ»n
Ġferoar diele
Ġduor re
isk ien
Ġopr jochte
ĠMo oglik
Ġsj uery
Ġtar ieding
ijl stra
Ġtast ien
Ġgreide fÃ»gels
ĠrÃª de
Ġtek st
Ġco ach
Ġblyk t
itein delijk
ĠTres oar
F oar
c ket
f f
i an
i tel
k end
p licht
Ġ et
ar ts
Ġs warte
Ġde ade
Ġg ing
ĠD oar
ro an
ri ft
Ġp etysje
ing sp
ter p
on ers
Ġfoar Ãºt
Ġfoar stelling
Ġv ier
Ġoan bean
ĠH uis
den t
ĠW Ã¢ld
ĠN och
ze gd
ĠE in
ĠÃºt daging
ru ts
Ġre ade
ma te
Ġpl at
ĠV elde
kt oaren
ĠP artij
aal ks
ĠC amp
Ġkl aar
ĠZ org
uor bal
Ġtra uma
Ġgen er
Ġfam kes
Ġsoarch yn
ĠBer n
Ġbasis skoalle
Ġpolit ie
Ġoploss ingen
Ġru st
Ġferg oed
ĠBr and
Ġgeweld ich
Ġynd ruk
Ġkeap je
tiid s
Ġzie ken
Ãªf ten
Ġkof je
Ġsinnepan ielen
ĠZonder land
d uk
e ep
f goed
l d
n st
o aten
s merk
u ken
Ġf av
Ġi uw
Ġw ap
Ġh alen
Ġop hÃ¢lde
li z
ing er
Ġmei makke
Ġom gean
Ġl open
Ġst Ãºd
ĠH oop
ĠB on
ĠO ver
gel ing
Ġsp el
Ġr Ãªden
ĠP e
Ġso ci
sp l
eder een
ig et
ĠDÃªr yn
ĠSt ad
Ġorganis earjen
Ġboar d
fier d
Ġmis hanneling
ĠÃºts teld
Ġdaar om
Ġpo st
Ġmed e
Ġferoar je
Ġkontakt Ã»ndersyk
pro ble
Ġwenn ingen
ans earre
Ġsli ep
skoal len
Ġspor ten
Ġfraksje foarsitter
lever ing
Ġmer ke
ĠtÃ»zen en
Ġmein aam
Ġsen ario
Ġwedst rijd
Ġfernim t
ĠOlymp yske
Ġmait iid
ĠFersk ate
ĠDron ryp
Z e
b eld
w el
in kt
Ġs ant
Ġb un
Ã» le
Ãº ch
ĠF le
Ġder Ãºt
Ġal wer
Ġfer ieningen
Ġfer bean
Ġno od
Ġst ab
ĠB ar
ins ma
im aal
ĠE pke
ĠL yk
ĠT ytsjerk
ĠG ar
Ġsp rong
Ġr Ã´
ip l
bb y
Ġfers lachjouwer
15 2
15 7
Ġlyts ere
Ġtre inen
per atuer
Ġferb ining
ĠRo y
ĠMaar ten
Ġble aun
Ġferst oar
Ġkonten er
Ġsuper merken
Ġpracht ige
ĠAk ademy
Ġju rid
ĠProv insje
Ġkie ze
Ġsjoch st
ĠrÃª ch
Ġstjer gefallen
Ã¶ r
Ġrein bÃ´ge
gar yp
Ġmaan den
ĠBelg iÃ«
Ġbren gen
Ġasyls ikers
ukk ig
0 55
4 55
6 55
8 55
H ol
M ensen
f ine
g end
i oaren
j et
Ã ¡
Ġd ram
Ġde ist
Ġw earde
ei en
Ġk or
st op
ĠD irk
am ming
Ġfoar en
ĠS ip
Ġbe zoek
ĠI sel
Ġl ine
ys els
Ġj aren
ĠM on
ĠM il
ĠÃºt nÃ»
ĠK o
ĠT o
ĠT ri
ĠG a
Ġwer eld
Ġfers yk
15 1
15 3
15 5
15 9
Ġver antw
Ġlang ere
Ġkan ten
ĠÃ¢l der
Ġboer e
Ġstik je
Ġged icht
Ġwen jen
wiis d
Ġtrain ingen
Ġhear de
Ġoardel meter
Ġkn ap
par ken
Ġgez ond
Ġferkear s
Ġrap per
Ġont wikkel
wÃª zen
Ġmer ken
Ġferf el
Ġou ders
ĠLa uwers
ĠNO S
ĠFean wÃ¢lden
auffe ur
Ġbefrij ing
ĠNA C
Ġass ist
ĠKu ip
ĠWrÃ¢ld oarloch
ĠTak om
Ġfiersten te
a zj
i gens
j i
j an
m insken
r ar
s ysteem
z c
of d
Ġw inner
Ġm acht
at ysk
Ġk west
ĠD r
ĠD av
ri Ãªre
Ġop rom
ak ele
om s
om me
Ġfoar sjen
ĠS ina
ĠF Ã»gel
Ġom wenners
Ġfer nimme
Ġfer ienings
ĠH ast
il l
ĠM yn
ĠM ed
ĠM akk
ĠW yn
ĠW yt
ad v
ĠN DC
ĠA t
Ġpl atte
ĠÃ´f s
ĠÃ´f hinklik
Ġhe en
ĠR ein
ĠP al
Ġdi ken
se al
Ġhim p
be ek
Ġsi te
kom petysje
Ġ20 22
Ġth e
ĠSt enden
Ġfl uch
wi ze
Ġbesmet te
Ġboar ne
wer kers
Ġko ers
Ġrjocht linen
ĠBo uw
ĠSnits er
Ġdrok ker
Ġgel okkich
Ġskriuw er
Ġrei tsje
Ġ4 00
ĠBe ets
Ġidee Ã«n
Ġlo ads
Ġprod us
Ã¢ne stÃªd
Ġron d
Ġbre ed
ĠTal ma
Ġwein ig
ĠFanwe ge
iÃ«n ten
Ġkonkl Ãºzje
ĠstÃºd zje
M O
c l
g u
r Ãªst
u ut
w ijs
z icht
Ġ 45
Ġf il
Ġw ins
Ġw ik
Ġb iede
Ġh jit
el je
el den
Ġk ertier
ĠD oel
oar t
ri x
as k
ge f
or me
ĠS im
Ġbe per
Ġge zegd
ĠA ustr
yk jen
Ġse ktoaren
iel e
Ġc are
ĠT je
ĠG el
Ġdo sint
ĠR Ã¢nestÃªd
Ġbes p
Ġear tiids
Ġwi id
Ġti cket
ĠMar gre
ĠAl mere
Ġste ate
Ġgeb ied
ĠU N
97 2
Ġsy m
Ġbesl ach
mei wurkers
ĠfÃ»n en
Ġbelang stelling
Ġgu o
Ġpersoan like
ĠHoe wol
Ġynt ins
Ġpak ket
ĠOf rÃ»ne
ĠJoh annes
Ġleaf de
Ġferkeap je
Ġstek ken
Ġtechn ysk
ĠBre euw
Ġdok umint
ĠWest stellingwerf
ĠIngel Ã¢n
Ġbedrij f
Ġferklear ring
Ġlil k
ĠNH L
ĠMargre et
ĠBreeuw sma
B O
D oe
K B
T V
d oor
f aze
m jit
Ġ 34
Ġw achten
Ġop helle
ol a
om a
am pen
or y
ĠS aken
is ier
Ã¢n sjes
ĠI J
ra ging
Ġst joert
ĠM en
ĠM olen
ĠÃ»n Ã´f
Ġc olle
ĠT sjin
ĠP ol
Ġme koar
Ġcoron ate
ĠMar c
jocht ing
Ġa zc
fer h
Ġbeg in
Ãºt dyk
ĠZ ee
Ġprov inc
97 3
Ġra ce
ug o
iÃ« le
Ġskriuw en
Ġefter stÃ¢n
Ġoanp akt
Al le
Ġiis hocke
ure au
ĠhÃ»nder ten
ĠBro ek
bli uwe
Ġag inda
ĠAnt on
ĠTal sma
ĠdÃª roer
Ġkaar ten
ĠJa ap
Ġferfol ch
ĠynstÃ¢n sje
Ġferrass ing
ĠAppels kea
Ber jochten
ĠDav id
O m
U nie
b org
g ongers
h oe
h ard
n ommen
w eid
w oud
an ge
Ġk urs
Ġte ma
ter rein
am ing
ĠS ie
ĠS and
Ġv ast
Ġv ijf
Ġge sch
Ġst ran
ĠW Ã¼
ĠIt aliÃ«
ok je
ĠK ing
ĠK ult
Ġsk uld
ĠG jin
and a
sten Unie
Ġri cht
Ġfin ish
hÃ¢l dt
ac ker
sl ag
Ġdaar na
Ġdoel man
Ġpr ins
Ġsyk tocht
Ġlok aal
ĠhÃºs dokters
Ġpub li
Ġkeunst ners
ĠwarskÃ´ get
ĠÃ´fsp raak
Ġferrom me
ĠJac ob
Ġryd bewiis
Ġkwets bere
Ġpod cast
Ġgra den
Ġgesp rek
behe er
Ġvand aag
ĠGal ama
ĠIsel mar
ĠWÃ¼ st
E C
N V
T C
a id
f lak
g ryp
k olle
l aan
v iew
w y
w achter
z h
Ġd al
Ġd ing
Ġd is
Ġd ong
Ġs fear
Ġde el
Ġi mmen
Ġw apen
Ġb anen
Ġh jer
ei ten
Ġk ast
Ġk andid
yn ke
Ġin ge
Ġen orm
li bben
Ġfoar ich
der t
Ġfer he
Ġfer tsjinne
ĠH eiden
ĠA st
ĠL TO
ren t
ĠK ooi
Ġsk ansearre
Ġhe ft
Ġsp oed
Ġpro beren
ĠP oal
Ġwi ist
ĠÃ»nder nimmer
se pt
Ġfers et
oal le
Ġste d
Ġste uring
stel le
Ġfre ond
Ġben t
Ġpers pe
ster adiel
tear jen
ĠSch eep
Ġpas sen
ĠÃºts Ã»nder
Ġaf ge
yt st
Ġpos ysje
Ġkant ine
stjoer d
are gels
Ġoff isier
maat regels
Ġkonten ersk
byl den
Ġbi bli
Ġtechn yske
Ġsu ver
Ġbeh oar
Ġkrit yk
ĠdÃª rop
Ġtrek kers
Ġferdigen er
zelf de
Ġfr jem
Ġbeskerm jen
Ġkran te
ĠÃ»nbek ende
ĠChri stenUnie
Ġmuo ite
pri is
Ġferge es
ĠTytsjerk steradiel
Ġwiid weid
ĠHeiden skip
E l
F an
b oud
b asis
f rij
g jir
k oepel
o c
s w
w yk
z a
Ġs lein
ei gen
Ġk rÃ»
st ichting
Ġyn lever
li et
ak ket
Ġmei wurker
ter fean
om as
ra an
Ġoan lein
Ġmo ed
Ġfer linge
ĠB ert
ĠN u
ĠN ynke
ĠÃ»n ge
ĠL Ã¢n
ĠO are
Ġsa wat
Ġr yk
ĠR ij
ĠP iter
Ġcoron aregels
Ġbes un
ek retaris
sp ul
oer en
be st
fer ieningen
Ġbel je
amp er
ĠU tein
Ġkont akten
ĠwÃªr fan
Ġnij bou
sl Ãºtdyk
Ġap art
Ġpas jint
Ġtot ale
Ġrom mel
Ġgel eden
ring loop
Ġtocht en
Ġnacht s
Ġsint rale
Ġiens um
ĠOf slÃºtdyk
Ġfjir tjin
Ġeksp er
Ġsosj aal
gev ing
ko hol
ĠBre da
Ġtan im
Ġferrom ming
Ġmon umint
Ġtrek ker
ĠSur hÃºs
Ġwaarm te
ferli en
ĠRoel of
Ġy mp
ote ek
Ġshorttra ck
Ã¶r din
ĠSurhÃºs terfean
I D
J a
f Ã»n
f ten
h op
h ouden
j um
p res
v end
v etal
Ġde is
Ġw ens
st oel
Ġt ijden
Ġyn fol
Ġyn rjochte
ri c
Ġp ot
Ġop stap
ol aasje
ers tel
ie ve
der ij
ĠS immer
Ġbe eld
Ġbe fol
ĠF eilich
Ġoan kundige
Ġge sel
us h
Ġz waar
ĠO NS
gel egen
ĠK rij
ĠK oarn
ĠK orte
ĠÃ´f sein
ĠJ ou
Ġsp ring
ijn a
Ġsl uting
Ġa ai
Ġsoar gjen
Ġbet inken
fal lend
ĠOm rin
Ġiepen ing
Ġze gt
ĠÃ»nders iket
ĠSte vens
Ġstel le
pro v
Ġskip per
ĠÃ¢ld jiers
Ġynf orm
les sen
Ġnijs gjir
Ġtoe komst
Ġfern u
stand ig
Ġspann ing
ĠFe yen
Ġhing jen
Ġinisjatyf nimmers
ĠlÃª ze
ctie f
partij en
ĠHel m
Ġju ist
Ġrestaur ants
Ġneg atyf
Ġsech st
Ġlibb ens
ĠNoor der
Ġbesliss ing
Ġbrie ven
ĠUtein lik
0 45
5 11
N A
d ige
i b
i if
n l
p raak
Ġ 36
Ġ ann
Ġd Ãºd
Ġd ran
ar i
Ġm ilit
Ġb on
Ġb lik
Ġh en
Ġn iks
le as
Ġop fol
Ġop br
Ġbe hannel
ĠH ugo
il s
ĠB au
iet s
ĠW Ãªrom
ĠÃ»n rÃªst
ok a
ĠK in
Ġ1 000
ĠT usken
ik ken
Ġr innen
Ġli ter
ĠP ar
Ġbes jen
tel s
sp ron
19 2
Ġfert ocht
per io
ret tjin
Ġdoel punten
ss ekretaris
uz yk
ĠEl kenien
Ġskip pers
Ġhop e
Ġpe al
eer d
ĠNoard see
inte klaas
ĠEar st
Ġsel straf
ĠBoer en
Ġpres ys
ĠVV V
ĠDo uw
bes ker
lok aasjes
Ġhing je
Ġfersp raat
Ġferli e
ĠBru in
Ġsicht ber
ern Ã´ch
Ġander halve
Ġrekre aasje
ĠFeyen oord
0 11
0 84
0 85
4 11
6 11
6 45
8 11
8 45
M et
a in
b rek
b anken
h em
v aart
Ġm ond
Ġb ried
et Ãºn
ch er
Ġt rettjin
ro of
Ã» k
Ġp akke
ne ed
ĠS ter
ĠF jouwer
Ġge gevens
ĠH urde
Ġoer d
Ġoer tr
Ġnei dat
ĠE ins
we gen
ĠK r
Ġts j
Ġdi rek
Ġvoor komen
ig jen
Ġfol k
Ġfol w
sj itten
ĠWe ste
19 3
19 7
Ġfersk aat
17 2
17 3
Ġlyts er
Ġgroep s
Ġro t
Ġfyts e
Ġfuotbal klup
Ġho reca
Ġbetel jen
omm ige
Ġfeilich heid
Ġar g
Ġynd ivid
Ġheger e
rukt uer
ĠHol wert
ob ili
Ġfyf tich
Ġfys yk
Ġaltern atyf
ĠFanwe gen
Ġbestri den
Ġkonst ate
ĠKanade zen
ĠJoe y
ĠHiem stra
ipl oma
Ġplatte lÃ¢n
Ġprovinc ie
Ġhjer st
h oud
m ele
n ingen
r ang
r atie
t o
v ang
Ġs ol
Ġs irk
Ġm Ã»ne
Ġb ijna
at us
Ġn orm
Ġk al
Ġyn tsjinne
Ã» ke
li g
ĠF ar
is earre
ĠM i
ĠM iskien
ĠW TC
Ġoer ien
ĠE d
ĠE ij
ĠÃ»n fer
ĠL im
ĠO ars
Ġre spe
ĠT ongersdei
Ġpl aats
ĠR eg
Ġear ne
ĠC up
dei s
Ġri eden
Ġwurk sum
Ġkon den
riuw en
rek Ã´r
ied t
ling a
Ġbet re
ist yske
ĠZ ijlstra
Ġfier dere
ĠÃ»nders yks
ĠU s
Ġfro uljus
uk je
ĠÃ¢l ders
ĠSte at
ĠdÃºdlik heid
ĠwrÃ¢ld kamp
Ġmed alje
Ġonder nemers
Ġbep pe
Ġstap t
Ġpre c
mon um
Ġsint raal
Ġkle ine
Ġsinne park
Ġeksp osysje
yste men
Ġwanne er
komm isje
Ġsle cht
ĠRen Ã©
Ġevent uele
Ġautom obili
Ġstyp je
ĠBou ma
Ġfoldwaan de
ĠWyl st
ĠGemeen te
Ġgesk ikt
Ġfinzen is
Ġtrauma helikopter
Ġferfel end
O C
h and
k r
k Ã´
s r
s ette
Ã ¨
Ġs ul
Ġi dent
Ġb io
Ġh oor
Ġg l
Ġt ur
Ġt ichter
Ġyn fal
Ġp en
Ġop steld
Ãª sten
am es
is ke
is ie
ĠI S
Ġfer fang
Ġst utsen
ĠH aad
ĠB et
Ġwol len
ĠL ok
ĠK ust
ĠJ anne
ap e
ik te
Ġle g
Ġti ps
ĠMar rit
oer lÃªst
Ġsl oop
Ġfol op
Ġfre egjen
Ġver ander
Ġbet ingsten
Ġbo tsing
Ġuit ge
Ġgen iet
Ġbesl uit
Ġwil de
Ġkrij gt
lit te
ss a
Ġmil j
Ġposit ief
ĠWaad feriening
Ġpri zen
Ġkar ak
ĠEl f
Ġhurd fyts
ĠEr win
ĠHe ech
ĠGer rit
Ġhaad klasse
Ġyns idint
Ġzelf s
ĠFre ule
Ġak koart
Ġun iversiteit
ĠZw olle
Ġrel atyf
rjocht ing
Ġekonom yske
Ġeer der
Ġfertsjin je
Ġproduk sje
ĠNie uw
ĠFor um
Ġspons or
ĠKomm issaris
ĠPrins etÃºn
ĠkliÃ¯n ten
sed uere
ĠFok kens
Ġpubli ek
k ke
k lik
l utsen
m iel
o sten
w ij
Ġ 38
Ġ 37
Ġ amper
in es
end am
Ġf ent
Ġf abryk
Ġf ytst
Ġs earje
el koar
Ġt ien
ri et
ri eden
Ġp yk
re e
ĠS uz
Ġl jip
ra ad
Ġst aazje
ĠB ed
ĠW or
ĠW oud
Ġz onder
ĠT O
Ġpl and
ĠV C
Ġli ef
Ġli ede
ĠR u
ĠR ijk
Ġme te
Ġear lik
Ġkin d
Ġfers eker
Ġwurk groep
Ġne ame
Ãºt kear
ĠÃ»nt fange
Ġferh ier
Ġfe ang
ĠSte en
ĠSte ats
hel jen
Ġkolle ksje
Ġkomp jÃ»
Ġgev ol
Ġlik ernÃ´ch
Ġdra ait
Ġsm iet
Ġkle ur
ĠAmel and
Ġlever je
Ġskoar de
ĠPaul usma
ĠlÃ»d s
ĠdrÃ» ch
Ġkontro lear
Ġkontro learre
Ġfracht wein
Ġmaatskip pij
ĠKon ink
Ġtag onk
Ġtem peratuer
Ġmilje u
bosk behear
Ġleer lingen
ĠÃ»ntste an
ĠDoar ps
ĠUN IS
Ġstran ge
S a
a ir
f j
r inn
y g
z oeken
an te
ar m
Ġi te
Ġo or
om in
Ġbe war
ĠI I
Ġv oedsel
ra asje
Ġoan sk
Ġst ar
ĠB es
ĠB eg
Ġse al
ĠO s
gel ju
ron t
ĠJ os
Ġwat foar
ĠP oort
Ġsl aan
Ġa v
Ã»nder t
anne ar
Ġkan ker
ran ten
wer pen
Ġkomm end
Ġfam ilie
ĠÃºts tel
Ġsnein temoarn
Ġma il
ĠFan sels
Ġfiif de
ĠTw itter
Ġnatuer gebiet
gro epen
ho w
Ġferkear d
Ġreed riders
Ġboat sje
Ġhyn der
ĠPl oeg
Ġberjocht en
Ġart y
ĠKro l
beste ging
Ġnoar den
Ġferbetter jen
ĠFort una
Ġverh aal
Ġnieuw s
Ġappartem inten
Ġbijz onder
ĠEls acker
Ġdrin ken
ĠLely lijn
ĠsÃ¢l t
Hol lÃ¢n
amming a
Ġkwest je
Ġguo zzen
Ġcoronate st
ĠHurde garyp
ĠKust wacht
H oe
b a
c oron
d der
f jilden
j el
k aart
r ings
s ens
u gen
u aasje
Ġd acht
Ġf lein
Ġf lier
at al
ke ken
Ã»n ens
ĠS u
Ġom leech
Ġl utsen
Ġge middel
Ġal kohol
Ġfer dield
ĠW assen
ze mond
ĠA f
ĠE ju
Ġpl anning
ap pen
ik us
Ġli cht
ĠR i
ĠP el
men ten
Ġwaar in
Ġear e
Ġear m
Ġti p
ĠC NV
Ġdi re
Ġri ders
Ġkl ant
ĠAl vest
Ġ20 12
enn ie
Ġbel angen
ger e
Ġrek ket
ult uur
Ġwil le
br aken
Ġfak bÃ»n
Ġdel set
uten s
Ġopl ost
ho ut
Ġacht ste
tsjer ke
Ġferst jer
Ġjul lie
Ġsnel heid
Ġfern ij
Ġspor tsk
Ġple stik
ori g
Ġeas ken
ĠteÃ¤ ters
Ġmiddel bere
spro ken
Ġjon kje
Ġjon gelju
ĠIngel sk
Ġoanf ragen
port aazje
Ġevent ueel
fle an
ĠÃºtw r
ĠRoe s
ĠSiet ske
Ġgele gen
ĠRoo zemond
Ġtsjinstann er
ĠFrank ryk
Ġfuot ten
ĠÃ»nd Ãºdlik
Ġsite waasje
ĠSteats boskbehear
fj ilder
H ij
N O
N e
d u
e ven
j aar
k on
m is
z ien
Ġd on
Ġs Ã»
Ġs ear
Ġde gra
st aasje
Ġg ryp
ri cht
Ġe x
Ġop merk
Ġop nimme
Ãº sje
ĠF ei
ĠF ia
Ġl in
ear ring
ĠM at
ste den
ĠE mmen
Ġz ei
Ġz oeken
Ġre portaazje
Ġsk rik
Ġsk uorre
ĠG ron
Ġsp eel
ĠR a
ĠR ie
ĠR us
ĠR TV
ĠP a
Ġbes oar
acht ich
ot te
ul en
Ġdi eders
Ġaan d
Ġkon f
fer kear
Ġbeg rij
ep t
ĠZ uid
ĠSt aats
ade m
Ġtal en
eili ge
Ġtra dysje
ĠJo uster
ic e
Ġged rach
Ġwen ten
ass ade
Ġtiisdei temoarn
wik sel
Ġpub lis
ĠDokkum er
Ġfinan c
Ġiis baan
Ġbef Ãªst
Ġgefaar like
Ġstek ke
Ġynsp i
Ġprof es
Ġboadskip pen
Ġflean fjild
ĠMan on
ĠFor ce
lag gen
ĠCO A
Ġsek onden
Ġsc oo
ĠKn ol
ĠOnder zoek
Ġkompens aasje
Ġkombin aasje
ĠLyk as
gu od
ĠTje erd
ĠÃ»nge fear
ĠIS U
ĠSuz anne
ĠWor ld
Ġgemiddel de
ĠWassen aar
ĠEju ke
a el
d ijk
p lein
r inner
w a
y ers
z ings
Ġ 32
Ġf ris
Ġi erd
Ġw end
Ġm aak
Ġb uro
al ik
Ġt ichte
Ġp older
li uw
am ens
or n
ĠS lo
Ġv ri
Ġno as
ĠH eide
den ten
ĠM aats
ĠW iel
me gen
ĠE rik
Ġz in
we ge
Ġre cht
Ġre par
ĠK oop
ĠG ert
ĠR em
ĠP leats
Ġwaar me
Ġle uke
ĠMar sum
og er
Ġkl aai
ann y
Ġfol ks
Ġsoar t
Ġpers oon
ĠSt ar
ĠMei jer
war e
ust ry
Ġfuort helle
ĠSk Ã»
Ġrjocht s
Ġbl ommen
Ġmed is
Ġbestjoer ders
Ġsport hal
pro jekt
ans ters
lied ingen
ĠBe ek
ĠlÃ» ke
Ġtwe ede
Ġamb ysje
Ġstim men
Ġopr inne
Ġsam mel
Ġont zet
ĠFe ansters
Ġtas kÃ´
ĠNij megen
Ġeas ke
Ġkrit ysk
twurd ich
ĠTs ien
bos beheer
Ġoanfre ge
Ġverschil lende
ĠHend rik
ĠHall um
ĠWet hÃ¢lder
Ġmoe sten
ĠBrand sma
Ġmede werkers
ĠDr yl
ĠAustr aliÃ«
ĠKing ma
Ġtagonk lik
ĠStaats bosbeheer
A R
G e
J an
S t
d aasje
f fer
h art
l ei
r ant
t ig
z ende
z inga
Ġd iploma
end aalks
at ist
Ġk ringloop
st an
st offen
al le
al vestÃªdetocht
ed te
ĠS up
ĠS inteklaas
Ġbe v
ĠF ol
Ġl ater
Ġv ia
Ġder mei
Ġge test
Ġge gaan
Ġfer le
ten acht
ĠB ok
ĠB uro
Ġha vens
Ġkom ende
ĠE igen
ru st
ĠO l
ich ste
ant wurde
Ġpro te
ĠÃ»nder Ãºt
ĠÃ»nder werp
ĠC l
Ġbr Ãª
ig ingen
Ġfers ter
Ġfers ets
be wenners
Ġta ak
Ġa ct
fer keap
Ġne e
uur d
Ġke amer
Ġgro ter
wurk jen
Ġra ak
jier rich
Ġgr Ãªf
Ġter rassen
Ġwen nen
Ġgear komsten
ĠsikehÃ»s op
Ġduor sume
Ġstap pe
mar sum
ĠEar ne
tsjer k
do ende
bre edte
Ġhaad stÃªd
Ġfeest je
Ġleech flean
Ġlive stream
ĠAlde b
Ġun yk
rast ruktuer
Ġneed feroar
Ġmaksim um
cent rum
ĠÃºtstjoer d
Ġfoars oarch
regel ing
Ġreiz gers
ĠJac o
Ġsker men
Ġem os
Ġleeft iid
Ġfleant Ãºch
Ġreagear je
Ġferpleat st
ĠStad ion
Ġbehoar lik
ĠWeste reen
ĠFar mers
Ġprec ies
Ġmete en
Ġontzet tend
ĠDryl ts
R O
f uotbal
g aat
g aard
h am
h iem
m ienskip
t Ãºn
te s
te iten
Ġs us
Ġde ad
Ġw achte
Ġm ent
Ġm olke
Ġb asketbal
Ġh jitte
Ġh Ã»zen
st ige
ĠD Ãª
Ġyn ge
Ġen ige
de m
or at
ĠS al
ĠS on
ĠS lach
ij ken
Ġv ond
Ġge sl
Ġst ude
ĠH il
ĠH oo
ts jÃ»
Ġj acht
gen oaten
ĠW ei
ĠN es
ĠA c
ĠA uke
Ġse ine
jin kie
ens ma
ĠO t
Ġc risis
ĠT ine
Ġpl eit
ĠG elder
Ġer v
Ġsp rutsen
Ġoar spron
ĠP yt
ber keap
Ġfers lach
Ġber ikken
stel lings
Ġfier t
Ġkun de
Ġbekend makke
Ġfert raging
res se
Ã»nt wikkel
ĠSp anje
Ġwoansdei temiddei
ĠWaad gebiet
Ġsn eld
Ġbl a
ĠAr n
Ġlear ling
Ġkant oar
Ġtongersdei temiddei
Ġferoar ing
ĠhÃºs ke
Ġrei zen
ĠTh omas
pp ers
Ġgev aar
av ond
Ġoanp ass
Ġdra aie
Ġwichtich ste
Ġswim me
Ġyns ette
ĠKeamer lid
Ġinisj ativen
Ġdoarps belang
Ġbi of
Ġrop pe
ĠBru insma
Ġmidden fjilder
ci aal
Ġto il
Ġtast imming
ĠAnd or
ĠÃºteins ette
ĠThe o
Ġneg ative
Ġrea gearre
Ġtrochs need
Ġsim pel
ĠFort uin
Ġbur ge
Ġfide o
Ġrij den
Ġynter view
ĠsÃºd like
ĠTra iner
Ġprotok ol
ĠHuis man
mate riaal
ferlien ers
ĠFeilich heidsregio
ĠtaskÃ´ gers
B S
B y
C ast
N o
U s
h Ã»ndert
t ille
w ad
Ġ yl
Ġd raach
Ġd orp
in ter
in ingen
of ten
Ġs jon
Ġs jit
Ġde k
Ġi mp
Ġi erde
Ġb os
Ġh om
Ġh oren
Ġn omin
Ġg oud
Ġg ongen
al y
Ġt ap
Ġt aken
oar m
ri z
ri st
Ġp ens
re de
li en
Ãª te
ĠDe fen
ge woan
ĠS jinkie
ĠF yts
Ġv ro
Ġal vetal
aar sma
ĠH eer
ts p
Ġj ammer
ĠB innen
ĠW ins
ĠA D
Ġz oek
Ã´f dieling
ĠK oud
ron ken
Ġsk riezen
Ġsp rek
sk l
Ġcoron ac
Ġbes ykjen
ut ch
Ġle ine
Ġbr Ã»ns
Ġien fÃ¢ldich
Ġsl oech
Ġa c
Ġsoar ten
ied ers
wurk ing
ĠSt ate
ent iids
ac c
ette re
Ġfreed temoarn
ĠfÃ»n s
Ġreg ist
ruk sje
Ġfyts paad
wik keld
Ġpri v
Ġferoar s
Ġstap te
ans ier
Ġpleat sen
ĠlÃ» ken
maat regel
Ã¯ ne
Ġspann ende
Ġmaat schap
Ġtar et
Ġtar ied
ĠSm ink
Ġ194 5
Ġkie zen
lann er
Ġfertsjin twurd
Ġfis kers
Ġtyd like
mak kers
Ġvoetbal len
auffe urs
fl agge
ĠLang war
Ġelekt ryske
Ġpopul Ãªr
Ġaller h
Ġkarbid sjitten
spil er
Ġcar av
ĠthÃº spl
Ġeksplo it
ĠRij pstra
Ġgesel lich
ush oorn
ĠNoorder breedte
Ġnorm ale
Ġpen alt
ĠDefen ce
ĠthÃºspl oech
M C
b rief
i ende
l os
m as
o of
r amp
w ies
Ġ ren
Ġ 65
Ġ 43
er men
Ġf ra
Ġb aas
Ġk raan
st jit
Ġg et
Ġg oals
Ġg lÃªs
Ġfan s
ĠD ag
Ġe angst
Ġp eil
re gen
on ald
om e
ĠS h
is y
Ã¢n ske
ĠI F
Ġge komen
Ġfer lik
Ġst ress
Ġj imme
ĠM ensen
gen oat
ĠW erk
Ġoer tsjÃ»
Ġnei tocht
Ã´ k
Ġz at
Ġz ag
ĠO ost
we inen
ĠÃ´f praat
ĠJ uli
Ġsp es
Ġvan af
ĠR ed
ĠP re
tel len
aal t
sp artij
Ġvoor ber
se ktor
Ġkl inkt
be am
Ġsl Ã»s
Ġei land
Ġver vel
Ġbet inking
ĠSe g
Ġlyk je
foar sjen
ĠÃ»nt wik
ĠlÃ¢n bo
Ġfuort endaalks
Ġnu ver
ĠAn na
tear ret
rie z
Ġap arte
Ġpas se
Ġfert ro
Ġko ade
Ġkrij g
Ġfreed smerk
Ġferb Ã»n
hel ling
Ġstel de
Ġstr aks
Ġfyts er
ly bal
Ġtoer no
Ġdiel en
Ġkar riÃªre
ĠrÃ»n om
ĠwÃ»n en
willi gers
tin ke
Ġlo c
Ġperio de
Ġops etten
ĠFier ders
ĠBr eij
alis earre
Ġcoronabesmet tings
ĠHol land
bouw ing
Ġfoars ichtich
Ġprof ite
olog yske
Ġleger e
ĠNe w
ĠNe ushoorn
Ġbegel ieding
ĠJor rit
Ġbegri pe
Ġhou dt
Ġsteat ssekretaris
Ġkommun ikaasje
Ġloop t
Ġkonkur r
Ġbesker me
ĠVoedsel bank
Ġbun der
Ġwik sel
Ġdal iks
Ġfreond inne
Ġwiidweid ich
Ġbetre ft
Ġarty sten
Ġaand acht
F ries
K C
f onds
g r
i zze
m ny
n ij
o ts
o gel
t h
t y
t ige
v ak
ar ing
Ġf or
Ġf ok
Ġs jitte
Ġm as
Ġb anken
at yske
Ġn Ã»
Ġk j
yn st
st art
Ġg ouden
al er
ke er
ne ke
or yt
Ġbe oar
Ġoan meld
Ġfer min
ĠH art
il aasje
ĠM it
ĠW ier
ĠW annear
ad ing
Ġoer stap
Ġwe ach
ĠÃºt b
ĠÃºt komst
ĠÃºt dield
ĠK amp
ĠK oster
es sel
ĠT im
ĠT op
ĠT wi
Ġsk ul
ef el
Ġli eten
ĠR aad
Ġme asten
Ġle ark
ĠÃ»nder en
ĠMar ten
Ġber ikt
fer bÃ¢n
Ġgemeente hÃ»s
ist yk
Ġgro eit
ĠÃ»nders k
Ġfam yl
Ġticht by
ĠSk oal
Ġdoel en
geb ied
uz um
Ġferw Ã»n
bel angen
Ġlear en
Ġmed yske
Ġnatuer gebieten
ĠBer gen
ĠhÃºs hÃ¢lden
Ġtrain ings
Ġpak ten
mp o
ĠKN KB
ĠNederland s
Ġrekken je
stann ers
Ġkop rinner
Ġstim ulear
raag d
Ã»ns coach
ĠDaar om
Ġspor te
ĠdÃ» beld
roe ven
ori teit
ĠwarskÃ´ ging
boer d
Ġu ter
olog y
Ġflecht lingen
Ġferdw Ã»n
Ġmiddei s
Ġbless earre
ĠÃ»nw is
Ġsker p
ĠLi ander
Ġmeid ogge
haw wers
Ġgebru iken
Ġopkn apt
bro ek
ensch ap
dien st
Ġamt ners
Ġabsol Ãºt
ĠJust ysje
ĠAmerik aanske
Ġsjoern alist
Ġassist int
azj iers
ĠMakk um
Ġkontenersk ippen
ĠHelm holt
Ġgeniet sje
Ġmilj ard
ĠElf steden
Ġfeang reide
Ġgelegen heid
ĠEarne wÃ¢ld
Ġpenalt y
A L
B ij
D us
V an
b ren
b uor
e ver
k le
k aar
k Ãªte
m oar
o ers
p as
t like
u ge
u ite
w ijl
Ġ utens
Ġd wers
ar ken
Ġs ig
Ġm iening
Ġh ur
Ġn Ãªst
Ġk ollum
je wÃ¢ld
Ġe mo
ĠS pe
Ġv alt
Ġoan kommen
oe m
Ġst of
ĠH Ã»s
ĠH joed
ĠB est
ĠW ou
ĠN a
im eter
Ġwe kker
op lieding
ĠK oat
Ġ1 20
ĠT on
ĠT ech
Ġsk aal
Ġsk rokken
ap ac
Ġer voor
ik el
Ġr Ã¢ne
sk op
ot o
Ġhel aas
Ġhoe ke
ĠwÃª rop
ate g
Ġbet rouwen
bo aten
aksje s
Ġbo uwe
Ġfertel d
Ġbest imming
foar st
ster tille
Ãªd ing
ĠÃ»nt d
ĠÃ»nt ble
Ġbesl uten
Ġsnein tejÃ»n
br inge
mo c
Ġtongersdei temoarn
Ġgel dt
Ġnatuer organisaasjes
Ġstil lein
ande my
ĠFer iene
Ġsimmer fakÃ¢nsje
aa id
ĠEr ve
Ġkeunst wurk
Ġheal jier
ĠGer ry
Ġfilm ke
Ġspor ters
Ġslim mer
ĠÃ»ntst iet
ĠÃ»ntwikkel ingen
Ġbuor kerij
Ġag rar
Ġienn ichste
fÃ» gel
Ġkeat sen
Ġoefen wedstriid
ĠNie uwen
Ġstyp jen
fest ival
Ġvert rouwen
âĢ Ļ
ĠhÃºshÃ¢ld ing
ĠHyl pen
ĠCent rum
Ġfergoed ing
Ġwap ens
wy kein
Ġwens oarch
perio ade
Ġident iteit
ĠOnderzoek s
ĠJaco bs
ĠKoat stertille
P O
S y
T oen
a ap
f rys
h t
i der
j ele
k ast
l ochs
n ar
p ot
p pe
p akt
p ele
Ġ Q
Ġ Ã
Ġ 39
Ġ 33
an us
Ġm Ã»le
Ġo lymp
Ġb Ãªd
Ġh anden
Ġk ad
Ġk racht
je ct
Ġg ym
Ġg rond
Ġt uorren
ĠD rent
ri ke
Ġp om
li m
de el
ĠS ine
ĠF riez
Ġom sk
ĠI ssa
Ġoan diel
Ġst offen
ĠM ir
ĠM ein
gen omen
Ġwol st
Ġoer fal
ĠA an
Ġkom mers
Ġmar aton
Ġc re
ĠT uin
ĠÃ´f levering
Ġsp ruts
ĠC ees
sp raak
oer d
Ġwy t
os sen
se p
Ġon ders
be tel
Ġkon sek
Ġtsjin sten
em t
if k
Ġze e
Ġor anje
Ġfl oat
ĠBy gelyks
Ġtra d
ĠwÃªr mei
its ma
gers ma
gean de
Ġkommen t
Ġfierder op
Ġdre ger
gro eid
Ġpar ten
Ġmel k
Ġ6 00
Ġsaak kundigen
Ġopn ommen
Ġsm oard
ĠHe al
Ġru ten
Ġster ke
ĠSport Cast
Ġbew oners
Ġferd Ã»
ersk aat
ĠAlde berkeap
Ġple kken
ĠBr ink
Ġdok ters
Ġlever e
Ġgas winning
Ġferantwurd likens
Ġfear n
Ġdisk rimin
ĠHer man
Ġvlog s
Ġmein imme
ĠÃ»nw iss
Ġopsk uor
ĠTuinen ga
Ġteloar steld
macht ich
Ġfantast ysk
Ġvak antie
Ġcoronap roof
Ġtrans fer
Ġpil ot
ĠVol endam
Ġpresint ator
ĠskÃ»tsjes ilen
Ġlab orat
ĠJap an
ĠCamp us
liz zende
ĠSip ke
ĠWyn jewÃ¢ld
ĠWyt marsum
ĠKooi stra
Ġbefol king
Ġnijsgjir rich
Ġmond kap
Ġfolw oeksen
Ġkarak ter
Ãºtkear ings
ĠKonink lijke
ĠAlvest Ãªde
Ġscoo ter
Ġbiof erskaat
ĠAD O
Ġcoronac risis
ĠMit chel
apac iteit
Ġkonsek w
c ten
l ant
m and
s lid
t Ã»zen
u il
u learre
v in
w aard
Ġ ym
Ġd ier
Ġd uur
er p
Ġf as
Ġm uorre
Ġb iedt
Ġh oort
Ġh ulp
Ġk rap
yn a
Ġg olf
Ġt achtich
Ġen orme
ri kt
re ed
Ġop slach
ak teur
ĠDe moc
or st
or ren
Ġfoar kommen
ĠF rij
ij t
ij ker
Ġl uts
Ġder om
Ġmo der
Ġno u
ear t
Ġst oel
Ġj uster
ĠM iede
ĠB i
ĠB ang
ĠB urd
Ġoer heden
ĠA kker
lÃ¢n ske
ĠE L
Ġre ken
Ġre ad
ĠK im
ĠT re
Ġpl ant
ĠR OC
Ġwi zen
ek sjes
sp lak
Ġhel ft
Ġkl as
waan de
stel de
ate c
Ġke uze
Ġfersk yn
Ġfersk rik
ĠU MC
ĠHar n
diel ingen
Ġmis sen
teur s
Ġfreed temiddei
eren iging
ss Ã»nens
ĠGr in
Ġper foarst
mp atec
Ġ15 00
mon ie
Ġsint imeter
Ġfot og
Ġfilm s
Ġskoft ke
Ġfjir tich
ĠrÃªst iger
sjin sten
ĠZw ieten
Ġrel aasje
Ġsu den
Ġpraktyk Ã»nderwiis
Ġtro uw
Ġberop s
Ġkie st
Ġkoart lyn
ĠambulÃ¢nse personiel
Ġu iteindelijk
ĠSw im
Ã¶ per
ĠKro es
Ġpass azjiers
Ġgar aazje
Ġferdw ine
ise ur
Ġbless uere
Ġdri get
Ġstu denten
form atie
Ġstasjon s
ĠÃºtw reide
ĠMich ael
ĠSl uiter
ĠPat yna
zo ens
Ġopf ongen
ĠHoog land
Ġtsjerket sjinst
Ġzieken huis
Ġdeist ich
Ġdokumint Ãªre
Ġcolle ga
Ġperspe ktyf
Ġdran k
besker ming
Ġleechflean rÃ»te
Ġspes if
ĠÃ»ntwik kele
ĠOnderzoeks raad
ĠDemoc ratie
ĠMiede ma
N C
O n
d eld
e pe
h ing
i x
k we
l in
l jochting
p ens
t ze
Ġ qu
an a
Ġde m
Ġw int
Ġb ocht
Ġb eiden
Ġn ul
Ġn amen
Ġk at
Ġk erk
yn s
Ġg iel
Ġt ype
ĠD re
ĠD ord
Ġin tern
Ġin formatie
Ġen kÃªte
Ġp ijn
Ġp ort
re den
Ġop lein
ak je
Ġfoar inoar
ĠF onds
ĠF iif
is schien
Ġl inks
Ġoan bod
Ġge keken
Ġmo est
Ġfer ling
ier d
Ġj ongen
ĠB ol
ĠW aar
ĠW eid
ad a
ĠE mpatec
Ġz aken
ĠÃºt fer
Ġsei zoens
Ġsk ande
ĠG re
ap pe
ĠV eld
Ġr yks
Ġpro gram
sk ied
sk amp
Ġme est
Ġgoed keap
sp raken
Ġhel der
akt yk
Ġtsjin oer
Ġ20 13
Ġfol lybal
Ġbet inke
Ġke uken
Ã»nder nimmers
Ġsels stannich
ĠZ ij
amp ion
Ġbo a
Ġskoal bern
ĠFoar al
Ġtra jekt
ĠHar monie
wer ken
Ġdaar door
ĠBo ersma
Ġfle u
Ġdrok ke
Ġadv ies
Ġgel ukkig
orm ule
ĠBe Ne
Ġdra aien
Ġsm ite
Ġfeilich heidsregio
ĠBel t
ĠGer ard
Ġkr Ãºs
Ġsam mele
Ġferskil len
stre ek
Ġreden en
ĠdÃ» mny
Ġun ike
Ġfar ren
ĠwarskÃ´ ge
olog ysk
Ġvlog gers
Ġrieds leden
joern aal
Ġmate ri
ĠIs ra
Ġwedst rijden
Ġferniel d
Ġleef berens
Ġoanfre egje
Ġtag ong
Ġpat iÃ«nten
ĠBra bÃ¢n
Ġkrimin ele
ĠBoo y
fro ulju
ĠCoron a
Ġmass aal
ĠStien s
Ġfuorts et
Ġverantw oor
Ġfrjem d
Ġsechst jin
Ġkonstate arre
Ġgevol gen
ĠlÃ»ds oerlÃªst
Ġferstjer ren
ĠPre mier
ĠDord recht
E O
M yn
a us
c ar
h eff
i fest
k ende
k like
k ont
o ai
o ade
o teken
v or
v ic
w is
w apen
y ach
Ġ 44
Ġd r
Ġs an
Ġs is
Ġw aad
Ġm jitte
Ġb ud
Ġh ji
st o
st aat
st jitten
Ġin st
oar ten
Ġen e
Ġe c
le m
Ġp u
re ken
Ġte le
Ġte recht
Ġbe m
ĠF os
ĠI e
Ġl a
Ġl ju
Ġv orig
Ġoan rin
aar s
Ġmo del
Ġfer lyn
ĠH im
Ġek ster
ĠB aas
ste an
ĠE ind
Ġre derij
ĠK eim
Ġsk iep
ĠÃ´f naam
ĠV el
ĠV ereniging
ĠY s
Ġle ggen
ber gen
Ġfers te
yl ine
Ġsil en
Ġkl assen
Ġwurk jouwer
rij s
kom ple
riuw e
Ġa aien
ters weach
Ġplak fine
Ãºt braak
uer en
ab ri
Ġlang s
Ġbo uw
Ġef f
Ġfl ag
Ġtra ind
ac y
Ġnij ste
sit ters
Ġgen omen
Ġbesl ute
fol ging
kel Ã¢n
ĠbrÃ» k
Ġwoansdei temoarn
Ġma x
Ġbop pen
ha us
no v
zj y
Al les
Ġkn i
Ġlos sen
Ġster ker
Ġpres in
Ġsinne parken
Ġkr us
Ġreed riden
Ġnie mand
Ġyntern asjonaal
Ġtas praak
Ġmeast entiids
ĠNat uer
Ġfar rÃ»te
ĠZw an
ĠZw art
Ġoef ening
bl Ãªd
Ġken nen
Ġreiz gje
Ġmon um
Ġant y
Ġbru ne
Ġtek sten
Ġdeb Ãºt
Ġkons ert
ĠynstÃ¢n sjes
Ġoper aasje
Ġlibb et
Ġsal ang
Ġkomple ks
Ġadvis earret
Ġhjoeddei ske
Ġhjoeddei stige
ĠKen ink
ĠBon if
ĠKuip ers
Ġprins ipe
Ġynform earre
ĠMi yach
ĠkompjÃ» ter
ĠBeg jin
ĠPleats lik
ĠbrÃª gen
Ġimp act
ĠWins um
ĠIF KS
Ġferlik ing
Ġfamyl jel
Ġkomment aar
Ġsmoard rok
ĠKeim pe
ĠMiyach i
D ie
H jir
d us
g as
g ang
k ons
l le
n ings
o in
p aden
z ak
te ast
ar ter
Ġf oech
Ġm jit
at h
Ġk ass
Ġk uorbal
yn lik
Ġfan gen
ĠD anny
Ġyn steld
Ġyn stjoer
Ġp lein
re ek
as per
it ia
de ma
ie pen
ĠS o
ĠF uotbal
ij fers
Ġl ong
Ġder oan
Ġoan hÃ¢ld
Ġoan kaam
Ġfer antwurde
oe s
ĠM ocht
ĠM VV
ĠB it
ĠW en
ĠW eij
ĠW urk
ze e
Ġz we
ru is
ĠL et
ĠL eer
un de
Ġre alist
lik se
Ġpl ay
Ġts iende
ip per
Ġwurk jouwers
Ġa ud
Ġne amde
jer zje
Ġgro eie
Ġiepen je
if ting
ĠÃ»nders ikers
skip pen
ger en
Ġfl a
eili gens
war d
ĠSp it
ud inten
Ġsoarch meiwurkers
ĠBo on
Ġsch olen
Ġaksje fier
Ġaksje groep
mo oglik
Ġbl ok
Ġmid dels
Ġnatuer lik
Ġfuotbal je
Ġdiel e
Ġstil te
lis sen
Ġskip feart
Ġmiljoen en
Ġonder wijs
Ġpe aske
Ġregel je
ĠNoard like
Ġmee ge
zj et
Ġsli epe
Ġstud inte
Ġheal oere
ĠHo sp
Ġvol doende
Ġreed lik
Ġgebe urd
Ġstien nen
ĠÃºtfier ing
Ġtelefoan ysk
Ġynsp eksje
bl ad
ĠAnt oin
ĠAnd ries
ĠwrÃ¢ldbek ers
boer en
Ġkeat st
Ġfys io
Ġmins ke
Ġmaatskip like
ĠKanade eske
Ġoptreden s
Ġopsm ite
Ġhan teken
ĠStel ling
ĠVl ap
Ġbene aming
ĠWin ters
ĠRom ke
ĠBeets tersweach
ĠLÃ¢n bou
Ġeksper im
ĠDouw stra
sr jochter
ĠTO P
ĠGron ingen
assade ur
Ġtichte by
ĠKoop mans
ĠsikehÃ»sop n
ĠAldeb oarn
Ġdraach flak
ĠKoud um
Ġcarav an
ĠTwi zel
Ġleark r
ĠHarn zer
ĠWeid um
ĠFos wert
ĠBonif ati
ĠAntoin ette
. )
Z o
a zje
b aden
b uorren
h oek
j am
m aar
p art
z etten
Ġ 09
Ġd ronken
er h
Ġm ysels
Ġh alf
Ġk as
Ġit ens
st Ã´k
al ing
ĠD oor
ĠD onker
Ġyn ske
Ġyn gri
Ġyn gre
ro l
ro et
ri Ã«
ri ften
le y
Ġp ut
Ġop lever
ak er
or ten
Ġfoar Ã´f
Ġfoar set
ĠF ilm
ĠF olk
is ma
Ġom mers
ĠI neke
Ġv olle
Ġv rouw
Ġoan jaan
Ġal arm
Ġst atus
ĠH ong
ĠH eid
il tr
Ġek sk
ĠA ut
ĠÃºt kear
op t
Ġc ro
Ġc omm
es ters
Ġer gens
Ġer fgoed
Ġwer kt
Ġoar lochs
ĠR ad
Ġwaar sch
Ġbes ochten
Ġle k
ag t
tel ling
ĠMar ijke
os se
ig ers
Ġri em
Ġwurk straf
riuw t
ink ster
ann er
em arken
Ġne er
Ġbed rige
Ġbin n
Ġplysje man
ĠWe ening
oel ang
if ers
Ġfertel len
Ġjo u
Ġjo egen
Ġfyn st
ĠÃ»nt werp
Ġmis te
Ġsneon temoarn
ĠÃ¢l deren
Ġko Ã¶rdin
ĠfÃªst lein
ind s
Ġan on
Ġgroep ke
iÃ« ne
ĠRo os
ĠRo bin
ĠÃ¢ld ste
Ġynt ocht
ĠNoard wÃ¢lde
aa ien
Ġgri ene
ĠHe in
ĠEar ste
Ġfrijwilli ger
ĠDen emarken
Ġrap ste
Ġont staan
onom yske
Ġferkeap jen
Ġ8 00
Ġcamp ings
age ment
Ġcoronabesmet ting
Ġpop pe
Ġfersoar ging
Ġdemon stre
Ġtro ts
ĠBos ma
Ġferf ongen
Ġboete s
Ġgek regen
rei s
Ġjon gens
Ġfestival s
Ġflean basis
Ġverwacht en
Ġoanf raach
ĠBelg yske
ĠÃ»nderdÃ» kers
Ġbedrij ven
Ġstrukt ureel
han kelijk
red akteur
Ġzom er
Ġfav ori
Ġsant jin
ĠGar yp
ĠKult urele
prov insje
monum enten
Ġemos joneel
ĠTine ke
ĠUMC G
ĠGrin zer
Ġtrouw ens
Ġverantwoor delijk
iltr ant
C amp
D F
R M
S k
f raach
f ragen
g de
l um
n Ã»mer
p eil
r etten
s oarte
Ġd Ã»ns
Ġd ieren
an ce
Ġw on
at ting
Ġh ok
ĠD al
Ġyn fier
Ġis olaasje
le mint
le ving
Ã» d
Ġte mpo
ers ch
ie el
Ãº k
am ylje
Ġbe Ã«
Ġbe hÃ¢lden
ĠI d
ĠI edereen
Ġl apt
ra pp
Ġoan fol
Ġmo b
Ġst and
Ġst arte
Ġj iske
ĠM aul
ĠB inne
me er
ĠL uc
ĠO ut
op ke
ĠT ol
ĠT we
ĠT ot
ron de
Ġr Ãºt
ĠY ou
Ġbes leat
ut te
ek sp
ve er
bb et
Ġon ge
Ġon gel
Ġfers moar
wur den
Ġtsjin twurdich
Ġber ei
Ġa b
Ġhy g
em stra
Ġ20 14
up s
Ġver z
Ãºt stjit
sj ier
Ġgew orden
Ġlyk makker
icht en
Ġtusken tiid
Ġorganis atie
Ġfl jocht
ĠÃ»nt rom
ĠHar lingen
Ġferh Ã¢ld
Ġein de
Ġsw art
Ġtest lokaasje
Ġwen plak
een stra
geb aan
Ġsch epen
Ġreg ionaal
ct or
Ġgel ijk
Ġho ofd
Ġdiel d
ĠEl zinga
ĠhÃºs kes
ĠrÃ»n en
ĠrÃ»n tsje
ĠKe es
Ġmee ste
aart jes
Ġdes ynf
Ġfilm kes
Ġyns id
Ġvol gen
Ġbef rijd
Ġ200 9
Ġsj auffeur
Ġgearwurk je
ĠAlde gea
stik ken
ĠCh ampion
ui ken
ui zen
ĠFre eds
brand ij
Ġstjoer e
Ġkeap jen
bli uw
ĠÃºtsp raken
ĠBos ch
Ġfys ike
Ġbelangryk ste
ĠWie be
Ġweek end
Ġou deren
Ġklok ken
ĠLel yline
ĠLa wei
ĠfÃ»gel gryp
veren iging
Ġynte resse
Ġlog ysk
Ġferne amde
Ġdjoer der
ĠÃ´fwacht sje
ĠNatuur monumenten
ĠBil t
ĠBoo tsma
Ġamate ur
fro u
Ġtoan iel
ites se
Ġwinn ers
ĠGroene woud
Ġet miel
ĠTo ur
ĠTri emstra
ĠScheep stra
Ġopbr ingst
Ġarg yf
Ġsul ver
ĠSon ny
Ġburge meester
Ġallerh anne
Ġvervel end
Ġhur der
ĠTech n
frys lan
ĠBurd aard
ĠEL P
heff ing
ĠMaul un
, '
N et
W ant
b ru
b ond
e ach
e ters
f et
f el
h istoar
i ven
p te
p leats
v ier
end er
ar ant
Ġf aze
Ġs ur
Ġde ta
Ġw oon
Ġw onen
st u
ĠD urk
ĠD NA
Ġin v
Ġin te
oar ne
Ġp opp
Ġop sp
Ġop fallend
ter ape
on ken
Ġfoar op
ĠS oarch
Ġbe wiis
ĠI ris
Ġoan k
Ġge c
Ġge m
oe a
Ġst a
ĠM erk
ĠB as
ĠB ur
ad oea
ĠN ord
ĠN PO
ĠE is
ĠÃºt komme
ĠÃ»n be
ĠL ou
ĠL ytse
Ġnoch al
un nel
ĠK amminga
Ġpl eite
ĠJ u
ĠJ ill
ĠG rij
ĠG rut
Ġdo ss
Ġr eid
Ġli chte
Ġpro seduere
ĠP au
ĠP AL
Ġkri mp
af ees
Ġts jins
ĠC an
sp lan
Ġfers teur
Ġman machtich
Ġbeg innen
Ġplysje s
bo uwe
ĠZ ien
ĠZ ein
Ġfier d
Ġze er
ĠSt u
he en
Ġein d
Ġnat oer
od der
Ġover heid
Ġover leg
ĠÃ»ndersyk je
use ma
Ġeven e
ĠbÃ»ten kant
iss a
ĠBo usema
ug al
ive au
Ġsch ade
Ġrom me
Ġdre am
iÃ« r
Ġfuotbal jen
Ġfuotbal ler
Ġho bby
ting a
asis me
pro jekten
Ġtrain ers
ĠKN RM
Ġcoronam aatregel
Ġbal Ã¢ns
Ġacht tjin
ĠUn y
ĠlÃ» den
all aasje
Ġsm iten
Ġkij kt
teken e
Ġkilom eters
ĠOer ol
Ġvol gende
ĠCh ris
Ġwyn stjitten
Ġstre am
Ġener gie
Ġcont ain
Ġvers pr
Ġynd ustry
Ġrel ay
Ġsin jaal
ĠÃºtfier e
iz zer
Ġhyn ste
Ġkap pers
ĠTer pstra
Ġtran sport
Ġrieds lid
Ġaltern ative
Ġoerli bbe
bestjoer der
Ġspons oaren
ple eg
ĠÃ»nbek end
Ġbestjoers lid
ĠSij brandij
Ġferne amd
ĠÃºtst jit
Ġmuzik anten
Ġfersoargings hÃ»s
ĠPort ugal
Ġsoarchyn stellingen
Ġbezoek ers
Ġynlever je
ID EO
vend ien
gelegen heid
Ġdirek sje
ĠEij er
Ġpublis earre
ĠStar um
Ġsneld yk
Ġyl leg
ĠHeer inga
Ġkj ifk
ĠÃ»ntd utsen
ĠNieuwen huizen
ĠMein dert
ĠEind hoven
Ġeff ekten
ĠHosp es
ĠFreeds merk
ĠZein stra
Ġkjifk ro
? ",
B ra
I N
N ee
P N
b Ã»
b ul
b oard
c ker
c kers
d rug
f un
f ert
k ard
o i
o ven
p ass
s de
v es
w o
w ieren
Ġ 55
Ġ eten
te t
Ġd uren
Ġd ichter
Ġd ikke
an deren
Ġf art
Ġs ystemen
Ġw oenen
Ġm yl
Ġm Ã»nen
Ġo ait
ĠD aan
ro bi
ri ck
Ã» ze
Ġp ol
Ġop sjes
li zzen
ke arre
ing ers
ol d
ak adoea
on a
ge bouwen
Ġfoar kar
ĠS Ã¢n
ĠS we
ĠS oms
ij ven
ĠI N
ĠI reen
Ġl ot
Ġoan wi
Ġst Ã¢l
ĠH eit
Ġwur ken
Ġj ud
il as
Ġoer naam
ĠA v
ĠA chter
ste ande
ĠE ag
ĠÃºt rop
ĠL u
ĠT ers
ĠT oen
ĠT ry
Ġsk erm
ĠJ um
ĠV NO
ĠV itesse
Ġjier dei
Ġoar gel
Ġbes wieren
af t
ot a
ĠMar gri
Ġmin imaal
Ġbr and
rom pel
rij f
rij ven
fer kie
Ġver ke
Ġver vol
Ġbet ink
ist ysk
Ġpart ner
ĠÃ»nders iken
del en
ĠSt aartjes
Ġfl ater
Ġoere in
ĠHar m
Ġmis hannele
kl us
Ġbesl oten
Ġkw amen
ĠJan sma
ĠCambuur stadion
ĠSk ar
Ġstr and
Ġspil en
Ġmed ysk
Ġgel ok
Ġsport fers
Ġfeili ge
Ġbep ale
ĠFer wert
ĠGro en
Ġgev raagd
Ġpleat se
Ġtaf al
onder d
onder zoek
Ġoploss ings
ĠGer ben
Ġfeest dagen
Ġfiel de
Ġieder e
Ġeksp los
Ġsj onger
ĠVeilig heid
Ġbepaal t
Ġferkeap et
Ġtas ein
Ġslim me
erv ice
Ġbeh and
ĠEaster mar
ĠPie ters
ĠHel der
Ġrestaur aasje
Ġsee h
Ġ194 3
ĠAnd re
behear der
Ġsen ioaren
ĠMe ulen
Ġhanthaven ing
ĠTsj akadoea
Ġynveste ar
ĠApp el
Ġkonk re
Ġstrang ere
Ġbesch ik
ĠCo ur
ĠbÃ»n te
Ġvoel t
Ġkran ten
Ġverh alen
ĠAd v
ĠMid den
Ġopt im
ĠKar in
Ġdro ne
Ġfleant ugen
Ġkonkur rint
Ġbesker ming
off s
Ġfold ocht
ĠÃ»nÃ´f hinklik
ĠMarc el
Ġbibli oteek
eigen er
Ġtijden s
Ġfernu vere
Ġferlie ze
Ġwurksum heden
ĠHaad stÃªd
Ġoor log
Ġsportsk oalle
ĠSlo b
Ġtoil et
ĠDag blad
ĠWerk man
ĠhÃºshÃ¢lden s
Ġemo asje
Ġkommers jele
Ġtrad is
ĠBrink man
Ġkonsekw insjes
Ġferskrik lik
NC W
Ġkrus ing
ĠKeimpe ma
ĠBonifati us
Ġlapt op
ĠTry ater
ĠMargri et
! ",
A S
B e
I edereen
V O
b and
b aas
g at
g unning
k or
k ings
l oft
l ucht
m m
m ear
m ang
n Ã´ch
u ers
w yt
w achte
Ġ ult
Ġ 42
in u
Ġf iet
Ġf orm
Ġs ier
Ġw oar
at mang
Ġn eder
Ġk m
Ġk ijk
Ġk ateg
Ġt v
Ġt ik
ĠD el
Ġyn tsjin
Ġyn kommen
Ġyn stellingen
ro le
Ġp ine
re arje
ke amers
as h
ur a
ol ine
ie uw
ge w
Ġfoar jier
ĠS P
ĠS am
ĠS inne
ĠS Ã»nder
ĠS eis
ĠS itt
Ġv o
Ġv acc
Ġder oer
Ġge mid
Ġge sproken
Ġmo k
Ġfer rast
Ġst o
Ġst oarn
Ġst iging
Ġst raat
ĠH id
ĠH oarek
ĠM oarn
ĠM ienskip
ĠB akke
ĠB ijl
Ġwol wÃªzen
Ġoer nimme
ĠA art
Ġnei li
Ġnei tinke
ĠE asten
ĠÃ»n f
Ġre c
ĠK om
ma ak
ĠT oer
Ġsk rift
ĠG ale
ĠG rap
ĠV ogel
Ġli eden
Ġli bjen
sk oar
sk riften
ĠP lan
ert if
ĠY ork
Ġbes it
Ġbes etting
af er
Ġhel ber
eff en
Ġhoe veel
Ġaan v
Ġta he
Ġoant rek
Ġste un
88 44
ings dei
ings ferbÃ¢n
uur lijk
Ġwel ke
oel stra
Ġiepen lof
nim t
nim men
Ġben a
ai de
del ing
iv isie
wi zen
Ġtra ap
ĠHar ren
kl ass
Ġcorona weach
Ġdei besteging
sch er
Ġboer d
Ġter wijl
ĠBo sk
Ġad res
Ġdel sette
Ġstr jit
Ġmom inten
Ġoantal len
ike hÃ»s
Ġide aal
Ġwyl de
Ġrest au
Ġstud io
gong er
Ġswim baden
la im
Ġyns ekten
Ġbehe inen
iger nÃ´ch
Ġprod ukt
licht ing
Ġkre as
Ġdoarps huzen
lan ge
Ġlike goed
ĠSmelling he
Ġwenning bou
Neder land
kun de
one el
Ġgrien te
Ġklap pen
ĠHaan stra
Ġlij n
lÃª zen
ĠdrÃ» chte
ĠTs jer
Ġfolg jend
beste anden
Ġbestri ding
Ġsim mers
Ġstrang er
ĠLand bouw
Ġdeb at
Ġoanfal ler
Ġelekt ris
ĠOr atmang
ilie u
spil ers
stit uut
Ġoanb iede
ferb aal
Ġspel ers
ĠSim on
zh ei
Ġmilit Ãªr
ĠBau ke
ĠFei tsma
Ġwachte t
Ġvro eg
Ġferoars ake
Ġfolwoeksen en
ĠÃºtfer kocht
ĠBit gum
ĠLeer dam
ĠBoon stra
Ġynske akele
ĠZien n
Ġcoronamaatregel en
drug s
ĠJum bo
ĠAppel hof
ĠSitt ard
Ġgemid deld
ĠEasten ryk
ĠGale ma
ĠOratmang oen
L e
O f
S G
a af
b urgum
d ate
d aad
e geling
f abryk
i ze
k amer
m ming
m uzyk
r els
t jes
u ker
u be
Ġ 56
Ġ 51
Ġde p
Ġb ad
Ġb rom
Ġh am
ei jen
Ġn asjonaal
Ġn iveau
el Ã¢n
Ġk atten
st ate
Ġt il
ĠD ra
Ġyn brek
ri ding
Ġe p
le ven
le ane
Ġp a
Ġp el
li se
Ġte v
am elijk
ken ner
ĠF okk
ĠF ormule
is sen
ĠI l
Ġl aag
Ġoan riding
Ġge maal
Ġnet wurk
Ġfer lyk
Ġfer dieling
Ġfer wurke
ts ke
ĠB li
ĠB oel
ĠB asketbal
ze ker
ĠA lex
Ġnei besteanden
ĠE f
ens ke
un iversiteit
Ġc ijfers
Ã´f fal
ĠK le
ĠK erk
ĠK oart
ĠJ am
ef kes
Ġli eder
ĠR ekken
Ġcoron as
ul s
ul dig
ag ers
ek ker
Ġtw ang
ijn lijk
se m
Ġri oel
Ġste v
Ġber ekken
rÃ» ten
ĠEk hart
ĠEk onomyske
Ġpart ners
ĠÃ»nders iker
Ġorganis earret
Ġtra int
Ġferh uze
Ġkw a
ĠAn der
per haus
Ġrjocht saak
Ġned ige
Ġmoandei temiddei
Ġsoarch sintrum
Ġdel gong
fers k
Ġstr jitten
Ġro ute
ĠGr and
Ġfuotbal bÃ»n
aas jet
Ġferoar jen
Ġskriuw ers
Ġsitu aasjes
isj atyf
Ġgev onden
Ġkult ureel
ĠsÃ¢n de
rik a
Ġres jerzje
Ġstim me
Ġswim men
Ġbar ren
Ġrap pe
maat skip
onom y
Ġsj ong
Ġferd jip
Ġgearwurk ingsferbÃ¢n
ĠdÃ» bel
Ġlever et
aud et
ĠRe ed
Ġfoarstel lingen
ĠKan ada
Ġgreide fÃ»gel
ĠLeeuwar der
Ġopdracht en
Ġmein ommen
ĠWar ten
spro gramma
ĠCar ola
Ġkaar tsje
ĠCor nel
Ġcl ubs
Ġfr etten
pak ket
ĠwrÃ¢ldbeker wedstriden
ĠFro uljus
Ġteloar stelling
ĠbÃ» tend
ĠtsjÃ» ge
Ġcon c
kw aliteit
Ġferniel ingen
Ġbegri p
Ġkost je
vent aris
Ġdemonstraasje s
Ġfantast isch
Ġpresint aasje
ferb ining
Ġfru it
Ġomrop pen
ĠPort uge
Ġrust ig
ĠreinbÃ´ge flagge
ĠPoal en
Ġiensum ens
Ġtanim t
ĠJou ke
Ġopfol ger
ĠKin st
Ġrot onde
ĠRus lÃ¢n
Ġneedferoar dering
Ġkonkurr insje
ĠQ u
Ġdiskrimin aasje
Ġlaborat oar
ĠFolk ssÃ»nens
ĠJill ert
ĠBakke fean
ĠGrap perhaus
? '<|
h Ã´f
h oarne
i or
i ver
o ei
o og
p rate
u ter
v angen
x it
z jer
Ġ arre
Ġ 48
in kens
Ġf li
Ġf irt
Ġs mo
Ġs Ã»ne
Ġs ommige
Ġde ur
Ġm olk
Ġb akker
Ġh oelang
Ġk roegen
ĠD utch
Ġin d
ro u
le cht
le ggen
Ġp oer
Ġp andemy
Ġop stelling
ed yk
de asten
Ġmei wurkje
ge fal
ĠS oks
Ġbe stel
ĠF IDEO
is sel
Ġom geving
ĠI zo
Ġv eld
Ġder nei
Ġoan hÃ¢lde
Ġfer rint
Ġfer dielen
ear d
ĠH au
ĠB ei
ĠB le
ĠB lok
ĠW el
ĠW Ã¢lden
ĠN S
ĠN ee
Ġoer hinne
im d
Ġse cht
ĠE el
ĠE ver
ĠÃºt rikt
id ige
ĠL oek
ĠL onden
lik er
Ġ1 30
Ġsa ke
ĠÃ´f brutsen
ĠG en
ĠG ytsjerk
Ġer ken
ik uli
ĠV en
ĠV al
Ġhar sens
sk rift
ĠR es
ĠR od
ĠP h
ĠP ark
ut ten
af el
Ġts iis
ĠÃ»nder fre
ek ke
Ġdi stri
sp unt
Ġvoor dat
yl an
Ġhoe ven
wur ken
Ġsl uiten
Ġoant inkens
Ġste kt
ĠEn er
Ġfre gen
zje s
Ġben ijd
Ġfin ansier
Ġrek l
aak s
ĠÃ»nt b
ĠHar men
ran te
Ġsneon tenacht
ĠHet tinga
ĠÃºts ein
Ġfe an
Ġferb liuw
Ġferb ettere
Ġan deren
Ġlan gebaan
ĠAr d
ĠHoe folle
lef oan
Ġblij kt
Ġhelp ferlieners
Ġoanp aste
ĠÃ»ngelok ken
ĠbegÃ»n en
Ġhoarek as
Ġru n
Ġferkear de
la ach
Ġbehe inde
ĠAmsterdam mers
Ġdu o
Ġbelutsen en
Ġmogelijk heden
Ġkre eg
Ġdrug sl
Ġgeweld ige
Ġtechn yk
ĠRe a
Ġtan ame
Ġfoarstel le
Ġdrugs hannel
Ġken ne
Ġteken e
Ġfyf de
ĠMear dere
ĠHer berg
komm od
Ġfun ks
Ġbosk wachter
Ġhistoar je
Ġher ken
ĠWer gea
Ġgar ande
Ġslot faze
Ġferdw ynt
Ġbru orren
Ġstreek rjocht
ĠNO C
Ġreedryd bÃ»n
ĠMich el
kw art
ĠSteate leden
Ġaller lei
NS F
chel ling
ĠTa gelyk
Ġtsjinstann ers
Ġdriuw end
Ġflak by
Ġneedsaak lik
Ġfav oryt
Ġkontener ramp
Ġjurid ysk
ĠÃºtnÃ» ge
gef aar
ĠIJ s
Ġricht ing
ĠÃºtsÃ»nder ing
pres idint
Ġyndivid uele
Ġtemperatuer en
Ġstar ten
ĠÃºtwr eiding
ĠRie mer
ĠWiel ing
ĠBok ma
Ġpriv acy
Ġskul den
ĠElfsteden tocht
Ġwensoarch sintrum
Ġonders te
Ġmelk fee
Ġmoder ne
Ġhji roer
Ġbem anning
komple ks
Ġkjifkro bbe
ĠÃºtrop pen
ĠCour ant
zhei mer
ĠJam ie
ĠRekken keamer
ĠIzo re
ĠEver hard
E k
N yk
U n
b ur
b oal
b ran
d ings
d ragen
f Ãªst
g rond
i al
j s
j al
k afee
l aat
l yt
m om
m ingen
o re
o tste
s up
t oe
z ier
Ġ 66
Ġ âĢ
Ġd ik
Ġd up
er st
an ker
ar ren
Ġf et
Ġf jilden
Ġf eiten
Ġs how
Ġde aden
Ġde zelfde
Ġw iss
Ġm at
Ġm ik
Ġo ud
Ġo riz
Ġb Ã¢n
Ġb ul
Ġb Ã»nscoach
at oaren
Ġh eden
Ġk ites
Ġk oka
st iid
st Ãºn
Ġg rap
Ġt unnel
ĠD on
ĠD ieren
Ġyn braken
Ġis o
le azen
li es
li maat
on dere
ĠDe ze
am ine
ge waasje
Ġfoar rang
ĠS j
Ġbe Ã¤
Ġl ading
Ġv orm
ys elde
Ġal gemeen
Ġfer stannich
Ġfer bouwing
ten t
ĠM aat
ĠM au
ĠW ieren
ĠN iet
ste am
ĠE ric
Ġz aak
ĠÃºt inoar
ĠÃºt wedstriid
ĠÃ»n mooglik
id ich
Ġas falt
we zig
Ġc om
Ġc apaciteit
ĠK uorbal
es lach
ĠT om
ĠT sje
Ġpl us
ĠÃ´f set
Ġer bij
Ġ' '
ĠV it
Ġr as
Ġli jen
Ġpro stit
Ġpro ject
ĠR KC
ach ters
Ġear nst
Ġwaard oor
ĠIn tern
Ġbeg onnen
enn o
Ġbed ri
Ġsne u
io v
Ġver tellen
rek king
ĠSe e
Ġpart ikuli
Ġgew end
man ager
Ġbo eten
ske a
Ġbest ie
ĠbrÃ¢n sj
Ġfl at
Ġra ar
wer king
Ġein liks
Ġein iget
Ġdien en
ĠJan ssen
its jerke
ĠÃ»ndersyk jen
ĠÃºts l
Ġtre ft
Ġtre ffe
Ġtin te
Ġaf hankelijk
ĠSp an
ic t
Ġjierren lang
ĠSte fan
sma at
Ġfamylje s
Ġheech wurker
Ġbasis skoallen
Ġdra ge
merk ing
ĠHe ge
Ġkop groep
Ġbus ke
ĠHo ut
ĠOer terp
Ġtop sport
ĠFriesland Camp
Ġsj auffeurs
lan den
ĠVer beek
ĠTe gearre
Ġstjoer de
age maal
Ġbre der
Ġynsp ek
ĠPl ysje
Ġsamen leving
Ġkeat spartij
spe eld
ĠWar ns
Ġstraf skop
Ġrieds gearkomste
ĠWer f
Ġferspried e
Ġaltern ativen
Ġoerli bje
Ġferantwurdlik heid
Ġynveste arje
ferli ening
Ġsech sde
ĠSteate lid
Ġopsm iten
Ġbele sting
ĠPat rick
Ġbedriuws libben
ĠGemeen ten
Ġskilder ij
bele sting
Ġstip et
Ġzom aar
Ġferkie zing
ĠWagen ingen
doar p
Ġskou ders
duk sje
ĠProvinsje hÃ»s
Ġhimp kwe
ĠBouw meester
mjit tich
Ġkurs us
Ġdis c
Ġynfol ling
ĠdÃºd likens
ĠLim boarch
Ã¨ re
Ġfent ilaasje
Ġljip aai
Ġdire ct
Ġfinanc iÃ«le
ĠEigen er
Ġregist rearre
ĠnÃ» mers
Ġreken ing
Ġdem ok
Ġflag gen
ĠDal stra
Ġhyg iÃ«ne
Ġynsid inten
ĠNord win
ĠSwe ed
ĠAv ine
ĠTers chelling
Ġvacc in
Ġoriz jin
ĠFrieslandCamp ina
0 51
6 51
A f
C ambuur
E ar
T e
b ack
e ke
e ktor
f fen
j ale
k baar
l on
o w
p un
u der
w oord
z ond
Ġ up
er ten
in y
in us
an c
of fers
Ġs eld
Ġs co
Ġb ije
Ġb oeke
Ġh Ã´f
ch je
Ġk iel
Ġk ep
al ich
ĠD ok
ĠD ennis
Ġyn h
oar re
Ġe efkes
Ġop hÃ¢lden
ne men
as iteit
ur ne
de k
ak sel
ĠDe kker
Ġfoar komt
ĠS warte
Ġbe urs
ĠF rits
is ters
is earje
Ġom stanners
Ġv e
Ġfer rÃ»n
oe kt
ĠH em
ĠB S
ĠB la
ĠB audet
ĠW it
Ġby kaam
ĠN L
ĠN ormaal
ĠA ch
Ġz agen
ĠÃºt jouwer
ĠÃºt makke
ĠO ar
Ġsk ries
ĠJ es
ĠJ ud
Ġdo od
Ġwer yn
Ġwer den
Ġsp rekt
ĠR onald
ert oernoai
ach el
Ġcoron ast
ĠY v
ut raal
Ġear en
ot on
ip p
ĠMar it
Ġdit soarte
oan e
Ġtw ongen
eid zjen
og roep
Ġvoor stellen
se aan
ig d
ĠIn gels
be stri
Ġkon sint
akt iviteiten
Ġman ifest
Ġber ikber
fer ienings
ann ers
stel lend
Ġver l
Ġver anderen
Ġbet sjin
Ġbel len
Ġbel eid
Ġbel ange
dat en
bo x
Ġiepen jen
del ijke
he ad
ĠbrÃ¢n stichting
joch ters
Ġorganis eren
ĠÃ»nt f
lear aar
08 00
uk ken
pl annen
pl aats
kl ok
ĠJo hann
ĠSch ur
Ġwil den
Ġfert riet
Ġdoel groep
Ġged uld
ĠSte ensma
Ġhier e
Ġfrou like
Ġsch ip
Ġposit ieve
Ġgroep kes
fan gen
mo del
Ġfal lyt
Ġjong ste
Ġfuotbal le
lach jouwers
sint ra
Ġregel jouwing
Ġpre v
pel ijke
Ġonze ker
ĠHe cke
tre in
Ġyns etten
Ġvol gend
Ġbew arre
Ġar gewaasje
Ġsad waande
Ġalt iten
Mar ie
Ġkre Ã«
ĠDaar na
roe ge
ĠSne ek
Ġstjoer en
Ġcamp er
Ġynd ie
Ġstek partij
Ġzorg t
ĠVeen ker
ĠUnder nimmers
ĠRe ade
waar m
Ġag int
Ġag inten
Ġsu vel
Ġfersoar get
Ġopp osysje
Ġtan aam
Ġfoarstel len
iz zing
Ġ194 2
Ġferpleech hÃ»zen
ĠSw an
Ġynst it
ĠThe un
out um
hink like
Ġkwets ber
Ġat t
Ġhanthaven je
team s
Ġbak je
ĠdrÃ» ge
ĠLan ge
ĠKomm isje
ferli es
Ġbesli st
Ġeks amen
Ġstu ollen
ĠMartin itsjerke
Ġvoel en
Ġwr Ã¢l
Ġkonkl ude
Ġdro nes
Ġstrukt uer
Ġtr end
ĠÃ´fwacht sjen
Ġbene amd
ĠthÃº sk
Ġklimaat feroar
Ġkwe alik
kan aal
mat yk
proble men
ĠrÃ´ p
ĠMil je
ĠFÃ»gel beskerming
ĠMed ia
gef oel
Ġsym boal
Ġyntins yf
Ġann ulear
ĠKr Ãºs
Ġautomobili st
ĠJanne ke
ĠWoud agemaal
ĠRijk s
Ġprofes jonele
Ġvri end
Ġmedis inen
Ġprote ste
ĠHoo ge
ĠOt ter
ĠArn hem
ĠFyts alvestÃªdetocht
Ġtaried ingen
Ġmondkap je
eksjes yk
Ġekster n
Ġkni bbel
Ġmeege maakt
Ġpopp o
Ġpleite t
ĠHoarek a
Ġpa kes
Ġkoka Ã¯ne
' -
A st
L U
M I
W A
a h
d f
h en
i eder
j ert
k ust
l as
l ast
l eit
m ings
n al
n amme
r el
s i
u tear
u iden
w it
w oners
Ġ achte
Ġd rompel
er stra
of er
ar ije
Ġs yd
Ġde len
Ġi ke
Ġw iet
Ġw ette
Ġm aten
Ġo b
Ġo ude
Ġo ersjoch
Ġo alje
Ġb as
Ġn er
Ġk afees
st al
Ġg ister
al m
ĠD roege
Ġyn stelling
Ġyn braak
Ã» ken
Ġop tein
li eg
ak ing
Ġfoar d
Ã»n gelok
ĠS ad
ĠS yl
ĠS mid
Ġbe steld
Ġbe hÃ¢ld
ĠF ili
Ġl eren
Ġl ukt
Ġv rouwen
Ġv ader
Ġoan fallen
Ġoan merking
Ġfer jitte
ĠH u
ĠM isschien
ĠB al
ĠB or
ĠB ureau
ĠB ennie
ĠW ater
ĠW opke
Ġby tiden
Ġse inen
Ġwe gere
ĠE vert
Ġz icht
ru im
Ã¢l de
ĠL y
ĠL ara
ĠO M
ĠO pen
ĠO ss
Ġre m
Ġc ent
ĠK amer
ĠK wad
ĠK uiken
lik t
ĠT ran
ĠÃ´f st
ĠJ och
ĠG iov
Ġdo ne
Ġsp oaren
Ġsp rekke
Ġsp ringen
Ġr aken
Ġli ken
ĠR is
Ġbes wier
ast richt
ĠC on
Ġmak kelijk
Ġbli ek
Ġvoor t
Ġkl ass
riuw er
ink els
Ġa ctie
ann i
Ġhie m
Ġbet rokken
Ãºs ter
bo om
Ġtri bu
ĠWe stra
Ġgro otste
Ġbo ot
ai re
Ġhjir Ã»nder
lij nen
est ival
De ze
Ġtal itte
Ġwor d
Ġra c
ĠMei wurkers
lear m
ĠJo od
Ġwil t
uis te
Ġaf spraken
ĠSp oelstra
iss ie
Ġbegjin nen
hel p
ug ger
Ġmed i
Ġadv izen
Ġadv iseur
Ġske ma
Ġfuotbal lers
Ġtoer istyske
Ġpri oriteit
lis se
ĠdÃªrnei st
ĠEl ke
ĠDÃºts k
Ġpar se
Ġbetel let
Ġkamp ioens
ĠNoard burgum
Ġpre m
Ġpre staasje
Ġoanp akke
Ġferk learre
mar kt
Ġtel t
Ġjun ioaren
tsjin st
tre e
kap asiteit
Ġgez et
ili teit
Ġlo bby
Ġstim d
bier rum
stre geling
Ġferg un
Ġstri de
Ġkre ative
Ġna ast
Ġaard ige
roe ger
ĠWij f
ĠTe ake
Ġfar i
rjocht en
Ġbeh oe
Ġfoarm je
ĠHel linga
Ġkap per
Ġfoel en
Ġger jocht
Ġvin dt
ĠWie bes
ĠHa ach
rei z
ĠÃ»nderdiel en
Ġeffe ct
Ġant wurden
wet hÃ¢lder
Ġmins te
ĠÃ»nw isse
ĠCit rix
Ġred aksje
Ġgroei en
Ġhotel s
ĠJor wert
Ġstuk je
ĠÃ»nderdÃ» k
isse ur
Ġkwart finale
ĠMa astricht
Ġziek te
Ġamate urf
Ġduorsum ens
Ġpromov earje
nimm end
Ġsant ich
Ġjurid yske
Ġgezond heid
adv ys
Ġkandid aat
ĠKoarn wer
Ġspring e
Ġbio sk
Ġtichter by
Ġdegra daasje
Ġbegrij pen
Ġfris se
ĠDÃª rop
Ġynge wikkeld
Ġoarspron klik
aly ze
foarsjen ning
Ġagrar yske
ĠMitchel l
Ġmateri alen
Ġsan it
Ġec onom
ĠYs brand
ĠLet itia
Ġlearkr Ãªften
ĠDonker broek
ĠHong arije
ĠFokk inga
Ġdrugsl ab
Ġfunks jone
ĠÃ»ntf ongen
ĠKwad rant
ĠGiov anni
' ."<|
M ijn
U MO
b Ãºsje
c el
e ens
f lier
h Ã¢n
h ats
i ro
j ar
j Ãªre
k sjes
k maar
l s
n ivo
p els
p leat
p leech
w as
w achters
z end
z ij
Ã ¸
Ġ ut
en er
Ġd onker
Ġf out
Ġm us
Ġo t
Ġb om
et itie
ch ief
Ġk Ã¢ld
yn d
Ġt ad
Ġt ou
ĠD ichter
Ġin middels
Ġyn gean
Ġyn rjochting
Ġyn nov
Ġyn ventaris
Ġe val
ke akele
ing el
ne mer
Ġte bek
as lach
ak koart
Ġfoar bylden
der je
der jen
ĠF lo
Ġl ul
Ġv oeren
Ġfer moed
Ġfer litte
ear den
Ġst ru
Ġst ond
ĠH en
ĠH eij
Ġj uiste
ĠM enno
ĠB ak
ĠB ram
ĠN ico
ĠA al
ĠE U
ĠE m
Ġz ul
id a
ĠL ear
ok ke
Ġre p
op vang
ĠK ammen
ĠK elder
Ġ1 25
Ġsk o
ĠÃ´f jÃ»n
ĠJ on
ĠJ ager
ap par
Ġer op
Ġer van
Ġer nst
Ġr asisme
kt alige
ĠR ich
ĠP VV
ir c
um mear
Ġwaar de
Ġle de
Ġle au
oer heid
bb ing
Ġgemeen tlike
Ġvoor bij
ig ranten
Ġri ke
Ġon ver
Ġhoe k
Ġwurk plak
Ġkon dysje
ĠAl kmaar
Ġste aten
Ġver k
rek te
Ġke amers
Ã»nder nimmer
Ġiepen et
Ġbest aan
Ġbest uur
Ġfin ales
land s
foar en
Ġfi le
Ġskoal jier
Ġwetter stÃ¢n
Ġwetter peil
wacht en
Ġfl ammen
Ġbinnen kaam
ĠHar kema
Ġmis stannen
sit u
ĠSa wol
ĠSa ail
Ġnu vere
ĠSy b
Ġover al
Ġtre ast
eg d
Ġkrij st
yt buro
ic a
Ġged achte
ĠbrÃ» kte
Ġseizoen en
Ġdel lein
mo gen
mo byl
rin nen
Ġgau ris
pro ses
Ġefter Ãºt
no aze
Ġwicht iger
Ġrei tsjen
ĠTroch dat
Ġhear den
ĠJe ugd
Ġkoar ter
tse in
ĠUn iversiteit
Ġkn ip
Ġkn oop
Ġamb assadeur
Ġiis stadion
Ġstim ming
Ġkle uren
str jitten
ats oen
Ġ200 8
Ġmanier en
Ġgeh eim
ĠFre d
Ġops ykje
Ġwerk lik
Ġinisjatyf nimmer
ĠFrjentsjer ter
ĠBre xit
bbe gea
Ġmot iv
Ġsterk ste
stap pe
Ġbre de
Ġfear boat
Ġslag je
Ġskied srjochter
Ġteken ingen
Ġhege skoalle
olo gen
ĠdÃª roan
Ġpleats like
Ġlied t
Ġdefinit ive
ĠTsj ummear
iÃ«n t
Ġbesch ermen
ĠhÃ¢ld ing
Ġferbetter je
fraksje foarsitter
Ġfisk je
Ġsnap pe
Ġmeid ocht
Ġleef tyd
Ġkening inne
haw wer
ĠChri st
Ġtem jitte
Ġtr of
ĠHiel endal
ĠFl or
Ġmes sen
Ġbeli bje
Ġferkie zingen
Ġdrin ke
ĠTj ongers
ĠFris o
ĠFris ia
ĠWagen borg
Ġtwiv els
Ġker st
Ġfierlje p
ĠGroene veld
Ġgener aasje
Ġsoci al
ĠRoy al
ĠreinbÃ´ge provinsje
Ġverantw oord
Ġontwikkel ing
ĠLauwers mar
ĠLauwers each
Ġsym pt
ĠÃ»nÃ´f hinklike
ĠPol ytburo
ferh alen
kolle ezje
ĠKrij ger
standig heden
Ġoerd roegen
Ġsol daten
Ġrespe kt
ĠwrÃ¢ldkamp ioen
kr Ãªft
ĠLok aal
ĠRu ijven
Ã»ntwikkel ing
Ġsjon ge
ĠoertsjÃ» ge
Ġloc atie
Fries land
ĠÃ»ntble at
Ġpom pe
Ġfearn sjier
Ġbud zjet
Ġfersoarging ste
ĠLuc as
Ġab onne
ĠÃ»ntrom me
ĠferhÃ¢ld ing
arant a
stu ollen
terape ut
ĠGrij pstra
Ġbeschik baar
Ġiepenlof tsp
Ġelektris iteit
ĠAnder lecht
maatskip pij
ĠbÃ»tend oar
Ġhimpkwe kerij
ĠDroege ham
ĠSaail Ã¢n
ĠTsjummear um
A lex
B T
D oor
O A
S te
T ube
a ast
a zer
b ok
d oen
d iep
e gel
e kt
f de
h im
l ts
m am
n ik
o ris
p oort
s er
s joen
s wert
t op
t ende
u ort
w an
z aak
Ġ 46
te sten
Ġd or
Ġd Ã»n
er den
in ings
Ġf learm
Ġs inds
Ġw an
Ġw id
Ġm aster
Ġm oard
Ġm orgen
Ġb ron
Ġb rutsen
Ġh erstel
Ġh oger
et ra
Ġn ame
el jen
ĠD uit
ĠD ales
ro t
ro ute
ri a
ri ks
Ġe ast
le aster
Ġp iken
Ġop fange
ke unst
Ġte plak
Ġte gelijk
Ġte koarten
ie veld
am mel
ge and
Ġfoar me
Ġfoar ried
Ġbe z
Ġbe mann
ĠF al
Ġom zet
ĠI m
Ġv aren
Ġge unst
Ġge bouw
Ġfer wi
Ġfer litten
ear en
Ġst ren
Ġst ifting
ĠH as
ĠH essel
ins ke
ĠW ike
ĠN acht
ĠIt zh
ĠA usma
ĠE ven
Ġz w
ĠÃºt d
ĠÃºt gong
ĠÃºt komt
ĠL it
ĠL inde
ens ter
ĠO k
we insj
Ġre fal
ĠK i
ĠK el
ĠK oo
Ġ1 10
Ġpl om
Ġsk etten
Ġsk rassen
ĠJ ut
ĠJ aarsma
ĠG oot
ĠV rij
ĠV liet
Ġsp and
Ġhar k
Ġr Ãªd
Ġoar diel
ĠP res
Ġwaar om
Ġwaar man
Ġear re
af Ã©
ul Ãªre
Ġso wies
tel ingen
oan ne
oan nen
ĠC ap
ber jocht
Ġvoor z
Ġhoe ft
Ġaan t
Ġkon sum
Ġta b
Ġsi le
Ġsi ed
Ġtsjin net
riuw ing
Ġbeg int
Ġ20 11
Ġfol hÃ¢lde
Ġfre es
Ġver pleeg
ters Ã¢n
fal lende
bo urne
Ġpers oneel
racht en
Ġbek ijken
ĠSt oel
ĠSt roet
foar ming
sel en
Ġprovinsje hÃ»s
ĠFoar dat
ĠÃ»nt heffing
Ġbinnen Ãºt
fier ing
ran s
ĠAs sen
Ġmis d
sit uaasje
ĠJo bbegea
ĠSch uur
ĠÃºts keakele
rum p
Ġrjocht sje
Ġferb oud
geb rÃ»k
fers eker
Ġstr annen
Ġsn apt
Ġlear d
ĠSnits ers
ĠTw ente
aas d
ike m
ĠEl len
ĠBer lts
Ġfeili ger
Ġynt ro
Ġbep raat
ĠKN MI
gelok s
Ġpleat ste
ĠUn ders
Ġgri ep
Ġkop te
uwer ij
ĠRut h
Ġsj itten
bes it
Ġreden s
Ġun an
ĠlÃª sten
ĠBr Ã¢n
Ġrop pen
win st
win ter
Ġmaksim ale
Ġdemon str
Ġekonom ysk
Ġhichte punt
Ġga os
Ġmienskip like
Ġhu idige
Ġkeat se
Ġkaart ferkeap
Ġreiz gjen
Ġoand ien
Ġspe ci
Ġflecht ling
Ġart ikel
Ġoptre de
Ġkuier ders
Ġmoa ier
ĠSur ch
Ġferlear en
ĠBij ma
ĠFean ster
pak ken
Ġkeats feriening
ĠÃ»nts n
ĠFro ukje
Ġautom atysk
Ġcon st
Ġlich aam
ĠRoe st
az ens
ĠbÃ»tenlÃ¢n ske
Ġfaksin aasje
ĠOr ganis
Ġvak er
Ġsal aris
ĠMa x
ĠMel bourne
Ġkrimin aliteit
Ġbijz ondere
Ġkomple et
ĠWijn stra
Ġdriuw ende
Ġoanb efel
spor ters
ĠEx po
Ġdram a
Ġgedicht en
Ġoprom me
Ġwins k
Ġticket s
ĠMen aam
Ġskuld ich
ĠJou re
Ġoertr Ãªding
ĠwrÃ¢ldkamp ioenskip
ĠGemeente belangen
ĠBed nar
Ġvoedsel bank
ĠBes ikers
Ġspeel t
ĠSal ang
Ġerv aring
Ġpens joen
Ġmaatschap pij
ĠSine eske
ĠMir anda
Ġfas ili
yns idint
Ġdr ink
Ġcro w
Ġverantwoordelijk heid
ĠYou Tube
Ġdoss ier
Ġcontain ers
robi olooch
ĠEag les
Ġtradis jonele
AS T
ĠBijl sma
ĠTsjer ken
Ġpel oton
ĠCornel is
ĠPortuge eske
Ġwiss ichheid
ĠTsje ch
ĠSchur er
Ġprev int
ĠHooge veen
ĠJood se
ĠKoarnwer tersÃ¢n
Alex ander
ĠItzh ak
Ġsowies o
ĠStroet inga
ĠBednar ek
P LU
T roch
b ef
c z
c ces
f joer
f amylje
h alen
i bel
k Ã¢ns
l asse
l inde
n de
p rint
p older
r aten
s ide
u zen
w w
z ame
Ġ 41
Ġ 342
Ġd a
Ġd w
Ġd olf
Ġd yselde
er ts
Ġf en
Ġf el
Ġm ult
Ġb an
Ġb il
Ġb ag
Ġh oud
Ġh eite
Ġn ut
Ġn Ãªsten
Ġk opp
Ġg if
Ġt ru
Ġt immer
ĠD iel
ĠD iks
Ġyn ste
ro ok
oar e
oar de
Ġe ss
le aze
Ã» te
Ġp ei
Ġp yl
Ġp aden
re em
Ġop helje
it i
de b
ĠDe elen
ĠS ig
ĠS her
ĠS joernaal
ĠF raksje
ĠF oppe
ĠF DF
ĠF estival
Ġl ait
jo gge
Ġder tig
Ġge ast
Ġge Ã¯n
Ġal ris
Ġfer l
Ġfer ve
Ġst icht
ĠH al
ĠH ou
ĠH aul
ĠH ay
Ġek stre
ĠM uzyk
ĠW ass
ĠW urd
ĠW ielen
ĠW MO
Ġoer gong
ĠA qu
ĠA head
Ġse p
Ġwe gge
ĠE st
Ã´ v
Ã´ les
Ġz et
ĠL ut
ens e
ĠO e
Ġhet zelfde
ĠK oot
ĠT rump
ĠÃ´f t
ĠÃ´f rÃ»n
ĠÃ´f nommen
ĠJ asper
Ġhe at
ik ant
ik aasjet
Ġtroch hinne
ef er
Ġvan wege
ĠR eder
um ent
Ġkri st
ĠY chten
Ġwaar bij
Ġbes etter
af ersjoch
ot ten
ĠYn d
ĠÃ»nder tekene
ĠMar t
Ġtw at
art iids
ber ch
og raf
ve e
Ġbr Ã»n
Ġvoor uit
arre st
Ġber ger
ĠDÃªr fan
ite e
Ġver en
Ġver voer
Ġver zeker
Ġbet alen
Ġplysje buro
sj itte
ĠOm t
ĠZ and
Ġgeb rek
Ġkun st
ai Ã¯n
Ġkear n
del gong
Ġhjir foar
Ġminder heid
Ġdoch ters
ry t
Ġfl ugger
wi id
wi cz
Ġkan te
diel ings
ĠMei er
Ġjild ich
tem ar
pl anten
Ġkw ijt
Ġnaar toe
kel ijke
ere in
ĠSch okker
ĠÃºts jocht
ond ag
Ġmeer dere
Ġdaar mee
Ġfe ef
Ġdoel t
Ġged och
Ġhier d
Ġbelang rike
Ġdoor gaat
Ġgear st
mo andei
Ġbl om
Ġbl Ãªd
Ġper fe
ĠEl k
Ġynf eksjesyk
lo oster
Ġbep rate
ĠFer kear
Ġregel en
Ġregel jen
Ġregel ingen
hol pen
jit wei
Ġpre d
Ġkult uers
Ġspesj alisearre
Ġpolit isy
pers oan
stann er
Ġlos se
Ġgez el
bre ak
Ġfilm je
ĠRut ger
Ġferg ru
Ġprakt ijk
Ġfjoer wapen
ĠOan lieding
Ġkre gen
Ġtas tel
Ġgebe ure
Ġgeweld ig
Ġ7 00
por ter
Ġlike folle
Ġsu cces
Ġneed fÃ»ns
zig t
Ġferpleech kundige
Ġferpleech kundigen
Ġberop pen
Ġmiddel en
Ġferf iers
ĠÃ´fsk ie
Ġfertsjin net
ĠWetter steat
komm ende
Ġfis kerij
Ġspe kt
Ġpleats lik
Ġart istyk
Ġhanthaven jen
nie wicz
ĠAll inne
Ġmaan d
Ġparkear plak
ĠWil de
ĠFro u
Ġsek onde
Ġpod de
orp sen
Ġopsm yt
Ġmuo i
Ġwr aksel
Ġhan tsje
joert oer
Ġgebru ik
Ġpat iÃ«nt
ĠRoo sje
ĠWyl de
Ġsyl d
ĠhÃºshÃ¢ld ingen
ĠOoster man
Ġferkie zings
stasjon s
Ġveilig heid
eks amen
ĠCent raal
ĠRei tsma
Ġfierlje ppen
Ġprotok ollen
Ġplat foarm
Ġsoci ale
ĠGa ast
ĠAt lant
cl ub
Ġymp akt
ĠKoarn jum
ĠÃ¢ldjiers dei
ĠdÃºd like
Ġtsj uster
ĠFreule partij
Ġlief de
ĠSkÃ» tsjes
ĠSlach temar
Ġsig n
ĠSpe erstra
ĠWou ter
Ġym m
ĠAkker man
ĠKim swert
Ġqu aranta
ĠIsra el
ĠVel linga
Ġkass a
ĠWen je
ĠWeij den
ĠsikehÃ»sopn amen
jam in
Ġ09 00
erh eide
Ġeksk ur
Ġbinn end
Ġwon ing
Ġmob ile
Ġevene menten
Bra bÃ¢n
ĠAndre a
Ġrestau rearre
ĠIl se
Ġind ivid
ĠRea hÃ»s
ĠVit ens
bestri ding
ĠMilje u
Ġpoppo adium
df und
ĠÃ»ntbleat ing
Ġcrow dfund
PLU S
ĠKoot stra
' :
J o
U P
W all
b on
b ach
b la
d iversiteit
f it
f ilm
f rastruktuer
g y
h aad
i aan
m ard
m Ã»ne
o le
o os
p akke
s om
t he
t itel
u ri
w il
w ay
Ġ 52
Ġ uiter
te k
te lier
Ġd oek
Ġd uurt
Ġd ysels
Ġf oet
Ġf iets
Ġs oft
Ġw and
Ġm ens
Ġh ang
Ġh outen
Ġh ikke
Ġh onderd
ei lÃ¢n
Ġg ran
Ġt ij
ĠD u
ĠD ylan
Ġyn fallen
oar me
Ġen kele
ri m
Ġp leech
Ġp licht
Ġp inkster
re sje
re ven
Ġop sl
Ġop hÃ¢ldt
Ġop liedingen
li el
ke st
ed ei
as me
ur ken
ur gen
Ãº deast
ĠDe Wall
ĠS oep
ĠS AR
Ġbe stelle
ĠI M
Ġl am
Ġv allen
Ġder Ã»nder
Ġfer gel
Ġfer stÃ¢n
Ġfer riden
ier ders
ear ts
Ġst ienen
Ġst oppen
il ling
ĠB ear
ĠB ot
ĠB och
ĠW itte
ĠN y
ĠN ien
ĠN aut
ze m
Ġoer ble
ĠA rum
yk l
Ġha vo
Ġwe inen
Ġz aten
ĠÃºt lizze
ĠO aren
we k
un digen
Ġre petysje
op er
op ie
ĠK et
ĠK ei
ĠK aap
ĠK PN
ĠT aal
ĠT rek
Ġsk et
ĠG od
ĠG effen
Ġer ger
ik aat
ĠV is
ĠV elt
Ġli if
Ġli bbe
Ġpro be
oor den
Ġmear tal
um in
Ġwurde arring
Ġbes par
Ġso lid
ag ram
ĠMar co
Ġdi ag
Ġdi eder
sp el
Ġwy ke
Ġhel ikopter
og ing
Ġbr annen
ig heid
ver ing
ĠIn st
Ġhoe gde
Ġaan wezig
be c
be ammen
Ġtsjin oan
Ġtsjin hÃ¢lde
Ġber icht
Ġber ikke
Ġne emt
Ġbet on
Ġke al
bo den
ĠZ u
ĠZ warte
ab ik
Ġwant rouwen
ĠSt alen
foar sitters
Ġwerom fÃ»n
ble ss
Ġra akt
ran e
Ġoars om
tem ber
Ġnij jiers
Ġuit slag
ĠthÃºs wedstriid
ĠAn gel
ĠAn ker
ĠSch uil
mei jer
ĠÃºts k
Ġdaar van
Ġaf val
ĠSp art
mel o
amer a
Ġboer ep
Ġged rag
ene er
Ġpos ters
Ġsoarch personiel
Ġdel komme
Ġan alyze
Ġfle ach
ĠwrÃ¢ld rekÃ´r
ĠAr t
Ġbestjoer like
ha vens
ns ters
Ġtsien tÃ»zen
Frys ke
Ġsport klups
ga dering
Ġpar ken
stjoer ing
Ġtelef oon
Ġfaak s
Ġkoar ts
Ġrekken e
pel ijk
kap kes
Ġgez in
Ġsel de
Ġwurd ich
ĠGer brand
ĠGer ald
winn er
Ġhaad redakteur
ĠOer is
Ġtop skoar
Ġvol gens
Ġbehe iningen
Ġ200 2
ĠAlde hou
bes ite
ĠFre ark
Ġkre atyf
Ġak sep
Ġrol stoel
ko sten
Ġkompetysje wedstriid
ieden is
ĠSint rale
dra aie
ĠÃ»ntwikkel je
ĠambulÃ¢n sen
ĠambulÃ¢n ses
ĠFran s
Ġsubsyd zjer
Ġbeh oor
ĠÃºtsp rutsen
Ġterm ijn
Ġtro u
Ġfear boaten
ĠBen jamin
Ġteken et
Ġcoronapas jint
Ġkwaliteit en
spe ctie
Ġhanthaven ers
Ġmoei lijke
Ġele minten
Ġland elijk
ĠRen gers
ĠBl oem
Ġynveste arre
Ġbless uer
Ġch allen
Ġbeskerm je
ĠOranje wÃ¢ld
ĠOranje woud
Ġfisk jen
Ġynte ress
Ġem ot
Ġhannel jen
sh ip
ĠMet z
brÃ¢n sj
Ġpan yk
kan te
Ġarbeid smerk
Ġrjochte t
Ġlje ppers
Ġtsjerket sjinsten
Ġdraai ende
Ġplaat sen
Ġskoare boerd
Ġneedsaak like
proble em
Ġferstoar ne
Ġdeist ige
ĠÃºtnÃ» ging
ĠGa aster
ĠGel okkich
Ġbibli oteken
hop s
Ġann ulearre
Ġkontrolear je
Ġbewar je
Ġav ond
ĠRi anne
Ġlin ker
ĠbefÃªst ige
Ġsammel jen
Ġgesl oten
ĠKamp ioen
ĠferwÃ»n ings
kaar ten
Ġolymp ysk
Ġkrap te
Ã¶per aasje
ĠHeid a
rapp ort
ĠTot ilas
ĠEis inga
ĠPau lissen
Ġvervol gens
klus yf
ĠSkar ster
Ġneder laach
ĠBli je
Ġfirt uele
ĠEel ke
Ear st
ĠIngels ke
ĠJohann a
Ġprem jÃªre
Ġbehoe fte
Ġamateurf uotbal
ĠRich ard
azer ne
Ġbemann ings
ĠBerlts um
ĠFraksje foarsitter
ĠWass ink
Ġsep tember
ĠReder ij
ĠbrÃ»n zen
ĠOmt zigt
Ġfeef oer
ĠSoep boer
ĠBoch niewicz
ĠNaut a
ĠStalen burg
E D
F er
N ei
P S
S p
W V
b ma
c els
d oel
f eiligens
g rys
g ingen
g gende
h n
h oop
i ast
j inge
k ade
k ult
k rije
m s
m end
o and
p ad
r of
r Ã©
u ig
v rij
w Ã»ne
Ġ 95
Ġ 64
Ġ 69
Ġ ark
er pe
in o
in zen
ar iteit
Ġf on
Ġf jocht
Ġf oss
Ġs mel
Ġs akke
Ġs ertif
Ġde ed
Ġi er
Ġi js
Ġw insken
Ġw yks
Ġo oit
Ġb uurt
Ġh in
Ġn ear
Ġn ad
Ġn ekke
Ġg ol
Ġt os
Ġt yp
Ġin eens
Ġyn rjocht
Ġen oarme
ri gen
Ã» m
Ġp on
Ġp annen
Ġp ret
re pen
Ġop boud
Ġop groeid
ke ur
ers teld
ge sch
Ġfoar kaam
Ġfoar arrest
ĠS jo
ĠS os
is kers
is olaasje
ĠI ds
jo ersk
Ġv l
Ġv eilige
Ġoan lizze
Ġge speeld
Ġfer rin
Ġst Ãªf
Ġst ikem
ĠH oll
Ġek sim
ĠM c
ĠM ou
ĠM aai
ĠM odder
gen e
ĠB rits
ĠW es
ĠW illi
ĠW agt
ĠN yg
ze ma
Ġoer lein
ĠA N
ĠA g
ĠA ukje
Ġnei diel
Ġz ondag
id s
ok aat
ĠO li
gel egd
we sten
we ging
Ġre aliteit
ĠK am
ĠK unst
dt itel
ĠT el
ĠT ess
ĠdÃªr njonken
ĠJ ess
Ġsp reken
Ġr Ã´f
Ġr ang
Ġjier likse
Ġeen zaam
sk et
ĠR in
ĠR oan
ĠR uurd
ĠR itsma
Ġme ters
Ġme zelf
Ġwaar van
Ġbes et
Ġle sj
ĠYn wenners
ĠYn frastruktuer
Ġso er
ĠÃ»nder ling
ip pe
aal de
ĠC al
sp ons
ĠIn stituut
Ġfers ke
fe es
be urs
Ġkon sept
Ġtsjin stregeling
fer digen
fer wurker
Ġei landen
ĠOp fallend
Ġsne ins
Ġbel jen
edstri id
Ġtri en
ĠZ ui
ĠZ out
Ġgean de
Ġfin Ã¢nsjes
Ġfersk ine
ĠU l
Ġtal int
eili ging
Ġbern tsje
Ġboar st
Ġra ad
Ã« l
wer per
get en
Ġuit daging
Ġals of
ĠthÃºs wurkjen
ĠAn ke
ĠJo aden
mei tsjen
ĠSy tze
ĠNoar der
ank s
ĠSte enstra
Ġrjocht sjen
ijd agen
ĠfÃªst stelde
Ġplan te
ĠGe bben
Ġkant oaren
ha ving
Ġadv ert
Ġgel den
Ġske elt
fen is
Ġtoer iste
ring a
Ġmeld ings
Ġmeld punt
opp et
Ġregel mjittich
Ġfraach teken
Ġnacht opfang
Ġboek je
Ġprojekt lieder
Ġgez eten
Ġstud int
Ġiens idich
ĠgrÃ»n wetter
Ġhaad fert
Ġoff ic
ĠSport cast
Ġsnel ler
ĠFr Ã¢nske
aazje s
ater dag
ersk ynlik
Ġna uw
Ġops lein
Ġak ute
Ġwyn park
ĠFier lje
Ġmaat wurk
Ġbi z
Ġnjo ggende
Ġron den
ĠNat ionaal
Ġbuor d
Ġbuor den
Ġbuor lju
Ġlever en
kund ich
Ġpracht ig
Ġnjoggen tjin
Ġfear t
Ġtan imme
Ġhand haven
Ġferpleech huzen
Ġferrom mingen
Ġeas ket
Ġpark oers
Ġynst al
ĠHer mans
Ġkrit yske
Ġhistoar ysk
ĠWer eld
rei tsje
Ġgrutsk alige
Ġkaar tsjes
ĠTs jerke
uch telingen
Ġnoar deasten
Ġmaan dag
Ġsech de
Ġred den
Ġreedryd ster
Ġpap ieren
stien nen
ĠSij be
Ġferrass end
Ġhard drugs
Ġpsych yske
Ġoansl etten
ĠPeter sen
ĠÃºtst alling
Ġhoog te
ĠHyl ke
Ġvand aan
Ġwittenskip like
ĠMel les
Ġkrimin elen
lÃ» ker
Ġappartem int
hou der
Ġadvis earre
uss ie
ĠHend riks
Ġbro ek
ĠWÃ¢ld sein
Ġzieken huizen
Ġstab yl
Ġiishocke y
Ġiishocke yers
sw im
Ġeksper ts
Ġopstap pen
Ġspring t
Ġbehannel je
ĠBau kje
Ġoerien komst
Ġhurdfyts er
ĠsÃ¢lt winning
adem ie
Ġynspi raasje
Ġambysje s
Ġkringloop winkel
Ġact iviteiten
Ġment aal
Ġstude arre
Ġbla uwe
Ġoanpass ingen
Ġbos ken
Ġac c
mas ine
ĠSeg geren
Ġgym n
ĠFriez inne
ĠHeal wei
ĠBang ma
ĠTre vor
Ġferskyn de
Ġspesif yk
Ġgoedkeap er
Ġmonum inten
Ġfamyljel eden
ĠSo ciaal
Ġrealist ysk
ĠTwizel erheide
ĠRad io
Ġwaarsch ijnlijk
ĠIN D
Ġsportfers lachjouwer
Ġyntsjin je
Ġmok sels
Ġbena dere
Ġsake kolleezje
ĠSweed ske
Ġcoronast jer
Ġynstit Ãºt
Ġner gens
Ġtad racht
ĠLear lingen
Ġsympt omen
Ġflearm Ã»zen
ĠHaul er
ĠHay o
ikaasjet oernoai
Ġquaranta ine
Ġbinnend oar
mard um
Ġeksim pl
ĠMaai ke
ĠNyg ren
E F
G roep
H ier
I en
O ars
S F
b Ã»ten
b rÃ»k
b ieders
c amp
c if
f ar
g rutte
h on
h aal
h orst
i straasje
j ut
k u
k etten
l jocht
l eiding
m us
n ossen
p ing
s ing
s on
s jerke
t oernoai
y ke
z ili
Ġ 86
Ġ 85
Ġ 81
Ġ angst
te chn
Ġd rige
in um
Ġf ij
Ġf akt
Ġf ingers
Ġs inten
Ġs ongen
Ġs maak
Ġw jer
Ġw ind
Ġw erstel
Ġm Ã»zen
Ġo gen
Ġb ol
Ġb rekken
at lon
Ġh illi
Ġh inder
ch ap
ei er
Ġn i
Ġk ok
Ġk ort
yn e
st ar
st utsen
Ġg raf
Ġfan at
Ġt rij
Ġin der
le af
Ġp uz
re st
re inen
Ġop fallende
li ge
ke uring
Ġte ory
it or
ter m
ĠDe enske
ĠDe inum
ge s
or ge
Ġfoar hinne
Ġfoar werp
ken a
ĠS c
ĠS i
Ġbe stelling
ĠF K
ĠF ed
ĠF aak
ĠF UMO
Ġl ette
Ġl atte
Ġv ij
Ġder de
ear ste
oe ge
oe pen
ĠH uzum
Ġj as
il len
ĠM ijn
ĠM em
us te
iet ske
ĠW ets
ĠW hats
ĠN V
Ġoer w
ĠÃºt jÃ»n
ĠÃºt riden
id aasje
ĠL ive
ĠO d
we er
un ysje
un iteit
Ġc ultuur
ĠK ru
ĠK la
ĠK ick
ĠK atal
ĠK limaat
ĠK looster
ĠT r
ĠT Ã»m
Ġpl oeg
Ġsa fol
Ġsk aad
Ġsk od
Ġsk ieden
Ġwie te
ĠJ ant
ĠJ els
ĠJ onk
ĠJ opie
ĠG oud
ĠG iro
20 20
20 28
Ġhe kt
Ġer uit
ĠV oort
Ġhar kers
Ġr et
Ġr Ã»ten
Ġjier liks
Ġjier wiksel
ef d
ef ter
Ġli s
ant inga
sk omm
ĠR yp
ĠP en
ĠP ers
ĠP iersma
ĠP rix
jouw ert
um as
Ġbes iker
ut end
int ig
ĠÃ»nder fine
ĠMar kt
ĠMar inus
Ġtw illing
ĠC all
ĠC ultuur
ĠC BS
ĠC nossen
sp ek
sp rek
ven em
Ġhel d
Ġmin dere
Ġmin isters
og t
bb els
Ġsit ting
Ġon d
Ġfers l
rom p
fe ctie
oal len
Ġsl Ã»zen
Ġste ds
Ġber te
fer fier
Ġgemeente bestjoer
Ġbeg roeven
enn isser
Ġver standig
Ġbet rou
Ġke ep
sj ite
bo el
Ġtri jen
ĠWe vers
if el
Ġze g
Ġprov insj
Ġmoet ingsp
ske s
Ġhjir mei
Ġef te
oop t
Ġfl ot
Ġtal ent
Ġtal itten
Ġboar ter
Ġein igje
kl achten
ĠthÃºs isolaasje
ĠJong sma
Ġdaar voor
Ġaf sch
ĠSp esj
Ġtest lokaasjes
br ingen
Ġpr inc
Ġsoarch oan
Ġdoor gaan
Ġfle ks
Ġplan tsje
ried ing
ried slid
Ġske akel
Ġho ast
Ġopl osse
pro ef
Ġonder zoeken
Ġhop elijk
ĠTh uis
Ġbep alen
ĠKN G
pp el
Ġbal len
ĠBe wenners
ies z
Ġakt iv
Ġkn ipe
Ã¤ ter
Ġkle ed
ĠOf f
ĠHo reca
Ġkontr Ã´les
Ġpres idint
Ġvol doen
Ġdu iz
Ġden kt
Ġsnel trein
ĠAlde holt
ĠAlde mardum
Ġgeh ouden
ĠMin der
rekken e
Ġleaf hawwers
Ġbu ien
Ġbeskikber e
Ġfraksje s
Ġbelangrij ke
Ġlever jen
alis me
goed ing
ĠHol t
Ġtelefyzje programma
Ġwinter stop
Ġopp akke
iz zers
Ġsubsydzje s
Ġstoar t
weg ingen
weg ings
Ġbelangrijk ste
Ġeas k
ĠSw eden
Ġynst allaasje
Ġlea uwe
Ġbosk jes
Ġbewe gen
ĠHa hn
lÃª ze
Ġat let
Ġoerli zze
Ġpass end
Ġferdigen ing
ĠMan kes
ĠBl ack
Ġynveste arring
her ne
Ġregear ing
ĠHam ar
ijf f
Ġfracht weinen
Ġoers etting
Ġparkear terrein
Ġdjip te
Ġoansp rutsen
Ġpopul aasje
Ġopt ie
Ġstrukt urele
Ġgebru ikt
ation al
Ġopkn appen
ĠHiel ke
Ġwittenskip pers
Ġseks uele
lÃ» ke
Ġbeli bbe
hou ders
Ġtwiv el
Ġboarger ynf
ĠPo iesz
Ġferm ist
Ġmuzik ale
Ġker rels
ĠEx cels
Ġkwalif ikaasje
Ġsoarchyn stelling
ĠKuip er
Ġfoarsjen ningen
Ġyntins ive
ĠAnton ia
ĠAnton ius
Ġricht lijnen
Ġkandid aten
ĠSter ker
Ġkal inder
Ġautomobili sten
Ġferfang er
Ġsloop t
Ġhaadklasse partij
Ġuniversiteit en
ĠNieuw poort
Ġkontrolear jen
ĠDoarps belang
ĠRi xt
Ġfernij ing
Ġkonf ron
atist a
ĠSup er
Ġferle egjen
Ġbasketbal lers
Ġtap ast
Ġvoorber eid
Ġtoerno aien
ĠSkoal len
buor den
Ġkad o
ĠTuin stra
ĠferdÃ» bel
On ze
ĠHim elf
Ġfla ters
Ġaksjefier ders
ĠStelling werf
Ġoplever e
Ġvolle dig
Ġfavori te
ĠTwe ede
Ġonge veer
fet amine
Ġoanwi zingen
Ġkateg ory
ĠIJs sel
ĠbeÃ¤ n
Ġatt raksje
Ġwette roer
ĠFal kena
Ġheite lÃ¢n
ĠSig rid
ĠAqu a
ĠEst her
ĠNien ke
ĠInst agram
ĠSpart a
ĠOeris el
grys lik
Ġnear ne
Ġhaadfert ochte
ĠHauler wyk
Ġinder daad
ĠTÃ»m ba
Ġsafol ste
ĠCall ens
Ġprovinsj aal
ĠExcels ior
! '<|
2 000
D o
G jin
K om
K ore
N ormaal
O ok
V er
V eel
Z oo
a akt
b ol
b ra
b ant
b Ãªden
b rig
b ureau
d an
f li
g rij
h Ã»
h um
h eker
i q
i at
i aanske
k risis
l ong
l Ãªste
m i
m ie
m aster
o uw
o un
o ant
p ma
p es
p ast
r akt
r Ã´le
s ers
t inte
t iten
v isie
w ap
w ater
w ietske
y ber
z y
z ijn
Ġ 74
Ġ 99
Ġ 53
Ġ 63
Ġd Ãºn
Ġd onder
er kt
in ess
an im
an tsjes
ar jende
ar beid
Ġf oer
Ġf Ãºzje
Ġf atsoen
Ġw c
Ġm unysje
Ġo erste
Ġo seaan
Ġh um
Ġh Ã»nen
ch a
Ġk aai
Ġk orte
st ranten
Ġg ang
al ys
Ġfan d
Ġt Ãº
Ġt rekken
Ġt ennis
ĠD ei
ĠD om
Ġin druk
Ġyn folle
Ġyn helle
Ġyn stellings
ro epen
ri jen
Ġe chter
Ġe vak
le k
Ġp in
Ġp ad
Ġp un
ne e
Ġte in
Ġte gels
de s
Ãª res
Ġmei koarten
ie ken
ge ast
ge ul
Ġfoar men
ĠS el
ĠS leat
Ġbe hÃ¢lde
ĠF oeke
ĠF eenstra
Ġl uis
jo ut
Ġv oet
Ġv roeger
Ġder achter
Ġoan wiisd
ys jer
Ġfer lo
Ġfer gelyk
ear ch
Ġst ront
ĠH aar
ĠH anne
il er
il dere
ĠM eld
ĠM ans
ĠM oster
ĠB ef
ĠB oarn
ĠB ies
ĠB rit
ĠB atista
ĠW ind
ĠW Ã¢ns
ĠN iger
ĠN oflik
ĠN EC
Ġoer nacht
ĠA z
ĠA rane
Ġse alen
ĠE va
ĠE ise
Ġmar kt
aan sk
ĠÃºt komsten
ok t
ok io
ĠO ns
gel e
gel ijke
un ing
un ter
Ġre chter
Ġre anim
Ġc laim
ĠK eij
ĠK inder
ĠK rante
Ġ1 40
ĠT V
ĠT okio
ron gen
Ġsk am
Ġsk atten
Ġsk ynt
ĠÃ´f makke
ĠÃ´f kundige
ĠÃ´f fierd
ĠJ ar
ĠJ onker
ĠG or
ĠV and
ĠV oetbal
ĠV liel
Ġsp ier
Ġhar kje
Ġr are
Ġik oan
and ant
ĠP ap
Ġkri m
men iÃ«
ĠY pe
Ġwaar nimmend
int ra
int ator
ag ina
ĠÃ»nder d
ĠÃ»nder wi
ĠMar ia
oan je
oan fal
sp ile
sp esj
os int
Ġmak kers
eid zje
bb ers
se vic
Ġien fÃ¢ld
yl d
be per
be urt
ĠAl y
ĠAl teast
Ġa telier
fer wÃ»ne
Ġbeg repen
Ġne am
enn y
Ġel linde
ĠOp er
Ġver len
Ġver stand
Ġbet ra
ist oris
Ġwel kom
Ġsels stann
ĠZ oet
ĠZ elden
Ġze s
Ġbo od
Ġsjo g
skip per
ĠU iteindelijk
ĠU WV
Ġwetter sport
ĠbrÃ¢n brief
Ġorganis ator
ĠÃ»nt fang
Ġra am
fier e
wer da
Ġzo ver
Ġein tsje
sit ten
pl uss
Ġgen Ãª
kel ijker
ĠAn s
Ġsw alk
Ġtak s
Ġtak end
Ġlyts sk
ĠÃºts laggen
Ġdaar in
use ktor
ic ket
Ġrjocht en
Ġwas kje
ss ens
Ġrom an
Ġkolle ktyf
Ġmom ente
Ġbl omme
ĠAr beid
Ġtiisdei temiddei
ĠGe orge
ĠSnits wike
ĠRo b
Ġgel ukt
Ġske el
Ġfuotbal feriening
Ġper man
Ġbetsjut ting
ĠEl ly
ĠEl tse
wurd fierder
ĠhÃºs lik
Ġonder deel
Ġhear lik
ĠKe unst
ĠGrins lanner
Ġpre st
Ġpre dat
Ġspesj alist
Ġswier ferwÃ»ne
Ġferk Ã¢lden
und ige
Ġtel ler
Ġsm oar
Ġjun i
erd yk
Ġstim den
fre on
str yd
Ġfeilich heids
Ġhaad spons
Ġyns joch
Ġferskil lend
Ġprod uc
ĠAlde h
Ġsok ken
Ġgeh aald
bes l
Ġmogelijk heid
Ġcont role
ĠrÃ»te s
aur ant
ue es
ĠÃ»ntwikkel jen
ĠÃ»ntwikkel ings
Ġstek ynsidint
Ġrisik ogroep
ĠBru ins
Ġmidden yn
stap pen
Ġstien m
Ġtelefoan tsjes
Ġskoar t
bl Ãªden
Ġferfier d
Ġferpleech hÃ»s
Ġken ink
Ġfoars joen
Ġstikstof Ãºtstjit
Ġfertsjin jen
ĠGri kelÃ¢n
ĠstÃ¢n byld
ĠRyks universiteit
Ġfis ken
Ġspe cif
Ġlast ige
ĠHa itsma
ĠRot t
Ġhuis arts
Ġkwets bare
Ġoefen je
Ġoefen ingen
Ġhann ele
Ġgar nal
ov id
kri gen
Ġbru ts
ĠMan agement
ĠTsj Ã»ke
ĠSur in
Ġch at
ĠÃ»nts p
Ġkonst ruksje
Ġteloar stellend
Ġbestjoers leden
Ġfee sten
Ġbeker finale
ĠTa eke
Ġskilder ijen
ĠGo aiÃ¯n
Ġstip ep
kan ker
ĠMer c
Ġverb onden
gemeen te
Ġferm iste
Ġferm oarde
Ġskou boarch
Ġynsk reaun
Ġboaiem delgong
bet oan
ĠLo de
Ġcomp etitie
Ġoardelmeter regel
Ġbeper kt
ĠJacob i
Ġferhe ging
Ġheft ich
Ġsted hÃ»s
gelegen heden
ĠPar ys
ĠEd win
ĠJanne wietske
ikte e
ĠOs inga
ĠSu der
ĠfakbÃ»n en
Ġvri enden
Ġprote sten
Ġsjon gen
Ġeksploit aasje
wies a
Ġren ov
ĠSeg aar
Ġprofite arje
Ġstimulear jen
ĠBest joer
pot heker
betel je
ĠAlvestÃªde hal
ĠFrij willigers
ĠBi os
ĠDre sevic
abri ken
Ġmax im
ĠKenink ryk
ĠRoos en
ĠbeÃ« in
ĠTechn ysk
ĠLou ise
Ġverspr eiding
Ġmyl de
Ġtafal lich
Ġfiet sen
Ġdistri bÃºsje
Ġfinansier ing
Ġdisc ussie
Ġsco ot
ĠFili p
Ġliken se
ĠRis pens
Ġtribu ne
Ġfari ant
ĠKwadrant Groep
Ġdonker e
ĠAal dering
irc ul
ĠHas ker
Ġunan ym
lasse mint
Ġmuoi lik
ĠSlachtemar aton
ĠSkarster brÃªge
ĠJess ica
ĠKlooster man
Ġwetteroer lÃªst
ĠAqua Zoo
ĠMoster t
ĠWÃ¢ns wert
ĠKeij zer
ĠZelden rust
Ġmomente el
ĠTsjÃ»ke mar
0 41
C h
D izze
F ly
H iel
L M
O ost
R ail
S oms
a ach
b an
b ak
b lok
h olle
i fer
i oene
m ed
m ende
n od
r ende
s c
t oer
v olle
v lak
w im
y er
z ine
Ġ 77
Ġ 49
Ġd j
Ġd unen
Ġd aalks
in x
an u
an aal
Ġde aslach
Ġw alf
Ġw ww
Ġo ade
Ġb ril
Ġb aalt
at uurlijk
Ġh eide
Ġh Ã»d
et sje
Ġn amelijk
el ingen
Ġk lik
Ġk etting
st aal
st ruksje
je cten
Ġg ig
Ġg ienen
Ġfan Ã´f
Ġt rop
Ġt uin
ĠD ol
Ġin iti
Ġp orte
Ġop makke
ke at
ed ysje
Ġte foaren
it a
de p
om pen
om tiden
ge zet
Ġfoar dielen
ĠS amb
ĠS Ãºdeast
is ip
Ġom loop
Ġl ink
Ġl ud
Ġl jochte
Ġv is
Ġv lak
Ġv wo
Ġoan kl
Ġoan mel
Ġoan fierder
Ġoan riden
Ġoan besteging
Ġge sin
aar de
Ġmo eder
ier e
ĠH ui
ĠH okker
Ġj Ã»nt
den ing
den burg
ĠM al
ĠM ak
ĠM ag
ĠM ors
ĠM KB
ĠM oarre
us sel
ĠW ep
ĠW ichtich
Ġby dragen
ad res
ien komst
Ġoer name
Ġoer deis
ĠA us
ĠA potheker
im o
me enschap
Ġnei jier
Ġnei sjoen
Ġha al
Ġse ctor
Ã´ ne
Ã´ ven
ĠÃ»n gel
ĠL am
un ic
Ġre der
ĠK at
ĠK aren
ĠT il
ĠT ek
Ġpl aten
Ġsk el
Ġsk uor
Ġsk oaren
Ġsk roeven
ĠG outum
Ġer f
Ġdo ed
Ġtroch jÃ»n
Ġsp ont
Ġoar sprong
sk undigen
ĠR ien
ĠR ub
ĠR ekker
ĠP ot
ĠP ee
ast ing
Ġear moed
Ġear betoan
Ġle an
Ġwi erskynlik
af f
af fe
af ond
Ġhiel titen
ĠYn lÃ¢nske
Ġgoed kard
tel jen
ĠÃ»nder brocht
ĠÃ»nder werpen
ou cher
ĠMar tens
Ġtw atal
Ġtw intig
ĠC ard
ig h
ig ings
Ġkl a
Ġkl oppet
Ġhoe ch
Ġwurk wize
Ġa vent
Ġei sen
Ġne amen
Ġ20 23
Ġmet oade
ate s
Ġver n
Ġver be
ist oal
ĠSe elÃ¢n
Ġke as
inn ende
Ġgew one
Ġgew erkt
ab yl
nim ming
if t
met aal
Ġze ven
Ġbo om
Ġgeb racht
Ġgeb ieden
Ġfertel den
ĠU r
Ġskoal koepel
ket en
Ġkan sen
ĠHar inx
wer ter
sl oten
Ġdoarp ke
ĠthÃºs wurkje
ĠthÃºs soarch
ĠJo ris
ĠSch ot
mei wurker
ĠÃºts et
ĠÃºts ykje
Ġdaar bij
ft al
ĠNoar wegen
Ġtest strjitte
atie ve
Ġgr inzen
ĠbÃ»ten gebiet
ene ma
Ã© t
Ġter p
Ġmoandei s
Ġ5 000
Ġfak Ã¢nsjes
Ġdoor ge
ĠBo vendien
ass ist
Ġgear f
Ġmom enten
Ġro u
Ġro er
ĠAr chief
Ġlear aren
Ġmed al
ĠGr yn
ĠGr Ã»n
ct ies
ks yg
Ġfuotbal klups
Ġtoer ist
Ġstil le
Ġsport ive
Ġsport ferieningen
ĠEl tsenien
Ġpub like
Ġpe allen
Ġ19 70
ĠGro enL
ĠGro enLinks
Ġoanp asse
Ġopn amen
Ġopn ieuw
Ġwyl d
Ġbasis Ã»nderwiis
Ġtaf fel
Ġdra aid
Ġteam lieder
min ister
ĠLe o
Ġdruk ke
bed rach
str jitwei
iden t
ĠAmsterdam mer
Ġsinne bl
Ġdu pe
ĠMo us
Ġont mo
ĠKeamer ferkie
Ġar che
Ġsane amd
Ġgeh iel
insj ele
Ġak sept
Ġak kommod
Ġple ksyg
ĠdÃ» k
ĠdÃ» kt
Ġun if
Ġtar iede
Ġmeast al
Ġferli est
ĠUnder wiis
Ġkli m
ĠwarskÃ´ gje
Ġgas fjilden
ĠHol lÃ¢n
ingst iden
Ġdemon stranten
Ġtro ud
Ġsoan tsje
Ġhand ich
Ġ194 4
Ġmer kt
Ġken teken
Ġ75 0
ĠÃ© cht
ĠTer herne
OD C
Ġspit igernÃ´ch
Ġger aakt
gri d
ĠWar inga
Ġspe ed
Ġsle chte
joern alist
uld ige
Ġmotor rider
ĠCar oline
aliÃ« n
Ġkuier jen
Ġkuier tocht
ĠBl au
Ġmins k
ĠKomm ende
Ġtrochs ette
Ġronde s
rouw ens
Ġskjin makke
Ġbesch erm
ĠWil kens
Ġrit ten
Ġstu ts
ĠentÃ»sj asme
Ġkof f
Ġopsk aald
ĠbÃ» se
ĠMich elle
Ġcontact onderzoek
ĠÃ»nderdÃ» kt
ĠSteate fraksje
ĠMid s
ĠMid del
ĠKn ipe
ĠBra zili
ĠÃ´fwacht ing
Ġreserv es
ĠNatuur lijk
bar ren
Ġpan ielen
ĠkliÃ¯n te
ĠWijn ia
Ġarbeid s
Ġverb ind
Ġferplicht ing
fis kerij
ĠStien stra
Ġfersoargings hÃ»zen
Ġoph ongen
Ġeksplo azje
Ġabsol uut
Ġsjoern alisten
duk ten
ĠFle dder
Ġdram atysk
Ġontwikkel en
Ġfil me
ĠGel ukkig
Ġsteate leden
hoe ve
ĠPoal ske
Ġfrjem de
Ġynfol je
Ġmilit Ãªre
Ġliter atuer
Ġdirek te
ĠÃ»nfer wachte
monum inten
Ġsul veren
rinn ende
Ġbewar jen
oger man
ĠBeek man
Ġdead like
ĠWei ssens
ĠAc ute
ĠGelder lÃ¢n
gewoan e
Ġren tree
ĠOost stellingwerf
ĠJuli an
Ġfok us
ĠferwÃ»n ingen
Ġstimulear je
Ġcre Ã«
ĠferdÃ» bele
ĠÃ»nwiss ens
Ġfotog raaf
Ġtele ur
Ġkuorbal lers
iepen ing
Ġaud i
Ġfysio terapeut
Ġyngri pe
Ġinte ress
Ġwoar tels
Ġskrift like
Ġtil lefoan
Ġhoarekas aken
Ġmelkfee hÃ¢lders
Ġkonsint raasje
Ġfergun ningen
ĠNacht wacht
Ġplom fee
ĠSchuur man
ĠAndrea e
bless uere
ĠGerbrand y
Ġtos ke
Ġynstal learre
ĠWets us
Ġmoetingsp lak
Ġprinc ipe
ĠKNG U
Ġboargerynf iltrant
ĠZoet endal
pluss ers
ĠSamb issa
ĠjÃ»nt iid
ĠWep eren
ĠGroenL even
Ġpleksyg lÃªs
ĠFledder us
ĠWeissens ee
- ,
E Ã©n
G uon
I J
K N
K in
N N
N u
P C
S ne
S joch
b ber
b ork
c te
c ro
c ola
f Ãº
f ort
f ynt
g al
g ast
g jende
k a
k andid
l us
l open
m annen
m bo
n sen
n ijs
n ota
o ate
p assen
s a
s etten
u x
u rig
v Ã©
w al
w earde
w inkels
Ġ 78
Ġ 54
Ġ 72
Ġ 57
Ġ 47
Ġ rug
Ġ 350
Ġ 0800
en ken
en ario
in ers
in yk
ar ium
Ġf inger
Ġs mer
Ġs wurd
Ġde finsje
Ġw ijk
Ġw Ã³
Ġm bÃ»
Ġb Ãªden
Ġh ong
et arium
Ġn on
Ġn aden
Ġk ol
st sjinst
st udinten
Ġg re
Ġg ram
Ġt bs
Ġt onger
ĠD issel
Ġyn sl
Ġen oarm
Ġe am
Ġe ink
Ã» p
Ġop vang
Ġop lichting
li gen
ne ss
Ġte e
ol ling
ak ers
Ġmei st
Ġmei meitsje
ge gevens
Ġfoar sk
Ġfoar fal
Ġfoar doar
Ġfoar ljochting
Ġfoar gonger
ĠS li
ĠS oe
ĠS ik
ĠS omtiden
Ġbe helle
ĠF el
Ġom lizzende
ĠI erlÃ¢n
Ġl Ãºster
Ġoan keap
Ġoan geande
Ġnet ten
Ġal teast
Ġfer zje
Ġno t
ear e
ear jende
Ġst ij
Ġst rate
ĠH an
ĠH ier
ĠH un
ĠH ek
ĠH ennie
Ġj uli
Ġj anu
ĠM olle
ĠM ech
ĠM ilieu
ĠB ril
ĠB ogerman
ĠW o
ĠN yk
Ġoer flak
ĠIt al
ĠA rie
ĠA tte
ĠA ko
ĠA gri
ĠE g
ĠE artiids
Ġz on
ĠÃºt kaam
ĠÃºt feart
rys k
ĠL eiden
ĠL ucht
ĠL ars
ĠO ud
ĠO ude
ĠFrys lan
we agen
un sters
Ġre delijk
Ġc or
ren e
ren zen
ĠK ir
ĠK abel
Ġ1 80
es je
ĠT rie
Ġsa wiesa
Ġsk uon
ĠÃ´f lever
ĠÃ´f dielingen
ĠJ it
ĠJ un
ĠG u
ĠG aliÃ«n
ap le
Ġer in
ik els
ik robiolooch
ĠV ak
ĠV erm
Ġsp yt
ef stra
Ġli ever
ant gum
sk ou
ĠR am
ĠR Ã»n
ĠR uss
ĠP an
ĠP od
ĠP raag
ĠP RO
ir ns
um p
Ġme ub
Ġbes ef
ot lÃ¢n
tel aar
ĠÃ»nder hannel
os o
ber ne
olle ezje
eder atie
Ġri vier
Ġfers lein
fe er
Ġwurk gelegenheid
Ġoant aast
ĠAl ten
Ġber ch
Ġber oep
fer g
Ġbeg on
Ġei lanners
Ġ20 10
Ġbed ra
stel l
up er
ate lid
Ġver boden
Ġver geten
Ġbel let
Ãºt stjoering
Ġtri ed
ĠWe sten
Ġgro eide
ab ed
ab on
Ġlyk spul
Ġiepen ingstiden
Ġmoet sje
Ġgeb eld
Ġpers onen
Ġkear e
Ġbest im
land se
ĠSt ok
Ġor de
lij ker
ket ing
ent ie
Ġwerom komme
wenn ing
ĠÃ»nt ken
Ġferh Ã»
Ġjild ende
Ġzo wel
Ġbedriuw eter
lear ring
sl uit
Ġfuort fallen
pl oegen
Ġcorona gefallen
Ġsw om
ĠJan et
ĠSch ip
Ġpas sy
Ġfam ili
ĠÃºts ocht
ĠSp aanske
ĠSk ip
ĠSk otlÃ¢n
Ġgr eiden
Ġwen hÃ»s
Ġpo Ã«
ĠBo om
ĠSn akker
Ġsch oon
Ġsn ie
Ġsyk aksje
di ken
Ġfyts paden
Ġnatuer like
Ġdiel name
Ġferoar saak
ĠEl gersma
Ġefter grÃ»n
ĠAm ir
lo it
Ġpar ad
Ġpar kearre
Ġ4 50
ĠrÃ»n te
Ġblij f
ho us
ho tel
Ġwin ters
Ġide ale
Ġbep pes
Ġwit st
fin ing
Ġpre em
Ġtaf alt
Ġswier der
Ġboek ingen
Ġmuz iek
Ġres er
Ġble ek
Ġpersint aazje
ĠAlle en
ĠPro Rail
Ġtoe ge
Ġ200 1
Ã¯ teit
Ġprakt iken
Ġfern ijd
ui gen
Ġgeh ei
Ġdoarps bewenners
Ġkompetysje s
wen te
Ġbi ologyske
Ġferli enen
Ġfar sk
ĠSm als
Ġsin tsje
Ġkryst fakÃ¢nsje
Ġbre a
Ġboe kt
Ġtan ommen
ĠOn ze
ĠOn no
Ġ194 0
Ġsocht en
Ġkap ot
Ġ9 00
ĠKollum ers
Ġkwyt rekke
ĠAnd rÃ©
Ġdyn am
Ġynst rum
ĠstÃ¢n punt
Ġreiz ge
Ġstjer re
ĠRot te
Ġflecht en
Ġtank jen
Ġhanthaven e
val id
Ġtrochs ocht
Ġfjoerwurk ferbod
Ġoers et
Ġverd riet
Ġeks amens
ĠWester bork
Ġferbetter ing
ĠJoad sk
ĠCo hen
Ġkons erten
Ġadvok aten
Ġvrij willigers
onker ak
ĠRoe meniÃ«
bus ke
Ġkommissaris sen
ĠNoor den
Ġhou ts
Ġlog isch
ĠAd ri
Ġblyk ber
Ġdjoer e
bu ien
Ġminst ens
ĠynhÃ¢ld like
ĠRei zen
Ġree Ã«n
Ġpromov earret
Ġaange geven
ĠFin an
Ġwinn ende
Ġfold ogge
nimm ende
Ġcoach es
mate ri
Ġgener aasjes
Ġfergoed e
Ġspel er
cl us
Om dat
Ġkurs ussen
ĠKult uer
Ġperspe ctief
ĠScheep vaart
cher ming
Ġoertr Ãªd
ĠÃ»ndersyks buro
Ġfinzenis straf
Ġtur nsters
Ġpyk jes
Ġlief st
ĠSteen bergen
ĠDoarps wurk
rinn end
Ġoansk erpe
Ġboatsje minsken
Ġbesoar ge
wa ele
ĠTsien tallen
ĠFol ker
Ġsus ke
ĠDÃª roer
Ġynge wikkel
Ġgevaar lijk
ĠWier da
ĠÃºtb rekken
ĠmÃ»le kapkes
Ġomsk riuwt
Ġwyt was
vin den
splak ken
Ġspesif ike
Ġferling ing
Ġfleu rich
Ġzwe m
Ġeksperim int
ĠChampion s
ĠChampion ship
Ġylleg aal
Ġemoasje s
inu Ã¯teit
ĠLandbouw museum
Ġynbrek kers
ĠBasketbal l
ĠEf kes
ĠKle efstra
ĠBle eker
Ġerken ning
ĠÃ»nderfre gen
ĠHerberg ier
Af rika
Ġup date
Ġseld sume
Ġkep pele
Ġmanifest aasje
Ġklimaatferoar ing
ĠJoch em
Ġgerjocht sh
Ġwerklik heid
ĠTjongers kÃ¢ns
weinsj auffeur
ĠJut ta
Ġearre barren
Ġdolf yn
Ġynfeksjesyk ten
Ġgran ul
ĠKet lik
ĠKei zer
Ġwyke inen
Ġbehoor lijk
ĠOli ver
Ġlesj aan
ĠZui der
Ġcoronastjer gefallen
ĠJant ine
ĠPen jum
sjite kt
hum us
iq ue
wap ens
Ġbood schap
Ġhaadspons or
ĠAldeh aske
besl Ãºt
Ġgig ant
ĠCard oso
ĠSchot anus
Ġmedal jes
ODC AST
ĠwÃ³ l
ĠAgri cola
ĠSnakker buorren
1 202
A m
A pp
B el
N a
O er
S P
V ID
V isma
a er
b ers
c am
c onfer
f i
f la
g raaf
h urd
h ande
i end
j alen
k sen
k king
l op
l oss
n d
n r
n ed
n ammen
p end
p ap
p ende
r jitte
r asse
s al
s nel
u v
u es
u earre
v elf
v alt
w yn
w ed
w ille
w alif
z endal
Ġ 68
Ġ yt
Ġ 87
Ġ 62
Ġd aad
Ġd achten
Ġd rukt
an ley
end a
ar yske
Ġf ig
Ġs ho
Ġw o
Ġw oord
Ġo cht
Ġb aar
Ġb aal
ei ze
Ġk ent
Ġk orpsen
Ġk azerne
yn stit
st ring
st room
Ġg it
Ġg lo
al ch
Ġt Ã»k
ĠD ro
ĠD yk
ĠD rie
Ġin woners
Ġyn w
Ġyn keap
Ġyn brutsen
ri en
ri te
ri se
ri tsma
ri teiten
le et
re m
Ġop ste
Ġop arbeid
ke azen
ne el
Ġte gem
as ium
ak te
Ġmei hel
om mel
ĠDe waele
ge steld
Ġfoar oan
Ġfoar stanner
ĠS er
ĠS amen
ĠS ib
ĠF Ã»ns
Ġom ride
Ġom standigheden
ĠI rene
Ġl okkich
Ġv ele
Ġv oren
Ġv ieren
Ġv lieg
Ġoan gean
Ġoan komme
Ġoan komt
Ġge p
Ġfer fierder
Ġfer falle
Ġfer fangen
oe fen
Ġst rop
Ġst ate
Ġst azj
Ġst okje
ĠH istoar
il ers
ĠM as
gen ie
ĠW aal
ĠW ytse
ad ia
ĠN ic
Ġoer fallen
Ġoer bliuwe
Ġoer lange
ĠA p
im a
im en
me s
ste in
ste kken
lÃ¢n bou
Ġwe gen
Ã´ t
Ġz ingen
Ġz onne
Ġz aterdag
ĠÃ»n gem
ĠL ie
ĠL es
ĠL ub
ĠL iss
ĠL ike
Ġre zjy
op je
Ã´f stÃ¢n
Ã´f dielingen
ĠK or
ĠK op
Ġ1 70
Ġ1 985
ĠT en
ĠT ink
ĠT erk
ĠT urk
ĠT amminga
Ġpl ei
Ġpl afond
Ġsk at
Ġsk uorren
ĠÃ´f komst
ĠÃ´f nimme
ĠJ oop
ĠJ ord
ĠG ouden
20 21
Ġhe ak
ap el
ik ing
ĠV os
ĠV est
ĠV egel
Ġsp rieding
Ġhar te
Ġr end
Ġr ele
Ġvan avond
Ġpro ces
ĠR un
ĠR and
ĠP ein
ĠP ool
ĠP EC
um mer
men ga
ast ic
Ġle zen
Ġle eg
Ġle vert
aat sen
ul Ãªr
Ġso uder
ag roep
ag inda
ĠÃ»nder hÃ¢lden
ĠMar rum
ek te
ong res
Ġtw ijf
ĠC ra
ĠC ru
ĠC omm
Ġdi lem
Ġhel len
ver len
Ġri d
ĠIn spectie
ĠIn grid
yl st
pe al
pe kt
pe tear
Ġsl uit
Ġsl oep
Ġtsjin je
Ġman ee
Ġtwa hÃ»ndert
ĠEn gels
Ġa ctief
Ġbeg ro
Ġbeg raf
Ġel ftal
stri pe
Ġver plicht
au ne
ist ike
Ġke uring
Ġben zine
Ġpers confer
ai den
Ġbest joersk
skip pers
ĠSt r
ĠSt udinten
foar stel
Ġbij en
Ġef fis
bal l
ade ma
est iids
Ġfl eis
Ġauto riteiten
Ġkan alen
Ġra ces
Ġzo on
Ġein stÃ¢n
Ġfuort gean
Ġuit voer
Ġgen ieten
Ġkoe pel
jier rigen
ĠAn ders
ĠAn gels
ĠJo ke
ĠJong erein
ĠSch aaf
Ġap ps
wei j
Ġtak sy
res ult
sch e
Ġaf wachten
ĠSte ven
Ġferb li
ark ten
Ġferw aar
Ġfle anen
Ġreg isseur
Ġsn o
bel eid
Ġro ei
Ġbl o
ĠRo zendal
Ġkomp li
aas jer
ĠhÃ»s ke
Ġdiel s
Ġopl ossen
ĠEl ske
Ġtsjer k
ĠBer end
Ġynf rastruktuer
Ġwa ait
Ġstap ke
Ġstap ten
Ġhear e
Ġkab els
ĠKe uken
ĠFer n
Ġsup porter
Ġgev allen
Ġboppe ste
les se
Ġheech learaar
aag d
ĠsÃ¢n winning
Ġspesj alisten
Ġdra acht
Ġdra ag
Ġakt uele
rik king
Ġtel d
Ġtel len
Ġamb acht
Ġbot st
Ġprojekt Ã»ntwikkel
Ġgez amen
Ġstim de
ses je
Ġsel skip
Ġkle ure
fear ten
Ġopr jocht
ĠAmsterdam ske
Ġzich zelf
Ġkr Ãº
Ġreed rider
Ġmem metaal
stre ffer
Ġferg ri
Ġprod u
Ġar ts
Ġgeh oar
bes cherming
zoek ers
ĠFre der
Ġops ette
Ġevenem inte
ĠÃ´fsl uten
Ġspor ts
baar heid
ĠdÃ» se
Ġwiis de
Ġferwacht ingen
Ġboat sjes
Ġfraksje foarsitters
ĠFran c
Ġbelangrij ker
Ġbuor kjen
Ġenerzj yne
Ġcoronat ijd
bl aasd
Ġgrote re
Ġferrom jen
ĠPl antinga
Ġmiddel ber
ĠSw art
Ġspul len
Ġlea uwen
ĠWar ner
ĠWie gersma
ĠlÃ¢nbou grÃ»n
ras y
Ġbegryp lik
Ġtank ber
ĠPost humus
Ġhann els
Ġrein wetter
jus tere
Ġbak ken
Ġneg atief
Ġou der
ĠsÃ»nens soarch
Ġent hous
ĠIepen UP
ĠBl eize
beste an
ĠCor n
po lit
ĠHjir troch
Ġch ip
Ġverd ed
bos ch
Ġeks akt
Ġbefrij ings
Ġdjip pe
Ġfernim men
ĠJor ritsma
Ġmeid ien
Ġsc enario
Ġoansp iel
Ġpsych olooch
Ġoansl uting
Ġwr eidzjen
Ġopt imaal
ants ke
Ġwittenskip lik
Ġbren gt
Ġpil oat
Ġreserv earje
lÃ» ken
Ġgesicht en
Ġdicht bij
Ġkwe a
Ġreagear ret
Ġwier heid
Ġgesk ikte
ĠTj alling
fee sten
Ġskou der
ĠJel lum
ĠJap anner
Ġfersoargings huzen
Ġklein ere
ĠOver diep
ĠPe azens
Ġsoci aal
proble matyk
ĠBar cel
ĠMon a
Ġoprom jen
ĠBouw man
ĠSand or
Ġgesch iedenis
Ġkontenersk ip
best imming
Ġtanim mende
ĠKrij n
Ġaai wyt
Ġfernu ver
Ġsechst ich
Ġbon ken
Ġbio diversiteit
Ġhoor de
Ġferfang ing
Ġopmerk lik
Ġreportaazje s
Ġskrik ke
Ġkonf likt
ĠGert jan
Ge woanwei
ĠHil de
Ġerv aren
Ġoarspron klike
Ġhom o
Ġnomin earre
Ġeksploit ant
Ġfra ude
Ġloc aties
nij ing
Ġbeoar diel
Ġfeangreide gebiet
ĠNa gel
Ġbestimming splan
ĠÃ»ntble ate
ĠDrent he
Ġduur zaam
skied nis
Ġpu tsjes
Ġla ach
Ġfamyljel id
Ġynstjoer ingen
Ġzwe mmen
Ġpeaske wykein
ĠfoarÃ´f geand
Ġanon ym
eksp loit
bliuw t
Ġdeta ils
ĠÃ»nbe gryp
Ġjud oka
Ġbehand eling
Ġynvestear ringen
ĠAdv okaat
kor por
ĠDel ft
ĠSinne ma
Ġtahe akke
Ġoantrek lik
Ġep ide
ĠReed ryd
Ġlaboratoar ium
Ġsecht jin
mom int
sup porters
Ġkites ur
Ġpartikuli eren
Ġdemok r
ĠYv onne
ĠDaarna ast
ĠMedia huis
Ġpakes izzer
wit z
Ġike proses
ĠTran sport
ĠHeij n
Ġzul ke
ĠFlor anus
Ġelektrisiteit s
Ġdor ps
Ġwid do
Ġflechtling ek
ĠOe bele
Ġperfe kt
Ġgezel lig
Ġcrowdfund ings
ĠNy ck
Ġdiag noaze
Ġbemannings leden
rof oan
ĠModder gat
Ġtrien nen
Ġadvert insje
Ġfraachteken s
Ġiishockey hal
ĠWhats App
ĠOd gaard
skomm isje
Ġefte roan
ĠHolt rop
ĠbeÃ¤n twurd
ĠRott um
Ġgarnal ef
Ġscoot mobyl
ĠTek sel
Ġdoed estiids
abyl den
Ġunif oarm
Ġeink lassemint
ĠFel ix
Ġjanu ari
ĠMech elen
ĠBril stra
ĠAko y
ĠPod ium
Ġpreem je
ĠKollumers weach
Ġwytwas kjen
Ġtegem oet
ĠLiss abon
ĠTerk aple
Ġdilem ma
ĠBarcel ona
Ġikeproses jer
D Ãºts
D utch
J abik
N L
O an
S ommige
T L
W O
W er
W aar
Z P
a o
b lij
b anen
d Ã¨re
e ge
f s
f ra
f irus
f rije
f ormaasje
g ongen
h ar
h et
h eit
h agen
h ors
i ri
i ip
i ara
k aan
k ingen
k oop
k achel
l am
l jen
l aag
l jus
s yk
s ifers
u a
u ist
u vel
v ings
v aard
v allen
w agen
w aai
y z
z p
Ġ 76
Ġ Ã³
te ek
Ġd Ã©
er ry
an ke
an ager
an ijs
ar den
Ġf us
Ġf rag
Ġs Ãº
Ġs inn
Ġs ub
Ġs ervice
Ġde eg
Ġde ask
Ġi el
Ġi uwen
Ġo og
Ġo vert
at ionale
at iÃ«nten
Ġh on
Ġh erk
Ġh innen
et iid
Ġn achten
Ġk ei
Ġk oal
Ġk ite
Ġk Ã¢lde
Ġg af
Ġg rij
Ġg oo
Ġg rypt
Ġg iele
Ġg eiten
Ġg aler
Ġg renzen
al it
Ġt yk
Ġt oet
ĠD elf
ĠD oet
Ġin sp
Ġyn k
Ġyn klusyf
oar ing
oar dielen
Ã» kt
Ġp ed
Ġp Ã»l
Ġp itt
re am
Ġop gel
Ġop holden
Ġop jaan
Ġop roep
li Ã«n
Ġdat afer
ed es
ne y
ol den
ol pen
ol king
ol anda
it ting
om een
ge komen
ĠS D
ĠS en
ĠS an
ĠS aak
ĠS ikehÃ»s
Ġbe tere
ĠF B
ĠF ak
ĠF is
ĠF ried
ĠF lak
is jes
is ca
Ġom t
Ġom ske
Ġl Ãºk
jo ggen
Ġv re
Ġv aar
Ġv uur
Ġv onden
Ġv lag
Ġv oucher
ra y
ra ce
Ġoan nimmer
Ġoan slach
Ġoan naam
Ġoan rekking
ys Ã»nder
Ġge ko
Ġfer wurkjen
ĠH ag
ĠH Ãºs
ĠH urd
ĠH oorn
ts ter
ts elde
Ġj ij
il la
ĠM y
ĠM uz
us ters
ĠB us
ĠB oeke
ĠB uiten
ĠB onkerak
ins ter
ĠW ur
ĠW out
Ġby elkoar
ĠN I
ĠN asjonaal
Ġoer board
ĠA li
ĠA ir
ĠA ker
ĠA ED
Ġnei sten
Ġwe ger
ĠE OD
ĠE lise
Ġz ware
Ġz zp
ĠÃºt fallen
ĠÃºt lis
ĠÃºt dag
ĠÃºt stap
ĠÃºt pakke
Ġas iel
ĠL F
ĠL en
ĠL as
ĠL os
ĠL og
ĠL ud
ĠL ake
ĠL eijen
ok plicht
Ġsei l
un s
Ġre organisaasje
op kes
Ġc liÃ«n
ĠK inne
ĠK oen
ĠK oerd
ĠK LM
Ġ1 997
ĠT ocht
ĠT romp
ĠT adema
Ġsa una
Ġsk onken
ĠÃ´f meitsje
ĠJ ens
20 19
ik o
Ġwer helling
ĠV ader
Ġsp reek
oed e
Ġli m
ant ies
Ġpro min
sk unde
ĠR ag
Ġbes lisse
ast ate
Ġle vens
ag et
ĠÃ»nder titel
ĠMar aton
ĠC re
sp lein
sp licht
Ġmin im
eder aasje
Ġvoor zicht
ver d
Ġhim el
Ġwurk druk
be w
be gel
Ġsl achte
Ġsi de
Ġtsjin komme
ĠAl den
ĠAl zheimer
Ġman de
ĠEn sch
Ġber m
fer k
Ġgemeente s
Ġbeg raaf
Ġei gend
Ġei lanner
Ġ20 30
Ġmet ten
Ġfol let
Ġver m
Ġver rass
Ġver gunning
insje el
Ġbel often
dat um
Ġdoar e
sj ild
ĠWe ert
Ġgro en
Ġbo tste
ĠSt ap
Ġfi bul
ade s
ub lyk
jon ist
ĠFoar ich
Ġorganis aties
Ġfl u
Ġwor ks
Ġkan aal
ĠHar k
ac les
Ġferh uz
Ġferh olpen
lear jen
lear lingen
Ġmis learre
sl agen
sl uiten
41 10
rok te
ĠthÃºs bliuwe
ĠJong eren
ĠSch el
Ġtre den
Ġstik el
Ġgr Ãªften
ĠbÃ»ten spul
Ġhier ders
Ġgie st
Ġwen keamer
Ġsoarch lik
Ġsoarch ferseker
Ġfak ken
ĠBo az
Ġad min
ass in
ass au
Ġan imo
Ġrom ten
Ġletter s
Ġletter lik
Ġgear komme
Ġro epen
Ġbl au
Ġbl aas
Ġwei komt
ĠGr yk
ĠRo tster
ĠTw el
Ġfyts te
Ġgel oof
Ġske afer
Ġpersoan e
Ġpri iz
ĠÃ´fstÃ¢n s
Ġstil stÃ¢n
Ġskriuw ster
Frys k
Ġachter grÃ»n
Ġkar ren
pro d
Ġefter folging
Ġ3 000
Ġrei stiid
ĠrÃ»n tsjes
Ġynt insje
isk rekt
hu ij
ĠFer pleech
lied ings
ĠBe uc
Ġsaak kundige
Ġpre ste
hÃ¢lder ij
tse ktor
ĠWol d
rik ken
ĠEr fgoed
Ġtel de
Ġgri ze
Ġkeunst wurken
Ġdruk te
Ġdruk ken
ĠBel vÃ©
ĠGer ke
ĠHo tel
mid t
Ġdu els
ĠMo at
Ġont de
Ġont vangen
Ġferg etten
ĠDo ha
tra ining
ĠCh ar
Ġgeh oord
ĠMin dert
Ġwar m
Ġak teur
ĠÃ´fsl ach
gev aar
Ġbu bbel
Ġple zier
wen ten
Ġbi bel
jend en
ĠVer weij
ĠBr ussel
dra aid
Ġsubs id
Ġwebs ite
ĠNat ura
act ie
Ġag ress
Ġsu velf
Ġneed opfang
Ġnjoggen tich
ĠÃ´fsp rutsen
ĠÃºtsp ile
ingst sjinst
ĠHel ls
Ġgefoel ens
Ġgefoel ich
Ġbist je
Ġaantal len
Ġterug keer
Ġprof ess
kamp anje
Ġsamen werking
Ġlest ige
olog ie
Ġstikstof rjochten
ĠHer acles
Ġger Ãªst
rÃ»te s
Ġgek ke
Ġher te
ĠWer om
Ġferspried t
Ġsen i
ĠMe ast
Ġtank stasjon
Ġgar Ã¢nsje
Ġbru l
Ġbeteken en
Ġland elijke
ĠNoord zee
Ġsukses fol
Ġkamer abylden
Ġam fetamine
ĠDO S
elt je
Ġverwacht ing
ĠCor a
Ġlist lÃ»ker
Ġpartoer en
Ġfr ette
ĠBij ker
middel en
Ġoers etter
ĠAZ C
Ġverd ienen
Ġkeats bÃ»n
Ġmaatskip lik
ĠÃ»nts met
Ġkonst ant
fle cht
ĠSiet se
Ġoansp raak
Ġleeft ijd
Ġkampioenskip pen
ĠKon ing
Ġfee merk
ĠWadden zee
ĠVl uchtelingen
Ġgesp rekken
ĠFl agge
Ġynter ne
Ġseks ueel
Ġreserv earre
wier rum
ĠBil ker
ĠHoog hiem
ente man
Ġalder hande
ĠGoed e
Ġarbeid sm
ĠMer ke
ĠFok kema
Ġtwiv ele
Ġdom ein
ĠWin ter
ĠKen ingsdei
Ġpromov earre
Ġferpleat sen
ĠFin lÃ¢n
Ġkwalif isearre
Ġkwalif ikaasjetoernoai
Ġbro uwerij
ĠWÃ¢ld wei
ĠOver leg
Ġnood zak
Ġkor ps
ĠTri stan
Ġknap pe
Ġprodus earre
Ġbeper ken
Ġsteate lid
ĠBroek stra
borg h
ĠSie men
Ġferhe egjen
Fan sels
eigen ers
Ġynlever e
Ġmonumint ale
Ġbefol kings
Ġferlie zen
Ġsirk ulÃªre
Ġferseker ing
ĠAmeland EÃ©n
rinn ers
ĠBes joch
ĠOs car
Ġsportsk oallen
ĠMat th
Ġmedis yn
ĠOl long
ĠCl ub
Ġment ale
ĠSh orttra
ĠRed uzum
Ġfertro uwe
Ġprofite arre
ĠFriez innen
ĠÃ»nwiss ichheid
Ġderom hinne
Ġkeuze s
ĠSwim bad
Ġprogram mam
Ġmax imaal
kons ert
ĠoanhÃ¢ld ing
ĠSpit se
Ġstudinte feriening
Ġyngre pen
ĠÃºtkear ing
Ġanon ime
Ġfersmoar ge
Ġdesynf ek
histoar je
Ġylleg ale
Ġkonkre te
Ġkonkre et
Ġoptim istysk
Ġvo gels
Ġneili bbe
ĠBosk wachter
ĠmilitÃªr en
Ġbrom mer
Ġham string
Ġtev oren
Ġtev reden
ĠBoel oe
ĠKoart lyn
Ġrioel wetter
eard ich
Ġrekl ame
Ġonderste unen
bran dt
jal p
Ġbul te
ĠMaat schap
smaat regels
waarm te
ĠwrÃ¢l dtitel
Ġfoard roegen
ĠWijf je
pleat st
Ġernst ig
Ġiepenloftsp ul
Ġmisd riuw
ĠTsjech iÃ«
ĠYnd ia
ograf y
ĠGaaster lÃ¢n
kult uer
ĠBrits ke
ferdigen er
ĠZout kamp
Ġmoksels ied
Ġwjer stÃ¢n
ĠHimelf earts
Ġdonder dag
ĠSel m
ĠVliel and
ĠRoosen burg
Ġiniti atief
Ġporte fÃº
Ġoanmel de
ĠBrazili Ã«
ĠkliÃ¯nte ried
Ġinteress ant
Ġbedriuweter rein
Ġgehei me
ĠLub ach
ĠVest dijk
ĠCru ijff
Ġdeask etten
Ġdatafer kear
Ġomske akel
ĠlÃºk se
ĠAker boom
ĠLeijen aar
ĠRag nar
ĠEnsch ede
Ġfibul a
ĠBelvÃ© dÃ¨re
Ġarbeidsm igranten
Ġnoodzak elijk
ĠOllong ren
% )
. ,
A A
H earrenfean
H BT
K a
V loed
W B
b ril
c an
d racht
f ryske
g asten
g jalp
h iel
i zer
j ic
l agen
l yks
l agge
m ot
m etten
n ije
n av
o y
r eiding
s icht
s ommen
s leden
u f
u ert
u ff
v ige
v insje
w adde
w Ã»nen
y ves
z iging
Ã ¥
Ġ X
Ġ uw
Ġ 96
Ġ 89
Ġ 67
te jild
te erd
Ġd um
Ġd aam
Ġd Ã»s
er ke
er io
of fees
ofte wol
ar tsen
ar jend
Ġf ul
Ġf aun
Ġf ase
Ġf eite
Ġf joertoer
Ġs ele
Ġs kear
Ġs erv
Ġs feer
Ġde al
Ġde den
Ġi ep
Ġi mm
Ġw jir
Ġm bo
Ġm jitten
Ġm Ã»ze
Ġm ilieu
Ġo al
Ġb or
Ġb alen
Ġb Ã´le
Ġh onger
Ġh ersteld
ch witz
Ġk ader
Ġk rekte
yn je
st ud
st anden
st uurd
je ften
Ġg ingen
al o
Ġt aste
Ġt opp
ĠD od
ĠD aas
ĠD uinen
ĠD olf
ĠD arts
Ġin ter
Ġin komsten
Ġin zet
Ġin kele
Ġin zetten
Ġyn fierd
oar der
oar gen
oar sitter
ri is
Ġe at
Ġe duk
le kt
Ã» ch
Ġp ier
Ġp ike
Ġp ont
Ġp iten
Ġp oging
Ġop per
Ġop jefte
li eden
as j
ol lo
Ãª s
ak els
ĠDe v
ge zond
or men
ĠS il
ĠS eff
ĠS jer
ĠS ic
ĠS jÃ»
ĠS ingel
ĠS okke
ĠF oto
ĠF uort
Ġom ke
Ã¢n en
ĠI tselde
Ġv ent
Ġv aste
Ġv oo
Ġv mbo
Ġder Ã´f
Ġoan fier
Ġoan komst
Ġoan lizzen
Ġge ef
Ġge meenschap
Ġfer ga
Ġfer stjoerd
ear rings
Ġst af
Ġst ander
Ġst uren
Ġst age
ĠH oed
ĠH uls
ĠH istoris
il Ã¢n
ĠM E
ĠM inne
ĠM ac
ĠM elle
us jes
ĠB oed
ĠB oek
ĠB lo
ĠB oppe
ĠB aarsma
ĠW aard
ĠW ork
ĠN ard
Ġoer gean
Ġoer kaam
ĠA B
ĠA lie
me m
me esters
ste m
ste re
Ġwe sten
ĠE ri
ĠE aste
Ã´ lle
ĠÃºt baar
ĠÃºt brocht
ĠÃºt ride
ru ik
Ã¢l der
ĠL aan
ĠL amb
ĠL ies
ĠL aur
ĠL otte
ĠO ane
ĠFrys ktalige
Ġre gen
Ġre bo
Ġc rimin
ĠK al
ĠK oe
ĠK ap
ĠK aze
ĠK oorn
ĠK ijlstra
es e
ĠT oe
ĠT inga
ĠT jerk
ĠT ynje
Ġsa ter
Ġsk opt
ĠÃ´f w
ĠÃ´f kard
ĠÃ´f fearten
ĠJ et
ĠJ ur
ĠJ olanda
ĠG il
ĠG ud
ĠG lo
ĠG eart
20 18
20 14
Ġhe k
Ġer over
Ġdo uch
Ġwer iepening
ĠV in
ĠV rouw
Ġtroch jaan
Ġsp rin
Ġsp uite
Ġr Ãªding
Ġli es
Ġli ppen
ant al
Ġpro b
Ġpro jek
sk yn
sk osten
ĠR ins
ĠR ijn
ĠR est
ĠP art
ĠP ass
ĠP la
jouw ings
ir d
Ġbes nijing
af e
af irus
ang er
Ġkin der
ot ter
ul a
ul ling
tel er
ĠÃ»nder grÃ»n
ĠÃ»nder nimm
ou de
ek end
ek do
ĠC am
ĠC iara
Ġdi vers
Ġhel m
ine el
eff er
og raaf
Ġsit st
ocht end
fe zel
Ġwurk ing
Ġwurk dagen
kom od
Ġoant ru
Ġman ljus
Ġste ur
Ġste kker
Ġber Ã´
fer gunning
Ġne gen
Ġ20 25
Ġ20 24
ep pel
ate list
Ġ( '
Ġdoar t
sj end
sj on
Ġpart isip
bo aiem
Ġtri atlon
ĠZ etten
Ġgro eid
ab ele
Ġlyk op
Ġbo d
Ġbo vendien
Ġgeb oren
Ġkun dige
del ingen
Ġbek ertoernoai
ĠSt jer
ĠSt atist
ĠSt anley
foar stelling
Ġaut ofer
Ġfi erste
bal len
yks ters
ĠFoar ige
ĠFoar earst
ĠbrÃ¢n stof
Ġfl akke
Ġfl aaks
wi ken
Ġboar nen
Ġboar ters
Ġboar tsjen
ĠAs scher
ac ten
wer helling
Ġnij jier
ult urele
Ġein lik
sl acht
Ġgen ie
Ġdoarp stÃºn
ĠSch midt
Ġap oteek
Ġover last
ĠÃºts joch
ĠÃºts laan
Ġwest like
Ġfrij makke
ic s
Ġstik jes
Ġdoel stelling
Ġrjocht line
ets jin
Ġsoarch organisaasje
Ġsoarch ferlieners
Ġdel st
Ġsch ilder
Ġan ekdo
Ġfle ssen
Ġwet houder
Ġreg i
ee uw
Ġlan den
Ġgear wurke
Ġro et
ĠAr end
Ġmid si
Ġbesk riuwt
hann els
Ġfal lise
ct oren
ha ge
Ġeins print
Ġjong er
Ġgel uk
Ġnatuer behear
Ġkomp ilaasje
Ġdiel nimmer
Ġpri vee
Ġstil stien
Ġmyn bou
Ġachter Ãºt
Ġkar nav
ĠBer ber
ĠDÃºts er
Ġwij ze
ring e
Ġonder houd
Ġferp akk
Ġpub lyks
Ġpak ketten
Ġhear st
Ġkab el
Ġgef jocht
ĠKe ats
ĠGro uster
Ġbal ken
ĠjÃ»n en
Ġpre daasje
ĠfÃ» l
mar s
mon umint
Ġkn al
Ġgez icht
Ġkop en
Ġkop bal
ili on
Ġstim pel
aliteit s
ĠgrÃ»n wet
Ġtink st
Ġswim mers
ĠHo ve
mid dag
inge a
inge an
Ġkontr akten
Ġbehe ine
Ġbef eiliging
Ġ200 3
Ġ200 6
Ġ200 7
ĠMo ai
Ġont staat
ĠKeamer leden
Ġmoo iste
ĠDo ke
wÃ¢l en
Ġfern aam
ĠCh ider
Ġtijd je
Ġmuzyk les
ĠEurope an
Ġkre am
Ġleaf ste
uli er
Ġbou de
ĠBro ersma
bli uwen
ĠFran eker
Ġbuor skip
waar den
Ġsin jalen
Ġoef ene
Ġljocht pun
hof f
Ġju f
Ġjeugd soarch
Ġfear ten
Ġslag gen
Ġferfier en
Ġto ant
Ġkap itein
Ġwyk liks
Ġtitel s
ivers it
Ġynst ruk
Ġbank jes
komm issaris
ĠGri ene
ĠPr insjes
Ġfis ke
Ġger icht
Ġger eden
Ġlea ut
Ġstjer ren
Ġstraf rjocht
Ġspe ur
Ġbewe ge
ĠHa ersma
Ġher inner
Ġproduk sjes
mak ket
mak anaal
Ġtoen ame
Ġbelied s
Ġoerli zzen
ĠCar o
Ġmoei te
ĠfÃªste lÃ¢n
ĠGord yksters
ĠRen ze
Ġmoa is
Ġynveste arjen
Ġappar aat
Ġbegel ieden
Ġspons oren
ĠHjir mei
Ġsim pele
ĠwrÃ¢ldbeker wedstriid
Ġkeats ers
ĠLand elijk
oere ur
Ġvrij heid
Ġbefrij ers
app els
Ġtraining skamp
Ġsnap pen
ĠBou ius
ĠSiet a
Ġoansp and
Ġbegri pen
ĠSij tsma
Ġoansl ute
Ġhout kachel
Ġbur gen
ĠOr gaan
Ġbehear der
ĠNA M
ĠPop ma
ĠMel issa
Ġmilje ustr
Ġcar es
boar gers
boar gemaster
ĠLenstra stadion
Ġfuot gongers
ĠTj isse
Ġlje pte
ĠTra in
plaat st
ĠWagen aar
Ġdom in
Ġomrop fryslan
ĠPo lit
Ġdraai de
Ġoph okplicht
Ġrealis earre
bet inking
Ġcomp lex
ĠAmerik anen
itt y
ĠFle vol
stop t
Ġfoarsjen nings
ĠRein bÃ´ge
ĠAustr al
ferh aal
hoe f
Ġwiidweid ige
Ġbesun ige
Ġbesun igingen
Ġopstap t
ĠKrij nen
ĠÃ»nrÃªst ich
Ġtsj ingean
ĠÃ»nfer wacht
Ġrespe ct
Ġfytst ocht
ree kt
ĠkompjÃ» ters
Ġvoedsel banken
ĠPa wel
Ġprofes joneel
ĠRem brandt
Ġfolks liet
Ġferster kje
Ġhjitte weach
Ġjacht havens
skl up
maatregel en
Ġtaried ings
ĠglÃªs fezel
Ġvoorber eiding
Ġtoerno oi
Ġfermin dere
Ġfermin derjen
ĠHart wert
Ġuter lik
buor kerij
Ġolymp yske
Ġoandiel hÃ¢lders
ĠBol werk
Ġfleu gel
aus see
Ġferste an
abri ek
Ġpresin tearjen
dus int
ĠoanhÃ¢ld ingen
ĠkoÃ¶rdin ator
Ġdemonstre arjen
ĠId una
Ġongel oof
Ġdesynf eksje
Ġdeta il
ĠStu yves
fun ksje
ĠSeis bierrum
Ġsto om
ĠPlan etarium
klass ers
ĠBoel ens
ĠKerk hof
Ġlaboratoar ia
Ġarre staasje
Ġfli be
Ġpoer b
ĠPh ili
kwart ier
Un der
Ġmik rofoan
Ġprostit uees
ĠIntern ational
Ġbedri ging
Ġstrafskop gebiet
Ġferkiezing sprogramma
Ġbije en
ĠBla uwe
ĠOar del
Ġweryn rjochting
ĠkreÃ« arjen
Ġkampioens p
Ġsanit Ãªr
ener zjy
ĠBak oe
ĠIm ke
ĠPres intator
Ġfrees lik
ĠBrÃ¢n wacht
Ġfasili teiten
Ġda gelijk
Ġbag ger
Ġtimmer man
Ġkultuers ektor
Ġfergru tsjen
Ġuiter aard
Ġsoft ware
Ġsolid ariteit
ĠRengers park
Ġrang list
Ġeenzaam heid
Ġhilli ch
Ġni iskrekt
fli x
ĠHanne ke
ĠBef rij
ĠÃ»nderd ak
Ġstipep akket
ĠLode wijk
Ġrenov aasje
ircul air
Ġwalf isk
ĠAus chwitz
Ġavent oer
ĠSli eker
ĠRuss yske
Ġbedra ggen
ĠBoom sma
valid atie
Ġgerjochtsh Ã´f
Ġgranul yt
pap ier
snel heid
Ġoparbeid zjen
Ġmeihel pe
ĠWaal wijk
ĠLike goed
ĠÃ´fkomst ich
ĠRand stad
Ġbegraf fenis
Ġpersconfer entie
Ġenerzjyne utraal
Ġikeprosesjer Ã»p
yz jonist
Ġgeko zen
ĠcliÃ«n ten
Ġstikel bar
prod ukt
Vloed beld
ĠSeff inga
ĠSjÃ» kelÃ¢n
ĠHoed em
ĠStatist iek
ĠChider a
ĠStuyves ant
- )
A C
C oron
D Ãªrom
E igen
H ar
L jouwert
M iskien
N iet
N atuurlijk
O B
P ODCAST
U t
W edstriid
a ille
a ja
a iner
b ara
d ier
d ykje
d ieren
e men
f o
f ens
f oel
f oort
h ab
i anne
k um
k rÃ»
k amen
m ir
m ede
n am
n og
o ur
o we
o ost
p re
p ut
r aktyk
s ins
s ang
s itte
s ikehÃ»s
t ur
t ijd
u en
u ne
v D
w ood
z in
Ġ 58
Ġ 93
Ġ 59
Ġ 61
Ġ uren
en tsjerk
te koart
Ġd am
Ġd iner
Ġd ames
in ters
in isjatyf
of like
Ġf ac
Ġs on
Ġde kken
Ġde minten
Ġw al
Ġw Ã»nder
Ġw eide
Ġm Ã»n
Ġm ien
Ġm ening
Ġm ieningen
Ġo v
Ġb yn
Ġb id
Ġb annen
Ġb Ãºt
Ġb rug
Ġb oord
Ġb omen
at o
Ġh it
Ġh uur
Ġh ongen
Ġh angen
Ġh uizen
ch in
ei be
ei em
ei jer
el eden
Ġk oel
Ġk eten
Ġk alk
st as
st iet
st ru
st ok
st ip
st jer
st uk
Ġg un
al ig
Ġt aktyk
ĠD ren
ĠD ou
Ġin sch
Ġyn gien
Ġyn genie
ro ck
ri sten
le veld
Ġp ep
re y
re arjen
Ġop we
Ġop hel
Ġop komst
Ġop falt
Ġop start
li an
li sit
ke et
ing te
ne g
ne go
ur den
de arjen
ak a
ak kers
ter anen
ie st
ge aster
or yen
Ġfoar ste
Ġfoar lÃªzen
Ã»n tste
der geloks
ĠS ol
ĠS um
ĠS em
ĠS anne
ĠS jan
ĠS eijen
Ġbe ur
Ġbe ken
Ġbe stellingen
Ġbe vest
ĠF olle
is earjen
Ġom fallen
Ġom gaan
Ġom hinne
Ġom gien
ĠI bra
Ġl ate
Ġl agen
Ġl inen
Ġl ingte
Ġv le
ra a
Ġoan s
Ġoan steld
Ġoan moed
Ġoan lutsen
Ġoan kommende
Ġoan stutsen
Ġge ur
Ġge steld
Ġge organis
Ġnet jes
Ġnet sjes
Ġmo dder
Ġno orden
oe te
Ġst unt
Ġst oere
ĠH ul
ĠH unt
Ġj erry
il t
il joen
den s
ĠM oor
ĠM ild
ĠM ond
ĠM iddei
ĠM BO
ĠM oanne
ĠM antgum
ĠB ul
ĠB uren
ĠB roer
ĠB ysÃ»nder
ins dag
ĠW eide
ĠW ouden
ĠW oon
ĠW aske
ĠW isse
ĠN eel
ien st
Ġoer hear
Ġoer macht
Ġoer koepel
ĠA ge
ĠA dam
ĠA fÃ»
ĠA bma
me ur
ste en
ste mming
Ġha gel
Ġha ast
Ġkom fort
Ġse es
Ġse ctoren
ĠE del
Ġz warte
Ġz uid
ĠÃºt gean
ĠÃºt wurke
ĠÃºt wurking
ĠÃ»n te
ru cht
ĠL iv
ĠL een
ĠL itten
ĠL ont
ĠL ifel
ĠL HBT
ĠO ek
ĠO be
ĠO ever
ĠO enema
Ġre pe
Ġc yber
Ġc offees
ĠK rist
ĠK erst
Ġ1 12
ĠT y
ĠT ij
ĠT ik
ĠT immer
ĠT orn
Ġsk ok
Ġsk jinne
ĠÃ´f lieding
ĠÃ´f tra
ĠÃ´f reiz
ĠÃ´f gryslik
ĠJ ier
ĠG au
20 24
20 16
Ġer ed
Ġdo ocht
Ġdo wn
ĠV lie
Ġsp uit
Ġr and
Ġr inte
Ġr ampen
ĠDat selde
Ġeen tje
Ġli ening
sk onk
ĠR eden
ĠP older
oor ten
Ġkri tear
men e
int rale
Ġle ad
Ġso annen
ag ed
Ġts jinne
ĠÃ»nder fÃ»n
ĠMar ije
ĠC la
ĠC omp
ĠC omen
ĠC SG
ĠC ovid
ber aad
ber oppen
ker k
Ġvoor jaar
se ma
ig jend
ig chel
ĠIn tens
Ġkl acht
Ġhoe f
Ġaan sten
Ġaan passen
be wizen
Ġsl a
Ġsl ing
Ġsl aat
rij ding
Ġsi fer
Ġoant inken
ĠAl li
ĠAl gra
Ġber eid
fer fang
ann a
ĠDÃªr Ãºt
em oanje
joer wurk
Ġbed acht
Ġbed rag
Ġbed enken
Ġfol gen
Ġfol jen
stri id
up t
io neel
Ġver li
Ġver kl
Ġplak fÃ»n
Ġplak nammen
ijk ers
ied de
Ġbet ize
ild a
bo uwer
86 1
ĠWe aze
ĠZ ol
ĠZ ul
ĠZ eil
ĠZ eker
ĠZ anden
ab y
Ġlang zaam
Ġiepen ings
Ġbo ut
Ġbo dem
skip s
uor sum
Ġhjir fan
Ġrek stÃ´k
Ġfersk ood
ĠU it
ĠU EF
Ġprovinsje bestjoer
Ġwerom kear
Ġwetter kwaliteit
ĠFoar Ãºt
ĠÃ»nt pl
ble men
ble em
eel te
Ã« el
wol wÃªzen
wer eld
Ġmis brÃ»k
sit ting
Ġfuort helje
Ġfuort bestean
pl ant
pl os
Ġkw elder
rie ze
Ġsw iet
ĠSch oot
Ġap pel
ĠSy riÃ«
Ġfert utear
Ġko Ã¶peraasje
eft ich
Ġaf v
Ġfrij jÃ»n
Ġtest belied
Ġtest kapasiteit
Ġtest strjitten
ion s
ĠbÃ»ten wrÃ¢ld
ĠbÃ»ten loft
ĠfÃ»n sen
ĠDan iel
ĠfÃªst ige
ĠfÃªst hÃ¢lde
ĠWy be
ĠWy menga
Ġferb inen
Ġwen romte
Ġwas k
Ġpo at
Ġpo aten
ss aak
ss eizoen
Ġsch erp
Ġan kel
Ġan alys
Ġwet enschap
Ġma ge
Ġrom tlike
Ġro ts
Ġbl og
ĠAr jan
Ġmid dag
Ġbesk ieden
Ġbesk ikke
ĠGe ur
ĠGe est
Ġdrok ste
Ġbestjoer lik
Ġlok alen
Ġried e
ct uur
Ġgel oven
Ġfuotbal let
Ġfuotbal wedstriden
Ġho riz
Ġdiel t
Ġstil leit
Ġopl aat
Ġsport park
ĠBer lyn
ĠBer ensch
ring t
Ġynt im
Ġhelp ferliening
Ġbetel ling
ĠTh Ãºs
ĠTh ijs
Ġbep raten
ĠKe alle
Ġ19 98
Ġ19 90
ĠGro enteman
Ġgev el
ĠGrins lanners
ler ij
ĠBe et
ĠBe em
av iljoen
Ġkoar tere
ĠfÃ» st
Ġnacht mer
Ġsint ra
Ġpolit iek
min ts
ĠLe ef
ĠNet flix
Ġgez ocht
ĠrÃ» ch
Ġheal weis
bed rijf
Ġbesikers sintrum
ĠgrÃ»n stoffen
ĠBel gen
ĠGer wen
Ġferst an
ĠHo ofd
ĠOer al
Ġfilm hÃ»s
Ġyns ammel
eil anden
Ġwacht tiden
Ġleech ste
Ġmem men
ĠMo le
iks ele
Ġar gum
Ġbelutsen heid
Ġsad ree
voor t
ĠFe anen
co unt
Ġdoarps belangen
Ġleaf hawwer
Ġbrief ke
ĠDaar bij
ĠÃ´fsl uting
gev oel
Ġwerk nemers
Ġslim ste
Ġbi ologysk
ĠVisser ijdagen
ĠVer hagen
Ġcont acten
ĠWij ma
ĠlÃª s
Ġbou fak
ĠKl aren
kar riÃªre
ĠÃ»ntwikkel der
sek ken
ĠUnder nimmer
ĠNat ionale
Ġopd ien
ori a
Ġdak ken
Ġbeh ark
Ġljocht sjes
ĠBos man
Ġskoar stien
Ġbist jes
ĠAnne ke
ĠAnne mar
ĠAnt olo
Ġfest iviteiten
kamp ioen
Ġtast Ã¢n
net wurk
ĠTer n
Ġlest iger
Ġhu ilen
Ġbank je
Ġmon it
Ġstjer gefal
ĠWie ke
ĠWie gel
ĠÃºteins etten
ĠJac qu
ĠKro on
Ġoerli bjen
Ġkuier je
ĠNie uwe
ĠRen ate
inder t
Ġwed stryd
Ġappar aten
ĠTs jerk
Ġbegel ieder
Ġsh irt
Ġbleau ne
Ġbuiten land
194 5
Ġbestri dings
Ġbeskerm ings
ĠwrÃ¢ldbeker finale
Ġskjin mak
ĠWester t
ĠWester mar
ĠÃ»nderfin ingen
fraksje s
Ġdri igje
Ġkons erv
Ġbopp eslach
ĠPrins es
fyts er
Ġferniel ings
Ġleeft iids
ĠAd mir
Ġferne at
ĠWadden eilanden
bi eder
Ġopkn ap
ĠVl as
âĢ Ŀ
Ġbier ke
ĠHiel tyd
ĠMel k
Ġshorttra ckers
Ġbeli bbet
Ġvraag t
ĠEls hof
ĠSmit h
ĠPas jinten
Ġtoan e
eks amens
Ġfinzen en
Ġalder earste
ĠynhÃ¢ld lik
ĠÃ»nd jip
Ġskreau ne
Ġfru straasje
gemeen ten
spor ten
ĠBern hard
ĠHoop lik
ĠBar bara
ĠFÃ»gel helling
ĠMakk ingea
adv iseur
Ġprodus earje
Ġfil os
Ġfil mp
Ġwik sels
ĠBroek ster
Ġkurs isten
Ġdis el
Ġinge zet
Ġnijsgjir rige
ĠSter ke
Ġyndivid ueel
rang list
Ġsirk us
hand el
Ġtur ners
Ġverander d
Ġverander t
Ġverander ing
ĠHeech terp
Ġoansk aft
Ġav ont
coron a
ĠIngelsk man
ĠÃºtwr eidzje
ĠsÃ» kel
ĠRa bo
ĠRa erd
ĠbefÃªst iget
Ġierd be
Ġrepar aasjes
Ġfersets man
ĠSlach te
Ġoanpass ing
Ġtoil etten
Ġtap ass
Ġmaatschap pelijke
Ġfertsjintwurd igers
ĠlÃ¢nbo usektor
Ġkonkurr inten
Ġmas ine
ĠKamp ioenskip
ĠTop Dutch
ĠÃ»ndersk ieding
Ġsjoernalist yk
pas jinten
Ġsig ar
ĠBest joers
ĠWou de
Ġoerfal lers
betel le
Ġmondkap jes
Ġqu a
ĠIsra Ã«l
Ġhanteken s
ĠsikehÃ»sopn ames
Ġfavori ten
Ġsur v
Ġinv loed
Ġoank inne
Ġgec on
ĠBur ger
Ġtsjins telling
Ġyndustry terrein
Ġseeh Ã»nen
Ġynvestear rings
Ġsier aden
Ġneili bjen
Ġstrjit r
ĠEf ter
ĠRod a
Ġgarande arje
ĠâĢ ĺ
Ġve ert
ĠJes per
Ġbas earre
ĠBor nego
Ġbiosk oop
Ġbiosk open
Ġot ters
ynd ustry
Ġynnov aasje
Ġfermoed en
Ġlede gearkomste
situ atie
Ġmotiv aasje
Ġpompe blÃªden
ĠÃºtgong spunt
ĠKel lian
ĠrÃªd ings
rans ysje
Ġyntro duksje
Ġoanbefel lings
Ġdrink wetter
Ġprevint yf
bef olking
Ġfen omeen
Ġmult yf
Ġkopp osysje
Ġlait sje
Ġsticht ings
Ġveren iging
Ġpodde stuollen
Ġhantsje fol
Ġekskur zjes
ĠBot man
ykl up
wek kend
Ġsubsydzjer egeling
Ġsmel le
ĠWes el
ĠAN WB
Ġbiz arre
Ġnjoggentjin de
leaf hawwers
ĠFed de
Ġvij ft
ĠNV WA
ĠTr yn
Ġhekt are
Ġhoast je
Ġkonfron tearre
Ġattraksje s
Ġluis teren
Ġbetra pe
ĠÃ»ntfang st
Ġproduc ten
Ġspecif ieke
ĠSurin ame
Fly lÃ¢n
ĠRub en
ĠHarinx makanaal
ĠMids lÃ¢n
Ġsmer tejild
Ġnaden ken
ĠJit ze
ĠVerm ilion
stell enden
Ġferoarsaak je
Ġynstrum int
ĠFinan sjeel
Ġstate ment
ĠLes bos
Ġplei tsje
ĠJord y
Ġtsjerk hÃ´f
ĠprojektÃ»ntwikkel der
ĠCorn Ã©
Ġgarnalef iskers
Ġdeeg lik
Ġbegraaf plak
Ġeigend om
ĠGryk ske
Ġskeafer goeding
Ġsuvelf abryk
ĠHimelfearts dei
Ġtaste an
ĠGud de
ĠVin cent
ĠÃºtslaan de
aliteits dagen
ĠPrinsjes dag
Ġmiljeustr jitte
Ġkampioensp Ã»l
ĠHoedem akers
Ġdeminten s
ĠDou ma
ĠSjan et
ĠIbra him
ĠWoon Friesland
ĠWaske mar
ĠAfÃ» k
ĠLifel ines
ĠLHBT I
ĠOek ra
ĠTorn ike
ĠVlie hors
ĠComen ius
ĠUEF A
ĠBerensch ot
ĠKealle dykje
ĠAntolo vic
ĠAdmir aliteitsdagen
1 000
1 954
9 79
A an
B en
E N
E ins
E urop
G el
G ri
H T
H eel
J et
L it
M isschien
M oai
O G
P G
P ro
P lus
S ch
T h
T he
W ie
W Ãªrom
Z org
a x
b ei
b um
b els
c en
c ken
c apaciteit
d et
d ich
d osint
f ries
f av
g il
g ysk
h ert
h eim
j ord
j uster
k op
l ost
l onnen
m oarn
m iten
n oord
o aden
p sje
p its
p per
p ray
q uin
r ens
r rit
r jochter
r the
s se
s aken
u ven
v is
w we
w art
w ylst
x ima
y c
y Jet
z ocht
z ichte
Ã Ń
Ġ urg
Ġ oftewol
Ġd raaf
Ġd rei
er ing
er ming
in del
end el
ar ina
ar iÃ«r
Ġf ab
Ġf ormaasje
Ġf abriken
Ġf assin
Ġs iel
Ġs akket
Ġde c
Ġde ar
Ġde st
Ġde it
Ġde jinge
Ġi c
Ġi l
Ġw iksele
Ġm Ã¢l
Ġb ok
Ġb uer
Ġb rekt
Ġb ommen
Ġb oks
Ġb omme
at a
at ar
at uur
at iviteit
Ġh ond
ch em
Ġn oflike
el pen
el ine
el ders
Ġk elder
Ġk ampen
st atus
st rook
Ġg od
Ġg atten
Ġg etal
al inder
Ġfan nacht
Ġt at
Ġt unen
ĠD ed
ĠD uur
ĠD air
ĠD arter
ĠD ivisie
Ġin grij
Ġyn p
Ġyn log
Ġyn helje
ro ken
oar men
oar ger
ri ce
ri chten
le ks
Ã» tsje
Ġp it
Ġp au
Ġp iek
Ġp ian
re aasje
re do
Ġop li
Ġop jÃ»n
Ġop sch
Ġop bou
Ġop rit
Ġop bouwe
Ġdat a
Ġte min
ol ten
Ġmei s
Ġmei wurke
Ġmei wurking
ter ing
ter ap
ter aad
ie ven
om rop
ĠDe al
ĠDe kema
am yk
or et
Ġfoar met
Ġfoar lein
Ġfoar ronde
Ġfoar oardielen
der nacht
ĠS ich
ĠS ab
ĠS alt
ĠS ov
ĠS iep
ĠS ider
Ġbe et
Ġbe foar
Ġbe fre
Ġbe urt
Ġbe vol
Ġbe zoeken
ĠF ra
ĠF and
ĠF racht
ĠF lag
Ġom raak
Ã¢n sk
ĠI K
Ġl etten
Ġl amp
Ġl aden
Ġl otte
Ġl ettere
ra ge
ra il
Ġoan kund
Ġge mo
Ġge mak
Ġge meld
Ġal li
Ġal ert
Ġal vestÃªdetocht
Ġal zheimer
Ġal fÃªst
Ġal fde
aar der
Ġfer j
Ġfer Ã¢l
Ġfer kl
Ġfer jitten
Ġfer kenner
Ġst ok
Ġst rom
Ġst orm
Ġst onden
Ġst ielen
Ġst rijd
ĠH at
ĠH om
ĠH es
ĠH ert
ĠH Ã¢ld
ĠH eel
ĠH inke
ĠH uizen
ten er
il et
Ġek ologyske
ĠM S
ĠM or
ĠM un
ĠM ike
ĠM Ã¡
ĠM eppel
gen er
ĠB aan
ĠB asis
ĠB OA
ins oarch
ĠW iet
Ġby stÃ¢n
ĠN el
ĠN or
ĠN eid
ĠN ijk
ĠN ac
ze er
Ġoer tre
ĠA ar
im mers
yk te
lÃ¢n s
Ġse edyk
jen ga
Ġz and
Ġz uur
ĠÃºt k
ĠÃºt pakt
ru mer
Ġas best
Ġas pekt
ĠL l
ĠL ij
ĠL oop
ĠL ippen
ens on
ens dag
ĠO uwe
ĠO osten
ĠO entsjerk
gel ist
Ġre ag
Ġre ger
Ġre uz
Ġre ktor
Ġre spek
Ġc amera
ĠK enn
ĠK lok
ĠK afee
ĠK ruis
lik a
Ġ1 88
Ġ1 02
Ġ1 969
Ġ1 953
Ġ1 986
Ġ1 999
ĠT an
ĠT es
ĠT urf
ĠT iny
ĠT igchel
Ġpl ysjer
Ġsk and
Ġsk ildere
ĠÃ´f lein
ĠÃ´f komme
ĠJ C
ĠJ as
ĠJ ist
20 10
20 22
Ġhe kel
Ġhe akke
ap est
ap pel
Ġer achter
ĠV ict
Ġtroch fer
Ġtroch set
Ġtroch slach
Ġtroch gien
Ġtroch gie
Ġsp r
Ġsp iker
Ġsp rongen
Ġhar ke
Ġvan gen
Ġpro g
Ġpro sed
Ġpro jecten
sk je
sk undige
ĠR os
ĠR oord
ĠP ast
ert op
ert ijd
Ġkri ich
ĠY erke
Ġwaar op
sje f
Ġbes jocht
Ġear me
Ġle inen
Ġwi zig
af ette
af redo
ĠYn koarten
ĠYn tze
ul eren
ag ing
tel de
tel and
ĠÃ»nder st
ip line
ĠMar ianne
ek su
ĠC om
ĠC asper
sp eksje
sp raktyk
oer lis
ber da
Ġmak kelijker
Ġmin iste
og a
og le
Ġbr an
Ġgemeen tlik
Ġvoor beeld
Ġgrut st
Ġon af
Ġon rust
ĠIn g
ĠIn v
ĠIn isjatyf
yl ge
58 5
Ġhoe wol
pe a
Ġwurk pleats
Ġwurk flier
Ġsl achter
Ġsl oegen
ĠAl berda
Ġste m
Ġdie p
Ġhy st
Ġne em
enn ing
Ġmet aal
Ġbed den
stri eling
ate urs
Ġver dere
Ġver bod
Ġver leden
Ġver lie
Ġbet Ã»
au le
Ã»nder fining
ĠOm jouwing
bo et
86 8
ĠZ elf
19 71
19 78
Ġlang ste
Ġiepen gean
Ġiepen steld
Ġfier de
Ġfier wei
anne er
Ġbest ude
ĠSt asjon
ĠSt offers
Ġhjir by
Ġhjir troch
Ġfersk ynt
Ġtrije kwart
Ġskoal gebou
Ġskoal plein
Ġminder jierrigen
Ġdoch st
84 1
Ġwerom s
Ġwerom betelje
eili ger
Ġbinnen kant
eel t
fier ingstsjinst
Ġzo ut
lear je
ĠlÃ¢n skamp
war s
war ds
Ġein eksamen
sl Ã»s
Ġuit z
pl aten
Ġbesl uiten
ĠJo ost
tear ren
ere en
Ġpas te
ĠÃºts jit
Ġtre ffen
eg h
Ġaf deling
Ġfrij komt
yt ransysje
ĠSk oat
ic al
ĠFries ch
Ġgr ens
ĠSte p
Ġsoarch fÃ¢ldich
Ġfak atuer
Ġfak sins
Ġdel lizze
Ġsch aats
Ġfle chte
Ġstr ak
ĠwrÃ¢ld wiid
bel jen
mo gelijk
Ġbl aze
Ġbl okje
Ġmid s
Ġbesk Ã´
Ġbesk reaun
Ġried t
Ġfal ske
ct ion
aard oor
Ġho cke
oon s
oon stra
oon stelling
Ġsport yf
pro dukten
gro even
ĠAm b
sint rale
ĠhÃºs keamer
Ġonder nemer
Ġferp le
ĠTh ys
Ġkamp ioene
ont role
esj aussee
ans iers
Ġbal kon
Ġbal lonnen
Ġgev angen
heids beraad
ide o
ide ma
Ġregel mat
av ia
ĠJe an
Ġbasis plak
ĠfÃ» le
Ġdra ven
Ġakt iviteit
Ġsli epen
ĠEr nst
pers pray
Ġtrochgean e
ĠLe est
Ġkeunst gers
ĠHe ersch
tsjin twurd
Ġdruk ker
ĠrÃ» ke
Ġstim ulearre
Ġsel ek
bek er
Ġstipe maatregels
Ġstad ich
ce um
In t
oet en
ĠPro jekt
Ġtop sporters
Ġgebiet s
Ġvol ks
Ġvol houden
Ġfeest lik
Ġfeest jes
Ġfeest tinte
Ġwacht tiid
Ġleech steande
dwaan de
Ġtoe zicht
stre eks
Ġeksp ort
Ġprakt yske
Ġar sjitekt
Ġstri el
Ġmoo ier
ater ing
voor z
Ġspann ingen
ĠVeilig heidsberaad
ĠEurope es
Ġrol len
gev allen
Ġtsjerke gongers
Ġaard ig
ko v
Ġtas p
Ġwiis d
lok aal
ulÃ¢n se
Ġcont ainer
Ġvers oepel
ĠUt fieringstsjinst
Ġtechn iek
Ġkeap lju
ĠUnder weis
Ġfar ske
ĠSm its
Ġrel atief
Ġsu tel
Ġmot oaren
ĠfakÃ¢nsje gongers
Ġmidden fjild
Ġnjoggen en
oeg d
Ġfersoar gje
Ġenerzj ytransysje
Ġynsp raak
Ġto and
Ġto uwen
Ġto uring
Ġkap ke
Ġstoar te
ĠAnt werpen
Ġteken jen
ĠÃ´ffal ferwurker
kamp ioenskip
Ġga uw
ĠTer wis
Ġmienskip lik
Ġeer lijk
ĠÃ´fsk aald
Ġspul tsje
Ġkeat sseizoen
Ġfun de
Ġfun ksjes
Ġberjocht jouwing
spe jord
ĠRyks oerheid
Ġfis ker
kun sten
Ġgrien er
lie gen
ĠLem ster
mak er
Ġsen uw
kn op
Ġsle ept
ĠDie mers
urn alist
Ġaltern atief
ĠCar la
Ġferdw inen
Ġant woord
ĠLel ieveld
Ġsukses folle
ĠBl om
Ġloft feart
Ġco unter
ĠSybrand y
DÃªr nei
ĠNO F
Ġrapp orten
200 6
gar y
Ġnoar m
Ġnoar men
Ġrin rÃ»ten
Ġbeskerm jende
ktyf lik
Ġserie uze
ĠÃ»nts lach
Ġadvok ate
Ġvrij dag
ĠDrin tske
Ġferfol ge
Ġynte rim
Ġstuk ken
Ġoansp rekke
Ġem ig
Ġbestjoers ter
Ġpsych iat
ĠOlymp ysk
ĠKar ib
Ġprot oc
Ġwetterskip pen
Ġbele anning
ĠStel p
ĠBra bant
ation aal
Ġtr amp
ĠPop ke
red ijk
Ġskilder jen
ĠGo eiem
Ġreagear ren
Ġalder lÃªste
ĠTj al
Ġstop set
ĠMer ijn
plaat sen
Ġmass ast
ĠFris ian
Ġfru stre
ĠWin aam
ĠVoedsel banken
ĠRei jenga
ĠLely stad
ĠJel mer
ĠJel les
ĠkoÃ¤lysje partijen
Ġmuzik ant
Ġturn jen
Ġprotest antske
Ġet appe
ĠWÃ¢ld sang
ĠZorg belang
ĠBern lef
Ġsliep keamer
ĠBar end
ĠrÃ´ ljen
ĠMil ou
Ġmacht ich
Ġferienings libben
Ġrond om
ĠkonklÃºzje s
ĠIJ nsen
ĠTsjin twurdich
ĠSand ra
Ġpodcast s
kolle ga
Ġheft ige
Ġbehoar like
El ke
El kenien
El tsenien
ĠkrÃ» den
Ġbesun igje
best ind
ĠÃ¢ldjiers nacht
Ġdran kje
perio de
ĠBruin ja
Ġoerd racht
Ġsol lisit
Ġrespe ktyflik
ĠReg ionaal
ĠBet ty
ĠNieuw s
ĠÃ»ndÃºdlik heid
du el
mis hanneling
Ġdegra de
Ġopmerk ing
Ġbegrij p
Ġfinanc ieel
Ġierd gas
Ġklaai keamers
Ġpersoon lijk
ĠSkÃ» len
ĠSkÃ» tsje
Ġsammel je
Ġkringloop lÃ¢nbou
ĠSup porters
ĠSup port
Ġferster ke
Ġneedferoar dening
ĠWei stra
ĠAc ademie
Ġynterview s
inter klaas
Ġhom os
aly mp
lien ke
Ġsprek kers
Ġfertro ude
ĠHolland se
gr aris
ynst allaasje
Ġbeoar diele
Ġoanmeld ingen
Ġsporte venem
bren gen
Ġkollum s
ĠMir jam
ĠBi bel
Ġfotog ra
Ġstasjons gebiet
Ġintern ationale
ĠVeld hoven
Ġryks oerheid
Ġpresin tearret
ĠKenink like
ath on
ĠDoor ten
Ġalarm earre
Sk ylge
lemint ariÃ«r
Ġoanfol ling
Ġoanfol jende
ĠBinne ma
Ġverz am
Ġamateur klups
ĠCan oy
Ġoargel ist
Ġverke ers
Ġverke erde
ĠPieters ma
ĠMargriet kanaal
Ġult ime
ĠVogel bescherming
Le ague
Ġferlyk je
Ġstev ige
Ġberekken e
Ġconc re
ĠQu ick
ĠHau er
ĠHau le
Ġsecht ich
bur ch
ĠâĢ ľ
Ġdup earre
ĠSj onger
ĠÃºtsl etten
smaat regel
Ġynspek teurs
ĠHem rik
ĠTheun is
Ġgister en
Ġzicht baar
ĠLy ceum
Ġot ter
ĠFlo yd
Ġrep lika
Ġfersoargingste hÃ»s
Ġgeunst ich
Ġgebouw d
ĠOk kema
ĠKi Ka
ĠUnders yk
ĠÃ»ntsn ap
Ġpei ling
ĠWurd um
Ġkrist like
Ġspekt akel
wil ens
Ġpinkster moandei
Ġrepetysje s
ĠZu idema
Ġboerep ro
Ġtopskoar er
Ġchallen ge
Ġfoss yl
Ġsertif ikaat
Ġier appels
Ġpret tig
ĠSjo uke
ĠSos jaal
ĠWilli am
ĠTel star
ĠCal gary
Ġacc ep
ĠJels um
Ġfleks ibel
Ġduiz end
Ġatlet en
Kore Ã¤
ĠJar chin
beper kte
Ġneam den
Ġsjog gers
Ġswalk Ã´ffal
ĠGoaiÃ¯n garyp
ĠBios intrum
ĠMal ieveld
Ġspont aan
aff Ãªre
Ġvern iel
assist int
Ġgearf etting
Ġkoff ie
Ġtoske dokter
ĠHek man
Ġoerflak te
ĠAtte ma
ĠKabel noord
Ġverdriet ig
ynstit Ãºt
Ġgit aar
ĠSer ies
Ġstazj Ãªr
ĠMas ho
Ġmanee zje
Ġfernuver et
Ġcrowdfundings aksje
ĠPodium kunsten
ĠÃ³ f
Ġgaler y
ĠKoerd yske
ĠÃ»ndertitel ing
huij sen
ĠBeuc kel
ĠGerke sk
Ġsubsid ie
ĠHooghiem ster
ĠportefÃº lje
Ġsele ctie
Ġoal jek
ĠDev ils
ĠEaste rein
Ġautofer kear
Ġongeloof lijk
Eigen lijk
Ġson ar
Ġpep perspray
Ã»ntste kking
ĠSum ar
ĠMild aam
ĠWouden berg
ĠLitten ser
ĠJier ren
Ġered ivisie
ĠIntens ive
ĠZul te
ĠAnnemar ie
ĠTern aard
ĠBroekster wÃ¢ld
ĠRabo bank
Ġmultyf un
Ġstichtings bestjoer
ĠDair y
Ġynlog ge
Ġtemin sten
ĠMÃ¡ xima
ĠNac iri
ĠLippen huzen
ĠTigchel aar
Ġregelmat ig
ĠHeersch op
ĠJarchin io
! '
' )
1 95
1 34
1 980
1 968
1 956
1 962
1 987
1 961
1 919
1 904
3 99
4 99
7 000
9 70
A M
A ran
B C
H e
H el
I s
J ong
M e
M ear
O M
O R
T P
T ok
T wadde
V ol
b arre
b rÃ»
b uren
d io
d if
d uo
d orp
e et
f ase
f oto
g den
g rin
h ut
h aald
h orn
h aule
i bb
i lis
j acht
j alt
k ok
k ond
k aas
l oane
m atten
m uorre
m uniteit
n iet
n atuer
o li
o us
o ien
o ul
p al
p os
r end
r ins
s ne
s ver
s inn
s bern
s fÃ»ns
s ward
t ri
t ie
t wikkel
t afel
t icket
v ant
v oud
v eilig
v rouw
w eide
Ġ 91
Ġ 71
Ġ 06
Ġd art
Ġd na
Ġd arter
er ter
er land
er lijk
ar antÃªne
ar lemintariÃ«r
Ġs or
Ġs we
Ġs op
Ġi z
Ġw ach
Ġw ensen
Ġw ju
Ġw akker
Ġm al
Ġm it
Ġm ili
Ġo e
Ġo bs
Ġb ale
at iv
et h
ei end
el a
el ude
Ġk oer
Ġk ist
Ġk ruis
yn stellingen
je el
Ġg n
al vetal
ĠD a
ĠD or
ĠD res
ĠD onger
ĠD aardoor
Ġyn kl
oar p
ri me
ri ker
ri Ã¨re
Ġe asten
le uk
le ept
Ã» ter
Ã» den
Ã» gen
Ġp yn
Ġp and
Ġp oep
Ġp ynlik
re atie
Ġop st
Ġop dwaan
Ġop sein
Ġop stelle
li ken
Ġdat selde
as joneel
ur ch
it us
it ation
ak elen
ak kommod
Ġmei wurk
Ġmei tra
Ġmei krigen
on ivo
on tein
ge sk
ge mene
ĠS O
ĠS ytse
ĠS ierd
ĠS interklaas
Ġbe fal
Ġbe zorg
Ġbe wiisd
Ġbe elden
ĠF ri
is c
Ġom kommen
Ġom slach
Ġom falle
ĠI r
ĠI vo
Ġl ag
Ġl eiden
Ġl ukken
Ġoan dielen
Ġfer e
Ġfer ien
Ġfer bouwen
Ġfer rinne
ier ry
ear dige
Ġst ra
Ġst iel
ĠH ot
ĠH Ã¸
ĠH enny
ĠM ur
ĠM is
ĠM es
ĠB ig
ĠB ent
ĠB ond
ĠB ank
ĠB org
ĠB ay
ĠB etje
ĠB oppen
ĠB liuw
ĠW ijk
Ġwol ven
ad o
ad ukt
ĠN ad
ĠN im
ĠN ut
ĠN aud
ĠN SB
Ġoer heids
Ġoer winn
ĠA ren
ĠA del
ĠA ward
ĠA graris
me te
ste uring
ĠE miel
Ġmar ren
ĠÃºt ien
ĠÃºt rinne
ĠÃºt lutsen
ĠÃºt groeid
ĠÃ»n sk
ĠÃ»n wenn
ĠÃ»n fre
ru ck
id ers
ĠL G
we m
un ster
Ġre zj
Ġc afÃ©
Ġc ulturele
Ġc atering
ich heden
ĠK oar
ĠK ong
ĠK ris
ĠK ryst
Ġ1 35
Ġ1 60
Ġ1 85
ĠT ijden
ĠT ennisser
Ġpl as
Ġsa b
Ġsk yn
Ġsk oan
Ġsk oard
Ġsk itter
Ġsk rasse
ĠÃ´f d
ĠÃ´f nimt
ĠJ een
ĠJ olke
ĠJ irns
ĠG ear
20 25
20 32
20 12
Ġhe chte
ap je
Ġdo c
Ġdo aze
Ġdo wen
Ġwer helle
ĠV eel
ĠV SV
ĠV IS
Ġsp j
Ġsp ar
Ġsp raak
Ġsp Ã»k
Ġr amen
Ġr assen
Ġoar diele
Ġpro ai
sk erm
sk ilder
sk rant
sk ermen
sk aja
ĠR jocht
ĠR indert
ĠP ed
ĠP os
ĠP DC
ĠP inkster
ĠP etra
ert je
Ġkri s
Ġme ene
Ġme unsters
pen ije
Ġdan k
Ġdan kbaar
sje bli
ut a
Ġle ek
Ġje zelf
Ġhiel d
ag ne
ou ders
ĠMar y
ĠMar io
ĠMar win
ek ul
ong hÃ¢lder
Ġsyn tet
94 6
ĠC A
ĠC irculair
66 0
66 4
66 6
66 9
sp ond
sp ylje
oer winning
oer isme
os ch
Ġhel den
Ġhel dere
ker en
Ġmak like
Ġbli ke
Ġbr Ãºn
Ġgemeen teraad
Ġvoor deel
Ġien heid
Ġien kear
18 5
18 88
18 11
18 97
18 92
ig t
ver band
Ġfers ette
Ġkl Ã»s
Ġkl opt
Ġkl oate
rom s
Ġaan b
Ġaan pakken
mer en
be wegingen
Ġta jaan
Ġta wiisd
kom itee
riuw ingen
ĠAl gemeen
ĠAl melo
ĠAl dergeloks
Ġste ken
Ġste den
ele en
Ġber ichten
fer ljochting
Ġbeg rutte
em on
Ġne us
Ġ20 50
ings materiaal
Ġmet oaden
Ġbed rig
Ġfol ch
80 4
Ġfre el
Ġfre one
Ãªst ing
stri der
Ġver v
Ġver kocht
och ter
Ġbet ide
Ġbet rouw
ĠÃºs sels
au x
ĠSe in
inn end
bo tsing
Ġtri o
19 20
19 35
19 28
19 72
ab lo
Ġiepen brutsen
Ġfier ing
ĠNederlÃ¢n s
Ġben ader
45 7
Ġkear d
ger icht
del ik
68 4
Ġaut opro
gge borgh
Ġfi ver
Ġbij drage
ĠU p
ĠU we
ster huzen
ub uorren
Ġminder jierrige
Ġwerom brocht
Ġwerom krije
Ġwetter t
wacht ing
Ġkont ant
Ġbern edei
Ġbern sbern
Ġbesmet lik
fier ders
Ġferh Ãºzje
wer ker
wer pers
Ġzo iets
Ġbekend heid
Ġkomm andant
Ġfuort d
Ġstean de
Ġuit br
Ġuit braak
ĠthÃºs wedstriden
ĠAn ous
ĠJo rien
ĠJong stra
ĠJong fryske
Ġ2 20
Ġap pl
Ġfert uten
Ġtre f
ĠNoar ske
Ġfrij heids
ĠSp ann
ĠSp annen
ĠSp ijker
ĠSk ype
Ġdoel groepen
ĠFries che
ĠSte ege
br annen
Ġfjouwer kante
iss ers
ĠfÃªst lizze
ĠfÃªst igingen
ĠfÃªst sitten
Ġhier t
Ġhier mee
Ġferb iede
Ġferb iningen
Ġwen foarm
Ġpo wer
Ġdoor dat
ĠBo b
ss on
Ġseizoen kaart
geb ieden
Ġsch iet
Ġfle ur
okk ele
Ġletter lijk
ĠWaad kust
Ġsn ack
ĠwrÃ¢ld ranglist
Ġcoronak l
mo le
Ġmid dernacht
ĠGe zond
ĠGr eide
Ġbestjoer e
ct ive
ha erts
aste st
Ġske alik
Ãºts lach
asjon ele
Ġpri k
tern ative
Ġsport klup
pro seduere
Ġonder du
Ġpar all
ho og
ho uwer
Ġpub lik
Ġynt akt
Ġpak je
keap je
ĠTh ierry
Ġbep al
Ġklear makke
mp el
Ġsup erm
ĠBe b
aa uw
bou de
ĠbeslÃºt foarming
Ġopn ame
aag se
Ġtaf els
Ġswier rich
Ġdra st
Ġakt u
Ġakt ive
ĠEr melo
Ġrekken keamer
Ġpolit ikus
Ġsm okkele
ĠLe x
erd a
tre inen
Ġiis hal
ĠrÃ» zje
Ġkle m
Ġfrijwilli ch
Ġfrijwilli ge
ĠBel ch
Ġwinkel lju
Ġopr int
Ġopr jochting
Ġswim lessen
Ġferst oppe
ĠHo uw
Ġkr Ãªften
Ġ200 5
stre amen
Ã»l je
Ġhoareka gelegenheden
Ġeksp ert
ĠKeamer fragen
Ġprakt ysk
Ġstri den
Ġstri bjen
ubs yd
ĠrÃªst ige
bes met
Ġkre aze
ĠSÃºdwest hoeke
rekken je
Ġak teurs
ĠÃ´fsl ute
Ġferkeap er
ĠSkyl ger
ko ers
ĠdÃ» ken
Ġstre amt
Ġcont inuÃ¯teit
Ġtar ieden
ĠWij nen
ĠTe Ã¤ter
Ġfersp rieden
ĠeilÃ¢n bewenners
Ġstjoer der
Ġferli end
oep els
Ġkultuer makkers
ĠFran jic
Ġopd Ã»kt
Ġbuor man
Ġbuor kje
Ġbuor frou
ĠSm alling
Ġlever ing
ĠÃ¢ldere inte
ĠRe validatie
ĠRe ggeborgh
Ġrel atie
waar de
ĠwarskÃ´ gings
ĠBru ggen
Ġneed gjalp
ĠfakÃ¢nsje park
ĠBoar gemasters
Ġkryst dei
Ġkryst tiid
Ġberne boeken
Ġfersoar gjen
Ġenerzj yk
Ġjeugd oplieding
Ġtelefoan tsje
Ġtelefoan nÃ»mer
Ġtro ep
bouw d
Ġdisk usjes
ĠAnne m
Ġto ul
Ġkap it
Ġfoars icht
Ġfoars eizoen
kant oar
Ġhichte punten
Ġeas yJet
ĠKollum erp
Ġbaan rekÃ´r
ĠPr elude
Ġfys iek
Ġfys ieke
Ġreiz get
SC O
Ġhistoar ikus
Ġstraf fen
Ġstraf blÃªd
Ġher o
irk a
Ġpleats ing
Ġart ikels
Ġart istike
Ġoerli bbet
Ġpass ende
ĠColle ctief
Ġsituatie s
Ġoefen jen
Ġoefen wedstriden
Ġmoei lijker
Ġrein de
Ġspoar ferbining
aut oriteit
gre pen
jus sens
Ġbak kers
Ġferdigen ers
ĠNie veen
ov ic
Ġstikken e
Ġsoks oarte
Ġregear jend
ĠRied slid
ĠCor lienke
po teek
ple ging
194 6
194 9
200 8
200 9
Ġsim ul
Ġoers laan
Ġbesch erming
ĠWester hof
Ġrit me
ĠFro ulju
ĠFro ubuorren
ĠCo Ã¶rdin
ĠKanade es
ĠentÃ»sj aste
ĠteÃ¤ter stik
klasse mint
Ġnoard lik
Ġoper asjoneel
ĠSiet zema
ĠÃ»nderhÃ¢ld s
haw w
Ġmen iste
ĠKon ings
Ġdos inte
ĠVoor en
Ġreguli er
Ġpopul Ãªre
ĠWadden gebied
Ġbur ger
Ġbur gers
Ġbele ving
Ġgele gd
Ġbedriuws fiering
Ġalgem iene
Ġfide odeiboek
pri zen
Ġcoronap atiÃ«nten
ĠlÃ¢nskip s
ĠhÃºshÃ¢ld ings
Ġtrans gend
Ġabs urd
Ġsleat ten
Ġappartem inte
ĠGo ogle
Ġbeli bjen
Ġbeli bbing
Ġbesliss ingen
ĠWijn sma
ged rach
Ġalder geloks
ĠsÃºd westen
nÃ» mers
ĠMer el
Ġgat sje
ĠIC T
Ġamt like
Ġoph ing
Ġrealis eren
Ġrealis earje
Ġrealis earjen
Ġplaat sje
Ġfold ie
ĠCamp ina
Ġwap per
Ġstab ilis
ĠMon um
Ġknap pen
ĠMed isch
ĠÃ´fs etten
ĠÃ´fs izze
orme el
Ġbeper kingen
Ġguo zze
ĠSie ben
kolle ktyf
Ġwapen hannel
Ġferhe ge
Ġheft ig
Ġsted ske
Ġafge sproken
ĠkrÃ» pt
Ã¶rdin ator
Ġbon del
Ġopbr inge
Ġbehannel ingen
Ġtrettjin de
Ġarg umint
Ġkal m
Ġoerien komsten
ĠEd dy
Ġplaats vinden
ĠReg io
ĠSteat ssekretaris
Ġtur ner
ĠLok ale
Ġuitge br
Ġhurdfyts en
ĠKommissaris sen
Ġfent il
Ġljip pen
ĠBed riuwen
Ġferseker der
Ġferhier d
ĠKonink lijk
Ġfernij de
kon struksje
Ġdon aasje
Ġdon aasjes
ĠsÃ» ker
richt ing
Ġopmerk ingen
ĠMat ter
ĠZuid Oost
Ġierd waarmte
Ġfolks ferhalen
Ġact ies
Ġmaksimum snelheid
Ġdead lik
Ġjacht haven
Ġoanpass ings
Ġsimpel wei
Ġburge meesters
Ġnomin aasje
Ġfra gelist
Ġget roffen
ĠTim o
uite ma
Ġagrar ysk
Ġonders ch
Ġberops befolking
ĠSwim fun
ĠBol sward
Ġseizoens kaart
ĠGre ben
Ġmateri eel
Ġpu tsje
Ġwurkjouwers organisaasje
Ġfla uw
Ġblok kear
ĠÃºtkear ings
Ġcomm unic
ĠRad ial
ĠOut break
Ġfersmoar ging
Ġberei ken
bru ggen
Ġsur fer
Ġfersteur d
Ġsportfers lachjouwers
Ġeksplos ive
Ġeksplos iven
Ġsjonger es
Ġseeh Ã»ne
Ġskrift lik
Ġoantrek liker
Ġadres sen
Ġferdjip ping
Ġarre ste
ĠÃ»ntb rekt
Ġgarande arre
ĠDon ar
Ġcom bin
Ġearnst ich
Ġdemok rasy
Ġorizjin ele
Ġynh ierd
ĠJes se
ĠJud kov
ipp i
utear ren
Ġob jekten
ĠSad waande
ĠWijf jes
Ġeconom ische
Ġeval uaasje
bok aal
ĠDuit sers
route s
Ġspand oeken
ĠCap elle
Ġspeci ale
Ġprevint ive
ĠDiel nimmers
Ġynste k
ĠSher el
Ġgeast like
ĠWurd fierder
ĠÃ´ft w
Ġpred ikant
ĠSkÃ»tsjes joernaal
Ġsign aal
tek st
Ġhang t
Ġoerble aune
umin ister
ĠtsientÃ»zen en
Ġblessuer es
Ġpon tsje
ĠTess a
Ġsoer stof
Ġbuord sjes
Ġgymn ast
Ġeksimpl aar
ĠMem ori
ĠKru id
Ġond anks
Ġbetrou ber
Ġsoarchoan bieders
Ġhum or
ĠGor redijk
freon like
ĠMerc edes
ĠDol sterhuzen
ĠGrÃ»n wet
ĠOoststellingwerf s
ĠcreÃ« ren
Ġynsl etten
ĠHun telaar
ĠMolle ma
ĠEg bert
ĠLucht meijer
ĠAlten burg
ĠÃ»ntken t
clus ie
Ġyngewikkel de
loss ing
wed st
Ġwo ensdag
ĠDyk stra
Ġynw enster
ĠNic ol
ĠÃ»ngem ak
Ġrend abel
Ġrele vant
Ġferbli uwe
Ġkompli mint
Ġdraag vlak
ĠkrÃº spunt
ĠFranc isca
ĠNagel hout
ĠÃ»nbegryp lik
vaard ig
ĠMy rthe
ĠNI OD
ĠLas er
Ġvoorzicht ig
Ġworks hops
Ġadmin istraasje
ĠRotster haule
Ġvoo rop
Ġstander t
ĠHistoris ch
Ġrebo und
ĠKoorn beurs
ĠRins uma
Ġpartisip aasje
Ġgenie tet
Ġfallise mint
ĠFlevol Ã¢n
Ġpoerb Ãªst
ĠBefrij ingsdei
krÃ» d
Ġgeorganis eerd
Ġoerkoepel jende
ĠÃ»nte freden
ĠLiv es
ĠTik Tok
ĠÃ´ftra ap
Ġkritear ia
Ġsling ere
ĠGeur ts
Ġhoriz on
Ġferstan like
ĠJacqu eline
Ġfilos of
Ġstrjitr Ã´ven
Europ a
Ġdear iden
ĠSider ius
ĠferÃ¢l dere
Ġreag eren
Ġplysjer jochter
Ġgevangen is
Int osch
Ġtouring car
ĠGoeiem oarn
Ġmassast art
ĠSkÃ»len boarch
ĠBeuckel aer
ĠGerkesk leaster
ĠLittenser adiel
ĠHot ze
ĠMes dag
ĠBorg haerts
ĠNaud Ã©
ĠÃ»nfre de
ĠJirns um
sjebli eft
Ġsyntet yske
Ġbedrig ingen
Ġbernedei fer
ĠAnous ka
Ġswierrich heden
ĠKollumerp omp
ĠCoÃ¶rdin atie
ĠZuidOost Zorg
ĠJudkov skaja
. "
0 25
0 30
0 96
0 37
0 97
0 73
0 92
1 20
1 25
1 30
1 98
1 70
1 26
1 22
1 27
1 79
1 969
1 950
1 984
1 959
1 982
1 965
1 351
1 997
1 981
1 914
1 955
1 913
1 719
1 741
1 907
1 952
1 983
1 902
1 905
1 912
1 760
1 993
2 20
2 91
2 71
2 70
2 76
3 20
3 38
3 78
3 90
4 34
4 98
4 22
4 13
5 35
5 70
5 77
5 97
6 28
6 95
6 93
6 358
7 34
7 91
7 70
7 90
7 76
7 37
8 95
8 93
9 25
9 35
9 95
9 34
9 71
9 78
9 74
9 96
B us
B innen
D onald
E uro
G ro
H B
H eit
L jussens
M o
O ant
P vdA
S Ã»nt
T ot
T wa
W it
W erk
Z ij
a ters
b Ãªd
b ene
b aard
b rug
b oeke
b ining
b ussen
b oppe
b uurt
c u
c rime
d re
e ken
f oer
f arre
f ab
f are
f iltrant
g st
g oo
g rypt
g ertop
h ok
i re
i ale
i bben
j ingen
j ager
k racht
k urs
k rachten
k alinder
k oepels
l ab
l eren
l av
l jochte
l uter
m ijn
m ensen
m aken
m iddei
m ikrobiolooch
n end
n ale
n ost
o ij
p ear
p ert
p oel
p omp
r us
r Ã¢ns
s ef
s fear
t am
t akke
v ele
w ie
w eld
w assen
w out
z and
z aken
z ijl
z waard
Ġ 94
Ġ 73
Ġ 82
Ġ Ã»ne
Ġ Ã¼
Ġ Ã¡
te le
te lef
Ġd ress
Ġd roegen
Ġd urf
er es
in ker
in chem
an tsje
an yske
of tsje
of fer
ar b
ar es
Ġf aasje
Ġf ochten
Ġf aai
Ġf ront
Ġs ens
Ġs akje
Ġi isk
Ġm Ãªst
Ġm offen
Ġb aat
Ġb ond
Ġb iten
at is
at isch
at foarm
Ġh oed
Ġh eiten
ei ts
Ġn al
Ġn asjon
Ġn ummer
Ġn aged
Ġk ur
Ġk ra
Ġk yk
Ġk enn
Ġk ongres
yn stÃ¢n
st itel
st aking
Ġfan fare
Ġt Ã»
Ġt sje
Ġt oene
ĠD ong
ĠD up
ĠD iktee
Ġin t
Ġyn lutsen
Ġyn stappe
oar gers
oar ium
ri aan
Ġe ssen
le en
le ur
Ġp et
Ġp oe
Ġp arre
Ġp ann
Ġp est
Ġp rijs
Ġp agina
re ur
Ġop waar
Ġop fierd
Ġop liedings
ing h
ed y
as mus
as itting
ur ten
ol atie
ol werf
it h
it as
it yske
it ion
it ies
de al
de mon
ak king
ak antie
Ġmei sj
Ġmei dieling
Ġmei tinke
Ġmei prate
ter wÃ¢ld
ie zen
ie break
om pe
om geving
or a
or ro
Ġfoar fallen
Ġfoar geande
Ġfoar skriften
ken ning
ĠS V
ĠS id
ĠS ul
ĠS yd
ĠS assen
ĠS ilen
ĠS ask
ĠS ommige
Ġbe macht
Ġbe stellen
Ġbe falt
Ġbe wegings
ĠF ys
ĠF oun
is aasje
Ġom kaam
Ġom giet
Ġom boud
ij ens
ĠI v
Ġl as
Ġl oer
Ġl okk
Ġl ager
Ġv on
Ġv iel
Ġv racht
Ġoan sjen
Ġoan winst
Ġoan lÃ»ken
ys ter
ys ker
ys bert
Ġge te
Ġge he
Ġnet behearder
Ġal bum
aar ten
Ġmo unt
Ġfer ru
Ġfer fe
Ġfer stann
Ġno emen
ier ingen
ear s
ear jend
ear ringen
oe st
Ġst ic
Ġst rijden
Ġst atist
ĠH ab
ĠH uitema
Ġwur ch
uw ske
ĠM us
ĠM unt
ĠM ochten
ĠM urk
ĠM irka
ĠB N
ĠB ron
ĠB ek
ĠB oeken
ĠB rig
ĠW aan
ĠW ag
ĠW olle
ĠW issel
ĠW ird
Ġby hÃ¢lden
Ġwol feart
ad skonk
ĠN ep
ĠN anne
ĠN assau
Ġoer ke
Ġoer kes
Ġoer holden
Ġoer gien
Ġoer lang
Ġoer bliuwt
ĠA h
ĠA tsma
Ġnei litten
Ġha ckers
ĠE c
ĠE cht
ĠE erste
ĠE scher
ĠE spejord
Ġmar keting
Ġmar esjaussee
Ġz ak
Ġz onde
ĠÃºt fan
ĠÃºt helle
ĠÃºt na
ĠÃºt strieling
ĠÃ»n werk
ĠÃ»n mis
ĠÃ»n ned
00 5
00 7
ĠL U
ĠL uts
ok oereur
ĠO K
ĠO V
ĠO SF
we zen
we ek
Ġre fer
Ġre Ã«el
ich ters
ĠK er
Ġ1 11
Ġ1 954
es p
ĠT ele
ĠT Ã»zen
ĠT rin
ĠT ilas
ĠdÃªr Ãºt
ĠdÃªr bÃ»ten
Ġsk Ã¢ns
Ġsk rin
Ġsk atting
ĠÃ´f helle
ĠÃ´f meld
ĠÃ´f name
ĠÃ´f dielings
ĠJ eff
ĠJ Ã»ns
ĠJ uster
ĠG em
ĠG jalt
ĠG ysbert
20 30
20 27
20 23
20 17
20 13
20 49
Ġhe up
ap per
ap roof
Ġer aan
ik al
ik ingen
ĠV ri
ĠV le
ĠV on
ĠV olk
Ġtroch h
Ġtroch sk
Ġsp u
Ġsp at
Ġsp reekt
Ġhar sen
Ġhar kjen
Ġr ing
Ġeen maal
Ġli b
Ġli e
Ġli g
Ġli z
Ġli en
ant ha
sk ing
sk olleezje
ĠR U
ĠR as
ĠR ol
ĠR ek
ĠR eid
ĠR aard
ĠR ede
ĠR iis
ĠR TL
ĠP I
ĠP y
ĠP oel
ĠP amp
ir kel
Ġme ed
Ġme and
ĠY be
ĠY kema
Ġwaar mee
Ġbes le
Ġbes lissen
ut je
int jes
Ġear sten
Ġear like
Ġle uker
af fen
els ke
ĠYn je
ul den
ag int
tel ler
tel lig
Ġts jil
ĠÃ»nder nimming
24 4
24 5
24 9
24 63
ou te
ĠMar rek
ĠMar jan
oan fraach
94 1
94 7
75 0
75 6
31 7
Ġtw aal
ĠC are
ijn selen
66 2
98 00
sp ark
sp rint
sp erio
91 99
36 18
Ġgru ts
os inten
ber ha
ker pe
eff e
ysje s
Ġvoor zorg
18 0
18 98
18 70
18 58
18 80
18 23
18 51
18 81
18 43
18 89
18 87
18 82
18 07
ver ij
Ġri chten
Ġon bek
14 0
14 7
Ġsil st
58 2
58 9
54 1
54 5
54 8
Ġhoe mann
16 46
16 73
Ġhim mel
10 5
10 9
10 99
Ġwurk nimmer
be hÃ¢ld
Ġsl apen
Ġkon fer
Ġsi den
56 0
56 2
56 3
56 8
56 57
kom mers
Ġtsjin kaam
Ġoant oane
Ġoant oand
ĠAl ger
Ġman ne
Ġman agement
Ġste ek
Ġste ats
Ġtwa en
ele aze
Ġber gen
Ġhy poteek
fer pleech
Ġgemeente rieden
ann ie
44 5
44 7
44 8
88 0
88 88
em s
em ber
Ġ20 40
ĠOp spor
Ġbed rei
80 1
60 3
60 9
60 70
ep pe
ate arre
Ġver w
Ġver bin
Ġver moed
Ġplak ette
rek sje
Ġbet aald
Ġbet inkt
Ġbin de
46 8
48 1
48 3
48 5
55 5
Ãºt rikking
dat ion
Ġtiid s
Ġplysje wurdfierder
Ã»nder ing
Ã»nder ten
sj ende
inn ing
ĠOm wenners
ĠOm roep
Ġpart y
bo b
Ġgew icht
86 5
86 9
ĠZ i
ĠZ at
ĠZ ern
19 24
19 66
19 95
19 98
19 38
19 91
19 70
19 96
19 76
19 22
19 37
19 39
19 23
wurk ings
wurk sum
man i
Ġbo b
Ġbo um
Ġben eden
We st
68 1
68 9
ĠSt reek
Ġor gan
Ġhjir re
lij st
Ġrek on
ĠU tsein
sel t
ade wyk
Ġnog al
84 3
Ġwerom kaam
Ġwerom rÃ»n
Ġwerom reis
85 1
06 1
06 5
Ġorganis atoaren
ry dt
Ġfl oei
Ġtal jochting
ĠÃ»nt hÃ¢ld
ble aun
Ġboar gertop
ĠHar ts
diel tsjes
ĠMei j
Ġferh ale
Ġferh Ã»ze
Ġjild k
Ġjild bedrach
64 7
08 7
Ġmis hand
65 7
Ġuit spraak
kl okken
Ġsneon en
04 7
ĠthÃºs f
ĠthÃºs Ã»nderwiis
kel der
ĠAn ce
ĠAn nie
tear jes
tear jende
ere adskonk
ĠSch er
ĠSch ut
ĠSch effer
05 9
05 19
Ġover leden
Ġover leggen
Ġko ai
Ġlyts te
eft iid
Ġaf gel
Ġfrij kaam
ĠSp ijkers
ĠSk ipper
ĠSk rÃ¢ns
Ġfe teranen
87 71
Ġged acht
Ġged ragen
ĠSte f
ĠSte ijn
Ġter reinen
Ġrjocht banken
ĠWy cker
Ġhier en
Ġferb ieden
Ġferb urgen
Ġwen wyk
Ġwas sen
Ġsoarch organisaasjes
Ġbelang riker
Ġbelang haww
ĠdÃºdlik er
Ġad ver
ug ten
Ġwoansdei s
07 00
Ġsch ad
Ġsch ieten
Ġsch rikken
Ġferw Ã»nen
Ġwet like
Ġrom p
Ġrom jen
Ġrom ans
Ġposit ie
bel je
Ġplan de
mo at
Ġro ok
Ġbl oei
Ġwei komme
Ġskoalle mienskip
Ġbesk uldig
ĠGe west
ĠRo bb
Ġjong s
Ġgel open
Ġgel uid
Ġnatuer yn
Ġske ppe
Ġdiel nimmende
Ġferoar ings
Ġbetsj inne
rin te
Ġopl ucht
Ġopl eiding
Ġachter uit
Ġachter stÃ¢n
Ġfirus sen
Ġsport nijs
pro t
Ġefter yn
Ġtsjer kje
Ġtsjer klike
ane z
no aien
no oij
ĠAm bul
org d
Ġhoop lik
Ġrei zig
ande mie
Ġpar keer
Ġ4 25
Ġtrain de
ĠrÃ»n wei
stjoer e
ho y
Ġbetel bere
Ġstap je
ont jes
ĠFer d
Ġ19 00
Ġ19 20
Ġ19 95
Ġ19 39
Ġbal ke
Ġbal tsje
ĠNoard se
ĠBe yers
hol d
hÃ¢ld end
Ġdirekteur en
Ġkoar ting
Ġrest anten
zj end
Ġploech genoat
rik ke
rik ant
rik kelijk
ĠEr asmus
all aasjes
onder ing
onder wijs
organis atie
ĠLe v
ĠLe ge
ĠLe ver
Ġkn apt
Ġkn okken
Ġamb assade
Ġkolleezje s
iek stra
Ġoprop pe
Ġiis wike
fre egje
Ġsel skippen
Ġkle aster
ĠOf stannen
ĠBoer e
Ġru il
Ġhaad trainer
Ġhaad priis
ĠHo olwerf
Ġbar bec
Ġnatuur lijke
Ġbehe in
hal te
hal len
Ġkr ant
Ġkr Ã¢ns
Ġbef oel
Ġtoe val
Ġ200 4
ĠMo atte
Ġbew Ã¢ld
ĠVV OG
Ġferd uorsum
Ġbelutsen ens
ĠFr Ã¢nsk
ĠÃ»ndernimmers feriening
ĠCh ina
ĠFe est
Ġgeh and
Ġpraat sje
Ġkre d
Ġna gel
Ġna aide
Ġna aiden
Ġops ocht
ĠDaar mee
Ġbu ffer
Ġwerk like
Ġple kje
ĠFier dere
ĠdÃ» sen
ĠdÃ» bele
Ġstre aming
ps y
ĠVer f
ĠVer der
ĠVer hoe
ĠVer nooij
Ġcont ra
Ġvers ter
iken se
dra ger
Ġkultuer nota
Ġrisik onivo
Ġles b
Ġklasse mints
Ġkeap et
erv akantie
Ġynset ber
ĠNat as
Ġfar geul
ĠFran ce
ĠBopp eslach
ĠRe bec
rjocht ings
alis eren
alis eerd
Ġpriis fraach
ĠwarskÃ´ gjen
ĠBru ijn
Ġkryst beam
ĠAk sje
ĠEaster see
ĠEaster bierrum
Ġpraktyk skoalle
ijs sel
Ġbre ak
ĠHel p
Ġju ffen
Ġfersoar ge
Ġtro uwe
ĠOn line
ĠOn beperkte
Ġdisk walif
Ġhand ig
Ġferfier ders
Ġtol k
Ġtol ken
Ġkie zzen
Ġterug komen
Ġwyk likse
ĠPl us
Ġtast joerd
Ġwinkels intrum
bin es
ĠPC BO
Ġhu ze
boek je
Ġynst imd
Ġspul tsjes
ĠPr of
Ġger ust
Ġlet sel
ĠPaul a
spro jekt
Ġtyd skrift
Ġlast iger
mÃ»n en
Ġklap te
Ġlij ken
ĠEurop ese
rei zen
Ġsle ep
ĠMe es
Ġhuis artsen
Ġkwets baar
ĠPost hu
Ġbak tearje
Ġferdigen je
Ġferdigen ings
Ġeffe ktyf
ĠNe at
uo zzen
Ġtsjinst ferliening
Ġland schap
ĠMul lum
Ġtent oonstelling
Ġbetiid st
ĠTsj Ã»gen
ĠFacebook side
Ġtek ort
ĠSur h
Ġmins ker
Ġmins klike
nie uw
Ġversch rikkelijk
po ts
Ġbegel iede
ĠfÃ»gel wacht
ĠKomm end
194 0
194 2
194 3
194 7
gra il
200 2
200 4
200 5
200 7
Ġnoar deast
700 9
Ġverd ien
Ġeks oat
Ġparkear gar
ĠWester geast
ĠÃ»nts lein
Ġdri ve
ĠCo te
form asitting
ĠbÃ» ter
ĠLang s
ĠMartin a
Ġautom atyske
Ġdjip per
Ġgast hear
ĠZo Ã«
Ġoper earre
ĠSl ot
ĠSl ump
Ġoanfal lende
meld ing
Ġfit ale
Ġfit ness
ĠFers lachjouwers
Ġtentoan stellingen
haw we
Ġlog o
810 1
Ġhal ve
Ġoansl uten
Ġhout wÃ¢len
Ġfantast ische
sh irt
Ġgele erd
Ġopkn appe
Ġkommun isearre
Ġkommun isearje
Ġduid elijke
Ġcoronap andemy
Ġtrans form
ĠHyl kema
ĠPop kema
Ġverschil len
ors ing
Voor al
bar de
Ġpan iek
ĠBil tsk
ĠFreed tejÃ»n
ekken ber
Ġkomple te
ĠkliÃ¯n t
ĠOoster baan
Ġadvis earje
Ġgrif form
ĠWoansdei tejÃ»n
Ġzom ervakantie
Ġkompens earjen
Ġlje pt
Ġlje ppe
ĠÃ»nd Ãºd
Ġduorsum er
ĠwÃ¢l sk
ĠPo uw
ĠLely stÃªd
fis ken
ĠJel te
ĠRom e
pr aktyk
Ġamt ner
Ġynsk riuwe
Ġrealis aasje
spor ter
Ġaange past
Ġabsol ute
Ġker amyk
ĠFin Ã¢nsjes
ĠLo adewyk
sm iten
Ġbiste wolwÃªzen
Ġturn hal
Ġturn bÃ»n
Ġfierlje ppers
ĠJelle ma
ĠDoar p
ingsp lan
ĠCamp ing
Ġnood zaak
Ġasylsikers sintrum
amming hab
Ġfersyk jes
ĠÃ¢lder wet
Ġgezond heids
Ġferkears Ã»ngelok
Ġontwikkel ingen
Ġferfel ende
ill s
ĠWyn park
Ġthe ma
Ġprodus earjen
ĠTalma hoeve
ĠSim one
Ġbeper king
Ġsteate seal
Ġbedrijf s
mjit tige
ĠMolen aar
Ġcolle ge
ĠSand berg
Ġwapen stÃ´k
Ġinge wikkeld
ĠNu ijens
Ġfjirtjin de
Ġblik sem
Ġopfol gje
Ġopbr ingsten
besker mers
ain b
ĠSter k
Ġyndivid u
ĠEij ck
Ġwurksum ens
Ġfrouljus team
kr Ãªften
sr jochters
Ġident if
Ġynfal ler
Ġmilj arden
Ãºtkear ing
Ġferhier e
Ġav onds
ĠÃºtstel le
ĠAf rika
Ġdon ateurs
ĠsÃ» pe
ĠGron inger
wiksel jend
Ġpublis iteit
Ġynspi rearje
Ġklaai keamer
Ġpersoon lijke
Ġsammel et
Ġferle ge
Ġfersets minsken
ĠgrÃªf stien
ĠsikehÃ»sop name
Ġstude arje
Ġstude arjen
ĠOt to
Ġsneld iken
Ġbla astest
Ġyl l
Ġsjit partij
Ġhom etra
Ġregist rearje
Ġallerh ande
Ġgesellich heid
ome back
Ġwiksel je
gr ens
ĠÃ ł
ĠJapan ske
waard ig
ĠBang ura
Ġport retten
Ġsechstjin de
vor ming
Ġbouw urk
ĠFuotbal klup
Ġlearkr Ãªft
Ġlek kers
Ġbinn ens
ance zorg
Ġynfier e
Ġynfier en
Ġberei kbaar
histoar ikus
ĠLou is
Ġevene ment
ĠIN G
Ġlot ting
ĠstÃ¢l en
Ġbetink ingen
Ġtoilet gebouwen
ieuw d
Ġvo rige
Ġmok sel
Ġdep resje
ĠDra isma
Ġcoronas ifers
Ġtwang sommen
fersk yn
Ġsjong t
Ġbestel buske
bran che
ĠDon ia
ĠMau reen
Ġcom mer
Ġras istyske
Ġprostit Ãºsje
Ġseld sum
ĠDok ter
ĠDok ters
ĠBla uw
Ġverl oren
Ġkonklude arret
ĠthÃºsk arantÃªne
Ġannulear ringen
Ġproteste arjen
ĠOM T
Ġcent rum
Ġlul k
ĠEm mel
Ġhoek skop
situ aasjes
Ġknoop punt
Ġabonne mint
Ġiepenloftsp ullen
nik ov
Ġvoorz ieningen
Ġaant rek
Ġdemonstr atie
Ġconst ru
Ġconst ant
ĠOrganis atie
Ġynste e
Ġess insjeel
deb at
Ġlait sjend
Ġsticht ingen
ĠLut z
ĠYchten brÃªge
ĠMart ijn
Ġwraksel et
ĠAtlant yske
ĠAtlant ic
Ġsign alen
Ġindivid uele
Ġindivid ueel
Ġfergel iking
Ġoerble aun
Ġmeartal igens
ĠAngel a
Ġblessuer etiid
Ġemot ie
Fer line
Ġfon tein
Ġynrjocht sje
ĠFierlje p
Ġeksimpl aren
camp ing
Ġfakt or
Ġtrij etal
term yn
ĠGoud zwaard
Ġkeep ster
ĠSpesj aal
ĠOff inga
ĠAldeholt wÃ¢lde
ĠAldeholt pea
ĠferdÃ»bel ing
hÃ» sp
rakt iken
Ġoerste k
ĠDom ela
Ġpun tsje
ĠNiger ia
Ġikoan yske
Ġkrim ineel
oanfal ler
spesj alist
ĠienfÃ¢ld ige
Ġselsstann ige
Ġlytssk alige
Ġprest aasjes
Ġmaxim ale
ĠdistribÃºsje sintrum
blok ken
wim bad
keat sen
Ġlud ike
ĠTil burg
ĠUr k
ĠKeamerferkie zingen
Ġaksept aasje
Ġakkommod aasje
Ġaudi oto
ĠlÃºster je
ĠWo bbe
ĠItal iaanske
ĠÃ´flever ingen
abed riuwen
ĠpoÃ« zy
Ġreser ve
ĠRotte falle
ĠFolker ts
lop ig
ĠSib ear
ĠEngels hoven
Ġprodu ct
Ġenthous iast
DÃºts lÃ¢n
Ġvuur werk
ferk learring
Ġflu gge
Ġsoarchferseker der
ĠTwel linge
ĠShorttra ck
Ġful kaan
Ġwjir m
ĠDod ge
ĠSingel land
ĠBoed apest
ĠLamb ert
ĠGlo bal
ĠRest aurant
ĠCam atar
Ġhelm hout
Ġoantru ne
Ġboarters guod
Ġregi om
Ġmidsi uwen
Ġkarnav al
ĠCaro lien
Ġdagelijk s
Ġstikelbar gen
mede werkers
Ġbyn amme
Ġbeur zen
Ġafv ragen
Ġrots oai
ĠLeef omgeving
âĢĿ <|
Ġfilmp je
Ġtapass ing
ĠTryn wÃ¢lden
Gri enLinks
Ġdec ember
Ġynp land
ĠFand Ãªr
Ġstrom ing
ĠWiet se
ĠNeid at
ĠLl anez
Ġreger ing
Ġreuz ereadskonk
ĠTes la
ĠRoord a
ĠPast oor
ĠInv itation
Ġverlie zen
ĠSkoat terwÃ¢ld
ĠStep han
ĠTerwis pel
Ġtramp oline
Ġaccep teren
Ġmili meter
Ġobs erv
Ġbefal ling
ĠHÃ¸ egh
ĠBent hem
ĠNut ma
ĠLG BT
ĠKong olo
ĠVIS par
ĠPed ro
ĠSein stra
Ġpower pl
Ġsimul ator
Ġflauw ekul
Ġgymnast yk
ĠMemori am
ĠKruid hof
ĠÃ¼ berha
Ġpann ak
ĠSul veren
ĠSassen heim
ĠFoun dation
Ġmount ainb
ĠWaan ders
ĠTilas mi
ĠVolk skrant
ĠPamp us
ĠYbe ma
ĠMarrek rite
ĠZern ike
ĠAnce aux
ĠAmbul ancezorg
ĠRebec ca
ĠCamatar u
ĠÃ¼berha upt
' ",
' ?<|
) :
0 20
0 21
0 35
0 28
0 95
0 34
0 98
0 38
0 91
0 71
0 78
0 74
0 70
0 90
0 26
0 36
0 76
0 22
0 99
0 27
0 39
0 15
0 29
0 23
0 77
0 33
0 19
0 79
0 32
0 17
0 72
0 13
0 93
0 12
0 342
0 350
0 985
0 954
0 969
0 360
0 953
0 986
0 355
0 250
0 980
0 968
0 359
0 950
0 956
0 957
0 984
0 988
0 381
0 959
0 982
0 962
0 965
0 967
0 202
0 351
0 951
0 987
0 961
0 997
0 358
0 989
0 910
0 919
0 909
0 345
0 981
0 914
0 918
0 211
0 353
0 958
0 963
0 964
0 361
0 999
0 392
0 214
0 356
0 955
0 380
0 384
0 911
0 913
0 915
0 719
0 741
0 907
0 960
0 203
0 212
0 252
0 354
0 357
0 282
0 952
0 983
0 916
0 917
0 714
0 780
0 902
0 903
0 904
0 905
0 369
0 393
0 209
0 217
0 218
0 255
0 306
0 288
0 340
0 341
0 343
0 347
0 382
0 385
0 912
0 711
0 713
0 715
0 716
0 781
0 782
0 784
0 785
0 744
0 703
0 901
0 906
0 363
0 368
0 760
0 761
0 762
0 764
0 377
0 379
0 201
0 204
0 205
0 206
0 207
0 208
0 210
0 213
0 215
0 216
0 219
0 251
0 253
0 254
0 256
0 257
0 258
0 259
0 301
0 302
0 303
0 304
0 305
0 307
0 308
0 309
0 352
0 280
0 281
0 283
0 284
0 285
0 286
0 287
0 289
0 344
0 346
0 348
0 349
0 383
0 386
0 387
0 388
0 389
0 710
0 712
0 717
0 718
0 783
0 786
0 787
0 788
0 789
0 740
0 742
0 743
0 745
0 746
0 747
0 748
0 749
0 701
0 702
0 704
0 705
0 706
0 707
0 708
0 709
0 908
0 260
0 261
0 262
0 263
0 264
0 265
0 267
0 268
0 269
0 362
0 364
0 365
0 367
0 763
0 765
0 767
0 768
0 769
0 372
0 373
0 397
0 993
0 992
0 272
0 229
0 233
0 222
0 223
0 227
0 273
0 277
0 279
0 292
0 293
0 297
0 232
0 332
0 333
0 777
0 792
0 772
0 773
0 779
0 793
0 797
0 152
0 157
0 151
0 153
0 155
0 159
0 972
0 973
0 192
0 193
0 197
0 172
0 173
1 21
1 35
1 28
1 38
1 91
1 71
1 78
1 74
1 90
1 96
1 36
1 76
1 99
1 37
1 39
1 15
1 29
1 23
1 77
1 33
1 32
1 342
1 350
1 985
1 360
1 953
1 986
1 355
1 250
1 359
1 957
1 988
1 381
1 967
1 951
1 358
1 989
1 910
1 909
1 345
1 918
1 211
1 353
1 958
1 963
1 964
1 361
1 999
1 392
1 214
1 356
1 380
1 384
1 911
1 915
1 960
1 203
1 212
1 252
1 354
1 357
1 282
1 916
1 917
1 714
1 780
1 903
1 369
1 393
1 209
1 217
1 218
1 255
1 306
1 288
1 340
1 341
1 343
1 347
1 382
1 385
1 711
1 713
1 715
1 716
1 781
1 782
1 784
1 785
1 744
1 703
1 901
1 906
1 363
1 368
1 761
1 762
1 764
1 377
1 379
1 201
1 204
1 205
1 206
1 207
1 208
1 210
1 213
1 215
1 216
1 219
1 251
1 253
1 254
1 256
1 257
1 258
1 259
1 301
1 302
1 303
1 304
1 305
1 307
1 308
1 309
1 352
1 280
1 281
1 283
1 284
1 285
1 286
1 287
1 289
1 344
1 346
1 348
1 349
1 383
1 386
1 387
1 388
1 389
1 710
1 712
1 717
1 718
1 783
1 786
1 787
1 788
1 789
1 740
1 742
1 743
1 745
1 746
1 747
1 748
1 749
1 701
1 702
1 704
1 705
1 706
1 707
1 708
1 709
1 908
1 260
1 261
1 262
1 263
1 264
1 265
1 267
1 268
1 269
1 362
1 364
1 365
1 367
1 763
1 765
1 767
1 768
1 769
1 372
1 373
1 397
1 992
1 272
1 229
1 233
1 222
1 223
1 227
1 273
1 277
1 279
1 292
1 293
1 297
1 232
1 332
1 333
1 777
1 792
1 772
1 773
1 779
1 793
1 797
1 152
1 157
1 151
1 153
1 155
1 159
2 21
2 25
2 30
2 35
2 28
2 95
2 34
2 98
2 38
2 78
2 74
2 90
2 26
2 96
2 36
2 99
2 37
2 39
2 342
2 350
2 985
2 954
2 969
2 360
2 953
2 986
2 355
2 250
2 980
2 968
2 359
2 950
2 956
2 957
2 984
2 988
2 381
2 959
2 982
2 962
2 965
2 967
2 202
2 351
2 951
2 987
2 961
2 997
2 358
2 989
2 910
2 919
2 909
2 345
2 981
2 914
2 918
2 211
2 353
2 958
2 963
2 964
2 361
2 999
2 392
2 214
2 356
2 955
2 380
2 384
2 911
2 913
2 915
2 719
2 741
2 907
2 960
2 203
2 212
2 252
2 354
2 357
2 282
2 952
2 983
2 916
2 917
2 714
2 780
2 902
2 903
2 904
2 905
2 369
2 393
2 209
2 217
2 218
2 255
2 306
2 288
2 340
2 341
2 343
2 347
2 382
2 385
2 912
2 711
2 713
2 715
2 716
2 781
2 782
2 784
2 785
2 744
2 703
2 901
2 906
2 363
2 368
2 760
2 761
2 762
2 764
2 377
2 379
2 201
2 204
2 205
2 206
2 207
2 208
2 210
2 213
2 215
2 216
2 219
2 251
2 253
2 254
2 256
2 257
2 258
2 259
2 301
2 302
2 303
2 304
2 305
2 307
2 308
2 309
2 352
2 280
2 281
2 283
2 284
2 285
2 286
2 287
2 289
2 344
2 346
2 348
2 349
2 383
2 386
2 387
2 388
2 389
2 710
2 712
2 717
2 718
2 783
2 786
2 787
2 788
2 789
2 740
2 742
2 743
2 745
2 746
2 747
2 748
2 749
2 701
2 702
2 704
2 705
2 706
2 707
2 708
2 709
2 908
2 260
2 261
2 262
2 263
2 264
2 265
2 267
2 268
2 269
2 362
2 364
2 365
2 367
2 763
2 765
2 767
2 768
2 769
2 372
2 373
2 397
2 993
2 992
3 21
3 25
3 30
3 35
3 28
3 95
3 34
3 98
3 91
3 71
3 74
3 70
3 26
3 96
3 36
3 76
3 22
3 37
3 27
3 39
3 29
3 23
3 000
3 342
3 350
3 985
3 954
3 969
3 360
3 953
3 986
3 355
3 250
3 980
3 968
3 359
3 950
3 956
3 957
3 984
3 988
3 381
3 959
3 982
3 962
3 965
3 967
3 202
3 351
3 951
3 987
3 961
3 997
3 358
3 989
3 910
3 919
3 909
3 345
3 981
3 914
3 918
3 211
3 353
3 958
3 963
3 964
3 361
3 999
3 392
3 214
3 356
3 955
3 380
3 384
3 911
3 913
3 915
3 719
3 741
3 907
3 960
3 203
3 212
3 252
3 354
3 357
3 282
3 952
3 983
3 916
3 917
3 714
3 780
3 902
3 903
3 904
3 905
3 369
3 393
3 209
3 217
3 218
3 255
3 306
3 288
3 340
3 341
3 343
3 347
3 382
3 385
3 912
3 711
3 713
3 715
3 716
3 781
3 782
3 784
3 785
3 744
3 703
3 901
3 906
3 363
3 368
3 760
3 761
3 762
3 764
3 377
3 379
3 201
3 204
3 205
3 206
3 207
3 208
3 210
3 213
3 215
3 216
3 219
3 251
3 253
3 254
3 256
3 257
3 258
3 259
3 301
3 302
3 303
3 304
3 305
3 307
3 308
3 309
3 352
3 280
3 281
3 283
3 284
3 285
3 286
3 287
3 289
3 344
3 346
3 348
3 349
3 383
3 386
3 387
3 388
3 389
3 710
3 712
3 717
3 718
3 783
3 786
3 787
3 788
3 789
3 740
3 742
3 743
3 745
3 746
3 747
3 748
3 749
3 701
3 702
3 704
3 705
3 706
3 707
3 708
3 709
3 908
3 260
3 261
3 262
3 263
3 264
3 265
3 267
3 268
3 269
3 362
3 364
3 365
3 367
3 763
3 765
3 767
3 768
3 769
3 372
3 373
3 397
3 993
3 992
3 272
3 229
3 233
3 222
3 223
3 227
3 273
3 277
3 279
3 292
3 293
3 297
3 232
4 20
4 21
4 25
4 30
4 35
4 28
4 95
4 38
4 91
4 71
4 78
4 74
4 70
4 90
4 26
4 96
4 36
4 76
4 37
4 27
4 39
4 15
4 29
4 23
4 77
4 33
4 19
4 79
4 32
4 000
4 17
4 97
4 73
4 72
4 93
4 92
4 342
4 350
4 985
4 954
4 969
4 360
4 953
4 986
4 355
4 250
4 980
4 968
4 359
4 950
4 956
4 957
4 984
4 988
4 381
4 959
4 982
4 962
4 965
4 967
4 202
4 351
4 951
4 987
4 961
4 997
4 358
4 989
4 910
4 919
4 909
4 345
4 981
4 914
4 918
4 211
4 353
4 958
4 963
4 964
4 361
4 999
4 392
4 214
4 356
4 955
4 380
4 384
4 911
4 913
4 915
4 719
4 741
4 907
4 960
4 203
4 212
4 252
4 354
4 357
4 282
4 952
4 983
4 916
4 917
4 714
4 780
4 902
4 903
4 904
4 905
4 369
4 393
4 209
4 217
4 218
4 255
4 306
4 288
4 340
4 341
4 343
4 347
4 382
4 385
4 912
4 711
4 713
4 715
4 716
4 781
4 782
4 784
4 785
4 744
4 703
4 901
4 906
4 363
4 368
4 760
4 761
4 762
4 764
4 377
4 379
4 201
4 204
4 205
4 206
4 207
4 208
4 210
4 213
4 215
4 216
4 219
4 251
4 253
4 254
4 256
4 257
4 258
4 259
4 301
4 302
4 303
4 304
4 305
4 307
4 308
4 309
4 352
4 280
4 281
4 283
4 284
4 285
4 286
4 287
4 289
4 344
4 346
4 348
4 349
4 383
4 386
4 387
4 388
4 389
4 710
4 712
4 717
4 718
4 783
4 786
4 787
4 788
4 789
4 740
4 742
4 743
4 745
4 746
4 747
4 748
4 749
4 701
4 702
4 704
4 705
4 706
4 707
4 708
4 709
4 908
4 260
4 261
4 262
4 263
4 264
4 265
4 267
4 268
4 269
4 362
4 364
4 365
4 367
4 763
4 765
4 767
4 768
4 769
4 372
4 373
4 397
4 993
4 992
4 272
4 229
4 233
4 222
4 223
4 227
4 273
4 277
4 279
4 292
4 293
4 297
4 232
4 332
4 333
4 777
4 792
4 772
4 773
4 779
4 793
4 797
4 152
4 157
4 151
4 153
4 155
4 159
4 972
4 973
4 192
4 193
4 197
4 172
4 173
5 20
5 21
5 25
5 30
5 28
5 95
5 34
5 98
5 38
5 91
5 71
5 78
5 74
5 90
5 26
5 96
5 36
5 76
5 22
5 99
5 37
5 27
5 39
5 15
5 29
5 23
5 33
5 19
5 79
5 32
5 000
5 17
5 73
5 72
5 93
5 92
5 342
5 350
5 985
5 954
5 969
5 360
5 953
5 986
5 355
5 250
5 980
5 968
5 359
5 950
5 956
5 957
5 984
5 988
5 381
5 959
5 982
5 962
5 965
5 967
5 202
5 351
5 951
5 987
5 961
5 997
5 358
5 989
5 910
5 919
5 909
5 345
5 981
5 914
5 918
5 211
5 353
5 958
5 963
5 964
5 361
5 999
5 392
5 214
5 356
5 955
5 380
5 384
5 911
5 913
5 915
5 719
5 741
5 907
5 960
5 203
5 212
5 252
5 354
5 357
5 282
5 952
5 983
5 916
5 917
5 714
5 780
5 902
5 903
5 904
5 905
5 369
5 393
5 209
5 217
5 218
5 255
5 306
5 288
5 340
5 341
5 343
5 347
5 382
5 385
5 912
5 711
5 713
5 715
5 716
5 781
5 782
5 784
5 785
5 744
5 703
5 901
5 906
5 363
5 368
5 760
5 761
5 762
5 764
5 377
5 379
5 201
5 204
5 205
5 206
5 207
5 208
5 210
5 213
5 215
5 216
5 219
5 251
5 253
5 254
5 256
5 257
5 258
5 259
5 301
5 302
5 303
5 304
5 305
5 307
5 308
5 309
5 352
5 280
5 281
5 283
5 284
5 285
5 286
5 287
5 289
5 344
5 346
5 348
5 349
5 383
5 386
5 387
5 388
5 389
5 710
5 712
5 717
5 718
5 783
5 786
5 787
5 788
5 789
5 740
5 742
5 743
5 745
5 746
5 747
5 748
5 749
5 701
5 702
5 704
5 705
5 706
5 707
5 708
5 709
5 908
5 260
5 261
5 262
5 263
5 264
5 265
5 267
5 268
5 269
5 362
5 364
5 365
5 367
5 763
5 765
5 767
5 768
5 769
5 372
5 373
5 397
5 993
5 992
5 272
5 229
5 233
5 222
5 223
5 227
5 273
5 277
5 279
5 292
5 293
5 297
5 232
5 332
5 333
5 777
5 792
5 772
5 773
5 779
5 793
5 797
5 152
5 157
5 151
5 153
5 155
5 159
5 972
5 973
5 192
5 193
5 197
5 172
5 173
6 20
6 21
6 25
6 30
6 35
6 34
6 98
6 38
6 91
6 71
6 78
6 74
6 70
6 90
6 26
6 96
6 36
6 76
6 22
6 99
6 37
6 27
6 39
6 15
6 29
6 23
6 77
6 33
6 19
6 79
6 32
6 000
6 17
6 97
6 73
6 72
6 13
6 92
6 12
6 342
6 350
6 985
6 954
6 969
6 360
6 953
6 986
6 355
6 250
6 980
6 968
6 359
6 950
6 956
6 957
6 984
6 988
6 381
6 959
6 982
6 962
6 965
6 967
6 202
6 351
6 951
6 987
6 961
6 997
6 989
6 910
6 919
6 909
6 345
6 981
6 914
6 918
6 211
6 353
6 958
6 963
6 964
6 361
6 999
6 392
6 214
6 356
6 955
6 380
6 384
6 911
6 913
6 915
6 719
6 741
6 907
6 960
6 203
6 212
6 252
6 354
6 357
6 282
6 952
6 983
6 916
6 917
6 714
6 780
6 902
6 903
6 904
6 905
6 369
6 393
6 209
6 217
6 218
6 255
6 306
6 288
6 340
6 341
6 343
6 347
6 382
6 385
6 912
6 711
6 713
6 715
6 716
6 781
6 782
6 784
6 785
6 744
6 703
6 901
6 906
6 363
6 368
6 760
6 761
6 762
6 764
6 377
6 379
6 201
6 204
6 205
6 206
6 207
6 208
6 210
6 213
6 215
6 216
6 219
6 251
6 253
6 254
6 256
6 257
6 258
6 259
6 301
6 302
6 303
6 304
6 305
6 307
6 308
6 309
6 352
6 280
6 281
6 283
6 284
6 285
6 286
6 287
6 289
6 344
6 346
6 348
6 349
6 383
6 386
6 387
6 388
6 389
6 710
6 712
6 717
6 718
6 783
6 786
6 787
6 788
6 789
6 740
6 742
6 743
6 745
6 746
6 747
6 748
6 749
6 701
6 702
6 704
6 705
6 706
6 707
6 708
6 709
6 908
6 260
6 261
6 262
6 263
6 264
6 265
6 267
6 268
6 269
6 362
6 364
6 365
6 367
6 763
6 765
6 767
6 768
6 769
6 372
6 373
6 397
6 993
6 992
6 272
6 229
6 233
6 222
6 223
6 227
6 273
6 277
6 279
6 292
6 293
6 297
6 232
6 332
6 333
6 777
6 792
6 772
6 773
6 779
6 793
6 797
6 152
6 157
6 151
6 153
6 155
6 159
6 972
6 973
6 192
6 193
6 197
6 172
6 173
7 20
7 21
7 25
7 30
7 35
7 28
7 95
7 98
7 38
7 71
7 78
7 74
7 26
7 96
7 36
7 22
7 99
7 27
7 39
7 29
7 23
7 33
7 32
7 342
7 350
7 985
7 954
7 969
7 360
7 953
7 986
7 355
7 250
7 980
7 968
7 359
7 950
7 956
7 957
7 984
7 988
7 381
7 959
7 982
7 962
7 965
7 967
7 202
7 351
7 951
7 987
7 961
7 997
7 358
7 989
7 910
7 919
7 909
7 345
7 981
7 914
7 918
7 211
7 353
7 958
7 963
7 964
7 361
7 999
7 392
7 214
7 356
7 955
7 380
7 384
7 911
7 913
7 915
7 719
7 741
7 907
7 960
7 203
7 212
7 252
7 354
7 357
7 282
7 952
7 983
7 916
7 917
7 714
7 780
7 902
7 903
7 904
7 905
7 369
7 393
7 209
7 217
7 218
7 255
7 306
7 288
7 340
7 341
7 343
7 347
7 382
7 385
7 912
7 711
7 713
7 715
7 716
7 781
7 782
7 784
7 785
7 744
7 703
7 901
7 906
7 363
7 368
7 760
7 761
7 762
7 764
7 377
7 379
7 201
7 204
7 205
7 206
7 207
7 208
7 210
7 213
7 215
7 216
7 219
7 251
7 253
7 254
7 256
7 257
7 258
7 259
7 301
7 302
7 303
7 304
7 305
7 307
7 308
7 309
7 352
7 280
7 281
7 283
7 284
7 285
7 286
7 287
7 289
7 344
7 346
7 348
7 349
7 383
7 386
7 387
7 388
7 389
7 710
7 712
7 717
7 718
7 783
7 786
7 787
7 788
7 789
7 740
7 742
7 743
7 745
7 746
7 747
7 748
7 749
7 701
7 702
7 704
7 705
7 706
7 707
7 708
7 709
7 908
7 260
7 261
7 262
7 263
7 264
7 265
7 267
7 268
7 269
7 362
7 364
7 365
7 367
7 763
7 765
7 767
7 768
7 769
7 372
7 373
7 397
7 993
7 992
7 272
7 229
7 233
7 222
7 223
7 227
7 273
7 277
7 279
7 292
7 293
7 297
7 232
7 332
7 333
8 20
8 21
8 25
8 30
8 35
8 28
8 34
8 98
8 38
8 91
8 71
8 78
8 74
8 70
8 90
8 26
8 96
8 36
8 76
8 22
8 99
8 37
8 27
8 39
8 15
8 29
8 23
8 77
8 33
8 19
8 79
8 32
8 000
8 17
8 97
8 73
8 72
8 13
8 92
8 12
8 342
8 350
8 985
8 954
8 969
8 360
8 953
8 986
8 355
8 250
8 980
8 968
8 359
8 950
8 956
8 957
8 984
8 988
8 381
8 959
8 982
8 962
8 965
8 967
8 202
8 351
8 951
8 987
8 961
8 997
8 358
8 989
8 910
8 919
8 909
8 345
8 981
8 914
8 918
8 211
8 353
8 958
8 963
8 964
8 361
8 999
8 392
8 214
8 356
8 955
8 380
8 384
8 911
8 913
8 915
8 719
8 741
8 907
8 960
8 203
8 212
8 252
8 354
8 357
8 282
8 952
8 983
8 916
8 917
8 714
8 780
8 902
8 903
8 904
8 905
8 369
8 393
8 209
8 217
8 218
8 255
8 306
8 288
8 340
8 341
8 343
8 347
8 382
8 385
8 912
8 711
8 713
8 715
8 716
8 781
8 782
8 784
8 785
8 744
8 703
8 901
8 906
8 363
8 368
8 760
8 761
8 762
8 764
8 377
8 379
8 201
8 204
8 205
8 206
8 207
8 208
8 210
8 213
8 215
8 216
8 219
8 251
8 253
8 254
8 256
8 257
8 258
8 259
8 301
8 302
8 303
8 304
8 305
8 307
8 308
8 309
8 352
8 280
8 281
8 283
8 284
8 285
8 286
8 287
8 289
8 344
8 346
8 348
8 349
8 383
8 386
8 387
8 388
8 389
8 710
8 712
8 717
8 718
8 783
8 786
8 787
8 788
8 789
8 740
8 742
8 743
8 745
8 746
8 747
8 748
8 749
8 701
8 702
8 704
8 705
8 706
8 707
8 708
8 709
8 908
8 260
8 261
8 262
8 263
8 264
8 265
8 267
8 268
8 269
8 362
8 364
8 365
8 367
8 763
8 765
8 767
8 768
8 769
8 372
8 373
8 397
8 993
8 992
8 272
8 229
8 233
8 222
8 223
8 227
8 273
8 277
8 279
8 292
8 293
8 297
8 232
8 332
8 333
8 777
8 792
8 772
8 773
8 779
8 793
8 797
8 152
8 157
8 151
8 153
8 155
8 159
8 972
8 973
8 192
8 193
8 197
8 172
8 173
9 20
9 21
9 30
9 28
9 98
9 38
9 91
9 90
9 26
9 36
9 76
9 22
9 37
9 27
9 39
9 29
9 23
9 77
9 33
9 32
9 000
9 342
9 350
9 985
9 954
9 969
9 360
9 953
9 986
9 355
9 250
9 980
9 968
9 359
9 950
9 956
9 957
9 984
9 988
9 381
9 959
9 982
9 962
9 965
9 967
9 202
9 351
9 951
9 987
9 961
9 358
9 989
9 910
9 919
9 909
9 345
9 981
9 914
9 918
9 211
9 353
9 958
9 963
9 964
9 361
9 392
9 214
9 356
9 955
9 380
9 384
9 911
9 913
9 915
9 719
9 741
9 907
9 960
9 203
9 212
9 252
9 354
9 357
9 282
9 952
9 983
9 916
9 917
9 714
9 780
9 902
9 903
9 904
9 905
9 369
9 393
9 209
9 217
9 218
9 255
9 306
9 288
9 340
9 341
9 343
9 347
9 382
9 385
9 912
9 711
9 713
9 715
9 716
9 781
9 782
9 784
9 785
9 744
9 703
9 901
9 906
9 363
9 368
9 760
9 761
9 762
9 764
9 377
9 379
9 201
9 204
9 205
9 206
9 207
9 208
9 210
9 213
9 215
9 216
9 219
9 251
9 253
9 254
9 256
9 257
9 258
9 259
9 301
9 302
9 303
9 304
9 305
9 307
9 308
9 309
9 352
9 280
9 281
9 283
9 284
9 285
9 286
9 287
9 289
9 344
9 346
9 348
9 349
9 383
9 386
9 387
9 388
9 389
9 710
9 712
9 717
9 718
9 783
9 786
9 787
9 788
9 789
9 740
9 742
9 743
9 745
9 746
9 747
9 748
9 749
9 701
9 702
9 704
9 705
9 706
9 707
9 708
9 709
9 908
9 260
9 261
9 262
9 263
9 264
9 265
9 267
9 268
9 269
9 362
9 364
9 365
9 367
9 763
9 765
9 767
9 768
9 769
9 372
9 373
9 397
9 272
9 229
9 233
9 222
9 223
9 227
9 273
9 277
9 279
9 292
9 293
9 297
9 232
9 332
9 333
9 777
9 792
9 772
9 773
9 779
9 793
9 797
A N
A Z
B L
B l
B ern
C N
C o
F a
I P
K V
K e
L eeuw
M V
M oat
M eneer
O ns
P V
S m
S Ã»nder
S eg
U iteindelijk
a ip
a aie
a bbel
b annen
b akken
b efel
b earen
b oete
b Ã»lje
c up
d oek
d isk
e cht
f am
f id
f ok
f ederatie
g las
h Ã»n
h es
h eld
h ichte
i bbe
k se
k ab
l aten
m els
m uiden
n t
n ys
n amen
o uwen
o ets
o lit
p op
p ake
p ool
p agina
p Ã´lle
s etter
s land
s wei
s regels
t oan
t huis
u me
u un
u chte
u tels
v l
v ingen
v ast
v aazje
v oetbal
w or
w ijn
w icht
w wad
w aaid
y a
z z
z els
z iek
Ġ jouw
Ġ 88
Ġ 92
Ġ achten
Ġ 360
en ga
te an
te ma
Ġd ar
Ġd rek
Ġd iss
Ġd ichters
er g
er ij
in ich
in ister
in efel
an o
an on
end ammer
ar r
Ġf at
Ġf etten
Ġf azen
Ġf ors
Ġs je
Ġs Ãª
Ġs ma
Ġs wi
Ġs elf
Ġs onken
Ġde min
Ġde uren
Ġde gene
Ġw isk
Ġw rede
Ġw oorden
Ġm of
Ġm ol
Ġm or
Ġm iel
Ġm unt
Ġm uorren
Ġm eneer
Ġo ersk
Ġo vers
Ġb is
Ġb uk
Ġb uis
Ġb leat
Ġb oech
Ġb urn
Ġb rekke
Ġb aby
at um
at form
Ġh onder
Ġh oannen
ch o
ch ans
ei st
Ġn am
Ġn au
Ġn Ã³
Ġn Ã©t
el er
el ien
Ġk Ã»
Ġk isten
Ġk ring
Ġk iste
Ġk Ã¢nske
st a
st ingen
st ig
st alen
st oarm
st afette
Ġg raaf
Ġg lim
Ġg lÃªzen
al bert
al da
Ġfan ge
Ġt oarn
Ġt inten
Ġt ryst
Ġt Ã»ke
Ġt ennisser
ĠD ar
ĠD ay
ĠD ick
ĠD osinten
Ġin gels
Ġyn hÃ¢ldt
oar ings
Ġen kel
ri b
Ġe go
le te
le an
Ã» de
Ã» pe
Ġp ech
Ġp anne
Ġp yt
Ġp Ã»d
re c
re arret
Ġop inoar
Ġop bouw
Ġop bouwen
Ġop kocht
Ġop heljen
li de
li sten
li fe
ke eper
ing o
ed ict
Ġte gel
as y
it ich
it uaasje
Ãª ven
ak jen
ak risis
ter meer
om er
Ãº ns
ĠDe bre
am an
am pe
ge ver
ge halte
or ent
Ġfoar werpen
Ġfoar nimmen
ken ing
Ġ" '
der ijen
ĠS et
ĠS kear
ĠS ike
ĠS uli
ĠS erv
ĠS eker
ĠS oargen
Ġbe uk
Ġbe halve
Ġbe heljen
Ġbe wizen
ĠF inke
ĠF jet
ĠF iets
ĠF eart
ĠF amylje
ĠF inske
Ã¢n se
ij nen
ij pen
Ġl Ãº
Ġl aad
Ġv it
Ġv eiliger
Ġder hinne
Ġder gelijke
Ġoan set
Ġoan bou
Ġoan dwaan
Ġoan giet
Ġoan brocht
Ġoan reitsje
Ġge Ã«
Ġge plaatst
Ġge stopt
Ġal sjeblieft
Ġmo uwen
Ġfer ts
Ġfer like
Ġfer diele
Ġfer fange
Ġfer bouwe
Ġfer mogen
Ġst yl
Ġst rÃ»
Ġst raal
ĠH amb
ĠH Ã»ne
ĠH eil
ĠH CL
ĠH ilda
ĠH enson
Ġj Ã»ch
il o
il je
il de
il veren
ĠM ic
ĠM een
ĠM ee
ĠM aks
ĠB ad
ĠB ab
ĠB ran
ĠB lesse
ĠW i
ĠW ig
ĠW ard
ĠW eiden
ĠW onen
ĠW inkel
Ġby hear
Ġby baan
ĠN i
ĠN og
ĠN asjonale
ĠN joggen
ien s
Ġoer komme
Ġoer tocht
Ġoer nommen
Ġoer hÃ¢n
ĠA ru
ĠA ud
ĠA hoy
me an
ste kke
ste atelid
Ġnei er
Ġnei ste
Ġnei kompetysje
Ġkom itee
Ġkom eet
Ġse em
Ġwe b
Ġwe ers
Ġwe agen
ĠE vel
aan se
Ġz aal
Ġz eil
Ġz eiden
ĠÃºt fal
ĠÃºt wize
ĠÃºt hing
ĠÃ»n fol
ĠÃ»n krÃ»d
00 1
00 2
00 3
00 4
00 6
00 8
00 9
00 00
00 20
00 21
00 25
00 24
00 30
00 35
00 94
00 75
00 31
00 28
00 66
00 95
00 34
00 98
00 38
00 91
00 71
00 78
00 74
00 70
00 90
00 26
00 96
00 36
00 76
00 18
00 50
00 14
00 58
00 54
00 16
00 10
00 22
00 56
00 44
00 88
00 99
00 37
00 27
00 40
00 80
00 39
00 15
00 60
00 29
00 23
00 77
00 46
00 11
00 48
00 55
00 33
00 86
00 19
00 79
00 45
00 32
00 68
00 17
00 97
00 84
00 85
00 51
00 73
00 64
00 72
00 13
00 93
00 65
00 41
00 92
00 12
00 81
00 59
00 57
00 43
00 49
00 47
00 61
00 53
00 89
00 52
00 87
00 42
00 83
00 69
00 82
00 67
00 63
00 62
Ġas os
Ġas yl
ĠL C
ĠL ek
ĠL enn
ĠL angen
ĠL okkich
ĠL inda
ĠL oes
ĠL ida
ĠL oonstra
ok ol
ok aal
ĠO eds
un it
un ker
un its
Ġre Ã¼
Ġre age
Ġre sep
op e
op end
op liedingen
Ġc ru
Ġc omeback
ĠK ur
ĠK em
ĠK BO
ĠK alm
Ġ1 957
Ġ1 988
ĠT am
ĠT em
ĠT och
ĠT jit
Ġpl akt
Ġpl ate
Ġpl oege
Ġsk ood
Ġsk appen
Ġsk orsing
ĠÃ´f b
ĠÃ´f hel
ĠÃ´f rit
ĠÃ´f byl
ĠÃ´f rint
ĠÃ´f jaan
ĠÃ´f wiisd
ĠÃ´f stan
ĠJ ort
ĠJ eltje
ĠG ryp
20 35
20 94
20 75
20 31
20 66
20 95
20 34
20 98
20 38
20 91
20 71
20 78
20 74
20 70
20 90
20 26
20 96
20 36
20 76
20 50
20 58
20 54
20 56
20 44
20 88
20 99
20 37
20 40
20 80
20 39
20 15
20 60
20 29
20 77
20 46
20 11
20 48
20 55
20 33
20 86
20 79
20 45
20 68
20 97
20 84
20 85
20 51
20 73
20 64
20 72
20 93
20 65
20 41
20 92
20 81
20 59
20 57
20 43
20 47
20 61
20 53
20 89
20 52
20 87
20 42
20 83
20 69
20 82
20 67
20 63
20 62
Ġhe ve
Ġhe akket
ap er
ik elen
ik king
Ġdo ge
Ġdo azen
ĠV ink
ĠV eg
ĠV aart
ĠV alk
ĠV illa
ef oarsitter
oed ing
Ġli je
Ġli ep
sk oop
sk ertier
sk anker
and el
and ers
ĠR if
ĠR ud
ĠP et
ĠP rin
ĠP uri
ĠP KN
um inten
um useum
Ġwurde arre
Ġwurde arje
Ġcoron ad
Ġcoron ag
ĠY lost
Ġwaar mer
Ġdan s
Ġbes effe
ut ende
ast re
Ġle ed
Ġle ktor
Ġti ken
Ġgoed kar
Ġgoed meitsje
tel ligen
21 00
21 20
21 21
21 25
21 24
21 30
21 35
21 94
21 75
21 31
21 28
21 66
21 95
21 34
21 98
21 38
21 91
21 71
21 78
21 74
21 70
21 90
21 26
21 96
21 36
21 76
21 18
21 50
21 14
21 58
21 54
21 16
21 10
21 22
21 56
21 44
21 88
21 99
21 37
21 27
21 40
21 80
21 39
21 15
21 60
21 29
21 23
21 77
21 46
21 11
21 48
21 55
21 33
21 86
21 19
21 79
21 45
21 32
21 68
21 17
21 97
21 84
21 85
21 06
21 51
21 73
21 64
21 72
21 08
21 13
21 93
21 65
21 41
21 92
21 04
21 12
21 81
21 05
21 59
21 57
21 43
21 49
21 47
21 61
21 53
21 89
21 52
21 87
21 42
21 01
21 83
21 69
21 82
21 67
21 63
21 09
21 62
21 07
21 03
21 02
Ġts jo
25 00
25 20
25 21
25 25
25 24
25 30
25 35
25 94
25 75
25 31
25 28
25 66
25 95
25 34
25 98
25 38
25 91
25 71
25 78
25 74
25 70
25 90
25 26
25 96
25 36
25 76
25 18
25 50
25 14
25 58
25 54
25 16
25 10
25 22
25 56
25 44
25 88
25 99
25 37
25 27
25 40
25 80
25 39
25 15
25 60
25 29
25 23
25 77
25 46
25 11
25 48
25 55
25 33
25 86
25 19
25 79
25 45
25 32
25 68
25 17
25 97
25 84
25 85
25 06
25 51
25 73
25 64
25 72
25 08
25 13
25 93
25 65
25 41
25 92
25 04
25 12
25 81
25 05
25 59
25 57
25 43
25 49
25 47
25 61
25 53
25 89
25 52
25 87
25 42
25 01
25 83
25 69
25 82
25 67
25 63
25 09
25 62
25 07
25 03
25 02
ĠÃ»nder hÃ¢lde
ĠÃ»nder nimme
ĠÃ»nder wylst
24 0
24 1
24 2
24 3
24 6
24 7
24 8
24 00
24 20
24 21
24 25
24 24
24 30
24 35
24 94
24 75
24 31
24 28
24 66
24 95
24 34
24 98
24 38
24 91
24 71
24 78
24 74
24 70
24 90
24 26
24 96
24 36
24 76
24 18
24 50
24 14
24 58
24 54
24 16
24 10
24 22
24 56
24 44
24 88
24 99
24 37
24 27
24 40
24 80
24 39
24 15
24 60
24 29
24 23
24 77
24 46
24 11
24 48
24 55
24 33
24 86
24 19
24 79
24 45
24 32
24 68
24 17
24 97
24 84
24 85
24 06
24 51
24 73
24 64
24 72
24 08
24 13
24 93
24 65
24 41
24 92
24 04
24 12
24 81
24 05
24 59
24 57
24 43
24 49
24 47
24 61
24 53
24 89
24 52
24 87
24 42
24 01
24 83
24 69
24 82
24 67
24 09
24 62
24 07
24 03
24 02
30 20
30 21
30 25
30 24
30 30
30 35
30 94
30 75
30 31
30 28
30 66
30 95
30 34
30 98
30 38
30 91
30 71
30 78
30 74
30 70
30 90
30 26
30 96
30 36
30 76
30 18
30 50
30 14
30 58
30 54
30 16
30 10
30 22
30 56
30 44
30 88
30 99
30 37
30 27
30 40
30 80
30 39
30 15
30 60
30 29
30 23
30 77
30 46
30 11
30 48
30 55
30 33
30 86
30 19
30 79
30 45
30 32
30 68
30 17
30 97
30 84
30 85
30 51
30 73
30 64
30 72
30 13
30 93
30 65
30 41
30 92
30 12
30 81
30 59
30 57
30 43
30 49
30 47
30 61
30 53
30 89
30 52
30 87
30 42
30 83
30 69
30 82
30 67
30 63
30 62
ou ts
ĠMar jo
ĠMar th
oan pak
ek ere
ek onomy
35 00
35 20
35 21
35 25
35 24
35 30
35 35
35 94
35 75
35 31
35 28
35 66
35 95
35 34
35 98
35 38
35 91
35 71
35 78
35 74
35 70
35 90
35 26
35 96
35 36
35 76
35 18
35 50
35 14
35 58
35 54
35 16
35 10
35 22
35 56
35 44
35 88
35 99
35 37
35 27
35 40
35 80
35 39
35 15
35 60
35 29
35 23
35 77
35 46
35 11
35 48
35 55
35 33
35 86
35 19
35 79
35 45
35 32
35 68
35 17
35 97
35 84
35 85
35 06
35 51
35 73
35 64
35 72
35 08
35 13
35 93
35 65
35 41
35 92
35 04
35 12
35 81
35 05
35 59
35 57
35 43
35 49
35 47
35 61
35 53
35 89
35 52
35 87
35 42
35 01
35 83
35 69
35 82
35 67
35 63
35 09
35 62
35 07
35 03
35 02
94 0
94 2
94 3
94 4
94 5
94 8
94 9
94 00
94 20
94 21
94 25
94 24
94 30
94 35
94 94
94 75
94 31
94 28
94 66
94 95
94 34
94 98
94 38
94 91
94 71
94 78
94 74
94 70
94 90
94 26
94 96
94 36
94 76
94 18
94 50
94 14
94 58
94 54
94 16
94 10
94 22
94 56
94 44
94 88
94 99
94 37
94 27
94 40
94 80
94 39
94 15
94 60
94 29
94 23
94 77
94 46
94 11
94 48
94 55
94 33
94 86
94 19
94 79
94 45
94 32
94 68
94 17
94 97
94 84
94 85
94 06
94 51
94 73
94 64
94 72
94 08
94 13
94 93
94 65
94 41
94 92
94 04
94 12
94 81
94 05
94 59
94 57
94 43
94 49
94 47
94 61
94 53
94 89
94 52
94 87
94 42
94 01
94 83
94 69
94 82
94 67
94 63
94 09
94 62
94 07
94 03
94 02
75 1
75 2
75 3
75 4
75 5
75 7
75 8
75 9
75 00
75 20
75 21
75 25
75 24
75 30
75 35
75 94
75 75
75 31
75 28
75 66
75 95
75 34
75 98
75 38
75 91
75 71
75 78
75 74
75 70
75 90
75 26
75 96
75 36
75 76
75 18
75 50
75 14
75 58
75 54
75 16
75 10
75 22
75 56
75 44
75 88
75 99
75 37
75 27
75 40
75 80
75 39
75 15
75 60
75 29
75 23
75 77
75 46
75 11
75 48
75 55
75 33
75 86
75 19
75 79
75 45
75 32
75 68
75 17
75 97
75 84
75 85
75 06
75 51
75 73
75 64
75 72
75 08
75 13
75 93
75 65
75 41
75 92
75 04
75 12
75 81
75 05
75 59
75 57
75 43
75 49
75 47
75 61
75 53
75 89
75 52
75 87
75 42
75 01
75 83
75 69
75 82
75 67
75 63
75 09
75 62
75 07
75 03
75 02
31 0
31 1
31 2
31 3
31 4
31 5
31 6
31 8
31 9
31 00
31 20
31 21
31 25
31 24
31 30
31 35
31 94
31 75
31 31
31 28
31 66
31 95
31 34
31 98
31 38
31 91
31 71
31 78
31 74
31 70
31 90
31 26
31 96
31 36
31 76
31 18
31 50
31 14
31 58
31 54
31 16
31 10
31 22
31 56
31 44
31 88
31 99
31 37
31 27
31 40
31 80
31 39
31 15
31 60
31 29
31 23
31 77
31 46
31 11
31 48
31 55
31 33
31 86
31 19
31 79
31 45
31 32
31 68
31 17
31 97
31 84
31 85
31 06
31 51
31 73
31 64
31 72
31 08
31 13
31 93
31 65
31 41
31 92
31 04
31 12
31 81
31 05
31 59
31 57
31 43
31 49
31 47
31 61
31 53
31 89
31 52
31 87
31 42
31 01
31 83
31 69
31 82
31 67
31 63
31 09
31 62
31 07
31 03
31 02
28 00
28 20
28 21
28 25
28 24
28 30
28 35
28 94
28 75
28 31
28 28
28 66
28 95
28 34
28 98
28 38
28 91
28 71
28 78
28 74
28 70
28 90
28 26
28 96
28 36
28 76
28 18
28 50
28 14
28 58
28 54
28 16
28 10
28 22
28 56
28 44
28 88
28 99
28 37
28 27
28 40
28 80
28 39
28 15
28 60
28 29
28 23
28 77
28 46
28 11
28 48
28 55
28 33
28 86
28 19
28 79
28 45
28 32
28 68
28 17
28 97
28 84
28 85
28 06
28 51
28 73
28 64
28 72
28 08
28 13
28 93
28 65
28 41
28 92
28 04
28 12
28 81
28 05
28 59
28 57
28 43
28 49
28 47
28 61
28 53
28 89
28 52
28 87
28 42
28 01
28 83
28 69
28 82
28 67
28 63
28 09
28 62
28 07
28 03
28 02
Ġtw ing
Ġtw if
Ġtw itter
ĠC hallen
66 1
66 3
66 5
66 7
66 8
66 00
66 20
66 21
66 25
66 24
66 30
66 35
66 94
66 75
66 31
66 28
66 66
66 95
66 34
66 98
66 38
66 91
66 71
66 78
66 74
66 70
66 90
66 26
66 96
66 36
66 76
66 18
66 50
66 14
66 58
66 54
66 16
66 10
66 22
66 56
66 44
66 88
66 99
66 37
66 27
66 40
66 80
66 39
66 15
66 60
66 29
66 23
66 77
66 46
66 11
66 48
66 55
66 33
66 86
66 19
66 79
66 45
66 32
66 68
66 17
66 97
66 84
66 85
66 06
66 51
66 73
66 64
66 72
66 08
66 13
66 93
66 65
66 41
66 92
66 04
66 12
66 81
66 05
66 59
66 57
66 43
66 49
66 47
66 61
66 53
66 89
66 52
66 87
66 42
66 01
66 83
66 69
66 82
66 67
66 63
66 09
66 62
66 07
66 03
66 02
95 00
95 20
95 21
95 25
95 24
95 30
95 35
95 94
95 75
95 31
95 28
95 66
95 95
95 34
95 98
95 38
95 91
95 71
95 78
95 74
95 70
95 90
95 26
95 96
95 36
95 76
95 18
95 50
95 14
95 58
95 54
95 16
95 10
95 22
95 56
95 44
95 88
95 99
95 37
95 27
95 40
95 80
95 39
95 15
95 60
95 29
95 23
95 77
95 46
95 11
95 48
95 55
95 33
95 86
95 19
95 79
95 45
95 32
95 68
95 17
95 97
95 84
95 85
95 06
95 51
95 73
95 64
95 72
95 08
95 13
95 93
95 65
95 41
95 92
95 04
95 12
95 81
95 05
95 59
95 57
95 43
95 49
95 47
95 61
95 53
95 89
95 52
95 87
95 42
95 01
95 83
95 69
95 82
95 67
95 63
95 09
95 62
95 07
95 03
95 02
Ġdi ed
Ġdi am
34 00
34 20
34 21
34 25
34 24
34 30
34 35
34 94
34 75
34 31
34 28
34 66
34 95
34 34
34 98
34 38
34 91
34 71
34 78
34 74
34 70
34 90
34 26
34 96
34 36
34 76
34 18
34 50
34 14
34 58
34 54
34 16
34 10
34 22
34 56
34 44
34 88
34 99
34 37
34 27
34 40
34 80
34 39
34 15
34 60
34 29
34 23
34 77
34 46
34 11
34 48
34 55
34 33
34 86
34 19
34 79
34 45
34 32
34 68
34 17
34 97
34 84
34 85
34 06
34 51
34 73
34 64
34 72
34 08
34 13
34 93
34 65
34 41
34 92
34 04
34 12
34 81
34 05
34 59
34 57
34 43
34 49
34 47
34 61
34 53
34 89
34 52
34 87
34 42
34 01
34 83
34 69
34 82
34 67
34 63
34 09
34 62
34 07
34 03
34 02
98 20
98 21
98 25
98 24
98 30
98 35
98 94
98 75
98 31
98 28
98 66
98 95
98 34
98 98
98 38
98 91
98 71
98 78
98 74
98 70
98 90
98 26
98 96
98 36
98 76
98 18
98 50
98 14
98 58
98 54
98 16
98 10
98 22
98 56
98 44
98 88
98 99
98 37
98 27
98 40
98 80
98 39
98 15
98 60
98 29
98 23
98 77
98 46
98 11
98 48
98 55
98 33
98 86
98 19
98 79
98 45
98 32
98 68
98 17
98 97
98 84
98 85
98 06
98 51
98 73
98 64
98 72
98 08
98 13
98 93
98 65
98 41
98 92
98 04
98 12
98 81
98 05
98 59
98 57
98 43
98 49
98 47
98 61
98 53
98 89
98 52
98 87
98 42
98 01
98 83
98 69
98 82
98 67
98 63
98 09
98 62
98 07
98 03
98 02
38 00
38 20
38 21
38 25
38 24
38 30
38 35
38 94
38 75
38 31
38 28
38 66
38 95
38 34
38 98
38 38
38 91
38 71
38 78
38 74
38 70
38 90
38 26
38 96
38 36
38 76
38 18
38 50
38 14
38 58
38 54
38 16
38 10
38 22
38 56
38 44
38 88
38 99
38 37
38 27
38 40
38 80
38 39
38 15
38 60
38 29
38 23
38 77
38 46
38 11
38 48
38 55
38 33
38 86
38 19
38 79
38 45
38 32
38 68
38 17
38 97
38 84
38 85
38 06
38 51
38 73
38 64
38 72
38 08
38 13
38 93
38 65
38 41
38 92
38 04
38 12
38 81
38 05
38 59
38 57
38 43
38 49
38 47
38 61
38 53
38 89
38 52
38 87
38 42
38 01
38 83
38 69
38 82
38 67
38 63
38 09
38 62
38 07
38 03
38 02
sp erm
sp rutsen
91 00
91 20
91 21
91 25
91 24
91 30
91 35
91 94
91 75
91 31
91 28
91 66
91 95
91 34
91 98
91 38
91 91
91 71
91 78
91 74
91 70
91 90
91 26
91 96
91 36
91 76
91 18
91 50
91 14
91 58
91 54
91 16
91 10
91 22
91 56
91 44
91 88
91 37
91 27
91 40
91 80
91 39
91 15
91 60
91 29
91 23
91 77
91 46
91 11
91 48
91 55
91 33
91 86
91 19
91 79
91 45
91 32
91 68
91 17
91 97
91 84
91 85
91 06
91 51
91 73
91 64
91 72
91 08
91 13
91 93
91 65
91 41
91 92
91 04
91 12
91 81
91 05
91 59
91 57
91 43
91 49
91 47
91 61
91 53
91 89
91 52
91 87
91 42
91 01
91 83
91 69
91 82
91 67
91 63
91 09
91 62
91 07
91 03
91 02
71 00
71 20
71 21
71 25
71 24
71 30
71 35
71 94
71 75
71 31
71 28
71 66
71 95
71 34
71 98
71 38
71 91
71 71
71 78
71 74
71 70
71 90
71 26
71 96
71 36
71 76
71 18
71 50
71 14
71 58
71 54
71 16
71 10
71 22
71 56
71 44
71 88
71 99
71 37
71 27
71 40
71 80
71 39
71 15
71 60
71 29
71 23
71 77
71 46
71 11
71 48
71 55
71 33
71 86
71 19
71 79
71 45
71 32
71 68
71 17
71 97
71 84
71 85
71 06
71 51
71 73
71 64
71 72
71 08
71 13
71 93
71 65
71 41
71 92
71 04
71 12
71 81
71 05
71 59
71 57
71 43
71 49
71 47
71 61
71 53
71 89
71 52
71 87
71 42
71 01
71 83
71 69
71 82
71 67
71 63
71 09
71 62
71 07
71 03
71 02
78 00
78 20
78 21
78 25
78 24
78 30
78 35
78 94
78 75
78 31
78 28
78 66
78 95
78 34
78 98
78 38
78 91
78 71
78 78
78 74
78 70
78 90
78 26
78 96
78 36
78 76
78 18
78 50
78 14
78 58
78 54
78 16
78 10
78 22
78 56
78 44
78 88
78 99
78 37
78 27
78 40
78 80
78 39
78 15
78 60
78 29
78 23
78 77
78 46
78 11
78 48
78 55
78 33
78 86
78 19
78 79
78 45
78 32
78 68
78 17
78 97
78 84
78 85
78 06
78 51
78 73
78 64
78 72
78 08
78 13
78 93
78 65
78 41
78 92
78 04
78 12
78 81
78 05
78 59
78 57
78 43
78 49
78 47
78 61
78 53
78 89
78 52
78 87
78 42
78 01
78 83
78 69
78 82
78 67
78 63
78 09
78 62
78 07
78 03
78 02
74 00
74 20
74 21
74 25
74 24
74 30
74 35
74 94
74 75
74 31
74 28
74 66
74 95
74 34
74 98
74 38
74 91
74 71
74 78
74 74
74 70
74 90
74 26
74 96
74 36
74 76
74 18
74 50
74 14
74 58
74 54
74 16
74 10
74 22
74 56
74 44
74 88
74 99
74 37
74 27
74 40
74 80
74 39
74 15
74 60
74 29
74 23
74 77
74 46
74 11
74 48
74 55
74 33
74 86
74 19
74 79
74 45
74 32
74 68
74 17
74 97
74 84
74 85
74 06
74 51
74 73
74 64
74 72
74 08
74 13
74 93
74 65
74 41
74 92
74 04
74 12
74 81
74 05
74 59
74 57
74 43
74 49
74 47
74 61
74 53
74 89
74 52
74 87
74 42
74 01
74 83
74 69
74 82
74 67
74 63
74 09
74 62
74 07
74 03
74 02
70 20
70 21
70 25
70 24
70 30
70 35
70 94
70 75
70 31
70 28
70 66
70 95
70 34
70 98
70 38
70 91
70 71
70 78
70 74
70 70
70 90
70 26
70 96
70 36
70 76
70 18
70 50
70 14
70 58
70 54
70 16
70 10
70 22
70 56
70 44
70 88
70 99
70 37
70 27
70 40
70 80
70 39
70 15
70 60
70 29
70 23
70 77
70 46
70 11
70 48
70 55
70 33
70 86
70 19
70 79
70 45
70 32
70 68
70 17
70 97
70 84
70 85
70 51
70 73
70 64
70 72
70 13
70 93
70 65
70 41
70 92
70 12
70 81
70 59
70 57
70 43
70 49
70 47
70 61
70 53
70 89
70 52
70 87
70 42
70 83
70 69
70 82
70 67
70 63
70 62
90 20
90 21
90 25
90 24
90 30
90 35
90 94
90 75
90 31
90 28
90 66
90 95
90 34
90 98
90 38
90 91
90 71
90 78
90 74
90 70
90 90
90 26
90 96
90 36
90 76
90 18
90 50
90 14
90 58
90 54
90 16
90 10
90 22
90 56
90 44
90 88
90 99
90 37
90 27
90 40
90 80
90 39
90 15
90 60
90 29
90 23
90 77
90 46
90 11
90 48
90 55
90 33
90 86
90 19
90 79
90 45
90 32
90 68
90 17
90 97
90 84
90 85
90 51
90 73
90 64
90 72
90 13
90 93
90 65
90 41
90 92
90 12
90 81
90 59
90 57
90 43
90 49
90 47
90 61
90 53
90 89
90 52
90 87
90 42
90 83
90 69
90 82
90 67
90 63
90 62
26 00
26 20
26 21
26 25
26 24
26 30
26 35
26 94
26 75
26 31
26 28
26 95
26 34
26 98
26 38
26 91
26 71
26 78
26 74
26 70
26 90
26 26
26 96
26 36
26 76
26 18
26 50
26 14
26 58
26 54
26 16
26 10
26 22
26 56
26 44
26 88
26 99
26 37
26 27
26 40
26 80
26 39
26 15
26 29
26 23
26 77
26 46
26 11
26 48
26 55
26 33
26 86
26 19
26 79
26 45
26 32
26 17
26 97
26 84
26 85
26 06
26 51
26 73
26 72
26 08
26 13
26 93
26 41
26 92
26 04
26 12
26 81
26 05
26 59
26 57
26 43
26 49
26 47
26 53
26 89
26 52
26 87
26 42
26 01
26 83
26 82
26 09
26 07
26 03
26 02
ven ant
oer ienkomst
96 00
96 20
96 21
96 25
96 24
96 30
96 35
96 94
96 75
96 31
96 28
96 95
96 34
96 98
96 38
96 91
96 71
96 78
96 74
96 70
96 90
96 26
96 96
96 36
96 76
96 18
96 50
96 14
96 58
96 54
96 16
96 10
96 22
96 56
96 44
96 88
96 99
96 37
96 27
96 40
96 80
96 39
96 15
96 29
96 23
96 77
96 46
96 11
96 48
96 55
96 33
96 86
96 19
96 79
96 45
96 32
96 17
96 97
96 84
96 85
96 06
96 51
96 73
96 72
96 08
96 13
96 93
96 41
96 92
96 04
96 12
96 81
96 05
96 59
96 57
96 43
96 49
96 47
96 53
96 89
96 52
96 87
96 42
96 01
96 83
96 82
96 09
96 07
96 03
96 02
36 00
36 20
36 21
36 25
36 24
36 30
36 35
36 94
36 75
36 31
36 28
36 95
36 34
36 98
36 38
36 91
36 71
36 78
36 74
36 70
36 90
36 26
36 96
36 36
36 76
36 50
36 14
36 58
36 54
36 16
36 10
36 22
36 56
36 44
36 88
36 99
36 37
36 27
36 40
36 80
36 39
36 15
36 29
36 23
36 77
36 46
36 11
36 48
36 55
36 33
36 86
36 19
36 79
36 45
36 32
36 17
36 97
36 84
36 85
36 06
36 51
36 73
36 72
36 08
36 13
36 93
36 41
36 92
36 04
36 12
36 81
36 05
36 59
36 57
36 43
36 49
36 47
36 53
36 89
36 52
36 87
36 42
36 01
36 83
36 82
36 09
36 07
36 03
36 02
76 00
76 20
76 21
76 25
76 24
76 30
76 35
76 94
76 75
76 31
76 28
76 95
76 34
76 98
76 38
76 91
76 71
76 78
76 74
76 70
76 90
76 26
76 96
76 36
76 76
76 18
76 50
76 14
76 58
76 54
76 16
76 10
76 22
76 56
76 44
76 88
76 99
76 37
76 27
76 40
76 80
76 39
76 15
76 29
76 23
76 77
76 46
76 11
76 48
76 55
76 33
76 86
76 19
76 79
76 45
76 32
76 17
76 97
76 84
[...]
