#version: 0.2
e n
t e
Ġ d
e r
i n
a n
o f
en d
x t
of te
< |
| >
end ofte
endofte xt
a r
Ġ f
. <|
Ġ s
Ġd e
Ġ i
Ġ w
Ġ m
Ġ o
Ġ b
a t
Ġ h
e t
c h
e i
Ġ n
e l
Ġ k
y n
Ġi t
s t
j e
Ġ g
a l
Ġf an
Ġ t
Ġ in
Ġ yn
r o
o ar
Ġ en
Ġi s
r i
Ġ e
l e
Ã »
Ġ p
r e
Ġo p
l i
k e
in g
Ġd at
e d
n e
Ã ¢
Ġ te
a s
u r
o l
i t
er s
d e
Ã ª
a k
Ġm ei
te r
D e
o n
i e
ch t
o m
Ã º
a m
g e
o r
Ġf oar
k en
Ã» n
d er
Ġb e
i s
Ġo m
Ã¢ n
i j
Ġ l
j o
in ne
Ġ v
Ġd er
r a
Ġo an
y s
Ġg e
Ġn et
Ġ al
a ar
Ġm o
Ġf er
' t
Ġn o
i er
e ar
o e
Ġs t
t en
t s
Ġw ur
Ġ F
Ġ j
i l
u w
d en
" <|
Ġe k
Ġ Ãº
g en
u s
Ġd y
I t
Ġ S
in s
i et
Ġb y
Ġw ol
a d
Ãª r
i en
. "<|
z e
Ġo er
i m
y k
m e
s te
Ġn ei
Ġh a
Ġb inne
Ġk om
l Ã¢n
Ġs e
Ġw e
Ġm ar
j en
Ã ´
a an
Ġ z
j in
ĠÃº t
Ġ Ã»n
i el
Ġh at
r u
i d
Ġ B
r ys
Ġ H
Ã¢ l
Ġ as
o k
en s
g el
Ġno ch
w e
Ġs ei
u n
Ġ re
ro ch
ĠF rys
o p
Ġh et
Ġ c
Ġ L
i ch
Ã´ f
r en
Ġ A
li k
Ġ 1
D at
m a
d t
e s
Ġp l
Ġs a
ro n
Ġd Ãªr
Ġs k
Ġw ie
Ġ Ã´f
Ġh e
a p
Ġmo at
Ġ er
Ġ W
i k
Ġd o
Ġw er
ins ken
Ġ N
Ġt roch
Ġs p
Ġ '
n en
Ġh ar
Ġ r
Ġj ier
k t
Ġo ar
e f
o ed
Ġe en
Ġ li
Ġw at
Ġ D
Ġv an
an t
Ġ M
Ġp ro
Ġi k
s k
Ġ K
an d
Ġ 2
Ġm insken
er t
Ġsei t
o or
Ġ G
a ch
Ġm ear
jo uw
i r
o ron
u m
Ġk ri
Ġ J
Ġwur de
Ġ V
0 0
Ġm e
m en
ing en
Ġc oron
p en
as je
Ġal le
Ġw aar
Ġd an
Ġ of
s je
Ġbe s
u t
a cht
Y n
in t
a st
Ġ R
Ġe ar
Ġ le
Ġw i
a f
an g
Ġk in
Ġ je
o t
Ġh iel
el s
a at
Ġ P
Ġwur dt
Ġt i
Ġg oed
ĠFrys lÃ¢n
u l
" ,
Ġs o
a g
te l
Ġ T
Ġt s
z en
ĠÃ»n der
i p
a al
a asje
Ġha w
o u
Ġd it
ar t
o an
e k
on g
Ġs yn
l en
Ġ "
z ze
Ġt w
ij n
Ġk inne
Ġd i
I k
s p
d ei
Ġhaw we
Ġn iet
v en
o er
et ter
Ġw y
Ġg ru
Ġ C
o s
st ra
b er
Ġh el
k er
Ġm ak
Ġ E
ol le
in e
Ġ De
me en
Ġb li
ei d
ef f
Ġm in
ed er
o g
I n
or t
v e
a am
Ġg jin
ĠL jouw
ys je
Ġb r
d ers
b b
Ġge meen
M ar
eff ens
Ġv oor
ts je
s e
Ġi en
i g
D er
v er
Ġgru t
al e
Ġg iet
Ġs it
st en
Ġ ri
Ġmoat te
Ġo n
Ġwaar d
Ġkom t
o cht
s en
Ġf ers
Ġ O
i je
y l
W e
end e
Ã¢l d
Ġs il
ien e
y d
Ġk l
Ġh oe
p e
Ġz ijn
w ur
ro m
u it
Ġoar e
Ġh im
jo cht
f e
Ġ aan
Ġwur k
m er
b e
o al
Ġs l
Ġso ad
Ġm aar
Ġk on
ri j
Ġt a
ak t
Ġs i
gel s
k om
Ġts jin
o en
ar re
Ġoan t
Ġkom me
el d
Ġn ije
ri uw
Ġm an
D Ãªr
Ġs te
E n
Ġtw a
el e
H y
Ġd ie
Ġb er
in k
Ġ a
Ġh y
ĠLjouw ert
f er
Ġgemeen te
an n
Ġbe g
e ch
i te
e m
w aan
ir us
h eid
bb en
Ġhar ren
Ġ ei
Ġn e
jo er
Ġ2 0
ing s
Ġdi zze
Ġw Ãª
en n
Ġ el
Ġm et
Ġb ed
Ã» s
Ġf ol
ste l
u ur
O p
e pen
Ġf re
Ġd us
Ãª st
st ri
ĠN eder
u p
Ġs oar
r Ã»
Ġs ne
ro p
i ge
e p
i o
a te
Ġv er
Ġh ie
j ir
y ts
z je
ter s
ĠFrys ke
Ġpl ak
Ġh Ã¢l
o ch
ij k
j er
Ġear ste
H et
Ġo ok
ins je
an nen
re k
Ġ (
Ġf u
ri s
i ed
l ing
Ġs oe
Ġb et
ĠÃº s
Ġb el
Ãº s
y f
Ġb in
ei t
Ġd waan
a u
f al
i st
a gen
Ġw el
E k
Ãº t
Ġk aam
d at
Ġs jen
Ġd oar
S e
li ke
Ġti id
ed stri
Ġpl ysje
t yd
Ġk e
Ã»n der
A l
ear ren
us ken
g an
s j
il d
' s
Ġs els
in n
Ġp art
fe an
Ġei gen
b o
Ġge w
ri es
ĠwÃª ze
Ġt ri
u ro
et ten
gan is
it te
N effens
Ġ 3
ak sje
u er
o el
? <|
Ġwi ke
Ġg ro
aat re
Ġgrut te
a b
Ġl ang
am p
Ġl yk
Ġge an
oe k
Ġi epen
wur k
Ġf ier
at en
Ġmak ke
earren fean
Ġhe bben
n im
i f
m an
m et
Ġ ze
am b
ĠNeder lÃ¢n
W y
Ġw iene
Ġb o
Ġb en
Ãº d
Ġpro v
Ġmo et
re kt
Ġge b
Ġp ers
an ne
Ġk un
Ãª ste
Ġbli uw
a i
ĠH earrenfean
Ġk ear
Ġli t
der e
Ġmo og
Ġfer tel
e st
s ke
Ġs jo
ra cht
Ġbe st
ĠÃ»n ders
sk ip
Ġt h
Ġf in
g er
d el
l and
ke s
D y
Ġbe k
Ġcoron af
i v
Ġw ant
u or
Ġme ter
Ġo r
Ġh jir
Ġst iet
f oar
Ġa ut
li j
Ġre k
g ge
Ġwol le
Ġf i
a ad
Ġfers k
Ġcoronaf irus
m ers
Ġb ij
Ġe f
h Ã¢l
Ġtri je
Ġsk oal
s el
A s
b al
k et
en t
a de
Ġ jo
Ġal l
s ter
aatre gels
Ġmoog lik
u b
ens en
Ġn effens
Ãª d
Ġ Z
F oar
Ġ 5
Ġw edstri
Ġno g
Ġmin der
yk s
Ġdo ch
Ġprov insje
j on
Ġf yn
Ġwer om
Ġ I
ite it
ad de
B y
h e
n ei
Ġf ro
Ġw etter
i cht
Ġt usken
Ġof t
Ġbr Ã¢n
jo ch
00 0
Ġor ganis
w acht
r y
Ġkon t
Ġs y
w enn
o op
Ġd oe
am men
Ġf l
jouw er
a ak
Ġt al
ei li
am en
le in
h Ã»s
l ine
Ġw or
as ter
Ġber n
e el
ys ke
ĠÃ»n t
w i
Ġt ra
Ġaut o
b le
ĠS t
Ġbin nen
Ġoer e
rÃ» ne
Ġbes met
Ġk an
Ġb oar
Ġkri je
d iel
ra ach
Ġ ra
f ier
r an
Ġoar s
Ã «
Ġw Ãªr
a c
w ol
M ei
Ġfer h
s els
Ġj ild
w er
te m
Ġn ij
ear re
Ġm ensen
ts en
Ġ It
Ġfertel t
Ġz o
Ġbed riuw
j u
ul t
Ġbek end
Ã» ten
le ar
Ġe cht
Ġl Ã¢n
Ġl eit
j Ã»n
r am
g et
Ġm is
Ãª rom
w ar
Ġe in
oar n
s l
u st
Ġk rekt
u k
s it
ĠA l
Ġkom m
ge m
Ġfu ort
Ġn at
in ten
Ġste an
b y
Ġ uit
ĠÃ´f rÃ»ne
o d
p l
Ġ 4
Ġhe el
S a
k l
Ġsne on
Ġ1 9
Ġcoron a
st Ã¢n
Ġe uro
Ġkun nen
Ġg en
ei de
ĠV an
Ġd ien
ro k
Ġbes l
O m
Ġk oe
ak en
ĠM ar
Ġdoar p
Ġal s
j ier
Ġth Ãºs
ed en
Ġalle s
Ġ20 1
f ol
Ġd agen
Ġk w
k el
Ġde i
Ġn aar
Ġn u
D an
i id
te ar
ri e
Ġs w
er e
k oar
Ġ Ã¢l
Ġdoch s
it s
amb uur
Ġmo ast
Ġ ap
Ġl Ãªste
Ġdo cht
w ei
m ei
Ġal tyd
Ġf olle
Ġp as
Ġf am
Ġw il
ys k
e g
Ġom dat
Ġhiel e
Ġo ver
Ġt ak
ĠÃ»nders yk
et te
Ġfer t
wenn ers
ĠJ ong
Ġk o
Ġl yts
s s
ĠÃº ts
al en
Ġfyn t
on d
Ã»n t
yl je
lij k
Ġt re
Ġme er
Ġsi ke
Ġd aar
inn ich
Ġsit te
ru m
Ġpro ble
Ġwe st
Ġtw adde
ef t
u is
N ei
and ei
ĠH ar
Ġsne in
Ġkri j
y t
z oen
aasje s
Ġgew oan
Ġt in
f t
p er
a a
i a
Ġ af
Ġf rij
te ur
Ġte st
Ġn im
p t
ĠS ch
Ġti cht
m el
Ġ 6
ke ar
am er
gel yks
Ġmei tsje
sit ter
r Ã¢ld
u d
g ers
s ch
le at
Ġwi ken
us e
Ġf e
im ber
r et
Ġb oer
at ie
ĠN oar
ĠJ o
i c
je s
Ġfre ed
ĠJ an
i on
oan s
Ġe ven
Ġst ik
Ġtak om
ri ge
Ġm y
ĠA n
ts jen
Ġjier ren
Ġdo el
Ġwedstri id
ge ar
Ġm aatregels
Ġpart ij
Ġbesmet t
in en
an k
Ġst uit
Ġg r
Ġb Ã»ten
ris is
Ġg ed
acht en
Ġf Ã»n
oans dei
Ġbr Ã»
en e
Ãºd lik
Ã ©
ong ers
Ġte r
Ġr jocht
Ġfan we
Ġby gelyks
Ġw itte
l ingen
Ġp ear
ĠC ambuur
on ge
Ġp os
Ġn ed
wol s
ij d
uw en
Ġp re
er en
Ġlyk wols
Ġha st
ĠF ries
Ġear st
D it
b r
Ġf jouwer
Ġear der
ĠhÃ¢l de
Ġall innich
is s
Ġf Ãªst
Ġh Ã¢n
S y
Ġp r
ĠhÃ¢l den
end al
Ġt ot
in d
Ġmo andei
e en
Ġh ier
Ġmei e
jo en
Ġfer b
Ġbeg jin
uw e
F rys
nim mers
te jÃ»n
Ġsil le
Ġned ich
ot bal
Ġv eel
Ã´ ch
Ġg ie
et s
Ġw en
Ġw as
is dei
Ġp o
gem aster
li t
Ġsoar ch
h el
Ġbel ang
Ġf ak
M aar
ar k
ge an
Ġdo or
Ġg aan
Ġkom men
e e
f olle
Ġd Ãºdlik
is ter
s ma
Ġfersk ate
F an
Ġfro u
Ġ ad
Ġhe b
u g
Ġm il
ma al
ach ter
Ġg u
Ġsei zoen
ĠLjouw er
Ġw oansdei
as s
Ġon s
Ġde l
ĠG G
ĠO m
ĠS te
Ġfier der
Ġs tel
Ġkri jen
i ve
it ten
ge b
u z
stel ling
Ġ 7
Ġs ch
Ġmei tsjen
ĠS k
f ers
o o
en k
Ġfer w
Ġ an
Ġf le
oe ch
ok k
Ġd re
Ġw et
Ġhiel tyd
ongers dei
Ġ rom
s et
Ġre g
ur d
Ġl etter
ĠS n
Ġpos it
s int
ru k
jier rige
Ġl an
Ġst r
Ġkri gen
Ġh inne
Ġsp il
Ġ aksje
Ġs n
Ġw rÃ¢ld
Ġge ar
Ġwe er
u ten
b el
Ġcoron ak
ĠW aad
Ġne at
un t
wi is
Ġk olle
Ġpl an
el en
Ã¢n s
Ġgro ep
' .<|
Ġs yk
Ġm om
f an
i Ã«
Ġ ro
j itte
ra gen
Ġ20 2
Ġb l
ri ed
Ġle ar
D us
Ġw ei
Ġjo ut
g ram
m o
Ġm id
Ġdo gge
Ġfan sels
ĠS p
Ġti isdei
Ġskoal le
J e
W at
Ġm ed
Ġbe sk
Ġmoet en
Ġcoronak risis
k ers
ĠV ries
Ġb op
Ġdo en
Ġkl up
u te
Ġkomm ende
d i
Ġk ant
ak ke
Ġd rok
rek teur
Ġbest joer
Ġh iene
Ġkri ge
Ġl ok
Ġwur den
Ġgen Ã´ch
ĠSn its
Ġbliuw e
use um
h ann
ĠG r
Ġri ed
Frys lÃ¢n
Ġf al
k s
o on
Ġg aat
Ġfi if
g gen
c t
h a
o st
as te
g ing
Ġe ins
, "
Ġt ongersdei
Ã» zen
Ġj ong
Ġf yts
l y
Ġad v
Ġl yn
Ġri s
Ġg el
oen e
aar d
Ġnat uer
ĠGG D
Ġs ke
Ãº ts
Ġsjo en
Ġkom p
Ġfu otbal
im mer
f en
Ġp er
as jon
ĠÃº te
el f
ou d
Ġt oer
a as
m ing
t te
Ġd Ãªrom
ou den
of t
ro cht
w ik
Ġh Ã»s
Ġhe eft
Ġwaar den
Ġh o
fal len
Ġpers oan
Ġd iel
Ġp ri
Ġsike hÃ»s
l ach
gram ma
ge arre
ĠÃ´f stÃ¢n
Ġfer oar
Ġbet sj
Ġst il
r in
Ġm yn
Ġb etter
Ġop l
ra ak
ĠD racht
Ġsk riuw
li s
Ġts ien
Ġgemeen ten
D oe
H oe
Ġbliuw t
ĠOm rop
n s
Ġ achter
Ġmak ket
Ġs jocht
Ġmo ai
ĠdÃªr nei
war is
Ġ U
Ġkont akt
u tsen
Ġf irus
Ġel k
ter n
Ġk amen
ik ers
ag ge
t ing
Ġg au
Ġj onge
Ġbetsj ut
ĠA r
Ġk ar
N o
Ġsp ort
p ro
Ġs Ã»nt
as is
Ġsi zze
Ġoant al
h eden
i sten
Ġek stra
i le
i ke
Ġwor dt
Ġfam ylje
Ġst ie
Ġsk ip
Ġef ter
Ġ Ã¢ld
le f
' <|
ar d
Ġhiel endal
Ġrek ke
an e
Ġben ammen
ien en
T roch
t roch
in oar
je kt
Ġts jer
g a
g je
g ro
ru g
Ġge en
Ġdwaan de
Ġd uor
Ġw ink
wur d
Al le
Ġsjo gge
Ġmil joen
Ġ 8
at yf
Ġwi cht
stel d
Ġbli ken
Ġbli id
d am
o b
or g
Ġh oop
Ġw ij
st Ãªd
r ing
Ġh Ãºs
Ġ1 5
Ġr ei
an de
ĠD Ãºts
Ġyn f
Ġon der
ien ing
Ġlyk as
Ġgoed e
icht ing
un st
c k
Ġg raach
Ġp ar
il li
Ġby l
Ġtra in
Ġboar gemaster
Ġfer p
Ġr Ã»n
Ġli bben
Ġsit u
Ġf ine
Ġh op
st joer
Ġp ra
Ġbli j
Ġp ub
Ġfer line
iet en
h o
Ġf eili
Ġs et
Ġyn t
Ġfoar sitter
ĠFrys k
Ġhel p
Ġwor den
e ter
Ġbesmett ingen
Ġp ak
ke ap
ar en
Ã» ne
Ġw in
Ġbe tel
is k
ĠA m
Ġi de
Ġt ocht
Ġp e
Ġbe p
Ġef kes
h u
n o
Ġst ap
Ġboer en
Ġw enn
Ġm eld
Ġh ear
Ġk amp
Ġkom en
tsje s
ĠDracht en
a ie
es j
Ġlit ten
z zen
e er
Ãº n
Ġk ab
Ġk lear
Ġge f
ach te
Al s
ĠLjouwer ter
Ġm el
ri l
am me
Ġj aan
p el
on t
Ġorganis aasje
Ġj aar
M insken
an s
Ġde ze
Ġcoron am
Ġso ene
ip e
y zje
Ġs up
is j
Ġferh aal
m p
Ġte lef
Ġplak ken
d de
I en
Ġb al
Ġh urd
ĠK N
Ġproble men
as se
Ġkrij t
Ġw a
or m
rie zen
Ġmin ister
Ġge v
Ġbop pe
i ers
p ers
E r
id dei
u ma
sje s
heid s
ast en
Ġwil len
om men
i de
Ġw it
Ġlyts e
l o
gel ok
j ild
Ġw oe
Ġk il
Ġ lik
Ġk Ã¢ns
ts te
ĠbrÃ¢n wacht
Ġra p
f in
li ed
un ten
l er
l et
Ġre gel
ul ju
och s
Ġtre dde
Ġs immer
ĠG ro
wurk ers
ĠGr ins
h ol
Ġw Ã»n
Ġlit te
in et
Ġsa ak
et ysje
a v
Ġli zze
Ġme e
ĠNeder land
j it
ĠNoar d
h Ã¢ld
Ġj Ã»n
b ou
ken ien
Ġ1 0
Ġf aak
ĠB o
w illi
Ġ In
Ġme aste
Ġalle gear
Ġdi rekteur
Ġtakom st
Ġoan p
Ġide e
ĠB er
Ġhe ech
os s
tem iddei
a ag
Ġ -
Ġ acht
in te
Ġhel e
DÃªr nei
joch te
Ġbesl Ãºt
e zje
Ġs Ã»nder
Ġk oar
Ġop n
ra af
Ġfi a
Ġkab inet
V an
r yk
Ġwy l
Ġf raach
ch te
Ġk ult
al f
Ġp leat
gen s
ĠÃºte in
Ġb asis
ur g
Ġre st
Ġt af
op p
ĠT h
Ġs Ã¢n
Ġcoronam aatregels
Ġ 9
Ġsp esj
Ġoer en
jin ten
Ġ1 8
ie s
Ġdre ech
s jen
w edstri
ar is
oar ek
Ġge fol
okk um
Ġf Ã»
Ġn acht
tem oarn
Ġtin kt
ĠK e
oor d
Ġsw ier
hann el
z j
Ġd ra
il le
ĠS C
er k
der en
om m
Ġfer k
Ġpl oech
hÃ¢l der
Ġfanwe ge
) .<|
m ar
a un
il m
we st
wik kel
Ġ akt
Ġte am
Ġbe wenners
ĠD okkum
Ġdy k
Ġoar del
Ġlang er
Ġrom te
ar e
ts e
er d
Ġb eide
ear je
Ġmaar t
Ġgu on
D ochs
m on
Ġs li
ri k
un d
Ġrek ken
ed s
ĠT w
mer k
sel de
Ġn aam
aar t
Ġsei s
Ġwedstri den
Ġpartij en
r aksje
Ġs int
re g
Ġl Ã»
Ġsl acht
Ġpo lit
g t
of fen
Ġz ien
Ġap ril
al l
ke in
m in
Ġb ys
Ġj il
Ġwi ze
eili g
Ġn amme
ĠÃ»n gelok
Ġt we
Ġte l
j inne
l yk
Ġs m
on der
Ġb oek
Ġg ri
Ġtroch gean
Ġposit yf
l ju
or ganis
Ġon ze
Ġke unst
Ġfro ulju
ry p
N et
Ġm uz
Ġg ong
Ġbeg Ã»n
b s
Ġk n
U n
Ġ amb
Ġb rocht
Ġj un
jon ken
Ġwicht ich
en ing
st ann
kl up
D i
Ġb ot
Ġh ad
ĠG e
Ġlik et
Ġs ette
Ġel koar
Ġbedriuw en
Ġtot aal
Ġkolle ezje
a it
p ort
Ġre s
Ġre gels
p ar
Ġm ijn
Ġh ol
oar en
Ġwurk je
Ġfol s
t re
ing a
Ġpro jekt
pl ak
Ġb le
Ġh oarek
Ġk oene
Ġ1 2
kom me
t al
ie k
ts jin
Ġfin an
Ġproble em
Ġk ij
Ġmo annen
ĠF riezen
gel ijk
Ġhel te
Ġk op
Ġop rop
D Ãªrom
j ende
Ġd ruk
k ap
s um
Ġl os
Ġge z
oe ken
Ġst ud
ĠB e
Ġti ge
ĠhÃ¢l dt
Ã ¤
te ken
Ġi is
Ġwurk et
l og
Ġfin ale
an ten
Ġi ens
i li
s es
Ġwyl st
am de
Ġr Ã»
Ġfanwe gen
Ġl o
ts jer
Ġhel le
f re
Ġf ot
Ġst im
Ġel kenien
Ġs el
Ġk le
Ġpl annen
Ġopl oss
Ġd ingen
Ġde s
Ġhe al
Ġnij s
Ġfrij willi
b ek
ei e
al iteit
Ġt och
Ġbe ste
ĠHar ns
gro ep
reg io
W ant
b ed
on gen
is ch
ĠS Ãºd
Ġskoal len
D aar
oar ch
Ġpers int
Ġbys Ã»nder
Ġb us
Ġbes ikers
och te
n er
Ġ1 4
ron g
Ġslacht of
am e
Ġst ipe
Ġse pt
Ġmak en
Ġsept imber
o et
st r
Ġ1 3
Ġ2 5
art ij
tear je
Ġgr Ã»n
ĠL e
oal s
Ġfeili ch
Ġwur d
Ġfre ge
Ġkil om
f ear
i den
Ġt ink
ak ker
Ġwy kein
e in
l och
Ġ ru
is je
uw er
Ġpro tte
Ġwink el
lied ing
an der
Ġ1 00
ĠD ijk
anne waris
Ġan dere
b re
b ier
y p
Ġj annewaris
Ġon line
Ġt op
Ġop r
Ã¢n sje
Ġbyl d
g ong
w inn
Ġst ad
Ġha ad
ocht en
hÃ¢l den
Ġsw im
d o
Ġs aken
re s
Ġ1 7
c e
Ġfer st
is te
Ġkin nen
rÃ» k
m id
Ġb ar
Ġfer kear
ĠE l
aa ie
Ġ Y
Ġf ilm
as sen
Ġmin uten
Ġgeb iet
ĠbrÃ» kt
Ġpe tear
b ank
ĠNederlÃ¢n ske
Ġnat uur
Ġgefol gen
ing e
Ġst Ãªd
Ġsk oft
ster dam
Ġkont r
k je
p unt
ri t
Ġ2 4
joch ter
ĠÃ¢l de
k ip
ei l
Ġyn s
Ãª ge
on iel
Ġpro gramma
Ġelk aar
W ij
d ag
l a
in ken
Ġs ter
am t
Ġv ol
Ġmo anne
Ġkl achten
Ġfe est
heids regio
Ġbe he
ĠG raaf
Ġ3 0
h al
i alf
Ġz ich
ĠD en
Ġsitu aasje
Ġjun y
Ġw acht
Ġz ou
E ar
F er
f ang
ri ef
ĠB el
kt or
Ġpub lyk
w a
Ġf iel
Ġs inne
Ġs iet
Ġh eit
ear st
Ġj ul
aatre gel
Ġlear lingen
Ġhop et
t ich
Ġd u
Ġper io
Ġf jir
Ġk r
Ġle ech
di gen
h ear
Ġin oar
geb iet
ĠAm sterdam
d waan
at s
ol l
Ġbe f
Ġre ed
Ġsa folle
Ġme m
h uis
Ġt oe
ĠR o
li d
Ġof f
ĠÃ»nder wiis
ĠFries land
k ker
o ber
Ġd en
st re
le ech
Ġmei wurkers
ma at
Ġ2 00
Ġs am
Ġi eder
Ġst re
Ġz elf
ik s
Ġli ve
ig er
Ġsit ten
Ġon t
Ġsn el
i um
z er
Ġri de
Ġfersk il
er m
Ã» l
Ġbe w
ra ag
Ġman lju
Ġhoarek a
Ġkilom eter
Ã ¯
Ġn ie
Ġek sp
Ġ1 6
hu zen
le s
jo ed
Ġfer g
kt ober
ant wurd
Ġmom int
' ,
Ġg o
Ġr inne
a den
Ġyn wenners
ge a
Ġpro d
iv iteit
Ġnim me
Ġpr akt
u re
Ġm aaie
Ġin isj
ed at
on om
ys te
Ġmo cht
Ġfert ochte
O an
Ġ ar
Ġs j
Ġo ktober
Ġst ri
t ra
Ġfer d
Ġre aksje
Ġbel utsen
Ġgear wurk
m akke
Ġh ij
Ġmo o
ich te
Ġm useum
Ġfoar earst
ut te
ĠÃ»nder nimmers
aa zje
Ġmoast en
g jen
Ġf joer
Ġs om
oar d
or d
ĠH enk
Ġfin en
Ġfot o
w Ã¢l
Ġs ad
Ġh ouden
Ġal t
fer iening
ub s
ĠTh ialf
Ġby tsje
iss er
ĠKe amer
t jin
it en
ĠF r
Ġreg io
O f
a ze
i ken
k ing
ap as
ĠG er
Ġgew oon
Ġferw achte
Ġfrijwilli gers
ĠH o
Ġkon ten
Ġgean e
Ġferh alen
Ġt aal
Ġmo aie
Ġsoar gen
bed riuw
v oor
Ġd enk
ur en
on s
Ġfer n
op en
G e
st ik
ur s
Ġgeb ou
V M
k ien
w Ã¢ld
el ijk
st and
ik et
ĠE uro
Ġman ier
Ġynt usken
ĠB uma
Ġsp ann
sk oal
bo d
Ġ1 1
es ke
Ġged achten
Ġt ijd
Ġr Ãªst
Ġoar en
ĠAl de
N P
Ġs ok
Ġs ane
le den
Ġp unten
Ã»n s
Ġso sj
Ġbegjin t
I VM
Ġs etten
Ġm aatregel
Ãª re
Ġge h
oe ke
Ġjil dt
d ok
v d
z oek
ins j
ĠB oer
Ġalle gearre
Ġstean e
Ġpra at
winn ing
yk je
ĠdÃªr mei
Ġsp ile
Ġmuz yk
ei den
ĠF ly
rek ken
c o
o at
Ġw ar
Ġyn tern
li cht
ik ber
Ġsup er
Di zze
E l
d ig
r offen
ri je
Ãª den
Ġmo gelijk
Ġsl agge
Ã© n
Ġferw Ã»ne
Ġm a
Ġk re
Ġl Ãªst
Ġmis kien
Ġbesl etten
ute arre
Ġb u
Ã¢ ne
Ġge fal
Ġdoarp s
Ġjong ere
ĠÃºtein lik
ĠEuro pe
S C
ol ve
ĠV V
ĠR IVM
Ġle af
" .<|
b es
w etter
Ġop s
Ġsi fers
Ġgeb rÃ»k
Ġnim t
Ġfal t
Ġ ak
Ġb rief
Ġge fallen
eg je
Ġeven em
Ġn a
re aun
sp rong
Ġspil ers
Ġro l
a ter
in ke
ch n
ĠH e
Ġre den
ĠÃ´f sl
jouw ing
Ġgru tste
Ġ202 0
vd A
Ġw yn
st of
ge v
ĠF e
ru tsen
Ġsp or
Ġr int
Ġalle en
Ġtsjer ke
Ġbep aal
ĠTw adde
b aar
b yl
k o
Ġ aard
ro uwen
ers te
Ġfer keap
ien skip
kom st
Ġdes imber
or ma
Ġwer k
yl ge
Ġtin ke
Ġgo eie
Ġalt ijd
p utearre
Ġf ragen
Ġp le
ij ke
ĠV eilig
Ġ5 0
Ġkomp etysje
Ġfols lein
Ġjul y
w ert
Ġd Ã»
ar je
Ġm aat
Ġt as
Ġfoar al
Ġse ach
Ġwi is
Ġri den
ĠSÃºd west
Ġsane amde
l ok
p s
p or
w en
in a
in nen
ro e
ĠwÃª zen
ied en
Ġall inne
Ġ201 9
Ġspil et
Ġbes ite
Ġsli m
Ã ¼
Ġh ing
ro er
ken s
Ġkij ken
Ġnatuur lijk
Ġh joed
ear jen
ĠF NP
oor t
l an
Ġd rug
Ġi ets
Ġb i
bel ang
wedstri id
j end
n y
ĠA mel
Ġoar loch
Ġmear dere
ĠC h
ĠÃ»nt st
br and
Ġskriuw t
t ocht
u lÃ¢n
Ġit en
Ġen er
Ġsp ylje
fier der
Ġmom ent
ts k
Ġc ont
hel le
Ġhoop je
de ast
es ter
Ġperio ade
u li
Ġ un
in ing
Ġt ar
re in
ĠD o
Ġ2 2
ig ing
kom sten
Ġadv ys
Ġb Ãªste
Ġv ers
ra f
ĠJo h
Ġstud inten
ĠrÃ» te
Ġinisj atyf
b Ã»n
j Ã»
j ip
Ġl Ãª
Ġge be
Ġfers p
Ġei lÃ¢n
hÃ¢l de
ug d
Ġske a
iviteit en
orma asje
O er
l ende
ĠSk ylge
Ġoploss ing
a ur
Ġb ou
Ġh un
Ġfer wacht
ĠH oek
Ġgew eld
ry st
wer f
Ġbesk ikber
Ġsad at
S t
s im
is tearje
Ġst joer
Ġbed oel
ĠbrÃ» ke
oll um
an je
ĠS int
asjon ale
k ar
m int
Ġl ei
Ġme ast
u e
Ġte gen
Ġfer li
Ġoer lis
jen tsjer
iv al
koar t
Ġbestjoer der
ha ven
j a
Ġh Ã»nder
or en
oe p
Ġst art
Ġse in
Ġc amp
ek sje
Ġste eds
ĠfÃªst steld
Ġmed ia
V B
a ke
d ra
k aam
Ġm Ã»l
Ġb art
ier en
Ġkult uer
a ul
u i
aat s
Ġ202 1
Ġgef aar
ille m
Ġieder een
Ġb arre
Ġn jo
Ġg asten
Ġte sten
Ġwur ke
Ġr jochter
ber e
Ġmak lik
ĠÃ»nt wikkel
Ġwet hÃ¢lder
Ġlan ge
u de
Ġs ubs
Ġyn d
uit en
Ġste k
Ġris ik
H ar
s jin
s ek
er v
Ġh annen
Ġwe bs
Ġle s
Ġeigen er
Ġslachtof fer
ĠFr jentsjer
Ġte chn
Ġcoron ab
ĠP ro
diel ing
Ġpre s
Ġjongere in
ĠmÃ»l kap
on den
Ġz org
Ġhe ger
ĠP vdA
Ġpas jinten
n ing
o ri
w Ãª
al t
Ġkl asse
Ġke ap
Ġnim men
Ġamb ulÃ¢n
) ,
r Ã»n
r int
er lÃ¢n
ra st
Ġz itten
ĠR utte
Ġle den
Ġbo at
Ġko sten
mel ling
yste em
A n
Ġ 0
Ġfoar sprong
us ter
Un der
3 0
M o
a zen
Ġm ij
Ġder foar
ĠDijk stra
k und
Ġf raksje
Ġs Ã»n
am d
Ġst ichting
Ġsk Ã»
ag er
ve stÃªd
sch ap
Ġstel len
ct ie
ĠKN VB
urg um
b li
i oen
n ers
Ġ ron
Ġd ok
Ġyn set
le ver
or maal
ra ch
Ġli ke
Ġhel pe
ac t
vestÃªd et
E en
Ġf ar
Ġkin st
er n
Ġw anne
at or
Ġop d
Ġwol ris
ou ten
Ġbelang rij
ĠfÃ» gels
! "<|
U t
n is
Ġb uor
ra at
Ġ2 1
Ġle ver
bb e
au d
nim me
ĠÃ¢l dere
D A
F ier
Ġ rop
Ġk li
ru kt
ĠN ij
sk Ã´
N eder
Ġp racht
ok ker
Ġr el
Ġhel jen
kom en
Ġdoar ren
ĠZ w
ĠSte aten
vestÃªdet ocht
h Ã»zen
r jocht
an gen
Ġg ien
Ġl aten
sp ort
Ġbeg jinne
Ġsoar get
ist oar
ĠJan sen
Ġlok aasje
Ġpra te
Ġsubs yd
B opp
w aar
Ġd ak
an en
al is
DÃªr mei
Ġgemeente ried
Ġkonten ers
p artij
Ġ ag
Ġs u
Ġh ert
Ġmo t
es met
ĠdÃªr foar
foar sitter
Ġkrij gen
Ġpri is
Ġgearwurk ing
Ġwar skÃ´
Bopp edat
Ġn ammen
Ġg as
Ġt Ãºn
ĠB ro
ĠB re
Ġhel pen
Ġiepen bier
Ġpers oniel
Ġopn ij
a ge
p ost
Ġs in
Ã» mer
ed e
ur ele
ers k
Ġfer antwurd
Ã´ le
ĠdÃªr fan
Ġbr Ãªge
Ġne ed
sj ele
Ġ5 00
Ġfak Ã¢nsje
Ġtrain er
bre waris
Ġster k
S Ã»nt
W ol
on en
Ġbe h
ĠS melling
Ġne a
Ġlan like
Ġmid den
Ġbedoel ing
Ġnjo ggen
Ġcoronab esmet
g oed
l Ãªst
t iid
Ġo ef
st ap
ad iel
ĠW illem
kom t
Ġfe brewaris
Ġgu od
S yn
l oed
r ei
te re
Ġk ryst
om p
ij l
oe g
ĠÃ´f sp
Ġer g
ied e
Ġdoar pen
Ġwenn ing
Ġsosj ale
n a
et en
oar gemaster
Ġfoar m
Ã»n ders
ĠV een
ĠV isser
kom ste
Ġa ug
Ġjonge s
hol den
w in
te st
Ġom t
ust us
Ġprakt yk
Ġaug ustus
b raak
z ig
Ġw ienen
re ed
Ãª ft
Ġoer heid
gel yk
ĠV er
Ġmak sim
Ġber ne
Ġsoar gje
io ens
Ġblij ven
Ġfinan sjele
Ġfjir de
C L
p ark
y m
Ġm oarn
ij s
Ġl jocht
Ġkri s
Ġien n
Ġri ge
Ġbest iet
Ġ201 8
Ġtelef yzje
Ġspesj ale
insj ale
in er
at uer
Ġp op
il der
ek er
ĠE aster
ĠÃ¢l den
ĠÃºts p
Ġter m
ee uw
Ġwin ter
S ne
j ins
ing st
ĠdÃªr by
Ġjong eren
Ġynf ormaasje
Ear der
ĠVeilig heidsregio
h of
o v
r aken
je k
Ġv ind
ĠF ran
Ġj u
ĠH aag
Ġle uk
Ġfers oar
ĠNoar deast
ĠLjouwer ters
hannel ing
Ġener zj
Ġst ien
ĠÃºt fier
ĠW e
Ġcoron at
Ġje ugd
nim mer
Ġrjocht bank
Ġtelef oan
Ġwebs ide
Ġde mon
al len
Ġt ro
Ġyn sp
Ġj ust
wenn er
Ġgef oel
d agen
Ġf ear
Ġb oe
Ġt an
Ġfoar stel
ra p
ĠB ru
Ġso an
kom men
bo uw
Ġwenn et
Ġrest aur
c ent
l ak
o ol
Ġsk oar
Ġdi g
os ter
i z
u cht
w oan
Ġd isk
Ġb ist
Ġbes ocht
str jitte
skoal le
ĠHoek stra
a y
b l
u ele
Ġf jild
Ġde selde
Ġh and
Ġop p
Ġno v
Ġse e
ĠH ol
Ġnoch ris
Ġsl ag
hÃ¢l ders
iss aris
Ġsam ar
Ġbu ert
Ġst aan
Ġsk ied
ker ij
iv o
ram er
Ġ19 4
Ġferb Ã¢n
ĠAmel Ã¢n
T wa
Ġalle maal
Ġfl agge
organis aasje
Ġdrug s
Ġsubsyd zje
Ġkris is
Ġnov imber
b ad
Ġb isten
Ġh yn
or gen
Ġl aat
Ġfer fier
Ġso cht
ĠC DA
sint rum
u on
w n
z et
et je
ĠÃºt stjoer
Ġaan st
Ġaan tal
Ġel ke
Ġduor ret
Ġsint rum
Ġrisik o
O ant
c i
k eld
al ist
Ġt o
Ġte gearre
Ã´ r
ĠB urgum
Ġli zzen
Ġpro mo
tsen ien
Ġfert ochten
ĠSp ort
lach jouwer
k sje
Ġk ap
le arre
Ġno dig
Ġek onom
Ġbes ykje
Ġko ste
Ġferp leech
Ġomt inken
Ġdig it
g iet
Ġm er
ke amer
us sen
ĠB os
ĠA k
Ġber op
d ing
Ġk en
Ġk ie
Ġfoar s
ĠK l
oer en
Ġsjo ch
no ai
Ġaard ich
f Ã»
l ann
Ġk u
Ġfer rom
Ġst oar
ĠO p
Ġwurk jen
Ġtaf el
dok ter
b aan
b rocht
k ant
end en
Ġh ichte
Ġte ken
om en
ĠL eeuw
se e
Ġsl ach
Ġth uis
Ġra d
ĠbysÃ»nder e
Ġf yf
Ġw oene
Ġte rug
ik t
Ġfre egje
bo uwen
Ġfak er
Ġ7 5
Ã¯ n
B oargemaster
Ġf est
Ġs ieten
Ġw yk
we g
Ġti tel
ve en
Ġgrut ter
Ã»ten post
Ġwen je
Ġstr jitte
Ġbelangrij k
! <|
M ear
f te
t lik
t iden
v ens
in der
ri ch
Ġe as
Ġte Ã¤
ie m
ĠS m
ĠS y
um int
af ee
ĠP ie
Ġorganis aasjes
stelling werf
Ġmel dt
Z e
Ġe erste
Ã¢n sen
ĠÃ´f fal
Ġhe ge
ĠM CL
ĠJ onge
int ich
Ġkin deren
Ġkw yt
Ġpr of
Ġbar de
a ai
k amp
t ingen
u in
u rop
Ġ Ã©
Ġt ast
ers joch
enn is
Ġeigen lijk
ĠSt ichting
Ġmid del
Ġdiel nimmers
Ġbetel je
Ġkoar t
stann ich
n et
Ġs amen
Ġb aan
Ġg a
Ġge we
Ġfre get
Ġsoar ge
Ġgro te
iv ers
Ġjo ech
Ġ4 0
sch ien
Ġwink els
J an
Ġd yn
Ġm ienskip
al k
Ġom jouwing
iel en
Ġhar t
ĠK an
Ġle st
ĠwrÃ¢ld bek
Ġklup s
Ġbetel le
iers ma
wÃ¢l de
ĠÃ´fsl etten
ĠambulÃ¢n se
kund ige
Neder lÃ¢n
ĠSmelling erlÃ¢n
. '<|
Ġ u
Ġ and
Ġh olle
je p
ts ma
Ġpro sint
Ġres ult
Ġhol den
Ã»nders yk
O D
b ij
h oeke
s y
Ġh u
Ġe er
Ġp ark
ke ma
Ġfer f
Ġby inoar
Ġsk reaun
ĠÃ´f sk
Ġcoron apas
Ġhel je
del ijk
Ġkolle ga
Ġstri id
ioens kip
b oek
Ġf oel
Ġh earre
el le
Ġyn st
ol og
ien ingen
Ġsp ul
Ġkl anten
ied ing
lij ke
Ġstik stof
Ġmaatregel en
2 0
f fe
g aan
r as
Ġb ank
aar ten
Ġfer tsjin
Ġz ie
ap t
Ġsp it
kom m
Ġke at
ĠBer g
oet bal
Ġcoronat iid
? "<|
m y
Ġf un
el der
st ad
ear ret
Ġz it
ĠB Ã»tenpost
be eld
Ġber jocht
ink s
Ġbet ocht
Ġkw aliteit
Ġakt iviteiten
Ġhad den
ar jen
Ġn ormaal
re gel
as e
Ġst aat
Ġwe et
ru tte
ant Ãª
ĠP C
sp e
ve ste
1 9
d ysje
h inne
m men
an den
Ġk aart
Ġst Ã¢n
ve el
Ġbr ingen
Ġsneon tejÃ»n
Ġgr eide
H jir
s in
Ġf is
Ġf ys
Ġt Ã»zen
ur de
ĠA p
Ġkri t
Ġle a
sp elen
ĠNederlÃ¢n sk
Ġrei z
Ġhele maal
Ġgewe est
te ande
Ġd ag
Ġw is
el de
st annen
Ġg er
Ġp unt
Ãª f
on k
Ġv log
Ġoan d
Ġ2 3
ĠDÃºts ke
ĠhÃ»nder t
Ġopd racht
G uon
d a
i gen
i zen
k ken
Ġd Ãª
at ive
Ġh okker
Ġt en
on fer
Ġom he
ĠB r
Ġwi st
ac e
ĠLeeuw ar
b je
g ri
in den
Ġde fin
Ġm on
Ġn Ã»mer
Ġit selde
ten s
Ġse ktor
Ġr Ãª
Ġme in
Ġle ger
Ġel ts
rÃ» te
ĠwÃªr troch
Ġap p
ĠAn ne
Ġbelang ryk
Ġwet en
k un
r yd
v el
Ġw aren
Ġm ag
Ġh ant
Ġl et
ru t
ĠdÃªr troch
rij d
Ġprovinsje s
Ã« n
sl ach
Ġbyl den
Ġwin st
Ġmeld ing
Ġtwe intich
Fer line
Ġwanne ar
jins teande
Ġrad io
V oor
o ut
Ġde a
at ion
Ġst jer
Ġz al
stra asje
Ġbo sk
ĠlÃ¢n bou
ĠÃºte ins
Ġpak te
wedstri den
Ġtwe e
Ġgri en
r ale
Ġh istoar
Ġp aad
li e
ie f
ra al
Ġst raf
Ġsp e
sp ro
ĠAn d
Ġtoer isten
Ġnie uwe
ĠEurope eske
Ġboe te
antÃª ne
m ier
Ġt yd
Ġt ran
ol o
Ġbe we
Ġl ast
Ġge k
ts jinsteande
im me
Ġbr inge
be hear
Ġsl etten
inn er
Ġze ggen
ĠSch outen
Ġrjocht ing
Ġried s
ck do
ĠlÃ» d
por ters
K S
m Ã»n
o ne
Ġk Ã¢nsen
Ġfoar by
ĠK ramer
Ġ2 7
ir k
Ġkl ap
Ġhim sels
DÃªr by
ĠwÃªr by
ĠAn t
Ġposit ive
Ġprod uk
Ġomhe ech
C ambuur
b urg
m ak
Ġh er
Ġt oen
ri aal
Ġmei dwaan
ĠL em
oed sel
Ġli j
eid ing
Ġmin Ãºt
Ġkun t
uor ren
Ġorganis earre
ĠSk ier
Ġrei s
Ġpak ken
Ġpleat s
Ġkontr Ã´le
Ġand ers
5 0
D ie
e am
ij f
Ġwe g
ĠH aan
Ġli ed
ĠR ot
war te
Ġsom s
Ġfersp ried
Ġdefin it
ckdo wn
S k
l Ãª
Ġ Yn
en en
Ġs en
ei zoen
ri den
Ġop set
ĠF C
ĠP r
ul len
Ġgru tsk
ĠE r
Ġbeg ryp
Ġel tsenien
Om rop
Ġfam ke
Ġbesmett ings
Ġfle cht
Ġferst oarn
Ġreaksje s
Ġcamp ing
c ke
g re
k n
Ã ¶
Ġs le
at i
ur t
ol f
ad skip
Ġoer winning
ma akt
ap en
Ġr yd
ĠR e
Ġgro epen
ly mp
DÃªrnei st
eil annen
Ġmoo i
Ġferwachte t
Ġspann end
ĠPro v
Ġienn ige
Ġskied nis
b Ã¢n
b uro
h ink
v a
Ġ art
Ġb Ãªst
ur n
Ġst iene
Ġj on
ĠW K
ĠW ar
ĠG ri
Ġle kker
ĠÃ»nder diel
ĠE urop
ĠO n
joer n
ĠGrins lÃ¢n
ĠFly lÃ¢n
Ġfest ival
c a
f jild
j itten
er p
Ġm ate
at te
Ġh uis
jo ne
Ġal tern
Ġwe ek
ĠM useum
jouw e
ĠR yk
ul d
wur ker
Ġsoar te
Ġze ker
Ġfl ink
Ġsyk je
ĠDÃºts ers
Ġpleat st
wÃª z
Ġt rek
Ġt ank
Ġe ens
Ġv irus
Ġnei st
ĠD am
Ġmin istearje
ĠwÃª rom
Ġbel ied
Ġkw ets
ĠJo uwer
isch e
byl d
Ġnammen tlik
Ġterm yn
ivers iteit
Ġ at
Ġte ste
as ters
ur ing
Ġbe etje
ĠF er
Ġoer li
Ġhe ale
Ġkear en
Ġpas s
Ġynf loed
Ġpolit yk
Ġmot or
jek ten
d els
j aan
k ri
Ġe chte
Ġop tre
ur k
cht kar
is me
Ġno ait
ĠT al
Ġhaw wen
ĠC olle
be an
Ġbo adskip
Ġsitu atie
ĠBo ys
Ġlo ckdown
Fier der
Ġoef en
Ġcoronapas jinten
Ġhant haven
te am
Ġh ann
Ġg aten
al iÃ«
Ġoan hÃ¢lden
Ġmo ei
Ġfer let
id int
Ġre in
ich ter
Ġsp oar
Ġle ven
ĠP aul
Ġhoe folle
Ġsi ik
koar ten
Ġoprop pen
Ġsel eksje
fear t
voor beeld
B en
j us
Ġf Ãªste
Ġb ak
Ġn ommen
Ġfer digen
ĠH er
ĠJ ac
ĠV eer
ĠR ob
Ġear dere
be stjoer
Ġta gelyk
Ġtre in
Ġfal le
ĠDÃºts lÃ¢n
Ġku ier
chtkar spelen
a ien
a ut
u o
Ġg ar
ro om
ra ke
Ġfer iening
Ġ2 8
Ġsi cht
DÃªr troch
stel lingen
bo ok
Ġef fe
wer p
ĠAl vestÃªdetocht
Ġkar antÃªne
tse ach
organis aasjes
v al
et ting
Ġn ivo
Ġop en
ol en
ste at
Ġsl ot
Ġsi zzen
Ġne g
Ġgro ot
Ġaf stand
Ġ6 0
Ġfle an
Ġreg ion
Ġwurd fierder
Ġstad ion
Ġferd w
Ġkoste t
ĠPie ter
ace book
mÃ»n tseach
t a
z elf
Ġ ele
Ġs er
Ġw itten
Ġo u
Ġoan holden
Ġge ven
Ġwe in
Ġre a
ag ue
Ġkl ok
oen en
Ġke er
uk ses
Ġged aan
Ġpr aten
okk ich
Ġmid dei
Ġskip pen
ĠsÃ»n ens
ĠÃ© Ã©n
V V
d Ã»
f ak
der ing
Ġder op
Ġoan lieding
ad ium
Ġien e
Ġtsjin st
Ġstik ken
ĠFries e
ĠWaad eilannen
Ġlok ale
hann ele
Ġkamp ioen
Ġferantwurd lik
J o
v an
Ġ ant
Ġde putearre
Ġb ru
at ten
Ġn jonken
Ġg oal
le ine
Ġbe teken
Ġl and
ĠS w
Ġsp rake
Ġli et
ĠG ord
stra f
Ġfol gje
jer k
Ġbliuw en
Ġtel Ã¢ne
Ge woan
p els
t wurd
u inen
z ing
Ġt ent
Ġen t
ge ven
Ġbe am
Ġwer ken
ĠN oord
os ysje
Ġbet iid
ĠMar ren
wei s
Ġleaf st
onfer insje
l end
Ġs ukses
Ġk amer
is e
Ġmo a
ĠB oals
gel d
ĠL el
ĠP iet
oek sen
Ġben aud
Ġmooglik heden
kel ijk
ĠGro u
Ġstre ek
B er
W a
b eid
r ass
w et
Ġf eit
Ġw ed
Ġm erk
ei j
Ġg ere
Ġyn veste
ĠH a
un ning
Ġdo et
tel d
Ġhoe ge
Ġbij voorbeeld
Ġwa ter
Ġkr Ãªft
Ġsok s
ja x
N jonken
p ij
q u
u le
u ke
u ze
Ġd rie
Ġte k
Ġfer ler
us je
ĠB rok
es s
ĠM art
ĠR yks
ann ing
Ġfol get
Ġfol gjen
Ġmoog like
Ġap par
Ġbesmett ing
Ġakt yf
Ġble ss
Ġfiel t
ĠVV D
ĠskÃ» tsje
Ġspit ich
5 00
Z o
b oer
e es
h er
o it
u otbal
Ġ am
Ġd rÃ»
Ġl oft
jo ers
Ġfer lear
ĠF re
Ġz oals
Ġre gear
ĠT he
Ġhear t
Ġspesj aal
dra ge
Ġenerzj y
lann ers
ĠSkier mÃ»ntseach
6 6
Ġm ins
Ġb re
Ġb oeken
on de
Ġfoar komme
Ġal ve
ts jinne
ĠF acebook
ĠS ur
im ming
Ġz orgen
ĠA chtkarspelen
ĠN ie
ĠK ollum
ĠP ost
ĠC ar
Ġne men
Ġfol g
rek ke
Ġmis schien
Fan we
ĠWaad hoeke
Ġpersoan en
Ġ8 0
b ert
en L
in ister
Ġt olve
le g
Ġfoar dat
Ġoan belang
oe gen
ĠL a
ĠN K
Ġsp yl
sje el
Ġti den
be ste
Ġoant roffen
Ġver wacht
Ġtri tich
uor re
Ġlan lik
Ġpar sek
H ij
h Ãºs
l ag
p o
re cht
ge fallen
Ġv oetbal
Ġoan wÃªz
Ġoer al
Ġc o
Ġmoat ten
ik ke
ĠD O
Ġwaar m
Ġsike hÃ»zen
Ġfreed tejÃ»n
Ġlok aasjes
Ġwacht sje
Ġmocht en
Ġbepaal de
Ġvers ch
ĠmÃ»lkap ke
Ġlest ich
Ġferler n
M et
h ren
p le
u kt
u eel
Ġ jouwe
Ġin keld
re gels
Ġbe gel
Ġv inden
Ġoan jÃ»n
ĠW ie
Ġsp ons
ĠK ro
Ġ2 6
oor n
Ġhoe cht
Ġne amt
uer e
Om dat
ĠIn gel
Ġkoar te
ĠfÃ» gel
Ġevenem int
Gewoan wei
Ġparsek onferinsje
d yk
n el
u ch
v ers
ar s
Ġs h
ed if
ne ma
ol len
Ġoan f
ĠF or
aan ske
ik a
Ġ2 9
ĠP l
oer e
fer li
Ġel tse
Ġ3 1
oo i
Ġan der
Ġtsjer ken
Ġswier e
Ġferk ocht
Ġble au
Ġyntern asjonale
ĠÃ¢ldere in
ĠLeeuwar den
ĠEurop a
b in
h an
l yn
l oop
v eld
Ġb uiten
at uur
el t
Ġe ach
ol k
ear de
ĠÃ»n w
ĠH el
Ġc l
ĠW est
ĠW olve
Ġtroch s
Ġli st
Ġkon k
diel d
iid s
Ġstel t
Ġoanp ak
Ġru im
Ġkontr akt
Ã¼ hren
ĠVeer man
Ġoanbelang et
g ra
an ken
Ġf r
Ġh earren
ch ter
Ġk afee
Ġg raag
Ġbe stri
Ġha ven
ĠB akker
Ġr y
ĠR en
man s
Ġkont ro
Ġgewoan wei
Ġron de
Ġmaksim aal
ĠBoals ert
S els
S port
g ar
p ak
Ġ ch
Ġf racht
Ġs im
Ġn oar
yn t
Ġt roffen
ri d
it ter
Ġmo asje
ĠH of
gel open
Ġr in
ĠM ul
Ġpro ef
Ġbes li
ĠZ oe
diel e
wer k
Ġdoel punt
endal iks
Ġheb t
Ġstr ang
iÃ« n
Ġbesk erm
Ġbeste an
Ġrop t
Ben ammen
S te
p unten
te in
ro uw
Ġte koart
as ke
Ã»n en
Ġbe ter
Ġsk jin
ĠW iersma
ĠN O
kt yf
ĠE ast
ep er
Ġkult urele
Ġswim bad
mid del
Ġfjoer wurk
Ġferwacht ing
fÃ» gels
ĠwrÃ¢ldbek er
ĠLem mer
ĠGord yk
b id
g ings
m oed
z el
Ġm aan
Ġo ers
Ġh ienen
Ġop sje
ing t
Ġge s
Ġse ch
we ach
ĠW er
ĠW etter
ik er
ĠK ening
Ġbes ch
Ã»s j
Ġver d
Ġke ats
Al l
ĠI epen
eg jen
ond s
ic o
Ġter rein
Ġferoar e
Ġsup porters
ĠLe ague
Ġbew ust
J a
b os
l ers
Ġh Ã¢ld
Ġk ro
or te
Ġek s
ĠS l
we in
ĠA jax
ĠC O
ber g
ĠO ran
au ffe
ult ing
Ġtest s
Ġstel d
Ġpar kear
Ġmel de
Ġevenem inten
ĠFe an
roe gen
Ġcoronabesmet tingen
ĠEaster wÃ¢lde
Ġser ie
e gen
j il
k ie
n aam
o ot
Ãº zje
ĠF a
ĠH ans
Ġre d
ĠÃ»nder fin
ong er
Ġhel pt
Ġferb etter
Ġreed ryd
Ġmaat skip
ĠColle ge
M ensen
f Ã¢ld
g d
l annen
m useum
Ġs ysteem
Ġp ap
Ġwol kom
ĠÃ»n ts
ĠH am
ĠM SC
Ġear edif
og lik
Ġri t
ry pt
Ġ201 7
Ġtaf ersjoch
ĠFly ers
ĠWolve gea
D OD
f raksje
u id
v ol
w at
Ġd ri
Ġde b
Ġyn ienen
Ġl annen
Ġal len
Ġst u
ad den
Ġkon s
Ġkon st
Ġdoch ter
Ġfuort endaliks
use a
Ġeven t
Ġ7 0
Ġadv ok
hu izen
Ġpracht ich
Ġent Ã»sj
Ġwed st
DOD K
f l
Ġm ist
Ġk of
je fte
al s
Ġop sk
li er
Ġv rij
ĠB l
ĠW ester
Ġli d
ut ing
Ġle ge
aal d
ĠC it
stra at
Ġbed rach
ab ryk
Ġrek Ã´r
Ġoars aak
ĠJo ad
Ġbop p
Ġtel oar
Ġslachtof fers
Ġbef rij
ĠteÃ¤ ter
ĠKan ade
Ġoptre den
f orm
Ġ ast
in de
end s
Ġf isk
Ġb Ã»
ro ep
Ġbe zig
Ġz ullen
op pen
ich oan
ĠA Z
es k
ĠR ied
ĠT sj
Ġsl ute
Ġgro ei
diel en
kl asse
Ġgewoan e
Ġsyk jen
Alle s
ĠBel g
stik ke
Ġslag get
K rekt
f le
l ysje
t usken
Ġb Ã»n
Ġb ard
Ġn oard
Ġg iene
Ġst asjon
me ter
Ġsk rast
Ġts jÃ»
ĠC or
ver en
ling e
Ġaut om
lij n
Ġsch ool
Ġsyk te
Ġtrain ing
Ġmeld ingen
isj ele
Ġma akt
Ġhing et
ĠSy brand
hink lik
ĠOran je
P ro
b log
o eld
u c
en stra
re en
ke m
am a
Ġder fan
Ġfer fol
Ġst yp
ĠÃºt w
Ġc on
Ġoar der
ĠD rin
ort tra
wur ke
Ġke azen
gem asters
Ġho tel
Ġfols leine
Ġsuper merk
ĠBro uwer
Ġgere geld
Ġry dt
O ft
f yts
o ten
Ġd jip
of lik
ar te
Ġs iket
Ġm usea
Ġk ennis
Ġg ast
Ġfan t
Ġe xt
Ġp aar
Ã´ ge
Ġz iet
ĠL and
ĠA ris
ĠdÃªr yn
ĠW il
ik op
ĠN e
ĠT uinen
ig je
em and
Ġne amd
Ġfre onen
Ġver der
ĠÃ»nders ocht
Ġ19 9
leat s
Ġsn ap
Ġdrok te
Ġske at
Ġduor je
Ġfinan sjeel
ĠJoh n
sy ch
ĠPr ins
Ġbeteken t
1 0
B eide
g ien
l ang
al d
al je
Ġyn stÃ¢n
Ġe agen
Ġop er
on ker
ij den
Ġoan fal
Ġfer nim
il t
Ġby drage
Ġse k
Ġli ch
ĠM an
Ġter jochte
Ġwicht ige
ĠhÃºs dokter
isje el
Ġcont act
Ġdefinit yf
enL inks
3 5
B e
M yn
a z
g ie
k w
te it
ar a
Ġyn gong
Ġbe ammen
Ġv oel
ĠS KS
Ġoer lÃªst
Ġwe ken
Ġli bb
ĠM in
men t
Ġvoor al
jocht en
Ġpart oer
Ġ3 5
Ġpre mier
Ġstr Ã¢n
Ġgear komste
pro gramma
Ġoff isjele
Ġfern iel
kun digen
S B
S ch
b us
m eld
o te
r eide
Ġf it
et al
Ġe a
ol der
ak k
Ġmei d
Ġst uk
Ġj a
Ġkom st
Ġsa fier
Ġsp elen
Ġle ef
ĠÃ»nder hÃ¢ld
ĠÃ»nder dÃ»
DÃªr foar
Ġbed rij
Ġbest joers
Ġmooglik heid
Ġkomm issaris
Ġsike huzen
Ġheech ste
fre den
ĠrÃªst ich
An ne
ĠKl aas
Ġhart stikke
Ġtent oan
ĠoanwÃªz ich
k te
s u
s sen
y en
z jen
Ġs c
el je
Ġk ran
Ġk ening
st ien
al if
li zze
ij en
Ġoan sp
Ġoan fre
Ġge bouwen
ĠÃ»n bek
op ro
ĠM Ã¼hren
ĠP ier
Ġdi rekt
Ġsl Ãºt
Ġsl uten
Ġbeg ri
Ġfol ge
Ġplak je
Ġzo veel
rok ken
mei tsje
Ġko st
Ġdre ge
Ġgel yk
Ġferskil lende
Ġele kt
Ġearedif yzje
M inister
a ap
j iers
Ġ &
er de
Ġm Ãªd
Ġyn wenner
Ġe m
Ġp ast
Ġp od
is se
jin t
ĠB alk
ĠR oel
ĠE n
se in
fe st
Ġfol dwaan
Ġein ige
Nei st
Ġpo adium
geb ieten
ĠSp elen
Ġfal len
tsjin sten
wetter steat
Ġdisk usje
Ġstoar m
F ers
H earrenfean
O ok
c ast
f insje
i us
r ingen
s ters
ar io
Ġk ocht
Ġyn komsten
li kens
ter dam
or p
Ġfer rass
ien ings
Ġsa wol
Ġdo s
Ġhar d
Ġle eft
Ġniet s
ĠE K
ĠO er
Ġver h
yts jerk
Ġgeb ieten
ub ile
ĠlÃ¢n s
Ġaf gelopen
ĠbÃ»ten lÃ¢n
br Ãªge
Ġpersoan lik
Ġhear d
Ġkamp ioenskip
Ġmel den
Ġopn aam
tal len
Ġnie uw
Ġops m
oep jes
ubile um
S V
e uw
f yzje
g rÃ»n
o ur
p an
t end
t je
v ing
w ink
Ġm en
Ġm uo
Ġh ou
ch e
Ġg eld
re au
li eder
Ġl og
un a
ma cht
Ġbes iket
int rum
Ġsneon temiddei
Ġfe e
ĠNoar den
Ġfak sin
Ġpri ma
Ġjil de
Ġoff isjeel
co ach
ĠJac ob
ĠDO K
ĠFa ber
ikop ter
S joch
n jonken
s h
w ers
Ġf rije
Ġi emand
Ġb ang
Ġh al
Ġt ag
ro u
ri st
Ġp sych
Ġop t
Ġop fang
li chte
ak s
Ġder by
Ġoan sl
Ġfer ne
Ġno oit
ear ika
Ġj ubileum
ĠÃºt braak
Ġre ek
Ġhe m
ĠN oor
ĠK u
ven t
Ġste at
Ġbed oeld
wurk je
ĠÃºts lach
ĠbrÃ» ken
Ġreg uli
Ġkamp anje
ĠjÃ»n s
Ġpolit ike
tre cht
Ġmoo ie
Ġsom tiden
Ġpop ul
Ġdemon straasje
ĠRot terdam
jone el
Ġext ra
H iel
l ings
r assen
Ġ y
en ten
Ġw r
Ġh an
li ch
Ġv ert
Ġge maakt
Ġmo gen
ĠS ander
ĠÃ´f stannen
Ġtroch giet
Ġpro t
jouw ers
Ġkon kl
Ġbo aten
Ġwetter skip
Ġtin ken
Ġplan ten
di rekteur
ha w
Ġho ut
Ġopr Ã»n
Ġstad ichoan
ĠÃ»ntst ien
Ġferspried ing
Ġfant ast
A r
B ij
L an
d y
i ter
o dei
z ingen
Ġd ro
er men
in c
an ts
Ġin tens
is h
jo ert
Ġst rukt
ĠF ort
ĠS iet
Ġse agen
ĠW adden
ĠM e
ĠO lymp
Ġ3 4
Ġgrutte re
Ġgeb ru
Ġbek ende
Ġaksje s
Ġbl yk
fin ale
klup s
Ġsok ke
Ġgeh ad
ĠHe eren
ĠlÃª zen
Ġopp akt
Ġhu zen
stad ion
Ġserie us
c es
d ruk
l jep
s aak
w ijk
Ġd iene
Ġb ur
Ġb ele
yn f
Ġg ele
Ġp at
ie p
Ġst Ãªden
il en
ĠR oe
ĠÃ»nder weis
jer ke
Ġ3 00
Ġfl inke
Ġkan s
Ġra di
Ġwet hÃ¢lders
Ġlear e
ĠU trecht
Ġrap port
apas iteit
Ġoand acht
Ġregion ale
Ġspyl jen
ĠMul der
I s
U s
v o
ar ret
Ġdat um
Ġte m
Ġte folle
Ġbe ker
Ġv ak
Ġv ragen
ĠL DODK
ĠÃ´f dieling
ap p
ik aasje
ĠK on
Ġso enen
ĠO f
Ġall er
ster lÃ¢n
Ġbedriuw s
Ġ201 6
Ġkw art
Ġsnein temiddei
ic k
hel je
Ġblij ft
Ġregel ing
ĠNederland se
Ġ9 0
Ġferk lear
ili e
dag ing
Ġden ken
Ġlive blog
ĠÃ´fsp raken
Sne on
ĠÃºtstjoer ing
Ġekonom y
Ġruim te
N S
b jen
u lear
v irus
te arre
Ġs al
at on
ei s
ei te
Ġg ra
Ġop kn
Ġbe hear
Ġal gem
Ġst room
ad s
ĠB ra
un en
op fang
ant ie
ul jus
oer noai
Ã»nder wiis
Ġfi de
Ġzo dat
Ġkomm un
ind a
bel ied
ĠAr jen
Ġkar bid
inte arre
Ġkle an
Ġbeste ande
Ġdu id
Ġbepaal d
ĠDo uwe
ĠmÃ»lkap kes
ati ven
jil den
ĠJoad ske
A st
T e
W Ãªr
b i
p ri
t ings
w ier
â Ģ
Ġs yl
Ġb ier
ei m
el ing
st aan
Ġt r
ri va
re d
on ne
Ġge sp
Ġwol f
ĠÃºt st
ĠL i
ĠW al
ĠJ or
Ġcoron ap
yl s
be he
fer oar
ĠlÃ¢n skip
Ġkomm isje
Ġgen oeg
Ġwen ne
Ġfle ant
Ġho og
ĠhÃºs hÃ¢ld
Ġhop en
ho ven
Ġbus sen
Ġferg unning
ure el
Ġles sen
Ġtran s
Ġlied ing
Ġmate riaal
Ġfolg jende
p etysje
w aasje
z org
Ġ Ã©n
Ġn asjonale
Ġk apasiteit
Ġte freden
Ġl oop
Ġge eft
Ġsk ot
Ġvan d
ĠM ich
Ġmak ken
Ġri j
mer ken
Ġa bs
ite in
Ġfier e
Ġfertel le
Ġboar gemasters
fan ge
Ġwin nen
aie m
pers oniel
ĠÃºtsp raak
ĠÃºteins et
Ġtyd lik
ĠProv insjale
Ġwitten skip
ĠÃ»nderfin ing
ĠDrin te
l Ã»
m akker
r ant
z o
Ġd joer
Ġs leat
Ġm es
Ġb ren
ch el
Ġt ussen
Ġyn ter
Ġp il
Ġp akt
as ket
or s
uw ers
Ġse ks
Ġz ouden
Ġz iek
Ġas s
op pe
ĠA be
ĠÃ´f wacht
Ġsp its
um er
Ġkri min
sp il
pl an
ĠSch ulting
asjon aal
Ġres erv
ĠÃ»ntst ie
Ġmoarn s
Sne in
Ġdigit aal
stannich heden
Ġhann el
ĠRob ert
ĠMart in
Ġsh orttra
ĠMin istearje
S p
b u
Ġb oud
am mer
Ġsk ilder
Ġwer d
Ġli gt
Ġle in
Ġwi sten
Ġhel let
ver e
fe est
joer d
Ġke eper
Ġiepen e
Ġbo uwen
ade my
wi ke
Ġ201 5
atie s
Ġpre sint
br Ã¢n
Ġskriuw e
plak ken
Ġfiel e
ĠÃ»ntwikkel ing
Ġlast ig
fak Ã¢nsje
Ġappar tem
opro gramma
ĠHeeren veen
b ar
b Ã´ge
k ele
ri ders
Ġp an
li st
ne mers
ie ke
or k
or ts
Ġl ucht
Ġst ip
us ma
ĠS ij
Ġz etten
Ġpro ses
and id
Ġdi fyzje
Ġne eds
stel len
Ġbel i
Ġfier en
Ġmil je
Ġferp lichte
ĠGe ert
Ġhol pen
Ġges icht
kem ase
1 8
T rije
g o
h ou
i is
k jen
n ame
Ġk ust
st it
ak ten
Ġbe hanneling
Ġv raag
Ġc ar
Ġtroch dat
ĠM a
ert ier
ek ken
Ġdi cht
Ġbr ingt
be wiis
Ġei lannen
Ġver b
fal t
Ġth Ãº
iv id
Ġrek re
Ġbij z
Ġtra inen
Ġkw am
Ġfyts en
Ġkomp le
Ġ15 0
ĠAm earika
Ġsm yt
Ġwacht sjen
Ġpres intearre
Ġkli maat
Ġkli Ã¯n
Ġiepenbier e
Ġhistoar yske
kri ten
Ġversch il
Ġkonk ur
All innich
Ġkro ech
Ġreguli ere
odei boek
A C
D C
F reed
L etter
W oansdei
s ra
s oarch
en te
Ġk we
Ġt on
Ġop f
cht en
Ġbe hannele
Ġom kriten
oe pel
ĠF l
ĠB ou
Ġli l
Ġvan uit
ĠT er
ber n
Ġbeg rut
Ġbeg rypt
ab el
Foar sitter
ust r
gear komste
Ġadv is
Ġstap pen
Ġgri f
Ġkeunst ner
hal ve
Mo andei
ĠÃ´fsk ied
Ġbewe ging
Ġrea gear
Ġbesli ss
ĠJohn ny
Ġradi oprogramma
asket bal
G jin
H e
O n
b ele
b rutsen
d s
o od
v insje
er oen
Ġw ier
ri g
it ie
Ġoan jefte
Ġge sk
us s
Ġse ker
Ġz om
ĠL enstra
ĠK ar
Yn tusken
meen te
mer e
Ġtsjin stann
Ġste e
Ġfre on
Ġprov insjale
ĠAl d
Ġfert rouwen
ĠGG Z
Ġtiisdei tejÃ»n
Ġtoer noai
Ġtoer isme
Ġkil o
ĠGro ot
Ġoanp ast
Ġferk ie
Ġgez ien
Ġdu el
Ġferli es
ĠskÃ» tsjes
Ġrestaur ant
Ġeer st
Ġten ei
ĠDam wÃ¢ld
Ġeffe kt
Ġmoa iste
Ġam ate
1 5
F ries
a der
b en
g ed
k an
Ġd riuw
Ġd ragen
Ġb oel
st asjon
Ġfan Ãºt
Ġt oan
ri min
Ġp Ã¢n
re arre
Ġv eilig
ra te
Ġoan b
Ġno ed
Ġj im
Ġz ij
rys ke
ĠH yl
ron d
ĠM ei
Ġbes joen
ĠP at
ul p
ek s
Ġmin st
ink ing
fer bod
Ġbed arre
uur t
Ġfu ot
Ġbet ingst
Ġfin zen
Ġall ro
Ġcorona virus
Ġter ras
Ġspil er
Ġbesk er
Ġkomp ens
Ġgev al
Ġregel e
all on
ĠGraaf schap
Ear st
Ġyntern et
Ġgefaar lik
ĠAk k
Ġresult aat
Ġresult aten
Ġlea ver
olo och
Ġmoei lijk
ĠIepen bier
g ende
i isdei
l inen
m inten
p ke
v ert
z aam
Ġd rin
of f
Ġh aar
re ca
Ġop ge
Ġal der
ok s
ok ken
ĠA nema
lik s
ĠW ark
Ġhar sels
ĠK n
ĠK ok
ĠV l
bb el
Ġkl am
Ġman nen
em ke
ĠNeder lanners
ac k
Ġ19 8
ĠMar k
Ġwoansdei tejÃ»n
mid dels
Ġbehe ind
Ġbehe ining
Ġar beid
wÃ¢l den
Ġple k
sjin st
aut o
Ġbopp edat
Ġintens ive
H ol
m at
w rÃ¢ld
an ge
Ġs Ãºd
Ġb roer
el ijke
Ġin kel
Ġyn te
Ġyn hÃ¢ld
Ã» gel
ak et
Ġfoar ige
Ġder yn
Ġfer bod
Ġst op
ze m
ĠÃºt n
ĠH et
Ġas yls
ens ch
Ġr jochte
ĠE ar
fer b
eili ch
Ġmis se
pl oech
ĠWaad see
Ġgefol ch
omm els
Ã¤ lysje
ĠEl s
Ġhjoed dei
ĠÃºtfier d
Ġpromo asje
Ġfyf tjin
Ġpap ier
Ġadvok aat
Ġdos inten
wink el
Ġalgem ien
N och
T O
f Ã»ns
k ocht
p stra
s ed
Ġh Ã»n
Ġn oflik
ri ts
ri sten
ne gt
Ġl ab
im e
ĠÃ»n d
ĠB art
ĠA mer
Ġsk reau
ant um
ĠM eer
Ġpro cent
ĠR oo
ek ten
og ge
ve st
Ġman ager
ite s
Ġfier sten
icht ich
Ġfl ak
Ġtra ine
pl aat
ret aris
Ġwen te
ĠSte ate
Ġbetsjut te
hol t
Ġhol d
dok ters
Ġferwacht sje
fÃ¢ld ich
Ġtentoan stelling
O ars
b ro
b oarch
i an
n acht
u ts
y pe
Ġf arre
Ġm ass
Ġb ieden
Ġg at
Ġg ers
al es
ur f
am ers
der heid
ĠW rÃ¢ld
ant w
tel ling
Ġtw iv
ber en
ĠO oster
Ġfol d
Ġfertel de
Ġboar ger
ĠwÃªr nei
Ġfrij heid
atie f
Ġfyts ers
Ġtsjer ket
Ġduor sum
Ġferp licht
Ġfeili gens
Ġhelp tsjinsten
ĠKN SB
Ġgev oel
tra iner
Ġgebe urt
Ġkryst dagen
Ġfun ksje
ĠWetter skip
ĠentÃ»sj ast
Fers lachjouwer
ĠAkk rum
I S
T oen
T iisdei
d oar
g um
p re
p aad
r jochte
Ã ³
Ġd om
Ġf ru
Ġw inne
Ġw Ã¢l
Ġm ait
je m
oar te
oar loch
le x
Ġdat st
ed ers
Ġfoar byld
Ġom rop
me e
ĠP oepjes
ĠT j
ĠC ent
fe e
Ġwurk nimmers
Ġbel le
ĠwÃªr yn
Frys ke
Ġris ico
ĠAr no
Ġdra ai
Ġpetear en
Ġsinne pan
Ġgebe uren
ĠVeen stra
Ġjust ysje
Ġkamer a
ĠLel y
ĠEast stellingwerf
Lan lik
Ġduid elijk
Ġbegrut ting
F ersk
I eder
N e
f is
in kt
Ġk oenen
al ling
ri der
ing sten
ol ke
ak ken
on nen
Ġnet tsjinsteande
Ġfer m
me ester
ĠB oo
Ġre e
ĠL ang
ich heid
Ġsk ou
ĠW ijn
ĠM el
ĠG al
ĠG rutte
Ġwi te
Ġbet tere
bo at
bo sk
anne s
foar m
lein huis
Ġboar gers
kl aas
Ġko Ã¤lysje
Ġmoandei temoarn
lit ten
ĠU n
Ġmuz ik
Di rekteur
ĠGe a
gev ens
lok aasje
ui ter
Ġfersoar gings
Ġpromo v
Ġdigit ale
ĠAp pels
Ġproduk ten
ĠOn der
ĠCit y
antum adiel
1 4
b are
r inne
t o
z ers
Ġ amt
Ġ antwurd
Ġs oort
Ġk lein
al isten
Ġyn sk
ri de
Ġop h
ke a
or den
Ġv aak
Ġge geven
Ġre alis
Ġpl aat
Ġsp rekken
Ġli bje
ĠM id
Ġpro jekten
ĠG ent
Ġle er
ĠP op
sp or
ĠE k
Ġgjin ien
rom te
Ġaan ge
yts e
fal le
Ġeigen ers
uer y
Ġbo aiem
Ġorganis earje
Ġbinnen stÃªd
ĠwÃªr Ã»nder
uk k
ĠHar ry
Ġgr ins
hel ikopter
Ġfle ane
Ġferp leat
opp ert
Ġteam s
Ġheal wei
Ġ25 0
ĠRo uwe
Ġeksp lo
Ġmaklik er
Ġklasse mint
ĠFran k
Ġskoar e
ĠOp sterlÃ¢n
ĠBerg sma
oedsel bank
Ġabs ol
Ġneeds aak
ĠWark um
F ide
b et
e ep
l of
o aten
p r
Ġf ijn
Ġb and
Ġh urde
Ġk er
al ige
Ġt urn
Ġyn koarten
Ġp ake
ne s
Ġom set
Ġom stannichheden
Ġoan lis
Ġfer ge
Ġno cht
Ġc omp
Ġpl oegen
ĠÃ´f rin
ĠW W
ĠW ommels
ir t
ĠE x
ĠO r
yl st
DÃªr njonken
ĠI C
Ġbl oed
Ġferoar et
Ġtsien tallen
Ġonder zoek
ho cke
ĠlÃ» kt
Net tsjinsteande
stre am
ĠHo og
Ġstjoer d
Ġlaat ste
ĠSm it
lÃª s
1 3
E in
G oed
K omm
S om
i lit
j aal
p raat
s eizoen
Ġw inn
Ġb iste
Ġe dysje
Ġop lieding
ers ma
Ġfoar diel
Ġl aket
Ġmo e
ts ing
Ġoer brocht
Ġkom bin
ĠÃ»n tste
ĠH all
Ġsp rint
Ġr amt
ĠK en
Ġkri get
ĠJ ap
ĠP eter
wur de
Ġkw alif
Ġmoandei tejÃ»n
geb ou
bedriuw en
Ġdoarps hÃ»s
ĠEurope esk
Ġdok ter
Ġhyn ders
Ġlij kt
Ġcl ub
ĠHof stra
Ġnoard like
ĠtsjÃ» gen
Ġlich em
su me
Ġprot ok
Ġallro und
Ġinkel de
ĠAmer ik
Fide odeiboek
T ak
b oeken
d ien
l om
m ann
Ġ uur
ar ring
Ġs Ã¢l
Ġs joern
Ġm inne
Ġb ro
Ġb rie
st ing
Ãª de
ter en
ie w
Ġbe wenner
ra g
Ã¢l den
ĠA d
Ġmoat st
ĠW in
Ġr amp
Ġli ggen
Ġpro test
Ġ2 000
Ġmear derheid
ĠV ol
ang st
ĠP ort
ber ens
rij den
Ġfu orts
nim m
Ġbo ven
jon ele
ĠSt ien
Ġtongersdei tejÃ»n
Ġferoar diele
Ġduor re
isk ien
Ġopr jochte
res oar
Ġsj uery
Of rÃ»ne
Ġtar ieding
Mo oglik
ijl stra
Ġtast ien
Ġgreide fÃ»gels
ĠrÃª de
Ġtek st
Ġco ach
Ġblyk t
itein delijk
E ins
H ast
K in
M iskien
c ket
i tel
k end
p licht
Ġ et
ar ts
Ġs warte
Ġde ade
Ġg ing
ro an
ri ft
Ġp etysje
ing sp
on ers
Ġfoar Ãºt
Ġfoar stelling
Ġv ier
Ġoan bean
ĠF ro
den t
ze gd
ĠÃºt daging
ru ts
Ġre ade
ma te
Ġpl at
ron ryp
kt oaren
ĠV elde
aal ks
Ġkl aar
insje s
Ġ3 6
uor bal
Ġtra uma
Ġ4 5
Ġgen er
Ġfam kes
Ġsoarch yn
Ġbasis skoalle
Ġpolit ie
onder land
Ġoploss ingen
Ġru st
ĠBel ang
Ġferg oed
Ġgeweld ich
Ġynd ruk
Ġkeap je
tiid s
Ġzie ken
Ãªf ten
Ġkof je
Ġsinnepan ielen
N V
P as
d in
d uk
f goed
l d
m insken
n st
o ver
r ar
s merk
u ken
Ġf av
Ġi uw
Ġw ap
Ġh alen
Ġop hÃ¢lde
li z
ing er
it t
Ġmei makke
De putearre
Ġom gean
Ġl open
Ġst Ãºd
ĠF ris
ĠH end
ĠH iem
gel ing
ĠW im
Ġsp el
Ġr Ãªden
ĠD antumadiel
ĠG o
ĠJ eroen
Ġso ci
sp l
ig et
Ġorganis earjen
Ġboar d
fier d
Ġmis hanneling
ĠÃºts teld
Ġdaar om
Ġpo st
Fan sels
Ġmed e
Ġferoar je
Ġkontakt Ã»ndersyk
pro ble
Ġwenn ingen
ans earre
Ġsli ep
skoal len
Ġspor ten
ĠJoh an
Ġfraksje foarsitter
lever ing
Ġmer ke
ĠtÃ»zen en
Ġmein aam
Ġsen ario
Ġwedst rijd
Ġfernim t
ĠOlymp yske
Ġmait iid
Fersk ate
G G
R e
b eld
w el
Ġs ant
Ġb un
Ã» le
Ãº ch
Ġder Ãºt
Ġal wer
Ġfer ieningen
Ġfer bean
Ġno od
Ġst ab
ĠF ok
ins ma
im aal
ĠW Ã¢ld
Ġsp rong
Ġr Ã´
bb y
Ġfers lachjouwer
DÃªr yn
Ġ19 7
Ġlyts ere
Ġtre inen
per atuer
Ġferb ining
Ġble aun
Ġferst oar
Ġkonten er
Ġsuper merken
El kenien
Ġpracht ige
Ġju rid
ĠAk ademy
Ġkie ze
Ġsjoch st
ĠrÃª ch
Ġstjer gefallen
Ã¶ r
Ġrein bÃ´ge
ĠRyks wettersteat
gar yp
Ġmaan den
ĠHam stra
ĠBelg iÃ«
Ġbren gen
Ġasyls ikers
ukk ig
L e
T s
W anne
f ine
g end
i oaren
j i
j et
Ã ¡
Ġd ram
Ġde ist
Ġw earde
Ġk or
am ming
Ġfoar en
Ġbe zoek
Ġl ine
ys els
Ġj aren
il l
ĠH uis
ĠL aat
ĠW agen
Ġwer eld
ĠN atuur
ĠJ el
ĠT eam
Ġfers yk
Ġver antw
Ġlang ere
Ġkan ten
ĠAl bert
Ġ19 5
ĠÃ¢l der
Ġboer e
Ġstik je
Ġged icht
Ġwen jen
wiis d
ĠDracht ster
ĠAr riva
Ġtrain ingen
Ġhear de
Ġrap per
ĠGro ene
Ġoardel meter
Ġkn ap
par ken
Ġgez ond
Ġferkear s
Ġont wikkel
wÃª zen
Ġmer ken
Ġferf el
Ġou ders
ĠPost ma
Fanwe ge
ĠNO S
auffe ur
Ġbefrij ing
Ġass ist
ĠÃºtn Ã»
Ġfiersten te
ĠWrÃ¢ld oarloch
Tak om
1 6
D o
K B
M O
W Ãªrom
a zj
i gens
j an
m b
m jit
s ysteem
z c
of d
Ġw inner
Ġm acht
Ġb reed
at ysk
ei en
Ġk west
ri Ãªre
Ġop rom
ak ele
ter p
Ġfoar sjen
Ġom wenners
Ġfer nimme
Ġfer ienings
ad v
ĠB ij
Ġpl atte
ĠÃ´f s
ĠÃ´f hinklik
Ġhe en
ĠK allon
ĠP o
ĠT resoar
Ġdi ken
se al
Ġhim p
be ek
Ġsi te
kom petysje
Ġth e
ĠI sel
Ġfl uch
wi ze
ĠSt enden
Ġbesmet te
Ġboar ne
wer kers
Ġ4 00
Ġko ers
Ġrjocht linen
Ġ202 2
Ġdrok ker
ĠSnits er
Ġgel okkich
Ġskriuw er
Ġrei tsje
Ġidee Ã«n
Ġlo ads
ĠRo y
Ġprod us
Ã¢ne stÃªd
Ġron d
ĠBr and
Ġwein ig
Ber jochten
ĠLa uwers
iÃ«n ten
Ġkonkl Ãºzje
ĠstÃºd zje
H L
T V
b oar
g u
k olle
r Ãªst
u ut
w ijs
z icht
Ġf il
Ġw ins
Ġw ik
Ġb iede
Ġh jit
Ġk ertier
oar t
ri x
as k
ge f
or me
Ġbe per
Ġge zegd
yk jen
Ġse ktoaren
iel e
Ġc are
ĠW ij
Ġdo sint
ĠJ oe
ĠR Ã¢nestÃªd
Ġear tiids
Ġwi id
ĠP artij
Ġti cket
ĠT s
ĠT ytsjerk
Ġste ate
Ġfier ljep
Ġgeb ied
Ġbesl ach
mei wurkers
ĠHar kemase
ĠfÃ»n en
Ġbelang stelling
Ġgu o
Ġpersoan like
ĠAr ends
Ġynt ins
Ġpak ket
Ġkeunst ners
ĠBe ets
Ġleaf de
Ġferkeap je
Ġstek ken
Ġtechn ysk
Ġdok umint
gre et
Sport klup
Ġbedrij f
euw sma
Ġferklear ring
Ġlil k
Ieder een
T sjin
c l
d oor
f aze
w im
Ġw achten
ch er
Ġk aarten
Ġop helle
ol a
om me
am pen
or y
is ier
Ã¢n sjes
ra ging
ra iner
Ġst joert
il s
ĠS ven
ĠS joerd
ĠÃ»n Ã´f
ĠB ar
Ġc olle
ĠM o
Ġme koar
Ġcoron ate
jocht ing
Ġa zc
fer h
Ġbeg in
Ãºt dyk
amp us
Ġprov inc
Ġra ce
Ġ19 6
ug o
iÃ« le
Ġskriuw en
Hoe wol
Ġefter stÃ¢n
av id
Ġoanp akt
Ġiis hocke
ure au
ĠhÃ»nder ten
bli uwe
Ġag inda
ĠdÃª roer
ĠIngel Ã¢n
ĠFean wÃ¢lden
Ġferfol ch
ĠynstÃ¢n sje
Ġferrass ing
3 1
B uma
E C
K e
L yk
T a
b org
f f
g ongers
h oe
h ard
n ommen
w eid
w oud
el den
Ġk urs
Ġte ma
ak el
ter rein
om as
Ġv ast
Ġv ijf
Ġge sch
Ġst ran
ĠF le
ĠB on
ok je
Ġsk uld
ĠM akk
and a
oron a
ĠP al
ĠP SV
ip lom
Ġri cht
Ġfin ish
hÃ¢l dt
ac ker
sl ag
Ġdaar na
Ġdoel man
Ġpr ins
Ġsyk tocht
Ġlok aal
ĠhÃºs dokters
Ġpub li
Un ie
Ã¼ st
ĠwarskÃ´ get
ĠÃ´fsp raak
Ġferrom me
Ġryd bewiis
ĠGri enLinks
Ġkwets bere
ĠHel m
Ġpod cast
ĠKu ip
Ġgra den
Ġgesp rek
behe er
Ġvand aag
risten Unie
GG D
B O
B o
N u
T C
U tein
c el
f lak
g ryp
l aan
o c
t r
v iew
w y
w achter
z h
Ġd al
Ġd ing
Ġd is
Ġd ong
Ġs fear
Ġde el
Ġi mmen
Ġw apen
Ġb anen
Ġh jer
ei ten
Ġk aar
Ġk ast
Ġk andid
yn ke
Ġin ge
Ġen orm
li bben
Ġfoar ich
Ġfer he
Ġfer tsjinne
ĠS ne
ĠS ina
ĠH eiden
ren t
ĠA ustr
Ġsk ansearre
Ġhe ft
ĠW yt
Ġsp oed
ĠD oeksen
ĠM er
ĠM aarten
ĠM olen
Ġpro beren
ĠG ar
ĠJ e
ĠJ elle
ĠR a
Ġwi ist
ĠP ol
ĠÃ»nder nimmer
se pt
Ġfers et
oal le
Ġste d
Ġste uring
stel le
Ġfre ond
amp er
Ġben t
Ġpers pe
ster adiel
ĠZ ee
ĠAl mere
tear jen
Ġpas sen
ĠÃºts Ã»nder
yt st
Ġaf ge
Ġpos ysje
Ġkant ine
stjoer d
are gels
Ġoff isier
maat regels
Ġbi bli
Ġtechn yske
Ġkonteners kip
Ġsu ver
Ġbeh oar
Ġkrit yk
ĠdÃª rop
Ġtrek kers
Ġferdigen er
zelf de
Ġfr jem
Ġbeskerm jen
Ġkran te
ĠÃ»nbek ende
Ġmuo ite
pri is
Ġferge es
ĠIsel mar
Ġwiid weid
ĠHeiden skip
B es
O are
R O
T usken
W ylst
b oud
b asis
f rij
g jir
k oepel
o ade
w yk
z a
Ġs lein
ei gen
Ġk rÃ»
st ichting
Ġyn lever
li et
ak ket
Ġmei wurker
ter fean
Ġl jep
ra an
Ġoan lein
Ġmo ed
Ġfer linge
ĠS ip
ĠÃ»n ge
Ġsa wat
ĠN ije
Ġr yk
ĠD irk
ĠD ronryp
Ġcoron aregels
Ġbes un
ĠP e
ĠP oal
ĠT je
ek retaris
sp ul
be st
fer ieningen
Ġbel je
ĠZ onderland
Ġkont akten
ĠwÃªr fan
Ġnij bou
sl Ãºtdyk
Ġap art
Ġpas jint
Ġtot ale
Ġrom mel
Ġgel eden
ring loop
Ġtocht en
Ġnacht s
Ġsint rale
Ġiens um
Ġfjir tjin
Ġeksp er
Ġsosj aal
gev ing
byl den
ko hol
ĠBre da
Ġtan im
Ġferrom ming
Ġmon umint
Ġtrek ker
ĠTal ma
ĠSur hÃºs
Ġwaarm te
ferli en
ote ek
Ġy mp
ĠOf slÃºtdyk
Ġshorttra ck
Ã¶r din
Utein lik
ĠSurhÃºs terfean
E igen
I D
f Ã»n
f ten
h op
h ouden
j um
n ie
s m
v etal
Ġde is
Ġw ens
yn je
st op
st oel
Ġg l
Ġt ijden
Ġyn fol
Ġyn rjochte
ri c
Ġp ot
Ġop stap
ol aasje
ers tel
ie ve
der ij
Ġbe eld
Ġbe fol
Ġoan kundige
Ġge sel
ĠF Ã»gel
us h
ĠS aken
Ġz waar
gel egen
ĠÃ´f sein
Ġsp ring
ĠD r
ĠK negt
ĠK leinhuis
ijn a
ĠDe finsje
Ġsl uting
Ġa ai
Ġsoar gjen
Ġbet inken
fal lend
Ġiepen ing
Ġze gt
ĠÃ»nders iket
ĠI J
ĠSt ad
ĠIt aliÃ«
Ġstel le
Ġskip per
ĠÃ¢ld jiers
ob ili
Ġynf orm
eer d
Ġnijs gjir
Ġtoe komst
les sen
Ġfern u
stand ig
Ġspann ing
Ġhing jen
ĠCh ristenUnie
Ġinisjatyf nimmers
ĠlÃª ze
ctie f
partij en
ĠBro ek
Ġju ist
Ġrestaur ants
ĠAnt on
Ġneg atyf
Ġsech st
Ġlibb ens
Ġbesliss ing
ĠAppels kea
Ġbrie ven
F jouwer
G el
K l
N A
T ongersdei
d ige
i b
i if
n l
p raak
r ang
Ġ ann
Ġd Ãºd
Ġd ran
ar i
Ġm ilit
Ġb on
Ġb lik
Ġh en
Ġn iks
le as
Ġop fol
Ġop br
ol d
Ġbe hannel
iet s
ĠÃ»n rÃªst
ok a
Ġ1 000
ik ken
Ġr innen
Ġli ter
ĠM on
ĠK oarn
Ġbes jen
ĠR om
tel s
ĠT e
sp ron
Ġ3 2
Ġ3 8
Ġfert ocht
ss ekretaris
per io
ret tjin
Ġdoel punten
uz yk
Ġskip pers
Ġhop e
Ġpe al
ĠNoard see
inte klaas
Ġsel straf
bes ker
lok aasjes
Ġhing je
Ġfersp raat
Ġferli e
Ġpres ys
ern Ã´ch
Ġsicht ber
Ġander halve
ĠWest stellingwerf
yen oord
Ġrekre aasje
ĠTytsjerk steradiel
1 1
B eg
N ee
W et
b rek
b anken
d u
e ven
h em
v aart
Ġm ond
Ġb ried
et Ãºn
ei tsma
Ġg ryp
Ġt rettjin
ro of
Ã» k
Ġp akke
li g
ne ed
De ze
Ġge gevens
ĠF emke
ĠS im
Ġoer d
Ġoer tr
Ġnei dat
we gen
ĠG a
Ġts j
Ġdi rek
ĠC o
Ġvoor komen
ig jen
Ġfol k
Ġfol w
sj itten
Ġfersk aat
Ġlyts er
ĠSch eep
ĠSte vens
Ġgroep s
Ġro t
Ġfuotbal klup
Ġho reca
ĠU N
Ġbetel jen
omm ige
Ġfeilich heid
Ġar g
Ġynd ivid
Ġheger e
rukt uer
ĠWe ste
Ġfyf tich
Ġfys yk
ĠlÃ»d s
Ġaltern atyf
Fanwe gen
Ġbestri den
Ġkonst ate
ĠKanade zen
Ġplatte lÃ¢n
Ġprovinc ie
iplom a
Ġhjer st
4 5
T h
a id
h oud
m ele
n ingen
p p
r atie
v ang
Ġs irk
Ġm Ã»ne
Ġb ijna
at us
Ġn orm
Ġk al
Ġyn tsjinne
Ã» ke
is earre
aar s
Ġoer ien
ĠÃ»n fer
ĠB ert
Ġre spe
Ġpl aats
ĠW TC
ĠN HL
ĠJ aap
Ġear ne
dei s
Ġri eden
ĠO ver
Ġwurk sum
Ġkon den
riuw en
rek Ã´r
ied t
ling a
Ġbet re
ist yske
Ġ3 7
Ġfier dere
ĠÃ»nders yks
Ġfro uljus
uk je
ĠÃ¢l ders
Ġpre c
ĠdÃºdlik heid
ĠwrÃ¢ld kamp
Ġmed alje
Ġfyts e
Ġonder nemers
Ġbep pe
Ġstap t
ĠBo uw
mon um
Ġsint raal
port aazje
Ġkle ine
Ġsinne park
Ġeksp osysje
yste men
ĠVV V
Ġwanne er
komm isje
Ġsle cht
Ġevent uele
Ġautom obili
Ġstyp je
Ġfoldwaan de
Ġgesk ikt
Ġfinzen is
Ġtrauma helikopter
Ġferfel end
D oel
J ong
h and
k Ã´
s r
s ette
v oer
Ã ¨
in ers
Ġs ul
Ġi dent
Ġb io
Ġh oor
Ġt ichter
Ġyn fal
ro ulju
oar ps
ri et
Ġp en
Ġop steld
Ãª sten
am es
ge meen
is ke
is ie
Ġfer fang
Ġst utsen
ĠS ie
Ġwol len
ĠH ugo
ĠL im
ap e
ik te
ĠN AC
ĠN DC
ĠM ed
ĠK ust
Ġbes p
Ġle g
Ġti ps
oer lÃªst
Ġsl oop
Ġfol op
Ġfre egjen
Ġver ander
Ġbet ingsten
Ġbo tsing
ĠZ org
ult urele
Ġuit ge
Ġgen iet
Ġbesl uit
Ġwil de
ss a
Ġkrij gt
lit te
Ġmil j
Ġposit ief
Ġpri zen
Ġkar ak
Ġhurd fyts
Ġhaad klasse
Ġyns idint
Ġzelf s
Ġak koart
Ġun iversiteit
ĠJoh annes
Ġrel atyf
rjocht ing
ĠBru in
Ġekonom yske
Ġeer der
Ġfertsjin je
Ġproduk sje
ĠFre ule
Ġspons or
ĠPrins etÃºn
ĠRoel of
ĠNoor der
ĠkliÃ¯n ten
sed uere
Ġpubli ek
F ia
k r
k ke
k lik
l utsen
w ij
Ġ amper
in es
end am
ar m
Ġf ent
Ġf abryk
Ġf ytst
Ġs earje
el koar
Ġt ur
Ġt ien
ri eden
Ġp yk
or n
Ġl jip
Ġst aazje
ĠF eilich
Ġz onder
ĠL Ã¢n
Ġpl and
ĠW y
Ġli ef
Ġli ede
ĠK rij
ĠK ooi
Ġme te
ĠR ijk
ĠR ein
Ġear lik
Ġkin d
ĠP iter
ĠC up
Ġfers eker
Ġwurk groep
Ġne ame
Ãºt kear
ĠI S
ĠÃ»nt fange
Ġferh ier
Ġfe ang
hel jen
Ġkolle ksje
Ġkomp jÃ»
Ġgev ol
Ġlik ernÃ´ch
Ġdra ait
Ġsm iet
Ġkle ur
ĠEl f
ĠFe yenoord
Ġlever je
ĠZw olle
Ġskoar de
urde garyp
ĠTal sma
ĠdrÃ» ch
Ġkontro lear
Ġkontro learre
Ġfracht wein
Ġmaatskip pij
Ġtag onk
Ġtem peratuer
Ġmilje u
ĠGal ama
bosk behear
Ġleer lingen
ĠÃ»ntste an
Lyk as
Ġstran ge
N O
P re
a ir
f j
m iel
r inn
y g
z oeken
Ġi te
Ġo or
om in
or ld
Ġbe war
ra asje
Ġoan sk
Ġst ar
ĠF in
Ġse al
ĠH oop
gel ju
ron t
ĠW Ã¼st
Ġwat foar
ĠK ing
ĠK omm
ĠP oort
Ġti p
Ġsl aan
Ġa v
Ã»nder t
Ġkan ker
ran ten
wer pen
ult uur
Ġkomm end
ĠMar greet
Ġfam ilie
ĠÃºts tel
Ġsnein temoarn
ĠWaad feriening
Ġfiif de
Ġnatuer gebiet
gro epen
ho w
ĠTw itter
Ġferkear d
ats boskbehear
Ġreed riders
Ġma il
Ġboat sje
ĠHol wert
Ġhyn der
Ġberjocht en
Ġart y
beste ging
ĠFor um
ĠPl oeg
Ġnoar den
Ġferbetter jen
Ġverh aal
Ġnieuw s
Ġappartem inten
Ġbijz onder
Ġdrin ken
Hol lÃ¢n
ĠEls acker
ĠLely lijn
Som s
ĠsÃ¢l t
Wanne ar
amming a
Ġkwest je
Ġguo zzen
Ġcoronate st
ĠKust wacht
D oor
d der
f jilden
k aart
r ings
s ens
u gen
u aasje
Ġd acht
an te
Ġf lein
Ġf lier
at al
re e
ke ken
Ã»n ens
Ġom leech
Ġl utsen
Ġge middel
Ġal kohol
Ġfer dield
ĠB en
ĠB au
Ġpl anning
ap pen
ĠW oud
ik us
ĠN ynke
Ġli cht
ĠD avid
ĠK orte
men ten
Ġwaar in
Ġear e
Ġear m
ĠP el
ĠT O
Ġdi re
Ġri ders
Ġkl ant
enn ie
Ġbel angen
Ġ3 9
ger e
Ġrek ket
Ġ201 2
Ġwil le
br aken
Ġfak bÃ»n
Ġdel set
uten s
Ġopl ost
tern ation
ho ut
Ġacht ste
tsjer ke
Ġferst jer
assen aar
Ġjul lie
Ġsnel heid
Ġfern ij
Ġspor tsk
Ġple stik
ori g
ĠBre euwsma
Ġeas ken
ĠteÃ¤ ters
Ġmiddel bere
spro ken
ĠEr win
Ġjon kje
Ġjon gelju
ĠNie uw
ĠIngel sk
Ġoanf ragen
Ġevent ueel
fle an
ĠÃºtw r
Ġgele gen
ĠKon ink
Ġtsjinstann er
Ġfuot ten
zem ond
ĠÃ»nd Ãºdlik
ĠFrank ryk
Ġsite waasje
fj ilder
F re
H enk
j el
k on
l ei
m is
o sten
r amp
z ien
Ġd on
Ġs Ã»
Ġs ear
Ġde gra
st aasje
ri cht
Ġe x
Ġop merk
Ġop nimme
Ãº sje
Ġbe v
Ġl in
ear ring
ĠS and
ste den
Ġz ei
Ġz oeken
ĠH urdegaryp
Ġre portaazje
ĠL TO
Ġsk rik
Ġsk uorre
ĠN oppert
Ġsp eel
ĠM il
ĠG ron
Ġbes oar
acht ich
ĠR ij
ot te
ĠP ar
ul en
Ġdi eders
Ġaan d
Ġkon f
fer kear
Ġbeg rij
ep t
Ġtal en
eili ge
Ġtra dysje
ju ke
ic e
Ġged rach
Ġwen ten
ass ade
uz anne
Ġtiisdei temoarn
wik sel
Ġpub lis
Ġfinan c
Ġiis baan
Ġbef Ãªst
ĠDo uw
Ġgefaar like
Ġstek ke
rei j
Ġynsp i
Ġprof es
Ġboadskip pen
Ġflean fjild
lag gen
ĠFor ce
Ġsek onden
Ġsc oo
ĠFort una
ĠBou ma
Ġkompens aasje
ĠOnder zoek
Ġkombin aasje
gu od
ĠÃ»nge fear
Ġgemiddel de
2 5
3 8
G er
W etter
a el
p lein
r inner
y ers
z ings
Ġf ris
Ġi erd
Ġw end
Ġm aak
Ġb uro
al ik
Ġt ichte
Ġp older
li uw
am ens
Ġv ri
Ġno as
den ten
ĠS immer
me gen
Ġz in
ĠH eide
ok aal
Ġre cht
Ġre par
ĠJ ou
Ġwaar me
Ġle uke
os se
og er
Ġkl aai
ann y
Ġfol ks
Ġsoar t
Ġpers oon
ĠZ uid
war e
ust ry
Ġfuort helle
Ġrjocht s
ĠOm rin
Ġbl ommen
Ġmed is
Ġbestjoer ders
Ġsport hal
pro jekt
ans ters
lied ingen
ĠlÃ» ke
Ġtwe ede
Ġamb ysje
Ġstim men
Ġopr inne
Ġsam mel
Ġont zet
ĠFe ansters
Ġtas kÃ´
aats bos
Ġeas ke
Ġkrit ysk
ĠProv insje
twurd ich
ĠRen Ã©
ĠCO A
Ġoanfre ge
Ġverschil lende
Ġmoe sten
ĠHiem stra
Ġmede werkers
ĠFok kens
ĠDr yl
Wet hÃ¢lder
ĠIS U
Ġtagonk lik
aatsbos beheer
A R
B oeren
C h
S m
T rainer
a il
d aasje
d ijk
f fer
h art
m oar
m ie
m ok
t ig
z ende
z inga
Ġd iploma
end aalks
ar mers
Ġs ol
at ist
Ġk ringloop
st offen
al le
al vestÃªdetocht
ed te
Ġl ater
Ġv ia
Ġder mei
Ġge test
Ġge gaan
Ġfer le
ten acht
ĠS u
Ġha vens
Ġkom ende
ru st
ĠB uro
we ge
ich ste
Ġsk ermen
ĠW orld
ant wurde
Ġpro te
ĠR us
ĠÃ»nder Ãºt
ĠÃ»nder werp
Ġbr Ãª
ig ingen
Ġfers ter
Ġfers ets
be wenners
Ġta ak
Ġa ct
fer keap
Ġne e
uur d
Ġke amer
Ġgro ter
wurk jen
ĠSt ar
Ġra ak
ĠAl vest
ĠMar sum
jier rich
aa id
Ġgr Ãªf
Ġter rassen
Ġwen nen
Ġgear komsten
ĠsikehÃ»s op
Ġduor sume
Ġstap pe
mar sum
ĠDokkum er
tsjer k
Daar om
bre edte
Ġhaad stÃªd
do ende
Ġfeest je
Ġleech flean
Ġlive stream
ĠGer rit
Ġun yk
rast ruktuer
Ġneed feroar
Ġmaksim um
cent rum
ĠÃºtstjoer d
Ġfoars oarch
regel ing
Ġreiz gers
ĠPaul usma
Ġem os
Ġleeft iid
ĠSiet ske
Ġfleant Ãºch
Ġreagear je
Ġferpleat st
ĠJoe y
Ġbehoar lik
ĠWeste reen
Ġprec ies
Ġmete en
Ġontzet tend
ĠDryl ts
3 2
D O
D Ãª
N ormaal
W aar
Z ij
f uotbal
g aat
g aard
h am
h iem
m ienskip
o og
t Ãºn
w ad
te iten
Ġs us
Ġde ad
Ġw achte
Ġm ent
Ġm olke
Ġb asketbal
Ġh jitte
Ġh Ã»zen
st ige
Ġyn ge
Ġen ige
ri em
or at
ij ken
Ġv ond
Ġge sl
Ġst ude
ts jÃ»
Ġj acht
gen oaten
ĠS lach
Ġnei t
Ġse ine
jin kie
ĠÃºt b
ens ma
Ġc risis
Ġpl eit
ron ken
Ġer v
Ġsp rutsen
Ġoar spron
ĠG elder
ber keap
ĠE mmen
Ġfers lach
ĠO s
Ġber ikken
stel lings
up er
Ġfier t
Ġben e
anne ke
Ġkun de
Ġbekend makke
Ġfert raging
Ã»nt wikkel
een stra
Ġwoansdei temiddei
ĠSte en
Ġsn eld
ĠWaad gebiet
Ġbl a
Ġlear ling
ĠSp anje
Ġkant oar
Ġtongersdei temiddei
Ġferoar ing
ĠhÃºs ke
Ġrei zen
Ġgev aar
av ond
Ġoanp ass
Ġdra aie
Ġwichtich ste
ĠBe ek
Ġswim me
res se
Ġyns ette
Ġinisj ativen
Ġdoarps belang
ĠHe ech
Ġbi of
ĠAmel and
Ġcont a
Ġrop pe
Ġmidden fjilder
ci aal
Ġto il
Ġtast imming
ĠÃºteins ette
Ġneg ative
Ġrea gearre
ĠKro l
Ġtrochs need
Ġsim pel
Ġbur ge
Ġrij den
Ġynter view
ĠsÃºd like
ĠHall um
Ġprotok ol
mate riaal
ĠAustr aliÃ«
ferlien ers
ĠStad ion
ĠtaskÃ´ gers
1 7
8 8
C ast
C amp
F iif
W er
h Ã»ndert
i y
p res
t y
t ille
Ġ yl
te s
Ġd raach
Ġd orp
in ter
in ingen
Ġs jon
Ġs jit
Ġde k
Ġi mp
Ġi erde
Ġb os
Ġh om
Ġh oren
ei jen
Ġn omin
Ġg oud
Ġg ongen
al y
al er
Ġt ap
Ġt aken
oar m
ri z
Ġp ens
re de
li en
Ãª te
ge woan
der t
Ġv ro
Ġal vetal
aar sma
ts p
Ġj ammer
ĠS inteklaas
Ġz oek
Ã´f dieling
ĠA t
Ġsk riezen
ĠW ei
ĠN es
Ġsp rek
sk l
jouw ert
Ġcoron ac
Ġbes ykjen
ut ch
ĠR u
Ġle ine
tel len
ĠDe fen
Ġbr Ã»ns
Ġien fÃ¢ldich
Ġsl oech
Ġa c
Ġsoar ten
ied ers
wurk ing
ent iids
ĠZ ijlstra
ac c
Ġ4 3
ette re
Ġfreed temoarn
ĠfÃ»n s
Ġreg ist
ruk sje
Ġfyts paad
wik keld
Ġpri v
Ġferoar s
Ġstap te
ans ier
Ġpleat sen
ĠlÃ» ken
maat regel
Ġstre ss
Ã¯ ne
Ġspann ende
ĠAlde b
Ġmaat schap
Ġtar et
Ġtar ied
Ġ194 5
Ġkie zen
lann er
Ġfertsjin twurd
Ġfis kers
Ġtyd like
mak kers
Ġvoetbal len
auffe urs
fl agge
Ġelekt ryske
Ġpopul Ãªr
Ġaller h
Ġfide o
Ġkarbid sjitten
spil er
Ġcar av
ĠthÃº spl
Ġeksplo it
Ts ien
ĠBrand sma
ĠTje erd
Ġgesel lich
ush oorn
ĠUN IS
Ġnorm ale
Ġpen alt
ĠDefen ce
ĠthÃºspl oech
K ollum
M C
M ijn
V isser
b rief
i ende
l ant
m as
o of
t ter
w ies
Ġ ren
of ten
Ġb aas
at h
Ġk raan
st jit
Ġg et
Ġg oals
Ġg lÃªs
Ġfan s
Ġe angst
Ġp eil
re gen
on ald
is y
Ã¢n ske
Ġge komen
Ġfer lik
Ġj imme
gen oat
ĠS on
Ġoer tsjÃ»
Ġnei tocht
Ã´ k
Ġz at
Ġz ag
ĠB il
ĠH oo
we inen
ĠÃ´f praat
ĠW ins
Ġsp es
Ġvan af
ĠR em
ĠR eg
aal t
sp artij
ĠE rik
Ġvoor ber
se ktor
yl de
Ġkl inkt
be am
Ġsl Ã»s
Ġei land
Ġver vel
Ġbet inking
Al d
Ġlyk je
foar sjen
Foar al
ĠI F
ĠÃ»nt wik
ĠSt ate
ĠlÃ¢n bo
Ġfuort endaalks
ĠMar rit
Ġnu ver
tear ret
rie z
Ġap arte
Ġpas se
Ġko ade
Ġkrij g
Ġ6 5
Ġfreed smerk
Ġferb Ã»n
hel ling
Ġstel de
Ġstr aks
oon stra
Ġfyts er
ly bal
Ġdiel en
ĠAr n
Ġkar riÃªre
ĠrÃ»n om
ĠwÃ»n en
willi gers
Ġlo c
Ġperio de
Ġstre am
Ġops etten
Fier ders
alis earre
Ġcoronabesmet tings
bouw ing
Ġfoars ichtich
Ġprof ite
olog yske
Ġleger e
Ġbegel ieding
Ġbegri pe
Ġhou dt
Ġsteat ssekretaris
ĠRoe s
Ġkommun ikaasje
Ġloop t
Ġkonkur r
Ġbesker me
ĠLang war
ĠHend rik
Ġbun der
ĠHuis man
Ġwik sel
Ġdal iks
Ġfreond inne
Ġwiidweid ich
Ġbetre ft
ĠFeilich heidsregio
Ġarty sten
Ġaand acht
B S
K C
M is
a e
a us
e ver
f onds
g r
m ny
n ij
o re
o gel
t ige
ar ing
Ġf or
Ġf ra
Ġf ok
Ġs jitte
Ġm as
Ġb anken
at yske
Ġn Ã»
Ġk j
yn s
yn st
st art
Ġg ouden
ke er
ne ke
ne wÃ¢ld
om e
or yt
Ġbe oar
Ġoan meld
Ġfer min
oe s
ĠF ier
il aasje
ad ing
Ġoer stap
Ġwe ach
ĠÃºt komst
ĠÃºt dield
ĠH aad
ĠL o
es sel
Ġsk ul
Ġsk erp
ĠW assenaar
ef el
Ġli eten
ĠD ag
ĠK oop
Ġme asten
ĠR ed
ĠR ie
ĠR ut
ĠR aad
ĠR TV
Ġle ark
ĠP yt
ĠÃ»nder en
ĠC l
ĠO l
Ġoant inken
Ġber ikt
fer bÃ¢n
Ġgemeente hÃ»s
ist yk
Ġgro eit
ĠÃ»nders k
By gelyks
ust ysje
Ġfam yl
Ġticht by
ĠJo uster
Ġdoel en
ĠSte at
geb ied
uz um
ĠSk Ã»
Ġferw Ã»n
bel angen
Ġlear en
Ġmed yske
Ġnatuer gebieten
ĠhÃºs hÃ¢lden
Ġtrain ings
Ġpak ten
mp o
ĠNederland s
ĠBer gen
Ġrekken je
stann ers
Ġ12 0
Ġkop rinner
Ġstim ulear
raag d
Ã»ns coach
Ġspor te
ĠdÃ» beld
roe ven
ori teit
ĠNij megen
ĠwarskÃ´ ging
ersk aat
ĠBru insma
Ġu ter
olog y
Ġflecht lingen
Ġferdw Ã»n
Ġmiddei s
Ġbless earre
boer d
ĠÃ»nw is
Ġmeid ogge
haw wers
Ġgebru iken
Ġopkn apt
ensch ap
ĠRoo zemond
bro ek
Ġamt ners
Ġabsol Ãºt
ĠAmerik aanske
dien st
Ġsjoern alist
Ġassist int
azj iers
Ġkontenerskip pen
Ġgeniet sje
Ġmilj ard
Ġfeang reide
ĠElf steden
Ġgelegen heid
Ġpenalt y
2 1
A L
B ern
b ren
b uor
i der
k le
k Ãªte
m and
o ers
o ts
t like
u ge
u ite
w ijl
Ġ utens
Ġd wers
an us
ar ken
Ġs ig
Ġm iening
Ġh ur
Ġn Ãªst
Ġk ollum
yn a
Ġe mo
Ġv alt
Ġoan kommen
oe m
Ġst of
ĠS e
im eter
Ġwe kker
ĠH il
op lieding
ĠA c
ĠA f
Ġsk aal
Ġsk rokken
ap ac
Ġer voor
ik el
ĠN ation
Ġr Ã¢ne
sk op
ĠK r
ĠK oud
ĠT wi
ĠC NV
os sen
Ġhel aas
ine ke
ĠO ost
Ġhoe ke
ĠwÃª rop
ate g
Ġbet rouwen
bo aten
Ġ3 3
aksje s
Ġbo uwe
Ġfertel d
Ġbest imming
foar st
ster tille
Ãªd ing
ĠÃ»nt d
ĠÃ»nt ble
Ġbesl uten
Ġsnein tejÃ»n
br inge
mo c
Ġtongersdei temoarn
Ġgel dt
Ġnatuer organisaasjes
Ġstil lein
ande my
ĠKN KB
Ġsimmer fakÃ¢nsje
Ġkeunst wurk
Ġheal jier
Ġfilm ke
oat stertille
Ġspor ters
Ġslim mer
ĠÃ»ntst iet
ĠÃ»ntwikkel ingen
Ġbuor kerij
Ġag rar
tere ss
Ġienn ichste
fÃ» gel
Ġkeat sen
ĠAnd or
ĠEr ve
ĠFer iene
Ġoefen wedstriid
Ġstyp jen
ĠNe w
fest ival
Ġvert rouwen
âĢ Ļ
ĠhÃºshÃ¢ld ing
ĠHyl pen
ĠEar newÃ¢ld
ĠCent rum
Ġfergoed ing
Ġwap ens
wy kein
Ġwens oarch
ynje wÃ¢ld
perio ade
Ġident iteit
2 8
4 4
H el
H ier
O C
S Ã»nder
d is
f rys
h t
i x
j aar
j ele
k ast
l ochs
n ar
o ei
p as
p akt
p ele
Ġm Ã»le
Ġo lymp
Ġb Ãªd
Ġh anden
Ġk ad
Ġk racht
Ġk rap
je ct
Ġg ym
Ġg rond
Ġt uorren
ro l
ri ke
Ġp om
li m
it chel
de el
Ġom sk
ij t
Ġoan diel
Ġst offen
gen omen
ĠS eg
Ġwol st
Ġoer fal
Ġkom mers
Ġmar aton
ĠB ok
op ke
Ġc re
ĠÃ´f levering
ĠW iel
ĠW erk
Ġsp ruts
ĠM en
ĠK oster
ĠK oatstertille
ĠV oedselbank
ĠR i
ĠT erp
sp raak
oer d
Ġwy t
ĠE ij
ĠE pke
se p
Ġon ders
ĠO NS
oal len
Ġkon sek
Ġtsjin sten
em t
if k
Ġze e
Ġor anje
Ġfl oat
ĠSt aatsbosbeheer
ĠwÃªr mei
ult uer
its ma
Ġ6 00
gers ma
gean de
Ġkommen t
Ġfierder op
Ġdre ger
pro vinsje
gro eid
Ġpar ten
Ġmel k
Ġsaak kundigen
Ġopn ommen
Ġsm oard
ein stra
Ġru ten
Ġster ke
Ġbew oners
Ġferd Ã»
ĠAlde berkeap
Ġple kken
Ġdok ters
Ġlever e
Ġgas winning
Ġferantwurd likens
Ġfear n
Ġdisk rimin
ĠHol land
Ġvlog s
Ġmein imme
ĠNie uwen
ĠÃ»nw iss
Ġopsk uor
Ġteloar steld
ĠNe ushoorn
macht ich
ĠJacob s
Ġfantast ysk
Ġvak antie
Ġcoronap roof
Ġtrans fer
Ġpil ot
Ġpresint ator
sra ad
He al
ĠskÃ»tsjes ilen
Fries land
ĠKn ol
Ġlab orat
liz zende
ĠMakk um
Ġbefol king
Ġnijsgjir rich
Ġmond kap
Ġfolw oeksen
Ġkarak ter
ĠNoorder breedte
Ãºtkear ings
Ġscoo ter
Ġbiof erskaat
Ġcoronac risis
apac iteit
Ġkonsek w
G rutte
P O
V er
c ten
l os
s lid
t Ã»zen
u learre
v end
w aard
z ak
Ġ ym
Ġd ier
Ġd uur
Ġf as
Ġm uorre
Ġb iedt
Ġh oort
Ġh ulp
Ġt achtich
Ġen orme
ri kt
Ġop slach
ak teur
or st
or ren
Ġfoar kommen
Ġl uts
Ġder om
Ġmo der
Ġno u
ear t
Ġst oel
Ġj uster
ĠS tel
ĠS pe
Ġoer heden
lÃ¢n ske
Ġre ken
Ġre ad
Ġpl ant
ĠW ier
ĠK amp
Ġwi zen
ek sjes
sp lak
ĠC ampus
Ġhel ft
ĠDe moc
Ġkl as
waan de
stel de
ate c
Ġke uze
Ġfersk yn
Ġfersk rik
diel ingen
Ġmis sen
ss Ã»nens
aa ien
teur s
Ġfreed temiddei
eren iging
ĠGr in
Ġper foarst
Ġ15 00
mp atec
mon ie
Ġsint imeter
Ġfot og
Ġfilm s
Ġskoft ke
Ġfjir tich
ĠKeamer lid
ĠrÃªst iger
sjin sten
Ġrel aasje
ĠZw ieten
Ġsu den
iede ma
Ġpraktyk Ã»nderwiis
Ġtro uw
Ġberop s
Ġkie st
Ġkoart lyn
ĠambulÃ¢nse personiel
Ġu iteindelijk
ĠBr ink
Ã¶ per
Ġpass azjiers
Ġgar aazje
Ġferdw ine
ise ur
Ġbless uere
Ġdri get
Ġstu denten
form atie
Ġstasjon s
ĠÃºtw reide
zo ens
Ġopf ongen
ĠMei jer
Ġtsjerket sjinst
ĠVol endam
Ġzieken huis
Ġdeist ich
Ġdokumint Ãªre
Ġcolle ga
ĠWyt marsum
Ġperspe ktyf
Ġdran k
besker ming
Beg jin
ĠKing ma
ĠKonink lijke
ĠOnderzoek sraad
Ġleechflean rÃ»te
Ġspes if
ĠÃ»ntwik kele
ĠDemoc ratie
5 8
8 0
A an
F uotbal
K om
M ocht
N C
W ie
d eld
e pe
f roulju
h eff
k we
l in
l um
l jochting
n zer
o ven
p ens
p pen
r ink
t jes
u il
v ak
Ġ Dat
Ġ qu
Ġw int
Ġb ocht
Ġb eiden
at t
Ġn ul
Ġn amen
Ġk at
Ġk erk
Ġg iel
Ġt ype
Ġin formatie
Ġen kÃªte
Ġp ijn
Ġp ort
Ġop lein
ak je
ie uw
Ġfoar inoar
Ġl inks
Ġoan bod
Ġge keken
Ġmo est
Ġfer ling
ier d
ĠF onds
Ġj ongen
ĠS ine
ad a
Ġz aken
ĠÃºt fer
ĠB reij
ĠH art
Ġsei zoens
ĠA DO
Ġsk ande
ap pe
Ġr yks
ĠD rent
Ġpro gram
sk ied
sk amp
ĠK im
ĠG re
Ġme est
Ġgoed keap
sp raken
ĠC ees
Ġhel der
ĠE L
be tel
akt yk
Ġtsjin oer
Ġfol lybal
Ġbet inke
Ġke uken
Ã»nder nimmers
Ġsels stannich
amp ion
Ġbo a
Ġskoal bern
ĠI sra
Ġtra jekt
wer ken
Ġ201 3
Ġfert ro
Ġdaar door
ĠHar monie
Ġfle u
Ġdrok ke
Ġadv ies
Ġgel ukkig
orm ule
Ġdra aien
Ġsm ite
Ġfeilich heidsregio
Ġkr Ãºs
stre ek
Ġsam mele
Ġferskil len
ord recht
El ke
Ġreden en
ĠdÃ» mny
Ġun ike
Ġfar ren
ĠwarskÃ´ ge
olog ysk
Ġvlog gers
Ġrieds leden
joern aal
Ġmate ri
Ġwedst rijden
leats lik
Ġferniel d
Ġleef berens
Ġoanfre egje
Ġtag ong
ĠFort uin
Ġpat iÃ«nten
ĠBra bÃ¢n
Ġkrimin ele
Ġmass aal
Ġfuorts et
ĠStien s
Kin st
Ġverantw oor
ĠHelm holt
Ġfrjem d
ĠSip ke
Ġsechst jin
ĠlÃ»ds oerlÃªst
Ġkonstate arre
Ġgevol gen
Ġferstjer ren
ĠAlvest Ãªde
Mis schien
4 0
B innen
E O
L jouwert
M e
N a
N iet
N ije
c ar
i fest
k ende
k like
k ont
o teken
v or
w is
w apen
Ġs an
Ġs is
Ġw aad
Ġm jitte
Ġb ud
Ġh ji
st aat
st jitten
Ġg olf
Ġin st
oar ten
Ġen e
Ġe c
le m
Ġp u
re den
Ġte le
Ġte recht
ie pen
Ġbe m
Ġl ju
Ġv orig
Ġoan rin
Ġmo del
Ġfer lyn
Ġek ster
ste an
ĠB ol
ĠH eer
Ġre derij
ĠA kker
Ġsk iep
ĠÃ´f naam
ĠW eid
ĠW ynjewÃ¢ld
Ġsp re
ach i
ĠV C
ĠV eld
ĠV ereniging
Ġle ggen
ĠP a
ĠT on
ber gen
ĠE d
Ġfers te
yl ine
Ġsil en
Ġkl assen
Ġwurk jouwer
rij s
kom ple
riuw e
Ġa aien
ters weach
Ġplak fine
Ãºt braak
ab ri
Ġlang s
Ġbo uw
Ġef f
ĠI I
Ġfl ag
Ġtra ind
ac y
Ġnij ste
sit ters
Ġ4 4
Ġgen omen
Ġbesl ute
fol ging
kel Ã¢n
ĠbrÃ» k
Ġwoansdei temoarn
Ġbop pen
ha us
ĠU MC
no v
zj y
Ġkn i
Ġlos sen
ĠBe Ne
Ġster ker
ĠBel t
Ġsinne parken
Ġkr us
Ġreed riden
Ġnie mand
Ġyntern asjonaal
Ġma x
Ġtas praak
Ġmeast entiids
Ġpres in
Ġfar rÃ»te
ĠZw an
Ġoef ening
bl Ãªd
Ġken nen
Ġreiz gje
Ġmon um
Ġant y
Ġbru ne
Ġtek sten
ĠThe o
Ġdeb Ãºt
Ġkons ert
ĠynstÃ¢n sjes
Ġoper aasje
Ġlibb et
Ġsal ang
eim pe
Ġkomple ks
Ġadvis earret
Ġhjoeddei ske
Ġhjoeddei stige
ĠKen ink
ĠJap an
Ġprins ipe
Ġynform earre
ĠkompjÃ» ter
ĠbrÃª gen
iy achi
Ġimp act
Ġferlik ing
ĠWins um
ĠIF KS
Ġfamyl jel
Ġkomment aar
Ġsmoard rok
6 0
A m
L ang
T eam
b oeren
c oron
d us
g as
g ang
h ing
k ons
l le
n ings
p aden
te ast
in ette
ar ter
Ġf oech
Ġm jit
Ġk ass
Ġk uorbal
yn lik
Ġfan gen
Ġyn steld
Ġyn stjoer
Ġp lein
as per
it ia
de ma
on a
ij ker
ij fers
Ġl ong
Ġder oan
Ġoan hÃ¢ld
Ġoan kaam
Ġfer antwurde
ĠF armers
ĠF riez
ze e
Ġz we
ru is
ĠB et
ĠB it
un de
Ġre alist
ĠA uke
lik se
Ġpl ay
ĠD ordrecht
Ġts iende
os wert
Ġwurk jouwers
Ġa ud
Ġne amde
jer zje
Ġgro eie
Ġiepen je
if ting
if ati
Ġben eam
ĠÃ»nders ikers
skip pen
ger en
Ġfyn st
ĠI e
Ġfl a
eili gens
war d
ud inten
Ġsoarch meiwurkers
Ġsch olen
Ġaksje fier
Ġaksje groep
Ġbl ok
mo oglik
Ġmid dels
Ġnatuer lik
Ġfuotbal je
Ġdiel e
Ġstil te
lis sen
Ġskip feart
Ġmiljoen en
Ġonder wijs
Ġpe aske
Ġregel je
Ġmee ge
zj et
Ġsli epe
Ġstud inte
Ġheal oere
Ġvol doende
Ġreed lik
Ġgebe urd
St ichting
ĠZw art
Ġstien nen
ĠÃºtfier ing
Ġtelefoan ysk
Ġynsp eksje
bl ad
ĠSport Cast
ĠwrÃ¢ldbek ers
Ġkeat st
Ġfys io
Ġmins ke
Ġmaatskip like
Ġoptreden s
ĠTuinen ga
ĠMan on
Ġopsm ite
Ġhan teken
On ze
ĠHoog land
ĠKuip ers
Ġeksper im
sr jochter
ĠGron ingen
assade ur
Ġtichte by
ĠsikehÃ»sop n
Ġdraach flak
Ġcarav an
Ġleark r
ĠKoud um
Ġbeneam ing
. )
7 0
A f
D ijk
H eit
Q u
S ven
a zje
b aden
b uorren
h n
h oek
i bel
j am
m aar
o le
o os
z etten
Ġ Ã
Ġd ronken
an ce
Ġm ysels
Ġh alf
Ġk as
Ġit ens
st Ã´k
al ing
Ġyn ske
Ġyn gri
Ġyn gre
ro et
ri Ã«
ri ften
le y
Ġp ut
Ġop lever
de m
ak er
Ġfoar Ã´f
Ġfoar set
is ma
Ġom mers
Ġl a
Ġv olle
Ġv rouw
Ġoan k
Ġoan jaan
Ġal arm
Ġst atus
ĠF olk
Ġek sk
ĠÃºt kear
ĠB ang
ĠB urd
ĠH im
ĠH Ã»s
op t
Ġc ro
Ġc omm
ĠÃ´f st
Ġer gens
Ġer fgoed
ĠW eij
Ġwer kt
Ġoar lochs
ĠD oarps
ĠM ir
ĠK eimpe
ĠJ os
ĠJ uli
Ġwaar sch
Ġbes ochten
ĠR ad
Ġle k
ag t
ĠE ind
ĠE mpatec
ĠDe putearre
ig ers
Ġri em
Ġwurk straf
riuw t
ink ster
ann er
ech n
em arken
Ġne er
Ġbed rige
Ġbin n
Ġplysje man
uer en
oel ang
if ers
ai de
Ġfertel len
Ġjo u
Ġjo egen
ĠÃ»nt werp
Ġmis te
Ġsneon temoarn
ĠMar ten
ĠÃ¢l deren
Ġko Ã¶rdin
ĠfÃªst lein
ind s
ĠSte atsboskbehear
Ġan on
Ġgroep ke
iÃ« ne
ĠÃ¢ld ste
Ġ8 00
Ġynt ocht
Ġrap ste
ĠNoard like
ĠTh omas
Ġgri ene
Ġfrijwilli ger
Ġont staan
onom yske
Ġferkeap jen
Ġcamp ings
Ġ0 9
Neder land
age ment
Ġcoronabesmet ting
rei s
Ġpop pe
Ġfersoar ging
Ġdemon stre
Ġtro ts
ĠSm ink
Ġferf ongen
Ġboete s
Ġgek regen
Ġjon gens
Ġfestival s
Ġflean basis
Ġverwacht en
Ġoanf raach
han kelijk
ĠKanade eske
ĠBelg yske
ilt rant
ĠÃ»nderdÃ» kers
Ġbedrij ven
Ġstrukt ureel
red akteur
Ġzom er
Ġfav ori
Ġsant jin
ĠBeets tersweach
monum enten
ĠRij pstra
Ġemos joneel
ĠTwi zel
ĠGrin zer
Ġtrouw ens
heff ing
Ġverantwoor delijk
ĠWeid um
1 2
B el
D F
M oat
R M
T w
T he
f raach
f ragen
f rou
g de
n Ã»mer
p art
p eil
r etten
s oarte
Ġd Ã»ns
Ġd ieren
in us
an a
Ġw on
at ting
Ġh ok
Ġyn fier
oar ne
Ġis olaasje
le ving
Ã» d
Ġte mpo
ie el
Ãº k
am ylje
Ġbe Ã«
Ġbe hÃ¢lden
Ġl apt
Ġoan fol
Ġmo b
ear um
Ġst and
Ġst arte
ĠF yts
Ġj iske
il Ã¢n
me er
ĠB ilt
ĠH oe
ron de
ĠW ou
ĠN at
Ġr Ãºt
ĠD onker
Ġbes leat
ot o
ĠT uin
ĠT our
ek sp
ĠE juke
ve er
bb et
Ġon ge
Ġon gel
Ġfers moar
ĠO ut
wur den
Ġtsjin twurdich
Ġber ei
Ġa b
Ġhy g
up s
Ġver z
Ãºt stjit
sj ier
Ġgew orden
Ġlyk makker
icht en
Ġtusken tiid
Ġorganis atie
Ġfl jocht
ĠÃ»nt rom
Ġferh Ã¢ld
Ġein de
Ġ201 4
Ġsw art
ĠHar nzer
Ġtest lokaasje
Ġwen plak
geb aan
Ġsch epen
ct or
Ġgel ijk
Ġho ofd
Ġdiel d
ĠhÃºs kes
Ġtrain ers
ĠrÃ»n en
ĠrÃ»n tsje
Ġmee ste
ĠNoard wÃ¢lde
ĠBer n
aart jes
Ġdes ynf
Daar na
ein dert
Ġfilm kes
Ġyns id
Ġvol gen
Ġbef rijd
Ġ200 9
Ġsj auffeur
Ġgearwurk je
stik ken
ĠAlde gea
ĠCh ampion
brand ij
Ġstjoer e
aul un
Ġkeap jen
bli uw
ĠÃºtsp raken
ĠSport klup
Ġfys ike
ĠAp pel
Ġbelangryk ste
Ġweek end
Ġregion aal
Ġou deren
Ġklok ken
ĠLel yline
ĠLa wei
ĠKro es
ĠfÃ»gel gryp
veren iging
Ġlog ysk
Ġferne amde
ĠJor rit
ĠMich ael
Ġdjoer der
ĠÃ´fwacht sje
Ġamate ur
Ġtoan iel
Ġynte resse
ites se
Ġwinn ers
Ġet miel
ĠGar yp
Ġopbr ingst
Ġarg yf
Ġsul ver
ĠKooi stra
ĠRijk s
ĠTO P
riem stra
Ġburge meester
ĠAldeb oarn
Ġallerh anne
Ġvervel end
Ġhur der
frys lan
, '
2 4
3 9
5 5
A cht
B ra
F rij
F ID
I N
N atuur
b ru
b ond
e ach
e ters
f et
f el
h istoar
i ven
p leats
v ier
er h
ar ant
Ġf aze
Ġs ur
Ġde ta
Ġw oon
Ġw onen
st u
Ġg rap
Ġt ol
Ġin v
Ġp opp
Ġop sp
Ġop fallend
ter ape
on ken
Ġfoar op
Ġbe wiis
Ġge c
oe a
Ġst a
ĠF oar
ĠF oswert
ĠS telling
ad oea
ĠÃºt komme
ĠÃ»n be
Ġnoch al
un nel
ĠA v
Ġpl eite
Ġdo ss
Ġr eid
Ġli chte
ĠD NA
ĠM aats
Ġpro seduere
ĠK ulturele
ĠG ert
Ġkri mp
af ees
ĠT im
Ġts jins
sp es
sp lan
Ġfers teur
Ġman machtich
Ġbeg innen
ate lid
Ġplysje s
bo uwe
Ġfier d
Ġze er
he en
Ġsy m
Ġein d
Ġnat oer
od der
Ġover heid
Ġover leg
ĠÃ»ndersyk je
use ma
Ġeven e
ĠAn na
ĠbÃ»ten kant
iss a
ug al
ive au
Ġsch ade
Ġdre am
Ġrom me
iÃ« r
Ġfuotbal jen
Ġfuotbal ler
Ġho bby
ĠU ny
pro jekten
asis me
Ġcoronam aatregel
Ġbal Ã¢ns
ĠKN RM
Ġacht tjin
eds merk
ĠlÃ» den
all aasje
Ġsm iten
Ġkij kt
teken e
Ġkilom eters
Ġvol gende
ĠDen emarken
ĠGer ry
Ġwyn stjitten
Ġener gie
Ġvers pr
Ġynd ustry
Ġrel ay
Ġsin jaal
ĠÃºtfier e
iz zer
Ġhyn ste
Ġkap pers
ĠBos ch
Ġtran sport
Ġrieds lid
Ġaltern ative
Ġoerli bbe
bestjoer der
Ġspons oaren
Ġbestjoers lid
ĠÃ»nbek end
Ġferne amd
ĠÃºtst jit
ĠPat yna
Ġmuzik anten
Ġfersoargings hÃ»s
Komm issaris
ĠWin ters
ĠPort ugal
Ġsoarchyn stellingen
Ġbezoek ers
Ġynlever je
gelegen heid
Ġdirek sje
ĠScheep stra
ĠLÃ¢n bou
Ġpublis earre
ĠStar um
Ġsneld yk
Ġconta iners
Ġyl leg
Ġkj ifk
ĠÃ»ntd utsen
ĠNieuwen huizen
ĠEL P
Ġeff ekten
ĠUMC G
ĠEind hoven
FID EO
Ġkjifk ro
? ",
A S
E f
K ramer
L it
P N
S kip
b ul
b oard
c ker
c kers
d rug
f un
f ert
k or
k ard
l je
p ass
s de
v es
w o
w ieren
Ġ eten
te t
Ġd uren
Ġd ichter
Ġd ikke
an deren
Ġf art
Ġs ystemen
Ġw oenen
Ġm Ã»nen
Ġo ait
ro bi
ri ck
Ã» ze
Ġp ol
Ġop sjes
li zzen
ke arre
ing ers
ak adoea
ge bouwen
Ġfoar kar
ij ven
Ġl ot
inne ma
Ġoan wi
Ġst Ã¢l
Ġwur ken
Ġj ud
il as
ĠS h
ĠS we
ĠS uzanne
Ġoer naam
ste ande
ĠÃºt rop
ĠB ur
ĠB aas
ĠH ong
ĠL eer
Ġsk erm
ĠN ord
ĠN PO
Ġjier dei
Ġoar gel
ĠM VV
ĠM itchel
ĠM aulun
ĠG rij
Ġbes wieren
af t
ot a
ĠT op
ĠT riemstra
ĠC an
ĠC our
ĠE ag
Ġmin imaal
Ġbr and
rom pel
Ġaan v
rij f
rij ven
fer kie
Ġver ke
Ġver vol
Ġbet ink
ist ysk
Ġpart ner
ĠÃ»nders iken
del en
Ġ5 5
ry ater
Ġfl ater
Ġtra dis
Ġoere in
Ġmis hannele
Ġ4 2
kl us
Ġbesl oten
Ġkw amen
ĠHar lingen
ĠCambuur stadion
Ġstr and
Ġspil en
Ġmed ysk
Ġgel ok
Ġsport fers
Ġfeili ge
Ġbep ale
Ġgev raagd
ĠBo ersma
Ġpleat se
Ġtaf al
onder d
onder zoek
Ġkn ip
Ġoploss ings
Ġfeest dagen
Ġfiel de
Ġieder e
Ġeksp los
Ġsj onger
ĠGer ard
El k
Ġbepaal t
Ġferkeap et
Ġtas ein
Ġslim me
Har ren
erv ice
Ġbeh and
Ġrestaur aasje
Ġsee h
Ġ194 3
gri et
behear der
Ġsen ioaren
ĠFer wert
Ġhanthaven ing
Ber g
Ġynveste ar
Ġkonk re
Ġstrang ere
Ġbesch ik
ĠSl uiter
ĠbÃ»n te
Ġvoel t
Ġkran ten
Ġverh alen
Ġopt im
Ġdro ne
ĠMe ulen
ĠLi ander
Ġfleant ugen
Ġkonkur rint
Ġbesker ming
off s
Ġfold ocht
ĠÃ»nÃ´f hinklik
ĠBon ifati
Ġbibli oteek
eigen er
Ġtijden s
Ġfernu vere
Ġferlie ze
Ġwurksum heden
Ġoor log
Ġsportsk oalle
Fre edsmerk
Ġtoil et
ĠSon ny
ĠHaad stÃªd
ĠDag blad
ĠKoop mans
ĠhÃºshÃ¢lden s
Ġemo asje
Ġkommers jele
ĠTerp stra
Ġkonsekw insjes
Ġferskrik lik
NC W
Ġkrus ing
ĠKeimpe ma
Ġlapt op
! ",
F aak
F ly
P vdA
S oks
V O
b Ã»
b and
b aas
g at
g unning
l oft
l ucht
m ingen
m ang
n Ã´ch
u ers
w yt
w achte
Ġ ult
in u
Ġf iet
Ġf orm
Ġs ier
Ġw oar
at mang
Ġn eder
Ġk m
Ġk ijk
Ġk ateg
Ġt v
Ġt ik
Ġyn tsjin
Ġyn kommen
Ġyn stellingen
ro le
Ġp ine
ke amers
ur a
ol ine
ge w
Ġfoar jier
is sen
Ġv o
Ġv acc
Ġder oer
Ġge mid
Ġge sproken
Ġmo k
Ġfer rast
Ġst o
Ġst oarn
Ġst iging
Ġst raat
ĠF ilm
ĠS itt
Ġwol wÃªzen
ien n
Ġoer nimme
Ġnei li
ĠÃ»n f
ĠB as
ĠH ein
ĠH elder
Ġre c
ma ak
Ġsk rift
Ġli eden
Ġli bjen
ĠD el
ĠD re
ĠM iedema
sk oar
sk riften
ert if
um bo
ĠV el
ĠV NO
Ġbes it
Ġbes etting
af er
ĠT ers
ĠT ineke
Ġhel ber
ĠE is
ĠE asten
eff en
ale ma
Ġhoe veel
Ġta he
Ġoant rek
Ġste un
ings dei
ings ferbÃ¢n
Ġwel ke
Ġpart ners
oel stra
Ġiepen lof
nim t
nim men
Ġben a
del ing
iv isie
ĠZ einstra
ĠI N
ĠI d
ĠI ssa
ĠI neke
wi zen
Ġtra ap
kl ass
Ġcorona weach
ĠMar griet
Ġdei besteging
Ġboer d
Ġter wijl
Ġad res
Ġdel sette
ĠSk ar
Ġstr jit
Ġmom inten
akke fean
Ġoantal len
ike hÃ»s
Ġide aal
Ġwyl de
Ġrest au
Ġstud io
gong er
Ġswim baden
ĠY ork
Ġyns ekten
la im
Ġbehe inen
iger nÃ´ch
Ġprod ukt
Ge meente
licht ing
Ġkre as
Ġdoarps huzen
ĠVeilig heid
lan ge
Ġlike goed
ĠSmelling he
Ġwenning bou
ĠEaster mar
kun de
Ġgrien te
ĠAnd re
one el
Ġklap pen
Ġlij n
lÃª zen
ĠdrÃ» chte
Ġfolg jend
beste anden
ple eg
Ġbestri ding
Ġsim mers
Ġstrang er
ĠSl ob
Ġdeb at
ĠLand bouw
Ġoanfal ler
Ġelekt ris
ilie u
spil ers
ĠSij brandij
stit uut
Ġdriuw end
Ġoanb iede
ferb aal
ĠBoo y
Ġspel ers
zh ei
Ġmilit Ãªr
Pre mier
ĠDouw stra
Wetter skip
Ġwachte t
Ġneit inke
Ġvro eg
Ġferoars ake
Ġfolwoeksen en
ĠBrink man
ĠÃºtfer kocht
ĠBit gum
Ġynske akele
ĠBurd aard
ĠAppel hof
Ġcoronamaatregel en
drug s
atmang oen
Ġgemid deld
ĠSitt ard
ĠEasten ryk
2 7
8 00
A d
N yk
R yks
S G
a af
a kes
b urgum
d aad
e geling
f abryk
i ze
i eder
k amer
m ming
m uzyk
r els
u ker
er pe
in dt
Ġb ad
Ġb rom
Ġh am
Ġn asjonaal
Ġn iveau
Ġk atten
st ate
Ġyn brek
ri ding
Ġe p
le ven
le ane
Ġp el
re arje
li se
Ġte v
am elijk
ken ner
Ġl aag
Ġoan riding
Ġge m
Ġge maal
Ġnet wurk
Ġfer lyk
Ġfer dieling
Ġfer wurke
ts ke
ĠF ol
ĠS P
ze ker
Ġnei besteanden
ĠB ed
ĠH eid
ĠH ui
ens ke
un iversiteit
Ġc ijfers
ĠL ou
Ã´f fal
ĠA s
ĠW en
ef kes
Ġli eder
ĠD urk
ĠM iyachi
ĠG rap
ĠJ umbo
ĠV oor
Ġcoron as
ĠP lan
ul s
ul dig
ag ers
ek ker
Ġtw ang
ijn lijk
meen ten
se m
Ġri oel
yl d
Ġste v
Ġber ekken
up porters
rÃ» ten
Ġbest uur
ĠÃ»nders iker
Ġorganis earret
Ġtra int
Ġferh uze
Ġkw a
per haus
ĠJan sma
Ġrjocht saak
Ġned ige
Ġmoandei temiddei
Ġsoarch sintrum
Ġdel gong
fers k
Ġstr jitten
Ġro ute
Ġfuotbal bÃ»n
aas jet
Ġferoar jen
Ġskriuw ers
Hoe folle
Troch dat
Ġsitu aasjes
no aien
isj atyf
Ġgev onden
Ġrap pe
ĠGro en
Ġkult ureel
ĠsÃ¢n de
oarek a
rik a
Ġres jerzje
Ġstim me
Ġswim men
Ġbar ren
ĠY ou
ĠRo os
maat skip
onom y
Ġsj ong
Ġferd jip
Ġgearwurk ingsferbÃ¢n
El tsenien
ĠdÃ» bel
Ġlever et
aud et
Ġfoarstel lingen
ĠBos ma
Mear dere
Jan sen
ĠKan ada
Ġgreide fÃ»gel
Ġopdracht en
ĠLeeuwar der
Ġmein ommen
spro gramma
ĠHaan stra
ĠWar ten
Ġcl ubs
Ġfr etten
pak ket
ĠwrÃ¢ldbeker wedstriden
Ġteloar stelling
ĠbÃ» tend
ĠtsjÃ» ge
Ġcon c
kw aliteit
Ġferniel ingen
Ġbegri p
Ġkost je
vent aris
Ġdemonstraasje s
Ġfantast isch
Ġpresint aasje
ĠKar in
ferb ining
Ġfru it
Ġomrop pen
ĠFro uljus
Ġrust ig
ĠreinbÃ´ge flagge
ill ert
ĠNatuur monumenten
Ta gelyk
Ġkaar tsje
Ġiensum ens
Ġtanim t
Ġopfol ger
Ġrot onde
ĠBau ke
Ġneedferoar dering
Camp ina
Ġkonkurr insje
ĠWerk man
Ġdiskrimin aasje
Ġlaborat oar
ĠFolk ssÃ»nens
Ryks wettersteat
ĠGrap perhaus
? '<|
K oart
L ear
R utte
S oarch
V eel
a h
h Ã´f
h oarne
i or
i ver
j al
p rate
r el
r Ã¢n
u ter
u be
v angen
w it
x it
z jer
Ġ arre
an c
Ġf li
Ġf irt
Ġs mo
Ġs Ã»ne
Ġs ommige
Ġde ur
Ġm olk
Ġb akker
Ġh oelang
Ġk roegen
al stra
Ġin d
le cht
le ggen
Ġp oer
Ġp andemy
Ġop stelling
ed yk
de asten
Ġmei wurkje
am ie
ge fal
Ġbe stel
is sel
Ġom geving
Ġv eld
Ġder nei
Ġoan hÃ¢lde
Ġfer rint
Ġfer dielen
ear d
ĠF ormule
ĠS ter
Ġoer hinne
im d
Ġse cht
ĠÃºt rikt
id ige
ĠB oel
ĠB ijl
ĠB akkefean
ĠL onden
lik er
Ġsa ke
ĠÃ´f brutsen
Ġer ken
ĠW Ã¢lden
ik uli
Ġhar sens
ĠD er
ĠD anny
ĠD utch
ĠM et
ĠM ienskip
sk rift
ĠK erk
um m
ĠV en
ut ten
ĠR ekken
af el
ĠP ark
ĠP AL
Ġts iis
ĠÃ»nder fre
ip p
ek ke
Ġdi stri
sp unt
Ġvoor dat
ver hard
yl an
Ġhoe ven
wur ken
Ġsl uiten
Ġste kt
Ġfre gen
zje s
Ġben ijd
Ġfin ansier
Ġrek l
ĠZ ienn
ĠÃ»nt b
ran s
ran te
Ġ4 8
Ġsneon tenacht
ĠÃºts ein
Ġfe an
Ġferb liuw
Ġferb ettere
Ġsch ip
Ġan deren
sint ra
Ġlan gebaan
ĠGr and
lef oan
Ġblij kt
Ġhelp ferlieners
Ġoanp aste
ĠÃ»ngelok ken
ĠbegÃ»n en
Ġhoarek as
Ġ13 0
Ġru n
Ġferkear de
la ach
Ġbehe inde
Ġdu o
Ġbelutsen en
Ġmogelijk heden
Ġkre eg
Ġdrug sl
Ġgeweld ige
Ġtechn yk
Ġtan ame
Ġfoarstel le
Ġdrugs hannel
Ġken ne
Ġteken e
Ġfyf de
inder t
komm od
Ġfun ks
Ġbosk wachter
Ġhistoar je
ĠAnd ries
Ġher ken
ĠHer man
ĠRob in
Ġgar ande
etting a
Ġslot faze
Ġferdw ynt
Ġbru orren
Ġstreek rjocht
ĠCar ola
Ġreedryd bÃ»n
kw art
ĠOer ol
Hiel endal
Ġaller lei
NS F
zo re
chel ling
Ġtsjinstann ers
ĠVl ap
Ġflak by
lex ander
ĠEk onomyske
Ġneedsaak lik
ĠOr atmangoen
ĠPort uge
Ġfav oryt
Ġkontener ramp
Ġjurid ysk
ĠGroene woud
ĠÃºtnÃ» ge
gef aar
Ġricht ing
ĠÃºtsÃ»nder ing
ĠPoal en
Gel okkich
Ġyndivid uele
Ġtemperatuer en
Ġstar ten
ĠÃºtwr eiding
ĠRus lÃ¢n
pres idint
Ġpriv acy
Ġskul den
Ġoantinken s
ĠElfsteden tocht
Ġwensoarch sintrum
Ġonders te
Ġmelk fee
Ġmoder ne
Ġhji roer
Ġbem anning
komple ks
Dijk stra
Ġkjifkro bbe
ĠÃºtrop pen
ĠCour ant
zhei mer
ĠRekken keamer
2 2
H o
J u
M an
N ij
P ie
S ad
T al
U iteindelijk
b ur
b ran
d ings
d ate
d ragen
f Ãªst
g rond
i al
j s
k afee
l aat
l yt
m om
o tste
s i
t oe
v is
z ier
Ġd ik
Ġd up
er st
in y
an ker
ar ren
Ġf et
Ġf jilden
Ġf eiten
Ġs how
Ġde aden
Ġde zelfde
Ġde mok
Ġw iss
Ġm at
Ġm ik
Ġo ud
Ġo riz
Ġb Ã¢n
Ġb ul
Ġb Ã»nscoach
at oaren
Ġh eden
Ġk ites
Ġk oka
st o
st iid
st Ãºn
al ich
Ġt unnel
Ġyn braken
le azen
li es
li maat
as h
on dere
am ine
ge waasje
Ġfoar rang
Ġbe Ã¤
Ġl ading
Ġv orm
ys elde
Ġal gemeen
Ġfer stannich
Ġfer bouwing
ten t
ste am
Ġz aak
ĠÃºt inoar
ĠÃºt wedstriid
ĠÃ»n mooglik
id ich
ĠB lok
Ġas falt
we zig
Ġc om
Ġc apaciteit
es lach
Ġpl us
ĠÃ´f set
Ġer bij
ĠW ieren
ĠN S
Ġr as
Ġli jen
ĠD ieren
ĠM erk
Ġpro stit
Ġpro ject
ĠK amminga
ach ters
ĠV ogel
ĠV itesse
Ġear nst
ĠT ryater
Ġwaard oor
Ġbeg onnen
enn o
Ġbed ri
Ġsne u
Ġver tellen
rek king
Ġpart ikuli
Ġgew end
man ager
Ġbo eten
ske a
Ġbest ie
Ġ5 6
ĠI zore
ĠbrÃ¢n sj
Ġsy mb
Ġfl at
Ġra ar
Mei wurkers
wer king
Ġein liks
Ġein iget
Ġdien en
ĠMar ijke
its jerke
ĠÃ»ndersyk jen
ĠÃºts l
Ġtre ft
Ġtre ffe
ĠHar m
Ġtin te
Ġaf hankelijk
ic t
Ġjierren lang
sma at
ĠSp an
ĠAr d
Ġfamylje s
ĠBo usema
Ġheech wurker
Ġbasis skoallen
Ġdra ge
merk ing
Ġkop groep
Ġbus ke
Ġtop sport
ĠAmsterdam mers
Ġsj auffeurs
ĠHo spes
lan den
ĠCh ris
Ġstjoer de
age maal
Ġynsp ek
ĠPie ters
Ġsamen leving
Ġkeat spartij
spe eld
Ġstraf skop
Ġrieds gearkomste
oedsel banken
Ġferspried e
Ġaltern ativen
Ġat t
Ġoerli bje
ĠHer berg
Ġferantwurdlik heid
Ġynveste arje
Ġbre der
ĠWie be
ferli ening
Ġsech sde
ĠWer f
ĠWer gea
ĠTsj akadoea
ĠOer terp
Ġopsm iten
Ġbele sting
Ġbedriuws libben
Te gearre
Ġskilder ij
Ġstip et
bele sting
Ġzom aar
Ġferkie zing
doar p
Ġskou ders
duk sje
ĠWagen ingen
mjit tich
Ġhimp kwe
Ġkurs us
Ġdis c
Eigen er
Ġynfol ling
ĠdÃºd likens
ĠSim on
Ã¨ re
Ġfent ilaasje
Ġljip aai
Ġdire ct
Ġfinanc iÃ«le
ĠProvinsje hÃ»s
Ġregist rearre
ĠnÃ» mers
Ġreken ing
Ġflag gen
Ġhyg iÃ«ne
Ġynsid inten
ĠAv ine
ĠSwe ed
Berg sma
ĠBonifati us
Ġvacc in
Ġoriz jin
2 3
A chter
C oron
E pke
G ro
G ri
H a
M en
M id
S al
S ter
T er
T ot
b ack
e kt
e ktor
f fen
j ale
k ings
k baar
l on
l ast
o w
o ai
p un
s brand
v ann
w oord
z ond
Ġ up
of fers
Ġs eld
Ġs co
Ġb ije
Ġb oeke
Ġh Ã´f
ch je
Ġk iel
Ġk ep
Ġyn h
Ġe efkes
Ġp akes
re ss
Ġop hÃ¢lden
ne men
as iteit
ur ne
de k
ak sel
Ġfoar komt
Ġbe urs
is ters
Ġom stanners
Ġv e
Ġfer rÃ»n
oe kt
ĠF okk
ĠS o
Ġby kaam
Ġz agen
ĠÃºt jouwer
ĠÃºt makke
ĠB S
ĠH em
ĠH au
Ġsk ries
Ġdo od
Ġwer yn
Ġwer den
ĠN L
Ġsp rekt
ĠD on
ĠD ra
ert oernoai
ĠG ytsjerk
ĠG alema
ach el
ĠV al
Ġcoron ast
ut raal
ĠR OC
Ġear en
ot on
ĠP au
Ġdit soarte
oan e
Ġtw ongen
ĠE ric
eid zjen
og roep
Mar ie
Ġvoor stellen
se aan
ig d
be stri
Ġkon sint
akt iviteiten
Ġman ifest
Ġber ikber
fer ienings
ann ers
stel lend
Ġver l
Ġver anderen
jer ken
Ġbet sjin
Ġbel len
Ġbel eid
Ġbel ange
dat en
bo x
Ġiepen jen
del ijke
ĠI l
ĠI ris
he ad
ĠbrÃ¢n stichting
joch ters
Ġorganis eren
ĠÃ»nt f
ĠSt u
lear aar
uk ken
pl annen
pl aats
kl ok
Ġwil den
Ġfert riet
ĠSch ur
Ġdoel groep
Ġged uld
Ġhier e
Ġfrou like
Ġposit ieve
Ġgroep kes
fan gen
mo del
Ġfal lyt
Ġjong ste
Ġfuotbal le
lach jouwers
ĠU t
pel ijke
Ġregel jouwing
ĠIn gels
Ġonze ker
Un ders
ĠGe meente
tre in
ĠEl zinga
Ġyns etten
Ġvol gend
wa ter
Ġbew arre
Ġar gewaasje
Ġsad waande
Ġalt iten
ĠGer ben
ĠHo ut
Ġkre Ã«
ĠHe cke
por ten
roe ge
ĠCh rist
Ġstjoer en
Ġcamp er
Ġynd ie
Ġstek partij
Ġzorg t
Under nimmers
waar m
Ġag int
Ġag inten
Ġsu vel
Ġfersoar get
Ġtan aam
Ġfoarstel len
iz zing
Ġopp osysje
Ġ194 2
Ġferpleech hÃ»zen
Ġynst it
out um
ĠRe ade
hink like
ĠWar ns
Ġkwets ber
Ġhanthaven je
team s
Ġbak je
Jo han
ĠSw an
ĠdrÃ» ge
ferli es
Ġbesli st
ĠNO C
Ġeks amen
Ġstu ollen
ĠCor nel
Ġvoel en
Ġwr Ã¢l
Ġkonkl ude
Ġdro nes
Ġstrukt uer
Ġtr end
ĠÃ´fwacht sjen
ĠMartin itsjerke
ĠthÃº sk
Ġklimaat feroar
Ġkwe alik
kan aal
mat yk
ĠBoo tsma
proble men
Re ed
ĠrÃ´ p
Ġgezond heid
gef oel
Ġyntins yf
wim bad
ĠSne ek
Ġann ulear
ĠRom ke
Ġautomobili st
ĠLim boarch
ĠWoud agemaal
Ġprofes jonele
Ġvri end
Ġmedis inen
Ġprote ste
Ġbene amd
Ġtaried ingen
ĠHoo ge
ĠArn hem
ĠKr Ãºs
Ġmondkap je
eksjes yk
Ġekster n
ĠHeer inga
Ġmeege maakt
Tw adde
Natuur lijk
Ġpopp o
Ġpleite t
ĠLeer dam
ĠNord win
ĠTers chelling
Ġkoka Ã¯ne
Ġsymb oal
' -
H oek
L U
M I
M oarn
O r
V ol
Z org
d f
h en
j ert
k ust
l as
l eit
n al
n amme
p pe
r Ã´
u tear
u iden
v int
w oners
z end
Ġ achte
Ġ âĢ
Ġ Qu
Ġd rompel
er stra
of er
ar ije
Ġs yd
Ġde len
Ġi ke
Ġw iet
Ġw ette
Ġm aten
Ġo b
Ġo ude
Ġo ersjoch
Ġo alje
Ġb as
et itia
Ġn er
el jen
Ġk afees
st al
je u
Ġg ister
al m
Ġyn stelling
Ġyn braak
le aster
Ã» ken
re em
Ġop tein
li eg
de b
ak ing
Ġfoar d
Ã»n gelok
Ġbe steld
Ġbe hÃ¢ld
Ġl eren
Ġl ukt
Ġv rouwen
Ġv ader
Ġv indt
Ġoan fallen
Ġoan merking
Ġfer jitte
ear den
ĠS ee
ĠS warte
ĠS jinkie
Ġby tiden
Ġse inen
Ġwe gere
Ġz icht
ru im
ĠB ei
ĠB oonstra
ĠH id
Ã¢l de
ok ke
Ġre m
Ġc ent
ĠL y
ĠA art
lik t
es ters
ĠW it
ĠW een
Ġdo ne
Ġsp oaren
Ġsp rekke
Ġsp ringen
Ġr aken
Ġli ken
ĠD alstra
ĠD roege
ĠM aat
ĠK uorbal
ĠJ illert
Ġbes wier
ast richt
ĠR KC
ĠP h
ĠP leatslik
ĠT o
ĠT om
ĠT sje
Ġmak kelijk
Ġbli ek
Ġvoor t
ĠO M
ĠO ss
Ġkl ass
riuw er
Ġa ctie
io vann
Ġhie m
Ġbet rokken
Ãºs ter
bo om
Ġtri bu
Ġgro otste
Ġbo ot
ai re
est ival
racht en
Ġhjir Ã»nder
lij nen
Ġtal itte
Ġwor d
ĠSt aartjes
Ġra c
lear m
Ġwil t
uis te
Ġaf spraken
Ġ6 6
ĠJo od
ĠAn der
Ġpre staasje
iss ie
Ġbegjin nen
Frys k
hel p
ug ger
ĠSte ensma
Ġmed i
Ġadv izen
Ġadv iseur
Ġske ma
Ġfuotbal lers
Ġtoer istyske
Ġpri oriteit
lis se
ĠdÃªrnei st
Ġpar se
Ġbetel let
Ġkamp ioens
Ġoanp akke
ĠKe es
Ġferk learre
mar kt
Ġtel t
Ġjun ioaren
tre e
tsjin st
kap asiteit
Ġgez et
ili teit
Ġlo bby
Ġstim d
bier rum
stre geling
Ġferg un
Ġstri de
Ġkre ative
Ġna ast
ĠHe ge
Ġaard ige
roe ger
Ġfar i
rjocht en
Ġbeh oe
rei z
Ġfoarm je
Ġkap per
Ġfoel en
Ġger jocht
ĠRe a
ĠÃ»nderdiel en
Ġeffe ct
Ġant wurden
wet hÃ¢lder
ĠHa ach
Ġmins te
ĠÃ»nw isse
Ġred aksje
Ġgroei en
Ġhotel s
Ġstuk je
ĠÃ»nderdÃ» k
isse ur
Ġkwart finale
ĠJor wert
Ġziek te
ĠMa astricht
Ġamate urf
ĠEar ste
Ġduorsum ens
Ġpromov earje
nimm end
Ġsant ich
Ġjurid yske
ĠreinbÃ´ge provinsje
adv ys
Ġkandid aat
ĠFÃ»gel beskerming
Ġspring e
ĠIJ s
ĠKoarn wer
Ġbio sk
Ġtichter by
ĠKomm isje
Ġdegra daasje
Ġbegrij pen
Ġfris se
DÃª rop
wad rant
Ġynge wikkeld
Ġoarspron klik
aly ze
foarsjen ning
Ġagrar yske
Ġmateri alen
Ġsan it
Ġec onom
Ġkni bbel
Ġlearkr Ãªften
ĠFyts alvestÃªdetocht
ĠDonker broek
Ġdrugsl ab
Ġfunks jone
ĠÃ»ntf ongen
iovann i
' ."<|
3 4
A M
A t
B est
C orona
E art
H joed
O A
P lysje
S ommige
U MO
a ast
b Ãºsje
e ens
f lier
h Ã¢n
h alen
h ats
i ro
j ar
j Ãªre
k sjes
k maar
l s
n ik
n ivo
p leat
p leech
r of
s w
t op
u der
w as
w achters
z ij
Ã ¸
Ġ ut
en er
Ġd onker
Ġd rink
er ten
end er
Ġf out
Ġm us
Ġb om
et itie
ch ief
Ġk Ã¢ld
yn d
Ġt ad
Ġt ou
Ġin middels
Ġin ternation
Ġyn gean
Ġyn rjochting
Ġyn nov
Ġyn ventaris
ro ute
Ġe val
le mint
ke akele
ing el
ne mer
Ġte bek
as lach
ers ch
ak koart
Ġfoar bylden
der je
der jen
Ġl ul
Ġv oeren
Ġfer moed
Ġfer litte
Ġst ru
Ġst ond
Ġj uiste
il len
ĠS aa
ĠS mid
Ġz ul
id a
ĠB al
ĠB li
ĠB ak
ĠB ureau
ĠB audet
ĠH eij
Ġre p
op vang
ĠL u
Ġsk o
ĠÃ´f jÃ»n
ap par
Ġer op
Ġer van
Ġer nst
ĠW ater
ĠW ijf
Ġr asisme
kt alige
oed e
ĠD aan
ĠD ennis
ĠM au
ĠK ammen
ĠK amer
ir c
ĠJ och
Ġle de
Ġle au
oer heid
ĠE U
bb ing
Ġgemeen tlike
Ġvoor bij
ig ranten
Ġri ke
Ġon ver
ĠO tter
Ġhoe k
Ġwurk plak
Ġkon dysje
Ġste aten
Ġver k
rek te
Ġke amers
Ã»nder nimmer
Ġiepen et
Ġbest aan
Ġfin ales
land s
foar en
Ġfi le
Ġskoal jier
Foar dat
Ġ5 2
Ġwetter stÃ¢n
Ġwetter peil
wacht en
Ġfl ammen
Ġbinnen kaam
Ġmis stannen
sit u
Sa wol
ĠMar cel
Ġnu vere
eg d
Ġover al
Ġtre ast
ĠHar kema
Ġkrij st
yt buro
aa it
sch er
ĠJo hann
ic a
ĠJan ssen
Ġged achte
ĠbrÃ» kte
Ġpre m
Ġseizoen en
Ġdel lein
mo gen
mo byl
rin nen
Ġgau ris
pro ses
Ġefter Ãºt
Ġwicht iger
Ġrei tsjen
ĠDÃºts k
no aze
Ġhear den
ĠNoard burgum
Ġkoar ter
tse in
Ġkn oop
Ġamb assadeur
Ġ12 5
Ġiis stadion
Ġstim ming
Ġkle uren
str jitten
ats oen
Ġ200 8
Ġmanier en
Ġgeh eim
El tse
Ġops ykje
Ġwerk lik
Ġinisjatyf nimmer
bbe gea
Ġmot iv
ĠBre xit
Ġsterk ste
stap pe
ĠVer beek
Ġfear boat
Ġslag je
Ġskied srjochter
Ġteken ingen
Ġhege skoalle
ĠdÃª roan
olo gen
Ġpleats like
Ġlied t
Ġdefinit ive
VV D
Ġbre de
iÃ«n t
Ġbesch ermen
All inne
ĠhÃ¢ld ing
Ġferbetter je
fraksje foarsitter
ĠCit rix
Ġfisk je
ĠTsj umm
uc as
Ġsnap pe
Ġmeid ocht
Ġleef tyd
Ġkening inne
haw wer
Ġtem jitte
Ġtr of
ĠMich el
Ġmes sen
Ġbeli bje
Ġferkie zingen
ĠPat rick
Ġdrin ke
ĠSteate leden
Ġtwiv els
ĠUn iversiteit
Ġker st
Ġgener aasje
Ġsoci al
Ġverantw oord
ĠGroene veld
Ġontwikkel ing
ĠLauwers mar
kolle ezje
ĠÃ»nÃ´f hinklike
ferh alen
ĠPol ytburo
standig heden
Ġoerd roegen
Th ialf
Ġrespe kt
ĠwrÃ¢ldkamp ioen
kr Ãªft
Ġsol daten
Ã»ntwikkel ing
Ġsjon ge
ĠRu ijven
ĠoertsjÃ» ge
Ġloc atie
ĠÃ»ntble at
Ġpom pe
ĠBok ma
Ġfearn sjier
Ġbud zjet
Ġfersoarging ste
Ġab onne
ĠÃ»ntrom me
ĠferhÃ¢ld ing
arant a
stu ollen
terape ut
Ġsym pt
ĠGrij pstra
Ġbeschik baar
Ġiepenlof tsp
Ġelektris iteit
maatskip pij
ĠbÃ»tend oar
Ġhimpkwe kerij
Sal ang
Hoek stra
ĠWeen ing
ĠDroege ham
ĠSaa ilÃ¢n
ĠTsjumm earum
9 0
A lexander
B T
H er
K N
M useum
R ob
T ink
T ube
U P
W A
a zer
d oen
d iep
e gel
h im
i zze
j ut
l ts
m m
m am
m ings
o ris
p akke
p oort
s er
s lÃ¢n
s joen
s wert
u ort
w an
z aak
te sten
Ġd or
Ġd Ã»n
in ings
Ġf learm
Ġs inds
Ġw an
Ġw id
Ġm aster
Ġm oard
Ġm orgen
Ġb ron
Ġb rutsen
Ġh erstel
Ġh oger
Ġn ame
oar de
ri ks
Ġe ast
Ġp iken
Ġop fange
ke unst
Ġte plak
Ġte gelijk
Ġte koarten
it ens
ie veld
am mel
ge and
Ġfoar me
Ġfoar ried
Ġbe z
Ġbe mann
Ġom zet
Ġv aren
Ġv oedselbank
Ġge unst
Ġge bouw
Ġfer wi
Ġfer litten
ear en
Ġst ren
Ġst ifting
ĠF ili
ĠS am
ins ke
Ġse p
Ġz w
ĠÃºt d
ĠÃºt gong
ĠÃºt komt
ĠB asketbal
ĠH as
ĠH ettinga
ens ter
we insj
Ġre fal
ĠL inde
ĠL okaal
Ġpl om
Ġsk etten
Ġsk rassen
ĠN atuer
Ġsp and
Ġhar k
Ġr Ãªd
Ġoar diel
ĠD uit
ĠG oot
Ġwaar de
Ġwaar om
Ġwaar man
ĠR ich
ĠR od
Ġear re
af Ã©
ot h
ĠP VV
ul Ãªre
Ġso wies
tel ingen
oan ne
oan nen
ĠC on
ĠC ap
ber jocht
ĠE ner
ĠDe kker
Ġvoor z
ĠO pen
Ġhoe ft
Ġaan t
Ġkon sum
Ġta b
Ġsi le
Ġsi ed
Ġtsjin net
riuw ing
Ġbeg int
Ġfol hÃ¢lde
Ġfre es
Ġver pleeg
ters Ã¢n
fal lende
bo urne
Ġpers oneel
ai Ã¯n
Ġbek ijken
foar ming
sel en
Ġ5 1
Ġprovinsje hÃ»s
ĠÃ»nt heffing
Ġbinnen Ãºt
fier ing
ran sport
Ġmis d
sit uaasje
Ġ4 6
Ġ201 1
ĠÃºts keakele
rum p
ĠSch uur
ĠJo bbegea
Ġrjocht sje
Ġpre vint
Ġferb oud
geb rÃ»k
fers eker
Ġstr annen
Ġsn apt
Ġbl om
Ġlear d
ĠSp it
ĠSnits ers
aas d
ike m
Alle en
Ġfeili ger
Ġynt ro
Ġbep raat
gelok s
Ġpleat ste
ĠTw ente
Ġgri ep
Ġkop te
uwer ij
Ġsj itten
Ġ11 0
Ġreden s
Ġun an
ĠlÃª sten
Mo ai
Ġrop pen
win st
win ter
Ġmaksim ale
ov end
ov ic
Ġdemon str
Ġekonom ysk
Ġhichte punt
Ġga os
Ġmienskip like
Ġhu idige
Ġkeat se
Ġkaart ferkeap
Ġreiz gjen
Ġoand ien
Ġspe ci
Ġflecht ling
Ġart ikel
Ġoptre de
Ġkuier ders
Ġmoa ier
Ġferlear en
ĠSur ch
ĠWie bes
pak ken
Ste atelid
Ġkeats feriening
ĠÃ»nts n
Ġautom atysk
Ġcon st
Ġlich aam
az ens
Sch ulting
ĠbÃ»tenlÃ¢n ske
Ġfaksin aasje
Ġvak er
Ġsal aris
Ġkrimin aliteit
Ġbijz ondere
Ġkomple et
Ġdriuw ende
Ġoanb efel
ĠTj ongers
ĠMel bourne
spor ters
ĠEx po
Ġdram a
Ġgedicht en
Ġoprom me
ĠLauwers each
Ġwins k
Ġticket s
Ġskuld ich
zh ak
Bes ikers
Ġoertr Ãªding
ĠwrÃ¢ldkamp ioenskip
ĠKrij ger
Ġspeel t
ĠJou re
Ġerv aring
Ġpens joen
Ġmaatschap pij
yns idint
nar ek
ĠMen aam
Ġfas ili
roet inga
Ġcro w
Ġverantwoordelijk heid
Ġdoss ier
AS T
robi olooch
ĠEag les
Ġtradis jonele
Ġpel oton
ĠYou Tube
Ġwiss ichheid
ĠSchur er
ĠHooge veen
ĠJood se
ĠAnder lecht
ĠKoarnwer tersÃ¢n
Ġsowies o
4 6
B ed
B art
D iel
F riezen
F raksje
G roep
H oareka
P C
P LU
W illem
b ef
c z
c ces
f joer
f amylje
k Ã¢ns
l asse
l inde
n de
o inette
p rint
r aten
s om
s ide
u zen
v ic
w w
z ame
Ġd a
Ġd w
Ġd olf
Ġd yselde
in zen
Ġf en
Ġf el
Ġi er
Ġm ult
Ġb an
Ġb ag
Ġh oud
Ġh eite
Ġn ut
Ġn Ãªsten
Ġg if
Ġt ru
Ġt immer
Ġyn ste
Ġyn teress
ro t
ro ok
oar e
Ġe ss
le aze
Ã» te
Ġp ei
Ġp yl
Ġp aden
Ġop helje
it i
Ġl ait
jo gge
Ġder tig
Ġge ast
Ġge Ã¯n
Ġal ris
Ġfer l
Ġfer ve
ear ts
Ġst icht
ĠF rits
ĠF eitsma
Ġek stre
ĠS joernaal
iet ske
Ġoer gong
Ġwe gge
Ġz et
ĠB i
ĠB or
ĠB la
ĠH u
ĠH aul
ens e
Ġhet zelfde
ĠL ara
ĠA ssen
ĠA head
ĠÃ´f t
ĠÃ´f rÃ»n
ĠÃ´f nommen
Ġhe at
ĠW ol
ĠW ike
ĠW opke
ik ant
ik aasjet
ĠN o
Ġtroch hinne
ef er
ĠD ales
Ġvan wege
ĠM enno
ĠK i
ĠK oo
um ent
Ġkri st
ĠJ ager
ĠJ ustysje
ĠJ amie
ĠV liet
Ġwaar bij
Ġbes etter
ĠR is
ĠR onald
af ersjoch
ot ten
ĠT re
ĠT ol
ĠÃ»nder tekene
Ġtw at
ber ch
ĠE m
ĠE el
ĠDe elen
og raf
ve e
Ġbr Ã»n
Ġvoor uit
arre st
Ġber ger
ite e
Ġver en
Ġver zeker
Ġbet alen
Ġplysje buro
sj itte
oel en
Ġgeb rek
Ġkun st
Ġkear n
del gong
Ġhjir foar
ĠZ and
Ġminder heid
Ġdoch ters
ĠI reen
ry t
Ġfl ugger
aak s
wi id
wi cz
Ġkan te
diel ings
Ġjild ich
tem ar
ĠAl kmaar
pl anten
Ġ4 1
Ġ4 7
Ġ4 9
ĠMar it
Ġkw ijt
kel ijke
Ġnaar toe
ere in
ĠÃºts jocht
ond ag
Ġmeer dere
Ġdaar mee
ĠHar men
amer a
Ġfe ef
Ġdoel t
Ġged och
Ġpre d
Ġhier d
Ġbelang rike
Ġdoor gaat
Ġ7 7
Ġ7 00
Ġgear st
Ġbl Ãªd
mo andei
ĠSp oelstra
Ġper fe
Ġynf eksjesyk
Ġbep rate
ĠKN MI
pers oan
lo oster
Ġregel en
Ġregel jen
Ġregel ingen
hol pen
jit wei
ĠBer lts
Ġkult uers
Ġspesj alisearre
Ġpolit isy
stann er
Ġlos se
Ġgez el
bre ak
ĠEl len
Ġfilm je
ĠFriesland Campina
Ġferg ru
Ġprakt ijk
Oan lieding
Ġfjoer wapen
Ġkre gen
bes it
Ġtas tel
por ter
Ġgebe ure
Ġgeweld ig
ĠFrjentsjer ter
Ġlike folle
Ġsu cces
Ġneed fÃ»ns
zig t
Ġferpleech kundige
Ġferpleech kundigen
Ġberop pen
Ġmiddel en
Ġferf iers
ĠÃ´fsk ie
Ġfertsjin net
komm ende
Ġfis kerij
Ġspe kt
ĠAnt oinette
Ġpleats lik
Ġart istyk
Ġhanthaven jen
ĠThe un
Ġmaan d
ĠWetter steat
Ġparkear plak
ĠFean ster
oot stra
Pro vinsje
ĠWil de
Ġsek onde
Ġpod de
orp sen
Ġopsm yt
Ġmuo i
Ġwr aksel
Ġhan tsje
joert oer
Ġ34 2
Ġgebru ik
Ġpat iÃ«nt
Ġsyl d
ĠhÃºshÃ¢ld ingen
Ġferkie zings
stasjon s
Ġveilig heid
eks amen
ĠCent raal
ĠEk hart
Ġprotok ollen
Ġplat foarm
ĠFris ia
Ġsoci ale
ĠRoy al
Ġfierljep pen
cl ub
Ġymp akt
nie wicz
ĠÃ¢ldjiers dei
ĠdÃºd like
ĠKoarn jum
Ġtsj uster
ĠBouw meester
ĠFreule partij
Ġlief de
ĠJou ke
ĠSlach temar
ĠAt lant
ĠRie mer
Ġsig n
Ġym m
Ġqu aranta
ĠSine eske
ĠKim swert
ĠIsra el
Ġkass a
ĠsikehÃ»sopn amen
jam in
Ġeksk ur
ĠWeij den
Ġbinn end
Ġ09 00
Ġwon ing
Ġmob ile
Bra bÃ¢n
erh eide
Ġevene menten
ĠHong arije
Ġrestau rearre
Ad v
Lear lingen
Ġind ivid
ĠPortuge eske
Pie ter
ĠFokk inga
bestri ding
Ġpoppo adium
df und
ĠTsje ch
Eart iids
ĠÃ»ntbleat ing
Ġcrow dfund
PLU S
' :
2 6
A ut
D en
H eel
O ar
O aren
P iet
W all
W iersma
a gel
b la
d iversiteit
f it
f ilm
f rastruktuer
g y
h aad
i aan
k u
m ard
m Ã»ne
p older
r ins
r Ã©
t ende
t itel
t zigt
w il
Ġ uiter
te lier
Ġd oek
Ġd uurt
Ġd ysels
er ry
Ġf oet
Ġf iets
Ġs oft
Ġde pre
Ġw and
Ġm ens
Ġb uurt
Ġh ang
Ġh outen
Ġh ikke
Ġh onderd
ei lÃ¢n
Ġg ol
Ġg ran
Ġt ij
Ġyn fallen
oar re
oar me
Ġen kele
ri m
le k
Ġp leech
Ġp licht
Ġp inkster
re ven
Ġop sl
Ġop hÃ¢ldt
Ġop liedingen
li el
ke st
ed ei
as me
ur ken
ur gen
Ãº deast
Ġbe stelle
is earje
Ġl am
Ġv allen
Ġder Ã»nder
Ġfer gel
Ġfer stÃ¢n
Ġfer riden
Ġst ienen
Ġst oppen
il ling
Ġoer ble
im o
yk l
Ġha vo
Ġwe inen
Ġz aten
ĠÃºt lizze
ĠH en
ĠH al
we k
un digen
Ġre petysje
op er
op ie
ĠA al
ĠA rum
ĠA qu
ĠA lex
Ġsk et
Ġer ger
ĠW et
ĠW ielen
ĠW olf
ĠW MO
ik aat
ĠN et
Ġli if
Ġli bbe
ĠD an
ĠD ie
ĠM eindert
Ġpro be
ĠK et
ĠK le
ĠK aap
ĠK PN
oor den
ĠG od
ĠG rut
ĠG effen
Ġmear tal
ĠJ asper
Ġwurde arring
Ġbes par
ĠR es
Ġso lid
ag ram
ip pen
ip per
Ġdi ag
Ġdi eder
sp el
ven em
Ġwy ke
Ġhel ikopter
ĠE vert
eder ij
og ing
Ġbr annen
ig heid
ver ing
ĠO k
Ġhoe gde
Ġaan wezig
be c
be ammen
Ġtsjin oan
Ġtsjin hÃ¢lde
Ġber icht
Ġber ikke
Ġne emt
och niewicz
Ġbet on
Ġke al
bo den
ab ik
Ġwant rouwen
foar sitters
ĠZ warte
Ġ5 7
Ġwerom fÃ»n
ĠI M
ble ss
ĠSt oel
Ġra akt
Ġoars om
tem ber
Ġnij jiers
Ġuit slag
ĠMar co
ĠthÃºs wedstriid
mei jer
ĠÃºts k
alen burg
Ġdaar van
Ġaf val
mel o
Ġ6 9
Ġboer ep
Ġged rag
ene er
Ġpos ters
Ġsoarch personiel
ass ink
Ġdel komme
Ġan alyze
Ġfle ach
ĠwrÃ¢ld rekÃ´r
Ġbestjoer like
ha vens
Ġtsien tÃ»zen
ns ters
Ġsport klups
ga dering
Ġpar ken
stjoer ing
pel ijk
Ġtelef oon
Ġfaak s
ĠIn st
Ġkoar ts
Ġ9 5
Ġrekken e
kap kes
Ġgez in
Ġsel de
Ġwurd ich
Ġtop skoar
winn er
Ġhaad redakteur
ĠY chten
Ġvol gens
Ġbehe iningen
wa y
Ġ200 2
ĠAlde hou
Ġkre atyf
bes ite
Ġak sep
Ġrol stoel
ko sten
Ġkompetysje wedstriid
ieden is
oep boer
dra aie
ĠÃ»ntwikkel je
ĠambulÃ¢n sen
ĠambulÃ¢n ses
Ġsubsyd zjer
Ġbeh oor
ĠÃºtsp rutsen
Ġterm ijn
Ġtro u
Ġfear boaten
Ġteken et
Ġcoronapas jint
Ġkwaliteit en
spe ctie
Sk oallen
Ġhanthaven ers
Ġmoei lijke
aut a
Ġele minten
Ġland elijk
Ġynveste arre
Ġbless uer
ĠFre d
ĠRen gers
Ġch allen
Ġbeskerm je
Ġfisk jen
ĠOranje wÃ¢ld
Ġem ot
ĠOer is
sh ip
ĠKu iken
Ġhannel jen
brÃ¢n sj
Ġpan yk
ĠMa x
kan te
ĠMei er
Ġarbeid smerk
Ġrjochte t
Ġtsjerket sjinsten
Ġdraai ende
Ġplaat sen
Ġskoare boerd
Ġneedsaak like
ĠFris o
proble em
Ġferstoar ne
Ġdeist ige
ĠÃºtnÃ» ging
Ġbibli oteken
Ġljep pers
hop s
Gel ukkig
Ġann ulearre
ĠGa aster
ĠMed ia
Ġkontrolear je
Ġbewar je
Ġav ond
ĠBen jamin
Ġlin ker
ĠbefÃªst ige
Ġsammel jen
Ġgesl oten
ĠferwÃ»n ings
Ġolymp ysk
Ġkrap te
ĠWiel ing
ĠEij er
ĠSpe erstra
Ã¶per aasje
Me ast
ĠAkker man
Frij willigers
Ġvervol gens
klus yf
Ġneder laach
ĠSkar ster
ĠBed narek
Ġfirt uele
ĠBijl sma
Ster ker
ĠIngels ke
Ġbehoe fte
Ġamateurf uotbal
ĠBli je
Ġprem jÃªre
azer ne
Ġbemann ings
Ġsep tember
Fraksje foarsitter
ĠbrÃ»n zen
Ġfeef oer
9 7
A ris
B l
B ovend
E D
F ran
F rou
F emke
I J
M inder
N oppert
P S
P oepjes
S l
S n
S Ã¢n
T sj
T echn
W V
Z eker
b on
c els
f eiligens
g rys
g ingen
g gende
i ast
j inge
k ade
k rije
k aarten
m s
m end
m aster
o and
r akt
s a
u ig
v rij
w Ã»ne
Ġ ark
te k
te chn
in o
ar iteit
Ġf on
Ġf jocht
Ġf oss
Ġs mel
Ġs akke
Ġs ertif
Ġde ed
Ġi js
Ġw insken
Ġw yks
Ġo oit
Ġh in
ei zen
Ġn ear
Ġn ad
Ġn ekke
el ders
yn e
al ken
Ġt il
Ġt os
Ġt yp
Ġin eens
Ġyn rjocht
oar p
Ġen oarme
ri gen
Ġp on
Ġp annen
Ġp ret
re pen
Ġop boud
Ġop groeid
ke ur
ers teld
om pen
ge sch
Ġfoar kaam
Ġfoar arrest
is kers
is olaasje
Ġv l
Ġv eilige
Ġoan lizze
Ġge speeld
Ġfer rin
Ġst Ãªf
Ġst ikem
ĠF lo
ĠF oppe
ĠF DF
ĠF estival
Ġek sim
gen e
ĠS AR
ze ma
Ġoer lein
Ġnei diel
Ġz ondag
ĠB rits
ok aat
gel egd
we sten
we ging
Ġre aliteit
ĠL ytse
ĠA ch
dt itel
ĠdÃªr njonken
ĠW a
ĠW ylde
ĠW agt
ĠN acht
ĠN auta
Ġr Ã´f
Ġr ang
Ġjier likse
Ġeen zaam
ĠM odder
sk et
ĠK o
ĠK ootstra
ĠJ anne
ĠV rij
Ġme ters
Ġme zelf
Ġwaar van
Ġbes et
Yn wenners
Ġle sj
Ġso er
ĠT we
ĠT aal
ĠT rump
ĠÃ»nder ling
ip pe
aal de
art a
sp ons
oer isme
ĠC orona
os jaal
ĠE verhard
Ġfers ke
ĠO e
fe es
be urs
Ġkon sept
Ġtsjin stregeling
DÃªr fan
Ġber Ã´
fer digen
fer wurker
Ġei landen
Op fallend
Ġsne ins
Ġbel jen
edstri id
Ġtri en
Ġgean de
Ġfin Ã¢nsjes
Ġfersk ine
ĠZ u
ĠZ ui
ĠZ out
ĠI m
Ġtal int
eili ging
Ġbern tsje
Ġboar st
Ġra ad
Ã« l
wer per
get en
Ġuit daging
ĠMar c
Ġals of
ĠthÃºs wurkjen
mei tsjen
yt ze
ĠSch uil
Ġ6 4
ĠJo aden
ank s
Ġrjocht sjen
ijd agen
ĠfÃªst stelde
ĠOm tzigt
oo ien
Ġplan te
Ġkant oaren
ha ving
Ġadv ert
Ġgel den
Ġske elt
fen is
Ġtoer n
Ġtoer iste
ring a
Ġmeld ings
Ġmeld punt
Ġregel mjittich
ĠIn stituut
Ġfraach teken
opp et
Ġnacht opfang
Ġboek je
Ġprojekt lieder
Ġgez eten
Ġstud int
Ġiens idich
ĠgrÃ»n wetter
Ġhaad fert
ĠY v
Ġkontr Ã´
Ġoff ic
Ġsnel ler
aazje s
ĠFr Ã¢nske
Ġops lein
Ġak ute
Ġna uw
ater dag
Ġwyn park
Ġmaat wurk
Ġbi z
brand y
ĠSint rale
Ġnjo ggende
ori a
kund ich
Ġron den
Ġbuor d
Ġbuor den
Ġbuor lju
Ġlever en
Ġpracht ig
ersk ynlik
Ġnjoggen tjin
rei tsje
ĠVeen ker
ĠFran s
ĠWe stra
Ġfear t
Ġtan imme
ay o
Ġhand haven
Ġferpleech huzen
Ġferrom mingen
Ġeas ket
aai ke
Ġpark oers
Ġynst al
Ġkrit yske
Ġhistoar ysk
ĠYn frastruktuer
Ġgrutsk alige
uch telingen
Ġnoar deasten
Ġmaan dag
Ġsech de
ĠWer eld
Ġred den
Ġreedryd ster
Ġpap ieren
ĠOranje woud
Pro v
Be wenners
stien nen
Ġferrass end
Ġhard drugs
Ġpsych yske
Ġoansl etten
Ar riva
ĠRoe st
ĠÃºtst alling
Ġhoog te
Ġvand aan
Ġwittenskip like
lÃ» ker
Ġkrimin elen
Sp it
Ġappartem int
hou der
ĠFl or
Ġadvis earre
uss ie
ĠWijn stra
Komm ende
Ġbro ek
Ġzieken huizen
Ġstab yl
ĠWÃ¢ld sein
Ġiishocke y
Ġiishocke yers
Ġkaar tsjes
Ġeksper ts
Eigen lijk
Ġopstap pen
Ġspring t
Ġbehannel je
ĠTe ake
Ġoerien komst
Ġhurdfyts er
yg ren
ĠsÃ¢lt winning
ĠMil jeu
Ġynspi raasje
Ġambysje s
Ġkringloop winkel
Ġact iviteiten
Ġment aal
Ġstude arre
Ġbla uwe
Ġoanpass ingen
Ġbos ken
Ġac c
mas ine
ĠSkÃ» tsjes
ĠNation aal
Ġgym n
ĠSeg geren
Ġferskyn de
Ġspesif yk
Ġgoedkeap er
Ġspre ken
Ġmonum inten
Ġfamyljel eden
Ġrealist ysk
ĠMir anda
Ġwaarsch ijnlijk
ĠRad io
Ġsportfers lachjouwer
Ġyntsjin je
Ġmok sels
ĠEis inga
Ġbena dere
ĠIN D
ĠWen je
Ġsake kolleezje
ĠSweed ske
Ġcoronast jer
ĠGemeente belangen
Ġynstit Ãºt
ĠCornel is
Ġner gens
Ġtad racht
Ġsympt omen
Ġflearm Ã»zen
ĠRich ard
ĠHaul er
ikaasjet oernoai
ĠBerlts um
Ġquaranta ine
Ġbinnend oar
mard um
Bovend ien
Ġeksim pl
2 00
3 7
7 00
B oar
B inne
B Ã»ten
C DA
D Ãºts
E F
E Ã©n
F in
H ans
K ok
M uzyk
O ver
O ost
S F
V and
a akt
b a
b Ã»ten
b rÃ»k
b ieders
c if
f ar
g rutte
h on
h aal
h oop
h orst
i straasje
k etten
l us
l jocht
l eiding
m us
n ossen
p ing
p ot
p pel
s on
t he
t oernoai
u ri
z ili
Ġ angst
Ġd rige
er den
in um
Ġf ij
Ġf akt
Ġf ingers
Ġs inten
Ġs ongen
Ġs maak
Ġw jer
Ġw ind
Ġw erstel
Ġm Ã»zen
Ġo gen
Ġb ol
Ġb il
Ġb rekken
at lon
Ġh illi
ch ap
ei er
Ġn i
Ġk ok
Ġk ort
st ar
st utsen
st her
Ġg raf
Ġfan at
Ġt rij
Ġin der
le af
Ã» mb
Ġp uz
re m
re st
re inen
Ġop fallende
li ge
ke uring
ing h
Ġte ory
it or
ter m
ge s
ge meente
or ge
Ġfoar hinne
Ġfoar werp
Ġbe stelling
Ġl ette
Ġl atte
Ġv ij
Ġder de
ear ste
oe ge
oe pen
ĠF K
ĠF UMO
Ġj as
us te
ĠS a
ĠS al
ien ke
ĠÃºt jÃ»n
ĠÃºt riden
id s
id aasje
ĠB le
ĠB ot
ĠB ennie
ĠB ochniewicz
ĠH uzum
we er
un ysje
un iteit
Ġc ultuur
ĠL ut
ĠA ran
ĠA usma
ĠA ukje
Ġpl oeg
Ġsa fol
Ġsk aad
Ġsk od
Ġsk ieden
Ġwie te
Ġhe kt
Ġer uit
ĠW el
ĠW es
ĠW ets
ĠN V
Ġhar kers
Ġr et
Ġr Ã»ten
Ġjier liks
Ġjier wiksel
ef d
ef ter
Ġli s
ĠD u
ĠM ou
ĠM aaike
sk omm
ĠK elder
ĠK atal
ĠK wadrant
ĠG iro
um as
ĠJ on
ĠJ els
ĠV is
ĠV oort
Ġbes iker
ut end
int ig
ĠR eitsma
ĠP rix
ĠT ra
ĠT rek
ĠT ae
ĠÃ»nder fine
ek te
Ġtw illing
sp er
sp ek
sp rek
ĠC al
ĠC BS
Ġhel d
ĠDe enske
ĠDe Wall
Ġmin dere
Ġmin isters
og t
bb els
ig rid
Ġsit ting
Ġon d
Ġfers l
rom p
fe ctie
Ġsl Ã»zen
Ġste ds
fer fier
Ġgemeente bestjoer
Ġbeg roeven
enn isser
Ġver standig
Ġver voer
Ġbet rou
Ġke ep
sj ite
bo el
Ġtri jen
if el
Ġze g
Ġprov insj
Ġmoet ingsp
ske s
Ġhjir mei
Ġef te
ade m
ade mie
ĠI ds
oop t
Ġfl ot
Ġtal ent
Ġtal itten
ĠSt roetinga
ĠSt alenburg
Ġboar ter
Ġein igje
kl achten
ĠMar kt
ĠthÃºs isolaasje
Ġdaar voor
Ġaf sch
Ġtest lokaasjes
Ġ6 3
ĠNoar der
ĠAn ker
br ingen
Ġpr inc
Ġsoarch oan
Ġdoor gaan
Ġ7 4
Ġfle ks
Ġplan tsje
ried ing
ried slid
Ġtoer noaien
Ġho ast
Ġopl osse
pro ef
Ġ8 1
Ġ8 5
Ġ8 6
Ġ8 7
Ġonder zoeken
Ġhop elijk
Ġbep alen
Ġbal len
ĠKN G
ies z
Ġakt iv
all ens
Ġkn ipe
Ã¤ ter
Ġkle ed
Ġvol doen
Fer kear
Ġdu iz
Ġden kt
Ġsnel trein
Ge meenten
ĠAlde mardum
Ġgeh ouden
rekken e
Ġbu ien
Ġleaf hawwers
Ġbeskikber e
Har kemase
Ġpres idint
Ġfraksje s
Ġbelangrij ke
Ġlever jen
alis me
goed ing
Ġtelefyzje programma
Ġwinter stop
iz zers
Ġopp akke
Ġsubsydzje s
Ġstoar t
weg ingen
weg ings
Ġbelangrijk ste
Ġeas k
Ġynst allaasje
Ġlea uwe
Ġbosk jes
Ġbewe gen
ijf f
lÃª ze
Ġat let
Ġoerli zze
Ġpass end
Ġferdigen ing
ĠSw eden
Ġynveste arring
ĠHa hn
her ne
Ġregear ing
ĠHel linga
Ġfracht weinen
Ġoers etting
Ġparkear terrein
ĠHam ar
Ġdjip te
ĠMan kes
Ġoansp rutsen
Ġopt ie
Ġpopul aasje
Ġstrukt urele
Ġgebru ikt
Ġopkn appen
Ġwittenskip pers
lÃ» ke
Ġseks uele
Ġbeli bbe
hou ders
Ġtwiv el
ĠOoster man
Ġboarger ynf
Ġferm ist
Ġmuzik ale
Ġker rels
ĠEx cels
Ġkwalif ikaasje
Ġsoarchyn stelling
Ġfoarsjen ningen
Ġyntins ive
Ke amer
Ġricht lijnen
Ġkandid aten
ĠJe ugd
ĠAnton ius
Kl aas
ĠGa ast
Ġkal inder
Ġautomobili sten
Ġferfang er
Ġsloop t
Ġhaadklasse partij
Ġuniversiteit en
Ġkontrolear jen
ĠKomm issaris
Ġfernij ing
Ġkonf ron
atist a
Ġferle egjen
Ġbasketbal lers
Ġtap ast
Ġvoorber eid
ĠRut ger
buor den
Ġkad o
ĠferdÃ» bel
Heal wei
ĠKamp ioen
Ġfla ters
Ġaksjefier ders
Ġoplever e
Ġvolle dig
ĠBang ma
ĠHim elf
Ġfavori te
ĠTwizel erheide
Ġonge veer
fet amine
Ġoanwi zingen
Fly lÃ¢n
Ġkateg ory
ĠbeÃ¤ n
Ġatt raksje
ĠPau lissen
ĠIl se
Ġwette roer
ĠRea hÃ»s
ĠJohann a
Ġheite lÃ¢n
ĠInst agram
ĠOeris el
Techn ysk
grys lik
Ġnear ne
alken a
ĠTwe ede
Ġhaadfert ochte
ĠkontrÃ´ les
ĠHauler wyk
Ġinder daad
Ã»mb a
Ġsafol ste
Ġprovinsj aal
ĠExcels ior
! '<|
0 58
4 3
6 8
B et
B ou
H of
I epen
J ustysje
K ore
P eter
R o
S jinkie
T we
U it
V C
W ichtich
Z oo
a Zoo
b ra
b ant
b Ãªden
b ureau
d an
f li
g rij
h Ã»
h um
i q
i at
i anne
i aanske
k risis
l ong
l Ãªste
m i
o ant
p ad
p ma
p es
p ast
r Ã´le
s ers
s wim
t ze
t inte
t iten
v isie
w ap
w ietske
y ber
z y
z ijn
Ġd Ãºn
Ġd onder
er ke
in ess
an im
an tsjes
ar jende
ar beid
Ġf oer
Ġf Ãºzje
Ġf atsoen
Ġw c
Ġm ylde
Ġm unysje
Ġo erste
Ġo seaan
Ġh um
Ġh inder
Ġh Ã»nen
ch a
Ġk aai
Ġk orte
st an
st ranten
Ġg ang
al ys
Ġfan d
Ġt rekken
Ġt ennis
Ġin druk
Ġyn folle
Ġyn helle
Ġyn stellings
ro epen
ri en
ri jen
Ġe chter
Ġe vak
Ġp in
Ġp un
ne e
Ġte in
Ġte gels
de s
Ãª res
Ġmei koarten
ie ken
ge ast
ge ul
Ġfoar men
Ġbe hÃ¢lde
Ġl uis
jo ut
Ġv oet
Ġv roeger
Ġder achter
Ġoan wiisd
ys jer
aar de
Ġfer lo
Ġfer gelyk
ier ders
ear ch
Ġst ront
ĠF eenstra
il er
il dere
ĠS el
ĠS yl
ĠS leat
Ġoer w
Ġoer nacht
Ġse alen
Ġmar kt
aan sk
ĠÃºt komsten
ĠB ear
ĠB est
ĠB oarn
ĠB ies
ĠB rit
ok t
ok io
gel ijke
un g
un ing
un ter
Ġre chter
Ġre anim
Ġc laim
ĠL oek
ĠA z
ron gen
Ġsk am
Ġsk atten
Ġsk ynt
ĠÃ´f makke
ĠÃ´f kundige
ĠÃ´f fierd
ĠW urk
ĠW hats
ĠW assink
ĠN iger
ĠN ico
ĠN ygren
Ġsp ier
Ġhar kje
Ġr are
ĠD ylan
ant ine
ĠM at
ĠM ans
Ġik oan
ĠK ei
ĠK rante
and ant
oor ten
ĠG en
ĠG or
Ġkri m
ĠJ es
ĠJ onk
ĠJ ess
ĠJ aarsma
ĠJ opie
men iÃ«
Ġwaar nimmend
ĠR oan
ĠR uurd
ĠP en
ĠP as
ĠP iersma
ul der
ag ina
ĠT r
ĠT okio
ĠÃ»nder d
ĠÃ»nder wi
oan je
oan fal
sp ile
sp esj
ĠC ultuur
os int
Ġmak kers
ĠDe inum
eid zje
bb ers
se vic
Ġien fÃ¢ld
ĠO d
be per
be urt
Ġber te
Ġa telier
fer wÃ»ne
Ġbeg repen
Ġne am
enn y
Ġel linde
Ġver len
Ġver stand
Ġbet ra
ist oris
Ġwel kom
Al teast
Ġsels stann
Ġze s
Ġbo od
Ġsjo g
skip per
Foar ich
Ġ5 3
Ġwetter sport
ĠbrÃ¢n brief
Ġorganis ator
ĠÃ»nt fang
Ġra am
fier e
wer da
Ġzo ver
Ġein tsje
sit ten
pl uss
Ġgen Ãª
kel ijker
Ġsw alk
Ġtak s
Ġtak end
Ġlyts sk
ss ens
ĠÃºts laggen
Ġdaar in
use ktor
ic ket
ion aal
Ġrjocht en
Ġpre st
Ġpre dat
Ġwas kje
Ġ7 8
Ġrom an
Ġkolle ktyf
Ã¢ns wert
Ġmom ente
Ġbl omme
Ġtiisdei temiddei
Ġgel ukt
Ġske el
Ġfuotbal feriening
Ġper man
ĠU WV
Ġbetsjut ting
ĠAr beid
wurd fierder
ĠhÃºs lik
Ġonder deel
Ġhear lik
ĠGrins lanner
ĠIn ternation
Ġ9 9
Ġspesj alist
Ġswier ferwÃ»ne
Ġferk Ã¢lden
erd yk
Ġtel ler
Ġsm oar
Ġjun i
fre on
Ġstim den
Ġ14 0
str yd
Ġfeilich heids
Ġhaad spons
Ġyns joch
Ġferskil lend
Ġprod uc
ĠHo reca
ĠAlde holt
Ġsok ken
Ġgeh aald
Ġmogelijk heid
bes l
Ġcont role
ĠrÃ»te s
aur ant
St udinten
ue es
ĠÃ»ntwikkel jen
ĠÃ»ntwikkel ings
Ġstek ynsidint
Ġrisik ogroep
Har ry
Ġmidden yn
stap pen
ov id
Ġstien m
Ġtelefoan tsjes
ĠBru ins
Ġskoar t
oster t
bl om
bl Ãªden
ĠHol t
Ġferfier d
Ġferpleech hÃ»s
Ġken ink
Ġfoars joen
ĠSy b
Ġstikstof Ãºtstjit
Ġfertsjin jen
ĠstÃ¢n byld
Ġfis ken
Voor al
Ġspe cif
Ġlast ige
ĠRot t
ĠYn d
ĠGri kelÃ¢n
Ġhuis arts
Ġkwets bare
kri gen
Ġoefen je
Ġoefen ingen
Ġhann ele
Ġgar nal
Ġbru ts
eij zer
ĠRyks universiteit
ĠFre ark
Ġch at
ĠÃ»nts p
Ġkonst ruksje
ĠBl oem
Ġteloar stellend
ĠTsj Ã»ke
ĠMan agement
Ġbestjoers leden
Ġfee sten
Ġbeker finale
Sp esj
Ġskilder ijen
Ġstip ep
Ġverb onden
kan ker
ĠRoo sje
Ġferm iste
Ġferm oarde
Ġskou boarch
Ġynsk reaun
ĠMid den
Ġboaiem delgong
bet oan
Ġcomp etitie
ĠFro ukje
ĠGo aiÃ¯n
Ġoardelmeter regel
ĠBij ma
Ġbeper kt
elden rust
Ġferhe ging
Ġheft ich
Ġsted hÃ»s
gelegen heden
ikte e
ĠfakbÃ»n en
ĠPar ys
Ġvri enden
ĠSu der
Ġprote sten
Ġsjon gen
Ġeksploit aasje
wies a
Ġren ov
Ġprofite arje
ĠFier ljep
Ġstimulear jen
betel je
abri ken
Ġmax im
ĠKenink ryk
ĠbeÃ« in
Daarna ast
Ġverspr eiding
Ef kes
ĠMitchel l
Ġtafal lich
Ġfiet sen
ĠMet z
Ġdistri bÃºsje
Ġfinansier ing
Ġdisc ussie
Gri enLinks
Ġsco ot
ĠSo ciaal
Ġliken se
Ġtribu ne
Ġfari ant
ĠIJs sel
Ġdonker e
irc ul
ĠHas ker
oth eker
Ġunan ym
lasse mint
ĠBi os
looster man
Ġmuoi lik
ĠSlachtemar aton
ĠSkarster brÃªge
Prov insjale
ĠTae ke
Ġwetteroer lÃªst
Ġmomente el
ĠTsjÃ»ke mar
' '
5 6
B oer
B rok
B liuw
F C
F ol
F NP
H oop
K n
K negt
L M
N N
P ost
P aul
R ail
S j
S eis
W im
W urk
a o
a ver
a ille
b an
b ak
b lok
h i
h olle
h aske
i fer
i oene
m ende
n od
o uw
r ende
s c
s jerke
v olle
v lak
y er
y ke
z ine
Ġd j
Ġd unen
Ġd aalks
er kt
in x
an u
an aal
Ġde aslach
Ġw alf
Ġw ww
Ġo ade
Ġb ril
Ġb aalt
Ġh eide
Ġh Ã»d
et sje
Ġn amelijk
el Ã¢n
el ingen
Ġk lik
Ġk opp
Ġk etting
st aal
st ruksje
je cten
Ġg ig
Ġg ienen
Ġfan Ã´f
Ġt rop
Ġt uin
Ġin ter
Ġin teress
Ġin iti
Ġis o
Ġp orte
Ġop makke
ke at
ed ysje
ne g
ne y
Ġte foaren
it a
De finsje
ge zet
Ġfoar dielen
is ip
Ġom loop
Ġl ink
Ġl ud
Ġl jochte
Ġv is
Ġv lak
Ġv wo
Ġoan kl
Ġoan mel
Ġoan fierder
Ġoan riden
Ġoan besteging
Ġge sin
Ġmo eder
Ġj Ã»nt
den ing
den burg
us sel
ĠS c
ĠS i
ĠS jo
ĠS eel
ĠS oepboer
ĠS ytze
Ġby dragen
ad res
ien komst
Ġoer name
Ġoer deis
me enschap
Ġnei jier
Ġnei sjoen
Ġha al
Ġse ctor
Ã´ ne
ĠÃ»n gel
ĠB ram
ĠH aar
ĠH oll
ĠH joed
ĠH essel
ĠH ayo
gel e
un ic
Ġre der
ĠL ucas
ĠA N
Ġpl aten
Ġsk el
Ġsk uor
Ġsk oaren
Ġsk roeven
ĠÃ´f l
ap ier
Ġer f
ĠW ep
ĠW Ã¢nswert
Ġdo ed
Ġtroch jÃ»n
Ġsp ont
Ġoar sprong
ĠM ors
ĠM KB
ĠM att
ĠM ostert
sk undigen
ĠK at
ĠK am
ĠK ru
ĠG outum
ĠJ ar
ĠV elt
ĠV liel
int ra
ast ing
ĠR itsma
Ġear moed
Ġear betoan
Ġle an
Ġwi erskynlik
af f
af fe
af ond
Ġhiel titen
Ġgoed kard
tel jen
ĠT V
ĠT il
ĠT ek
ĠT Ã»mba
ĠÃ»nder brocht
ĠÃ»nder werpen
ou cher
Ġtw atal
Ġtw intig
ĠC ard
ĠC nossen
ĠE ise
ig h
ig ings
yl den
Ġkl oppet
Ġhoe ch
Ġwurk wize
Ġa vent
Ġei sen
Ġne amen
Ġmet oade
ate s
Ġver n
Ġver be
ist oal
Ġke as
inn ende
Ġgew one
Ġgew erkt
nim ming
if t
met aal
Ġze ven
amb issa
Ġbo om
Ġgeb racht
Ġgeb ieden
Ġfertel den
Ġskoal koepel
ket en
Foar ige
Ġ5 000
Ġkan sen
wer ter
sl oten
Ġdoarp ke
ĠthÃºs wurkje
ĠthÃºs soarch
mei wurker
ĠJong sma
ĠÃºts et
ĠÃºts ykje
Ġdaar bij
ĠHar inx
ft al
Ġtest strjitte
ĠSch okker
Ġ6 7
atie ve
ĠAn ke
ĠAn gel
Ġgr inzen
ĠbÃ»ten gebiet
ene ma
Ã© t
Ġter p
Ġmoandei s
Ġfak Ã¢nsjes
Ġdoor ge
ass ist
ĠSte fan
ĠSte enstra
Ġ7 2
sint ator
Ġgear f
Ġmom enten
Ġro u
Ġro er
Ġ202 3
Ġlear aren
ĠSp arta
Ġmed al
ĠSnits wike
ĠGr yn
ks yg
ct ies
Ġfuotbal klups
Ġtoer ist
Ġstil le
ĠAr chief
Ġsport ive
Ġsport ferieningen
Ġpub like
Ġpe allen
Ġoanp asse
Ġopn amen
Ġopn ieuw
Ġwyl d
Ġbasis Ã»nderwiis
Ġtaf fel
Ġdra aid
Ġteam lieder
min ister
ĠGe orge
Ġdruk ke
bed rach
oet endal
str jitwei
iden t
Ġdu pe
ĠAmsterdam mer
Ġont mo
Ġar che
ĠKeamer ferkie
Ge ert
Ġsane amd
Ġgeh iel
insj ele
Ġak sept
Ġak kommod
Ġple ksyg
ĠdÃ» k
ĠdÃ» kt
Ġun if
Ġtar iede
Ġmeast al
Ġferli est
ui zen
An ders
Ġkli m
ĠwarskÃ´ gje
Ġgas fjilden
ingst iden
ĠWe vers
Ġdemon stranten
Ġtro ud
rap port
Ġsoan tsje
Ġhand ich
ĠHol lÃ¢n
Ġ194 4
Ġmer kt
Ġken teken
Ġ75 0
ĠÃ© cht
OD C
Ġspit igernÃ´ch
Ġger aakt
gri d
Ġspe ed
ĠYn lÃ¢nske
Ġsle chte
joern alist
uld ige
Ġmotor rider
aliÃ« n
ĠHer mans
Ġkuier jen
Ġkuier tocht
ĠSw im
Ġmins k
ĠSur in
enL even
Ġtrochs ette
Ġronde s
rouw ens
Ġskjin makke
Ġbesch erm
Ġrit ten
Ġstu ts
ĠentÃ»sj asme
Ġkof f
Ġopsk aald
ĠBl au
ĠBl ack
ĠbÃ» se
ĠWil kens
Ġcontact onderzoek
ĠÃ»nderdÃ» kt
ĠÃ´fwacht ing
Ġreserv es
bar ren
Ġpan ielen
Ġverb ind
ĠkliÃ¯n te
ĠTer herne
ĠKn ipe
Ġarbeid s
ĠSteate fraksje
Ġferplicht ing
fis kerij
ĠMel les
Ġfersoargings hÃ»zen
Ġoph ongen
Ġeksplo azje
Ġabsol uut
Som tiden
Ġsjoern alisten
duk ten
ĠHend riks
Ġnood zak
Ġ197 0
Ġdram atysk
Ġontwikkel en
ĠPo iesz
Ġfil me
ĠTs jerken
Ġsteate leden
hoe ve
Ġfrjem de
ĠPoal ske
Ġynfol je
Ġmilit Ãªre
Ġliter atuer
Ġdirek te
ĠÃ»nfer wachte
monum inten
Ġsul veren
rinn ende
Ġbewar jen
dder us
ĠNieuw poort
oger man
Ġdead like
ĠGelder lÃ¢n
88 44
gewoan e
ĠWei ssens
Ġren tree
Ġfok us
ĠferwÃ»n ingen
Ġstimulear je
ĠAc ute
Ġcre Ã«
ĠRi xt
ĠferdÃ» bele
ĠÃ»nwiss ens
Ġfotog raaf
Ġtele ur
iepen ing
Ġkuorbal lers
Ġaud i
Ġfysio terapeut
Ġyngri pe
ĠStelling werf
Ġwoar tels
Ġskrift like
ĠLou ise
Ġhoarekas aken
Ġmelkfee hÃ¢lders
Ġkonsint raasje
Ġfergun ningen
ĠFili p
Ġplom fee
ĠSchuur man
ĠRis pens
ĠAqu aZoo
bless uere
Ġtil lefoan
Ġtos ke
Ġynstal learre
ĠWets us
Ġmoetingsp lak
Ġprinc ipe
ĠKNG U
Ġboargerynf iltrant
pluss ers
ĠjÃ»nt iid
ĠWep eren
Ġpleksyg lÃªs
ĠWeissens ee
- ,
4 1
A pp
B ro
B akker
B rÃ¢n
D ichter
D oarps
E ven
F a
F e
F uort
K ar
L DODK
M Ã¼hren
N atuer
O ns
P ODC
S P
S oe
S Ãºd
S okke
T och
T hÃºs
V eilig
b ach
b ork
c te
c ro
c ed
c ola
f Ãº
f ort
f ynt
g ast
g jende
k a
k andid
l open
m ed
m annen
m bo
m ond
n sen
n ijs
n ota
o ate
p end
p assen
s etten
t oer
u x
u vel
u rig
v Ã©
v inden
w al
w earde
Ġ rug
en ken
en heid
en ario
in yk
ar den
ar ium
Ġf inger
Ġs mer
Ġs wurd
Ġde finsje
Ġw ijk
Ġw Ã³
Ġm bÃ»
Ġb Ãªden
Ġh ong
et ra
et arium
Ġn on
Ġn aden
Ġk ol
st sjinst
st udinten
Ġg re
Ġg ram
Ġt bs
Ġt onger
Ġyn sl
Ġen oarm
Ġe am
Ġe ink
Ã» p
Ġop vang
Ġop lichting
li gen
li ver
ne ss
Ġte e
ol ling
ak ers
Ġmei st
Ġmei meitsje
ge gevens
Ġfoar sk
Ġfoar fal
Ġfoar doar
Ġfoar ljochting
Ġfoar gonger
Ġbe helle
is ca
Ġom lizzende
Ġl je
Ġl Ãºster
Ġoan keap
Ġoan geande
Ġnet ten
Ġal teast
Ġfer zje
Ġno t
ier e
ear e
ear jende
Ġst ij
Ġst rate
ĠF ed
ĠF oeke
ĠF alkena
Ġj uli
Ġj anu
ĠS her
ĠS Ãºdeast
Ġoer flak
Ġz on
ĠÃºt kaam
ĠÃºt feart
ĠB innen
ĠB atista
ĠB ogerman
rys k
ĠH ou
we agen
un sters
Ġre delijk
Ġc or
ĠL ok
ĠL ive
ĠL eiden
ĠL ange
ren e
ren zen
ĠA us
ĠA ut
ĠA ko
Ġsa wiesa
Ġsk uon
ĠÃ´f lever
ĠÃ´f dielingen
ap le
Ġer in
ĠW illi
ik els
ik robiolooch
ĠN EC
ĠN ienke
Ġsp yt
ef stra
Ġli ever
ĠD ol
ĠD om
ĠD iks
ĠD issel
ant gum
ĠM c
ĠM al
ĠM ag
ĠM eld
ĠM ees
ĠM ilieu
ĠM oarre
sk ou
ĠK unst
ĠK inder
ĠK limaat
ĠK loosterman
ĠG oud
ĠG aliÃ«n
ir ns
ĠJ ust
ĠJ ud
ĠJ onker
ĠV ak
ĠV oedsel
ĠV itens
Ġme ub
Ġbes ef
ut ta
ĠR yp
ĠR uss
ot lÃ¢n
ot anus
ĠP an
ĠP raag
tel aar
ĠT ot
ĠT ess
zen ga
ĠÃ»nder hannel
ĠC allens
os o
ber ne
ĠE sther
olle ezje
eder atie
Ġri vier
Ġfers lein
ĠO ud
ĠO ude
We st
pe kt
fe er
Ġwurk gelegenheid
Ġoant aast
Ġdie p
Ġber ch
Ġber oep
fer g
Ġbeg on
Ġei lanners
Ġbed ra
stel l
Ġver boden
Ġver geten
Ġbel let
Ãºt stjoering
Ġtri ed
Ġ3 50
Ġgro eide
ab ed
ab on
amp ing
Ġlyk spul
Ġiepen ingstiden
Ġmoet sje
Ġgeb eld
Ġpers onen
Ġkear e
Ġbest im
land se
Ġor de
lij ker
ket ing
ent ie
Ġwerom komme
ĠI erlÃ¢n
wenn ing
ĠÃ»nt ken
ĠSt ok
Ġferh Ã»
Ġjild ende
ĠIt al
Ġzo wel
Ġbedriuw eter
lear ring
sl uit
Ġfuort fallen
od ium
pl oegen
Ġ4 50
Ġcorona gefallen
ĠMar inus
Ġ201 0
Ġsw om
Ġpas sy
Ġfam ili
ĠÃºts ocht
ĠNoar wegen
Ġgr eiden
Ġpre em
Ġwen hÃ»s
Ġpo Ã«
Ġsch oon
ĠSk otlÃ¢n
Ġsn ie
Ġsyk aksje
ĠSp aanske
di ken
ĠGr Ã»n
Ġfyts paden
Ġnatuer like
tte ma
Ġdiel name
Ġferoar saak
Ġefter grÃ»n
Ġpar ad
Ġpar kearre
ĠrÃ»n te
Ġblij f
ho us
ho tel
Ġwin ters
Ġide ale
Ġbep pes
Ġwit st
lo it
fin ing
ĠGro enLinks
Ġtaf alt
Ġ9 00
Ġ18 0
Ġswier der
Ġboek ingen
Ġmuz iek
ĠGe bben
Ġres er
Ġble ek
ses je
Ġpersint aazje
ĠLe o
akker buorren
Ġ17 0
wa ele
Ġtoe ge
Ġ200 1
Ã¯ teit
Ġprakt iken
ĠGer ald
Ġfern ijd
ĠAlde haske
Ġgeh ei
Ġdoarps bewenners
Ġkompetysje s
wen te
Ġbi ologyske
Ġferli enen
Ġ0 800
Ġfar sk
Ġsin tsje
Ġkryst fakÃ¢nsje
Ġboe kt
Ġtan ommen
Ġ194 0
Ġsocht en
ĠSport cast
Ġkap ot
Ġkwyt rekke
Ġdyn am
Ġynst rum
ĠstÃ¢n punt
Ġreiz ge
gri cola
Ġstjer re
ĠRot te
Ġflecht en
Ġtank jen
Ġhanthaven e
val id
Ġbre a
ĠKollum ers
nel heid
Ġtrochs ocht
Ġfjoerwurk ferbod
Ġoers et
Ġverd riet
Ġeks amens
Ġferbetter ing
Ġkons erten
Ġadvok aten
Ġvrij willigers
ĠWester bork
ĠJoad sk
onker ak
bus ke
Ġkommissaris sen
wink els
Ġhou ts
Ġlog isch
ĠNoor den
Ġblyk ber
ĠBra zili
Ġdjoer e
bu ien
Ġminst ens
ĠynhÃ¢ld like
Ġfold ogge
Ġree Ã«n
ĠWijn ia
Ġpromov earret
Ġaange geven
Ġwinn ende
nimm ende
Ġcoach es
mate ri
Ġgener aasjes
Ġfergoed e
Ġspel er
cl us
cher ming
Ġkurs ussen
ĠKuip er
Bo sk
Ġperspe ctief
ĠAnton ia
Ġoertr Ãªd
ĠScheep vaart
ĠÃ»ndersyks buro
Ġfinzenis straf
Jong erein
Ġtur nsters
Ġpyk jes
Ġlief st
rinn end
Ġoansk erpe
Ġboatsje minsken
ĠBau kje
Ġbesoar ge
DÃª roer
Ġsus ke
Ġynge wikkel
ĠÃºtb rekken
ĠOs inga
Ġgevaar lijk
Tsien tallen
ĠRut h
ĠmÃ»le kapkes
Ġomsk riuwt
Ġwyt was
splak ken
Ġspesif ike
Ġferling ing
Ġfleu rich
ĠAlvestÃªde hal
ĠEd win
ĠFriez inne
Ġeksperim int
Af rika
ĠChampion s
ĠChampion ship
Ġylleg aal
Ġemoasje s
inu Ã¯teit
ĠDre sevic
ĠVel linga
ĠAndre ae
ĠLandbouw museum
Ġynbrek kers
ĠFol ker
ĠHeid a
Ġerken ning
ĠÃ»nderfre gen
Ġup date
Ġseld sume
Ġkep pele
Ġmanifest aasje
Ġklimaatferoar ing
Ġgerjocht sh
ĠJoch em
Ġwerklik heid
ĠBasketbal l
weinsj auffeur
Ġearre barren
Ġdolf yn
Ġynfeksjesyk ten
Ġgran ul
ĠAal dering
ĠKet lik
Ġwyke inen
Ġbehoor lijk
ĠNacht wacht
ĠJanne wietske
Ġlesj aan
ĠZui der
Ġcoronastjer gefallen
sjite kt
hum us
iq ue
wap ens
ĠJess ica
Ġbood schap
Ġhaadspons or
besl Ãºt
Ġgig ant
ĠSeel Ã¢n
ĠCard oso
Ġmedal jes
PODC AST
ĠwÃ³ l
3 00
4 7
5 9
9 1
C ar
D ok
F ak
F lak
H Ã¢ld
H urd
H okker
J et
K an
L ike
L ytse
O NS
S tel
S uzanne
V ID
V isma
W ink
a er
b ol
b ers
b rig
c am
c onfer
f i
f de
f la
g al
g raaf
h urd
h ande
i end
i ip
j alen
k op
k king
l op
n d
n r
n ed
n ammen
p ende
r jitte
r asse
s upporters
t h
t in
u v
u es
u earre
v elf
v alt
w yn
w ed
w ille
w alif
y ck
z endal
Ġ Ik
Ġ yt
Ġd aad
Ġd achten
Ġd rukt
in ters
an ley
end a
ar yske
Ġf ig
Ġs ho
Ġw o
Ġw oord
Ġw aait
Ġo cht
Ġb aar
Ġb aal
el ix
Ġk ent
Ġk orpsen
Ġk azerne
yn stit
st ring
st room
Ġg it
al ch
al it
Ġt Ã»k
Ġin woners
Ġyn w
Ġyn keap
Ġyn brutsen
ri a
ri se
ri tsma
ri teiten
le et
Ġop ste
Ġop arbeid
ke azen
ne el
Ġte gem
as ium
it ze
ak te
ak elje
Ġmei hel
om mel
ge steld
Ġfoar oan
Ġfoar stanner
Ġom ride
Ġom standigheden
ij er
Ġl okkich
jo ersk
Ġv ele
Ġv oren
Ġv ieren
Ġv lieg
Ġoan gean
Ġoan komme
Ġoan komt
Ġge p
Ġfer fierder
Ġfer falle
Ġfer fangen
oe fen
Ġst rop
Ġst ate
Ġst azj
Ġst okje
ĠF Ã»ns
il ers
gen ie
ĠS li
ĠS ambissa
ad ia
Ġoer fallen
Ġoer bliuwe
Ġoer lange
im a
im en
me s
ste in
ste kken
lÃ¢n bou
Ġwe gen
Ġz ingen
Ġz onne
Ġz aterdag
ĠÃ»n gem
ĠB ril
ĠH y
ĠH ek
Ġre zjy
ĠFrys lan
ĠL am
ĠL es
ĠL iss
ĠL ee
ĠL ucht
ĠL ars
ĠL etitia
Ã´f stÃ¢n
Ã´f dielingen
ĠA b
ĠA rie
es je
Ġpl ei
Ġpl afond
Ġsk at
Ġsk uorren
ĠÃ´f komst
ĠÃ´f nimme
Ġhe ak
ap el
ĠW aal
ĠW ind
ik ing
ĠN u
ĠN oflik
Ġsp rieding
Ġhar te
Ġr end
Ġr ele
ef rij
ĠD yk
Ġvan avond
ant inga
ĠM ech
Ġpro ces
ĠK la
ĠK eijzer
ĠG ouden
ĠG iovanni
um mer
ĠJ anneke
ĠV est
men ga
ast ic
ĠR in
ĠR ien
ĠR and
ĠR ub
Ġle zen
Ġle eg
Ġle vert
aat sen
ĠP ap
ĠP ee
ĠP ein
ĠP RO
ĠP odium
ul Ãªr
Ġso uder
ag roep
ag inda
ĠT erk
ĠT ransport
ĠÃ»nder hÃ¢lden
Ġtw ijf
Ġdi lem
ĠC ru
ĠC omm
Ġhel len
ĠE va
ver len
Ġri d
ĠO t
pe al
pe tear
Ġsl uit
Ġsl oep
Ġtsjin je
Ġman ee
Ġtwa hÃ»ndert
Ġa ctief
Ġbeg ro
Ġbeg raf
Ġel ftal
stri pe
Ġver v
Ġver plicht
au ne
ist ike
Ġke uring
Ġgro tere
ab ylden
Ġbo vend
Ġben zine
Ġpers confer
ai den
est iids
skip pers
foar stel
Ġbij en
Ġef fis
bal l
ade ma
Ġfl eis
Ġauto riteiten
Ġkan alen
Ġra ces
Ġzo on
Ġein stÃ¢n
Ġfuort gean
Ġgen ieten
Ġkoe pel
ĠMar rum
ĠMar tens
jier rigen
Ġap ps
wei j
Ġtak sy
Ġaf v
Ġaf wachten
Ġ6 2
Ġ6 8
sch e
ĠAn gels
Ġferb li
ark ten
Ġferw aar
Ġfle anen
Ġreg isseur
Ġsn o
bel eid
Ġro ei
Ġbl o
Ġkomp li
aas jer
ĠhÃ»s ke
Ġdiel s
Ġopl ossen
Ġtsjer k
Ġynf rastruktuer
Ġstap ke
Ġstap ten
Ġhear e
Ġkab els
Ġsup porter
Ġgev allen
Ġboppe ste
ĠBo om
ĠIn spectie
Ġheech learaar
aag d
ĠsÃ¢n winning
Ġspesj alisten
ĠKe uken
Ġdra acht
Ġdra ag
Ġakt uele
rik king
Ġtel d
Ġtel len
Ġamb acht
Ġbot st
Ġprojekt Ã»ntwikkel
Ġgez amen
Ġstim de
Ġsel skip
Ġkle ure
Daar mee
fear ten
Ġopr jocht
res ult
Ġzich zelf
Ġkr Ãº
ĠAmsterdam ske
Ġreed rider
Ġmem metaal
stre ffer
Ġprod u
Ġar ts
ĠGer brandy
Ġgeh oar
zoek ers
bes cherming
Ġops ette
Ġevenem inte
ĠÃ´fsl uten
Ġspor ts
baar heid
ĠdÃ» se
Ġwiis de
Ġferwacht ingen
ui gen
Har ns
Ġboat sjes
Ġfraksje foarsitters
Ġbelangrij ker
Ġbuor kjen
Ġag ress
Ġenerzj yne
ĠWe sten
Ġcoronat ijd
bl aasd
Ġferrom jen
Ġmiddel ber
Ġspul len
ras y
Hjir troch
Ġlea uwen
ĠlÃ¢nbou grÃ»n
Ġbegryp lik
Ġtank ber
Ġhann els
Ġrein wetter
jus tere
Ġbak ken
Ġneg atief
Ġou der
ĠsÃ»nens soarch
ĠSw art
Ġent hous
beste an
po lit
Ġch ip
Ġverd ed
bos ch
Ġeks akt
Ġbefrij ings
Ġdjip pe
Ġfernim men
Ġmeid ien
Ġsc enario
Ġoansp iel
ĠEn gels
ĠJacob i
Ġpsych olooch
Ġopt imaal
Ġoansl uting
Ġwr eidzjen
ants ke
ĠRoe meniÃ«
ĠJor ritsma
Ġwittenskip lik
lÃ» ken
Ġbren gt
Ġpil oat
Ġreserv earje
ĠSij be
Ġgesicht en
Ġdicht bij
Ġkwe a
Ġreagear ret
Ġwier heid
Ġgesk ikte
ĠHyl ke
Ġ198 5
ĠTj alling
fee sten
Ġskou der
ĠUn der
Ġfersoargings huzen
Ġklein ere
ĠJap anner
ĠPeter sen
Ġsoci aal
proble matyk
ĠWagen borg
Ġoprom jen
ĠTs jerke
ĠBar cel
Ġgesch iedenis
ĠFle dderus
best imming
Ġtanim mende
Ġaai wyt
Ġfernu ver
Ġsechst ich
Ġbon ken
ĠCo hen
Th omas
Ġbio diversiteit
Ġhoor de
Ġferfang ing
Ġopmerk lik
Ġreportaazje s
Ġskrik ke
Ġkonf likt
Ġerv aren
Ġoarspron klike
ĠBeek man
Ġhom o
Ġnomin earre
Ġeksploit ant
Ġloc aties
Ġfra ude
Ġbeoar diel
ĠLo de
Ġfeangreide gebiet
ĠOost stellingwerf
Ġbestimming splan
ĠÃ»ntble ate
Hel p
ĠRi anne
Ġduur zaam
ĠDrent he
skied nis
Ġpu tsjes
Ġfamyljel id
Ġynstjoer ingen
Ġzwe m
Ġzwe mmen
Ġpeaske wykein
ĠfoarÃ´f geand
Ġla ach
ĠJuli an
Ġanon ym
ĠWou ter
ĠTuin stra
eksp loit
bliuw t
Ġdeta ils
ĠÃ»nbe gryp
kor por
Ġjud oka
Ġbehand eling
Ġynvestear ringen
ĠDel ft
Ġtahe akke
Ġoantrek lik
Ġep ide
ĠRoos en
Ġlaboratoar ium
wit z
Ġsecht jin
mom int
Ġdemok r
Ġkites ur
Ġpartikuli eren
ĠHerberg ier
Ġpakes izzer
Reed ryd
Ġike proses
rof oan
Ġzul ke
ĠHeij n
Ġelektrisiteit s
Ġdor ps
Ġwid do
Ġflechtling ek
ĠTjongers kÃ¢ns
ĠEel ke
Ġperfe kt
Ġgezel lig
Adv okaat
Ġcrowdfund ings
Ġdiag noaze
Ġbemannings leden
ĠModder gat
Ġtrien nen
Ġadvert insje
Ġfraachteken s
Ġiishockey hal
skomm isje
Ġefte roan
ĠbeÃ¤n twurd
ĠPen jum
ĠRott um
Ġgarnal ef
Ġscoot mobyl
Ġdoed estiids
ĠTek sel
Ġunif oarm
Ġeink lassemint
Ġjanu ari
ĠAko y
ĠTot ilas
Ġpreem je
ĠKollumers weach
Ġwytwas kjen
Ġtegem oet
ĠBril stra
ĠLiss abon
ĠTerk aple
Ġdilem ma
ĠBarcel ona
Ġikeproses jer
0 9
3 6
5 1
5 4
5 7
6 2
8 2
A Z
B re
B ru
B oo
C o
D oeksen
D utch
E cht
E urop
G ert
G rins
I ts
J abik
K a
K u
K inne
K leinhuis
M ich
M art
N L
P o
P lus
R ied
S immer
S ander
S melling
S wimbad
T L
W O
Z P
b lij
b anen
d Ã¨re
f ra
f irus
f rije
f ormaasje
g ongen
h ar
h et
h eit
h agen
h ors
i ri
i ara
k aar
k aan
k ingen
k oop
k ultuer
k achel
l jen
l aag
l jus
m ot
o bbe
p apier
r aktyk
s al
s yk
s ifers
v ings
v ige
w agen
y z
z p
Ġ Ã³
te ek
te erd
Ġd Ã©
an ke
an ager
an ijs
Ġf us
Ġf rag
Ġs Ãº
Ġs inn
Ġs ub
Ġs ervice
Ġde eg
Ġde ask
Ġi el
Ġi uwen
Ġo og
Ġo vert
at iÃ«nten
Ġh on
Ġh erk
Ġh innen
et iid
ei ke
Ġn achten
Ġk ei
Ġk oal
Ġk ite
Ġk Ã¢lde
Ġg af
Ġg rij
Ġg rypt
Ġg iele
Ġg eiten
Ġg aler
Ġg renzen
Ġt yk
Ġt oet
Ġin te
Ġin sp
Ġyn klusyf
oar ing
oar der
oar dielen
ri aan
Ã» ch
Ã» kt
Ã» tsje
Ġp ed
Ġp Ã»l
Ġp itt
re am
Ġop gel
Ġop holden
Ġop jaan
Ġop roep
li Ã«n
Ġdat afer
as ho
ol den
ol pen
ol king
ol anda
it ting
Ġmei t
om een
ge komen
or ten
Ġbe tere
Ġom ske
Ġl Ãºk
jo ggen
Ġv re
Ġv uur
Ġv onden
Ġv lag
Ġv oucher
ra y
ra ce
Ġoan nimmer
Ġoan slach
Ġoan naam
Ġoan rekking
ys Ã»nder
Ġge ko
Ġfer wurkjen
ts ter
Ġj ij
il joen
il la
us ters
ĠS D
ĠS er
ĠS an
ĠS innema
Ġby elkoar
Ġoer board
Ġnei sten
Ġwe ger
Ã´ t
Ġz ware
Ġz zp
ĠÃºt fallen
ĠÃºt lis
ĠÃºt dag
ĠÃºt stap
ĠÃºt pakke
ĠB les
ĠH an
ĠH oorn
ĠH ennie
Ġas iel
ok plicht
Ġsei l
un s
Ġre organisaasje
op je
Ġc liÃ«n
ĠA li
ĠA ir
ĠA gricola
Ġsa una
Ġsk onken
ĠÃ´f meitsje
Ġhe k
ĠW old
ik o
Ġwer helling
ĠN I
ĠN yk
oed em
Ġli m
ĠD rie
ĠD elf
ĠD oet
ant ies
ĠM olle
Ġpro min
sk unde
ĠG el
um p
ĠJ u
ĠJ oop
ĠJ antine
ĠV oetbal
ĠV ader
ĠV egel
Ġbes lisse
ast ate
ĠR ekker
Ġle vens
ĠP EC
ul a
ag et
ag nar
ĠT urk
ĠT amminga
ĠT romp
ĠÃ»nder titel
sp lein
sp licht
ĠC ra
ĠC oron
ker boom
ĠE g
ĠE OD
ĠDe waele
Ġmin im
eder aasje
Ġvoor zicht
ver d
Ġhim el
Ġwurk druk
be w
be gel
Ġsl achte
Ġsi de
Ġtsjin komme
Ġman de
Ġste m
Ġber m
fer k
Ġgemeente s
Ġbeg raaf
Ġei gend
Ġei lanner
Ġ20 30
Ġmet ten
Ġfol let
Ġver m
Ġver rass
Ġver gunning
insje el
Ġbel often
dat um
Ġdoar e
sj ild
Ġpart oeren
Ġ3 000
Ġgro en
Ġbo tste
Ġfi bul
ade s
ub ach
ub lyk
ĠZ o
ĠZ eldenrust
ĠZ oetendal
Ġ5 4
Ġ5 9
jon ist
Ġorganis aties
Ġfl u
Ġwor ks
Ġkan aal
ac les
Ġferh uz
Ġferh olpen
lear jen
lear lingen
Ġmis learre
sl agen
sl uiten
ĠAl ten
rok te
ĠthÃºs bliuwe
Ġtre den
ĠSch ip
ĠSch aaf
ĠSch otanus
sch ede
ĠJo ris
Ġstik el
Ġgr Ãªften
ĠbÃ»ten spul
Ġpre ste
Ġhier ders
Ġgie st
Ġwen keamer
Ġsoarch lik
Ġsoarch ferseker
Ġfak ken
ark je
Ġad min
ass in
ass au
Ġ7 6
Ġan imo
Ġrom ten
Ġletter s
Ġletter lik
ĠSn akkerbuorren
Ġgear komme
Ġro epen
Ġbl au
Ġbl aas
Ġwei komt
ĠGr yk
Ġfyts te
Ġgel oof
Ġske afer
Ġpersoan e
Ġpri iz
ĠÃ´fstÃ¢n s
Ġstil stÃ¢n
Ġskriuw ster
Ġachter grÃ»n
ĠU r
Ġkar ren
pro d
Ġefter folging
Ġrei stiid
Ġonder du
ĠrÃ»n tsjes
Ġynt insje
isk rekt
hu ij
lied ings
ĠGro enLeven
Ġsaak kundige
ĠBo az
ĠTh uis
hÃ¢lder ij
tse ktor
rik ken
ĠTw el
Ġtel de
Ġgri ze
Ġkeunst wurken
Ġdruk te
Ġdruk ken
ĠBe uc
mid t
Fer pleech
Ġdu els
ĠRo tster
Ġont de
Ġont vangen
Ġferg etten
tra ining
ord y
Ġgeh oord
Ġwar m
Ġbu bbel
Ġak teur
ĠÃ´fsl ach
gev aar
Ġple zier
wen ten
Ġbi bel
jend en
St ad
dra aid
Ġsubs id
Ġwebs ite
An d
act ie
Ġsu velf
Ġneed opfang
Ġnjoggen tich
ĠÃ´fsp rutsen
ĠÃºtsp ile
ingst sjinst
ĠFran c
Ġgefoel ens
Ġgefoel ich
Ġbist je
Ġaantal len
Ġterug keer
Ġprof ess
kamp anje
Ġsamen werking
Ġlest ige
olog ie
Ġstikstof rjochten
ĠAp otheker
Ġger Ãªst
ĠBr ussel
rÃ»te s
Ġgek ke
Ġher te
Ġferspried t
Sk ylge
Ġsen i
ĠWar inga
Ġtank stasjon
Ġgar Ã¢nsje
Ġbru l
Ġbeteken en
Ġland elijke
ĠNoord zee
Ġsukses fol
Ġkamer abylden
Ġam fetamine
ĠFre der
Ġverwacht ing
ĠHel ls
Ġlist lÃ»ker
Ġfr ette
Ste atsboskbehear
middel en
Ġoers etter
Ġverd ienen
Ġkeats bÃ»n
Ġmaatskip lik
ĠÃ»nts met
Ġkonst ant
ĠAZ C
fle cht
ĠCor a
Ġ199 7
Sch outen
Ġoansp raak
ĠEn schede
Ġleeft ijd
Ġkampioenskip pen
Ġfee merk
rist an
Ar ends
ĠWadden zee
ĠKon ing
wier rum
Ġgesp rekken
Ġynter ne
Ġseks ueel
Ġreserv earre
ente man
ĠFl agge
Ġalder hande
Ġarbeid sm
Ġtwiv ele
Ġdom ein
Ġpromov earre
Ġferpleat sen
Ġkwalif isearre
Ġkwalif ikaasjetoernoai
Ġbro uwerij
ĠWin ter
ĠStien stra
ĠWÃ¢ld wei
Ġkor ps
Ġknap pe
Ġprodus earre
Ġbeper ken
Ġsteate lid
borg h
Ġferhe egjen
ĠSne on
Bes joch
eigen ers
Ġynlever e
ĠPe azens
Ġmonumint ale
Ġbefol kings
Ġferlie zen
Ġsirk ulÃªre
ĠKrij n
Ġferseker ing
rinn ers
ĠFin lÃ¢n
Ġsportsk oallen
Ġmedis yn
Ġment ale
eijen aar
ĠlÃ¢nbo um
Ġprofite arre
nij ing
ĠRed uzum
ĠSeg aar
ĠÃ»nwiss ichheid
Ġderom hinne
ĠWier da
Ġkeuze s
Ġprogram mam
Ġfertro uwe
Ġspre ek
Ġmax imaal
kons ert
ĠoanhÃ¢ld ing
ĠFriez innen
Ġstudinte feriening
Ġyngre pen
ĠÃºtkear ing
ĠDoarps wurk
Ġanon ime
ĠNat ura
Ġfersmoar ge
Ġdesynf ek
histoar je
Ġylleg ale
Ġkonkre te
Ġkonkre et
Ġoptim istysk
Ġvo gels
Ġneili bbe
ĠmilitÃªr en
Ġbrom mer
Ġham string
Ġtev oren
Ġtev reden
Ġrioel wetter
Koart lyn
jal p
eard ich
ĠBoel oe
Ġrekl ame
Ġonderste unen
bran dt
Ġbul te
smaat regels
waarm te
ĠwrÃ¢l dtitel
Ġfoard roegen
ĠMaat schap
pleat st
Ġernst ig
ĠWijf je
Ġiepenloftsp ul
Rob ert
Ġmisd riuw
ograf y
Oar del
ĠKle efstra
ĠGaaster lÃ¢n
ĠBrits ke
ferdigen er
ĠZout kamp
Ġmoksels ied
Fin an
Ġwjer stÃ¢n
ĠKwadrant Groep
ĠHimelf earts
Hof stra
long ren
Ġdonder dag
ĠSel m
ĠWhats App
ĠOd gaard
ĠHolt rop
ĠYnd ia
Hoop lik
Ġinteress ant
Ġiniti atief
Ġporte fÃº
Ġoanmel de
ĠVliel and
ĠkliÃ¯nte ried
Ġnoodzak elijk
vÃ© dÃ¨re
Ġbedriuweter rein
Ġgehei me
Bosk wachter
ĠMech elen
ĠVest dijk
ĠCru ijff
Its elde
Smelling erlÃ¢n
Ġdeask etten
Ġdatafer kear
ĠlÃºk se
Ġfibul a
Ġarbeidsm igranten
% )
. ,
0 7
0 8
2 9
4 8
7 1
9 5
A A
B oppe
B ysÃ»nder
E juke
H am
H BT
J oe
J ou
J ac
J uster
K ening
L i
M ed
M aats
N oard
R Ã»n
R eden
R ein
S o
S uper
T op
T oer
V loed
W B
W ur
W edstriid
Y sbrand
a x
a in
a ja
b oargemaster
c an
d racht
f ryske
g asten
g jalp
h iel
h annes
i zer
j ic
l am
l agen
l yks
l agge
m etten
n ije
n av
r eiding
s icht
s ommen
s leden
s nelheid
t ur
t ters
u ne
u ert
u ff
v aard
w Ã»nen
y c
y ves
z iging
Ã ¥
Ġ X
Ġ uw
te jild
Ġd aam
Ġd Ã»s
an like
of fees
ofte wol
ar tsen
ar jend
Ġf ul
Ġf aun
Ġf ase
Ġf eite
Ġf joertoer
Ġs ele
Ġs kear
Ġs erv
Ġs feer
Ġde al
Ġde den
Ġi ep
Ġi mm
Ġw jir
Ġm bo
Ġm jitten
Ġm Ã»ze
Ġm ilieu
Ġo al
Ġb or
Ġb alen
Ġb Ã´le
Ġh onger
Ġh ersteld
ch witz
Ġk ader
Ġk rekte
st ud
st anden
st uurd
je ften
Ġg ingen
Ġt aste
Ġin komsten
Ġin zet
Ġin kele
Ġin zetten
Ġyn k
Ġyn fierd
oar gen
oar sitter
ri is
Ġe at
Ġe duk
le kt
Ġp ier
Ġp ike
Ġp ont
Ġp iten
Ġp oging
Ġop per
Ġop jefte
li eden
as j
Ãª s
ak a
ak els
Ãº tsje
ge zond
or f
or men
is jes
is kerij
Ġom ke
Ġv aar
Ġv ent
Ġv oo
Ġv aste
Ġv oedselbanken
Ġv mbo
Ġder Ã´f
Ġoan fier
Ġoan komst
Ġoan lizzen
Ġge ef
Ġge meenschap
Ġfer ga
Ġfer stjoerd
ear rings
oe te
Ġst af
Ġst ander
Ġst uren
Ġst age
ĠF erd
il de
den s
us jes
ĠS jÃ»
ien st
Ġoer gean
Ġoer kaam
me m
me esters
ste m
ste re
Ġwe sten
Ã´ lle
ĠÃºt baar
ĠÃºt brocht
ĠÃºt ride
ru ik
ĠB oed
ĠB uiten
ĠH un
ĠH istoris
Ã¢l der
Ġre gen
Ġre bo
ĠFrys ktalige
op kes
Ġc rimin
ĠL F
ĠL as
ĠL ake
ĠL eijenaar
ĠA g
ĠA an
ĠA ED
Dat selde
es e
Ġsa ter
Ġsk opt
ĠÃ´f w
ĠÃ´f kard
ĠÃ´f fearten
ap pels
Ġer over
ĠW ork
ik kes
Ġdo uch
Ġwer iepening
ĠN AM
ĠN agel
Ġtroch jaan
Ġsp rin
Ġsp uite
Ġr Ãªding
Ġli es
Ġli ppen
ĠD ro
ĠD aas
ĠD uinen
ĠD arts
ant al
ĠM E
Ġpro b
Ġpro jek
sk yn
sk osten
ĠK ir
ĠK ick
ĠK abel
ĠK ijlstra
ĠK oerd
ĠK LM
ĠG lo
jouw ings
ir d
ĠV os
ĠV rouw
Ġbes nijing
int rale
ĠR am
ĠR ins
ĠR un
af e
af irus
Ġkin der
ot ter
ĠP la
ĠP ool
ul ling
ag ed
tel er
ĠT oe
ĠT ocht
ĠT rie
ĠT ynje
ĠT echn
ĠÃ»nder grÃ»n
ĠÃ»nder nimm
ip er
ou de
ek end
ek do
Ġdi vers
ĠC re
ĠC iara
Ġhel m
ĠE ri
ĠE aste
ine el
eff er
eff inga
og raaf
Ġsit st
ocht end
fe zel
Ġwurk ing
Ġwurk dagen
kom od
Ġoant ru
Ġman ljus
Ġste ur
Ġste kker
fer gunning
Ġne gen
ep pel
ate list
Ġ( '
Ġdoar t
Al der
Al den
sj end
sj on
Ġpart isip
bo aiem
Ġtri atlon
Ġgro eid
ab ele
Ġlyk op
Ġbo d
Ġgeb oren
Ġkun dige
Ġbest joersk
del ingen
Ġbek ertoernoai
foar stelling
Ġaut ofer
Ġfi erste
bal len
ĠZ etten
Foar earst
yks ters
ĠbrÃ¢n stof
Ġfl akke
Ġfl aaks
wi ken
ĠSt ap
ĠSt jer
ĠSt atist
Ġboar nen
Ġboar ters
Ġboar tsjen
ac ten
wer helling
Ġnij jier
Ġein lik
sl acht
Ġgen ie
ĠMar ia
Ġdoarp stÃºn
Ġap oteek
Ġover last
ĠÃºts joch
ĠÃºts laan
Ġwest like
ĠHar k
Ġfrij makke
ĠJo ke
ic s
Ġstik jes
Ġdoel stelling
Ġrjocht line
Ġpre daasje
ets jin
Ġsoarch organisaasje
Ġsoarch ferlieners
Ġdel st
Ġsch ilder
oo st
Ġan ekdo
Ġfle ssen
Ġwet houder
Ġreg i
Ġlan den
Ġgear wurke
Ġro et
Ġ202 4
Ġ202 5
Ġmid si
Ġbesk riuwt
hann els
Ġfal lise
ct oren
ha ge
Ġeins print
Ġjong er
Ġgel uk
Ġnatuer behear
Ġske akel
Ġkomp ilaasje
Ġdiel nimmer
Ġpri vee
Ġstil stien
Ġmyn bou
Ġachter Ãºt
ĠU l
Ġkar nav
Ġ8 9
Ġwij ze
ring e
ĠDÃºts er
Ġonder houd
Ġferp akk
Ġpub lyks
Ġpak ketten
ĠAm ir
Ġhear st
Ġkab el
Ġgef jocht
Ġbal ken
lo ei
ĠGro uster
ĠjÃ»n en
ĠBo sk
ĠIn grid
Ġ9 6
ĠfÃ» l
mar s
mon umint
und ige
Ġkn al
Ġkop en
Ġkop bal
Ġgez icht
ili on
Ġstim pel
aliteit s
Daar bij
ĠgrÃ»n wet
Ġtink st
Ġswim mers
mid dag
ĠEl ly
inge a
inge an
Ġkontr akten
Ġbehe ine
ĠBel vÃ©dÃ¨re
Ġbef eiliging
Ġ200 3
Ġ200 6
Ġ200 7
Ġont staat
erm ilion
Ġmoo iste
wÃ¢l en
ĠHo ve
Ġfern aam
Ġtijd je
Ġmuzyk les
Ġkre am
ĠEurope an
Ġleaf ste
uli er
ĠDo ke
ĠDo ha
Oer al
Ġbou de
kar riÃªre
bli uwen
Ġbuor skip
waar den
Ġsin jalen
Ġoef ene
ĠVer weij
Ġljocht pun
hof f
ĠFran eker
Ġju f
Ġjeugd soarch
Ġfear ten
Ġslag gen
Ġferfier en
Ġto ant
Ġkap itein
Ġwyk liks
Ġtitel s
ivers it
Ġynst ruk
Ġbank jes
komm issaris
Hjir mei
Ġfis ke
Ġlea ut
Ġger icht
Ġger eden
Ġstjer ren
Ġstraf rjocht
Ġspe ur
ĠAnd rÃ©
Ġbewe ge
Ġproduk sjes
mak ket
mak anaal
Ġher inner
Ġtoen ame
ĠPr insjes
ĠEr fgoed
ĠWar ner
ĠGri ene
ĠOn no
Ġbelied s
Ġoerli zzen
Ġmoei te
ĠfÃªste lÃ¢n
ĠHer acles
ĠGord yksters
Ġmoa is
Ġynveste arjen
ĠHa ersma
ĠHa itsma
Ġappar aat
ĠPost humus
Ġbegel ieden
Ġspons oren
oere ur
Ġsim pele
ĠwrÃ¢ldbeker wedstriid
Ġkeats ers
Ġvrij heid
Ġbefrij ers
ĠCor n
Ġtraining skamp
Ġsnap pen
Ġoansp and
Ġbegri pen
Ġoansl ute
Ġhout kachel
ĠSiet se
Ġbur gen
Ġbehear der
Ġmilje ustr
Ġcar es
ĠLenstra stadion
Ġfuot gongers
plaat st
Ġdom in
Ġomrop fryslan
Ġdraai de
Ne at
Ġoph okplicht
Ġrealis earre
ĠMid del
bet inking
Ġcomp lex
ĠOr gaan
ĠKen ingsdei
ĠAmerik anen
itt y
ĠWagen aar
Do uwe
Ġfoarsjen nings
boar gers
kolle ktyf
ĠMo us
ferh aal
hoe f
Ġwiidweid ige
Ġljep te
Ġbesun ige
Ġbesun igingen
stop t
Ġopstap t
ĠÃ»nrÃªst ich
Ġtsj ingean
ĠÃ»nfer wacht
Ġrespe ct
ĠOver diep
Ġfytst ocht
ĠkompjÃ» ters
Pre sintator
ĠSand or
Ġprofes joneel
Ġfolks liet
Ġferster kje
Ġhjitte weach
Ġjacht havens
ĠSlach te
ĠSteen bergen
Wer om
skl up
maatregel en
Ġtaried ings
ĠglÃªs fezel
ĠBil ker
ĠRem brandt
Ġvoorber eiding
aus see
Ġfermin dere
Ġfermin derjen
ĠCl ub
ĠOl longren
Ġuter lik
buor kerij
ider a
ĠHil de
Ġolymp yske
Ġoandiel hÃ¢lders
Ġfleu gel
ĠBol werk
Ġferste an
abri ek
Ġpresin tearjen
dus int
ĠoanhÃ¢ld ingen
ĠkoÃ¶rdin ator
Ġdemonstre arjen
Ġongel oof
Ġdesynf eksje
Ġdeta il
fun ksje
Ġsto om
klass ers
ĠPlan etarium
Ġlaboratoar ia
Ġarre staasje
Ġfli be
Ġpoer b
kwart ier
Ġmik rofoan
Ġprostit uees
Ġbedri ging
Ġstrafskop gebiet
Ġferkiezing sprogramma
Ġbije en
Ġweryn rjochting
ĠkreÃ« arjen
Or ganis
Ġkampioens p
Ġsanit Ãªr
ener zjy
ĠBak oe
Ġfrees lik
ĠSpit se
Ġfasili teiten
Ġda gelijk
Ġbag ger
Ġtimmer man
Ġkultuers ektor
Ġfergru tsjen
ĠTsjech iÃ«
Ġuiter aard
Ġsoft ware
Ġsolid ariteit
ĠRengers park
Sn its
Ġrang list
Ġeenzaam heid
ĠOe bele
Ġtoern ooi
Ġhilli ch
Ġni iskrekt
ĠBle eker
ĠTra in
fli x
ĠKei zer
ĠÃ»nderd ak
ĠInternation al
Ġstipep akket
Ġrenov aasje
ircul air
Ġwalf isk
Ġavent oer
Veilig heidsregio
ĠAus chwitz
ĠRuss yske
Ġbedra ggen
valid atie
ĠBrazili Ã«
Ġgerjochtsh Ã´f
Ġgranul yt
Like goed
Ġoparbeid zjen
Ġmeihel pe
ĠSli eker
ĠÃ´fkomst ich
ĠWaal wijk
ĠRand stad
Ġbegraf fenis
Ġbovend ien
Ġpersconfer entie
Ġenerzjyne utraal
Ġikeprosesjer Ã»p
yz jonist
Ġgeko zen
ĠcliÃ«n ten
Ġstikel bar
prod ukt
Vloed beld
yves ant
ĠSjÃ» kelÃ¢n
ĠStatist iek
- )
0 4
7 5
7 6
9 2
9 9
A jax
C or
E d
G rut
H eer
J ust
J eroen
K O
K ro
L jouwer
M el
N oar
N im
P SV
R en
R ei
R om
R oo
T re
W aad
W urd
W erk
Z elf
a ach
a ters
b ok
b ber
b ril
b ara
c orona
d ier
d ykje
d ieren
e ge
e men
e zen
f ens
f oort
g af
h ab
k um
k sen
k rÃ»
k amen
m ir
m ede
n am
n og
o y
o we
p ut
p ere
s ins
s ang
s se
s itte
s ikehÃ»s
t ijd
u a
u f
u en
v D
v in
w art
w ood
y r
z in
Ġ uren
en tsjerk
te koart
Ġd am
Ġd iner
Ġd ames
er ts
in del
in cent
in isjatyf
of like
Ġf ac
Ġs on
Ġde kken
Ġde minten
Ġw al
Ġw Ã»nder
Ġw eide
Ġm Ã»n
Ġm ien
Ġm ening
Ġm ieningen
Ġo v
Ġo tters
Ġb yn
Ġb id
Ġb annen
Ġb Ãºt
Ġb rug
Ġb oord
Ġb omen
at o
Ġh it
Ġh uur
Ġh ongen
Ġh angen
Ġh uizen
ch in
ei ze
ei be
ei jer
el li
el pen
el eden
Ġk oel
Ġk eten
Ġk alk
st as
st iet
st ru
st ok
st af
st jer
st uk
Ġg un
al o
al ig
Ġt aktyk
Ġin sch
Ġin tern
Ġyn gien
Ġyn genie
ro ck
le ging
le veld
Ã» mers
Ġp ad
Ġp ep
re y
re ek
re arjen
Ġop we
Ġop hel
Ġop komst
Ġop falt
Ġop start
li ken
li sit
ke et
ing te
ne go
ur den
ol ovic
ak kers
ter anen
ie st
ie ven
ge aster
or yen
Ġfoar ste
Ġfoar lÃªzen
Ã»n tste
Ġbe ur
Ġbe ken
Ġbe stellingen
Ġbe vest
is earjen
Ġom fallen
Ġom gaan
Ġom hinne
Ġom gien
Ġl ate
Ġl agen
Ġl inen
Ġl ingte
Ġv le
Ġoan s
Ġoan steld
Ġoan moed
Ġoan lutsen
Ġoan kommende
Ġoan stutsen
Ġge ur
Ġge steld
Ġge organis
Ġnet jes
Ġnet sjes
Ġmo dder
Ġno orden
oe st
Ġst unt
Ġst oere
Ġj erry
us iness
ĠS lo
ĠS eis
ĠS jan
ĠS ib
ĠS eijen
ĠS ingel
ĠS igrid
ins ter
ins dag
Ġoer hear
Ġoer macht
Ġoer koepel
im mers
me ur
ste en
ste mming
Ġha gel
Ġha ast
Ġkom fort
Ġse es
Ġse ctoren
Ġz warte
Ġz uid
ĠÃºt gean
ĠÃºt wurke
ĠÃºt wurking
ĠÃ»n te
ru cht
ĠB ul
ĠB oek
ĠB uren
ĠB oeke
ĠB efrij
ĠH iel
ĠH unt
ĠH oedem
Ġre pe
Ġc yber
Ġc offees
ĠL aan
ĠL iv
ĠL ud
ĠL ont
ĠL HBT
ĠA fÃ»
ĠA kerboom
Ġsk ok
Ġsk jinne
ĠÃ´f lieding
ĠÃ´f tra
ĠÃ´f reiz
ĠÃ´f gryslik
Ġer ed
ĠW ad
ĠW itte
ĠW eide
ĠW aard
ĠW out
ĠW aske
Ġdo ocht
Ġdo wn
ĠN ic
Ġsp uit
Ġr and
Ġr inte
Ġr ampen
Ġeen tje
Ġli ening
ĠD ren
ĠD od
ĠD olf
ĠM ak
ĠM elle
ĠM oanne
ĠM antgum
sk onk
ĠK al
ĠK oe
ĠK aze
ĠK oorn
ĠK erst
ĠG ud
ĠG oede
um ar
Ġkri tear
ĠJ ur
ĠV lie
men e
sje f
ĠR ijn
ĠR eizen
Ġle ad
ĠP ot
Ġso annen
ĠT el
ĠT ern
ĠT urf
ĠT adema
Ġts jinne
ĠÃ»nder fÃ»n
ou ma
ek ra
ong res
ĠC am
ĠC la
ĠC omp
ĠC omen
ĠC ovid
ber aad
ber oppen
ker k
ĠE del
ĠDe v
In t
Ġvoor jaar
se ma
ig jend
ig chel
ĠO per
ĠO ever
ĠO liver
ĠO ekra
yl ger
Ġkl acht
Ġhoe f
Ġaan sten
Ġaan passen
be wizen
Ġsl ing
Ġsl aat
rij ding
Ġsi fer
DÃªr Ãºt
Ġber eid
fer fang
ann a
em oanje
joer wurk
Ġbed acht
Ġbed rag
Ġbed enken
Ġfol gen
Ġfol jen
stri id
up t
io neel
Ġver li
Ġver kl
Ġplak fÃ»n
Ġplak nammen
ijk ers
ied de
Ġbet ize
ild a
bo uwer
ab y
Ġlang zaam
Ġiepen ings
Ġbo ut
Ġbo dem
skip s
uor sum
Ġhjir fan
Ġrek stÃ´k
Ġfersk ood
ĠZ eil
ĠZ anden
Ġprovinsje bestjoer
Ġwerom kear
ĠI rene
Ġwetter kwaliteit
eel te
ĠÃ»nt pl
ble men
ble em
ĠSt anley
Ã« el
wol wÃªzen
wer eld
ĠIt zhak
ult ureel
Ġmis brÃ»k
sit ting
ĠAl gra
ĠAl zheimer
Ġfuort helje
Ġfuort bestean
pl ant
pl os
ĠMar aton
Ġkw elder
Ġsw iet
Ġap pel
Ġfert utear
Ġko Ã¶peraasje
ss aak
ss eizoen
eft ich
Ġfrij jÃ»n
Ġtest belied
Ġtest kapasiteit
Ġtest strjitten
ĠSch el
ĠSch oot
ĠSch midt
Ġ6 1
ĠbÃ»ten wrÃ¢ld
ĠbÃ»ten loft
ĠfÃ»n sen
ĠfÃªst ige
ĠfÃªst hÃ¢lde
Ġferb inen
Ġwen romte
Ġwas k
Ġpo at
Ġpo aten
ĠSte ven
uz iek
Ġsch erp
oo it
Ġan kel
Ġan alys
Ġwet enschap
Ġrom tlike
Ġro ts
Ġbl og
Ġmid dag
Ġmed aille
Ġbesk ieden
Ġbesk ikke
Ġdrok ste
Ġbestjoer lik
Ġlok alen
Ġried e
oon Friesland
ct uur
Ġgel oven
aard oor
Ġfuotbal let
Ġfuotbal wedstriden
Ġho riz
Ġdiel t
Ġstil leit
Ġopl aat
ĠU EF
ĠAr t
ĠAr end
Ġsport park
pro vis
Ġ8 8
ring t
Ġynt im
Ġhelp ferliening
Ġbetel ling
Ġbep raten
Ġsup erm
Ġgev el
ler ij
ĠGro enteman
ĠGrins lanners
av iljoen
ĠIn tens
ĠBer lyn
Ġkoar tere
ĠTh ijs
Ġ9 3
ĠfÃ» st
Ġnacht mer
ĠKe alle
Ġsint ra
Ġpolit iek
min ts
ĠGe est
Ġgez ocht
ĠBe et
ĠBe em
ĠrÃ» ch
Ġheal weis
bed rijf
Ġbesikers sintrum
oet en
ĠgrÃ»n stoffen
ĠY pe
Ġfilm hÃ»s
eil anden
Ġyns ammel
Ġwacht tiden
ĠBel gen
Ġleech ste
Ġmem men
ĠRo zendal
iks ele
Ġferg ri
Ġar gum
Ġbelutsen heid
Ġsad ree
ĠGer ke
ĠGer wen
ĠHo tel
ĠHo ofd
voor t
Ġ11 2
ĠBoer en
co unt
Ġma ge
Ġdoarps belangen
Ġleaf hawwer
Ġbrief ke
ĠÃ´fsl uting
gev oel
ĠFe anen
Ġwerk nemers
Ġslim ste
Ġbi ologysk
Ġcont acten
ĠlÃª s
Ġbou fak
ĠÃ»ntwikkel der
sek ken
ĠPro Rail
An to
Under nimmer
Ġopd ien
Ġdak ken
ĠBro ersma
ĠVisser ijdagen
ĠVer hagen
Ġljocht sjes
ĠWe ert
ĠWe aze
Ġskoar stien
Ġbist jes
ĠBos man
Ġfest iviteiten
ĠSm als
ĠSy riÃ«
kamp ioen
Ġtast Ã¢n
net wurk
Ġlest iger
NederlÃ¢n ske
Ġhu ilen
Ġbank je
Ġmon it
ĠAnne ke
ĠAnne mar
Ġstjer gefal
ĠÃºteins etten
Sk oal
Ġoerli bjen
kri te
Ġkuier je
Jo hn
Ġwed stryd
Ġappar aten
ĠCar o
ĠDO S
Ġbegel ieder
ĠWie gersma
Ġsh irt
Ġbleau ne
Ġbuiten land
elt je
Ġbestri dings
ĠRen ze
Ġbeskerm ings
Ġskjin mak
ĠwrÃ¢ldbeker finale
ĠÃ»nderfin ingen
fraksje s
Ġdri igje
Ġkons erv
ĠBl eize
ĠWester t
ĠWester mar
Ġbopp eslach
fyts er
ĠLand elijk
Ġ199 0
Ġ199 8
ĠPrins es
Ġferniel ings
Ġleeft iids
Ġferne at
Hiel tyd
ĠWadden eilanden
Ġopkn ap
bi eder
âĢ Ŀ
Ġbier ke
ĠMich elle
Ġshorttra ckers
ĠSij tsma
Ġbeli bbet
Ġvraag t
Ġtoan e
eks amens
Ġfinzen en
Ġalder earste
ĠVl as
ĠynhÃ¢ld lik
ensch ot
ĠÃ»nd jip
Ġskreau ne
Ġfru straasje
ĠTj isse
ĠMid slÃ¢n
spor ten
ĠAd mir
Pas jinten
adv iseur
Ġprodus earje
Ġfil os
Ġfil mp
Ġwik sels
ĠTs jerk
Tsjin twurdich
ĠMo le
Ġkurs isten
ĠFle vol
Ġdis el
Ġinge zet
ĠAustr al
ĠRa bo
ĠRa erd
ĠFÃ»gel helling
Ġnijsgjir rige
ĠBroek stra
ĠBroek ster
rang list
Ġyndivid ueel
Ġsirk us
ĠOver leg
ĠBouw man
hand el
gemeen ten
Ġverander d
Ġverander t
Ġverander ing
Ġtur ners
orn ike
ĠWy be
ĠRein bÃ´ge
Ġoansk aft
Ġav ont
ĠIngelsk man
ĠÃºtwr eidzje
ĠsÃ» kel
Ġdegra de
ĠbefÃªst iget
Ġierd be
Ġrepar aasjes
Ġfersets man
Ġoanpass ing
ĠHeech terp
Ġtoil etten
Ġtap ass
Ġmaatschap pelijke
Ġfertsjintwurd igers
ĠlÃ¢nbo usektor
Ġkonkurr inten
Ġmas ine
ĠÃ»ndersk ieding
Ġsjoernalist yk
Ġsig ar
ĠNation ale
pas jinten
Ġoerfal lers
Ġmondkap jes
ĠKamp ioenskip
Ġqu a
ĠHart wert
betel le
ĠIsra Ã«l
ĠPa wel
Ġhanteken s
ĠsikehÃ»sopn ames
Ġoank inne
ĠDoarps belang
Ġfavori ten
ĠWou de
Ġsur v
Ġinv loed
Ġgec on
Ġtsjins telling
Ġyndustry terrein
Ef ter
ĠBur ger
Ġseeh Ã»nen
Ġynvestear rings
Ġsier aden
Ġneili bjen
ĠBoel ens
ĠKerk hof
rans ysje
Ġgarande arje
Mid den
Ġve ert
Vol gens
ĠâĢ ĺ
Ġbas earre
Ġbiosk oop
Ġbiosk open
Ġdrink wetter
ynd ustry
Ġynnov aasje
Ġfermoed en
Ġlede gearkomste
situ atie
Ġmotiv aasje
Ġpompe blÃªden
ĠÃºtgong spunt
ĠrÃªd ings
ĠRod a
Ġprevint yf
Ġyntro duksje
Ġoanbefel lings
bef olking
Ġfen omeen
Ġmult yf
Ġlait sje
Ġsticht ings
ĠBor nego
ĠTre vor
Ġveren iging
Ġpodde stuollen
Ġhantsje fol
Ġekskur zjes
ykl up
wek kend
Ġsubsydzjer egeling
Ġsmel le
Ġbiz arre
Ġnjoggentjin de
DÃºts lÃ¢n
leaf hawwers
Ġvij ft
Ġhekt are
ĠWes el
ĠNV WA
ifel ines
Ġhoast je
Keamer lid
Ġkonfron tearre
Ġattraksje s
bra him
Ġluis teren
Ġbetra pe
ĠÃ»ntfang st
Ġproduc ten
Ġspecif ieke
Post ma
Ġkopp osysje
ĠAN WB
ĠHarinx makanaal
Ġsmer tejild
Ġnaden ken
stell enden
Ġferoarsaak je
Ġynstrum int
Ġstate ment
ĠLes bos
Ġplei tsje
Ġtsjerk hÃ´f
ĠBoom sma
ĠprojektÃ»ntwikkel der
ĠLode wijk
Ġgarnalef iskers
Europ a
Po lit
Ġdeeg lik
Ġbegraaf plak
Ġeigend om
ĠGryk ske
Ġskeafer goeding
Ġsuvelf abryk
Finan sjeel
ĠHimelfearts dei
Ġtaste an
Alder geloks
ĠÃºtslaan de
aliteits dagen
ĠPrinsjes dag
Ġmiljeustr jitte
Ġkampioensp Ã»l
Ġdeminten s
elli an
ĠSeis bierrum
ĠSjan et
ĠLHBT I
ĠAfÃ» k
ĠWaske mar
ĠVlie hors
ĠComen ius
ĠUEF A
ĠKealle dykje
Anto inette
ĠAdmir aliteitsdagen
8 5
8 9
A g
A ran
B Ã»
B ear
B asis
D arter
D aardoor
E N
E uro
F and
F racht
G a
G oei
H T
H Ãºs
J ier
J elle
J anneke
L ok
L aat
L TO
M er
M eindert
M ulder
N eid
N AC
O B
O G
P G
P ers
P leatslik
R eg
S h
S ij
S aak
S amen
T el
V l
V orig
W el
W il
Z oals
b ei
b um
b els
c en
c ri
c apaciteit
d et
d ich
d oel
d osint
f ries
f av
g ysk
h ert
h au
h eim
i bb
i lis
j ord
j uster
l onnen
m oarn
m iten
n oord
o li
o ul
o aden
p sje
p its
p ray
q uin
r ens
r rit
r jochter
s ing
s ver
s aken
u ven
v allen
w we
w ylst
x ima
y e
y Jet
z ocht
z ichte
Ã Ń
Ġ urg
Ġ oftewol
Ġd um
Ġd raaf
Ġd rei
er ing
er ming
in deren
end el
ar ina
ar iÃ«r
Ġf ab
Ġf ormaasje
Ġf abriken
Ġf assin
Ġs iel
Ġs akket
Ġde c
Ġde ar
Ġde st
Ġde it
Ġde jinge
Ġi c
Ġi l
Ġw iksele
Ġm Ã¢l
Ġo tter
Ġb uer
Ġb rekt
Ġb ommen
Ġb oks
Ġb omme
at a
at ar
at iviteit
Ġh ond
ch em
ei ts
Ġn oflike
el ine
el ly
Ġk elder
Ġk ampen
st atus
st rook
Ġg od
Ġg atten
Ġg etal
al inder
Ġfan nacht
Ġt unen
Ġin grij
Ġyn p
Ġyn log
Ġyn helje
ro ken
oar men
oar ger
ri ce
ri chten
le an
le ks
Ġp it
Ġp au
Ġp iek
Ġp ian
re ken
re sje
re aasje
re do
Ġop li
Ġop jÃ»n
Ġop sch
Ġop bou
Ġop rit
Ġop bouwe
ing o
Ġdat a
Ġte min
ol ten
it h
Ġmei s
Ġmei wurke
Ġmei wurking
ter ap
ter aad
on ten
om pe
om rop
am yk
or et
Ġfoar met
Ġfoar lein
Ġfoar ronde
Ġfoar oardielen
der nacht
Ġbe et
Ġbe foar
Ġbe fre
Ġbe urt
Ġbe zoeken
Ġom raak
Ã¢n sk
Ġl etten
Ġl amp
Ġl aden
Ġl otte
Ġl ettere
Ġv oedsel
ra ge
ra il
Ġoan kund
Ġge mo
Ġge mak
Ġge meld
Ġal li
Ġal ert
Ġal vestÃªdetocht
Ġal zheimer
Ġal fÃªst
Ġal fde
aar der
Ġfer j
Ġfer Ã¢l
Ġfer kl
Ġfer jitten
Ġfer kenner
Ġst ok
Ġst rom
Ġst orm
Ġst onden
Ġst ielen
Ġst rijd
ĠF B
ĠF o
ĠF an
ĠF ern
ĠF lag
il et
Ġek ologyske
gen er
ĠS ol
ĠS Ã¢n
ĠS ich
ĠS amen
ĠS ic
ĠS alt
ĠS ov
ĠS iep
ins oarch
Ġby stÃ¢n
ze er
Ġoer tre
yk te
lÃ¢n s
Ġse edyk
Ã´ v
Ġz ak
Ġz and
Ġz uur
ĠÃºt k
ĠÃºt pakt
iel ing
ru mer
ĠB ob
ĠB aarsma
ĠB ibel
ĠB innema
ĠB OA
ĠB onkerak
ĠH es
ĠH ert
ĠH uls
Ġas best
Ġas pekt
ens on
ens dag
gel ist
Ġre ag
Ġre ger
Ġre uz
Ġre ktor
Ġre spek
Ġc amera
ĠL en
ĠL an
ĠL ie
ĠL ij
ĠL os
ĠL oop
ĠL itten
ĠL ies
ĠL aur
ĠL ippen
ĠL ubach
ĠL ifelines
ĠA B
ĠA ss
ĠA lie
lik a
Ġpl ysjer
Ġsk and
Ġsk ildere
ĠÃ´f lein
ĠÃ´f komme
Ġhe kel
Ġhe akke
ap est
ap pel
Ġer achter
ĠW yn
ĠW urd
ĠW ouden
ĠN ac
Ġtroch fer
Ġtroch set
Ġtroch slach
Ġtroch gien
Ġtroch gie
Ġsp iker
Ġsp ree
Ġsp rongen
Ġ' '
Ġhar ke
ĠD ei
ĠD ed
ĠD uur
ĠD air
ĠD ivisie
Ġvan gen
ĠM S
ĠM i
ĠM un
ĠM arre
ĠM em
ĠM ild
ĠM Ã¡
ĠM BO
ĠM eppel
Ġpro sed
Ġpro jecten
sk je
sk undige
ĠK op
ĠK ruis
ert op
ert ijd
ĠG u
ĠG il
Ġkri ich
ĠJ C
ĠJ as
ĠJ ist
ĠJ utta
ĠV ict
Ġwaar op
Ġbes jocht
Yn koarten
ĠR ederij
Ġear me
Ġle inen
Ġwi zig
ang er
ĠP re
ul te
ul eren
ag ing
ag ne
tel de
tel and
ĠT ij
ĠT es
ĠT immer
ĠT jerk
ĠÃ»nder st
ip line
ek su
sp eksje
sp raktyk
oer lis
ĠC om
ĠC asper
ĠC SG
os ch
ber da
Ġmak kelijker
ĠDe al
ĠDe kema
Ġmin iste
og a
Ġbr an
Ġgemeen tlik
Mar ten
Ġvoor beeld
Ġgrut st
Ġon af
Ġon rust
ĠO osten
ĠO entsjerk
Ġhoe wol
pe a
Ġwurk pleats
Ġwurk flier
Ġsl achter
Ġsl oegen
Ġhy st
em oarn
Ġne em
enn ing
Ġmet aal
Ġbed den
stri eling
up port
ate urs
Ġver dere
Ġver bod
Ġver leden
Ġver lie
Ġbet Ã»
Ã»nder fining
bo et
Ġlang ste
Ġiepen gean
Ġiepen steld
Ġfier de
Ġfier wei
Ġbest ude
Ġhjir by
Ġhjir troch
Ġfersk ynt
Ġtrije kwart
Ġskoal gebou
Ġskoal plein
ĠZ ulte
Ġminder jierrigen
Ġdoch st
Ġwerom s
Ġwerom betelje
eili ger
eel t
Ġbinnen kant
fier ingstsjinst
Ġzo ut
lear je
ĠlÃ¢n skamp
war s
war ds
Ġein eksamen
sl Ã»s
ĠAl l
ĠAl y
ĠAl li
Ġuit z
pl aten
Ġbesl uiten
tear ren
rie ze
Ġpas te
eg h
ĠÃºts jit
Ġtre ffen
yt ransysje
Ġaf deling
Ġfrij komt
ic al
ion ale
ĠAn s
Ġgr ens
ĠFries ch
Ġsoarch fÃ¢ldich
Ġfak atuer
Ġfak sins
Ġdel lizze
ĠOm jouwing
Ġsch aats
ĠSk oat
Ġfle chte
sint rale
Ġstr ak
ĠwrÃ¢ld wiid
bel jen
Ġbl aze
Ġbl okje
mo gelijk
Ġmid s
Ġbesk Ã´
Ġbesk reaun
Ġried t
Ġfal ske
oon s
oon stelling
ct ion
Ġho cke
Ġsport yf
pro dukten
gro even
ĠhÃºs keamer
Ġonder nemer
Ġkamp ioene
esj aussee
ont role
ans iers
Ġbal kon
Ġbal lonnen
Ġgev angen
pers pray
heids beraad
ide o
ide ma
Ġrap porten
Ġregel mat
av ia
Ġ10 2
ĠIn v
ĠBer enschot
Van af
Ġbasis plak
ĠfÃ» le
Ġdra ven
Ġakt iviteit
Ġsli epen
Ġtrochgean e
Ġkeunst gers
tsjin twurd
Ġdruk ker
ĠrÃ» ke
Ġstim ulearre
Ġsel ek
bek er
Ġstipe maatregels
ĠLe ef
ĠLe est
Ġtop sporters
Ġstad ich
ce um
ĠEl gersma
ĠY sbrand
ĠY erke
Ġgebiet s
Ġvol ks
Ġvol houden
Ġfeest lik
Ġfeest jes
Ġfeest tinte
Ġwacht tiid
Ġleech steande
dwaan de
Ġtoe zicht
stre eks
Ġeksp ort
Ġprakt yske
Ġar sjitekt
Ġstri el
Ġmoo ier
ĠKeamer leden
voor z
Ġspann ingen
ĠEurope es
Ġrol len
ater ing
gev allen
Ġtsjerke gongers
ko v
ko ers
Ġaard ig
Ġtas p
Ġwiis d
lok aal
ĠCh ar
ulÃ¢n se
Ġvers oepel
Ġtechn iek
Ġkeap lju
Under weis
Ġdok um
Ġfar ske
Ġrel atief
Ġsu tel
Ġmot oaren
ĠfakÃ¢nsje gongers
Ġmidden fjild
Ġnjoggen en
oeg d
Ġfersoar gje
Ġenerzj ytransysje
Ġynsp raak
Ġto and
Ġto uwen
Ġto uring
Ġkap ke
Ġstoar te
Ġteken jen
ĠÃ´ffal ferwurker
kamp ioenskip
Ġga uw
Ġmienskip lik
Ġeer lijk
ĠÃ´fsk aald
Ġspul tsje
Ġkeat sseizoen
Ġfun de
Ġfun ksjes
Ġberjocht jouwing
spe jord
Ġfis ker
kun sten
Ġgrien er
lie gen
ĠAnt werpen
mak er
Sk ier
Ġsen uw
kn op
Ġsle ept
urn alist
Ġaltern atief
ĠJac qu
Ġferdw inen
Ġant woord
Ġsukses folle
ĠRyks oerheid
Ġloft feart
ĠCar la
Ġco unter
ĠKro on
ĠPl antinga
gar y
Ġnoar m
Ġnoar men
Ġrin rÃ»ten
Ġbeskerm jende
ĠNO F
ktyf lik
Ġserie uze
ĠÃ»nts lach
Ġadvok ate
Ġvrij dag
ĠBl om
Pro jekt
Ġferfol ge
ĠDrin tske
orttra ck
Ġ199 9
Ġstuk ken
Ġbestjoers ter
Ġoansp rekke
Ġem ig
Ġpsych iat
Hiel ke
Ġprot oc
Ġwetterskip pen
Ġbele anning
ĠBra bant
Ġtr amp
red ijk
Ġskilder jen
ĠBou ius
ĠTer wis
Ġreagear ren
On der
ĠKar ib
Ġalder lÃªste
Ġ198 6
Ġynte rim
Ġstop set
plaat sen
ĠSteate lid
Ġmass ast
pre ss
Ġfru stre
ĠLely stad
ĠkoÃ¤lysje partijen
Ġmuzik ant
Ġturn jen
ĠAd v
ĠWin aam
Ġprotest antske
Ġet appe
Ġsliep keamer
ĠFok kema
ĠWÃ¢ld sang
ĠrÃ´ ljen
Le ague
Wanne er
ĠJel les
ĠJel lum
Ġ195 3
Ġmacht ich
Ġferienings libben
Ġrond om
ĠkonklÃºzje s
kolle ga
ĠWij ma
ĠBar end
ĠBar bara
Ġ196 9
Ke ats
ĠMakk ingea
Ġpodcast s
Ġheft ige
Ġbehoar like
RO C
ĠkrÃ» den
Ġbesun igje
best ind
ĠÃ¢ldjiers nacht
Ġdran kje
ĠMon a
perio de
du el
Ġoerd racht
Ġrespe ktyflik
Jong eren
ĠKrij nen
ĠNieuw s
ĠÃ»ndÃºdlik heid
mis hanneling
Ġopmerk ing
Ġbegrij p
Ġfinanc ieel
Ġierd gas
Ġklaai keamers
Ġpersoon lijk
Ġsammel je
Ġsol lisit
Ġkringloop lÃ¢nbou
Ġferster ke
Ġneedferoar dening
hiem ster
ĠOs car
ĠAmeland EÃ©n
Ġconta iner
Ġynterview s
inter klaas
Ġhom os
eijen ga
aly mp
lien ke
ĠWei stra
Ġsprek kers
ath on
gr aris
ynst allaasje
Ġbeoar diele
Ġoanmeld ingen
ĠSkÃ» len
Ġsporte venem
bren gen
Ġkollum s
ĠHolland se
Ver der
ĠStel p
Ġfotog ra
Ġstasjons gebiet
Ġryks oerheid
Ġfertro ude
ĠVeld hoven
Ġpresin tearret
ĠKenink like
ĠBet ty
Ġalarm earre
Bel ang
Ġoanfol ling
Ġoanfol jende
Ġverz am
Ġamateur klups
Ġoargel ist
Ġverke ers
Ġverke erde
Ġult ime
ĠId una
ĠMargriet kanaal
Ġferlyk je
Ġstev ige
Ġberekken e
Ġconc re
Ġsecht ich
Ju ist
Man on
bur ch
Ġdup earre
ĠÃºtsl etten
smaat regel
Ġynspek teurs
ĠHem rik
ĠHau le
ĠStu yvesant
ĠUt fieringstsjinst
Unders yk
ĠQu ick
Ġgister en
Ġzicht baar
ĠLy ceum
ĠPh ili
Best joer
Ġinternation ale
lemint ariÃ«r
ersch op
Ġrep lika
Ġfersoargingste hÃ»s
Her man
Ġgeunst ich
Ġgebouw d
ĠÃ»ntsn ap
Bed riuwen
Ġier appels
Ġpei ling
ĠBla uwe
ĠKi Ka
Ġkrist like
Ġspekt akel
wil ens
Ġpinkster moandei
Ġrepetysje s
Ġboerep ro
Ġtopskoar er
Ġchallen ge
ĠMedia huis
Meast al
Fran k
Ġfoss yl
Ġsertif ikaat
Ġpret tig
ĠIm ke
ĠYv onne
Spit ich
ĠFlor anus
Ġacc ep
Boar gemasters
ĠJels um
ĠCal gary
Ġfleks ibel
Ġduiz end
Ġatlet en
Kore Ã¤
ĠTr yn
beper kte
Ġneam den
Ġsjog gers
Ġswalk Ã´ffal
ĠGoaiÃ¯n garyp
ĠBios intrum
Sj onger
Ġspont aan
ĠMatt h
ĠJar chin
aff Ãªre
assist int
Ġgearf etting
ĠSurin ame
Ġkoff ie
Ġtoske dokter
SÃºd west
Ġoerflak te
ĠMal ieveld
Ġverdriet ig
ynstit Ãºt
Ġgit aar
Ġstazj Ãªr
ĠAb ma
ĠPodium kunsten
Ġmanee zje
Ġfernuver et
ĠRoosen burg
Ġcrowdfundings aksje
Bre euwsma
ĠÃ³ f
Ġgaler y
ĠSer ies
ĠÃ»ndertitel ing
huij sen
ĠBeuc kel
Ġsubsid ie
ĠportefÃº lje
Ġsele ctie
Ġoal jek
ĠEaste rein
Ġautofer kear
Ġongeloof lijk
Ljouwer ter
yr the
Ġson ar
Ġpep perspray
Ã»ntste kking
ĠHoedem akers
Ġered ivisie
ĠGud de
ĠTern aard
igchel aar
ĠIntens ive
ĠAnnemar ie
ĠRabo bank
ĠBroekster wÃ¢ld
Ġmultyf un
Ġstichtings bestjoer
Jier ren
Ġynlog ge
Ġtemin sten
ĠLippen huzen
ĠWurd um
ĠNac iri
ĠDair y
ĠMild aam
ĠMÃ¡ xima
Ġregelmat ig
ĠJarchin io
! '
' )
0 5
1 00
8 1
8 6
9 8
A k
A ksje
A chtkarspelen
A nema
B C
D avid
E ijer
F r
F roulju
H at
J or
K o
L and
L eeuw
M il
N DC
O M
P at
P rom
R est
S and
S upporters
S oargen
T P
T en
T ok
T ennisser
V eenstra
W ar
W it
W olle
b arre
b rÃ»
b uren
b okaal
c ument
d it
d io
d if
d uo
d orp
e et
f ase
f oto
g den
g rin
h ut
h aald
h orn
i re
j acht
j alt
k ok
k ond
k aas
l oss
l oane
m atten
m uorre
m uniteit
n iet
n atuer
n Ã»mers
o ets
p al
p os
p pels
r end
r us
r and
s ne
s inn
s land
s bern
s fÃ»ns
s ward
t wikkel
t afel
t icket
v ant
v oud
v eilig
v rouw
w eide
y ch
Ġd art
Ġd na
Ġd arter
er ter
er land
er lijk
in ker
an y
ar antÃªne
ar lemintariÃ«r
Ġs or
Ġs we
Ġs op
Ġi z
Ġw ach
Ġw ensen
Ġw ju
Ġw akker
Ġm al
Ġm it
Ġm ili
Ġo bs
Ġb ale
at iv
at ssekretaris
el a
Ġk oer
Ġk ist
Ġk ruis
yn stellingen
je el
Ġg n
al vetal
Ġin t
Ġyn kl
ri ker
ri Ã¨re
Ġe asten
le uk
le ept
Ã» den
Ã» gen
Ġp yn
Ġp and
Ġp oep
Ġp ynlik
re atie
Ġop st
Ġop dwaan
Ġop sein
Ġop stelle
Ġdat selde
as joneel
ur ch
ur ts
it us
it ation
de arjen
ak elen
ak kommod
Ġmei wurk
Ġmei tra
Ġmei krigen
ter ing
on ivo
on tein
ge sk
ge mene
or a
Ġbe fal
Ġbe zorg
Ġbe wiisd
Ġbe elden
Ġom kommen
Ġom slach
Ġom falle
Ġl ag
Ġl eiden
Ġl ukken
ra ad
Ġoan dielen
Ġfer e
Ġfer ien
Ġfer bouwen
Ġfer rinne
ier ry
ear dige
Ġst ra
Ġst iel
ĠF ri
ĠF ra
ĠF rij
ĠF oto
ĠF elix
us ka
It zhak
ĠS jer
ĠS umar
ĠS upport
ĠS interklaas
iet se
Ġwol ven
ad o
ad ukt
Ġoer heids
Ġoer winn
me te
ste uring
Ġmar ren
ĠÃºt ien
ĠÃºt rinne
ĠÃºt lutsen
ĠÃºt groeid
ĠÃ»n sk
ĠÃ»n wenn
ĠÃ»n fre
ru ck
id ers
ĠB aan
ĠB ig
ĠB ent
ĠB ond
ĠB oon
ĠB roer
ĠB ay
ĠH om
ĠH ag
ĠH anneke
we m
un ster
Ġre zj
Ġc ulturele
Ġc afÃ©
Ġc atering
ĠL amb
ĠL otte
ich heden
ĠA ren
ĠA chter
ĠA ward
ĠA ttema
ĠA graris
es dag
Ġpl as
Ġsa b
Ġsk yn
Ġsk oan
Ġsk oard
Ġsk itter
Ġsk rasse
ĠÃ´f d
ĠÃ´f nimt
Ġhe chte
ap je
ĠW ytse
ik Tok
Ġdo aze
Ġdo wen
Ġwer helle
ĠN eel
ĠN aud
ĠN SB
Ġsp j
Ġsp r
Ġsp ar
Ġsp raak
Ġsp Ã»k
Ġr amen
Ġr assen
Ġoar diele
ĠD Ãªr
ĠD ok
ĠD ichter
ĠD onger
ĠD ouma
ĠM ur
ĠM oor
ĠM eij
ĠM esdag
Ġpro ai
sk erm
sk ilder
sk ermen
sk rant
sk leaster
sk aja
ĠK or
ĠK ong
ĠK oen
ĠK ris
ĠK lein
ĠK ob
ert je
ĠJ irns
ĠJ itze
ĠJ ordy
ĠV incent
Ġme ene
Ġme unsters
Ġdan k
Ġdan kbaar
sje bli
ĠR os
ĠR agnar
Ġle ek
Ġje zelf
ot ze
Ġhiel d
ĠP ers
ĠP art
ĠP DC
ĠT igchelaar
ou ders
ek ul
ong hÃ¢lder
Ġsyn tet
sp ond
sp ylje
oer winning
Ġhel den
Ġhel dere
ker en
Ġmak like
ĠE c
Ġbli ke
og le
In isjatyf
Ġbr Ãºn
Ġgemeen teraad
Mar greet
Ġvoor deel
Ġien heid
Ġien kear
ig t
Ġfers ette
ĠO ns
ĠO enema
Ġkl a
Ġkl Ã»s
Ġkl opt
Ġkl oate
Ġaan b
Ġaan pakken
mer en
be wegingen
Ġta jaan
Ġta wiisd
kom itee
riuw ingen
Ġste ken
Ġste den
ele en
Ġber ichten
fer ljochting
Ġbeg rutte
Ġne us
Ġ20 50
ings materiaal
Ġmet oaden
Ġbed rig
Ġfol ch
Ġfre el
Ġfre one
Ãªst ing
stri der
Ġver kocht
och ter
Ġbet ide
Ġbet rouw
ĠÃºs sels
au x
Ġtiid s
inn end
bo tsing
Ġtri o
ab lo
Ġiepen brutsen
Ġfier ing
ĠNederlÃ¢n s
Ġben ader
Ġkear d
ger icht
del ik
Ġaut opro
lij f
gge borgh
Ġfi ver
Ġbij drage
ster huzen
ub uorren
Ġ5 8
Ġminder jierrige
Ġwerom brocht
Ġwerom krije
ĠI vo
Ġwetter t
wacht ing
Ġkont ant
Ġbern edei
Ġbern sbern
ĠSt offers
Ġbesmet lik
fier ders
Ġferh Ãºzje
wer ker
wer pers
Ġzo iets
Ġbekend heid
ĠAl gemeen
ĠAl melo
Ġkomm andant
Ġfuort d
Ġstean de
Ġuit br
Ġuit braak
ĠMar ije
ĠthÃºs wedstriden
Ġap pl
Ġfert uten
ss on
Ġtre f
aa uw
Ġfrij heids
ĠNoar ske
ĠJo ost
ĠJan et
Ġdoel groepen
ĠFries che
br annen
Ġfjouwer kante
iss ers
ĠfÃªst lizze
ĠfÃªst igingen
ĠfÃªst sitten
Sy brand
Ġhier t
Ġhier mee
Ġferb iede
Ġferb iningen
Ġwen foarm
Ġpo wer
Ġdoor dat
Ġseizoen kaart
ĠSte ege
geb ieden
Ġ7 1
Ġsch iet
ĠSk ype
ĠSk ylger
oo ij
Ġfle ur
okk ele
Ġletter lijk
Ġsn ack
ĠwrÃ¢ld ranglist
Ġcoronak l
ĠWaad kust
mo le
Ġmid dernacht
ĠSp annen
Ġbestjoer e
ct ive
ha erts
aste st
Ġske alik
Ãºts lach
asjon ele
Ġpri k
rin te
tern ative
Ġsport klup
pro seduere
org haerts
Ġpar all
Ġpub lik
ho og
ho uwer
Ġynt akt
Ġpak je
keap je
Ġbep al
Ġklear makke
bou de
ĠIn g
ĠBer end
aag se
ĠbeslÃºt foarming
Ġopn ame
Ġtaf els
opp eslach
Ġ9 1
Ġswier rich
Ġdra st
Ġakt u
Ġakt ive
erd a
Ġrekken keamer
Ġpolit ikus
Ġsm okkele
tre inen
Ġiis hal
ĠrÃ» zje
Ġkle m
Ġfrijwilli ch
Ġfrijwilli ge
Ġ13 5
Ġwinkel lju
Ġopr int
Ġopr jochting
Ġswim lessen
Ġferst oppe
Ġferst anlike
ĠBel ch
Ġsinne blom
Ġkr Ãªften
stre amen
Ġ200 5
Ġstre amt
Ã»l je
Ġhoareka gelegenheden
Ġeksp ert
Ġ16 0
Ġprakt ysk
Ġstri den
Ġstri bjen
ubs yd
Ge w
Ge an
ĠrÃªst ige
rekken je
Ġkre aze
SC O
bes met
Ġak teurs
ĠÃ´fsl ute
Ġferkeap er
ĠVeilig heidsberaad
ĠdÃ» ken
ĠSÃºdwest hoeke
Ġcont inuÃ¯teit
Ġtar ieden
Ġ22 0
Ġfersp rieden
ĠeilÃ¢n bewenners
Ġstjoer der
Ġferli end
oep els
Ġkultuer makkers
An na
Ġ0 6
Ġopd Ã»kt
Ġbuor man
Ġbuor kje
Ġbuor frou
Ġlever ing
ĠÃ¢ldere inte
Ġrel atie
waar de
ĠwarskÃ´ gings
Ġneed gjalp
ĠfakÃ¢nsje park
Ġkryst dei
Ġkryst tiid
Ġberne boeken
Ġfersoar gjen
Ġenerzj yk
Ġjeugd oplieding
Ġtelefoan tsje
Ġtelefoan nÃ»mer
Ġtro ep
bouw d
Ġdisk usjes
Ġto ul
Ġkap it
Ġfoars icht
Ġfoars eizoen
ĠKl aren
kant oar
Ġhichte punten
Ġeas yJet
ĠSm alling
Ġbaan rekÃ´r
20 20
20 28
Ġfys iek
Ġfys ieke
Ġreiz get
Ġhistoar ikus
Ġstraf fen
Ġstraf blÃªd
irk a
ĠAnt olovic
Ġher o
ĠLem ster
Ġpleats ing
ĠYn tze
ĠEr melo
gre pen
ĠRe ggeborgh
Ġart ikels
Ġart istike
erp omp
Ġoerli bbet
Ġpass ende
ĠColle ctief
Ġsituatie s
Ġoefen jen
Ġoefen wedstriden
Ġmoei lijker
Ġrein de
Ġspoar ferbining
jus sens
Ġbak kers
Ġferdigen ers
aut oriteit
Ġstikken e
Ġsoks oarte
Ġregear jend
ĠKollum erpomp
ĠCar oline
po teek
ĠWie ke
ĠWie gel
Ġsim ul
Ste fan
Ste atssekretaris
Ġoers laan
Ġbesch erming
ĠIepen UP
Ġrit me
ĠentÃ»sj aste
ĠteÃ¤ter stik
ĠKanade es
klasse mint
Ġnoard lik
Ġoper asjoneel
ĠÃ»nderhÃ¢ld s
Ġdos inte
Ġmen iste
Ġreguli er
Ġpopul Ãªre
haw w
Ar jen
Lan ge
ĠSiet a
ĠWadden gebied
Ġbur ger
Ġbur gers
Ġbele ving
Ġgele gd
ĠKon ings
ĠOf f
Ġbedriuws fiering
Ġalgem iene
Ġfide odeiboek
pri zen
Ġcoronap atiÃ«nten
ĠlÃ¢nskip s
ĠhÃºshÃ¢ld ings
Ġtrans gend
Ġabs urd
Ġsleat ten
Ġappartem inte
Ġbeli bjen
Ġbeli bbing
Ġbesliss ingen
ged rach
Ġalder geloks
ĠVl uchtelingen
ĠsÃºd westen
Ġgat sje
Ġfold ie
IS par
ĠTj al
ĠWijn sma
Ġamt like
Ġoph ing
Ġrealis eren
Ġrealis earje
Ġrealis earjen
Ġplaat sje
ĠPop ma
ĠOr ganis
ĠSmit h
Komm end
ĠFro ubuorren
Ġwap per
ĠFris ian
Ġstab ilis
Ġknap pen
ĠBij ker
ĠÃ´fs etten
ĠÃ´fs izze
orme el
Ġbeper kingen
ĠWij nen
Ġguo zze
Ġwapen hannel
Ġferhe ge
Ġheft ig
ĠMer el
Ġsted ske
Ġafge sproken
ĠkrÃ» pt
Ã¶rdin atie
Ã¶rdin ator
Ġbon del
Ġopbr inge
Ġbehannel ingen
Ġtrettjin de
ĠCo Ã¶rdinatie
Ġarg umint
Ġkal m
Ġoerien komsten
Ġplaats vinden
ĠSie men
ĠSie ben
Ġuitge br
Ġhurdfyts en
Ġfent il
Ġtur ner
Ġljip pen
ĠWy menga
Ġferseker der
Ġferhier d
Ġfernij de
kon struksje
Ġdon aasje
Ġdon aasjes
ĠsÃ» ker
richt ing
Ġopmerk ingen
Ġierd waarmte
Ġfolks ferhalen
Ġact ies
Ġmaksimum snelheid
Ġdead lik
Ġjacht haven
Ġoanpass ings
Ġsimpel wei
Ġburge meesters
Camp ing
Ġnomin aasje
Ġget roffen
ĠReg ionaal
Ġfra gelist
ider ius
uite ma
ĠAc ademie
Ġagrar ysk
Ġonders ch
Ġberops befolking
Ġseizoens kaart
ĠGre ben
Ġmateri eel
Ġpu tsje
ĠBol sward
Am sterdam
Am earika
Ġwurkjouwers organisaasje
Ġfla uw
Ġblok kear
ĠÃºtkear ings
Ġcomm unic
ĠRad ial
Moat te
Moat st
Ġfersmoar ging
ĠOut break
Ġberei ken
ĠBern hard
bru ggen
Ġsur fer
ĠFoar Ãºt
Ġfersteur d
ĠTop Dutch
ĠCan oy
Ġsportfers lachjouwers
Ġeksplos ive
Ġeksplos iven
Ġsjonger es
Ġseeh Ã»ne
Ġskrift lik
Ġoantrek liker
Ġadres sen
Ġstrjit rÃ´
ĠVoor en
Ġferdjip ping
Ġarre ste
ipp i
ĠÃ»ntb rekt
Ġgarande arre
Sad waande
Ġdemok rasy
Ġcom bin
ĠVogel bescherming
Ġearnst ich
ĠPieters ma
Ġorizjin ele
Ġynh ierd
ĠDon ar
utear ren
ĠâĢ ľ
Ġob jekten
Ġeconom ische
Best joers
Ã¸ egh
route s
Ġeval uaasje
ser adiel
Ġspand oeken
ĠDuit sers
ĠCap elle
Ġprevint ive
Ġspeci ale
Diel nimmers
Ġynste k
Ġgeast like
ĠÃ´ft w
Ġpred ikant
Ġsign aal
Ġhang t
Ġoerble aune
ĠOk kema
ĠtsientÃ»zen en
Ġblessuer es
tek st
Ġpon tsje
ĠFlo yd
Ġsoer stof
ĠZu idema
Ġbuord sjes
ĠSkÃ»tsjes joernaal
Ġgymn ast
Ġeksimpl aar
Oost Zorg
Vand aag
ĠBot man
Ġond anks
Ġbetrou ber
Ġsoarchoan bieders
Twe e
Ġhum or
ĠMat ter
ĠGor redijk
freon like
Kn ol
ĠSwim fun
ĠcreÃ« ren
Ġaudi ot
Bro uwer
Fa ber
ced es
Ġynsl etten
ĠDol sterhuzen
ĠÃ»ntken t
ĠGrÃ»n wet
clus ie
Ġyngewikkel de
wed st
Ġwo ensdag
Ġynw enster
ĠÃ»ngem ak
ĠHek man
ĠLucht meijer
Ġrend abel
Ġrele vant
ĠDyk stra
ĠRub en
Ġferbli uwe
Ġkompli mint
Ġdraag vlak
ĠkrÃº spunt
ĠUnder wiis
ĠÃ»nbegryp lik
Ried slid
ĠNI OD
Ġvoorzicht ig
Ġworks hops
ĠAlten burg
Ġadmin istraasje
ĠRotster hau
vaard ig
Ġvoo rop
Ġstander t
ĠHistoris ch
Ġrebo und
ĠKoerd yske
ĠRins uma
Ġpartisip aasje
Ġgenie tet
Ġfallise mint
ĠCorn Ã©
Ġpoerb Ãªst
Noar deast
Wurd fierder
krÃ» d
staf ette
Ġgeorganis eerd
Ġoerkoepel jende
ĠÃ»nte freden
ĠLiv es
ĠÃ´ftra ap
Ġkritear ia
ĠTel star
ĠDev ils
Int osch
Ġsling ere
Ġhoriz on
Ġfilos of
Euro pe
Goei emoarn
Ġdear iden
ĠferÃ¢l dere
Ġreag eren
ĠLitten seradiel
Ġplysjer jochter
ĠWouden berg
ĠMem ori
Ġgevangen is
kov skaja
Ġtouring car
Ġmassast art
ĠSkÃ»len boarch
ĠBeuckel aer
ĠÃ»nfre de
ĠNaud Ã©
ĠJirns um
sjebli eft
Ġsyntet yske
Ġbedrig ingen
Ġbernedei fer
Ġswierrich heden
ĠstrjitrÃ´ ven
ĠRotsterhau le
. "
0 1
0 6
2 000
6 3
6 4
6 00
9 3
A O
A ch
A uke
B Ã»tenpost
C l
D ei
D onald
F yts
F ris
F armers
F amylje
G en
G ru
G ister
G iovanni
G BT
H B
H ie
H aad
H istoar
I ssa
J ud
J Ã»ns
K V
K ultuer
L oek
L etitia
L jussens
M ochten
N G
N joggen
O R
P ake
R ut
R ederij
S ike
T Ã»zen
U p
U tsein
W agen
b Ãªd
b ene
b aard
b rug
b oeke
b ining
b ussen
b oppe
b uurt
c u
c us
c enten
e ken
e ste
f oer
f arre
f oel
f ab
f are
f iltrant
g st
g rypt
g ertop
h ok
i bben
j ingen
j ager
k racht
k urs
k rachten
k alinder
k oepels
l ab
l eren
l ane
l av
l jochte
l uter
m ijn
m ensen
m aken
m iddei
m ikrobiolooch
n end
n ale
n ost
p ear
p ert
p oel
p omp
p osysje
p han
p utearren
r s
r Ã¢ns
s fear
t ri
t on
t am
t akke
v ele
w ie
w assen
w out
z and
z aken
z ijl
z waard
Ġ Ã»ne
Ġ Ã¼
Ġ Ã¡
te le
te lef
Ġd roegen
Ġd urf
er a
er g
er es
in st
in ders
in chem
an tsje
an yske
of tsje
of fer
ar b
ar r
ar es
Ġf aasje
Ġf ochten
Ġf aai
Ġf ront
Ġs ens
Ġs akje
Ġi isk
Ġm Ãªst
Ġm offen
Ġo e
Ġb ok
Ġb aat
Ġb ond
Ġb iten
at is
at he
at isch
at foarm
Ġh oed
Ġh eiten
et h
Ġn al
Ġn asjon
Ġn ummer
Ġn aged
Ġk ur
Ġk ra
Ġk yk
Ġk enn
yn stÃ¢n
st ip
st itel
st aking
al iks
Ġfan fare
Ġt Ã»
Ġt sje
Ġt oene
Ġt olk
Ġyn lutsen
Ġyn stappe
oar gers
oar ium
Ġis ole
ri b
ri p
Ġe ssen
le en
le ur
Ġp et
Ġp oe
Ġp arre
Ġp ann
Ġp est
Ġp rijs
Ġp agina
re c
re ur
Ġop v
Ġop waar
Ġop fierd
Ġop liedings
ed y
ed ro
as itting
ur ten
ol atie
ol lo
it as
it yske
de al
de mon
ak king
ak antie
Ġmei sj
Ġmei dieling
Ġmei prate
ter wÃ¢ld
ie zen
ie break
om geving
or ro
Ġfoar fallen
Ġfoar geande
Ġfoar skriften
ken ning
Ġbe vol
Ġbe macht
Ġbe stellen
Ġbe falt
Ġbe wegings
Ġom kaam
Ġom giet
Ġom boud
Ã¢n en
ij ens
Ġl as
Ġl oer
Ġl okk
Ġl ager
Ġv on
Ġv iel
Ġv racht
Ġoan sjen
Ġoan winst
Ġoan lÃ»ken
ys ter
ys ker
ys bert
Ġge te
Ġge he
Ġnet behearder
Ġal um
Ġal bum
Ġmo unt
Ġfer ru
Ġfer fe
Ġfer stann
Ġno emen
ear jend
ear ringen
Ġst ic
Ġst rijden
Ġst atist
Ġwur ch
uw ske
ĠS O
ĠS inne
ĠS ul
ĠS em
ĠS ab
ĠS assen
ĠS ilen
ĠS ytse
ĠS uper
ĠS ierd
ĠS osjaal
ĠS effinga
Ġby hÃ¢lden
Ġwol feart
ad skonk
Ġoer ke
Ġoer kes
Ġoer holden
Ġoer gien
Ġoer lang
Ġoer bliuwt
Ġnei litten
Ġha ckers
Ġmar keting
Ġmar esjaussee
aan ders
Ġz onde
ĠÃºt fan
ĠÃºt helle
ĠÃºt strieling
ĠÃ»n werk
ĠÃ»n mis
ĠÃ»n ned
id hof
ĠB N
ĠB lo
ĠB etje
ĠB oppen
ĠB orghaerts
ĠB oppeslach
ĠH otze
ĠH uitema
ok oereur
we zen
we ek
un dat
Ġre fer
Ġre Ã«el
ĠL U
ĠL uts
ĠL oade
ich ters
ĠA ar
ĠA del
es p
ĠdÃªr Ãºt
ĠdÃªr bÃ»ten
Ġsk Ã¢ns
Ġsk rin
Ġsk atting
ĠÃ´f helle
ĠÃ´f meld
ĠÃ´f name
ĠÃ´f dielings
Ġhe up
ap er
ap per
ap roof
Ġer aan
ĠW ijk
ĠW issel
ĠW ird
ĠW aanders
ik al
ik ingen
ĠN ad
ĠN ut
ĠN asjonaal
ĠN yck
ĠN assau
Ġtroch h
Ġtroch sk
Ġsp u
Ġsp at
Ġhar sen
Ġhar kjen
Ġr ing
Ġeen maal
Ġli b
Ġli g
Ġli z
Ġli en
ĠD iktee
ant ha
ĠM or
ĠM us
ĠM ond
ĠM ike
ĠM urk
sk ing
sk olleezje
ĠK enn
ĠK lok
ĠK ryst
ĠK rist
ĠK ultuer
ĠG eer
ĠG eart
ir kel
ĠJ et
ĠJ un
ĠV ri
ĠV le
ĠV olk
ĠV ISpar
Ġme ed
Ġme and
Ġwaar mee
Ġbes le
Ġbes lissen
ut a
ut je
Yn ienen
int jes
ast oor
ĠR aard
ĠR oord
ĠR ede
ĠR iis
Ġear sten
Ġear like
Ġle uker
af fen
els ke
ĠP I
ĠP older
ĠP ampus
ĠP inkster
ul den
ag int
tel ler
tel lig
ĠT inga
ĠT ristan
Ġts jil
ĠÃ»nder nimming
ou te
ou ter
ou ts
oan fraach
Ġtw aal
ijn selen
sp ark
sp rint
Ġgru ts
ĠC amp
ĠC are
ĠC irculair
os inten
os jale
ber ha
ker pe
ĠE ras
ĠE scher
eff e
og like
ysje s
Ġvoor zorg
ver ij
ver band
Ġri chten
Ġon bek
ĠO SF
We ening
Ġsil st
Ġhoe mann
Ġhim mel
Ġwurk nimmer
be ma
be hÃ¢ld
Ġsl apen
Ġkon fer
Ġsi den
kom mers
Ġtsjin kaam
Ġoant oane
Ġoant oand
Ġman ne
Ġman agement
Ġste ek
Ġste ats
Ġtwa en
ele aze
Ġber gen
Ġhy poteek
fer pleech
Ġgemeente rieden
ann ie
em s
em ber
Ġne p
Ġ20 40
Ġbed rei
ep pe
ate arre
Ġver w
Ġver moed
Ġplak ette
rek sje
Ġbet aald
Ġbet inkt
Ġbin de
Ãºt rikking
Ġplysje wurdfierder
Ã»nder ing
Ã»nder ten
sj ende
inn ing
Ġpart y
bo b
Ġgew icht
wurk ings
wurk sum
man i
Ġbo b
Ġben eden
Ġor gan
Ġhjir re
lij st
Ġrek on
sel t
ĠZ ern
Foar hinne
Ġnog al
Ġwerom kaam
Ġwerom rÃ»n
Ġwerom reis
ĠI r
ĠI v
Ġorganis atoaren
ry dt
Ġfl oei
Ġtal jochting
ĠÃ»nt hÃ¢ld
ble aun
ĠSt asjon
Ġboar gertop
diel tsjes
Ġferh ale
Ġferh Ã»ze
Ġjild k
Ġjild bedrach
Ġmis hand
Ġuit spraak
Ġ4 25
kl okken
Ġsneon en
Ġ19 00
Ġ19 20
Ġ19 39
Om wenners
ĠMar io
ĠMar ianne
ĠthÃºs f
ĠthÃºs Ã»nderwiis
kel der
tear jes
tear jende
ere adskonk
Ġover leden
Ġover leggen
Ġko ai
Ġlyts te
eft iid
ĠHar ts
Ġaf gel
Ġfrij kaam
ĠSch effer
Ġfe teranen
ion s
ion ele
ĠAn nie
Ġged acht
Ġged ragen
Ġter reinen
Ġrjocht banken
Ġhier en
Ġferb ieden
Ġferb urgen
Ġwen wyk
Ġwas sen
Ġsoarch organisaasjes
Ġbelang riker
Ġbelang haww
ark jen
ee ter
ĠdÃºdlik er
Ġad ver
ug ten
Ġwoansdei s
ĠOm roep
Ġ7 3
Ġsch ad
Ġsch ieten
Ġsch rikken
ĠSk oal
ĠSk rÃ¢ns
oo id
Ġferw Ã»nen
Ġdre ss
Ġwet like
Ġrom p
Ġrom jen
Ġrom ans
Ġposit ie
bel je
Ġplan de
Ġro ok
Ġbl oei
Ġwei komme
mo at
ĠSp ijkers
Ġskoalle mienskip
Ġbesk uldig
ĠGr eide
Ġjong s
Ġgel open
Ġgel uid
Ġnatuer yn
Ġske ppe
Ġdiel nimmende
Ġferoar ings
Ġbetsj inne
Ġopl ucht
Ġopl eiding
Ġachter uit
Ġachter stÃ¢n
ĠU p
ĠU s
Ġfirus sen
Ġsport nijs
Ġefter yn
Ġtsjer kje
Ġtsjer klike
Ġ8 2
org d
Ġhoop lik
Ġrei zig
ande mie
Ġpar keer
Ġtrain de
ĠrÃ»n wei
stjoer e
ho y
Ġbetel bere
ĠAm bul
Ġstap je
Ġbal ke
Ġbal tsje
hol d
ĠNoard se
hÃ¢ld end
Ġdirekteur en
Ġkoar ting
Van uit
Ġrest anten
ĠKe unst
zj end
Ġploech genoat
rik ke
rik ant
rik kelijk
all aasjes
onder ing
onder wijs
organis atie
Ġkn apt
Ġkn okken
Ġamb assade
ĠGe meenten
Ġkolleezje s
iek stra
Ġoprop pe
ĠBe yers
Ġiis wike
fre egje
Ġsel skippen
Ġkle aster
Daar in
ĠLe ver
Ġru il
Ġhaad trainer
Ġhaad priis
ce aux
Ġbar bec
ĠEl ske
ĠY l
ĠY o
Ġnatuur lijke
hal te
hal len
Ear ste
wa ai
Ġkr ant
Ġkr Ã¢ns
Ġtoe val
Ġ200 4
Ġbew Ã¢ld
Ġferd uorsum
Ġbelutsen ens
ĠÃ»ndernimmers feriening
ĠKeamer fragen
ĠFr Ã¢nsk
iken se
Ġ11 1
Ġgeh and
Ġpraat sje
Ġkre d
Ġbu ffer
Ġops ocht
Ġna gel
Ġna aide
Ġna aiden
Ġwerk like
Ġple kje
ĠdÃ» sen
ĠdÃ» bele
ĠCh ina
ĠCh idera
Ġcont ra
Ġvers ter
dra ger
Ġkultuer nota
Ġrisik onivo
erv akantie
Ġles b
Ġklasse mints
Ġkeap et
Under dÃ»
Ġynset ber
Ġfar geul
ern ooij
Fier dere
rjocht ings
alis eren
alis eerd
Ġpriis fraach
ĠwarskÃ´ gjen
rei zen
Ġkryst beam
Ġpraktyk skoalle
ĠVer hoe
ijs sel
ĠEaster see
ĠEaster bierrum
ov a
ĠFran ce
ĠFran jic
Ġju ffen
Ġfersoar ge
Ġtro uwe
ĠBru ggen
Ġdisk walif
Ġhand ig
Ġferfier ders
Ġkie zzen
ĠOp spor
Ġterug komen
Ġwyk likse
ĠSm its
Ġtast joerd
Ġwinkels intrum
Ġhu ze
boek je
Ġynst imd
Ġspul tsjes
ĠPC BO
Ġger ust
ĠAnne m
Ġlet sel
spro jekt
Ġtyd skrift
Ġlast iger
mÃ»n en
Ġklap te
Ġlij ken
ĠYn je
Ġsle ep
ĠEurop ese
ĠOn beperkte
Ġhuis artsen
Ġkwets baar
Ġbak tearje
Ġferdigen je
Ġferdigen ings
uo zzen
Ġeffe ktyf
Ġtsjinst ferliening
Jo hannes
Ġland schap
Ġtent oonstelling
Ġbetiid st
ĠLel ieveld
Ġtek ort
ĠMart ijn
ĠMart ina
Ġmins ker
Ġmins klike
Ġbre ak
ĠFacebook side
ĠSur h
ĠNie uwe
ĠNie veen
ĠPost hu
po ts
Ġversch rikkelijk
Ġbegel iede
ĠfÃ»gel wacht
bin es
gra il
Ġnoar deast
ĠMul lum
Ġverd ien
Ġeks oat
ĠSl ot
Ġparkear gar
ĠÃ»nts lein
Ġdri ve
ĠWester geast
form asitting
ĠbÃ» ter
Ġautom atyske
Ġdjip per
Ġgast hear
Ġ199 5
Ġoper earre
Ġoanfal lende
Be halve
meld ing
Ġfit ale
Ġfit ness
Ġtentoan stellingen
Fers lachjouwers
Ġlog o
sh irt
Ġhal ve
Ġoansl uten
haw we
Ġhout wÃ¢len
Ġfantast ische
Ar t
ĠSiet zema
ĠOlymp ysk
Ġgele erd
ĠOf stannen
Ġopkn appe
Ġkommun isearre
Ġkommun isearje
Ġduid elijke
Ġcoronap andemy
Ġtrans form
ors ing
bar de
Ġpan iek
ekken ber
Ġkomple te
ĠkliÃ¯n t
Ġverschil len
Freed tejÃ»n
Woansdei tejÃ»n
Ġadvis earje
Ġgrif form
Ġzom ervakantie
Fries e
Ġkompens earjen
Hol land
ĠEls hof
ĠÃ»nd Ãºd
Ġduorsum er
ĠwÃ¢l sk
ĠLely stÃªd
fis ken
ĠMel k
Ġamt ner
Ġynsk riuwe
Ġrealis aasje
spor ter
Ġaange past
Ġabsol ute
pr aktyk
Ġker amyk
Ġturn hal
Ġturn bÃ»n
ĠIC T
Ġbiste wolwÃªzen
ĠAd ri
ingsp lan
ĠGo ogle
Ġnood zaak
Ġasylsikers sintrum
Le af
amming hab
ill s
Ġfersyk jes
Ġ195 4
ĠÃ¢lder wet
Ġferkears Ã»ngelok
Ġontwikkel ingen
Ġferfel ende
mjit tige
Ġthe ma
Ġprodus earjen
Ġbeper king
Ġsteate seal
Ġfierljep pers
Ġcolle ge
Bo uw
Ġwapen stÃ´k
Ġinge wikkeld
ĠMer ke
ĠMer cedes
ĠJe an
Ġljep pe
Ġfjirtjin de
ĠTalma hoeve
nie uw
sm iten
ĠIJ nsen
Ġblik sem
Ġopfol gje
Ġopbr ingsten
ĠRom e
besker mers
Ġyndivid u
Ġwurksum ens
Ġfrouljus team
sr jochters
Ġident if
Ġynfal ler
ĠMed isch
Ġmilj arden
ĠBruin ja
kr Ãªften
ĠWy cker
Ãºtkear ing
Ġferhier e
ĠFin Ã¢nsjes
Ġav onds
ĠÃºtstel le
ĠKonink lijk
Ġdon ateurs
ĠsÃ» pe
ĠGron inger
wiksel jend
Ġpublis iteit
Ġynspi rearje
Ger ry
Ġklaai keamer
Ġpersoon lijke
ĠZuid OostZorg
Ġsammel et
Ġferle ge
Ġfersets minsken
ĠgrÃªf stien
ĠsikehÃ»sop name
Ġstude arje
Ġstude arjen
Ġsneld iken
Ġbla astest
Ġyl l
Ġsjit partij
Ġregist rearje
Ġallerh ande
Ġgesellich heid
ĠBil tsk
Ġstream ing
Ġwiksel je
gr ens
ome back
ĠAf rika
ĠEij ck
waard ig
Fuotbal klup
Kom t
Ġport retten
ieuw d
Ġsechstjin de
vor ming
Ġbouw urk
ĠJapan ske
Ġlearkr Ãªft
ĠÃ ł
ance zorg
ĠBang ura
ĠMir jam
Ġlek kers
Ġbinn ens
The o
Ġynfier e
Ġynfier en
Ġberei kbaar
ĠBern lef
histoar ikus
Ġtol ken
ĠGert jan
Ġevene ment
Skip per
Ġlot ting
ĠstÃ¢l en
ilas mi
Ġbetink ingen
Ġtoilet gebouwen
Ġvo rige
Ġmok sel
Ġcoronas ifers
Ġtwang sommen
fersk yn
Ġsjong t
Ġbestel buske
ĠSter ke
bran che
Ġcom mer
Ġras istyske
Ġprostit Ãºsje
Ġseld sum
ĠHau er
ĠDra isma
Ġverl oren
Ġkonklude arret
ĠthÃºsk arantÃªne
Ġannulear ringen
Ġproteste arjen
Moarn s
deb at
Ġcent rum
ĠOM T
nik ov
Ġlul k
ĠWijf jes
Ġhoek skop
situ aasjes
Ġknoop punt
Ġabonne mint
Ġiepenloftsp ullen
Ġvoorz ieningen
Ġaant rek
Ġdemonstr atie
Ġconst ru
Ġconst ant
Ġynste e
Ġess insjeel
Ġlait sjend
Ġsticht ingen
ĠEm mel
ĠTheun is
Ġwraksel et
ĠAtlant yske
ĠAtlant ic
Ġsign alen
Ġindivid uele
Ġindivid ueel
Ġdepre sje
Ġdepre ss
Ġfergel iking
Ġoerble aun
ĠNet flix
Ġmeartal igens
bec ca
Ġblessuer etiid
Ġemot ie
Tsj Ã»gen
rakt iken
Ġfon tein
Ġynrjocht sje
Ġeksimpl aren
Ġfakt or
Ġtrij etal
term yn
sper io
Ġkeep ster
ĠKommissaris sen
ĠferdÃ»bel ing
hÃ» sp
Ġoerste k
Ġpun tsje
ĠNiger ia
Ġikoan yske
Ġkrim ineel
oanfal ler
spesj alist
ĠienfÃ¢ld ige
Ġselsstann ige
Ġlytssk alige
Ġprest aasjes
ĠAldeholt wÃ¢lde
Ġmaxim ale
ĠdistribÃºsje sintrum
blok ken
keat sen
Ġlud ike
ĠTil burg
Ġvern iel
ĠKeamerferkie zingen
Ġaksept aasje
Ġakkommod aasje
BrÃ¢n wacht
Ġlje pt
ĠlÃºster je
ĠFed de
ĠÃ´flever ingen
ĠJud kovskaja
abed riuwen
ĠItal iaanske
ĠpoÃ« zy
Ġreser ve
ĠRotte falle
ĠFolker ts
lop ig
ĠNu ijens
Ġafv ragen
Ġprodu ct
Ġenthous iast
ĠEngels hoven
Ġmeit inke
Ġvuur werk
ĠEg bert
ferk learring
Ġflu gge
Ġsoarchferseker der
ĠTwel linge
Stad ichoan
ĠFranc isca
Joe y
Li ander
RÃ»n om
ain b
Ġful kaan
Ġwjir m
ĠBoed apest
ĠHun telaar
ĠLas er
ĠGlo bal
Ġhelm hout
Ġoantru ne
Ġboarters guod
Ġregi om
Ġmidsi uwen
Ġkarnav al
Ġdagelijk s
Ġstikelbar gen
Rei z
mede werkers
Ġbyn amme
Ġbeur zen
ĠSingel land
ĠBefrij ingsdei
ĠHiel ke
ĠNic ol
ĠKoorn beurs
Ġrots oai
âĢĿ <|
Ġfilmp je
ĠFlevol Ã¢n
Ġtapass ing
Fand Ãªr
Neid at
cri me
Ġdec ember
atar u
Ġynp land
Ġstrom ing
ĠFo undat
Ġreger ing
Ġreuz ereadskonk
Ġspree kt
ĠMarre krite
ĠTes la
Ġverlie zen
ĠSkoat terwÃ¢ld
ĠInv itation
ĠLeef omgeving
ĠJacqu eline
Ġtramp oline
ĠTerwis pel
Ġaccep teren
ĠTryn wÃ¢lden
Ġmili meter
Ġobs erv
Ġbefal ling
ĠBent hem
ĠKong olo
Ġpower pl
Ġsimul ator
ĠOrganis atie
Ġflauw ekul
Ġgymnast yk
ĠMemori am
lane z
ĠÃ¼ berha
Ġpann ak
Ġmount ainb
ĠSul veren
ĠSassen heim
ĠLoade wyk
ĠVolk skrant
ĠEras mus
ĠZern ike
ĠAmbul ancezorg
ĠFoundat ion
ĠÃ¼berha upt
" '
' ",
' ?<|
) :
0 3
5 2
7 8
7 9
9 4
9 6
A N
A mel
B L
C ent
C NV
D re
D racht
D okkum
D ronryp
D osinten
E chte
E lise
F ok
F olle
F ort
F DF
G ar
H oog
H arkje
H Ã»nderten
I P
I reen
J el
J uli
K ing
K ap
K aren
K afee
L u
L itte
L aten
L okkich
L ekker
M V
M on
M akk
M eneer
N aar
N ynke
P V
P racht
R ij
R ek
R oel
S int
S af
S eker
S joerd
T ra
T ijden
U G
U N
V W
V een
V eer
W itte
W ater
W Ã¼st
Z ijlstra
Z onderland
a ip
b annen
b akken
b efel
b earen
b oete
b Ã»lje
c up
d oek
d isk
d itie
d oelen
f am
f id
f ok
f ederatie
g il
g noaze
h Ã»n
h es
h eld
h ichte
h ulp
i ale
k se
k ab
l aten
m els
m inte
m uiden
n t
n ys
n amen
p op
p ake
p ool
p agina
p Ã´lle
s li
s ef
s etter
s wei
s regels
s weagen
t oan
t huis
u me
u un
u tsje
u chte
u tels
v ingen
v ast
v aazje
v oetbal
w ijn
w icht
w aaid
w wad
y mon
z z
z els
z iek
Ġ Q
Ġ jouw
Ġ achten
en ga
te an
te ma
Ġd ar
Ġd rek
Ġd iss
Ġd ichters
er ij
er per
in ich
in and
in ende
in efel
an on
end ammer
ar der
Ġf at
Ġf etten
Ġf azen
Ġf ors
Ġs je
Ġs Ãª
Ġs ma
Ġs wi
Ġs elf
Ġs onken
Ġde min
Ġde uren
Ġde gene
Ġw isk
Ġw rede
Ġw oorden
Ġm of
Ġm ol
Ġm or
Ġm iel
Ġm unt
Ġm uorren
Ġm eneer
Ġo ersk
Ġo vers
Ġb is
Ġb uk
Ġb uis
Ġb leat
Ġb oech
Ġb urn
Ġb rekke
Ġb aby
at um
at form
Ġh onder
Ġh oannen
ch ans
ei st
ei je
Ġn am
Ġn au
Ġn Ã³
Ġn Ã©t
el er
Ġk Ã»
Ġk isten
Ġk ring
Ġk iste
Ġk Ã¢nske
Ġk ibb
st ingen
st ig
st alen
Ġg raaf
Ġg lim
Ġg lÃªzen
Ġg ooien
al da
al bert
Ġfan ge
Ġt oarn
Ġt inten
Ġt ryst
Ġt Ã»ke
Ġt ennisser
Ġin gels
Ġyn hÃ¢ldt
oar ts
oar ings
Ġen kel
Ġe go
le te
Ã» de
Ã» pe
Ġp ech
Ġp anne
Ġp yt
Ġp Ã»d
Ġp iip
re arret
Ġop inoar
Ġop bouw
Ġop bouwen
Ġop kocht
Ġop heljen
li de
li sten
li fe
ke eper
ed ict
Ġte gel
as y
ol werf
it ies
it uaasje
Ãª ven
ak jen
ak risis
ak eling
ter meer
on ket
om t
om ate
am an
am ing
am pe
ge ver
ge halte
or ent
Ġfoar werpen
Ġfoar nimmen
ken ing
der ijen
Ġbe uk
Ġbe halve
Ġbe heljen
Ġbe wizen
is ker
Ã¢n se
ij nen
ij pen
Ġl Ãº
Ġl aad
Ġv it
Ġv eiliger
Ġder hinne
Ġder gelijke
Ġoan set
Ġoan bou
Ġoan dwaan
Ġoan giet
Ġoan brocht
Ġoan reitsje
Ġge Ã«
Ġge plaatst
Ġge stopt
Ġal sjeblieft
Ġmo uwen
Ġfer ts
Ġfer like
Ġfer diele
Ġfer fange
Ġfer bouwe
Ġfer mogen
ear ing
Ġst yl
Ġst rÃ»
Ġst raal
ĠF inke
ĠF jet
ĠF eart
ĠF inske
Ġj Ã»ch
il o
il ke
il veren
ĠS en
ĠS id
ĠS anne
ĠS kear
ĠS erv
ĠS iderius
Ġby hear
Ġby baan
ien s
Ġoer komme
Ġoer tocht
Ġoer nommen
Ġoer hÃ¢n
me an
ste kke
ste atelid
Ġnei er
Ġnei ste
Ġnei kompetysje
Ġkom itee
Ġkom eet
Ġse em
Ġwe b
Ġwe ers
Ġwe agen
aan se
Ġz aal
Ġz eil
Ġz eiden
ĠÃºt fal
ĠÃºt wize
ĠÃºt hing
ĠÃ»n fol
ĠÃ»n krÃ»d
ĠB ron
ĠB ab
ĠB ran
ĠB ank
ĠB oeken
ĠB rig
ĠH amb
ĠH eil
ĠH inke
ĠH CL
ĠH enson
ĠH Ã¸egh
Ġas yl
ok ol
un it
un ker
un its
Ġre Ã¼
Ġre age
Ġre sep
op e
op h
op end
op liedingen
Ġc ru
Ġc omeback
ĠL C
ĠL yk
ĠL een
ĠL angen
ĠL inda
ĠL oes
ĠL GBT
ĠA ge
ĠA ud
ĠA dam
ĠA hoy
Ġpl akt
Ġpl ate
Ġpl oege
Ġsk ood
Ġsk appen
Ġsk erpe
Ġsk orsing
ĠÃ´f b
ĠÃ´f hel
ĠÃ´f rit
ĠÃ´f byl
ĠÃ´f rint
ĠÃ´f jaan
ĠÃ´f wiisd
Ġhe ve
Ġhe akket
ĠW i
ĠW ille
ĠW eiden
ĠW onen
ĠW isse
ĠW oonFriesland
ĠW ietse
ik elen
ik king
Ġdo ge
Ġdo azen
ĠN ijk
ĠN anne
ef oarsitter
oed ing
Ġli je
Ġli ep
ĠD i
ĠD oel
ĠD res
ĠD ay
ĠM ac
ĠM ic
ĠM een
ĠM inke
ĠM indert
sk oop
sk ertier
sk anker
ĠK er
ĠK aren
and el
and ers
ĠG au
ĠG ryp
ĠG ysbert
ĠJ a
ĠJ ens
ĠJ een
Ġwurde arre
Ġwurde arje
ĠV ink
ĠV eg
ĠV aart
ĠV alk
ĠV oedselbanken
ĠV illa
ĠV ermilion
Ġcoron ad
Ġcoron ag
Ġwaar mer
Ġbes pre
Ġbes effe
ut ende
acht s
ast re
ĠR as
ĠR ol
ĠR if
ĠR TL
ĠR eijenga
Ġle ed
Ġle ktor
ĠP oel
ĠP rin
ĠP KN
ĠP uri
Ġti ken
Ġgoed kar
Ġgoed meitsje
tel ligen
ĠT am
ĠT oer
ĠT ele
ĠT rin
Ġts jo
ĠÃ»nder hÃ¢lde
ĠÃ»nder nimme
ĠÃ»nder wylst
oan pak
ek ere
ek onomy
Ġtw ing
Ġtw if
Ġtw itter
ijn stra
Ġdi ed
Ġdi am
sp erm
sp rutsen
ven ant
oer ienkomst
ĠC hallen
ber heid
Ġmak ker
ĠE erste
ĠDe bre
eff rey
Ġmin i
Ġmin uut
In keld
Mar rit
Ġvoor af
Ġvoor keur
Ġien tsje
Ġien ris
Ġien ried
ig ht
Der nei
ver da
Ġgrut hannel
Ġsit tende
Ġri der
Ġri sp
Ġon ts
Ġon recht
Ġon vol
Ġon mogelijk
Ġfers ier
Ġfers kerpe
ĠO V
ĠO uwe
ĠO ane
yl ster
Ġkl eie
Ġkl inke
Ġkl apt
Ġkl oaten
Ġkl often
pe ktyf
rom is
Ġaan sen
Ġaan gev
Ġaan pak
Ġaan zien
Ġaan leiding
Ġwurk leas
oal itie
Ġsl a
Ġsl angen
Ġsl inger
Ġkon do
Ġkon sesje
rij n
kom ming
Ġtsjin holden
Ġoant r
Ġman tels
Ġdie f
Ġdie ven
Ġber e
Ġber gings
Ġa dem
fer mogen
Ġne ef
Ġne aken
enn a
Ġel ders
Ġmet h
ĠNeder lanner
Ġver st
Ġver he
Ġver zorg
ters wacht
Ġplak fynt
Ġplak ferfang
Ġplak hawwe
rek kers
ris iko
Ġbet iden
Ġbet ochten
Ġbet anke
Ġbel ofte
Ġbel Ã»ken
Ġbel Ãªsting
au st
Ek stra
Ãºt jouwer
Ġdoar re
Se gaf
Ġplysje minsken
Ġke urig
Al dere
bo ut
Ġgew aak
amp t
Ġfier ders
Ġmakke st
if f
Ġbo um
Ġbo ate
Ġben ieuwd
Ġmoet ing
Ġgeb leven
Ġkear t
Ġbest rijden
ĠÃ»nders te
ĠÃ»nders ke
Ġfin alisten
Ġbek l
iv el
Ġor gaan
Ġor kest
Ġfi les
Ġfi adukt
Ġbij dragen
Ġskoal dei
Ġskoal eksamens
sel aar
sel skip
ent ies
ade el
Ġjo urnalist
ĠZ aan
ĠZ ZP
ĠZ athe
Ġminder heden
Ġfro ast
Ġwetter s
Ġwetter stof
Ġwetter su
Ġwetter skea
Ġoft st
ĠbrÃ¢n st
ĠbrÃ¢n wÃ»nen
Ġkont inu
Ġsy mp
Ġfl inters
ĠSt rijd
ĠSt reek
Ġbinnen k
Ġbinnen wetter
Ġbinnen komst
Ġboar tsje
Ġoars aken
Mei tsje
Mei jer
Ġferh Ãº
wer kt
wer kelijk
Ġmis le
Ġein streek
sl o
sl yd
ĠAl ger
ĠAl berda
Ġfuort giet
Ġfuort stjoerd
Ġuit voer
kl assen
kl inyk
Ġsneon s
Ġdien st
Om rin
ĠMar jo
ĠMar jan
Ġdoarp sk
fol gjende
Ġsw annen
Ġsw ommen
ere enheid
Ġap els
eg stra
eg ras
Ġfert inking
Ġfert rouwens
ĠJong fryske
ĠÃºts jen
Ġtre aun
Ġdaar op
Ġproble matyk
Ġtwadde hÃ¢n
aasjes intrum
Ġaf spraak
Ġfrij sprutsen
ĠSch er
ĠSch aar
ĠSch ier
ĠSch ut
Ġ6 50
ud ger
sch aart
Ġfe bru
atie ven
ĠJo rien
ic ip
ĠAn ceaux
Ġgr Ãªft
Ġged eelte
Ã© l
Ġrjocht ingen
Ġrjocht seal
Ġrjocht streeks
Ġpre ek
Ġpre sen
Ġearst folgjende
br ink
br ingt
Ġfjouwer en
Ġferb ine
Ġferb ynt
Ġferb justere
Ġwas kerij
Ġwas kjen
Ġpo tent
Ġsoarch groep
hel min
Ġbelang stellenden
Maar ten
Ġad op
maal s
Ġdel slach
ĠSte f
ĠSte ijn
ĠSte egstra
uz ikant
Ġsch rijven
fers lach
fers lachjouwer
Ġreg le
Ġlan s
Ġaksje plan
Ġsn ert
bel le
ĠWaad eilÃ¢n
Ġplan ke
Ġsyk ten
Ġro ots
Ġlear de
Ġwei helle
gram mam
ĠSp aansk
Ġbesk riuwen
Ġbesk uldige
Ġfiif hÃ»ndert
ost ins
Ġris ic
Ġgel okk
aard ige
Ġfuotbal kompetysje
Ġper f
Ġpri kje
Ġpri meur
Ġferoar ingen
Ġferoar dieling
Ġstil berne
Ġtsien en
ĠOmrop fryslan
Ġachter yn
Ġachter folging
ting a
ĠAr jan
Ġsport wedstriden
Ġsport wrÃ¢ld
Ġsport ferienings
pro duksje
unst ner
ck state
Ġferp le
ĠrÃ»n lieding
Ġtelef oans
Ġbal ans
Ġbal besit
Ġgev aren
heids zorg
lo c
lo uw
lo och
ĠbrÃ¢nwacht k
Ġsimmer blog
Ġsimmer iis
ĠGro up
ĠBer kel
Ġheech st
alf uotbal
Ġtaf alle
ĠTh ierry
ĠsÃ¢n win
Ġ9 2
Ġ18 5
Ġdra agt
ille arre
ĠDokkum ers
Ġoardel mete
Ġromte s
Ġrekken jen
all wood
Ġbys teld
Ġsm id
Ġboek hannel
Ġgri p
Ġgri pen
Ġkn ype
Ġamb ul
Ġamb itie
Ġbrocht en
ĠGe urts
Ġkolleezje partijen
Ġres inte
Ġhol p
tre dens
Ġlos litte
Ġgez orgd
ili teiten
ĠrÃ» kt
Ġdes astre
Ġbeste den
Ġbeste ane
str aten
Ġwinkel tsje
Ġtop per
Ġtop fav
Ġopr Ãªden
Ġopr innende
Ġstad iger
Ġstad ium
Ġhaad rol
ĠY bema
Ġ24 0
Ġyns iedde
la za
Ġbehe inings
hal skanker
Fer fierder
oll ar
Ġbef oel
Ġtoe gan
ĠRo bb
ĠÃ»nderwiis yn
Ġsam ling
Ġstre ep
Ġferskil t
Ġbew ij
Ġstri kt
Ġferd Ã´v
Ġsom pe
ĠFr Ã¢ns
Of f
ĠGer lof
ĠHo olwerf
Ġsuper finale
Ġsuper markt
Ġma ke
ĠVV OG
ĠHe erschop
Ġwyn krÃªft
Ġwyn tur
ko ade
Ġwerk gever
Ġkompetysje wedstriden
Ġtas lein
ĠlÃª zingen
ĠlÃª zers
St r
Ġlei dt
Ġtegen over
Ġstart plak
dra aien
ui ven
Ġtechn ology
Ġzorg v
ĠsÃ»n en
Ġfar ve
rukt yf
ĠNij stÃªd
ĠNij hoarne
Ġrel ativ
ĠZw aag
Ġferantwurd ing
Ġsterk te
Wol kom
Ġbeh arkjen
stap t
Ġfoarm jen
Ġomt rint
Ġpraktyk lessen
ĠVer f
Ġberne mishanneling
Ġju risten
Ġenerzj ys
Ġcoronat iden
ĠBru no
Ġskoar den
iz ing
bl ommen
Ġhand elen
Ġsee wier
Ġsee boaiem
Ġ194 1
Ġ194 8
Ġhyn st
Ġhyn sten
ĠÃºtstjoer ingen
ci ale
Ġkap sal
ĠBos schaart
ĠKl eibe
Ġstoar men
Ġrad ar
Ã¯n ten
umint Ãªre
ĠKan aal
Ġferf ele
komm ens
Ġfis y
Ġvlog projekt
ĠrÃª dt
Ġstjer tes
Ġgrien stasjons
Ġspe ciaal
spro jekten
Ġrieds fraksjes
ĠAnt je
ĠRot tige
ĠEr nst
Ġbesmettings sifers
Ġflecht linge
jone arre
ĠFer ried
Ġpass earre
ĠColle ctive
Ġopen baar
ĠPieter buren
Ġser emoanje
Ġklok ke
fak Ã¢nsjes
Ġland bouw
Ġdoet iid
Ġbless ueren
Ġvoetbal ler
ple ging
Ġbegel ieders
Ġspons ors
han kelijke
loop t
Ġry chje
ĠRen ate
moed er
Ġoers lein
ĠWer kerij
Ġeks akte
ĠSl am
ĠCO VID
ĠÃ»nderfin ings
uid elijk
Ġstu deren
ĠWester hof
ĠbÃ» ge
ĠTsj albert
ĠCor lienke
ĠSybrand y
Ġcon cent
fyts en
Ġgast frij
Ġpaar den
Ġoper aasjes
Ġsek retaris
35 9
erde ma
ĠEn no
Ġstoarm waar
Ġlog istyk
Ġfaksin earjen
Sjoch st
Ġreek mel
ĠNoor delijk
Ġfantast yske
Bij voorbeeld
odei boeken
ĠWadden fonds
saak kundige
vo gel
vo gels
Ġbedriuws gebou
ulear je
Ġsal dearjen
Ġfide ofer
Ġfide odeiboeken
Ġsyl skip
Ġsyl skippen
ĠLi udger
yls ikers
behe ereenheid
Ġwittenskip per
makker ij
Ġshorttra cker
bu ert
feest je
Ġlucht druk
Ġlil kens
Ġbesliss ende
He ech
On line
ĠAld gil
ĠHyl kema
Ġallro un
Ġkompens earre
Ġ198 8
Ġnoflik er
ĠSteate seal
bro eders
Ġtwiv elje
Ġboarger inisjatyf
Ġtsjerket oer
Ġferplicht ingen
Ġdraai boeken
ĠLang sweagen
ĠMel issa
Ġantwurd et
ĠPop kema
ĠPop ta
spor tsektor
Ġferpleat se
bet h
pr of
Ġker ken
Ġferge ze
Ġbiste tÃºn
Ġ36 0
rar ysk
liz zer
Ġsliep sekken
Ġstab iel
Ts jerken
Ã¡ nde
ĠJel te
ĠJel mer
Ġ195 7
Ġboere bedriuw
Ġoprom je
ĠBij leveld
Ġwins klik
ask ia
Ġbedrijf s
ĠBon nema
Ġdis kear
Ġferhe egje
ĠMer ijn
ĠJelle ma
Ġsted st
Ġfreond in
ĠÃºtsÃ»nder lik
ĠkrÃ» pe
ĠTje erdema
Ġtanim men
Ġgl as
Ġopstap pe
ĠFÃ»gel pits
ĠMon um
ĠTe un
even em
Ġbried fÃ»gels
ĠSim one
ĠplattelÃ¢n s
Ġhjerst fakÃ¢nsje
Ġslecht s
ĠMed i
Ġbesp rutsen
Ġkind je
Ġferhier ders
ĠBen edict
ĠSand ra
ĠSand berg
Ġbesoar gje
Ġbesoar gjen
Ġrecht s
Ġrjochts back
Sm it
Sm ink
ĠSu ders
Ġferster kjen
Ġstappe plan
fuotbal ler
ĠÃºtb ruts
Ġdek Ã´r
Ġnomin aasjes
Ġac count
Ġfertsjintwurd igje
Ġeksploit anten
mas ker
ĠReg io
Ġvoorber eiden
Ġfor ins
Ġfok usje
Ġbeoar dieling
Ġfermin derje
ĠOl de
ĠSkÃ» tsje
ĠdÃ»beld maat
Ġuter ste
Ġfeangreide gebieten
ots ke
ĠnÃªst kast
Ġkollum n
oem d
Hel aas
Ġoandiel hÃ¢lder
ĠWiel inga
ĠMen amer
Ġscooter rider
Ġym provis
Ġdier e
Ġduur zame
Ġfotog raf
Ġberops Ã»nderwiis
Aan st
vak antie
Ġprogram m
Ġmeest al
Ġfollybal sters
ĠkrÃºs jale
kont akt
Ġwaad eilannen
Ġinst antie
lem mer
Ġekster ne
ĠEd dy
Ġferste ure
ĠbrÃ»k ten
ĠfarrÃ»te s
Ġmjit tingen
Ġlong dokter
Ġfysio terap
Ġyngri pende
Ġyngre ven
Ġstatus hÃ¢lders
ĠÃ´fst an
ĠÃ´fst ude
Ġwaarsch uw
ĠHoe ve
ĠNat as
ĠRijks universiteit
IN G
erh eits
Ġopsp oarings
Ġgec ontrole
Ġdoss iers
iÃ«r s
Ġcontainers ch
Ġjud o
Ġaanv ragen
Ġeksplos yf
Ġwoar st
gew oon
ĠÃ»nf eilige
Ġtahe akje
ĠIN G
Ġgem alen
ĠHui zenga
ĠLou is
Ġstev ich
Ġferdjip pe
Ġsmo ken
Ġbakker ij
Ġdernei st
ĠSter k
ĠÃ»nderfre ge
Ġrekl ass
Ġferbliuw s
Ġferbliuw plak
Ġhoarekas aak
gefaar lik
Sad ree
Tal sma
Ġbul ten
Ġkites urf
Ter wijl
Ġkep pel
ĠDon ia
Ġonzeker e
Ġonzeker heid
water staat
Ġopposysje partijen
Ġob st
ĠBei mers
Ġklass ike
jar ige
Ġbom barde
Ġtebek setter
Ġsko we
appar aat
Ġtemjitte komming
KN VB
Ġtegelijk ertijd
Ġferwi ist
Ġferwi zing
Ġrefal ide
Ġrefal idaasje
ĠEner gie
Ġtab lo
Ġblom ke
ĠSpit keet
Ġyntro dus
PC OB
Ġgif tige
Ġynteress earre
Ġekstre em
Ġfergru tsje
ĠFrjentsjerter sk
Ġekskur zje
Ġwand el
Ġgol ven
Ġprobe ert
Ġbespar je
ĠRes earch
ĠYchten brÃªge
bon del
Ġwyks intra
Ġynrjocht sjen
ĠberÃ´ ve
Ġtoeriste belesting
Ġoffic ial
Ġbuord sje
ĠSkÃ»tsjes ilen
Ġgymn asium
far ders
Ġfij ne
Ġbil jert
rest aurant
ĠMou ne
umas yl
sprek kend
Ġafsch eid
Ġsoarchoan bieder
Ġevak uearre
Ġpin pas
ĠBoarn ster
ĠBrit ten
Ġclaim s
ĠJes per
Ġtaks ys
Ġpredat oaren
ĠAldeholt pea
Ġstienm urd
Ġkenink like
ĠÃ»ntsp anning
Spesj aal
Ġmaxim um
ĠbeÃ«in ige
ĠHasker diken
Ġtrop yske
Ġiso learre
neg outum
ĠSjo uke
ĠHoll anners
Ġearmoed e
Ġtaffel tsje
Ġtaffel tsjes
Ġontmo et
Ġontmo eten
Ġklim t
ĠHollÃ¢n sk
cro ss
ĠWilli am
Ġmeub els
ĠTess a
Ġtoege staan
materi alen
ĠoertrÃªd ingen
fla ter
Ġvlieg t
Ġtwijf el
Ġbegro ting
Ġgezamen lijke
result aten
Ġagress yf
ĠOoststellingwerf s
Ġzwem bad
eksploit anten
fra ude
Ġfrag mint
Ġweger je
ĠÃºtdag ingen
ĠBles se
Ġasiel zoekers
ĠDoet inchem
ĠMolle ma
Ġpromin int
ĠCra ckstate
Ġslachte rij
Ġverrass ing
ĠUr k
ĠBoaz um
Ġoersetter s
ĠlÃ¢nboum inister
ĠMaatschap pij
Ham stra
Wur dt
Ġfaun a
gezond heid
Ġvent il
ĠÃ´fw aging
ĠWork um
ĠNagel hout
Ġsprin ter
ĠKabel noord
ĠPla yers
ĠEri tre
komod aasje
ĠHark iten
Ġferpakk ingsmateriaal
Ġljochtpun tsje
Ġynstruk sjes
ĠÃ»nferwacht s
Rom ke
Zelf s
fens ie
stas praak
ĠSib ear
Ġcoffees hops
Ġdown lo
ĠDren ts
ĠDod ge
ĠTurf rÃ»te
ĠCam ataru
Ġfertutear ze
Ġnachtmer je
ĠGerke skleaster
John ny
ĠCaro lien
Ġbeskermings middels
Ġveert ig
Fracht weinsjauffeur
Ġoankund iging
ĠSich erheits
ĠLoop er
ĠDed den
Ġministe rie
ĠlÃ¢nskamp ioenskip
ĠÃºtsjit ters
Ġsenuw eftich
Projekt lieder
Ġprotoc ollen
Ġsollisit aasje
Ġhomos eksu
Ġboerepro testen
Ġoaljek oeken
Jor rit
Ġwju kken
Ġpyn like
Ġbezorg d
Ġspj elde
ĠDonger adiel
Ġmeene men
ĠbrÃºn fisken
Ġkla uwen
Ġautopro dusint
Ġekspert ize
Ġhero Ã¯ne
Ġarreste arre
Wagen borg
Ġnaged acht
Ġkyk do
Ġessen t
Ġbevol king
Ġvracht wagen
ĠÃ»nwerk lik
ĠNad ort
ĠNut ma
Ġbesle aten
ĠCamp ina
Ġkonfer insje
Ġbob slyd
Ġoplucht ing
ĠYl ostins
UnderdÃ» kt
Ġgrifform earde
ĠWycker veste
Ġcommer c
Ġregiom anager
Ġpannak oai
Dracht ster
Rij pstra
Tijden s
Veer man
fid io
inefel ter
Ġbuk s
Ġhonder den
ĠSkear negoutum
Ġbyhear rende
ĠHamb urg
ĠNanne wiid
ĠDoel leazen
ĠMeen te
Ġcoronag olf
ĠPrin ces
sperm y
ĠDebre cen
Ġonvol doende
Segaf redo
Ġgewaak sen
ĠStrijd krachten
ĠtwaddehÃ¢n sk
Ġfebru ari
Ġknype ach
ĠKleibe uker
ĠAldgil lis
Ã¡nde z
ĠBenedict us
1 20
2 50
3 3
4 2
4 00
5 3
6 7
7 2
7 4
8 3
? "
A mb
B N
B os
B ist
B ram
B iste
B oere
C N
C V
D irk
D rink
E S
E verhard
F eit
F ried
F eitsma
F PS
G o
G al
H C
H art
H yl
I T
I emand
J on
J es
J ild
J onge
J imme
K A
K ees
K allon
L o
L Ã¢n
L og
L eer
L Ãªs
M A
M em
M eer
M itchel
M iedema
N F
N og
N oord
N Ã»mer
N HL
O oster
P F
P op
P os
R u
R IVM
R EC
S am
S is
S im
S wim
T urn
V rij
Z ijn
a iste
a bbel
b it
b ast
b yd
b ud
b loed
b ride
b eien
b oekt
c ken
c ont
c amping
d oss
d jip
d iploma
e a
e ke
e cht
e Ã«n
f as
f ron
f rast
f eilich
g i
g ist
g etten
g if
g yske
g ner
g ids
g uozzen
h ier
h ijn
h alf
h onden
i pen
i bbe
j ur
j aars
k b
k asten
k inga
k oeke
l ander
l uting
m ert
m oard
m oannen
n amelijk
n oarmen
o ken
o gen
o ert
o like
o uwen
o rearre
o uska
p ine
p rik
p aviljoen
r ette
r ales
s o
s jo
s lein
s innich
s ervice
s joernalist
t ien
t ime
u el
u tel
u iker
v l
v et
w or
w imme
w ijf
w oeksen
y an
z aat
z ooi
z zel
z akken
z erda
Ã §
Ġ /
Ġ us
Ġ aarde
en ter
en ets
te gen
te bestriding
Ġd as
Ġd ru
Ġd ug
Ġd ring
Ġd ichte
Ġd insdag
Ġd wars
Ġd ollar
in ium
an o
end ert
Ġf o
Ġf ocht
Ġf yzje
Ġf oks
Ġf ormeel
Ġs uster
Ġs Ã¡
Ġde m
Ġde t
Ġi m
Ġw aan
Ġw ild
Ġw etten
Ġm ing
Ġm ach
Ġm yt
Ġm asters
Ġm kb
Ġo ri
Ġb roch
Ġb iv
Ġb rut
Ġb Ãªsten
Ġb Ãºk
at afersjoch
Ġh ens
Ġh if
Ġh Ã¨
Ġh ippe
et ine
et aka
ch jes
Ġn av
Ġn aaien
el k
el ude
Ġk ru
Ġk arre
Ġk war
Ġk Ã¢lder
yn der
yn tocht
yn aud
st il
st yl
st ander
st oarm
Ġg le
Ġg ok
Ġg ron
Ġg lo
Ġg lÃª
al a
Ġt at
Ġt um
Ġt riuw
Ġt aart
Ġt apas
Ġt olf
Ġt ikke
Ġin zicht
Ġin fectie
Ġin richten
Ġyn b
Ġyn br
Ġyn inoar
Ġyn dield
Ġyn naam
Ġyn nommen
Ġyn grypt
Ġyn tellig
Ġyn kommens
ro und
ri sp
ri gt
Ġe sk
Ġe euw
Ġe stafette
le ad
le kken
Ġp or
Ġp omp
Ġp onghÃ¢lder
re alist
re uder
Ġop Ã»nt
Ġop gro
Ġop ening
Ġop gev
Ġop tocht
Ġop teld
Ġop gelopen
Ġop lizze
Ġop stellen
Ġop slag
Ġop draaie
Ġop roepen
Ġop mars
Ġop zichte
li c
ne st
ne pp
Ġte ru
ur ven
ol y
ol ang
ol yt
it al
it ters
de sk
de putearre
de press
ak sj
Ġmei li
Ġmei holpen
Ġmei spile
Ġmei spylje
ter t
ter reinen
ter skertier
on iem
ie te
om eter
om jouwing
om standigheden
Ãº ten
Ãº ns
ge maal
or ne
or de
or ps
Ġfoar steld
Ġfoar wedstriden
Ġfoar Ã¢lden
Ġfoar sitters
Ã»n ts
der ingen
Ġbe en
Ġbe oor
Ġbe middel
Ġbe wurke
Ġbe keuring
is c
is daad
Ġom kear
Ġom gong
Ġom sette
Ġom jouwings
Ġl int
Ġl ongen
Ġl ake
Ġl eiding
jo ech
Ġv et
Ġv eer
Ġv ullen
Ġv ari
Ġv ice
Ġv ogel
Ġv reem
Ġv ormen
Ġder ta
ra ve
Ġoan kocht
Ġoan nommen
Ġoan hing
Ġoan jout
Ġoan knop
Ġge pro
Ġge wurde
Ġge mis
Ġge holpen
Ġal ven
Ġal co
Ġal weer
aar ske
Ġmo uwe
Ġmo byl
Ġmo gelijke
Ġfer ken
Ġfer lit
Ġfer jit
Ġfer anker
Ġno tearre
Ġno stal
ear me
ear nen
oe men
Ġst om
Ġst if
ts yl
ĠF och
ĠF ood
ĠF eike
Ġj uw
Ġj ir
Ġj arre
uw es
Ġek sek
gen aam
gen ent
us en
It aliÃ«
ĠS V
ĠS ik
ĠS aad
ĠS ara
ĠS ikehÃ»s
ĠS uns
ins oard
Ġby komme
ad sen
ad ske
Ġoer dei
Ġoer giet
im int
im atum
ste arjende
Ġnei team
Ġnei dielen
Ġha ge
Ġse el
Ġse alfuotbal
Ġwe ze
Ġwe zen
Ġmar kante
Ġz Ã³
Ġz oekt
ĠÃºt jaan
ĠÃºt meitsje
ĠÃºt wike
ĠÃºt litte
ĠÃºt jeften
ĠÃ»n ger
ĠÃ»n foar
iel stra
ru ctuur
id ar
ĠB ad
ĠB ek
ĠB uit
ĠB uur
ĠB ild
ĠB Ã»ten
ĠB ret
ĠB all
ĠB uch
ĠB usiness
ĠH Ã´f
ĠH ab
ĠH icht
ĠH its
ĠH ond
ĠH ulp
ĠH IS
ĠH indel
Ġas p
Ġas osjaal
ok ate
gel je
gel sport
we bs
Ġre int
Ġre sten
Ġre mmen
Ġre sept
Ġre stearjende
Ġc ras
Ġc oalitie
ĠL ad
ĠL ek
ĠL jep
ĠL eij
ĠL lanez
ĠA V
ĠA ve
ĠA mers
ĠA tsma
ĠA wards
ĠA TP
es ses
Ġpl ank
Ġpl astic
Ġsa ai
ron tra
Ġsk y
Ġsk om
Ġsk often
Ġsk rikt
ĠÃ´f he
ĠÃ´f nimmen
ĠÃ´f prate
ĠÃ´f freegje
Ġhe a
Ġhe cht
Ġhe ct
Ġhe erlijk
ap lein
Ġer kend
ĠW ig
ĠW iid
ĠW mo
ĠW aren
ĠW Ã»ns
ik aten
ĠN ep
ĠN ard
ĠN asjonale
ĠN ov
Ġtroch b
Ġtroch gong
Ġtroch bringe
Ġhar der
Ġhar mon
Ġr Ã¢nen
oed ens
Ġeen voud
Ġli e
Ġli sten
Ġli fe
Ġli ft
ĠD a
ĠD y
ĠD ong
ĠD up
ĠD ick
ĠM unt
ĠM iddei
ĠM oria
ĠM asho
ĠM uziek
ĠM yrthe
ĠM irka
ĠM eeter
ĠM isdaad
sk am
sk ont
sk rimin
sk omme
sk riuwer
sk Ã»tsje
ĠK em
ĠK ampen
ĠK ore
ĠK ellian
ĠK nepp
ert us
ert oer
oor stra
oor log
ĠG ear
ĠG eite
ĠJ ort
ĠJ ensma
ĠV ers
ĠV ug
ĠV ogt
ĠV Ã¥
Ġme ga
men hoven
Ġcoron ade
pen ije
Ġdan s
Ġbes metten
ut ie
ut zen
ut aasje
ut rale
acht ig
ast rjitte
ĠR ud
ĠR EC
ĠR UG
ĠR hijn
Ġle kt
Ġle art
Ġle vend
Ġwi fi
af val
Ġje ug
ot ters
els en
els ink
ĠP et
ĠP ad
ĠP leats
ĠP ride
ĠP etra
ĠP ippi
ĠP edro
ĠP astoor
Ġgoed s
Ġgoed komt
ul in
ag ere
ag ner
tel t
tel le
tel lingen
ĠT an
ĠT jit
ĠT iger
ĠT oppen
ĠT iny
ĠT IJ
ĠT ornike
ĠT ymon
ĠÃ»nder gean
ĠÃ»nder holden
ĠÃ»nder kommen
ĠÃ»nder kant
ĠÃ»nder linge
ip t
art y
oan bod
oan fragen
ek ant
ek amp
sp unten
ĠC ats
ĠC AO
stra iner
Ġhel berens
ĠE vel
ĠE miel
ĠE spejord
olle ga
ine e
ĠDe ven
In kel
ve ke
Mar k
Ġvoor namelijk
se hof
Ġien en
Ġien rjochtings
ver bod
ale ane
Ġri sk
Ġon get
Ġfers w
Ġfers in
Ġfers ul
Ġfers la
Ġfers iken
ĠO be
ĠO rie
ĠO seaan
Ġsil ers
iene ke
yd skip
Ġkl oppen
Ġkl ante
Ġkl ompen
Ġhoe ken
Ġhoe kje
Ġhoe gden
jocht s
Ġaan sp
mer kt
be erd
be staan
be pal
Ġsl ut
Ġsl aap
Ġsi ken
kom penije
eld oorn
riuw ers
Ġman agers
Ġste unen
Ġste apel
ele on
Ġber eiden
Ġa ir
Ġa zem
Ġhy t
fer ne
fer he
Ġgemeente leden
ite ite
em in
em on
Ġne st
Ġne gear
ings dienst
Ġel ze
Ġbed ragen
Ġbed arret
Ġfol brocht
uur lijk
ate ur
Ġver le
Ġver gelijk
Ġver teld
Ġver keer
Ġplak jes
Ġplak namme
rek ber
rek onomy
Ġsoe pel
Ġbet izing
Ġbel izzers
ist iid
Ġke z
Ġke et
Ġke ale
Ã»nder dielen
Al de
sj et
bo w
Ġgro ene
Ġiepen stean
wurk et
Ġfier den
met oade
amb oek
amb assadeur
Ġbo os
Ġbo eien
Ġpers eel
Ġpers elen
ske ma
Ġbek ost
iv a
Ġhjir nei
foar um
Ġfersk ille
sel ijk
sel ijke
As scher
ade au
ĠZ ol
ĠZ alen
jon ge
Ġwerom sjen
Ġwerom lutsen
Ġwerom pleatst
ĠI brahim
Ġwetter kear
Ġkont in
Ġsy mpo
oop en
Ġfl ach
Ġfl inter
Ġfl uite
aak sum
Ġtal it
ĠÃ»nt man
ĠÃ»nt dek
ĠÃ»nt fangen
Ġtra um
Ġtra pe
Ġtra pp
Ġtra iler
ĠSt ra
ĠSt all
ĠSt rontra
Ġbinnen komme
Ġbinnen helle
Ġra vaazje
wol d
Ġferh ann
Ġferh elpen
tem peratuer
Ġbekend en
Ġbekend ste
lear ret
ram e
get rokken
Ġein en
Ġein igen
ĠAl v
ĠAl ternative
Ġnat ure
Ġuit v
Ġuit nod
pl ot
pl ysje
pl inter
pl atfoarm
Ġ19 38
ĠMar y
ĠMar okk
jier ige
Ġkw alit
rie ur
rie ken
koar ting
Ġap ote
Ġover d
Ġover komen
Ġover zicht
Ġover zien
Ġover gang
Ġover leven
ĠÃ»ndersyk steam
ette t
ĠJong stra
ond ijk
Ġtre ffer
Ġsnein en
aasjes ystemen
Ġaf delingen
Ġfrij litten
ĠSch oon
Ġticht gean
mel t
kear ret
sch ijnlijk
atie k
ic x
ic us
Ġtakom me
ĠAn ita
ĠAn ouska
ĠAn oniem
ĠAn genent
gear komsten
ĠbÃ»ten lanners
ĠbrÃ» kers
Ã© Ã©n
Ġter ro
Ġpre vent
br Ãª
br yk
ĠfÃªst hÃ¢lden
ĠfÃªst iging
ĠhÃ¢n skriften
Ġhier van
Ġferb aar
Ġbegjin faze
Ġpo adia
lit tens
Ġdoor heen
ass er
ĠSte phan
Ġstel den
Ġstel ling
Ġstel lerij
Ġ7 9
Ġsch e
Ġsch ouders
ĠSk ieding
ĠSk otske
Ġfle k
Ġfle sse
Ġrom ant
bel len
bel ange
Ġplan ken
Ġro om
Ġro ub
ried e
Ġwei land
mo aiste
Ġfansels sprekkend
ĠSp ijker
Je ugd
Wat foar
Ġmed ic
Ġmed ische
di ke
Ġkant oor
Ġried keamer
Ġfyts hel
Ġnatuer organisaasje
Ġske p
Ġkomp on
Ġfuotbal fjild
Ġfuotbal wrÃ¢ld
Ġfuotbal fjilden
Ġfuotbal froulju
Ġper ron
elf reed
Ġho ge
Ġdiel de
lis ite
Ġachter Ã´f
Ġachter ban
ĠU we
tern asjonale
Ġbetsjut ten
Ġkar antÃª
Ġsport programma
Ġsport fjilden
Ġefter inoar
ard o
Ġtsjer ker
Ġ8 3
Ġbliid skip
ĠhÃºs genoaten
Ġynf eksje
Ġonder ling
Ġpar as
ho uster
ho ofd
Ġhelp ferlien
Ġpe sten
Ġkamp ear
Ġkamp fjoer
Ġsup ert
pers pektyf
lo os
Ġmee genomen
Ġmee valt
ĠNoard west
hÃ¢ld ing
Ġ10 4
ĠIn ge
ĠBer ber
Ġhele boel
jochte t
ĠTh or
ĠTh ys
Ġ9 4
hannel ers
Ġdra ve
Ġploech genoaten
mar yp
Ġteam sprint
are gem
Ġrekken et
min der
Ġsm ok
Ġgri pe
Ġkn ok
Ġkn op
Ġkn inen
Ġkn uff
ĠGe west
ĠGe zond
Ġres ul
Ġhol len
Ġhoarek abedriuwen
Ġoprop t
kap el
Ġgez onde
Ġgez ichten
Ġstud ie
ĠBe b
Ġiis banen
Ġlo bb
Ġlo adsen
fre d
Ġstim mers
Ġbus kes
Ġbus ferfier
Ġbesikers regeling
artij en
ĠLe ge
ĠLe uven
Ġwurd st
Ġwinkel jen
Ġwinkel kar
ĠDijk man
Ġopr jochter
Ġhaad stik
Ġhaad klass
mid den
ĠEl kien
ĠY slÃ¢n
ĠY pma
Ġfilm makkers
Ġnatuur gebied
Ġyns lein
ĠBel angen
Ġperio aden
Ġbew ijs
Ġbew enster
Ġeksp edysje
Ġ16 00
yste rie
Oan fierder
Ġsj ippe
tra jekt
Ġferd ed
Ġfjoer wapens
Ġsom ber
isser ij
Ġfrijwilligers wurk
ĠHo uw
Ġtaal belied
wÃ¢ld ster
elijk s
ĠAlde houster
Ġgeh oopt
Ġmuzyk feriening
Ġmuzyk ferieningen
Ġmuzyk ferienings
Ġyntern asjon
El ske
Ġak k
Ġwyn mÃ»ne
Ġwyn enerzjy
ko us
lan gen
Ġbi ografy
ny pt
Ġoarloch sjier
ĠÃ»ntst iene
uli mani
Ġun iek
Ġtar iven
Ġtar ekkenber
ĠDo ele
ĠDo utzen
Ġvers oep
Ġbou bedriuw
Ġbou bedriuwen
Ġferwacht ings
Ġferwacht sjen
ryst al
St il
Ġferli ene
Ġstart bewiis
dra al
Ġkultuer jild
ui zend
Ġrjochter kant
ĠÃ»ntwikkel et
Ġtechn iken
ori um
alt h
alt je
Ġkeap man
ctie ve
Ġfar ie
Ġlever ansiers
ĠNij lÃ¢n
alis aasje
Ġag resje
ĠwarskÃ´ gen
Ġgas fjild
ĠBre mer
Ġpersoniel sleden
Ġbeh ouden
omp leks
ĠVer halen
ĠVer zocht
Ġberne wein
Ġmoarn tiid
ĠÃºtsp rekke
Ġwinter sport
Sne ek
ingst iid
Ġstien tsje
Ġynsp ylje
Ġboe zem
Ġfoarstel lings
cent age
Ġdisk oteken
Ġhand having
ĠHol lÃ¢nske
Ġbuert huzen
Ġbuert bus
Ġto ets
Ġferpleech Ã´fdieling
Ġferpleech Ã´fdielingen
Ġku olk
Ã¯n g
Ġhege skoallen
Ġkwyt reitsje
Ġprof yl
Ġtast ream
net werk
Ġynst ru
komm isjes
ĠBerg stra
Ġberjocht sje
Ġwis se
Ġwis sel
ĠhÃ»ndert tÃ»zen
Ġopdracht jouwer
Ġbosk brannen
Ġtran sp
Ġbewe ech
ĠLem sters
ĠLem sterlÃ¢n
Ġlij st
Ġreis advys
Sk riuwer
ĠPr elude
Ġcamping gasten
Ġsle pen
Ġryd baan
Ġryd stripe
ĠRe validatie
ĠWar menhoven
ĠGri ze
Ġlekker e
joern alisten
wÃªz ich
Ġmotor riders
ĠPaul a
Ġferdigen jen
bestjoer en
Ġtrein tsje
Ġeffe cten
Ġopen bare
Ġou dere
Ġbeteken is
ĠSw ette
ĠskÃ»tsje skippers
ĠThe ater
Ġbre dere
ĠDO VO
ĠmÃ»lkapke splicht
ple k
Ġbegel aat
ĠfÃ»gel opfang
vers um
oere urs
bin dt
gra ad
Ġhaven stÃªd
ĠRen z
Ġfracht skip
Ġfracht weinsjauffeur
ĠZoe termeer
Ste ate
Ġoers p
ingt on
ĠhÃ¢ld st
ĠhÃ¢ld ber
Ġparkear je
ĠFean hoop
Ġreedryd seizoen
Ġearedif yzjonist
wat t
Ġdri p
Ġkons ul
fl uen
Ġopsk ood
ĠWester kwartier
ĠrekÃ´r s
ĠTsj om
Pro bleem
Pro grammam
ĠLand elijke
Ġ199 4
Ġ199 6
lang s
alje u
Ġoper a
Be hear
Ġsc oren
elje dder
Ġpod ium
ĠEn g
Ġhou lik
Ġfee ste
Ġfee hÃ¢lderij
Ġpsych ia
Ġwetterskip s
ĠOlymp ische
Ġbele ven
Ġbele stingen
ynf rastruktuer
Ġgele zen
Ġtem per
Ġbeker wedstriid
Ġferklear ringen
Ġfide ok
Ġklean winkel
ĠWal sma
Ġtrans fers
Ġreserv earring
bu bbel
brÃ¢n d
ĠSij ens
hou dt
Ġkust wacht
Ġcar riÃ¨re
Ġrekre anten
Ġkroech baas
AC HT
Ġton nen
Ġopf retten
Ġlil ke
Ġadvis eren
Ġgrif fier
asketbal klup
ĠKar st
Ġfreon like
ĠAld sk
ĠAld hoarne
ĠAld lemmer
Ġamate urs
Ġkompens earje
Ġopge bouwd
ĠVl ot
Ġynte gre
Ġpapier wurk
ĠOoster baan
Tiisdei temoarn
Ġdom me
Ġfru cht
fis y
ĠBoo st
Ġree willi
ĠLang kous
ĠUn iversit
ĠAppels cha
pr aten
Ġband s
Ġomset ferlies
ĠEx plos
Ġbloed proef
ĠHoog hiemster
ilit Ãªr
Ġbiste dokter
Ġmoe te
Ġkombin earjen
ĠKen ings
ĠJap icx
Ġkwalif isearje
ĠsÃ¢l te
ĠVol ks
ĠVol endammer
Ġplat teland
Ġsoarchyn stellings
over heid
Ġ197 1
Ġdram atyske
ĠNatuur museum
Ġboere hiem
ĠDrachtster kompenije
Ġoardelmeter mienskip
Ġoardelmeter maatregel
Ġferkears regel
Ġferkears feiligens
Ġkwest ie
ĠPo uw
ĠPo lit
Ġhimp planten
Ġprodus inten
boar nen
boar ger
kolle ksje
Ġwins kje
ask jende
ĠWij brand
Ġpakket sje
ĠMo skou
Ġcoronate sten
ferh ier
ferh ierders
Ġ196 7
Ġ196 8
Ġferfolch stappen
ff elen
Ġvast houden
ĠFle vo
Ġdaarna ast
ĠHelm ond
oc aust
Ġdal ik
Ġkandid atelist
Ġspoed debat
ĠMolen aar
ĠGar y
Ġsuver ingen
ĠkrÃ» p
ĠSip pe
ĠPe aske
Ġymp os
Ġshorttrack ster
Ġgl oar
Ġgl yd
Ġgl Ãªd
Ġiepening streffer
Ġopfol ge
old aat
ĠMon ique
Ġbried seizoen
Ġgryp te
Ġfolk ssÃ»nens
Ġfolk stÃºn
Ġfolw eardich
Ġrot ten
Ġrot zooi
Ġsirk ulÃªr
Ġfrouljus fuotbal
Ġeksposysje s
Ġferfang t
ĠLim boargers
Ġhurdfyts ers
ĠRein der
Ġgevol g
Ġstar ters
ĠFin als
HollÃ¢n ske
ĠBen nema
ĠDavid s
Ġearm takke
Ġdire cte
kon ten
Ġlin tsjes
Ġspeel de
Ġscoo ters
38 1
Ger rit
Ġrepar earre
Ġrepar earje
AR IN
Ch ris
Ġferster king
Ġemos jonele
Waar om
Waar man
Ġment aliteit
Ġbasketbal klup
Ġferslach jouwers
Ġbene amen
Wer eld
Ġvro lijk
skl asse
ĠRu terskertier
Ġfertsjintwurd iger
Ġfideo beljen
lant a
ĠBil gaard
ĠLangwar der
Ġmas ines
Ġkj eld
ynst allaasjes
Ġoanmeld ings
ĠÃ»ndersk ied
ĠElfsteden hal
Ġemo ji
ĠÃ»ntd uts
ix ed
Ġpom pen
Ġoranje koeke
Ġtransfer frij
Ġstoel en
ĠSpe el
Ã¶per aasjes
Ġstasjons gebou
lin y
Ġseizoens hel
Ġfertro ud
ĠkrÃºs bÃ¢n
ĠkrÃºs jaal
Ġtele visie
ĠVeld man
ĠPa is
Ġkni bbels
Ġmonum inte
Ġanty stoffen
Ġanty depress
kons ern
Ġynstjoer e
Ġskipfeart ferkear
Ġhanteken ingen
dem ont
Ġla waai
Ġoank amen
Ġcomm issie
ĠÃ´fst imd
ĠMarten a
Ġdemonstre arre
Ġdemonstre arje
ĠGrinzer strjitwei
part ner
Ġwon ingen
Ġhok foar
Ġmob iliteit
Ġongel of
Ġtol ven
terape uten
Ġkrimp regio
ĠTim o
Ġfersteur en
Ġfersteur ing
Ġsym bo
Ġverspr eiden
Ġhynste keuring
Skip pen
wo gen
ĠEag maryp
rijf hout
ferkie zing
Ġtradis joneel
klus ive
Ġseeh Ã»n
Ġult imatum
Ġkateg oryen
gew eld
ĠEis enga
Ġhoeveel heid
ĠId zerda
Ġstrjit wearde
Ġwenningbou korpor
ĠBitgum mole
Ġbrom mobyl
Ġham ster
Ġynbrek ker
Ġferlyk jen
ĠVoor streek
Ġberekken ing
Ġsmo ok
ĠDutch esses
ĠMienskip sfÃ»ns
gefaar like
Ġonderste uning
Ġmat ch
ash board
ĠBlok huis
ĠBlok huijsen
ĠVogel onderzoek
ĠSpan jer
Ġynspek teur
Ġorizjin eel
Ġorizjin aliteit
Coron anijs
woord ig
Ġklimaatferoar ingen
Ġsyd kant
deb Ãºt
ruim en
Ġdone arre
Ġmedi agroep
ĠÃ»nderdÃ»k adres
Ġeconom ie
Ġfunksjone arje
Ġfunksjone arret
Ġinternation aal
Ġynventaris aasje
Ġfermoed ens
Ġstru ct
ĠSmid s
appar atuer
ĠMau reen
ĠMau rits
Ġverk open
wan ing
Ġdor pen
Ġstren gere
ĠNatuer monuminten
Ġspand oek
ĠDuit sland
ĠCap aris
Ġfrees like
Ġverpleeg huizen
Ġdemonstr eren
Ġlichaam like
ĠTjongers chans
Ġekstre me
ĠBla uw
ĠKoo ij
Ġkrist lik
Ġpred ikaat
Ġgearst ald
ĠWilde boer
bla uwe
Ġlam pe
wek kende
oper a
ĠDan iel
Ġprobe er
ĠÃºtsk reaun
Ġtopskoar der
IJ S
uig demont
Ġfjocht partij
Ġnad at
Ġtyp ysk
ĠrÃ´f b
Ġbiz ar
Spit igernÃ´ch
Vand aar
hon dt
Ġfakt oaren
Ġbol tsjes
Ġfanat ike
Ġpuz zel
ĠAran ezen
Ġond uidelijk
Ġfersl oech
Ġkeep ers
Ġaktiv ist
Ġduiz enden
Ġfand alisme
ĠBest joer
ĠAz iÃ«
Ġskam je
ĠJes se
ĠPas c
bbers guod
ĠienfÃ¢ld iger
Ġperman int
Ġstienm urden
ĠFierljep pen
ĠHasker hoarne
Ġljochte t
ĠÃ»ngel okkich
ĠHaar lem
Ġreder ijen
ĠKru idhof
ĠKeamerferkie zings
Ġaksept abel
Ġakkommod aasjes
Ġverbind ing
kandid aten
Ġtonger buien
ĠSher el
ĠDom ela
ĠKinder opvang
ĠÃ»nderhannel ingen
Ġberch rede
Ġbestim mings
Ġfamili es
Ġbeppes izzer
materi eel
Ġgigant ysk
Car oline
Dok ter
Hurd fytser
Wink els
uv re
Ġocht end
Ġocht ends
ĠLee uwen
ĠKla ver
verlen ers
Ġrid lik
ĠOt to
petear en
Ġeffis jin
Ġsno bbersguod
Ġoanspiel de
Ġelektrisiteits net
Mart in
Ġinte resse
Ġinsp ir
Ġpitt ige
ĠVegel insoard
ĠTurk ije
ĠTromp etter
Ġferhuz ing
ĠSchip hol
Ġpreste arje
Ġpriiz get
Ġontde kt
Ġbrul loft
Ġprogrammam akker
Jou ke
Jac ob
Toer isten
Ġiep ens
Ġpont on
Ġferga derje
ĠÃºtbaar nd
Ġcrimin ele
Ġsater dei
ikkes luter
Ġsteur ingen
sjon ele
Ġbestjoersk risis
Ġnijjier staspraak
Ġschilder ijen
Ġnatuerbehear ders
Ġdetail hannel
Organis aasjes
Heer inga
Tre vor
Ġyngenie ur
Ġjerry can
Ġzuid elijke
Ġrepe tearje
ĠDolf ijn
ĠKaze matten
ĠCla us
ĠOekra Ã¯ne
skips behear
Ġfergri zing
Ġdegrade arje
Ġvijft ig
Bear s
Saak kundigen
Ġbuer ts
Ġbomme werper
omrop fryslan
Ġbefre one
ĠSic ke
ĠSov on
Ġskand alich
ĠPre mier
ĠTij tsma
Ġbran che
Ġversoepel ing
Ġfunde arring
Skier mÃ»ntseach
ĠAdv ys
ĠMatth ijs
Ġmultyfun ks
Prom s
Rest aurant
grin zen
loss ing
Ġiz eren
Ġgn iis
Ġoerwinn ingen
ĠÃ»nwenn ich
ĠAren a
Inisjatyf nimmer
Ġaanb ieden
Ġfreel ance
ĠNederlÃ¢ns ktalige
Ġappl aus
Ġsnack bar
Ġbepal end
ĠIng wierrum
Gew eld
ĠOff inga
Ġtransgend er
Ġapparteminte kompleks
Ġophing je
ĠÃ´ftw inge
ĠRinsuma geast
TÃ»zen en
leren ga
tam u
Ġnal at
Ġnasjon aliteit
Ġisole mint
demon straasje
Ġmeisj onge
Ġalum inium
Ġferstann ige
Ġneilitten skip
ĠLU NA
ĠRoord a
Ġtwaal f
Ġonbek end
Ġferhale jÃ»n
ĠHarts uiker
Ġbelanghaww enden
Ġschad elijk
Ġdress uer
Ġbarbec ue
ĠYo ung
Ġtoeval lig
Ġklassemints lieder
ĠVerhoe ven
ĠOpspor ing
ĠAnnem iek
Ġtransform ator
ĠÃ»ndÃºd likens
ferskyn sels
ĠEmmel oord
ĠTwellinge a
Ġpowerpl ay
King ma
Saf olle
Ġsje f
Ġswi erste
Ġweers omstandigheden
ĠWeiden aar
ĠDres den
ĠGryp tsjerk
ĠChallen ge
Ġkondo le
Ġplakferfang end
Ġoardelmete rekonomy
ĠFrÃ¢ns man
Ġzorgv uldig
Ġstjertes ifer
Ġdoetiid ske
ĠMedi agroep
Ġcommerc iÃ«le
ĠPrinces sehof
Gal ama
frast ructuur
wijf eld
etine erden
Ġtolf de
Ġynbr ing
Ġteru gge
Ġoanknop ingsp
Ġgepro beerd
Ġalco hol
ĠHits um
ĠHIS WA
ĠHindel oopen
Ġcras h
ĠLjep pers
ĠAve zaat
ĠAmers foort
ĠWaren autoriteit
ĠKnepp elfreed
ĠGeite fok
ĠVug ht
ĠVÃ¥ lerenga
elsink i
ĠTIJ D
Ġienrjochtings ferkear
Ġonget wijfeld
ĠStall mann
ĠStrontra ce
ĠExplos ieven
Ġantydepress iva
0 2
4 9
6 1
6 5
A ns
B on
B us
B io
B au
B eiden
B oat
B ennie
B Ã»nscoach
C BS
C OA
D K
D L
D aan
D enk
D anny
D rokte
E A
E L
E s
E SCO
F P
F l
F le
F jir
F yf
F VW
G ed
G een
H end
H ou
H iem
I C
I I
I Is
J im
J ens
J olanda
K K
K on
K elder
K ooi
K orte
L T
L et
L im
L ucas
M ir
M aat
M iyachi
M ikrobiolooch
N ie
N ou
O be
O CL
P e
P ar
P ass
P iter
P ublyk
P laza
R I
R ie
R es
S ie
S il
S ip
S inds
S ikehÃ»s
S igrid
T ige
T huis
T olve
U l
W en
W assenaar
W ieling
W outer
Z onder
a ik
a ult
a qu
b at
b uiten
b rich
b ollen
b onnen
b Ã»nscoach
c s
c x
c er
c teur
c ee
c ue
c ultuur
c afÃ©
d yn
d le
d ras
d uc
d aagse
f ke
f il
f baan
f ils
g ran
g jend
g net
g atten
g reide
g ooid
h y
h in
h onk
h Ã»nen
h okken
h inger
i i
i am
i bal
j as
j un
j ong
j assen
j urk
k jes
k ertier
k oalle
l ot
l aasje
l ler
l ugten
m je
m ber
m ite
m ase
m urken
n ia
n ames
o asje
o sje
o ond
o aze
p ed
p ier
p rom
p annen
p ret
p elen
p ompen
p istoal
r Ãª
r Ãªft
s z
s winkel
s uper
t ak
t ie
t ine
t urn
u jo
u yk
u gel
u ters
u ist
u rich
u jar
v je
v aar
v els
v yzje
w ak
w aasjes
w ijd
w oude
y zjet
z n
z ige
z itten
z one
° Å
Ã ī
Ġ :
Ġ ach
Ġ ute
te rist
te Ã¤ter
Ġd r
Ġd ink
Ġd rop
Ġd arts
Ġd Ã¡
Ġd urven
er te
er werf
er adiel
in ze
in tsje
in av
an jon
end y
end ra
end aal
ar g
ar me
ar lik
Ġf ik
Ġf Ã»ne
Ġf act
Ġf ail
Ġf jouwert
Ġs un
Ġs ets
Ġs olo
Ġs inteklaas
Ġs oorten
Ġde un
Ġde els
Ġde gelijk
Ġde skundigen
Ġde putearren
Ġi j
Ġi dio
Ġw j
Ġw ets
Ġw raak
Ġm ys
Ġm ine
Ġm ije
Ġm Ã»s
Ġm its
Ġm unten
Ġm yld
Ġm urken
Ġo ut
Ġo esters
Ġb uit
Ġb line
at y
at sen
at sjen
at her
at han
Ġh oar
Ġh bo
Ġh alt
Ġh okje
Ġh ikkesluter
et st
et sen
et Ã»zen
et ta
et rainer
Ġn ek
el id
el ied
el oos
Ġk oron
Ġk art
Ġk ade
Ġk ochten
Ġk ern
Ġk ongres
Ġk oereurs
st ak
st ond
st ipe
st urt
st imming
st sjinsten
Ġg eite
Ġg ids
al ike
al kohol
Ġfan grail
Ġt im
Ġt rom
Ġt ram
Ġt rocht
Ġt ande
Ġt opp
Ġt onen
Ġt ilt
Ġin c
Ġin tocht
Ġin gericht
Ġyn der
Ġyn sit
Ġyn pl
Ġyn hel
Ġyn aze
Ġyn hÃ¢lde
Ġyn jek
Ġyn ljochte
ro men
ro tte
oar yske
Ġen ig
Ġis lam
ri v
Ġe end
Ġe et
le ma
le azens
Ã» tsjes
Ġp ip
Ġp aal
Ġp up
Ġp aard
Ġp Ãºn
Ġp istoal
Ġp andemie
re p
re spond
Ġop a
Ġop fallen
Ġop port
Ġop fle
Ġop stjoerd
Ġop genomen
Ġop vangen
Ġop iny
Ġop fiere
li ts
li ger
li erk
ne ming
Ġte ch
Ġte ater
Ġte ology
Ġte oret
as eerd
ur rent
ol s
ers ke
de ur
de gra
de mok
Ãª der
ak lik
Ġmei en
Ġmei sje
Ġmei sjen
Ġmei komme
ter jochte
De selde
ie u
ie me
om te
om st
om eijer
Ãº ms
am ad
am iteit
am straat
am mele
ge k
ge z
ge ke
ge meester
or ing
or gelijk
Ġfoar b
Ġfoar elkoar
Ġfoar rieden
Ġfoar behÃ¢ld
der fgoed
Ġbe a
Ġbe an
Ġbe ar
Ġbe ach
Ġbe fallen
Ġbe fin
Ġbe moed
Ġbe wize
Ġbe bouwing
Ġbe keur
Ġbe boude
Ġom d
Ġom h
Ġom laat
Ġom hoog
ij kt
Ġl er
Ġl ade
Ġl ost
Ġl oss
Ġl Ã´ge
Ġl ampen
Ġv een
Ġv uurt
Ġv liegen
Ġder tusken
ra b
ra i
ra agel
Ġoan ret
Ġoan makke
Ġoan lever
Ġoan nimme
Ġoan rjochte
Ġoan hÃ¢ldt
Ġge Ã¯
Ġge stuurd
Ġge opend
Ġnet werk
Ġal ar
Ġal mar
Ġal hiel
Ġfer get
Ġfer war
Ġfer fallen
Ġfer wurkje
Ġfer ljochting
Ġno or
Ġno ve
Ġno em
Ġno ta
ear le
oe f
Ġst jitte
Ġst rik
Ġst oep
Ġst ation
Ġst Ã´k
Ġst jert
ts et
ts gea
ts wimbad
Ġwur kt
ĠF ys
ĠF ren
ĠF ried
ĠF iets
ĠF ederatie
ĠF iskerij
ĠF vD
Ġj ur
gen t
ĠS es
ĠS ep
ĠS ake
ĠS ikke
ĠS einstra
ĠS oph
Ġby wen
Ġby rider
Ġby prate
Ġby ienkomst
Ġwol k
ze f
Ġoer komt
Ġoer bringe
Ġoer gryslik
Ġoer pleatst
Ġoer pake
im men
me a
me ssen
ste ken
ste and
Ġkom plot
Ġmar it
aan deren
ĠÃºt lein
ĠÃºt kl
ĠÃºt diele
ĠÃºt helje
ĠÃºt falt
ĠÃºt brutsen
ĠÃºt litten
ĠÃºt wiisd
ĠÃºt braken
ĠÃºt wiksel
ĠÃºt rekkene
ĠÃºt keazen
ru n
id ium
ĠB ri
ĠB Ã»n
ĠB and
ĠB od
ĠB aard
ĠB uurt
ĠB ante
rys te
ĠH ij
ĠH and
ĠH ul
ĠH eit
ĠH ub
ĠH ob
ĠH Ã»ne
ĠH istoar
ĠH ekke
ĠH enny
ĠH igh
ĠH PV
ĠH elsinki
Ã¢l t
Ġas o
we ster
we intich
Ġsei st
un ia
Ġre sint
Ġre uring
Ġre actie
Ġre bÃ»lje
ĠFrys man
op s
op per
op pers
Ġc as
Ġc ond
Ġc anon
ĠL is
ĠL og
ĠL oo
ĠL aren
ĠL onk
ĠL oonstra
ich en
ĠA ma
ĠA dema
ma il
es kip
Ġpl asse
ron k
ĠdÃªr ta
Ġsk op
Ġsk yt
Ġsk oans
Ġsk onk
Ġsk ommel
Ġsk erper
ĠÃ´f k
ĠÃ´f lizze
ĠÃ´f rinne
ĠÃ´f blaasd
Ġhe ff
Ġhe wwe
ap s
ap ole
Ġer om
Ġer onder
ĠW aar
ĠW ite
ĠW ild
ĠW iers
ĠW elle
ĠW IN
ĠW edstriid
ĠW obbe
Ġdo cent
ĠN A
ĠN ee
ĠN iek
ĠN enets
Ġtroch inoar
Ġtroch fierd
Ġtroch start
Ġsp ant
Ġsp arre
Ġsp arjen
Ġsp ijt
Ġsp rook
Ġsp antsjes
Ġhar de
Ġhar ket
Ġr inge
Ġr innende
Ġr innend
Ġjier basis
ef ver
ĠD oan
ĠD uin
ĠD ian
ĠD rag
ĠD oarp
ĠD ienst
ĠD PG
ĠD rijfhout
Ġvan ochtend
ĠM inne
ĠM od
ĠM aas
ĠM ont
ĠM ieden
ĠM ake
ĠM inner
ĠM az
ĠM aks
ĠM aars
ĠM intjes
Ġpro eftiid
Ġpro gnoaze
sk om
sk etten
sk oppen
sk amera
ĠK V
ĠK Z
ĠK a
ĠK ur
ĠK its
ĠK ont
ĠK lijn
ĠK BO
ĠK ringloop
ĠK oos
ĠK itty
ĠK FPS
and ra
and inav
ert uigen
oor sma
ĠG R
ĠG em
ĠG reen
ĠG jalt
ĠG elske
um pel
ĠJ en
ĠJ ade
ĠJ erry
ĠJ abik
ĠJ olanda
ĠJ eltje
ĠV ier
ĠV SV
ĠV AM
ĠV idar
ĠV DL
Ġme an
Ġme em
Ġme ager
Ġme agere
men Es
Ġwaar som
Ġbes effen
ut ters
int um
int iend
ast goed
ĠR ik
ĠR eid
ĠR au
ĠR ic
ĠR oll
ĠR onde
ĠR SG
Ġle d
Ġle est
Ġle kken
ot he
ot her
Ġhiel tiid
els ea
ĠP y
ĠP ass
ĠP ander
ĠP oll
ĠP ijl
ĠP eper
ĠP iekstra
ĠP uigdemont
Ġgoed k
ul er
ul pen
ul aasje
ul lende
ag i
ag o
ag je
ag jen
ag inten
ĠT ak
ĠT ien
ĠT em
ĠT ran
ĠT alen
ĠT itus
ĠT ikTok
ĠÃ»nder wetter
ĠÃ»nder fynt
oan iel
oan bieders
ek ing
ek ers
ong festival
sp ullen
sp osysje
sp lannen
sp rijs
oer den
oer gong
ĠC ro
ĠC ote
ĠE en
ĠE li
ĠE up
ĠE iken
ĠE enheid
ĠE ems
ine p
Ġbli de
eid et
eff a
og ram
Ġbr eiden
Ġbr antsjes
Mar ijke
Mar win
Mar cel
Ġvoor stel
Ġvoor stellingen
Ġvoor zien
Ġvoor lopig
se edyk
ig ua
ver haal
Ġsit plak
Ġri gen
Ġon be
Ġon nod
Ġfers laan
Ġfers ekere
ĠO SG
ĠO OCL
yl t
yl jen
yl um
ende mint
Ġsil len
yd s
Ġkl ei
Ġkl us
Ġkl inyk
Ġkl opje
pe gel
Ġhim mele
Ġaan bod
Ġaan wij
Ġaan leggen
be wenner
be elden
be weging
be intum
oal je
Ġsl yk
Ġsl op
Ġsl jocht
Ġsl oot
Ġkon if
Ġkon venant
rij k
akt yf
Ġtsjin hÃ¢lden
riuw ende
Ġste ap
Ġste and
Ġste iger
Ġste mming
ele sting
Ġa u
Ġa uten
Ġhy bride
fer wurking
fer leging
fer tsjintwurd
Ġgemeente fÃ»ns
ann et
ite waasje
Ġei gner
Ġmet alen
Ġbed arje
Ġfol je
stel t
stri t
Ġver gel
Ġver war
Ġver di
Ġver zoek
Ġver lies
Ġhie st
rek reaasje
Ġbet rekken
Ġbet aalt
Ġbet inker
Ġbel Ã»ke
Ġbel asting
Ġwel licht
Ek hart
Ġdoar en
Al y
Al ert
Al tyd
sj itter
sj auffeur
Ġeigen aar
uer es
ab r
ab uorren
Ġlang st
amp anje
Ġfier lje
nim ato
Ġze egras
Ġbo dy
Ġbo lide
Ġben au
Ġben utten
Ġmoet sjen
Ġkun sten
Ġkear de
ske amer
Ġbest aat
ger ichte
Ġbek lim
Ġcoronaf rij
iv elf
foar men
foar stellingen
foar skriften
Ġaut onomy
lij den
gge st
Ġfi li
mers ma
Ġskoal wurk
ent je
Ġjo sels
ster n
ĠZ e
ĠZ elf
ĠZ CN
Foar Ã´f
Foar gonger
jon Ãªr
Ġfyn sten
Ġwerom bringen
Ġwerom draaid
ĠI ra
ĠI ron
ĠI KO
ĠI erske
Ġwetter fÃ»gels
Ġwetter sporters
oop mans
Ġfl y
Ġtal inten
[...]
