{"<|endoftext|>":0,"!":1,"\"":2,"#":3,"$":4,"%":5,"&":6,"'":7,"(":8,")":9,"*":10,"+":11,",":12,"-":13,".":14,"/":15,"0":16,"1":17,"2":18,"3":19,"4":20,"5":21,"6":22,"7":23,"8":24,"9":25,":":26,";":27,"<":28,"=":29,">":30,"?":31,"@":32,"A":33,"B":34,"C":35,"D":36,"E":37,"F":38,"G":39,"H":40,"I":41,"J":42,"K":43,"L":44,"M":45,"N":46,"O":47,"P":48,"Q":49,"R":50,"S":51,"T":52,"U":53,"V":54,"W":55,"X":56,"Y":57,"Z":58,"[":59,"\\":60,"]":61,"^":62,"_":63,"`":64,"a":65,"b":66,"c":67,"d":68,"e":69,"f":70,"g":71,"h":72,"i":73,"j":74,"k":75,"l":76,"m":77,"n":78,"o":79,"p":80,"q":81,"r":82,"s":83,"t":84,"u":85,"v":86,"w":87,"x":88,"y":89,"z":90,"{":91,"|":92,"}":93,"~":94,"¡":95,"¢":96,"£":97,"¤":98,"¥":99,"¦":100,"§":101,"¨":102,"©":103,"ª":104,"«":105,"¬":106,"®":107,"¯":108,"°":109,"±":110,"²":111,"³":112,"´":113,"µ":114,"¶":115,"·":116,"¸":117,"¹":118,"º":119,"»":120,"¼":121,"½":122,"¾":123,"¿":124,"À":125,"Á":126,"Â":127,"Ã":128,"Ä":129,"Å":130,"Æ":131,"Ç":132,"È":133,"É":134,"Ê":135,"Ë":136,"Ì":137,"Í":138,"Î":139,"Ï":140,"Ð":141,"Ñ":142,"Ò":143,"Ó":144,"Ô":145,"Õ":146,"Ö":147,"×":148,"Ø":149,"Ù":150,"Ú":151,"Û":152,"Ü":153,"Ý":154,"Þ":155,"ß":156,"à":157,"á":158,"â":159,"ã":160,"ä":161,"å":162,"æ":163,"ç":164,"è":165,"é":166,"ê":167,"ë":168,"ì":169,"í":170,"î":171,"ï":172,"ð":173,"ñ":174,"ò":175,"ó":176,"ô":177,"õ":178,"ö":179,"÷":180,"ø":181,"ù":182,"ú":183,"û":184,"ü":185,"ý":186,"þ":187,"ÿ":188,"Ā":189,"ā":190,"Ă":191,"ă":192,"Ą":193,"ą":194,"Ć":195,"ć":196,"Ĉ":197,"ĉ":198,"Ċ":199,"ċ":200,"Č":201,"č":202,"Ď":203,"ď":204,"Đ":205,"đ":206,"Ē":207,"ē":208,"Ĕ":209,"ĕ":210,"Ė":211,"ė":212,"Ę":213,"ę":214,"Ě":215,"ě":216,"Ĝ":217,"ĝ":218,"Ğ":219,"ğ":220,"Ġ":221,"ġ":222,"Ģ":223,"ģ":224,"Ĥ":225,"ĥ":226,"Ħ":227,"ħ":228,"Ĩ":229,"ĩ":230,"Ī":231,"ī":232,"Ĭ":233,"ĭ":234,"Į":235,"į":236,"İ":237,"ı":238,"Ĳ":239,"ĳ":240,"Ĵ":241,"ĵ":242,"Ķ":243,"ķ":244,"ĸ":245,"Ĺ":246,"ĺ":247,"Ļ":248,"ļ":249,"Ľ":250,"ľ":251,"Ŀ":252,"ŀ":253,"Ł":254,"ł":255,"Ń":256,"en":257,"te":258,"Ġd":259,"er":260,"in":261,"an":262,"of":263,"end":264,"xt":265,"ofte":266,"<|":267,"|>":268,"endofte":269,"endoftext":270,"ar":271,"Ġf":272,".<|":273,"Ġs":274,"Ġde":275,"Ġi":276,"Ġw":277,"Ġm":278,"Ġo":279,"Ġb":280,"at":281,"Ġh":282,"et":283,"ch":284,"ei":285,"Ġn":286,"el":287,"Ġk":288,"yn":289,"Ġit":290,"st":291,"je":292,"Ġg":293,"al":294,"Ġfan":295,"Ġt":296,"Ġin":297,"Ġyn":298,"ro":299,"oar":300,"Ġen":301,"Ġis":302,"ri":303,"Ġe":304,"le":305,"Ã»":306,"Ġp":307,"re":308,"Ġop":309,"li":310,"ke":311,"ing":312,"Ġdat":313,"ed":314,"ne":315,"Ã¢":316,"Ġte":317,"as":318,"ur":319,"ol":320,"it":321,"ers":322,"de":323,"Ãª":324,"ak":325,"Ġmei":326,"ter":327,"De":328,"on":329,"ie":330,"cht":331,"om":332,"Ãº":333,"am":334,"ge":335,"or":336,"Ġfoar":337,"ken":338,"Ã»n":339,"der":340,"Ġbe":341,"is":342,"Ġom":343,"Ã¢n":344,"ij":345,"Ġl":346,"jo":347,"inne":348,"Ġv":349,"Ġder":350,"ra":351,"Ġoan":352,"ys":353,"Ġge":354,"Ġnet":355,"Ġal":356,"aar":357,"Ġmo":358,"Ġfer":359,"'t":360,"Ġno":361,"ier":362,"ear":363,"oe":364,"Ġst":365,"ten":366,"ts":367,"Ġwur":368,"ĠF":369,"Ġj":370,"il":371,"uw":372,"den":373,"\"<|":374,"Ġek":375,"ĠÃº":376,"gen":377,"us":378,"Ġdy":379,"It":380,"ĠS":381,"ins":382,"iet":383,"Ġby":384,"Ġwol":385,"ad":386,"Ãªr":387,"ien":388,".\"<|":389,"ze":390,"Ġoer":391,"im":392,"yk":393,"me":394,"ste":395,"Ġnei":396,"Ġha":397,"Ġbinne":398,"Ġkom":399,"lÃ¢n":400,"Ġse":401,"Ġwe":402,"Ġmar":403,"jen":404,"Ã´":405,"aan":406,"Ġz":407,"jin":408,"ĠÃºt":409,"ĠÃ»n":410,"iel":411,"Ġhat":412,"ru":413,"id":414,"ĠB":415,"rys":416,"ĠH":417,"Ã¢l":418,"Ġas":419,"ok":420,"ens":421,"gel":422,"Ġnoch":423,"we":424,"Ġsei":425,"un":426,"Ġre":427,"roch":428,"ĠFrys":429,"op":430,"Ġhet":431,"Ġc":432,"ĠL":433,"ich":434,"Ã´f":435,"ren":436,"ĠA":437,"lik":438,"Ġ1":439,"Dat":440,"ma":441,"dt":442,"es":443,"Ġpl":444,"Ġsa":445,"ron":446,"ĠdÃªr":447,"Ġsk":448,"Ġwie":449,"ĠÃ´f":450,"Ġhe":451,"ap":452,"Ġmoat":453,"Ġer":454,"ĠW":455,"ik":456,"Ġdo":457,"Ġwer":458,"insken":459,"ĠN":460,"Ġtroch":461,"Ġsp":462,"Ġ'":463,"nen":464,"Ġhar":465,"Ġr":466,"Ġjier":467,"kt":468,"Ġoar":469,"ef":470,"oed":471,"Ġeen":472,"Ġli":473,"Ġwat":474,"ĠD":475,"Ġvan":476,"ant":477,"ĠM":478,"Ġpro":479,"Ġik":480,"sk":481,"ĠK":482,"and":483,"Ġ2":484,"Ġminsken":485,"ert":486,"Ġseit":487,"oor":488,"ĠG":489,"ach":490,"Ġmear":491,"jouw":492,"ir":493,"oron":494,"um":495,"Ġkri":496,"ĠJ":497,"Ġwurde":498,"ĠV":499,"00":500,"Ġme":501,"men":502,"ingen":503,"Ġcoron":504,"pen":505,"asje":506,"Ġalle":507,"Ġwaar":508,"Ġdan":509,"Ġof":510,"sje":511,"Ġbes":512,"ut":513,"acht":514,"Yn":515,"int":516,"ast":517,"ĠR":518,"Ġear":519,"Ġle":520,"Ġwi":521,"af":522,"ang":523,"Ġkin":524,"Ġje":525,"ot":526,"Ġhiel":527,"els":528,"aat":529,"ĠP":530,"Ġwurdt":531,"Ġti":532,"Ġgoed":533,"ĠFryslÃ¢n":534,"ul":535,"\",":536,"Ġso":537,"ag":538,"tel":539,"ĠT":540,"Ġts":541,"zen":542,"ĠÃ»nder":543,"ip":544,"aal":545,"aasje":546,"Ġhaw":547,"ou":548,"Ġdit":549,"art":550,"oan":551,"ek":552,"ong":553,"Ġsyn":554,"len":555,"Ġ\"":556,"zze":557,"Ġtw":558,"ijn":559,"Ġkinne":560,"Ġdi":561,"Ik":562,"sp":563,"dei":564,"Ġhawwe":565,"Ġniet":566,"ven":567,"oer":568,"etter":569,"Ġwy":570,"Ġgru":571,"ĠC":572,"os":573,"stra":574,"ber":575,"Ġhel":576,"ker":577,"Ġmak":578,"ĠE":579,"olle":580,"ine":581,"ĠDe":582,"meen":583,"Ġbli":584,"eid":585,"eff":586,"Ġmin":587,"eder":588,"og":589,"In":590,"ort":591,"ve":592,"aam":593,"Ġgjin":594,"ĠLjouw":595,"ysje":596,"Ġbr":597,"ders":598,"bb":599,"Ġgemeen":600,"Mar":601,"effens":602,"Ġvoor":603,"tsje":604,"se":605,"Ġien":606,"ig":607,"Der":608,"ver":609,"Ġgrut":610,"ale":611,"Ġgiet":612,"Ġsit":613,"sten":614,"Ġri":615,"Ġmoatte":616,"Ġon":617,"Ġwaard":618,"Ġkomt":619,"ocht":620,"sen":621,"Ġfers":622,"ĠO":623,"ije":624,"yl":625,"We":626,"ende":627,"Ã¢ld":628,"Ġsil":629,"iene":630,"yd":631,"Ġkl":632,"Ġhoe":633,"pe":634,"Ġzijn":635,"wur":636,"rom":637,"uit":638,"Ġoare":639,"Ġhim":640,"jocht":641,"fe":642,"Ġaan":643,"Ġwurk":644,"mer":645,"be":646,"oal":647,"Ġsl":648,"Ġsoad":649,"Ġmaar":650,"Ġkon":651,"rij":652,"Ġta":653,"akt":654,"Ġsi":655,"gels":656,"kom":657,"Ġtsjin":658,"oen":659,"arre":660,"Ġoant":661,"Ġkomme":662,"eld":663,"Ġnije":664,"riuw":665,"Ġman":666,"DÃªr":667,"Ġste":668,"En":669,"Ġtwa":670,"ele":671,"Hy":672,"Ġdie":673,"Ġber":674,"ink":675,"Ġa":676,"Ġhy":677,"ĠLjouwert":678,"fer":679,"Ġgemeente":680,"ann":681,"Ġbeg":682,"ech":683,"ite":684,"em":685,"waan":686,"irus":687,"heid":688,"bben":689,"Ġharren":690,"Ġei":691,"Ġne":692,"joer":693,"Ġ20":694,"ings":695,"Ġdizze":696,"ĠwÃª":697,"enn":698,"Ġel":699,"Ġmet":700,"Ġbed":701,"Ã»s":702,"Ġfol":703,"stel":704,"uur":705,"Op":706,"epen":707,"Ġfre":708,"Ġdus":709,"Ãªst":710,"stri":711,"ĠNeder":712,"up":713,"Ġsoar":714,"rÃ»":715,"Ġsne":716,"rop":717,"ige":718,"ep":719,"io":720,"ate":721,"Ġver":722,"Ġhie":723,"jir":724,"yts":725,"zje":726,"ters":727,"ĠFryske":728,"Ġplak":729,"ĠhÃ¢l":730,"och":731,"ijk":732,"jer":733,"Ġearste":734,"Het":735,"Ġook":736,"insje":737,"annen":738,"rek":739,"Ġ(":740,"Ġfu":741,"ris":742,"ied":743,"ling":744,"Ġsoe":745,"Ġbet":746,"ĠÃºs":747,"Ġbel":748,"Ãºs":749,"yf":750,"Ġbin":751,"eit":752,"Ġdwaan":753,"au":754,"fal":755,"ist":756,"agen":757,"Ġwel":758,"Ek":759,"Ãºt":760,"Ġkaam":761,"dat":762,"Ġsjen":763,"Ġdoar":764,"Se":765,"like":766,"Ġtiid":767,"edstri":768,"Ġplysje":769,"tyd":770,"Ġke":771,"Ã»nder":772,"Al":773,"earren":774,"usken":775,"gan":776,"sj":777,"ild":778,"'s":779,"Ġsels":780,"inn":781,"Ġpart":782,"fean":783,"Ġeigen":784,"bo":785,"Ġgew":786,"ries":787,"ĠwÃªze":788,"Ġtri":789,"uro":790,"etten":791,"ganis":792,"itte":793,"Neffens":794,"Ġ3":795,"aksje":796,"uer":797,"oel":798,"?<|":799,"Ġwike":800,"Ġgro":801,"aatre":802,"Ġgrutte":803,"ab":804,"Ġlang":805,"amp":806,"Ġlyk":807,"Ġgean":808,"oek":809,"Ġiepen":810,"wurk":811,"Ġfier":812,"aten":813,"Ġmakke":814,"earrenfean":815,"Ġhebben":816,"nim":817,"if":818,"man":819,"met":820,"Ġze":821,"amb":822,"ĠNederlÃ¢n":823,"Wy":824,"Ġwiene":825,"Ġbo":826,"Ġben":827,"Ãºd":828,"Ġprov":829,"Ġmoet":830,"rekt":831,"Ġgeb":832,"Ġpers":833,"anne":834,"Ġkun":835,"Ãªste":836,"Ġbliuw":837,"ai":838,"ĠHearrenfean":839,"Ġkear":840,"Ġlit":841,"dere":842,"Ġmoog":843,"Ġfertel":844,"est":845,"ske":846,"Ġsjo":847,"racht":848,"Ġbest":849,"ĠÃ»nders":850,"skip":851,"Ġth":852,"Ġfin":853,"ger":854,"del":855,"land":856,"kes":857,"Dy":858,"Ġbek":859,"Ġcoronaf":860,"iv":861,"Ġwant":862,"uor":863,"Ġmeter":864,"Ġor":865,"Ġhjir":866,"Ġstiet":867,"foar":868,"Ġaut":869,"lij":870,"Ġrek":871,"gge":872,"Ġwolle":873,"Ġfi":874,"aad":875,"Ġfersk":876,"Ġcoronafirus":877,"mers":878,"Ġbij":879,"Ġef":880,"hÃ¢l":881,"Ġtrije":882,"Ġskoal":883,"sel":884,"As":885,"bal":886,"ket":887,"ent":888,"ade":889,"Ġjo":890,"Ġall":891,"ster":892,"aatregels":893,"Ġmooglik":894,"ub":895,"ensen":896,"Ġneffens":897,"Ãªd":898,"ĠZ":899,"Foar":900,"Ġ5":901,"Ġwedstri":902,"Ġnog":903,"Ġminder":904,"yks":905,"Ġdoch":906,"Ġprovinsje":907,"jon":908,"Ġfyn":909,"Ġwerom":910,"ĠI":911,"iteit":912,"adde":913,"By":914,"he":915,"nei":916,"Ġfro":917,"Ġwetter":918,"icht":919,"Ġtusken":920,"Ġoft":921,"ĠbrÃ¢n":922,"joch":923,"000":924,"Ġorganis":925,"wacht":926,"ry":927,"Ġkont":928,"Ġsy":929,"wenn":930,"oop":931,"Ġdoe":932,"ammen":933,"Ġfl":934,"jouwer":935,"aak":936,"Ġtal":937,"eili":938,"amen":939,"lein":940,"hÃ»s":941,"line":942,"Ġwor":943,"aster":944,"Ġbern":945,"eel":946,"yske":947,"ĠÃ»nt":948,"wi":949,"Ġtra":950,"Ġauto":951,"ble":952,"ĠSt":953,"Ġbinnen":954,"Ġoere":955,"rÃ»ne":956,"Ġbesmet":957,"Ġkan":958,"Ġboar":959,"Ġkrije":960,"diel":961,"raach":962,"Ġra":963,"fier":964,"ran":965,"Ġoars":966,"Ã«":967,"ĠwÃªr":968,"ac":969,"wol":970,"Mei":971,"Ġferh":972,"sels":973,"Ġjild":974,"wer":975,"tem":976,"Ġnij":977,"earre":978,"Ġmensen":979,"tsen":980,"ĠIt":981,"Ġfertelt":982,"Ġzo":983,"Ġbedriuw":984,"ju":985,"ult":986,"Ġbekend":987,"Ã»ten":988,"lear":989,"Ġecht":990,"ĠlÃ¢n":991,"Ġleit":992,"jÃ»n":993,"ram":994,"get":995,"Ġmis":996,"Ãªrom":997,"war":998,"Ġein":999,"oarn":1000,"sl":1001,"ust":1002,"Ġkrekt":1003,"uk":1004,"sit":1005,"ĠAl":1006,"Ġkomm":1007,"gem":1008,"Ġfuort":1009,"Ġnat":1010,"inten":1011,"Ġstean":1012,"by":1013,"Ġuit":1014,"ĠÃ´frÃ»ne":1015,"od":1016,"pl":1017,"Ġ4":1018,"Ġheel":1019,"Sa":1020,"kl":1021,"Ġsneon":1022,"Ġ19":1023,"Ġcorona":1024,"stÃ¢n":1025,"Ġeuro":1026,"Ġkunnen":1027,"Ġgen":1028,"eide":1029,"ĠVan":1030,"Ġdien":1031,"rok":1032,"Ġbesl":1033,"Om":1034,"Ġkoe":1035,"aken":1036,"ĠMar":1037,"Ġdoarp":1038,"Ġals":1039,"jier":1040,"ĠthÃºs":1041,"eden":1042,"Ġalles":1043,"Ġ201":1044,"fol":1045,"Ġdagen":1046,"Ġkw":1047,"kel":1048,"Ġdei":1049,"Ġnaar":1050,"Ġnu":1051,"Dan":1052,"iid":1053,"tear":1054,"rie":1055,"Ġsw":1056,"ere":1057,"koar":1058,"ĠÃ¢l":1059,"Ġdochs":1060,"its":1061,"ambuur":1062,"Ġmoast":1063,"Ġap":1064,"ĠlÃªste":1065,"Ġdocht":1066,"wei":1067,"mei":1068,"Ġaltyd":1069,"Ġfolle":1070,"Ġpas":1071,"Ġfam":1072,"Ġwil":1073,"ysk":1074,"eg":1075,"Ġomdat":1076,"Ġhiele":1077,"Ġover":1078,"Ġtak":1079,"ĠÃ»ndersyk":1080,"ette":1081,"Ġfert":1082,"wenners":1083,"ĠJong":1084,"Ġko":1085,"Ġlyts":1086,"ss":1087,"ĠÃºts":1088,"alen":1089,"Ġfynt":1090,"ond":1091,"Ã»nt":1092,"ylje":1093,"lijk":1094,"Ġtre":1095,"Ġmeer":1096,"Ġsike":1097,"Ġdaar":1098,"innich":1099,"Ġsitte":1100,"rum":1101,"Ġproble":1102,"Ġwest":1103,"Ġtwadde":1104,"eft":1105,"uis":1106,"Nei":1107,"andei":1108,"ĠHar":1109,"Ġsnein":1110,"Ġkrij":1111,"yt":1112,"zoen":1113,"aasjes":1114,"Ġgewoan":1115,"Ġtin":1116,"ft":1117,"per":1118,"aa":1119,"ia":1120,"Ġaf":1121,"Ġfrij":1122,"teur":1123,"Ġtest":1124,"Ġnim":1125,"pt":1126,"ĠSch":1127,"Ġticht":1128,"mel":1129,"Ġ6":1130,"kear":1131,"amer":1132,"gelyks":1133,"Ġmeitsje":1134,"sitter":1135,"rÃ¢ld":1136,"ud":1137,"gers":1138,"sch":1139,"leat":1140,"Ġwiken":1141,"use":1142,"Ġfe":1143,"imber":1144,"ret":1145,"Ġboer":1146,"atie":1147,"ĠNoar":1148,"ĠJo":1149,"ic":1150,"jes":1151,"Ġfreed":1152,"ĠJan":1153,"ion":1154,"oans":1155,"Ġeven":1156,"Ġstik":1157,"Ġtakom":1158,"rige":1159,"Ġmy":1160,"ĠAn":1161,"tsjen":1162,"Ġjierren":1163,"Ġdoel":1164,"Ġwedstriid":1165,"gear":1166,"Ġmaatregels":1167,"Ġpartij":1168,"Ġbesmett":1169,"inen":1170,"ank":1171,"Ġstuit":1172,"Ġgr":1173,"ĠbÃ»ten":1174,"risis":1175,"Ġged":1176,"achten":1177,"ĠfÃ»n":1178,"oansdei":1179,"ĠbrÃ»":1180,"ene":1181,"Ãºdlik":1182,"Ã©":1183,"ongers":1184,"Ġter":1185,"Ġrjocht":1186,"Ġfanwe":1187,"Ġbygelyks":1188,"Ġwitte":1189,"lingen":1190,"Ġpear":1191,"ĠCambuur":1192,"onge":1193,"Ġpos":1194,"Ġned":1195,"wols":1196,"ijd":1197,"uwen":1198,"Ġpre":1199,"eren":1200,"Ġlykwols":1201,"Ġhast":1202,"ĠFries":1203,"Ġearst":1204,"Dit":1205,"br":1206,"Ġfjouwer":1207,"Ġearder":1208,"ĠhÃ¢lde":1209,"Ġallinnich":1210,"iss":1211,"ĠfÃªst":1212,"ĠhÃ¢n":1213,"Sy":1214,"Ġpr":1215,"ĠhÃ¢lden":1216,"endal":1217,"Ġtot":1218,"ind":1219,"Ġmoandei":1220,"een":1221,"Ġhier":1222,"Ġmeie":1223,"joen":1224,"Ġferb":1225,"Ġbegjin":1226,"uwe":1227,"Frys":1228,"nimmers":1229,"tejÃ»n":1230,"Ġsille":1231,"Ġnedich":1232,"otbal":1233,"Ġveel":1234,"Ã´ch":1235,"Ġgie":1236,"ets":1237,"Ġwen":1238,"Ġwas":1239,"isdei":1240,"Ġpo":1241,"gemaster":1242,"lit":1243,"Ġsoarch":1244,"hel":1245,"Ġbelang":1246,"Ġfak":1247,"Maar":1248,"ark":1249,"gean":1250,"Ġdoor":1251,"Ġgaan":1252,"Ġkommen":1253,"ee":1254,"folle":1255,"ĠdÃºdlik":1256,"ister":1257,"sma":1258,"Ġferskate":1259,"Fan":1260,"Ġfrou":1261,"Ġad":1262,"Ġheb":1263,"ug":1264,"Ġmil":1265,"maal":1266,"achter":1267,"Ġgu":1268,"Ġseizoen":1269,"ĠLjouwer":1270,"Ġwoansdei":1271,"ass":1272,"Ġons":1273,"Ġdel":1274,"ĠGG":1275,"ĠOm":1276,"ĠSte":1277,"Ġfierder":1278,"Ġstel":1279,"Ġkrijen":1280,"ive":1281,"itten":1282,"geb":1283,"uz":1284,"stelling":1285,"Ġ7":1286,"Ġsch":1287,"Ġmeitsjen":1288,"ĠSk":1289,"fers":1290,"oo":1291,"enk":1292,"Ġferw":1293,"Ġan":1294,"Ġfle":1295,"oech":1296,"okk":1297,"Ġdre":1298,"Ġwet":1299,"Ġhieltyd":1300,"ongersdei":1301,"Ġrom":1302,"set":1303,"Ġreg":1304,"urd":1305,"Ġletter":1306,"ĠSn":1307,"Ġposit":1308,"sint":1309,"ruk":1310,"jierrige":1311,"Ġlan":1312,"Ġstr":1313,"Ġkrigen":1314,"Ġhinne":1315,"Ġspil":1316,"Ġaksje":1317,"Ġsn":1318,"ĠwrÃ¢ld":1319,"Ġgear":1320,"Ġweer":1321,"uten":1322,"bel":1323,"Ġcoronak":1324,"ĠWaad":1325,"Ġneat":1326,"unt":1327,"wiis":1328,"Ġkolle":1329,"Ġplan":1330,"elen":1331,"Ã¢ns":1332,"Ġgroep":1333,"'.<|":1334,"Ġsyk":1335,"Ġmom":1336,"fan":1337,"iÃ«":1338,"Ġro":1339,"jitte":1340,"ragen":1341,"Ġ202":1342,"Ġbl":1343,"ried":1344,"Ġlear":1345,"Dus":1346,"Ġwei":1347,"Ġjout":1348,"gram":1349,"mo":1350,"Ġmid":1351,"Ġdogge":1352,"Ġfansels":1353,"ĠSp":1354,"Ġtiisdei":1355,"Ġskoalle":1356,"Je":1357,"Wat":1358,"Ġmed":1359,"Ġbesk":1360,"Ġmoeten":1361,"Ġcoronakrisis":1362,"kers":1363,"ĠVries":1364,"Ġbop":1365,"Ġdoen":1366,"Ġklup":1367,"ute":1368,"Ġkommende":1369,"di":1370,"Ġkant":1371,"akke":1372,"Ġdrok":1373,"rekteur":1374,"Ġbestjoer":1375,"Ġhiene":1376,"Ġkrige":1377,"Ġlok":1378,"Ġwurden":1379,"ĠgenÃ´ch":1380,"ĠSnits":1381,"Ġbliuwe":1382,"useum":1383,"hann":1384,"ĠGr":1385,"Ġried":1386,"FryslÃ¢n":1387,"Ġfal":1388,"ks":1389,"oon":1390,"Ġgaat":1391,"Ġfiif":1392,"ggen":1393,"ct":1394,"ha":1395,"ost":1396,"aste":1397,"ging":1398,"Ġeins":1399,",\"":1400,"Ġtongersdei":1401,"Ã»zen":1402,"Ġjong":1403,"Ġfyts":1404,"ly":1405,"Ġadv":1406,"Ġlyn":1407,"Ġris":1408,"Ġgel":1409,"oene":1410,"aard":1411,"Ġnatuer":1412,"ĠGGD":1413,"Ġske":1414,"Ãºts":1415,"Ġsjoen":1416,"Ġkomp":1417,"Ġfuotbal":1418,"immer":1419,"fen":1420,"Ġper":1421,"asjon":1422,"ĠÃºte":1423,"elf":1424,"oud":1425,"Ġtoer":1426,"aas":1427,"ming":1428,"tte":1429,"ĠdÃªrom":1430,"ouden":1431,"oft":1432,"rocht":1433,"wik":1434,"ĠhÃ»s":1435,"Ġheeft":1436,"Ġwaarden":1437,"Ġho":1438,"fallen":1439,"Ġpersoan":1440,"Ġdiel":1441,"Ġpri":1442,"ĠsikehÃ»s":1443,"lach":1444,"gramma":1445,"gearre":1446,"ĠÃ´fstÃ¢n":1447,"Ġferoar":1448,"Ġbetsj":1449,"Ġstil":1450,"rin":1451,"Ġmyn":1452,"Ġbetter":1453,"Ġopl":1454,"raak":1455,"ĠDracht":1456,"Ġskriuw":1457,"lis":1458,"Ġtsien":1459,"Ġgemeenten":1460,"Doe":1461,"Hoe":1462,"Ġbliuwt":1463,"ĠOmrop":1464,"ns":1465,"Ġachter":1466,"Ġmakket":1467,"Ġsjocht":1468,"Ġmoai":1469,"ĠdÃªrnei":1470,"waris":1471,"ĠU":1472,"Ġkontakt":1473,"utsen":1474,"Ġfirus":1475,"Ġelk":1476,"tern":1477,"Ġkamen":1478,"ikers":1479,"agge":1480,"ting":1481,"Ġgau":1482,"Ġjonge":1483,"Ġbetsjut":1484,"ĠAr":1485,"Ġkar":1486,"No":1487,"Ġsport":1488,"pro":1489,"ĠsÃ»nt":1490,"asis":1491,"Ġsizze":1492,"Ġoantal":1493,"heden":1494,"isten":1495,"Ġekstra":1496,"ile":1497,"ike":1498,"Ġwordt":1499,"Ġfamylje":1500,"Ġstie":1501,"Ġskip":1502,"Ġefter":1503,"ĠÃ¢ld":1504,"lef":1505,"'<|":1506,"ard":1507,"Ġhielendal":1508,"Ġrekke":1509,"ane":1510,"Ġbenammen":1511,"ienen":1512,"Troch":1513,"troch":1514,"inoar":1515,"jekt":1516,"Ġtsjer":1517,"ga":1518,"gje":1519,"gro":1520,"rug":1521,"Ġgeen":1522,"Ġdwaande":1523,"Ġduor":1524,"Ġwink":1525,"wurd":1526,"Alle":1527,"Ġsjogge":1528,"Ġmiljoen":1529,"Ġ8":1530,"atyf":1531,"Ġwicht":1532,"steld":1533,"Ġbliken":1534,"Ġbliid":1535,"dam":1536,"ob":1537,"org":1538,"Ġhoop":1539,"Ġwij":1540,"stÃªd":1541,"ring":1542,"ĠhÃºs":1543,"Ġ15":1544,"Ġrei":1545,"ande":1546,"ĠDÃºts":1547,"Ġynf":1548,"Ġonder":1549,"iening":1550,"Ġlykas":1551,"Ġgoede":1552,"ichting":1553,"unst":1554,"ck":1555,"Ġgraach":1556,"Ġpar":1557,"illi":1558,"Ġbyl":1559,"Ġtrain":1560,"Ġboargemaster":1561,"Ġferp":1562,"ĠrÃ»n":1563,"Ġlibben":1564,"Ġsitu":1565,"Ġfine":1566,"Ġhop":1567,"stjoer":1568,"Ġpra":1569,"Ġblij":1570,"Ġpub":1571,"Ġferline":1572,"ieten":1573,"ho":1574,"Ġfeili":1575,"Ġset":1576,"Ġynt":1577,"Ġfoarsitter":1578,"ĠFrysk":1579,"Ġhelp":1580,"Ġworden":1581,"eter":1582,"Ġbesmettingen":1583,"Ġpak":1584,"keap":1585,"aren":1586,"Ã»ne":1587,"Ġwin":1588,"Ġbetel":1589,"isk":1590,"ĠAm":1591,"Ġide":1592,"Ġtocht":1593,"Ġpe":1594,"Ġbep":1595,"Ġefkes":1596,"hu":1597,"no":1598,"Ġstap":1599,"Ġboeren":1600,"Ġwenn":1601,"Ġmeld":1602,"Ġhear":1603,"Ġkamp":1604,"Ġkomen":1605,"tsjes":1606,"ĠDrachten":1607,"aie":1608,"esj":1609,"Ġlitten":1610,"zzen":1611,"eer":1612,"Ãºn":1613,"Ġkab":1614,"Ġklear":1615,"Ġgef":1616,"achte":1617,"Als":1618,"ĠLjouwerter":1619,"Ġmel":1620,"ril":1621,"amme":1622,"Ġjaan":1623,"pel":1624,"ont":1625,"Ġorganisaasje":1626,"Ġjaar":1627,"Minsken":1628,"ans":1629,"Ġdeze":1630,"Ġcoronam":1631,"Ġsoene":1632,"ipe":1633,"yzje":1634,"Ġsup":1635,"isj":1636,"Ġferhaal":1637,"mp":1638,"Ġtelef":1639,"Ġplakken":1640,"dde":1641,"Ien":1642,"Ġbal":1643,"Ġhurd":1644,"ĠKN":1645,"Ġproblemen":1646,"asse":1647,"Ġkrijt":1648,"Ġwa":1649,"orm":1650,"riezen":1651,"Ġminister":1652,"Ġgev":1653,"Ġboppe":1654,"iers":1655,"pers":1656,"Er":1657,"iddei":1658,"uma":1659,"sjes":1660,"heids":1661,"asten":1662,"Ġwillen":1663,"ommen":1664,"ide":1665,"Ġwit":1666,"Ġlytse":1667,"lo":1668,"gelok":1669,"jild":1670,"Ġwoe":1671,"Ġkil":1672,"Ġlik":1673,"ĠkÃ¢ns":1674,"tste":1675,"ĠbrÃ¢nwacht":1676,"Ġrap":1677,"fin":1678,"lied":1679,"unten":1680,"ler":1681,"let":1682,"Ġregel":1683,"ulju":1684,"ochs":1685,"Ġtredde":1686,"Ġsimmer":1687,"ĠGro":1688,"wurkers":1689,"ĠGrins":1690,"hol":1691,"ĠwÃ»n":1692,"Ġlitte":1693,"inet":1694,"Ġsaak":1695,"etysje":1696,"av":1697,"Ġlizze":1698,"Ġmee":1699,"ĠNederland":1700,"jit":1701,"ĠNoard":1702,"hÃ¢ld":1703,"ĠjÃ»n":1704,"bou":1705,"kenien":1706,"Ġ10":1707,"Ġfaak":1708,"ĠBo":1709,"willi":1710,"ĠIn":1711,"Ġmeaste":1712,"Ġallegear":1713,"Ġdirekteur":1714,"Ġtakomst":1715,"Ġoanp":1716,"Ġidee":1717,"ĠBer":1718,"Ġheech":1719,"oss":1720,"temiddei":1721,"aag":1722,"Ġ-":1723,"Ġacht":1724,"inte":1725,"Ġhele":1726,"DÃªrnei":1727,"jochte":1728,"ĠbeslÃºt":1729,"ezje":1730,"ĠsÃ»nder":1731,"Ġkoar":1732,"Ġopn":1733,"raaf":1734,"Ġfia":1735,"Ġkabinet":1736,"Van":1737,"ryk":1738,"Ġwyl":1739,"Ġfraach":1740,"chte":1741,"Ġkult":1742,"alf":1743,"Ġpleat":1744,"gens":1745,"ĠÃºtein":1746,"Ġbasis":1747,"urg":1748,"Ġrest":1749,"Ġtaf":1750,"opp":1751,"ĠTh":1752,"ĠsÃ¢n":1753,"Ġcoronamaatregels":1754,"Ġ9":1755,"Ġspesj":1756,"Ġoeren":1757,"jinten":1758,"Ġ18":1759,"ies":1760,"Ġdreech":1761,"sjen":1762,"wedstri":1763,"aris":1764,"oarek":1765,"Ġgefol":1766,"okkum":1767,"ĠfÃ»":1768,"Ġnacht":1769,"temoarn":1770,"Ġtinkt":1771,"ĠKe":1772,"oord":1773,"Ġswier":1774,"hannel":1775,"zj":1776,"Ġdra":1777,"ille":1778,"ĠSC":1779,"erk":1780,"deren":1781,"omm":1782,"Ġferk":1783,"Ġploech":1784,"hÃ¢lder":1785,"Ġfanwege":1786,").<|":1787,"mar":1788,"aun":1789,"ilm":1790,"west":1791,"wikkel":1792,"Ġakt":1793,"Ġteam":1794,"Ġbewenners":1795,"ĠDokkum":1796,"Ġdyk":1797,"Ġoardel":1798,"Ġlanger":1799,"Ġromte":1800,"are":1801,"tse":1802,"erd":1803,"Ġbeide":1804,"earje":1805,"Ġmaart":1806,"Ġguon":1807,"Dochs":1808,"mon":1809,"Ġsli":1810,"rik":1811,"und":1812,"Ġrekken":1813,"eds":1814,"ĠTw":1815,"merk":1816,"selde":1817,"Ġnaam":1818,"aart":1819,"Ġseis":1820,"Ġwedstriden":1821,"Ġpartijen":1822,"raksje":1823,"Ġsint":1824,"reg":1825,"ĠlÃ»":1826,"Ġslacht":1827,"Ġpolit":1828,"gt":1829,"offen":1830,"Ġzien":1831,"Ġapril":1832,"all":1833,"kein":1834,"min":1835,"Ġbys":1836,"Ġjil":1837,"Ġwize":1838,"eilig":1839,"Ġnamme":1840,"ĠÃ»ngelok":1841,"Ġtwe":1842,"Ġtel":1843,"jinne":1844,"lyk":1845,"Ġsm":1846,"onder":1847,"Ġboek":1848,"Ġgri":1849,"Ġtrochgean":1850,"Ġposityf":1851,"lju":1852,"organis":1853,"Ġonze":1854,"Ġkeunst":1855,"Ġfroulju":1856,"ryp":1857,"Net":1858,"Ġmuz":1859,"Ġgong":1860,"ĠbegÃ»n":1861,"bs":1862,"Ġkn":1863,"Un":1864,"Ġamb":1865,"Ġbrocht":1866,"Ġjun":1867,"jonken":1868,"Ġwichtich":1869,"ening":1870,"stann":1871,"klup":1872,"Di":1873,"Ġbot":1874,"Ġhad":1875,"ĠGe":1876,"Ġliket":1877,"Ġsette":1878,"Ġelkoar":1879,"Ġbedriuwen":1880,"Ġtotaal":1881,"Ġkolleezje":1882,"ait":1883,"port":1884,"Ġres":1885,"Ġregels":1886,"par":1887,"Ġmijn":1888,"Ġhol":1889,"oaren":1890,"Ġwurkje":1891,"Ġfols":1892,"tre":1893,"inga":1894,"Ġprojekt":1895,"plak":1896,"Ġble":1897,"Ġhoarek":1898,"Ġkoene":1899,"Ġ12":1900,"komme":1901,"tal":1902,"iek":1903,"tsjin":1904,"Ġfinan":1905,"Ġprobleem":1906,"Ġkij":1907,"Ġmoannen":1908,"ĠFriezen":1909,"gelijk":1910,"Ġhelte":1911,"Ġkop":1912,"Ġoprop":1913,"DÃªrom":1914,"jende":1915,"Ġdruk":1916,"kap":1917,"sum":1918,"Ġlos":1919,"Ġgez":1920,"oeken":1921,"Ġstud":1922,"ĠBe":1923,"Ġtige":1924,"ĠhÃ¢ldt":1925,"Ã¤":1926,"teken":1927,"Ġiis":1928,"Ġwurket":1929,"log":1930,"Ġfinale":1931,"anten":1932,"Ġiens":1933,"ili":1934,"ses":1935,"Ġwylst":1936,"amde":1937,"ĠrÃ»":1938,"Ġfanwegen":1939,"Ġlo":1940,"tsjer":1941,"Ġhelle":1942,"fre":1943,"Ġfot":1944,"Ġstim":1945,"Ġelkenien":1946,"Ġsel":1947,"Ġkle":1948,"Ġplannen":1949,"Ġoploss":1950,"Ġdingen":1951,"Ġdes":1952,"Ġheal":1953,"Ġnijs":1954,"Ġfrijwilli":1955,"bek":1956,"eie":1957,"aliteit":1958,"Ġtoch":1959,"Ġbeste":1960,"ĠHarns":1961,"groep":1962,"regio":1963,"Want":1964,"bed":1965,"ongen":1966,"isch":1967,"ĠSÃºd":1968,"Ġskoallen":1969,"Daar":1970,"oarch":1971,"Ġpersint":1972,"ĠbysÃ»nder":1973,"Ġbus":1974,"Ġbesikers":1975,"ochte":1976,"ner":1977,"Ġ14":1978,"rong":1979,"Ġslachtof":1980,"ame":1981,"Ġstipe":1982,"Ġsept":1983,"Ġmaken":1984,"Ġseptimber":1985,"oet":1986,"str":1987,"Ġ13":1988,"Ġ25":1989,"artij":1990,"tearje":1991,"ĠgrÃ»n":1992,"ĠLe":1993,"oals":1994,"Ġfeilich":1995,"Ġwurd":1996,"Ġfrege":1997,"Ġkilom":1998,"fear":1999,"iden":2000,"Ġtink":2001,"akker":2002,"Ġwykein":2003,"ein":2004,"loch":2005,"Ġru":2006,"isje":2007,"uwer":2008,"Ġprotte":2009,"Ġwinkel":2010,"lieding":2011,"ander":2012,"Ġ100":2013,"ĠDijk":2014,"annewaris":2015,"Ġandere":2016,"bre":2017,"bier":2018,"yp":2019,"Ġjannewaris":2020,"Ġonline":2021,"Ġtop":2022,"Ġopr":2023,"Ã¢nsje":2024,"Ġbyld":2025,"gong":2026,"winn":2027,"Ġstad":2028,"Ġhaad":2029,"ochten":2030,"hÃ¢lden":2031,"Ġswim":2032,"do":2033,"Ġsaken":2034,"res":2035,"Ġ17":2036,"ce":2037,"Ġferst":2038,"iste":2039,"Ġkinnen":2040,"rÃ»k":2041,"mid":2042,"Ġbar":2043,"Ġferkear":2044,"ĠEl":2045,"aaie":2046,"ĠY":2047,"Ġfilm":2048,"assen":2049,"Ġminuten":2050,"Ġgebiet":2051,"ĠbrÃ»kt":2052,"Ġpetear":2053,"bank":2054,"ĠNederlÃ¢nske":2055,"Ġnatuur":2056,"Ġgefolgen":2057,"inge":2058,"ĠstÃªd":2059,"Ġskoft":2060,"sterdam":2061,"Ġkontr":2062,"kje":2063,"punt":2064,"rit":2065,"Ġ24":2066,"jochter":2067,"ĠÃ¢lde":2068,"kip":2069,"eil":2070,"Ġyns":2071,"Ãªge":2072,"oniel":2073,"Ġprogramma":2074,"Ġelkaar":2075,"Wij":2076,"dag":2077,"la":2078,"inken":2079,"Ġster":2080,"amt":2081,"Ġvol":2082,"Ġmoanne":2083,"Ġklachten":2084,"Ġfeest":2085,"heidsregio":2086,"Ġbehe":2087,"ĠGraaf":2088,"Ġ30":2089,"hal":2090,"ialf":2091,"Ġzich":2092,"ĠDen":2093,"Ġsituaasje":2094,"Ġjuny":2095,"Ġwacht":2096,"Ġzou":2097,"Ear":2098,"Fer":2099,"fang":2100,"rief":2101,"ĠBel":2102,"ktor":2103,"Ġpublyk":2104,"wa":2105,"Ġfiel":2106,"Ġsinne":2107,"Ġsiet":2108,"Ġheit":2109,"earst":2110,"Ġjul":2111,"aatregel":2112,"Ġlearlingen":2113,"Ġhopet":2114,"tich":2115,"Ġdu":2116,"Ġperio":2117,"Ġfjir":2118,"Ġkr":2119,"Ġleech":2120,"digen":2121,"hear":2122,"Ġinoar":2123,"gebiet":2124,"ĠAmsterdam":2125,"dwaan":2126,"ats":2127,"oll":2128,"Ġbef":2129,"Ġreed":2130,"Ġsafolle":2131,"Ġmem":2132,"huis":2133,"Ġtoe":2134,"ĠRo":2135,"lid":2136,"Ġoff":2137,"ĠÃ»nderwiis":2138,"ĠFriesland":2139,"kker":2140,"ober":2141,"Ġden":2142,"stre":2143,"leech":2144,"Ġmeiwurkers":2145,"maat":2146,"Ġ200":2147,"Ġsam":2148,"Ġieder":2149,"Ġstre":2150,"Ġzelf":2151,"iks":2152,"Ġlive":2153,"iger":2154,"Ġsitten":2155,"Ġont":2156,"Ġsnel":2157,"ium":2158,"zer":2159,"Ġride":2160,"Ġferskil":2161,"erm":2162,"Ã»l":2163,"Ġbew":2164,"raag":2165,"Ġmanlju":2166,"Ġhoareka":2167,"Ġkilometer":2168,"Ã¯":2169,"Ġnie":2170,"Ġeksp":2171,"Ġ16":2172,"huzen":2173,"les":2174,"joed":2175,"Ġferg":2176,"ktober":2177,"antwurd":2178,"Ġmomint":2179,"',":2180,"Ġgo":2181,"Ġrinne":2182,"aden":2183,"Ġynwenners":2184,"gea":2185,"Ġprod":2186,"iviteit":2187,"Ġnimme":2188,"Ġprakt":2189,"ure":2190,"Ġmaaie":2191,"Ġinisj":2192,"edat":2193,"onom":2194,"yste":2195,"Ġmocht":2196,"Ġfertochte":2197,"Oan":2198,"Ġar":2199,"Ġsj":2200,"Ġoktober":2201,"Ġstri":2202,"tra":2203,"Ġferd":2204,"Ġreaksje":2205,"Ġbelutsen":2206,"Ġgearwurk":2207,"makke":2208,"Ġhij":2209,"Ġmoo":2210,"ichte":2211,"Ġmuseum":2212,"Ġfoarearst":2213,"utte":2214,"ĠÃ»ndernimmers":2215,"aazje":2216,"Ġmoasten":2217,"gjen":2218,"Ġfjoer":2219,"Ġsom":2220,"oard":2221,"ord":2222,"ĠHenk":2223,"Ġfinen":2224,"Ġfoto":2225,"wÃ¢l":2226,"Ġsad":2227,"Ġhouden":2228,"Ġalt":2229,"feriening":2230,"ubs":2231,"ĠThialf":2232,"Ġbytsje":2233,"isser":2234,"ĠKeamer":2235,"tjin":2236,"iten":2237,"ĠFr":2238,"Ġregio":2239,"Of":2240,"aze":2241,"iken":2242,"king":2243,"apas":2244,"ĠGer":2245,"Ġgewoon":2246,"Ġferwachte":2247,"Ġfrijwilligers":2248,"ĠHo":2249,"Ġkonten":2250,"Ġgeane":2251,"Ġferhalen":2252,"Ġtaal":2253,"Ġmoaie":2254,"Ġsoargen":2255,"bedriuw":2256,"voor":2257,"Ġdenk":2258,"uren":2259,"ons":2260,"Ġfern":2261,"open":2262,"Ge":2263,"stik":2264,"urs":2265,"Ġgebou":2266,"VM":2267,"kien":2268,"wÃ¢ld":2269,"elijk":2270,"stand":2271,"iket":2272,"ĠEuro":2273,"Ġmanier":2274,"Ġyntusken":2275,"ĠBuma":2276,"Ġspann":2277,"skoal":2278,"bod":2279,"Ġ11":2280,"eske":2281,"Ġgedachten":2282,"Ġtijd":2283,"ĠrÃªst":2284,"Ġoaren":2285,"ĠAlde":2286,"NP":2287,"Ġsok":2288,"Ġsane":2289,"leden":2290,"Ġpunten":2291,"Ã»ns":2292,"Ġsosj":2293,"Ġbegjint":2294,"IVM":2295,"Ġsetten":2296,"Ġmaatregel":2297,"Ãªre":2298,"Ġgeh":2299,"oeke":2300,"Ġjildt":2301,"dok":2302,"vd":2303,"zoek":2304,"insj":2305,"ĠBoer":2306,"Ġallegearre":2307,"Ġsteane":2308,"Ġpraat":2309,"winning":2310,"ykje":2311,"ĠdÃªrmei":2312,"Ġspile":2313,"Ġmuzyk":2314,"eiden":2315,"ĠFly":2316,"rekken":2317,"co":2318,"oat":2319,"Ġwar":2320,"Ġyntern":2321,"licht":2322,"ikber":2323,"Ġsuper":2324,"Dizze":2325,"El":2326,"dig":2327,"roffen":2328,"rije":2329,"Ãªden":2330,"Ġmogelijk":2331,"Ġslagge":2332,"Ã©n":2333,"ĠferwÃ»ne":2334,"Ġma":2335,"Ġkre":2336,"ĠlÃªst":2337,"Ġmiskien":2338,"Ġbesletten":2339,"utearre":2340,"Ġbu":2341,"Ã¢ne":2342,"Ġgefal":2343,"Ġdoarps":2344,"Ġjongere":2345,"ĠÃºteinlik":2346,"ĠEurope":2347,"SC":2348,"olve":2349,"ĠVV":2350,"ĠRIVM":2351,"Ġleaf":2352,"\".<|":2353,"bes":2354,"wetter":2355,"Ġops":2356,"Ġsifers":2357,"ĠgebrÃ»k":2358,"Ġnimt":2359,"Ġfalt":2360,"Ġak":2361,"Ġbrief":2362,"Ġgefallen":2363,"egje":2364,"Ġevenem":2365,"Ġna":2366,"reaun":2367,"sprong":2368,"Ġspilers":2369,"Ġrol":2370,"ater":2371,"inke":2372,"chn":2373,"ĠHe":2374,"Ġreden":2375,"ĠÃ´fsl":2376,"jouwing":2377,"Ġgrutste":2378,"Ġ2020":2379,"vdA":2380,"Ġwyn":2381,"stof":2382,"gev":2383,"ĠFe":2384,"rutsen":2385,"Ġspor":2386,"Ġrint":2387,"Ġalleen":2388,"Ġtsjerke":2389,"Ġbepaal":2390,"ĠTwadde":2391,"baar":2392,"byl":2393,"ko":2394,"Ġaard":2395,"rouwen":2396,"erste":2397,"Ġferkeap":2398,"ienskip":2399,"komst":2400,"Ġdesimber":2401,"orma":2402,"Ġwerk":2403,"ylge":2404,"Ġtinke":2405,"Ġgoeie":2406,"Ġaltijd":2407,"putearre":2408,"Ġfragen":2409,"Ġple":2410,"ijke":2411,"ĠVeilig":2412,"Ġ50":2413,"Ġkompetysje":2414,"Ġfolslein":2415,"Ġjuly":2416,"wert":2417,"ĠdÃ»":2418,"arje":2419,"Ġmaat":2420,"Ġtas":2421,"Ġfoaral":2422,"Ġseach":2423,"Ġwiis":2424,"Ġriden":2425,"ĠSÃºdwest":2426,"Ġsaneamde":2427,"lok":2428,"ps":2429,"por":2430,"wen":2431,"ina":2432,"innen":2433,"roe":2434,"ĠwÃªzen":2435,"ieden":2436,"Ġallinne":2437,"Ġ2019":2438,"Ġspilet":2439,"Ġbesite":2440,"Ġslim":2441,"Ã¼":2442,"Ġhing":2443,"roer":2444,"kens":2445,"Ġkijken":2446,"Ġnatuurlijk":2447,"Ġhjoed":2448,"earjen":2449,"ĠFNP":2450,"oort":2451,"lan":2452,"Ġdrug":2453,"Ġiets":2454,"Ġbi":2455,"belang":2456,"wedstriid":2457,"jend":2458,"ny":2459,"ĠAmel":2460,"Ġoarloch":2461,"Ġmeardere":2462,"ĠCh":2463,"ĠÃ»ntst":2464,"brand":2465,"Ġskriuwt":2466,"tocht":2467,"ulÃ¢n":2468,"Ġiten":2469,"Ġener":2470,"Ġspylje":2471,"fierder":2472,"Ġmoment":2473,"tsk":2474,"Ġcont":2475,"helle":2476,"Ġhoopje":2477,"deast":2478,"ester":2479,"Ġperioade":2480,"uli":2481,"Ġun":2482,"ining":2483,"Ġtar":2484,"rein":2485,"ĠDo":2486,"Ġ22":2487,"iging":2488,"komsten":2489,"Ġadvys":2490,"ĠbÃªste":2491,"Ġvers":2492,"raf":2493,"ĠJoh":2494,"Ġstudinten":2495,"ĠrÃ»te":2496,"Ġinisjatyf":2497,"bÃ»n":2498,"jÃ»":2499,"jip":2500,"ĠlÃª":2501,"Ġgebe":2502,"Ġfersp":2503,"ĠeilÃ¢n":2504,"hÃ¢lde":2505,"ugd":2506,"Ġskea":2507,"iviteiten":2508,"ormaasje":2509,"Oer":2510,"lende":2511,"ĠSkylge":2512,"Ġoplossing":2513,"aur":2514,"Ġbou":2515,"Ġhun":2516,"Ġferwacht":2517,"ĠHoek":2518,"Ġgeweld":2519,"ryst":2520,"werf":2521,"Ġbeskikber":2522,"Ġsadat":2523,"St":2524,"sim":2525,"istearje":2526,"Ġstjoer":2527,"Ġbedoel":2528,"ĠbrÃ»ke":2529,"ollum":2530,"anje":2531,"ĠSint":2532,"asjonale":2533,"kar":2534,"mint":2535,"Ġlei":2536,"Ġmeast":2537,"ue":2538,"Ġtegen":2539,"Ġferli":2540,"Ġoerlis":2541,"jentsjer":2542,"ival":2543,"koart":2544,"Ġbestjoerder":2545,"haven":2546,"ja":2547,"ĠhÃ»nder":2548,"oren":2549,"oep":2550,"Ġstart":2551,"Ġsein":2552,"Ġcamp":2553,"eksje":2554,"Ġsteeds":2555,"ĠfÃªststeld":2556,"Ġmedia":2557,"VB":2558,"ake":2559,"dra":2560,"kaam":2561,"ĠmÃ»l":2562,"Ġbart":2563,"ieren":2564,"Ġkultuer":2565,"aul":2566,"ui":2567,"aats":2568,"Ġ2021":2569,"Ġgefaar":2570,"illem":2571,"Ġiedereen":2572,"Ġbarre":2573,"Ġnjo":2574,"Ġgasten":2575,"Ġtesten":2576,"Ġwurke":2577,"Ġrjochter":2578,"bere":2579,"Ġmaklik":2580,"ĠÃ»ntwikkel":2581,"ĠwethÃ¢lder":2582,"Ġlange":2583,"ude":2584,"Ġsubs":2585,"Ġynd":2586,"uiten":2587,"Ġstek":2588,"Ġrisik":2589,"Har":2590,"sjin":2591,"sek":2592,"erv":2593,"Ġhannen":2594,"Ġwebs":2595,"Ġles":2596,"Ġeigener":2597,"Ġslachtoffer":2598,"ĠFrjentsjer":2599,"Ġtechn":2600,"Ġcoronab":2601,"ĠPro":2602,"dieling":2603,"Ġpres":2604,"Ġjongerein":2605,"ĠmÃ»lkap":2606,"onden":2607,"Ġzorg":2608,"Ġheger":2609,"ĠPvdA":2610,"Ġpasjinten":2611,"ning":2612,"ori":2613,"wÃª":2614,"alt":2615,"Ġklasse":2616,"Ġkeap":2617,"Ġnimmen":2618,"ĠambulÃ¢n":2619,"),":2620,"rÃ»n":2621,"rint":2622,"erlÃ¢n":2623,"rast":2624,"Ġzitten":2625,"ĠRutte":2626,"Ġleden":2627,"Ġboat":2628,"Ġkosten":2629,"melling":2630,"ysteem":2631,"An":2632,"Ġ0":2633,"Ġfoarsprong":2634,"uster":2635,"Under":2636,"30":2637,"Mo":2638,"azen":2639,"Ġmij":2640,"Ġderfoar":2641,"ĠDijkstra":2642,"kund":2643,"Ġfraksje":2644,"ĠsÃ»n":2645,"amd":2646,"Ġstichting":2647,"ĠskÃ»":2648,"ager":2649,"vestÃªd":2650,"schap":2651,"Ġstellen":2652,"ctie":2653,"ĠKNVB":2654,"urgum":2655,"bli":2656,"ioen":2657,"ners":2658,"Ġron":2659,"Ġdok":2660,"Ġynset":2661,"lever":2662,"ormaal":2663,"rach":2664,"Ġlike":2665,"Ġhelpe":2666,"act":2667,"vestÃªdet":2668,"Een":2669,"Ġfar":2670,"Ġkinst":2671,"ern":2672,"Ġwanne":2673,"ator":2674,"Ġopd":2675,"Ġwolris":2676,"outen":2677,"Ġbelangrij":2678,"ĠfÃ»gels":2679,"!\"<|":2680,"Ut":2681,"nis":2682,"Ġbuor":2683,"raat":2684,"Ġ21":2685,"Ġlever":2686,"bbe":2687,"aud":2688,"nimme":2689,"ĠÃ¢ldere":2690,"DA":2691,"Fier":2692,"Ġrop":2693,"Ġkli":2694,"rukt":2695,"ĠNij":2696,"skÃ´":2697,"Neder":2698,"Ġpracht":2699,"okker":2700,"Ġrel":2701,"Ġheljen":2702,"komen":2703,"Ġdoarren":2704,"ĠZw":2705,"ĠSteaten":2706,"vestÃªdetocht":2707,"hÃ»zen":2708,"rjocht":2709,"angen":2710,"Ġgien":2711,"Ġlaten":2712,"sport":2713,"Ġbegjinne":2714,"Ġsoarget":2715,"istoar":2716,"ĠJansen":2717,"Ġlokaasje":2718,"Ġprate":2719,"Ġsubsyd":2720,"Bopp":2721,"waar":2722,"Ġdak":2723,"anen":2724,"alis":2725,"DÃªrmei":2726,"Ġgemeenteried":2727,"Ġkonteners":2728,"partij":2729,"Ġag":2730,"Ġsu":2731,"Ġhert":2732,"Ġmot":2733,"esmet":2734,"ĠdÃªrfoar":2735,"foarsitter":2736,"Ġkrijgen":2737,"Ġpriis":2738,"Ġgearwurking":2739,"ĠwarskÃ´":2740,"Boppedat":2741,"Ġnammen":2742,"Ġgas":2743,"ĠtÃºn":2744,"ĠBro":2745,"ĠBre":2746,"Ġhelpen":2747,"Ġiepenbier":2748,"Ġpersoniel":2749,"Ġopnij":2750,"age":2751,"post":2752,"Ġsin":2753,"Ã»mer":2754,"ede":2755,"urele":2756,"ersk":2757,"Ġferantwurd":2758,"Ã´le":2759,"ĠdÃªrfan":2760,"ĠbrÃªge":2761,"Ġneed":2762,"sjele":2763,"Ġ500":2764,"ĠfakÃ¢nsje":2765,"Ġtrainer":2766,"brewaris":2767,"Ġsterk":2768,"SÃ»nt":2769,"Wol":2770,"onen":2771,"Ġbeh":2772,"ĠSmelling":2773,"Ġnea":2774,"Ġlanlike":2775,"Ġmidden":2776,"Ġbedoeling":2777,"Ġnjoggen":2778,"Ġcoronabesmet":2779,"goed":2780,"lÃªst":2781,"tiid":2782,"Ġoef":2783,"stap":2784,"adiel":2785,"ĠWillem":2786,"komt":2787,"Ġfebrewaris":2788,"Ġguod":2789,"Syn":2790,"loed":2791,"rei":2792,"tere":2793,"Ġkryst":2794,"omp":2795,"ijl":2796,"oeg":2797,"ĠÃ´fsp":2798,"Ġerg":2799,"iede":2800,"Ġdoarpen":2801,"Ġwenning":2802,"Ġsosjale":2803,"na":2804,"eten":2805,"oargemaster":2806,"Ġfoarm":2807,"Ã»nders":2808,"ĠVeen":2809,"ĠVisser":2810,"komste":2811,"Ġaug":2812,"Ġjonges":2813,"holden":2814,"win":2815,"test":2816,"Ġomt":2817,"ustus":2818,"Ġpraktyk":2819,"Ġaugustus":2820,"braak":2821,"zig":2822,"Ġwienen":2823,"reed":2824,"Ãªft":2825,"Ġoerheid":2826,"gelyk":2827,"ĠVer":2828,"Ġmaksim":2829,"Ġberne":2830,"Ġsoargje":2831,"ioens":2832,"Ġblijven":2833,"Ġfinansjele":2834,"Ġfjirde":2835,"CL":2836,"park":2837,"ym":2838,"Ġmoarn":2839,"ijs":2840,"Ġljocht":2841,"Ġkris":2842,"Ġienn":2843,"Ġrige":2844,"Ġbestiet":2845,"Ġ2018":2846,"Ġtelefyzje":2847,"Ġspesjale":2848,"insjale":2849,"iner":2850,"atuer":2851,"Ġpop":2852,"ilder":2853,"eker":2854,"ĠEaster":2855,"ĠÃ¢lden":2856,"ĠÃºtsp":2857,"Ġterm":2858,"eeuw":2859,"Ġwinter":2860,"Sne":2861,"jins":2862,"ingst":2863,"ĠdÃªrby":2864,"Ġjongeren":2865,"Ġynformaasje":2866,"Earder":2867,"ĠVeiligheidsregio":2868,"hof":2869,"ov":2870,"raken":2871,"jek":2872,"Ġvind":2873,"ĠFran":2874,"Ġju":2875,"ĠHaag":2876,"Ġleuk":2877,"Ġfersoar":2878,"ĠNoardeast":2879,"ĠLjouwerters":2880,"hanneling":2881,"Ġenerzj":2882,"Ġstien":2883,"ĠÃºtfier":2884,"ĠWe":2885,"Ġcoronat":2886,"Ġjeugd":2887,"nimmer":2888,"Ġrjochtbank":2889,"Ġtelefoan":2890,"Ġwebside":2891,"Ġdemon":2892,"allen":2893,"Ġtro":2894,"Ġynsp":2895,"Ġjust":2896,"wenner":2897,"Ġgefoel":2898,"dagen":2899,"Ġfear":2900,"Ġboe":2901,"Ġtan":2902,"Ġfoarstel":2903,"rap":2904,"ĠBru":2905,"Ġsoan":2906,"kommen":2907,"bouw":2908,"Ġwennet":2909,"Ġrestaur":2910,"cent":2911,"lak":2912,"ool":2913,"Ġskoar":2914,"Ġdig":2915,"oster":2916,"iz":2917,"ucht":2918,"woan":2919,"Ġdisk":2920,"Ġbist":2921,"Ġbesocht":2922,"strjitte":2923,"skoalle":2924,"ĠHoekstra":2925,"ay":2926,"bl":2927,"uele":2928,"Ġfjild":2929,"Ġdeselde":2930,"Ġhand":2931,"Ġopp":2932,"Ġnov":2933,"Ġsee":2934,"ĠHol":2935,"Ġnochris":2936,"Ġslag":2937,"hÃ¢lders":2938,"issaris":2939,"Ġsamar":2940,"Ġbuert":2941,"Ġstaan":2942,"Ġskied":2943,"kerij":2944,"ivo":2945,"ramer":2946,"Ġ194":2947,"ĠferbÃ¢n":2948,"ĠAmelÃ¢n":2949,"Twa":2950,"Ġallemaal":2951,"Ġflagge":2952,"organisaasje":2953,"Ġdrugs":2954,"Ġsubsydzje":2955,"Ġkrisis":2956,"Ġnovimber":2957,"bad":2958,"Ġbisten":2959,"Ġhyn":2960,"orgen":2961,"Ġlaat":2962,"Ġferfier":2963,"Ġsocht":2964,"ĠCDA":2965,"sintrum":2966,"uon":2967,"wn":2968,"zet":2969,"etje":2970,"ĠÃºtstjoer":2971,"Ġaanst":2972,"Ġaantal":2973,"Ġelke":2974,"Ġduorret":2975,"Ġsintrum":2976,"Ġrisiko":2977,"Oant":2978,"ci":2979,"keld":2980,"alist":2981,"Ġto":2982,"Ġtegearre":2983,"Ã´r":2984,"ĠBurgum":2985,"Ġlizzen":2986,"Ġpromo":2987,"tsenien":2988,"Ġfertochten":2989,"ĠSport":2990,"lachjouwer":2991,"ksje":2992,"Ġkap":2993,"learre":2994,"Ġnodig":2995,"Ġekonom":2996,"Ġbesykje":2997,"Ġkoste":2998,"Ġferpleech":2999,"Ġomtinken":3000,"Ġdigit":3001,"giet":3002,"Ġmer":3003,"keamer":3004,"ussen":3005,"ĠBos":3006,"ĠAk":3007,"Ġberop":3008,"ding":3009,"Ġken":3010,"Ġkie":3011,"Ġfoars":3012,"ĠKl":3013,"oeren":3014,"Ġsjoch":3015,"noai":3016,"Ġaardich":3017,"fÃ»":3018,"lann":3019,"Ġku":3020,"Ġferrom":3021,"Ġstoar":3022,"ĠOp":3023,"Ġwurkjen":3024,"Ġtafel":3025,"dokter":3026,"baan":3027,"brocht":3028,"kant":3029,"enden":3030,"Ġhichte":3031,"Ġteken":3032,"omen":3033,"ĠLeeuw":3034,"see":3035,"Ġslach":3036,"Ġthuis":3037,"Ġrad":3038,"ĠbysÃ»ndere":3039,"Ġfyf":3040,"Ġwoene":3041,"Ġterug":3042,"ikt":3043,"Ġfreegje":3044,"bouwen":3045,"Ġfaker":3046,"Ġ75":3047,"Ã¯n":3048,"Boargemaster":3049,"Ġfest":3050,"Ġsieten":3051,"Ġwyk":3052,"weg":3053,"Ġtitel":3054,"veen":3055,"Ġgrutter":3056,"Ã»tenpost":3057,"Ġwenje":3058,"Ġstrjitte":3059,"Ġbelangrijk":3060,"!<|":3061,"Mear":3062,"fte":3063,"tlik":3064,"tiden":3065,"vens":3066,"inder":3067,"rich":3068,"Ġeas":3069,"ĠteÃ¤":3070,"iem":3071,"ĠSm":3072,"ĠSy":3073,"umint":3074,"afee":3075,"ĠPie":3076,"Ġorganisaasjes":3077,"stellingwerf":3078,"Ġmeldt":3079,"Ze":3080,"Ġeerste":3081,"Ã¢nsen":3082,"ĠÃ´ffal":3083,"Ġhege":3084,"ĠMCL":3085,"ĠJonge":3086,"intich":3087,"Ġkinderen":3088,"Ġkwyt":3089,"Ġprof":3090,"Ġbarde":3091,"aai":3092,"kamp":3093,"tingen":3094,"uin":3095,"urop":3096,"ĠÃ©":3097,"Ġtast":3098,"ersjoch":3099,"ennis":3100,"Ġeigenlijk":3101,"ĠStichting":3102,"Ġmiddel":3103,"Ġdielnimmers":3104,"Ġbetelje":3105,"Ġkoart":3106,"stannich":3107,"net":3108,"Ġsamen":3109,"Ġbaan":3110,"Ġga":3111,"Ġgewe":3112,"Ġfreget":3113,"Ġsoarge":3114,"Ġgrote":3115,"ivers":3116,"Ġjoech":3117,"Ġ40":3118,"schien":3119,"Ġwinkels":3120,"Jan":3121,"Ġdyn":3122,"Ġmienskip":3123,"alk":3124,"Ġomjouwing":3125,"ielen":3126,"Ġhart":3127,"ĠKan":3128,"Ġlest":3129,"ĠwrÃ¢ldbek":3130,"Ġklups":3131,"Ġbetelle":3132,"iersma":3133,"wÃ¢lde":3134,"ĠÃ´fsletten":3135,"ĠambulÃ¢nse":3136,"kundige":3137,"NederlÃ¢n":3138,"ĠSmellingerlÃ¢n":3139,".'<|":3140,"Ġu":3141,"Ġand":3142,"Ġholle":3143,"jep":3144,"tsma":3145,"Ġprosint":3146,"Ġresult":3147,"Ġholden":3148,"Ã»ndersyk":3149,"OD":3150,"bij":3151,"hoeke":3152,"sy":3153,"Ġhu":3154,"Ġeer":3155,"Ġpark":3156,"kema":3157,"Ġferf":3158,"Ġbyinoar":3159,"Ġskreaun":3160,"ĠÃ´fsk":3161,"Ġcoronapas":3162,"Ġhelje":3163,"delijk":3164,"Ġkollega":3165,"Ġstriid":3166,"ioenskip":3167,"boek":3168,"Ġfoel":3169,"Ġhearre":3170,"elle":3171,"Ġynst":3172,"olog":3173,"ieningen":3174,"Ġspul":3175,"Ġklanten":3176,"ieding":3177,"lijke":3178,"Ġstikstof":3179,"Ġmaatregelen":3180,"20":3181,"ffe":3182,"gaan":3183,"ras":3184,"Ġbank":3185,"aarten":3186,"Ġfertsjin":3187,"Ġzie":3188,"apt":3189,"Ġspit":3190,"komm":3191,"Ġkeat":3192,"ĠBerg":3193,"oetbal":3194,"Ġcoronatiid":3195,"?\"<|":3196,"my":3197,"Ġfun":3198,"elder":3199,"stad":3200,"earret":3201,"Ġzit":3202,"ĠBÃ»tenpost":3203,"beeld":3204,"Ġberjocht":3205,"inks":3206,"Ġbetocht":3207,"Ġkwaliteit":3208,"Ġaktiviteiten":3209,"Ġhadden":3210,"arjen":3211,"Ġnormaal":3212,"regel":3213,"ase":3214,"Ġstaat":3215,"Ġweet":3216,"rutte":3217,"antÃª":3218,"ĠPC":3219,"spe":3220,"veste":3221,"19":3222,"dysje":3223,"hinne":3224,"mmen":3225,"anden":3226,"Ġkaart":3227,"ĠstÃ¢n":3228,"veel":3229,"Ġbringen":3230,"ĠsneontejÃ»n":3231,"Ġgreide":3232,"Hjir":3233,"sin":3234,"Ġfis":3235,"Ġfys":3236,"ĠtÃ»zen":3237,"urde":3238,"ĠAp":3239,"Ġkrit":3240,"Ġlea":3241,"spelen":3242,"ĠNederlÃ¢nsk":3243,"Ġreiz":3244,"Ġhelemaal":3245,"Ġgeweest":3246,"teande":3247,"Ġdag":3248,"Ġwis":3249,"elde":3250,"stannen":3251,"Ġger":3252,"Ġpunt":3253,"Ãªf":3254,"onk":3255,"Ġvlog":3256,"Ġoand":3257,"Ġ23":3258,"ĠDÃºtske":3259,"ĠhÃ»ndert":3260,"Ġopdracht":3261,"Guon":3262,"da":3263,"igen":3264,"izen":3265,"kken":3266,"ĠdÃª":3267,"ative":3268,"Ġhokker":3269,"Ġten":3270,"onfer":3271,"Ġomhe":3272,"ĠBr":3273,"Ġwist":3274,"ace":3275,"ĠLeeuwar":3276,"bje":3277,"gri":3278,"inden":3279,"Ġdefin":3280,"Ġmon":3281,"ĠnÃ»mer":3282,"Ġitselde":3283,"tens":3284,"Ġsektor":3285,"ĠrÃª":3286,"Ġmein":3287,"Ġleger":3288,"Ġelts":3289,"rÃ»te":3290,"ĠwÃªrtroch":3291,"Ġapp":3292,"ĠAnne":3293,"Ġbelangryk":3294,"Ġweten":3295,"kun":3296,"ryd":3297,"vel":3298,"Ġwaren":3299,"Ġmag":3300,"Ġhant":3301,"Ġlet":3302,"rut":3303,"ĠdÃªrtroch":3304,"rijd":3305,"Ġprovinsjes":3306,"Ã«n":3307,"slach":3308,"Ġbylden":3309,"Ġwinst":3310,"Ġmelding":3311,"Ġtweintich":3312,"Ferline":3313,"Ġwannear":3314,"jinsteande":3315,"Ġradio":3316,"Voor":3317,"out":3318,"Ġdea":3319,"ation":3320,"Ġstjer":3321,"Ġzal":3322,"straasje":3323,"Ġbosk":3324,"ĠlÃ¢nbou":3325,"ĠÃºteins":3326,"Ġpakte":3327,"wedstriden":3328,"Ġtwee":3329,"Ġgrien":3330,"rale":3331,"Ġhistoar":3332,"Ġpaad":3333,"lie":3334,"ief":3335,"raal":3336,"Ġstraf":3337,"Ġspe":3338,"spro":3339,"ĠAnd":3340,"Ġtoeristen":3341,"Ġnieuwe":3342,"ĠEuropeeske":3343,"Ġboete":3344,"antÃªne":3345,"mier":3346,"Ġtyd":3347,"Ġtran":3348,"olo":3349,"Ġbewe":3350,"Ġlast":3351,"Ġgek":3352,"tsjinsteande":3353,"imme":3354,"Ġbringe":3355,"behear":3356,"Ġsletten":3357,"inner":3358,"Ġzeggen":3359,"ĠSchouten":3360,"Ġrjochting":3361,"Ġrieds":3362,"ckdo":3363,"ĠlÃ»d":3364,"porters":3365,"KS":3366,"mÃ»n":3367,"one":3368,"ĠkÃ¢nsen":3369,"Ġfoarby":3370,"ĠKramer":3371,"Ġ27":3372,"irk":3373,"Ġklap":3374,"Ġhimsels":3375,"DÃªrby":3376,"ĠwÃªrby":3377,"ĠAnt":3378,"Ġpositive":3379,"Ġproduk":3380,"Ġomheech":3381,"Cambuur":3382,"burg":3383,"mak":3384,"Ġher":3385,"Ġtoen":3386,"riaal":3387,"Ġmeidwaan":3388,"ĠLem":3389,"oedsel":3390,"Ġlij":3391,"eiding":3392,"ĠminÃºt":3393,"Ġkunt":3394,"uorren":3395,"Ġorganisearre":3396,"ĠSkier":3397,"Ġreis":3398,"Ġpakken":3399,"Ġpleats":3400,"ĠkontrÃ´le":3401,"Ġanders":3402,"50":3403,"Die":3404,"eam":3405,"ijf":3406,"Ġweg":3407,"ĠHaan":3408,"Ġlied":3409,"ĠRot":3410,"warte":3411,"Ġsoms":3412,"Ġferspried":3413,"Ġdefinit":3414,"ckdown":3415,"Sk":3416,"lÃª":3417,"ĠYn":3418,"enen":3419,"Ġsen":3420,"eizoen":3421,"riden":3422,"Ġopset":3423,"ĠFC":3424,"ĠPr":3425,"ullen":3426,"Ġgrutsk":3427,"ĠEr":3428,"Ġbegryp":3429,"Ġeltsenien":3430,"Omrop":3431,"Ġfamke":3432,"Ġbesmettings":3433,"Ġflecht":3434,"Ġferstoarn":3435,"Ġreaksjes":3436,"Ġcamping":3437,"cke":3438,"gre":3439,"kn":3440,"Ã¶":3441,"Ġsle":3442,"ati":3443,"urt":3444,"olf":3445,"adskip":3446,"Ġoerwinning":3447,"maakt":3448,"apen":3449,"Ġryd":3450,"ĠRe":3451,"Ġgroepen":3452,"lymp":3453,"DÃªrneist":3454,"eilannen":3455,"Ġmooi":3456,"Ġferwachtet":3457,"Ġspannend":3458,"ĠProv":3459,"Ġiennige":3460,"Ġskiednis":3461,"bÃ¢n":3462,"buro":3463,"hink":3464,"va":3465,"Ġart":3466,"ĠbÃªst":3467,"urn":3468,"Ġstiene":3469,"Ġjon":3470,"ĠWK":3471,"ĠWar":3472,"ĠGri":3473,"Ġlekker":3474,"ĠÃ»nderdiel":3475,"ĠEurop":3476,"ĠOn":3477,"joern":3478,"ĠGrinslÃ¢n":3479,"ĠFlylÃ¢n":3480,"Ġfestival":3481,"ca":3482,"fjild":3483,"jitten":3484,"erp":3485,"Ġmate":3486,"atte":3487,"Ġhuis":3488,"jone":3489,"Ġaltern":3490,"Ġweek":3491,"ĠMuseum":3492,"jouwe":3493,"ĠRyk":3494,"uld":3495,"wurker":3496,"Ġsoarte":3497,"Ġzeker":3498,"Ġflink":3499,"Ġsykje":3500,"ĠDÃºtsers":3501,"Ġpleatst":3502,"wÃªz":3503,"Ġtrek":3504,"Ġtank":3505,"Ġeens":3506,"Ġvirus":3507,"Ġneist":3508,"ĠDam":3509,"Ġministearje":3510,"ĠwÃªrom":3511,"Ġbelied":3512,"Ġkwets":3513,"ĠJouwer":3514,"ische":3515,"byld":3516,"Ġnammentlik":3517,"Ġtermyn":3518,"iversiteit":3519,"Ġat":3520,"Ġteste":3521,"asters":3522,"uring":3523,"Ġbeetje":3524,"ĠFer":3525,"Ġoerli":3526,"Ġheale":3527,"Ġkearen":3528,"Ġpass":3529,"Ġynfloed":3530,"Ġpolityk":3531,"Ġmotor":3532,"jekten":3533,"dels":3534,"jaan":3535,"kri":3536,"Ġechte":3537,"Ġoptre":3538,"urk":3539,"chtkar":3540,"isme":3541,"Ġnoait":3542,"ĠTal":3543,"Ġhawwen":3544,"ĠColle":3545,"bean":3546,"Ġboadskip":3547,"Ġsituatie":3548,"ĠBoys":3549,"Ġlockdown":3550,"Fierder":3551,"Ġoefen":3552,"Ġcoronapasjinten":3553,"Ġhanthaven":3554,"team":3555,"Ġhann":3556,"Ġgaten":3557,"aliÃ«":3558,"ĠoanhÃ¢lden":3559,"Ġmoei":3560,"Ġferlet":3561,"idint":3562,"Ġrein":3563,"ichter":3564,"Ġspoar":3565,"Ġleven":3566,"ĠPaul":3567,"Ġhoefolle":3568,"Ġsiik":3569,"koarten":3570,"Ġoproppen":3571,"Ġseleksje":3572,"feart":3573,"voorbeeld":3574,"Ben":3575,"jus":3576,"ĠfÃªste":3577,"Ġbak":3578,"Ġnommen":3579,"Ġferdigen":3580,"ĠHer":3581,"ĠJac":3582,"ĠVeer":3583,"ĠRob":3584,"Ġeardere":3585,"bestjoer":3586,"Ġtagelyk":3587,"Ġtrein":3588,"Ġfalle":3589,"ĠDÃºtslÃ¢n":3590,"Ġkuier":3591,"chtkarspelen":3592,"aien":3593,"aut":3594,"uo":3595,"Ġgar":3596,"room":3597,"rake":3598,"Ġferiening":3599,"Ġ28":3600,"Ġsicht":3601,"DÃªrtroch":3602,"stellingen":3603,"book":3604,"Ġeffe":3605,"werp":3606,"ĠAlvestÃªdetocht":3607,"ĠkarantÃªne":3608,"tseach":3609,"organisaasjes":3610,"val":3611,"etting":3612,"Ġnivo":3613,"Ġopen":3614,"olen":3615,"steat":3616,"Ġslot":3617,"Ġsizzen":3618,"Ġneg":3619,"Ġgroot":3620,"Ġafstand":3621,"Ġ60":3622,"Ġflean":3623,"Ġregion":3624,"Ġwurdfierder":3625,"Ġstadion":3626,"Ġferdw":3627,"Ġkostet":3628,"ĠPieter":3629,"acebook":3630,"mÃ»ntseach":3631,"ta":3632,"zelf":3633,"Ġele":3634,"Ġser":3635,"Ġwitten":3636,"Ġou":3637,"Ġoanholden":3638,"Ġgeven":3639,"Ġwein":3640,"Ġrea":3641,"ague":3642,"Ġklok":3643,"oenen":3644,"Ġkeer":3645,"ukses":3646,"Ġgedaan":3647,"Ġpraten":3648,"okkich":3649,"Ġmiddei":3650,"Ġskippen":3651,"ĠsÃ»nens":3652,"ĠÃ©Ã©n":3653,"VV":3654,"dÃ»":3655,"fak":3656,"dering":3657,"Ġderop":3658,"Ġoanlieding":3659,"adium":3660,"Ġiene":3661,"Ġtsjinst":3662,"Ġstikken":3663,"ĠFriese":3664,"ĠWaadeilannen":3665,"Ġlokale":3666,"hannele":3667,"Ġkampioen":3668,"Ġferantwurdlik":3669,"Jo":3670,"van":3671,"Ġant":3672,"Ġdeputearre":3673,"Ġbru":3674,"atten":3675,"Ġnjonken":3676,"Ġgoal":3677,"leine":3678,"Ġbeteken":3679,"Ġland":3680,"ĠSw":3681,"Ġsprake":3682,"Ġliet":3683,"ĠGord":3684,"straf":3685,"Ġfolgje":3686,"jerk":3687,"Ġbliuwen":3688,"ĠtelÃ¢ne":3689,"Gewoan":3690,"pels":3691,"twurd":3692,"uinen":3693,"zing":3694,"Ġtent":3695,"Ġent":3696,"geven":3697,"Ġbeam":3698,"Ġwerken":3699,"ĠNoord":3700,"osysje":3701,"Ġbetiid":3702,"ĠMarren":3703,"weis":3704,"Ġleafst":3705,"onferinsje":3706,"lend":3707,"Ġsukses":3708,"Ġkamer":3709,"ise":3710,"Ġmoa":3711,"ĠBoals":3712,"geld":3713,"ĠLel":3714,"ĠPiet":3715,"oeksen":3716,"Ġbenaud":3717,"Ġmooglikheden":3718,"kelijk":3719,"ĠGrou":3720,"Ġstreek":3721,"Ber":3722,"Wa":3723,"beid":3724,"rass":3725,"wet":3726,"Ġfeit":3727,"Ġwed":3728,"Ġmerk":3729,"eij":3730,"Ġgere":3731,"Ġynveste":3732,"ĠHa":3733,"unning":3734,"Ġdoet":3735,"teld":3736,"Ġhoege":3737,"Ġbijvoorbeeld":3738,"Ġwater":3739,"ĠkrÃªft":3740,"Ġsoks":3741,"jax":3742,"Njonken":3743,"pij":3744,"qu":3745,"ule":3746,"uke":3747,"uze":3748,"Ġdrie":3749,"Ġtek":3750,"Ġferler":3751,"usje":3752,"ĠBrok":3753,"ess":3754,"ĠMart":3755,"ĠRyks":3756,"anning":3757,"Ġfolget":3758,"Ġfolgjen":3759,"Ġmooglike":3760,"Ġappar":3761,"Ġbesmetting":3762,"Ġaktyf":3763,"Ġbless":3764,"Ġfielt":3765,"ĠVVD":3766,"ĠskÃ»tsje":3767,"Ġspitich":3768,"500":3769,"Zo":3770,"boer":3771,"ees":3772,"her":3773,"oit":3774,"uotbal":3775,"Ġam":3776,"ĠdrÃ»":3777,"Ġloft":3778,"joers":3779,"Ġferlear":3780,"ĠFre":3781,"Ġzoals":3782,"Ġregear":3783,"ĠThe":3784,"Ġheart":3785,"Ġspesjaal":3786,"drage":3787,"Ġenerzjy":3788,"lanners":3789,"ĠSkiermÃ»ntseach":3790,"66":3791,"Ġmins":3792,"Ġbre":3793,"Ġboeken":3794,"onde":3795,"Ġfoarkomme":3796,"Ġalve":3797,"tsjinne":3798,"ĠFacebook":3799,"ĠSur":3800,"imming":3801,"Ġzorgen":3802,"ĠAchtkarspelen":3803,"ĠNie":3804,"ĠKollum":3805,"ĠPost":3806,"ĠCar":3807,"Ġnemen":3808,"Ġfolg":3809,"rekke":3810,"Ġmisschien":3811,"Fanwe":3812,"ĠWaadhoeke":3813,"Ġpersoanen":3814,"Ġ80":3815,"bert":3816,"enL":3817,"inister":3818,"Ġtolve":3819,"leg":3820,"Ġfoardat":3821,"Ġoanbelang":3822,"oegen":3823,"ĠLa":3824,"ĠNK":3825,"Ġspyl":3826,"sjeel":3827,"Ġtiden":3828,"beste":3829,"Ġoantroffen":3830,"Ġverwacht":3831,"Ġtritich":3832,"uorre":3833,"Ġlanlik":3834,"Ġparsek":3835,"Hij":3836,"hÃºs":3837,"lag":3838,"po":3839,"recht":3840,"gefallen":3841,"Ġvoetbal":3842,"ĠoanwÃªz":3843,"Ġoeral":3844,"Ġco":3845,"Ġmoatten":3846,"ikke":3847,"ĠDO":3848,"Ġwaarm":3849,"ĠsikehÃ»zen":3850,"ĠfreedtejÃ»n":3851,"Ġlokaasjes":3852,"Ġwachtsje":3853,"Ġmochten":3854,"Ġbepaalde":3855,"Ġversch":3856,"ĠmÃ»lkapke":3857,"Ġlestich":3858,"Ġferlern":3859,"Met":3860,"hren":3861,"ple":3862,"ukt":3863,"ueel":3864,"Ġjouwe":3865,"Ġinkeld":3866,"regels":3867,"Ġbegel":3868,"Ġvinden":3869,"ĠoanjÃ»n":3870,"ĠWie":3871,"Ġspons":3872,"ĠKro":3873,"Ġ26":3874,"oorn":3875,"Ġhoecht":3876,"Ġneamt":3877,"uere":3878,"Omdat":3879,"ĠIngel":3880,"Ġkoarte":3881,"ĠfÃ»gel":3882,"Ġevenemint":3883,"Gewoanwei":3884,"Ġparsekonferinsje":3885,"dyk":3886,"nel":3887,"uch":3888,"vers":3889,"ars":3890,"Ġsh":3891,"edif":3892,"nema":3893,"ollen":3894,"Ġoanf":3895,"ĠFor":3896,"aanske":3897,"ika":3898,"Ġ29":3899,"ĠPl":3900,"oere":3901,"ferli":3902,"Ġeltse":3903,"Ġ31":3904,"ooi":3905,"Ġander":3906,"Ġtsjerken":3907,"Ġswiere":3908,"Ġferkocht":3909,"Ġbleau":3910,"Ġynternasjonale":3911,"ĠÃ¢lderein":3912,"ĠLeeuwarden":3913,"ĠEuropa":3914,"bin":3915,"han":3916,"lyn":3917,"loop":3918,"veld":3919,"Ġbuiten":3920,"atuur":3921,"elt":3922,"Ġeach":3923,"olk":3924,"earde":3925,"ĠÃ»nw":3926,"ĠHel":3927,"Ġcl":3928,"ĠWest":3929,"ĠWolve":3930,"Ġtrochs":3931,"Ġlist":3932,"Ġkonk":3933,"dield":3934,"iids":3935,"Ġstelt":3936,"Ġoanpak":3937,"Ġruim":3938,"Ġkontrakt":3939,"Ã¼hren":3940,"ĠVeerman":3941,"Ġoanbelanget":3942,"gra":3943,"anken":3944,"Ġfr":3945,"Ġhearren":3946,"chter":3947,"Ġkafee":3948,"Ġgraag":3949,"Ġbestri":3950,"Ġhaven":3951,"ĠBakker":3952,"Ġry":3953,"ĠRen":3954,"mans":3955,"Ġkontro":3956,"Ġgewoanwei":3957,"Ġronde":3958,"Ġmaksimaal":3959,"ĠBoalsert":3960,"Sels":3961,"Sport":3962,"gar":3963,"pak":3964,"Ġch":3965,"Ġfracht":3966,"Ġsim":3967,"Ġnoar":3968,"ynt":3969,"Ġtroffen":3970,"rid":3971,"itter":3972,"Ġmoasje":3973,"ĠHof":3974,"gelopen":3975,"Ġrin":3976,"ĠMul":3977,"Ġproef":3978,"Ġbesli":3979,"ĠZoe":3980,"diele":3981,"werk":3982,"Ġdoelpunt":3983,"endaliks":3984,"Ġhebt":3985,"Ġstrang":3986,"iÃ«n":3987,"Ġbeskerm":3988,"Ġbestean":3989,"Ġropt":3990,"Benammen":3991,"Ste":3992,"punten":3993,"tein":3994,"rouw":3995,"Ġtekoart":3996,"aske":3997,"Ã»nen":3998,"Ġbeter":3999,"Ġskjin":4000,"ĠWiersma":4001,"ĠNO":4002,"ktyf":4003,"ĠEast":4004,"eper":4005,"Ġkulturele":4006,"Ġswimbad":4007,"middel":4008,"Ġfjoerwurk":4009,"Ġferwachting":4010,"fÃ»gels":4011,"ĠwrÃ¢ldbeker":4012,"ĠLemmer":4013,"ĠGordyk":4014,"bid":4015,"gings":4016,"moed":4017,"zel":4018,"Ġmaan":4019,"Ġoers":4020,"Ġhienen":4021,"Ġopsje":4022,"ingt":4023,"Ġges":4024,"Ġsech":4025,"weach":4026,"ĠWer":4027,"ĠWetter":4028,"iker":4029,"ĠKening":4030,"Ġbesch":4031,"Ã»sj":4032,"Ġverd":4033,"Ġkeats":4034,"All":4035,"ĠIepen":4036,"egjen":4037,"onds":4038,"ico":4039,"Ġterrein":4040,"Ġferoare":4041,"Ġsupporters":4042,"ĠLeague":4043,"Ġbewust":4044,"Ja":4045,"bos":4046,"lers":4047,"ĠhÃ¢ld":4048,"Ġkro":4049,"orte":4050,"Ġeks":4051,"ĠSl":4052,"wein":4053,"ĠAjax":4054,"ĠCO":4055,"berg":4056,"ĠOran":4057,"auffe":4058,"ulting":4059,"Ġtests":4060,"Ġsteld":4061,"Ġparkear":4062,"Ġmelde":4063,"Ġeveneminten":4064,"ĠFean":4065,"roegen":4066,"Ġcoronabesmettingen":4067,"ĠEasterwÃ¢lde":4068,"Ġserie":4069,"egen":4070,"jil":4071,"kie":4072,"naam":4073,"oot":4074,"Ãºzje":4075,"ĠFa":4076,"ĠHans":4077,"Ġred":4078,"ĠÃ»nderfin":4079,"onger":4080,"Ġhelpt":4081,"Ġferbetter":4082,"Ġreedryd":4083,"Ġmaatskip":4084,"ĠCollege":4085,"Mensen":4086,"fÃ¢ld":4087,"gd":4088,"lannen":4089,"museum":4090,"Ġsysteem":4091,"Ġpap":4092,"Ġwolkom":4093,"ĠÃ»nts":4094,"ĠHam":4095,"ĠMSC":4096,"Ġearedif":4097,"oglik":4098,"Ġrit":4099,"rypt":4100,"Ġ2017":4101,"Ġtafersjoch":4102,"ĠFlyers":4103,"ĠWolvegea":4104,"DOD":4105,"fraksje":4106,"uid":4107,"vol":4108,"wat":4109,"Ġdri":4110,"Ġdeb":4111,"Ġynienen":4112,"Ġlannen":4113,"Ġallen":4114,"Ġstu":4115,"adden":4116,"Ġkons":4117,"Ġkonst":4118,"Ġdochter":4119,"Ġfuortendaliks":4120,"usea":4121,"Ġevent":4122,"Ġ70":4123,"Ġadvok":4124,"huizen":4125,"Ġprachtich":4126,"ĠentÃ»sj":4127,"Ġwedst":4128,"DODK":4129,"fl":4130,"Ġmist":4131,"Ġkof":4132,"jefte":4133,"als":4134,"Ġopsk":4135,"lier":4136,"Ġvrij":4137,"ĠBl":4138,"ĠWester":4139,"Ġlid":4140,"uting":4141,"Ġlege":4142,"aald":4143,"ĠCit":4144,"straat":4145,"Ġbedrach":4146,"abryk":4147,"ĠrekÃ´r":4148,"Ġoarsaak":4149,"ĠJoad":4150,"Ġbopp":4151,"Ġteloar":4152,"Ġslachtoffers":4153,"Ġbefrij":4154,"ĠteÃ¤ter":4155,"ĠKanade":4156,"Ġoptreden":4157,"form":4158,"Ġast":4159,"inde":4160,"ends":4161,"Ġfisk":4162,"ĠbÃ»":4163,"roep":4164,"Ġbezig":4165,"Ġzullen":4166,"oppen":4167,"ichoan":4168,"ĠAZ":4169,"esk":4170,"ĠRied":4171,"ĠTsj":4172,"Ġslute":4173,"Ġgroei":4174,"dielen":4175,"klasse":4176,"Ġgewoane":4177,"Ġsykjen":4178,"Alles":4179,"ĠBelg":4180,"stikke":4181,"Ġslagget":4182,"Krekt":4183,"fle":4184,"lysje":4185,"tusken":4186,"ĠbÃ»n":4187,"Ġbard":4188,"Ġnoard":4189,"Ġgiene":4190,"Ġstasjon":4191,"meter":4192,"Ġskrast":4193,"ĠtsjÃ»":4194,"ĠCor":4195,"veren":4196,"linge":4197,"Ġautom":4198,"lijn":4199,"Ġschool":4200,"Ġsykte":4201,"Ġtraining":4202,"Ġmeldingen":4203,"isjele":4204,"Ġmaakt":4205,"Ġhinget":4206,"ĠSybrand":4207,"hinklik":4208,"ĠOranje":4209,"Pro":4210,"blog":4211,"oeld":4212,"uc":4213,"enstra":4214,"reen":4215,"kem":4216,"ama":4217,"Ġderfan":4218,"Ġferfol":4219,"Ġstyp":4220,"ĠÃºtw":4221,"Ġcon":4222,"Ġoarder":4223,"ĠDrin":4224,"orttra":4225,"wurke":4226,"Ġkeazen":4227,"gemasters":4228,"Ġhotel":4229,"Ġfolsleine":4230,"Ġsupermerk":4231,"ĠBrouwer":4232,"Ġgeregeld":4233,"Ġrydt":4234,"Oft":4235,"fyts":4236,"oten":4237,"Ġdjip":4238,"oflik":4239,"arte":4240,"Ġsiket":4241,"Ġmusea":4242,"Ġkennis":4243,"Ġgast":4244,"Ġfant":4245,"Ġext":4246,"Ġpaar":4247,"Ã´ge":4248,"Ġziet":4249,"ĠLand":4250,"ĠAris":4251,"ĠdÃªryn":4252,"ĠWil":4253,"ikop":4254,"ĠNe":4255,"ĠTuinen":4256,"igje":4257,"emand":4258,"Ġneamd":4259,"Ġfreonen":4260,"Ġverder":4261,"ĠÃ»ndersocht":4262,"Ġ199":4263,"leats":4264,"Ġsnap":4265,"Ġdrokte":4266,"Ġskeat":4267,"Ġduorje":4268,"Ġfinansjeel":4269,"ĠJohn":4270,"sych":4271,"ĠPrins":4272,"Ġbetekent":4273,"10":4274,"Beide":4275,"gien":4276,"lang":4277,"ald":4278,"alje":4279,"ĠynstÃ¢n":4280,"Ġeagen":4281,"Ġoper":4282,"onker":4283,"ijden":4284,"Ġoanfal":4285,"Ġfernim":4286,"ilt":4287,"Ġbydrage":4288,"Ġsek":4289,"Ġlich":4290,"ĠMan":4291,"Ġterjochte":4292,"Ġwichtige":4293,"ĠhÃºsdokter":4294,"isjeel":4295,"Ġcontact":4296,"Ġdefinityf":4297,"enLinks":4298,"35":4299,"Be":4300,"Myn":4301,"az":4302,"gie":4303,"kw":4304,"teit":4305,"ara":4306,"Ġyngong":4307,"Ġbeammen":4308,"Ġvoel":4309,"ĠSKS":4310,"ĠoerlÃªst":4311,"Ġweken":4312,"Ġlibb":4313,"ĠMin":4314,"ment":4315,"Ġvooral":4316,"jochten":4317,"Ġpartoer":4318,"Ġ35":4319,"Ġpremier":4320,"ĠstrÃ¢n":4321,"Ġgearkomste":4322,"programma":4323,"Ġoffisjele":4324,"Ġferniel":4325,"kundigen":4326,"SB":4327,"Sch":4328,"bus":4329,"meld":4330,"ote":4331,"reide":4332,"Ġfit":4333,"etal":4334,"Ġea":4335,"older":4336,"akk":4337,"Ġmeid":4338,"Ġstuk":4339,"Ġja":4340,"Ġkomst":4341,"Ġsafier":4342,"Ġspelen":4343,"Ġleef":4344,"ĠÃ»nderhÃ¢ld":4345,"ĠÃ»nderdÃ»":4346,"DÃªrfoar":4347,"Ġbedrij":4348,"Ġbestjoers":4349,"Ġmooglikheid":4350,"Ġkommissaris":4351,"Ġsikehuzen":4352,"Ġheechste":4353,"freden":4354,"ĠrÃªstich":4355,"Anne":4356,"ĠKlaas":4357,"Ġhartstikke":4358,"Ġtentoan":4359,"ĠoanwÃªzich":4360,"kte":4361,"su":4362,"ssen":4363,"yen":4364,"zjen":4365,"Ġsc":4366,"elje":4367,"Ġkran":4368,"Ġkening":4369,"stien":4370,"alif":4371,"lizze":4372,"ijen":4373,"Ġoansp":4374,"Ġoanfre":4375,"Ġgebouwen":4376,"ĠÃ»nbek":4377,"opro":4378,"ĠMÃ¼hren":4379,"ĠPier":4380,"Ġdirekt":4381,"ĠslÃºt":4382,"Ġsluten":4383,"Ġbegri":4384,"Ġfolge":4385,"Ġplakje":4386,"Ġzoveel":4387,"rokken":4388,"meitsje":4389,"Ġkost":4390,"Ġdrege":4391,"Ġgelyk":4392,"Ġferskillende":4393,"Ġelekt":4394,"Ġearedifyzje":4395,"Minister":4396,"aap":4397,"jiers":4398,"Ġ&":4399,"erde":4400,"ĠmÃªd":4401,"Ġynwenner":4402,"Ġem":4403,"Ġpast":4404,"Ġpod":4405,"isse":4406,"jint":4407,"ĠBalk":4408,"ĠRoel":4409,"ĠEn":4410,"sein":4411,"fest":4412,"Ġfoldwaan":4413,"Ġeinige":4414,"Neist":4415,"Ġpoadium":4416,"gebieten":4417,"ĠSpelen":4418,"Ġfallen":4419,"tsjinsten":4420,"wettersteat":4421,"Ġdiskusje":4422,"Ġstoarm":4423,"Fers":4424,"Hearrenfean":4425,"Ook":4426,"cast":4427,"finsje":4428,"ius":4429,"ringen":4430,"sters":4431,"ario":4432,"Ġkocht":4433,"Ġynkomsten":4434,"likens":4435,"terdam":4436,"orp":4437,"Ġferrass":4438,"ienings":4439,"Ġsawol":4440,"Ġdos":4441,"Ġhard":4442,"Ġleeft":4443,"Ġniets":4444,"ĠEK":4445,"ĠOer":4446,"Ġverh":4447,"ytsjerk":4448,"Ġgebieten":4449,"ubile":4450,"ĠlÃ¢ns":4451,"Ġafgelopen":4452,"ĠbÃ»tenlÃ¢n":4453,"brÃªge":4454,"Ġpersoanlik":4455,"Ġheard":4456,"Ġkampioenskip":4457,"Ġmelden":4458,"Ġopnaam":4459,"tallen":4460,"Ġnieuw":4461,"Ġopsm":4462,"oepjes":4463,"ubileum":4464,"SV":4465,"euw":4466,"fyzje":4467,"grÃ»n":4468,"our":4469,"pan":4470,"tend":4471,"tje":4472,"ving":4473,"wink":4474,"Ġmen":4475,"Ġmuo":4476,"Ġhou":4477,"che":4478,"Ġgeld":4479,"reau":4480,"lieder":4481,"Ġlog":4482,"una":4483,"macht":4484,"Ġbesiket":4485,"intrum":4486,"Ġsneontemiddei":4487,"Ġfee":4488,"ĠNoarden":4489,"Ġfaksin":4490,"Ġprima":4491,"Ġjilde":4492,"Ġoffisjeel":4493,"coach":4494,"ĠJacob":4495,"ĠDOK":4496,"ĠFaber":4497,"ikopter":4498,"Sjoch":4499,"njonken":4500,"sh":4501,"wers":4502,"Ġfrije":4503,"Ġiemand":4504,"Ġbang":4505,"Ġhal":4506,"Ġtag":4507,"rou":4508,"rist":4509,"Ġpsych":4510,"Ġopt":4511,"Ġopfang":4512,"lichte":4513,"aks":4514,"Ġderby":4515,"Ġoansl":4516,"Ġferne":4517,"Ġnooit":4518,"earika":4519,"Ġjubileum":4520,"ĠÃºtbraak":4521,"Ġreek":4522,"Ġhem":4523,"ĠNoor":4524,"ĠKu":4525,"vent":4526,"Ġsteat":4527,"Ġbedoeld":4528,"wurkje":4529,"ĠÃºtslach":4530,"ĠbrÃ»ken":4531,"Ġreguli":4532,"Ġkampanje":4533,"ĠjÃ»ns":4534,"Ġpolitike":4535,"trecht":4536,"Ġmooie":4537,"Ġsomtiden":4538,"Ġpopul":4539,"Ġdemonstraasje":4540,"ĠRotterdam":4541,"joneel":4542,"Ġextra":4543,"Hiel":4544,"lings":4545,"rassen":4546,"Ġy":4547,"enten":4548,"Ġwr":4549,"Ġhan":4550,"lich":4551,"Ġvert":4552,"Ġgemaakt":4553,"Ġmogen":4554,"ĠSander":4555,"ĠÃ´fstannen":4556,"Ġtrochgiet":4557,"Ġprot":4558,"jouwers":4559,"Ġkonkl":4560,"Ġboaten":4561,"Ġwetterskip":4562,"Ġtinken":4563,"Ġplanten":4564,"direkteur":4565,"haw":4566,"Ġhout":4567,"ĠoprÃ»n":4568,"Ġstadichoan":4569,"ĠÃ»ntstien":4570,"Ġfersprieding":4571,"Ġfantast":4572,"Ar":4573,"Bij":4574,"Lan":4575,"dy":4576,"iter":4577,"odei":4578,"zingen":4579,"Ġdro":4580,"ermen":4581,"inc":4582,"ants":4583,"Ġintens":4584,"ish":4585,"joert":4586,"Ġstrukt":4587,"ĠFort":4588,"ĠSiet":4589,"Ġseagen":4590,"ĠWadden":4591,"ĠMe":4592,"ĠOlymp":4593,"Ġ34":4594,"Ġgruttere":4595,"Ġgebru":4596,"Ġbekende":4597,"Ġaksjes":4598,"Ġblyk":4599,"finale":4600,"klups":4601,"Ġsokke":4602,"Ġgehad":4603,"ĠHeeren":4604,"ĠlÃªzen":4605,"Ġoppakt":4606,"Ġhuzen":4607,"stadion":4608,"Ġserieus":4609,"ces":4610,"druk":4611,"ljep":4612,"saak":4613,"wijk":4614,"Ġdiene":4615,"Ġbur":4616,"Ġbele":4617,"ynf":4618,"Ġgele":4619,"Ġpat":4620,"iep":4621,"ĠstÃªden":4622,"ilen":4623,"ĠRoe":4624,"ĠÃ»nderweis":4625,"jerke":4626,"Ġ300":4627,"Ġflinke":4628,"Ġkans":4629,"Ġradi":4630,"ĠwethÃ¢lders":4631,"Ġleare":4632,"ĠUtrecht":4633,"Ġrapport":4634,"apasiteit":4635,"Ġoandacht":4636,"Ġregionale":4637,"Ġspyljen":4638,"ĠMulder":4639,"Is":4640,"Us":4641,"vo":4642,"arret":4643,"Ġdatum":4644,"Ġtem":4645,"Ġtefolle":4646,"Ġbeker":4647,"Ġvak":4648,"Ġvragen":4649,"ĠLDODK":4650,"ĠÃ´fdieling":4651,"app":4652,"ikaasje":4653,"ĠKon":4654,"Ġsoenen":4655,"ĠOf":4656,"Ġaller":4657,"sterlÃ¢n":4658,"Ġbedriuws":4659,"Ġ2016":4660,"Ġkwart":4661,"Ġsneintemiddei":4662,"ick":4663,"helje":4664,"Ġblijft":4665,"Ġregeling":4666,"ĠNederlandse":4667,"Ġ90":4668,"Ġferklear":4669,"ilie":4670,"daging":4671,"Ġdenken":4672,"Ġliveblog":4673,"ĠÃ´fspraken":4674,"Sneon":4675,"ĠÃºtstjoering":4676,"Ġekonomy":4677,"Ġruimte":4678,"NS":4679,"bjen":4680,"ulear":4681,"virus":4682,"tearre":4683,"Ġsal":4684,"aton":4685,"eis":4686,"eite":4687,"Ġgra":4688,"Ġopkn":4689,"Ġbehear":4690,"Ġalgem":4691,"Ġstroom":4692,"ads":4693,"ĠBra":4694,"unen":4695,"opfang":4696,"antie":4697,"uljus":4698,"oernoai":4699,"Ã»nderwiis":4700,"Ġfide":4701,"Ġzodat":4702,"Ġkommun":4703,"inda":4704,"belied":4705,"ĠArjen":4706,"Ġkarbid":4707,"intearre":4708,"Ġklean":4709,"Ġbesteande":4710,"Ġduid":4711,"Ġbepaald":4712,"ĠDouwe":4713,"ĠmÃ»lkapkes":4714,"ativen":4715,"jilden":4716,"ĠJoadske":4717,"Ast":4718,"Te":4719,"WÃªr":4720,"bi":4721,"pri":4722,"tings":4723,"wier":4724,"âĢ":4725,"Ġsyl":4726,"Ġbier":4727,"eim":4728,"eling":4729,"staan":4730,"Ġtr":4731,"riva":4732,"red":4733,"onne":4734,"Ġgesp":4735,"Ġwolf":4736,"ĠÃºtst":4737,"ĠLi":4738,"ĠWal":4739,"ĠJor":4740,"Ġcoronap":4741,"yls":4742,"behe":4743,"feroar":4744,"ĠlÃ¢nskip":4745,"Ġkommisje":4746,"Ġgenoeg":4747,"Ġwenne":4748,"Ġfleant":4749,"Ġhoog":4750,"ĠhÃºshÃ¢ld":4751,"Ġhopen":4752,"hoven":4753,"Ġbussen":4754,"Ġfergunning":4755,"ureel":4756,"Ġlessen":4757,"Ġtrans":4758,"Ġlieding":4759,"Ġmateriaal":4760,"Ġfolgjende":4761,"petysje":4762,"waasje":4763,"zorg":4764,"ĠÃ©n":4765,"Ġnasjonale":4766,"Ġkapasiteit":4767,"Ġtefreden":4768,"Ġloop":4769,"Ġgeeft":4770,"Ġskot":4771,"Ġvand":4772,"ĠMich":4773,"Ġmakken":4774,"Ġrij":4775,"merken":4776,"Ġabs":4777,"itein":4778,"Ġfiere":4779,"Ġfertelle":4780,"Ġboargemasters":4781,"fange":4782,"Ġwinnen":4783,"aiem":4784,"personiel":4785,"ĠÃºtspraak":4786,"ĠÃºteinset":4787,"Ġtydlik":4788,"ĠProvinsjale":4789,"Ġwittenskip":4790,"ĠÃ»nderfining":4791,"ĠDrinte":4792,"lÃ»":4793,"makker":4794,"rant":4795,"zo":4796,"Ġdjoer":4797,"Ġsleat":4798,"Ġmes":4799,"Ġbren":4800,"chel":4801,"Ġtussen":4802,"Ġynter":4803,"Ġpil":4804,"Ġpakt":4805,"asket":4806,"ors":4807,"uwers":4808,"Ġseks":4809,"Ġzouden":4810,"Ġziek":4811,"Ġass":4812,"oppe":4813,"ĠAbe":4814,"ĠÃ´fwacht":4815,"Ġspits":4816,"umer":4817,"Ġkrimin":4818,"spil":4819,"plan":4820,"ĠSchulting":4821,"asjonaal":4822,"Ġreserv":4823,"ĠÃ»ntstie":4824,"Ġmoarns":4825,"Snein":4826,"Ġdigitaal":4827,"stannichheden":4828,"Ġhannel":4829,"ĠRobert":4830,"ĠMartin":4831,"Ġshorttra":4832,"ĠMinistearje":4833,"Sp":4834,"bu":4835,"Ġboud":4836,"ammer":4837,"Ġskilder":4838,"Ġwerd":4839,"Ġligt":4840,"Ġlein":4841,"Ġwisten":4842,"Ġhellet":4843,"vere":4844,"feest":4845,"joerd":4846,"Ġkeeper":4847,"Ġiepene":4848,"Ġbouwen":4849,"ademy":4850,"wike":4851,"Ġ2015":4852,"aties":4853,"Ġpresint":4854,"brÃ¢n":4855,"Ġskriuwe":4856,"plakken":4857,"Ġfiele":4858,"ĠÃ»ntwikkeling":4859,"Ġlastig":4860,"fakÃ¢nsje":4861,"Ġappartem":4862,"oprogramma":4863,"ĠHeerenveen":4864,"bar":4865,"bÃ´ge":4866,"kele":4867,"riders":4868,"Ġpan":4869,"list":4870,"nemers":4871,"ieke":4872,"ork":4873,"orts":4874,"Ġlucht":4875,"Ġstip":4876,"usma":4877,"ĠSij":4878,"Ġzetten":4879,"Ġproses":4880,"andid":4881,"Ġdifyzje":4882,"Ġneeds":4883,"stellen":4884,"Ġbeli":4885,"Ġfieren":4886,"Ġmilje":4887,"Ġferplichte":4888,"ĠGeert":4889,"Ġholpen":4890,"Ġgesicht":4891,"kemase":4892,"18":4893,"Trije":4894,"go":4895,"hou":4896,"iis":4897,"kjen":4898,"name":4899,"Ġkust":4900,"stit":4901,"akten":4902,"Ġbehanneling":4903,"Ġvraag":4904,"Ġcar":4905,"Ġtrochdat":4906,"ĠMa":4907,"ertier":4908,"ekken":4909,"Ġdicht":4910,"Ġbringt":4911,"bewiis":4912,"Ġeilannen":4913,"Ġverb":4914,"falt":4915,"ĠthÃº":4916,"ivid":4917,"Ġrekre":4918,"Ġbijz":4919,"Ġtrainen":4920,"Ġkwam":4921,"Ġfytsen":4922,"Ġkomple":4923,"Ġ150":4924,"ĠAmearika":4925,"Ġsmyt":4926,"Ġwachtsjen":4927,"Ġpresintearre":4928,"Ġklimaat":4929,"ĠkliÃ¯n":4930,"Ġiepenbiere":4931,"Ġhistoaryske":4932,"kriten":4933,"Ġverschil":4934,"Ġkonkur":4935,"Allinnich":4936,"Ġkroech":4937,"Ġreguliere":4938,"odeiboek":4939,"AC":4940,"DC":4941,"Freed":4942,"Letter":4943,"Woansdei":4944,"sra":4945,"soarch":4946,"ente":4947,"Ġkwe":4948,"Ġton":4949,"Ġopf":4950,"chten":4951,"Ġbehannele":4952,"Ġomkriten":4953,"oepel":4954,"ĠFl":4955,"ĠBou":4956,"Ġlil":4957,"Ġvanuit":4958,"ĠTer":4959,"bern":4960,"Ġbegrut":4961,"Ġbegrypt":4962,"abel":4963,"Foarsitter":4964,"ustr":4965,"gearkomste":4966,"Ġadvis":4967,"Ġstappen":4968,"Ġgrif":4969,"Ġkeunstner":4970,"halve":4971,"Moandei":4972,"ĠÃ´fskied":4973,"Ġbeweging":4974,"Ġreagear":4975,"Ġbesliss":4976,"ĠJohnny":4977,"Ġradioprogramma":4978,"asketbal":4979,"Gjin":4980,"He":4981,"On":4982,"bele":4983,"brutsen":4984,"ds":4985,"ood":4986,"vinsje":4987,"eroen":4988,"Ġwier":4989,"rig":4990,"itie":4991,"Ġoanjefte":4992,"Ġgesk":4993,"uss":4994,"Ġseker":4995,"Ġzom":4996,"ĠLenstra":4997,"ĠKar":4998,"Yntusken":4999,"meente":5000,"mere":5001,"Ġtsjinstann":5002,"Ġstee":5003,"Ġfreon":5004,"Ġprovinsjale":5005,"ĠAld":5006,"Ġfertrouwen":5007,"ĠGGZ":5008,"ĠtiisdeitejÃ»n":5009,"Ġtoernoai":5010,"Ġtoerisme":5011,"Ġkilo":5012,"ĠGroot":5013,"Ġoanpast":5014,"Ġferkie":5015,"Ġgezien":5016,"Ġduel":5017,"Ġferlies":5018,"ĠskÃ»tsjes":5019,"Ġrestaurant":5020,"Ġeerst":5021,"Ġtenei":5022,"ĠDamwÃ¢ld":5023,"Ġeffekt":5024,"Ġmoaiste":5025,"Ġamate":5026,"15":5027,"Fries":5028,"ader":5029,"ben":5030,"ged":5031,"kan":5032,"Ġdriuw":5033,"Ġdragen":5034,"Ġboel":5035,"stasjon":5036,"ĠfanÃºt":5037,"Ġtoan":5038,"rimin":5039,"ĠpÃ¢n":5040,"rearre":5041,"Ġveilig":5042,"rate":5043,"Ġoanb":5044,"Ġnoed":5045,"Ġjim":5046,"Ġzij":5047,"ryske":5048,"ĠHyl":5049,"rond":5050,"ĠMei":5051,"Ġbesjoen":5052,"ĠPat":5053,"ulp":5054,"eks":5055,"Ġminst":5056,"inking":5057,"ferbod":5058,"Ġbedarre":5059,"uurt":5060,"Ġfuot":5061,"Ġbetingst":5062,"Ġfinzen":5063,"Ġallro":5064,"Ġcoronavirus":5065,"Ġterras":5066,"Ġspiler":5067,"Ġbesker":5068,"Ġkompens":5069,"Ġgeval":5070,"Ġregele":5071,"allon":5072,"ĠGraafschap":5073,"Earst":5074,"Ġynternet":5075,"Ġgefaarlik":5076,"ĠAkk":5077,"Ġresultaat":5078,"Ġresultaten":5079,"Ġleaver":5080,"olooch":5081,"Ġmoeilijk":5082,"ĠIepenbier":5083,"gende":5084,"iisdei":5085,"linen":5086,"minten":5087,"pke":5088,"vert":5089,"zaam":5090,"Ġdrin":5091,"off":5092,"Ġhaar":5093,"reca":5094,"Ġopge":5095,"Ġalder":5096,"oks":5097,"okken":5098,"ĠAnema":5099,"liks":5100,"ĠWark":5101,"Ġharsels":5102,"ĠKn":5103,"ĠKok":5104,"ĠVl":5105,"bbel":5106,"Ġklam":5107,"Ġmannen":5108,"emke":5109,"ĠNederlanners":5110,"ack":5111,"Ġ198":5112,"ĠMark":5113,"ĠwoansdeitejÃ»n":5114,"middels":5115,"Ġbeheind":5116,"Ġbeheining":5117,"Ġarbeid":5118,"wÃ¢lden":5119,"Ġplek":5120,"sjinst":5121,"auto":5122,"Ġboppedat":5123,"Ġintensive":5124,"Hol":5125,"mat":5126,"wrÃ¢ld":5127,"ange":5128,"ĠsÃºd":5129,"Ġbroer":5130,"elijke":5131,"Ġinkel":5132,"Ġynte":5133,"ĠynhÃ¢ld":5134,"Ã»gel":5135,"aket":5136,"Ġfoarige":5137,"Ġderyn":5138,"Ġferbod":5139,"Ġstop":5140,"zem":5141,"ĠÃºtn":5142,"ĠHet":5143,"Ġasyls":5144,"ensch":5145,"Ġrjochte":5146,"ĠEar":5147,"ferb":5148,"eilich":5149,"Ġmisse":5150,"ploech":5151,"ĠWaadsee":5152,"Ġgefolch":5153,"ommels":5154,"Ã¤lysje":5155,"ĠEls":5156,"Ġhjoeddei":5157,"ĠÃºtfierd":5158,"Ġpromoasje":5159,"Ġfyftjin":5160,"Ġpapier":5161,"Ġadvokaat":5162,"Ġdosinten":5163,"winkel":5164,"Ġalgemien":5165,"Noch":5166,"TO":5167,"fÃ»ns":5168,"kocht":5169,"pstra":5170,"sed":5171,"ĠhÃ»n":5172,"Ġnoflik":5173,"rits":5174,"risten":5175,"negt":5176,"Ġlab":5177,"ime":5178,"ĠÃ»nd":5179,"ĠBart":5180,"ĠAmer":5181,"Ġskreau":5182,"antum":5183,"ĠMeer":5184,"Ġprocent":5185,"ĠRoo":5186,"ekten":5187,"ogge":5188,"vest":5189,"Ġmanager":5190,"ites":5191,"Ġfiersten":5192,"ichtich":5193,"Ġflak":5194,"Ġtraine":5195,"plaat":5196,"retaris":5197,"Ġwente":5198,"ĠSteate":5199,"Ġbetsjutte":5200,"holt":5201,"Ġhold":5202,"dokters":5203,"Ġferwachtsje":5204,"fÃ¢ldich":5205,"Ġtentoanstelling":5206,"Oars":5207,"bro":5208,"boarch":5209,"ian":5210,"nacht":5211,"uts":5212,"ype":5213,"Ġfarre":5214,"Ġmass":5215,"Ġbieden":5216,"Ġgat":5217,"Ġgers":5218,"ales":5219,"urf":5220,"amers":5221,"derheid":5222,"ĠWrÃ¢ld":5223,"antw":5224,"telling":5225,"Ġtwiv":5226,"beren":5227,"ĠOoster":5228,"Ġfold":5229,"Ġfertelde":5230,"Ġboarger":5231,"ĠwÃªrnei":5232,"Ġfrijheid":5233,"atief":5234,"Ġfytsers":5235,"Ġtsjerket":5236,"Ġduorsum":5237,"Ġferplicht":5238,"Ġfeiligens":5239,"Ġhelptsjinsten":5240,"ĠKNSB":5241,"Ġgevoel":5242,"trainer":5243,"Ġgebeurt":5244,"Ġkrystdagen":5245,"Ġfunksje":5246,"ĠWetterskip":5247,"ĠentÃ»sjast":5248,"Ferslachjouwer":5249,"ĠAkkrum":5250,"IS":5251,"Toen":5252,"Tiisdei":5253,"doar":5254,"gum":5255,"pre":5256,"paad":5257,"rjochte":5258,"Ã³":5259,"Ġdom":5260,"Ġfru":5261,"Ġwinne":5262,"ĠwÃ¢l":5263,"Ġmait":5264,"jem":5265,"oarte":5266,"oarloch":5267,"lex":5268,"Ġdatst":5269,"eders":5270,"Ġfoarbyld":5271,"Ġomrop":5272,"mee":5273,"ĠPoepjes":5274,"ĠTj":5275,"ĠCent":5276,"fee":5277,"Ġwurknimmers":5278,"Ġbelle":5279,"ĠwÃªryn":5280,"Fryske":5281,"Ġrisico":5282,"ĠArno":5283,"Ġdraai":5284,"Ġpetearen":5285,"Ġsinnepan":5286,"Ġgebeuren":5287,"ĠVeenstra":5288,"Ġjustysje":5289,"Ġkamera":5290,"ĠLely":5291,"ĠEaststellingwerf":5292,"Lanlik":5293,"Ġduidelijk":5294,"Ġbegrutting":5295,"Fersk":5296,"Ieder":5297,"Ne":5298,"fis":5299,"inkt":5300,"Ġkoenen":5301,"alling":5302,"rider":5303,"ingsten":5304,"olke":5305,"akken":5306,"onnen":5307,"Ġnettsjinsteande":5308,"Ġferm":5309,"meester":5310,"ĠBoo":5311,"Ġree":5312,"ĠLang":5313,"ichheid":5314,"Ġskou":5315,"ĠWijn":5316,"ĠMel":5317,"ĠGal":5318,"ĠGrutte":5319,"Ġwite":5320,"Ġbettere":5321,"boat":5322,"bosk":5323,"annes":5324,"foarm":5325,"leinhuis":5326,"Ġboargers":5327,"klaas":5328,"ĠkoÃ¤lysje":5329,"Ġmoandeitemoarn":5330,"litten":5331,"ĠUn":5332,"Ġmuzik":5333,"Direkteur":5334,"ĠGea":5335,"gevens":5336,"lokaasje":5337,"uiter":5338,"Ġfersoargings":5339,"Ġpromov":5340,"Ġdigitale":5341,"ĠAppels":5342,"Ġprodukten":5343,"ĠOnder":5344,"ĠCity":5345,"antumadiel":5346,"14":5347,"bare":5348,"rinne":5349,"to":5350,"zers":5351,"Ġamt":5352,"Ġantwurd":5353,"Ġsoort":5354,"Ġklein":5355,"alisten":5356,"Ġynsk":5357,"ride":5358,"Ġoph":5359,"kea":5360,"orden":5361,"Ġvaak":5362,"Ġgegeven":5363,"Ġrealis":5364,"Ġplaat":5365,"Ġsprekken":5366,"Ġlibje":5367,"ĠMid":5368,"Ġprojekten":5369,"ĠGent":5370,"Ġleer":5371,"ĠPop":5372,"spor":5373,"ĠEk":5374,"Ġgjinien":5375,"romte":5376,"Ġaange":5377,"ytse":5378,"falle":5379,"Ġeigeners":5380,"uery":5381,"Ġboaiem":5382,"Ġorganisearje":5383,"ĠbinnenstÃªd":5384,"ĠwÃªrÃ»nder":5385,"ukk":5386,"ĠHarry":5387,"Ġgrins":5388,"helikopter":5389,"Ġfleane":5390,"Ġferpleat":5391,"oppert":5392,"Ġteams":5393,"Ġhealwei":5394,"Ġ250":5395,"ĠRouwe":5396,"Ġeksplo":5397,"Ġmakliker":5398,"Ġklassemint":5399,"ĠFrank":5400,"Ġskoare":5401,"ĠOpsterlÃ¢n":5402,"ĠBergsma":5403,"oedselbank":5404,"Ġabsol":5405,"Ġneedsaak":5406,"ĠWarkum":5407,"Fide":5408,"bet":5409,"eep":5410,"lof":5411,"oaten":5412,"pr":5413,"Ġfijn":5414,"Ġband":5415,"Ġhurde":5416,"Ġker":5417,"alige":5418,"Ġturn":5419,"Ġynkoarten":5420,"Ġpake":5421,"nes":5422,"Ġomset":5423,"Ġomstannichheden":5424,"Ġoanlis":5425,"Ġferge":5426,"Ġnocht":5427,"Ġcomp":5428,"Ġploegen":5429,"ĠÃ´frin":5430,"ĠWW":5431,"ĠWommels":5432,"irt":5433,"ĠEx":5434,"ĠOr":5435,"ylst":5436,"DÃªrnjonken":5437,"ĠIC":5438,"Ġbloed":5439,"Ġferoaret":5440,"Ġtsientallen":5441,"Ġonderzoek":5442,"hocke":5443,"ĠlÃ»kt":5444,"Nettsjinsteande":5445,"stream":5446,"ĠHoog":5447,"Ġstjoerd":5448,"Ġlaatste":5449,"ĠSmit":5450,"lÃªs":5451,"13":5452,"Ein":5453,"Goed":5454,"Komm":5455,"Som":5456,"ilit":5457,"jaal":5458,"praat":5459,"seizoen":5460,"Ġwinn":5461,"Ġbiste":5462,"Ġedysje":5463,"Ġoplieding":5464,"ersma":5465,"Ġfoardiel":5466,"Ġlaket":5467,"Ġmoe":5468,"tsing":5469,"Ġoerbrocht":5470,"Ġkombin":5471,"ĠÃ»ntste":5472,"ĠHall":5473,"Ġsprint":5474,"Ġramt":5475,"ĠKen":5476,"Ġkriget":5477,"ĠJap":5478,"ĠPeter":5479,"wurde":5480,"Ġkwalif":5481,"ĠmoandeitejÃ»n":5482,"gebou":5483,"bedriuwen":5484,"ĠdoarpshÃ»s":5485,"ĠEuropeesk":5486,"Ġdokter":5487,"Ġhynders":5488,"Ġlijkt":5489,"Ġclub":5490,"ĠHofstra":5491,"Ġnoardlike":5492,"ĠtsjÃ»gen":5493,"Ġlichem":5494,"sume":5495,"Ġprotok":5496,"Ġallround":5497,"Ġinkelde":5498,"ĠAmerik":5499,"Fideodeiboek":5500,"Tak":5501,"boeken":5502,"dien":5503,"lom":5504,"mann":5505,"Ġuur":5506,"arring":5507,"ĠsÃ¢l":5508,"Ġsjoern":5509,"Ġminne":5510,"Ġbro":5511,"Ġbrie":5512,"sting":5513,"Ãªde":5514,"teren":5515,"iew":5516,"Ġbewenner":5517,"rag":5518,"Ã¢lden":5519,"ĠAd":5520,"Ġmoatst":5521,"ĠWin":5522,"Ġramp":5523,"Ġliggen":5524,"Ġprotest":5525,"Ġ2000":5526,"Ġmearderheid":5527,"ĠVol":5528,"angst":5529,"ĠPort":5530,"berens":5531,"rijden":5532,"Ġfuorts":5533,"nimm":5534,"Ġboven":5535,"jonele":5536,"ĠStien":5537,"ĠtongersdeitejÃ»n":5538,"Ġferoardiele":5539,"Ġduorre":5540,"iskien":5541,"Ġoprjochte":5542,"resoar":5543,"Ġsjuery":5544,"OfrÃ»ne":5545,"Ġtarieding":5546,"Mooglik":5547,"ijlstra":5548,"Ġtastien":5549,"ĠgreidefÃ»gels":5550,"ĠrÃªde":5551,"Ġtekst":5552,"Ġcoach":5553,"Ġblykt":5554,"iteindelijk":5555,"Eins":5556,"Hast":5557,"Kin":5558,"Miskien":5559,"cket":5560,"itel":5561,"kend":5562,"plicht":5563,"Ġet":5564,"arts":5565,"Ġswarte":5566,"Ġdeade":5567,"Ġging":5568,"roan":5569,"rift":5570,"Ġpetysje":5571,"ingsp":5572,"oners":5573,"ĠfoarÃºt":5574,"Ġfoarstelling":5575,"Ġvier":5576,"Ġoanbean":5577,"ĠFro":5578,"dent":5579,"zegd":5580,"ĠÃºtdaging":5581,"ruts":5582,"Ġreade":5583,"mate":5584,"Ġplat":5585,"ronryp":5586,"ktoaren":5587,"ĠVelde":5588,"aalks":5589,"Ġklaar":5590,"insjes":5591,"Ġ36":5592,"uorbal":5593,"Ġtrauma":5594,"Ġ45":5595,"Ġgener":5596,"Ġfamkes":5597,"Ġsoarchyn":5598,"Ġbasisskoalle":5599,"Ġpolitie":5600,"onderland":5601,"Ġoplossingen":5602,"Ġrust":5603,"ĠBelang":5604,"Ġfergoed":5605,"Ġgeweldich":5606,"Ġyndruk":5607,"Ġkeapje":5608,"tiids":5609,"Ġzieken":5610,"Ãªften":5611,"Ġkofje":5612,"Ġsinnepanielen":5613,"NV":5614,"Pas":5615,"din":5616,"duk":5617,"fgoed":5618,"ld":5619,"minsken":5620,"nst":5621,"over":5622,"rar":5623,"smerk":5624,"uken":5625,"Ġfav":5626,"Ġiuw":5627,"Ġwap":5628,"Ġhalen":5629,"ĠophÃ¢lde":5630,"liz":5631,"inger":5632,"itt":5633,"Ġmeimakke":5634,"Deputearre":5635,"Ġomgean":5636,"Ġlopen":5637,"ĠstÃºd":5638,"ĠFris":5639,"ĠHend":5640,"ĠHiem":5641,"geling":5642,"ĠWim":5643,"Ġspel":5644,"ĠrÃªden":5645,"ĠDantumadiel":5646,"ĠGo":5647,"ĠJeroen":5648,"Ġsoci":5649,"spl":5650,"iget":5651,"Ġorganisearjen":5652,"Ġboard":5653,"fierd":5654,"Ġmishanneling":5655,"ĠÃºtsteld":5656,"Ġdaarom":5657,"Ġpost":5658,"Fansels":5659,"Ġmede":5660,"Ġferoarje":5661,"ĠkontaktÃ»ndersyk":5662,"proble":5663,"Ġwenningen":5664,"ansearre":5665,"Ġsliep":5666,"skoallen":5667,"Ġsporten":5668,"ĠJohan":5669,"Ġfraksjefoarsitter":5670,"levering":5671,"Ġmerke":5672,"ĠtÃ»zenen":5673,"Ġmeinaam":5674,"Ġsenario":5675,"Ġwedstrijd":5676,"Ġfernimt":5677,"ĠOlympyske":5678,"Ġmaitiid":5679,"Ferskate":5680,"GG":5681,"Re":5682,"beld":5683,"wel":5684,"Ġsant":5685,"Ġbun":5686,"Ã»le":5687,"Ãºch":5688,"ĠderÃºt":5689,"Ġalwer":5690,"Ġferieningen":5691,"Ġferbean":5692,"Ġnood":5693,"Ġstab":5694,"ĠFok":5695,"insma":5696,"imaal":5697,"ĠWÃ¢ld":5698,"Ġsprong":5699,"ĠrÃ´":5700,"bby":5701,"Ġferslachjouwer":5702,"DÃªryn":5703,"Ġ197":5704,"Ġlytsere":5705,"Ġtreinen":5706,"peratuer":5707,"Ġferbining":5708,"Ġbleaun":5709,"Ġferstoar":5710,"Ġkontener":5711,"Ġsupermerken":5712,"Elkenien":5713,"Ġprachtige":5714,"Ġjurid":5715,"ĠAkademy":5716,"Ġkieze":5717,"Ġsjochst":5718,"ĠrÃªch":5719,"Ġstjergefallen":5720,"Ã¶r":5721,"ĠreinbÃ´ge":5722,"ĠRykswettersteat":5723,"garyp":5724,"Ġmaanden":5725,"ĠHamstra":5726,"ĠBelgiÃ«":5727,"Ġbrengen":5728,"Ġasylsikers":5729,"ukkig":5730,"Le":5731,"Ts":5732,"Wanne":5733,"fine":5734,"gend":5735,"ioaren":5736,"ji":5737,"jet":5738,"Ã¡":5739,"Ġdram":5740,"Ġdeist":5741,"Ġwearde":5742,"Ġkor":5743,"amming":5744,"Ġfoaren":5745,"Ġbezoek":5746,"Ġline":5747,"ysels":5748,"Ġjaren":5749,"ill":5750,"ĠHuis":5751,"ĠLaat":5752,"ĠWagen":5753,"Ġwereld":5754,"ĠNatuur":5755,"ĠJel":5756,"ĠTeam":5757,"Ġfersyk":5758,"Ġverantw":5759,"Ġlangere":5760,"Ġkanten":5761,"ĠAlbert":5762,"Ġ195":5763,"ĠÃ¢lder":5764,"Ġboere":5765,"Ġstikje":5766,"Ġgedicht":5767,"Ġwenjen":5768,"wiisd":5769,"ĠDrachtster":5770,"ĠArriva":5771,"Ġtrainingen":5772,"Ġhearde":5773,"Ġrapper":5774,"ĠGroene":5775,"Ġoardelmeter":5776,"Ġknap":5777,"parken":5778,"Ġgezond":5779,"Ġferkears":5780,"Ġontwikkel":5781,"wÃªzen":5782,"Ġmerken":5783,"Ġferfel":5784,"Ġouders":5785,"ĠPostma":5786,"Fanwege":5787,"ĠNOS":5788,"auffeur":5789,"Ġbefrijing":5790,"Ġassist":5791,"ĠÃºtnÃ»":5792,"Ġfierstente":5793,"ĠWrÃ¢ldoarloch":5794,"Takom":5795,"16":5796,"Do":5797,"KB":5798,"MO":5799,"WÃªrom":5800,"azj":5801,"igens":5802,"jan":5803,"mb":5804,"mjit":5805,"systeem":5806,"zc":5807,"ofd":5808,"Ġwinner":5809,"Ġmacht":5810,"Ġbreed":5811,"atysk":5812,"eien":5813,"Ġkwest":5814,"riÃªre":5815,"Ġoprom":5816,"akele":5817,"terp":5818,"Ġfoarsjen":5819,"Ġomwenners":5820,"Ġfernimme":5821,"Ġferienings":5822,"adv":5823,"ĠBij":5824,"Ġplatte":5825,"ĠÃ´fs":5826,"ĠÃ´fhinklik":5827,"Ġheen":5828,"ĠKallon":5829,"ĠPo":5830,"ĠTresoar":5831,"Ġdiken":5832,"seal":5833,"Ġhimp":5834,"beek":5835,"Ġsite":5836,"kompetysje":5837,"Ġthe":5838,"ĠIsel":5839,"Ġfluch":5840,"wize":5841,"ĠStenden":5842,"Ġbesmette":5843,"Ġboarne":5844,"werkers":5845,"Ġ400":5846,"Ġkoers":5847,"Ġrjochtlinen":5848,"Ġ2022":5849,"Ġdrokker":5850,"ĠSnitser":5851,"Ġgelokkich":5852,"Ġskriuwer":5853,"Ġreitsje":5854,"ĠideeÃ«n":5855,"Ġloads":5856,"ĠRoy":5857,"Ġprodus":5858,"Ã¢nestÃªd":5859,"Ġrond":5860,"ĠBrand":5861,"Ġweinig":5862,"Berjochten":5863,"ĠLauwers":5864,"iÃ«nten":5865,"ĠkonklÃºzje":5866,"ĠstÃºdzje":5867,"HL":5868,"TV":5869,"boar":5870,"gu":5871,"kolle":5872,"rÃªst":5873,"uut":5874,"wijs":5875,"zicht":5876,"Ġfil":5877,"Ġwins":5878,"Ġwik":5879,"Ġbiede":5880,"Ġhjit":5881,"Ġkertier":5882,"oart":5883,"rix":5884,"ask":5885,"gef":5886,"orme":5887,"Ġbeper":5888,"Ġgezegd":5889,"ykjen":5890,"Ġsektoaren":5891,"iele":5892,"Ġcare":5893,"ĠWij":5894,"Ġdosint":5895,"ĠJoe":5896,"ĠRÃ¢nestÃªd":5897,"Ġeartiids":5898,"Ġwiid":5899,"ĠPartij":5900,"Ġticket":5901,"ĠTs":5902,"ĠTytsjerk":5903,"Ġsteate":5904,"Ġfierljep":5905,"Ġgebied":5906,"Ġbeslach":5907,"meiwurkers":5908,"ĠHarkemase":5909,"ĠfÃ»nen":5910,"Ġbelangstelling":5911,"Ġguo":5912,"Ġpersoanlike":5913,"ĠArends":5914,"Ġyntins":5915,"Ġpakket":5916,"Ġkeunstners":5917,"ĠBeets":5918,"Ġleafde":5919,"Ġferkeapje":5920,"Ġstekken":5921,"Ġtechnysk":5922,"Ġdokumint":5923,"greet":5924,"Sportklup":5925,"Ġbedrijf":5926,"euwsma":5927,"Ġferklearring":5928,"Ġlilk":5929,"Iedereen":5930,"Tsjin":5931,"cl":5932,"door":5933,"faze":5934,"wim":5935,"Ġwachten":5936,"cher":5937,"Ġkaarten":5938,"Ġophelle":5939,"ola":5940,"omme":5941,"ampen":5942,"ory":5943,"isier":5944,"Ã¢nsjes":5945,"raging":5946,"rainer":5947,"Ġstjoert":5948,"ils":5949,"ĠSven":5950,"ĠSjoerd":5951,"ĠÃ»nÃ´f":5952,"ĠBar":5953,"Ġcolle":5954,"ĠMo":5955,"Ġmekoar":5956,"Ġcoronate":5957,"jochting":5958,"Ġazc":5959,"ferh":5960,"Ġbegin":5961,"Ãºtdyk":5962,"ampus":5963,"Ġprovinc":5964,"Ġrace":5965,"Ġ196":5966,"ugo":5967,"iÃ«le":5968,"Ġskriuwen":5969,"Hoewol":5970,"ĠefterstÃ¢n":5971,"avid":5972,"Ġoanpakt":5973,"Ġiishocke":5974,"ureau":5975,"ĠhÃ»nderten":5976,"bliuwe":5977,"Ġaginda":5978,"ĠdÃªroer":5979,"ĠIngelÃ¢n":5980,"ĠFeanwÃ¢lden":5981,"Ġferfolch":5982,"ĠynstÃ¢nsje":5983,"Ġferrassing":5984,"31":5985,"Buma":5986,"EC":5987,"Ke":5988,"Lyk":5989,"Ta":5990,"borg":5991,"ff":5992,"gongers":5993,"hoe":5994,"hard":5995,"nommen":5996,"weid":5997,"woud":5998,"elden":5999,"Ġkurs":6000,"Ġtema":6001,"akel":6002,"terrein":6003,"omas":6004,"Ġvast":6005,"Ġvijf":6006,"Ġgesch":6007,"Ġstran":6008,"ĠFle":6009,"ĠBon":6010,"okje":6011,"Ġskuld":6012,"ĠMakk":6013,"anda":6014,"orona":6015,"ĠPal":6016,"ĠPSV":6017,"iplom":6018,"Ġricht":6019,"Ġfinish":6020,"hÃ¢ldt":6021,"acker":6022,"slag":6023,"Ġdaarna":6024,"Ġdoelman":6025,"Ġprins":6026,"Ġsyktocht":6027,"Ġlokaal":6028,"ĠhÃºsdokters":6029,"Ġpubli":6030,"Unie":6031,"Ã¼st":6032,"ĠwarskÃ´get":6033,"ĠÃ´fspraak":6034,"Ġferromme":6035,"Ġrydbewiis":6036,"ĠGrienLinks":6037,"Ġkwetsbere":6038,"ĠHelm":6039,"Ġpodcast":6040,"ĠKuip":6041,"Ġgraden":6042,"Ġgesprek":6043,"beheer":6044,"Ġvandaag":6045,"ristenUnie":6046,"GGD":6047,"BO":6048,"Bo":6049,"Nu":6050,"TC":6051,"Utein":6052,"cel":6053,"flak":6054,"gryp":6055,"laan":6056,"oc":6057,"tr":6058,"view":6059,"wy":6060,"wachter":6061,"zh":6062,"Ġdal":6063,"Ġding":6064,"Ġdis":6065,"Ġdong":6066,"Ġsfear":6067,"Ġdeel":6068,"Ġimmen":6069,"Ġwapen":6070,"Ġbanen":6071,"Ġhjer":6072,"eiten":6073,"Ġkaar":6074,"Ġkast":6075,"Ġkandid":6076,"ynke":6077,"Ġinge":6078,"Ġenorm":6079,"libben":6080,"Ġfoarich":6081,"Ġferhe":6082,"Ġfertsjinne":6083,"ĠSne":6084,"ĠSina":6085,"ĠHeiden":6086,"rent":6087,"ĠAustr":6088,"Ġskansearre":6089,"Ġheft":6090,"ĠWyt":6091,"Ġspoed":6092,"ĠDoeksen":6093,"ĠMer":6094,"ĠMaarten":6095,"ĠMolen":6096,"Ġproberen":6097,"ĠGar":6098,"ĠJe":6099,"ĠJelle":6100,"ĠRa":6101,"Ġwiist":6102,"ĠPol":6103,"ĠÃ»ndernimmer":6104,"sept":6105,"Ġferset":6106,"oalle":6107,"Ġsted":6108,"Ġsteuring":6109,"stelle":6110,"Ġfreond":6111,"amper":6112,"Ġbent":6113,"Ġperspe":6114,"steradiel":6115,"ĠZee":6116,"ĠAlmere":6117,"tearjen":6118,"Ġpassen":6119,"ĠÃºtsÃ»nder":6120,"ytst":6121,"Ġafge":6122,"Ġposysje":6123,"Ġkantine":6124,"stjoerd":6125,"aregels":6126,"Ġoffisier":6127,"maatregels":6128,"Ġbibli":6129,"Ġtechnyske":6130,"Ġkontenerskip":6131,"Ġsuver":6132,"Ġbehoar":6133,"Ġkrityk":6134,"ĠdÃªrop":6135,"Ġtrekkers":6136,"Ġferdigener":6137,"zelfde":6138,"Ġfrjem":6139,"Ġbeskermjen":6140,"Ġkrante":6141,"ĠÃ»nbekende":6142,"Ġmuoite":6143,"priis":6144,"Ġfergees":6145,"ĠIselmar":6146,"Ġwiidweid":6147,"ĠHeidenskip":6148,"Bes":6149,"Oare":6150,"RO":6151,"Tusken":6152,"Wylst":6153,"boud":6154,"basis":6155,"frij":6156,"gjir":6157,"koepel":6158,"oade":6159,"wyk":6160,"za":6161,"Ġslein":6162,"eigen":6163,"ĠkrÃ»":6164,"stichting":6165,"Ġynlever":6166,"liet":6167,"akket":6168,"Ġmeiwurker":6169,"terfean":6170,"Ġljep":6171,"raan":6172,"Ġoanlein":6173,"Ġmoed":6174,"Ġferlinge":6175,"ĠSip":6176,"ĠÃ»nge":6177,"Ġsawat":6178,"ĠNije":6179,"Ġryk":6180,"ĠDirk":6181,"ĠDronryp":6182,"Ġcoronaregels":6183,"Ġbesun":6184,"ĠPe":6185,"ĠPoal":6186,"ĠTje":6187,"ekretaris":6188,"spul":6189,"best":6190,"ferieningen":6191,"Ġbelje":6192,"ĠZonderland":6193,"Ġkontakten":6194,"ĠwÃªrfan":6195,"Ġnijbou":6196,"slÃºtdyk":6197,"Ġapart":6198,"Ġpasjint":6199,"Ġtotale":6200,"Ġrommel":6201,"Ġgeleden":6202,"ringloop":6203,"Ġtochten":6204,"Ġnachts":6205,"Ġsintrale":6206,"Ġiensum":6207,"Ġfjirtjin":6208,"Ġeksper":6209,"Ġsosjaal":6210,"geving":6211,"bylden":6212,"kohol":6213,"ĠBreda":6214,"Ġtanim":6215,"Ġferromming":6216,"Ġmonumint":6217,"Ġtrekker":6218,"ĠTalma":6219,"ĠSurhÃºs":6220,"Ġwaarmte":6221,"ferlien":6222,"oteek":6223,"Ġymp":6224,"ĠOfslÃºtdyk":6225,"Ġshorttrack":6226,"Ã¶rdin":6227,"Uteinlik":6228,"ĠSurhÃºsterfean":6229,"Eigen":6230,"ID":6231,"fÃ»n":6232,"ften":6233,"hop":6234,"houden":6235,"jum":6236,"nie":6237,"sm":6238,"vetal":6239,"Ġdeis":6240,"Ġwens":6241,"ynje":6242,"stop":6243,"stoel":6244,"Ġgl":6245,"Ġtijden":6246,"Ġynfol":6247,"Ġynrjochte":6248,"ric":6249,"Ġpot":6250,"Ġopstap":6251,"olaasje":6252,"erstel":6253,"ieve":6254,"derij":6255,"Ġbeeld":6256,"Ġbefol":6257,"Ġoankundige":6258,"Ġgesel":6259,"ĠFÃ»gel":6260,"ush":6261,"ĠSaken":6262,"Ġzwaar":6263,"gelegen":6264,"ĠÃ´fsein":6265,"Ġspring":6266,"ĠDr":6267,"ĠKnegt":6268,"ĠKleinhuis":6269,"ijna":6270,"ĠDefinsje":6271,"Ġsluting":6272,"Ġaai":6273,"Ġsoargjen":6274,"Ġbetinken":6275,"fallend":6276,"Ġiepening":6277,"Ġzegt":6278,"ĠÃ»ndersiket":6279,"ĠIJ":6280,"ĠStad":6281,"ĠItaliÃ«":6282,"Ġstelle":6283,"Ġskipper":6284,"ĠÃ¢ldjiers":6285,"obili":6286,"Ġynform":6287,"eerd":6288,"Ġnijsgjir":6289,"Ġtoekomst":6290,"lessen":6291,"Ġfernu":6292,"standig":6293,"Ġspanning":6294,"Ġhingjen":6295,"ĠChristenUnie":6296,"Ġinisjatyfnimmers":6297,"ĠlÃªze":6298,"ctief":6299,"partijen":6300,"ĠBroek":6301,"Ġjuist":6302,"Ġrestaurants":6303,"ĠAnton":6304,"Ġnegatyf":6305,"Ġsechst":6306,"Ġlibbens":6307,"Ġbeslissing":6308,"ĠAppelskea":6309,"Ġbrieven":6310,"Fjouwer":6311,"Gel":6312,"Kl":6313,"NA":6314,"Tongersdei":6315,"dige":6316,"ib":6317,"iif":6318,"nl":6319,"praak":6320,"rang":6321,"Ġann":6322,"ĠdÃºd":6323,"Ġdran":6324,"ari":6325,"Ġmilit":6326,"Ġbon":6327,"Ġblik":6328,"Ġhen":6329,"Ġniks":6330,"leas":6331,"Ġopfol":6332,"Ġopbr":6333,"old":6334,"Ġbehannel":6335,"iets":6336,"ĠÃ»nrÃªst":6337,"oka":6338,"Ġ1000":6339,"ikken":6340,"Ġrinnen":6341,"Ġliter":6342,"ĠMon":6343,"ĠKoarn":6344,"Ġbesjen":6345,"ĠRom":6346,"tels":6347,"ĠTe":6348,"spron":6349,"Ġ32":6350,"Ġ38":6351,"Ġfertocht":6352,"ssekretaris":6353,"perio":6354,"rettjin":6355,"Ġdoelpunten":6356,"uzyk":6357,"Ġskippers":6358,"Ġhope":6359,"Ġpeal":6360,"ĠNoardsee":6361,"inteklaas":6362,"Ġselstraf":6363,"besker":6364,"lokaasjes":6365,"Ġhingje":6366,"Ġferspraat":6367,"Ġferlie":6368,"Ġpresys":6369,"ernÃ´ch":6370,"Ġsichtber":6371,"Ġanderhalve":6372,"ĠWeststellingwerf":6373,"yenoord":6374,"Ġrekreaasje":6375,"ĠTytsjerksteradiel":6376,"11":6377,"Beg":6378,"Nee":6379,"Wet":6380,"brek":6381,"banken":6382,"du":6383,"even":6384,"hem":6385,"vaart":6386,"Ġmond":6387,"Ġbried":6388,"etÃºn":6389,"eitsma":6390,"Ġgryp":6391,"Ġtrettjin":6392,"roof":6393,"Ã»k":6394,"Ġpakke":6395,"lig":6396,"need":6397,"Deze":6398,"Ġgegevens":6399,"ĠFemke":6400,"ĠSim":6401,"Ġoerd":6402,"Ġoertr":6403,"Ġneidat":6404,"wegen":6405,"ĠGa":6406,"Ġtsj":6407,"Ġdirek":6408,"ĠCo":6409,"Ġvoorkomen":6410,"igjen":6411,"Ġfolk":6412,"Ġfolw":6413,"sjitten":6414,"Ġferskaat":6415,"Ġlytser":6416,"ĠScheep":6417,"ĠStevens":6418,"Ġgroeps":6419,"Ġrot":6420,"Ġfuotbalklup":6421,"Ġhoreca":6422,"ĠUN":6423,"Ġbeteljen":6424,"ommige":6425,"Ġfeilichheid":6426,"Ġarg":6427,"Ġyndivid":6428,"Ġhegere":6429,"ruktuer":6430,"ĠWeste":6431,"Ġfyftich":6432,"Ġfysyk":6433,"ĠlÃ»ds":6434,"Ġalternatyf":6435,"Fanwegen":6436,"Ġbestriden":6437,"Ġkonstate":6438,"ĠKanadezen":6439,"ĠplattelÃ¢n":6440,"Ġprovincie":6441,"iploma":6442,"Ġhjerst":6443,"45":6444,"Th":6445,"aid":6446,"houd":6447,"mele":6448,"ningen":6449,"pp":6450,"ratie":6451,"vang":6452,"Ġsirk":6453,"ĠmÃ»ne":6454,"Ġbijna":6455,"atus":6456,"Ġnorm":6457,"Ġkal":6458,"Ġyntsjinne":6459,"Ã»ke":6460,"isearre":6461,"aars":6462,"Ġoerien":6463,"ĠÃ»nfer":6464,"ĠBert":6465,"Ġrespe":6466,"Ġplaats":6467,"ĠWTC":6468,"ĠNHL":6469,"ĠJaap":6470,"Ġearne":6471,"deis":6472,"Ġrieden":6473,"ĠOver":6474,"Ġwurksum":6475,"Ġkonden":6476,"riuwen":6477,"rekÃ´r":6478,"iedt":6479,"linga":6480,"Ġbetre":6481,"istyske":6482,"Ġ37":6483,"Ġfierdere":6484,"ĠÃ»ndersyks":6485,"Ġfrouljus":6486,"ukje":6487,"ĠÃ¢lders":6488,"Ġprec":6489,"ĠdÃºdlikheid":6490,"ĠwrÃ¢ldkamp":6491,"Ġmedalje":6492,"Ġfytse":6493,"Ġondernemers":6494,"Ġbeppe":6495,"Ġstapt":6496,"ĠBouw":6497,"monum":6498,"Ġsintraal":6499,"portaazje":6500,"Ġkleine":6501,"Ġsinnepark":6502,"Ġeksposysje":6503,"ystemen":6504,"ĠVVV":6505,"Ġwanneer":6506,"kommisje":6507,"Ġslecht":6508,"Ġeventuele":6509,"Ġautomobili":6510,"Ġstypje":6511,"Ġfoldwaande":6512,"Ġgeskikt":6513,"Ġfinzenis":6514,"Ġtraumahelikopter":6515,"Ġferfelend":6516,"Doel":6517,"Jong":6518,"hand":6519,"kÃ´":6520,"sr":6521,"sette":6522,"voer":6523,"Ã¨":6524,"iners":6525,"Ġsul":6526,"Ġident":6527,"Ġbio":6528,"Ġhoor":6529,"Ġtichter":6530,"Ġynfal":6531,"roulju":6532,"oarps":6533,"riet":6534,"Ġpen":6535,"Ġopsteld":6536,"Ãªsten":6537,"ames":6538,"gemeen":6539,"iske":6540,"isie":6541,"Ġferfang":6542,"Ġstutsen":6543,"ĠSie":6544,"Ġwollen":6545,"ĠHugo":6546,"ĠLim":6547,"ape":6548,"ikte":6549,"ĠNAC":6550,"ĠNDC":6551,"ĠMed":6552,"ĠKust":6553,"Ġbesp":6554,"Ġleg":6555,"Ġtips":6556,"oerlÃªst":6557,"Ġsloop":6558,"Ġfolop":6559,"Ġfreegjen":6560,"Ġverander":6561,"Ġbetingsten":6562,"Ġbotsing":6563,"ĠZorg":6564,"ulturele":6565,"Ġuitge":6566,"Ġgeniet":6567,"Ġbesluit":6568,"Ġwilde":6569,"ssa":6570,"Ġkrijgt":6571,"litte":6572,"Ġmilj":6573,"Ġpositief":6574,"Ġprizen":6575,"Ġkarak":6576,"Ġhurdfyts":6577,"Ġhaadklasse":6578,"Ġynsidint":6579,"Ġzelfs":6580,"Ġakkoart":6581,"Ġuniversiteit":6582,"ĠJohannes":6583,"Ġrelatyf":6584,"rjochting":6585,"ĠBruin":6586,"Ġekonomyske":6587,"Ġeerder":6588,"Ġfertsjinje":6589,"Ġproduksje":6590,"ĠFreule":6591,"Ġsponsor":6592,"ĠPrinsetÃºn":6593,"ĠRoelof":6594,"ĠNoorder":6595,"ĠkliÃ¯nten":6596,"seduere":6597,"Ġpubliek":6598,"Fia":6599,"kr":6600,"kke":6601,"klik":6602,"lutsen":6603,"wij":6604,"Ġamper":6605,"ines":6606,"endam":6607,"arm":6608,"Ġfent":6609,"Ġfabryk":6610,"Ġfytst":6611,"Ġsearje":6612,"elkoar":6613,"Ġtur":6614,"Ġtien":6615,"rieden":6616,"Ġpyk":6617,"orn":6618,"Ġljip":6619,"Ġstaazje":6620,"ĠFeilich":6621,"Ġzonder":6622,"ĠLÃ¢n":6623,"Ġpland":6624,"ĠWy":6625,"Ġlief":6626,"Ġliede":6627,"ĠKrij":6628,"ĠKooi":6629,"Ġmete":6630,"ĠRijk":6631,"ĠRein":6632,"Ġearlik":6633,"Ġkind":6634,"ĠPiter":6635,"ĠCup":6636,"Ġferseker":6637,"Ġwurkgroep":6638,"Ġneame":6639,"Ãºtkear":6640,"ĠIS":6641,"ĠÃ»ntfange":6642,"Ġferhier":6643,"Ġfeang":6644,"heljen":6645,"Ġkolleksje":6646,"ĠkompjÃ»":6647,"Ġgevol":6648,"ĠlikernÃ´ch":6649,"Ġdraait":6650,"Ġsmiet":6651,"Ġkleur":6652,"ĠElf":6653,"ĠFeyenoord":6654,"Ġleverje":6655,"ĠZwolle":6656,"Ġskoarde":6657,"urdegaryp":6658,"ĠTalsma":6659,"ĠdrÃ»ch":6660,"Ġkontrolear":6661,"Ġkontrolearre":6662,"Ġfrachtwein":6663,"Ġmaatskippij":6664,"Ġtagonk":6665,"Ġtemperatuer":6666,"Ġmiljeu":6667,"ĠGalama":6668,"boskbehear":6669,"Ġleerlingen":6670,"ĠÃ»ntstean":6671,"Lykas":6672,"Ġstrange":6673,"NO":6674,"Pre":6675,"air":6676,"fj":6677,"miel":6678,"rinn":6679,"yg":6680,"zoeken":6681,"Ġite":6682,"Ġoor":6683,"omin":6684,"orld":6685,"Ġbewar":6686,"raasje":6687,"Ġoansk":6688,"Ġstar":6689,"ĠFin":6690,"Ġseal":6691,"ĠHoop":6692,"gelju":6693,"ront":6694,"ĠWÃ¼st":6695,"Ġwatfoar":6696,"ĠKing":6697,"ĠKomm":6698,"ĠPoort":6699,"Ġtip":6700,"Ġslaan":6701,"Ġav":6702,"Ã»ndert":6703,"Ġkanker":6704,"ranten":6705,"werpen":6706,"ultuur":6707,"Ġkommend":6708,"ĠMargreet":6709,"Ġfamilie":6710,"ĠÃºtstel":6711,"Ġsneintemoarn":6712,"ĠWaadferiening":6713,"Ġfiifde":6714,"Ġnatuergebiet":6715,"groepen":6716,"how":6717,"ĠTwitter":6718,"Ġferkeard":6719,"atsboskbehear":6720,"Ġreedriders":6721,"Ġmail":6722,"Ġboatsje":6723,"ĠHolwert":6724,"Ġhynder":6725,"Ġberjochten":6726,"Ġarty":6727,"besteging":6728,"ĠForum":6729,"ĠPloeg":6730,"Ġnoarden":6731,"Ġferbetterjen":6732,"Ġverhaal":6733,"Ġnieuws":6734,"Ġapparteminten":6735,"Ġbijzonder":6736,"Ġdrinken":6737,"HollÃ¢n":6738,"ĠElsacker":6739,"ĠLelylijn":6740,"Soms":6741,"ĠsÃ¢lt":6742,"Wannear":6743,"amminga":6744,"Ġkwestje":6745,"Ġguozzen":6746,"Ġcoronatest":6747,"ĠKustwacht":6748,"Door":6749,"dder":6750,"fjilden":6751,"kaart":6752,"rings":6753,"sens":6754,"ugen":6755,"uaasje":6756,"Ġdacht":6757,"ante":6758,"Ġflein":6759,"Ġflier":6760,"atal":6761,"ree":6762,"keken":6763,"Ã»nens":6764,"Ġomleech":6765,"Ġlutsen":6766,"Ġgemiddel":6767,"Ġalkohol":6768,"Ġferdield":6769,"ĠBen":6770,"ĠBau":6771,"Ġplanning":6772,"appen":6773,"ĠWoud":6774,"ikus":6775,"ĠNynke":6776,"Ġlicht":6777,"ĠDavid":6778,"ĠKorte":6779,"menten":6780,"Ġwaarin":6781,"Ġeare":6782,"Ġearm":6783,"ĠPel":6784,"ĠTO":6785,"Ġdire":6786,"Ġriders":6787,"Ġklant":6788,"ennie":6789,"Ġbelangen":6790,"Ġ39":6791,"gere":6792,"Ġrekket":6793,"Ġ2012":6794,"Ġwille":6795,"braken":6796,"ĠfakbÃ»n":6797,"Ġdelset":6798,"utens":6799,"Ġoplost":6800,"ternation":6801,"hout":6802,"Ġachtste":6803,"tsjerke":6804,"Ġferstjer":6805,"assenaar":6806,"Ġjullie":6807,"Ġsnelheid":6808,"Ġfernij":6809,"Ġsportsk":6810,"Ġplestik":6811,"orig":6812,"ĠBreeuwsma":6813,"Ġeasken":6814,"ĠteÃ¤ters":6815,"Ġmiddelbere":6816,"sproken":6817,"ĠErwin":6818,"Ġjonkje":6819,"Ġjongelju":6820,"ĠNieuw":6821,"ĠIngelsk":6822,"Ġoanfragen":6823,"Ġeventueel":6824,"flean":6825,"ĠÃºtwr":6826,"Ġgelegen":6827,"ĠKonink":6828,"Ġtsjinstanner":6829,"Ġfuotten":6830,"zemond":6831,"ĠÃ»ndÃºdlik":6832,"ĠFrankryk":6833,"Ġsitewaasje":6834,"fjilder":6835,"Fre":6836,"Henk":6837,"jel":6838,"kon":6839,"lei":6840,"mis":6841,"osten":6842,"ramp":6843,"zien":6844,"Ġdon":6845,"ĠsÃ»":6846,"Ġsear":6847,"Ġdegra":6848,"staasje":6849,"richt":6850,"Ġex":6851,"Ġopmerk":6852,"Ġopnimme":6853,"Ãºsje":6854,"Ġbev":6855,"Ġlin":6856,"earring":6857,"ĠSand":6858,"steden":6859,"Ġzei":6860,"Ġzoeken":6861,"ĠHurdegaryp":6862,"Ġreportaazje":6863,"ĠLTO":6864,"Ġskrik":6865,"Ġskuorre":6866,"ĠNoppert":6867,"Ġspeel":6868,"ĠMil":6869,"ĠGron":6870,"Ġbesoar":6871,"achtich":6872,"ĠRij":6873,"otte":6874,"ĠPar":6875,"ulen":6876,"Ġdieders":6877,"Ġaand":6878,"Ġkonf":6879,"ferkear":6880,"Ġbegrij":6881,"ept":6882,"Ġtalen":6883,"eilige":6884,"Ġtradysje":6885,"juke":6886,"ice":6887,"Ġgedrach":6888,"Ġwenten":6889,"assade":6890,"uzanne":6891,"Ġtiisdeitemoarn":6892,"wiksel":6893,"Ġpublis":6894,"Ġfinanc":6895,"Ġiisbaan":6896,"ĠbefÃªst":6897,"ĠDouw":6898,"Ġgefaarlike":6899,"Ġstekke":6900,"reij":6901,"Ġynspi":6902,"Ġprofes":6903,"Ġboadskippen":6904,"Ġfleanfjild":6905,"laggen":6906,"ĠForce":6907,"Ġsekonden":6908,"Ġscoo":6909,"ĠFortuna":6910,"ĠBouma":6911,"Ġkompensaasje":6912,"ĠOnderzoek":6913,"Ġkombinaasje":6914,"guod":6915,"ĠÃ»ngefear":6916,"Ġgemiddelde":6917,"25":6918,"38":6919,"Ger":6920,"Wetter":6921,"ael":6922,"plein":6923,"rinner":6924,"yers":6925,"zings":6926,"Ġfris":6927,"Ġierd":6928,"Ġwend":6929,"Ġmaak":6930,"Ġburo":6931,"alik":6932,"Ġtichte":6933,"Ġpolder":6934,"liuw":6935,"amens":6936,"Ġvri":6937,"Ġnoas":6938,"denten":6939,"ĠSimmer":6940,"megen":6941,"Ġzin":6942,"ĠHeide":6943,"okaal":6944,"Ġrecht":6945,"Ġrepar":6946,"ĠJou":6947,"Ġwaarme":6948,"Ġleuke":6949,"osse":6950,"oger":6951,"Ġklaai":6952,"anny":6953,"Ġfolks":6954,"Ġsoart":6955,"Ġpersoon":6956,"ĠZuid":6957,"ware":6958,"ustry":6959,"Ġfuorthelle":6960,"Ġrjochts":6961,"ĠOmrin":6962,"Ġblommen":6963,"Ġmedis":6964,"Ġbestjoerders":6965,"Ġsporthal":6966,"projekt":6967,"ansters":6968,"liedingen":6969,"ĠlÃ»ke":6970,"Ġtweede":6971,"Ġambysje":6972,"Ġstimmen":6973,"Ġoprinne":6974,"Ġsammel":6975,"Ġontzet":6976,"ĠFeansters":6977,"ĠtaskÃ´":6978,"aatsbos":6979,"Ġeaske":6980,"Ġkritysk":6981,"ĠProvinsje":6982,"twurdich":6983,"ĠRenÃ©":6984,"ĠCOA":6985,"Ġoanfrege":6986,"Ġverschillende":6987,"Ġmoesten":6988,"ĠHiemstra":6989,"Ġmedewerkers":6990,"ĠFokkens":6991,"ĠDryl":6992,"WethÃ¢lder":6993,"ĠISU":6994,"Ġtagonklik":6995,"aatsbosbeheer":6996,"AR":6997,"Boeren":6998,"Ch":6999,"Sm":7000,"Trainer":7001,"ail":7002,"daasje":7003,"dijk":7004,"ffer":7005,"hart":7006,"moar":7007,"mie":7008,"mok":7009,"tig":7010,"zende":7011,"zinga":7012,"Ġdiploma":7013,"endaalks":7014,"armers":7015,"Ġsol":7016,"atist":7017,"Ġkringloop":7018,"stoffen":7019,"alle":7020,"alvestÃªdetocht":7021,"edte":7022,"Ġlater":7023,"Ġvia":7024,"Ġdermei":7025,"Ġgetest":7026,"Ġgegaan":7027,"Ġferle":7028,"tenacht":7029,"ĠSu":7030,"Ġhavens":7031,"Ġkomende":7032,"rust":7033,"ĠBuro":7034,"wege":7035,"ichste":7036,"Ġskermen":7037,"ĠWorld":7038,"antwurde":7039,"Ġprote":7040,"ĠRus":7041,"ĠÃ»nderÃºt":7042,"ĠÃ»nderwerp":7043,"ĠbrÃª":7044,"igingen":7045,"Ġferster":7046,"Ġfersets":7047,"bewenners":7048,"Ġtaak":7049,"Ġact":7050,"ferkeap":7051,"Ġnee":7052,"uurd":7053,"Ġkeamer":7054,"Ġgroter":7055,"wurkjen":7056,"ĠStar":7057,"Ġraak":7058,"ĠAlvest":7059,"ĠMarsum":7060,"jierrich":7061,"aaid":7062,"ĠgrÃªf":7063,"Ġterrassen":7064,"Ġwennen":7065,"Ġgearkomsten":7066,"ĠsikehÃ»sop":7067,"Ġduorsume":7068,"Ġstappe":7069,"marsum":7070,"ĠDokkumer":7071,"tsjerk":7072,"Daarom":7073,"breedte":7074,"ĠhaadstÃªd":7075,"doende":7076,"Ġfeestje":7077,"Ġleechflean":7078,"Ġlivestream":7079,"ĠGerrit":7080,"Ġunyk":7081,"rastruktuer":7082,"Ġneedferoar":7083,"Ġmaksimum":7084,"centrum":7085,"ĠÃºtstjoerd":7086,"Ġfoarsoarch":7087,"regeling":7088,"Ġreizgers":7089,"ĠPaulusma":7090,"Ġemos":7091,"Ġleeftiid":7092,"ĠSietske":7093,"ĠfleantÃºch":7094,"Ġreagearje":7095,"Ġferpleatst":7096,"ĠJoey":7097,"Ġbehoarlik":7098,"ĠWestereen":7099,"Ġprecies":7100,"Ġmeteen":7101,"Ġontzettend":7102,"ĠDrylts":7103,"32":7104,"DO":7105,"DÃª":7106,"Normaal":7107,"Waar":7108,"Zij":7109,"fuotbal":7110,"gaat":7111,"gaard":7112,"ham":7113,"hiem":7114,"mienskip":7115,"oog":7116,"tÃºn":7117,"wad":7118,"teiten":7119,"Ġsus":7120,"Ġdead":7121,"Ġwachte":7122,"Ġment":7123,"Ġmolke":7124,"Ġbasketbal":7125,"Ġhjitte":7126,"ĠhÃ»zen":7127,"stige":7128,"Ġynge":7129,"Ġenige":7130,"riem":7131,"orat":7132,"ijken":7133,"Ġvond":7134,"Ġgesl":7135,"Ġstude":7136,"tsjÃ»":7137,"Ġjacht":7138,"genoaten":7139,"ĠSlach":7140,"Ġneit":7141,"Ġseine":7142,"jinkie":7143,"ĠÃºtb":7144,"ensma":7145,"Ġcrisis":7146,"Ġpleit":7147,"ronken":7148,"Ġerv":7149,"Ġsprutsen":7150,"Ġoarspron":7151,"ĠGelder":7152,"berkeap":7153,"ĠEmmen":7154,"Ġferslach":7155,"ĠOs":7156,"Ġberikken":7157,"stellings":7158,"uper":7159,"Ġfiert":7160,"Ġbene":7161,"anneke":7162,"Ġkunde":7163,"Ġbekendmakke":7164,"Ġfertraging":7165,"Ã»ntwikkel":7166,"eenstra":7167,"Ġwoansdeitemiddei":7168,"ĠSteen":7169,"Ġsneld":7170,"ĠWaadgebiet":7171,"Ġbla":7172,"Ġlearling":7173,"ĠSpanje":7174,"Ġkantoar":7175,"Ġtongersdeitemiddei":7176,"Ġferoaring":7177,"ĠhÃºske":7178,"Ġreizen":7179,"Ġgevaar":7180,"avond":7181,"Ġoanpass":7182,"Ġdraaie":7183,"Ġwichtichste":7184,"ĠBeek":7185,"Ġswimme":7186,"resse":7187,"Ġynsette":7188,"Ġinisjativen":7189,"Ġdoarpsbelang":7190,"ĠHeech":7191,"Ġbiof":7192,"ĠAmeland":7193,"Ġconta":7194,"Ġroppe":7195,"Ġmiddenfjilder":7196,"ciaal":7197,"Ġtoil":7198,"Ġtastimming":7199,"ĠÃºteinsette":7200,"Ġnegative":7201,"Ġreagearre":7202,"ĠKrol":7203,"Ġtrochsneed":7204,"Ġsimpel":7205,"Ġburge":7206,"Ġrijden":7207,"Ġynterview":7208,"ĠsÃºdlike":7209,"ĠHallum":7210,"Ġprotokol":7211,"materiaal":7212,"ĠAustraliÃ«":7213,"ferlieners":7214,"ĠStadion":7215,"ĠtaskÃ´gers":7216,"17":7217,"88":7218,"Cast":7219,"Camp":7220,"Fiif":7221,"Wer":7222,"hÃ»ndert":7223,"iy":7224,"pres":7225,"ty":7226,"tille":7227,"Ġyl":7228,"tes":7229,"Ġdraach":7230,"Ġdorp":7231,"inter":7232,"iningen":7233,"Ġsjon":7234,"Ġsjit":7235,"Ġdek":7236,"Ġimp":7237,"Ġierde":7238,"Ġbos":7239,"Ġhom":7240,"Ġhoren":7241,"eijen":7242,"Ġnomin":7243,"Ġgoud":7244,"Ġgongen":7245,"aly":7246,"aler":7247,"Ġtap":7248,"Ġtaken":7249,"oarm":7250,"riz":7251,"Ġpens":7252,"rede":7253,"lien":7254,"Ãªte":7255,"gewoan":7256,"dert":7257,"Ġvro":7258,"Ġalvetal":7259,"aarsma":7260,"tsp":7261,"Ġjammer":7262,"ĠSinteklaas":7263,"Ġzoek":7264,"Ã´fdieling":7265,"ĠAt":7266,"Ġskriezen":7267,"ĠWei":7268,"ĠNes":7269,"Ġsprek":7270,"skl":7271,"jouwert":7272,"Ġcoronac":7273,"Ġbesykjen":7274,"utch":7275,"ĠRu":7276,"Ġleine":7277,"tellen":7278,"ĠDefen":7279,"ĠbrÃ»ns":7280,"ĠienfÃ¢ldich":7281,"Ġsloech":7282,"Ġac":7283,"Ġsoarten":7284,"ieders":7285,"wurking":7286,"entiids":7287,"ĠZijlstra":7288,"acc":7289,"Ġ43":7290,"ettere":7291,"Ġfreedtemoarn":7292,"ĠfÃ»ns":7293,"Ġregist":7294,"ruksje":7295,"Ġfytspaad":7296,"wikkeld":7297,"Ġpriv":7298,"Ġferoars":7299,"Ġstapte":7300,"ansier":7301,"Ġpleatsen":7302,"ĠlÃ»ken":7303,"maatregel":7304,"Ġstress":7305,"Ã¯ne":7306,"Ġspannende":7307,"ĠAldeb":7308,"Ġmaatschap":7309,"Ġtaret":7310,"Ġtaried":7311,"Ġ1945":7312,"Ġkiezen":7313,"lanner":7314,"Ġfertsjintwurd":7315,"Ġfiskers":7316,"Ġtydlike":7317,"makkers":7318,"Ġvoetballen":7319,"auffeurs":7320,"flagge":7321,"Ġelektryske":7322,"ĠpopulÃªr":7323,"Ġallerh":7324,"Ġfideo":7325,"Ġkarbidsjitten":7326,"spiler":7327,"Ġcarav":7328,"ĠthÃºspl":7329,"Ġeksploit":7330,"Tsien":7331,"ĠBrandsma":7332,"ĠTjeerd":7333,"Ġgesellich":7334,"ushoorn":7335,"ĠUNIS":7336,"Ġnormale":7337,"Ġpenalt":7338,"ĠDefence":7339,"ĠthÃºsploech":7340,"Kollum":7341,"MC":7342,"Mijn":7343,"Visser":7344,"brief":7345,"iende":7346,"lant":7347,"mas":7348,"oof":7349,"tter":7350,"wies":7351,"Ġren":7352,"often":7353,"Ġbaas":7354,"ath":7355,"Ġkraan":7356,"stjit":7357,"Ġget":7358,"Ġgoals":7359,"ĠglÃªs":7360,"Ġfans":7361,"Ġeangst":7362,"Ġpeil":7363,"regen":7364,"onald":7365,"isy":7366,"Ã¢nske":7367,"Ġgekomen":7368,"Ġferlik":7369,"Ġjimme":7370,"genoat":7371,"ĠSon":7372,"ĠoertsjÃ»":7373,"Ġneitocht":7374,"Ã´k":7375,"Ġzat":7376,"Ġzag":7377,"ĠBil":7378,"ĠHoo":7379,"weinen":7380,"ĠÃ´fpraat":7381,"ĠWins":7382,"Ġspes":7383,"Ġvanaf":7384,"ĠRem":7385,"ĠReg":7386,"aalt":7387,"spartij":7388,"ĠErik":7389,"Ġvoorber":7390,"sektor":7391,"ylde":7392,"Ġklinkt":7393,"beam":7394,"ĠslÃ»s":7395,"Ġeiland":7396,"Ġvervel":7397,"Ġbetinking":7398,"Ald":7399,"Ġlykje":7400,"foarsjen":7401,"Foaral":7402,"ĠIF":7403,"ĠÃ»ntwik":7404,"ĠState":7405,"ĠlÃ¢nbo":7406,"Ġfuortendaalks":7407,"ĠMarrit":7408,"Ġnuver":7409,"tearret":7410,"riez":7411,"Ġaparte":7412,"Ġpasse":7413,"Ġkoade":7414,"Ġkrijg":7415,"Ġ65":7416,"Ġfreedsmerk":7417,"ĠferbÃ»n":7418,"helling":7419,"Ġstelde":7420,"Ġstraks":7421,"oonstra":7422,"Ġfytser":7423,"lybal":7424,"Ġdielen":7425,"ĠArn":7426,"ĠkarriÃªre":7427,"ĠrÃ»nom":7428,"ĠwÃ»nen":7429,"willigers":7430,"Ġloc":7431,"Ġperiode":7432,"Ġstream":7433,"Ġopsetten":7434,"Fierders":7435,"alisearre":7436,"Ġcoronabesmettings":7437,"bouwing":7438,"Ġfoarsichtich":7439,"Ġprofite":7440,"ologyske":7441,"Ġlegere":7442,"Ġbegelieding":7443,"Ġbegripe":7444,"Ġhoudt":7445,"Ġsteatssekretaris":7446,"ĠRoes":7447,"Ġkommunikaasje":7448,"Ġloopt":7449,"Ġkonkurr":7450,"Ġbeskerme":7451,"ĠLangwar":7452,"ĠHendrik":7453,"Ġbunder":7454,"ĠHuisman":7455,"Ġwiksel":7456,"Ġdaliks":7457,"Ġfreondinne":7458,"Ġwiidweidich":7459,"Ġbetreft":7460,"ĠFeilichheidsregio":7461,"Ġartysten":7462,"Ġaandacht":7463,"BS":7464,"KC":7465,"Mis":7466,"ae":7467,"aus":7468,"ever":7469,"fonds":7470,"gr":7471,"mny":7472,"nij":7473,"ore":7474,"ogel":7475,"tige":7476,"aring":7477,"Ġfor":7478,"Ġfra":7479,"Ġfok":7480,"Ġsjitte":7481,"Ġmas":7482,"Ġbanken":7483,"atyske":7484,"ĠnÃ»":7485,"Ġkj":7486,"yns":7487,"ynst":7488,"start":7489,"Ġgouden":7490,"keer":7491,"neke":7492,"newÃ¢ld":7493,"ome":7494,"oryt":7495,"Ġbeoar":7496,"Ġoanmeld":7497,"Ġfermin":7498,"oes":7499,"ĠFier":7500,"ilaasje":7501,"ading":7502,"Ġoerstap":7503,"Ġweach":7504,"ĠÃºtkomst":7505,"ĠÃºtdield":7506,"ĠHaad":7507,"ĠLo":7508,"essel":7509,"Ġskul":7510,"Ġskerp":7511,"ĠWassenaar":7512,"efel":7513,"Ġlieten":7514,"ĠDag":7515,"ĠKoop":7516,"Ġmeasten":7517,"ĠRed":7518,"ĠRie":7519,"ĠRut":7520,"ĠRaad":7521,"ĠRTV":7522,"Ġleark":7523,"ĠPyt":7524,"ĠÃ»nderen":7525,"ĠCl":7526,"ĠOl":7527,"Ġoantinken":7528,"Ġberikt":7529,"ferbÃ¢n":7530,"ĠgemeentehÃ»s":7531,"istyk":7532,"Ġgroeit":7533,"ĠÃ»ndersk":7534,"Bygelyks":7535,"ustysje":7536,"Ġfamyl":7537,"Ġtichtby":7538,"ĠJouster":7539,"Ġdoelen":7540,"ĠSteat":7541,"gebied":7542,"uzum":7543,"ĠSkÃ»":7544,"ĠferwÃ»n":7545,"belangen":7546,"Ġlearen":7547,"Ġmedyske":7548,"Ġnatuergebieten":7549,"ĠhÃºshÃ¢lden":7550,"Ġtrainings":7551,"Ġpakten":7552,"mpo":7553,"ĠNederlands":7554,"ĠBergen":7555,"Ġrekkenje":7556,"stanners":7557,"Ġ120":7558,"Ġkoprinner":7559,"Ġstimulear":7560,"raagd":7561,"Ã»nscoach":7562,"Ġsporte":7563,"ĠdÃ»beld":7564,"roeven":7565,"oriteit":7566,"ĠNijmegen":7567,"ĠwarskÃ´ging":7568,"erskaat":7569,"ĠBruinsma":7570,"Ġuter":7571,"ology":7572,"Ġflechtlingen":7573,"ĠferdwÃ»n":7574,"Ġmiddeis":7575,"Ġblessearre":7576,"boerd":7577,"ĠÃ»nwis":7578,"Ġmeidogge":7579,"hawwers":7580,"Ġgebruiken":7581,"Ġopknapt":7582,"enschap":7583,"ĠRoozemond":7584,"broek":7585,"Ġamtners":7586,"ĠabsolÃºt":7587,"ĠAmerikaanske":7588,"dienst":7589,"Ġsjoernalist":7590,"Ġassistint":7591,"azjiers":7592,"Ġkontenerskippen":7593,"Ġgenietsje":7594,"Ġmiljard":7595,"Ġfeangreide":7596,"ĠElfsteden":7597,"Ġgelegenheid":7598,"Ġpenalty":7599,"21":7600,"AL":7601,"Bern":7602,"bren":7603,"buor":7604,"ider":7605,"kle":7606,"kÃªte":7607,"mand":7608,"oers":7609,"ots":7610,"tlike":7611,"uge":7612,"uite":7613,"wijl":7614,"Ġutens":7615,"Ġdwers":7616,"anus":7617,"arken":7618,"Ġsig":7619,"Ġmiening":7620,"Ġhur":7621,"ĠnÃªst":7622,"Ġkollum":7623,"yna":7624,"Ġemo":7625,"Ġvalt":7626,"Ġoankommen":7627,"oem":7628,"Ġstof":7629,"ĠSe":7630,"imeter":7631,"Ġwekker":7632,"ĠHil":7633,"oplieding":7634,"ĠAc":7635,"ĠAf":7636,"Ġskaal":7637,"Ġskrokken":7638,"apac":7639,"Ġervoor":7640,"ikel":7641,"ĠNation":7642,"ĠrÃ¢ne":7643,"skop":7644,"ĠKr":7645,"ĠKoud":7646,"ĠTwi":7647,"ĠCNV":7648,"ossen":7649,"Ġhelaas":7650,"ineke":7651,"ĠOost":7652,"Ġhoeke":7653,"ĠwÃªrop":7654,"ateg":7655,"Ġbetrouwen":7656,"boaten":7657,"Ġ33":7658,"aksjes":7659,"Ġbouwe":7660,"Ġferteld":7661,"Ġbestimming":7662,"foarst":7663,"stertille":7664,"Ãªding":7665,"ĠÃ»ntd":7666,"ĠÃ»ntble":7667,"Ġbesluten":7668,"ĠsneintejÃ»n":7669,"bringe":7670,"moc":7671,"Ġtongersdeitemoarn":7672,"Ġgeldt":7673,"Ġnatuerorganisaasjes":7674,"Ġstillein":7675,"andemy":7676,"ĠKNKB":7677,"ĠsimmerfakÃ¢nsje":7678,"Ġkeunstwurk":7679,"Ġhealjier":7680,"Ġfilmke":7681,"oatstertille":7682,"Ġsporters":7683,"Ġslimmer":7684,"ĠÃ»ntstiet":7685,"ĠÃ»ntwikkelingen":7686,"Ġbuorkerij":7687,"Ġagrar":7688,"teress":7689,"Ġiennichste":7690,"fÃ»gel":7691,"Ġkeatsen":7692,"ĠAndor":7693,"ĠErve":7694,"ĠFeriene":7695,"Ġoefenwedstriid":7696,"Ġstypjen":7697,"ĠNew":7698,"festival":7699,"Ġvertrouwen":7700,"âĢĻ":7701,"ĠhÃºshÃ¢lding":7702,"ĠHylpen":7703,"ĠEarnewÃ¢ld":7704,"ĠCentrum":7705,"Ġfergoeding":7706,"Ġwapens":7707,"wykein":7708,"Ġwensoarch":7709,"ynjewÃ¢ld":7710,"perioade":7711,"Ġidentiteit":7712,"28":7713,"44":7714,"Hel":7715,"Hier":7716,"OC":7717,"SÃ»nder":7718,"dis":7719,"frys":7720,"ht":7721,"ix":7722,"jaar":7723,"jele":7724,"kast":7725,"lochs":7726,"nar":7727,"oei":7728,"pas":7729,"pakt":7730,"pele":7731,"ĠmÃ»le":7732,"Ġolymp":7733,"ĠbÃªd":7734,"Ġhanden":7735,"Ġkad":7736,"Ġkracht":7737,"Ġkrap":7738,"ject":7739,"Ġgym":7740,"Ġgrond":7741,"Ġtuorren":7742,"rol":7743,"rike":7744,"Ġpom":7745,"lim":7746,"itchel":7747,"deel":7748,"Ġomsk":7749,"ijt":7750,"Ġoandiel":7751,"Ġstoffen":7752,"genomen":7753,"ĠSeg":7754,"Ġwolst":7755,"Ġoerfal":7756,"Ġkommers":7757,"Ġmaraton":7758,"ĠBok":7759,"opke":7760,"Ġcre":7761,"ĠÃ´flevering":7762,"ĠWiel":7763,"ĠWerk":7764,"Ġspruts":7765,"ĠMen":7766,"ĠKoster":7767,"ĠKoatstertille":7768,"ĠVoedselbank":7769,"ĠRi":7770,"ĠTerp":7771,"spraak":7772,"oerd":7773,"Ġwyt":7774,"ĠEij":7775,"ĠEpke":7776,"sep":7777,"Ġonders":7778,"ĠONS":7779,"oallen":7780,"Ġkonsek":7781,"Ġtsjinsten":7782,"emt":7783,"ifk":7784,"Ġzee":7785,"Ġoranje":7786,"Ġfloat":7787,"ĠStaatsbosbeheer":7788,"ĠwÃªrmei":7789,"ultuer":7790,"itsma":7791,"Ġ600":7792,"gersma":7793,"geande":7794,"Ġkomment":7795,"Ġfierderop":7796,"Ġdreger":7797,"provinsje":7798,"groeid":7799,"Ġparten":7800,"Ġmelk":7801,"Ġsaakkundigen":7802,"Ġopnommen":7803,"Ġsmoard":7804,"einstra":7805,"Ġruten":7806,"Ġsterke":7807,"Ġbewoners":7808,"ĠferdÃ»":7809,"ĠAldeberkeap":7810,"Ġplekken":7811,"Ġdokters":7812,"Ġlevere":7813,"Ġgaswinning":7814,"Ġferantwurdlikens":7815,"Ġfearn":7816,"Ġdiskrimin":7817,"ĠHolland":7818,"Ġvlogs":7819,"Ġmeinimme":7820,"ĠNieuwen":7821,"ĠÃ»nwiss":7822,"Ġopskuor":7823,"Ġteloarsteld":7824,"ĠNeushoorn":7825,"machtich":7826,"ĠJacobs":7827,"Ġfantastysk":7828,"Ġvakantie":7829,"Ġcoronaproof":7830,"Ġtransfer":7831,"Ġpilot":7832,"Ġpresintator":7833,"sraad":7834,"Heal":7835,"ĠskÃ»tsjesilen":7836,"Friesland":7837,"ĠKnol":7838,"Ġlaborat":7839,"lizzende":7840,"ĠMakkum":7841,"Ġbefolking":7842,"Ġnijsgjirrich":7843,"Ġmondkap":7844,"Ġfolwoeksen":7845,"Ġkarakter":7846,"ĠNoorderbreedte":7847,"Ãºtkearings":7848,"Ġscooter":7849,"Ġbioferskaat":7850,"Ġcoronacrisis":7851,"apaciteit":7852,"Ġkonsekw":7853,"Grutte":7854,"PO":7855,"Ver":7856,"cten":7857,"los":7858,"slid":7859,"tÃ»zen":7860,"ulearre":7861,"vend":7862,"waard":7863,"zak":7864,"Ġym":7865,"Ġdier":7866,"Ġduur":7867,"Ġfas":7868,"Ġmuorre":7869,"Ġbiedt":7870,"Ġhoort":7871,"Ġhulp":7872,"Ġtachtich":7873,"Ġenorme":7874,"rikt":7875,"Ġopslach":7876,"akteur":7877,"orst":7878,"orren":7879,"Ġfoarkommen":7880,"Ġluts":7881,"Ġderom":7882,"Ġmoder":7883,"Ġnou":7884,"eart":7885,"Ġstoel":7886,"Ġjuster":7887,"ĠStel":7888,"ĠSpe":7889,"Ġoerheden":7890,"lÃ¢nske":7891,"Ġreken":7892,"Ġread":7893,"Ġplant":7894,"ĠWier":7895,"ĠKamp":7896,"Ġwizen":7897,"eksjes":7898,"splak":7899,"ĠCampus":7900,"Ġhelft":7901,"ĠDemoc":7902,"Ġklas":7903,"waande":7904,"stelde":7905,"atec":7906,"Ġkeuze":7907,"Ġferskyn":7908,"Ġferskrik":7909,"dielingen":7910,"Ġmissen":7911,"ssÃ»nens":7912,"aaien":7913,"teurs":7914,"Ġfreedtemiddei":7915,"ereniging":7916,"ĠGrin":7917,"Ġperfoarst":7918,"Ġ1500":7919,"mpatec":7920,"monie":7921,"Ġsintimeter":7922,"Ġfotog":7923,"Ġfilms":7924,"Ġskoftke":7925,"Ġfjirtich":7926,"ĠKeamerlid":7927,"ĠrÃªstiger":7928,"sjinsten":7929,"Ġrelaasje":7930,"ĠZwieten":7931,"Ġsuden":7932,"iedema":7933,"ĠpraktykÃ»nderwiis":7934,"Ġtrouw":7935,"Ġberops":7936,"Ġkiest":7937,"Ġkoartlyn":7938,"ĠambulÃ¢nsepersoniel":7939,"Ġuiteindelijk":7940,"ĠBrink":7941,"Ã¶per":7942,"Ġpassazjiers":7943,"Ġgaraazje":7944,"Ġferdwine":7945,"iseur":7946,"Ġblessuere":7947,"Ġdriget":7948,"Ġstudenten":7949,"formatie":7950,"Ġstasjons":7951,"ĠÃºtwreide":7952,"zoens":7953,"Ġopfongen":7954,"ĠMeijer":7955,"Ġtsjerketsjinst":7956,"ĠVolendam":7957,"Ġziekenhuis":7958,"Ġdeistich":7959,"ĠdokumintÃªre":7960,"Ġcollega":7961,"ĠWytmarsum":7962,"Ġperspektyf":7963,"Ġdrank":7964,"beskerming":7965,"Begjin":7966,"ĠKingma":7967,"ĠKoninklijke":7968,"ĠOnderzoeksraad":7969,"ĠleechfleanrÃ»te":7970,"Ġspesif":7971,"ĠÃ»ntwikkele":7972,"ĠDemocratie":7973,"58":7974,"80":7975,"Aan":7976,"Fuotbal":7977,"Kom":7978,"Mocht":7979,"NC":7980,"Wie":7981,"deld":7982,"epe":7983,"froulju":7984,"heff":7985,"kwe":7986,"lin":7987,"lum":7988,"ljochting":7989,"nzer":7990,"oven":7991,"pens":7992,"ppen":7993,"rink":7994,"tjes":7995,"uil":7996,"vak":7997,"ĠDat":7998,"Ġqu":7999,"Ġwint":8000,"Ġbocht":8001,"Ġbeiden":8002,"att":8003,"Ġnul":8004,"Ġnamen":8005,"Ġkat":8006,"Ġkerk":8007,"Ġgiel":8008,"Ġtype":8009,"Ġinformatie":8010,"ĠenkÃªte":8011,"Ġpijn":8012,"Ġport":8013,"Ġoplein":8014,"akje":8015,"ieuw":8016,"Ġfoarinoar":8017,"Ġlinks":8018,"Ġoanbod":8019,"Ġgekeken":8020,"Ġmoest":8021,"Ġferling":8022,"ierd":8023,"ĠFonds":8024,"Ġjongen":8025,"ĠSine":8026,"ada":8027,"Ġzaken":8028,"ĠÃºtfer":8029,"ĠBreij":8030,"ĠHart":8031,"Ġseizoens":8032,"ĠADO":8033,"Ġskande":8034,"appe":8035,"Ġryks":8036,"ĠDrent":8037,"Ġprogram":8038,"skied":8039,"skamp":8040,"ĠKim":8041,"ĠGre":8042,"Ġmeest":8043,"Ġgoedkeap":8044,"spraken":8045,"ĠCees":8046,"Ġhelder":8047,"ĠEL":8048,"betel":8049,"aktyk":8050,"Ġtsjinoer":8051,"Ġfollybal":8052,"Ġbetinke":8053,"Ġkeuken":8054,"Ã»ndernimmers":8055,"Ġselsstannich":8056,"ampion":8057,"Ġboa":8058,"Ġskoalbern":8059,"ĠIsra":8060,"Ġtrajekt":8061,"werken":8062,"Ġ2013":8063,"Ġfertro":8064,"Ġdaardoor":8065,"ĠHarmonie":8066,"Ġfleu":8067,"Ġdrokke":8068,"Ġadvies":8069,"Ġgelukkig":8070,"ormule":8071,"Ġdraaien":8072,"Ġsmite":8073,"Ġfeilichheidsregio":8074,"ĠkrÃºs":8075,"streek":8076,"Ġsammele":8077,"Ġferskillen":8078,"ordrecht":8079,"Elke":8080,"Ġredenen":8081,"ĠdÃ»mny":8082,"Ġunike":8083,"Ġfarren":8084,"ĠwarskÃ´ge":8085,"ologysk":8086,"Ġvloggers":8087,"Ġriedsleden":8088,"joernaal":8089,"Ġmateri":8090,"Ġwedstrijden":8091,"leatslik":8092,"Ġfernield":8093,"Ġleefberens":8094,"Ġoanfreegje":8095,"Ġtagong":8096,"ĠFortuin":8097,"ĠpatiÃ«nten":8098,"ĠBrabÃ¢n":8099,"Ġkriminele":8100,"Ġmassaal":8101,"Ġfuortset":8102,"ĠStiens":8103,"Kinst":8104,"Ġverantwoor":8105,"ĠHelmholt":8106,"Ġfrjemd":8107,"ĠSipke":8108,"Ġsechstjin":8109,"ĠlÃ»dsoerlÃªst":8110,"Ġkonstatearre":8111,"Ġgevolgen":8112,"Ġferstjerren":8113,"ĠAlvestÃªde":8114,"Misschien":8115,"40":8116,"Binnen":8117,"EO":8118,"Ljouwert":8119,"Me":8120,"Na":8121,"Niet":8122,"Nije":8123,"car":8124,"ifest":8125,"kende":8126,"klike":8127,"kont":8128,"oteken":8129,"vor":8130,"wis":8131,"wapen":8132,"Ġsan":8133,"Ġsis":8134,"Ġwaad":8135,"Ġmjitte":8136,"Ġbud":8137,"Ġhji":8138,"staat":8139,"stjitten":8140,"Ġgolf":8141,"Ġinst":8142,"oarten":8143,"Ġene":8144,"Ġec":8145,"lem":8146,"Ġpu":8147,"reden":8148,"Ġtele":8149,"Ġterecht":8150,"iepen":8151,"Ġbem":8152,"Ġlju":8153,"Ġvorig":8154,"Ġoanrin":8155,"Ġmodel":8156,"Ġferlyn":8157,"Ġekster":8158,"stean":8159,"ĠBol":8160,"ĠHeer":8161,"Ġrederij":8162,"ĠAkker":8163,"Ġskiep":8164,"ĠÃ´fnaam":8165,"ĠWeid":8166,"ĠWynjewÃ¢ld":8167,"Ġspre":8168,"achi":8169,"ĠVC":8170,"ĠVeld":8171,"ĠVereniging":8172,"Ġleggen":8173,"ĠPa":8174,"ĠTon":8175,"bergen":8176,"ĠEd":8177,"Ġferste":8178,"yline":8179,"Ġsilen":8180,"Ġklassen":8181,"Ġwurkjouwer":8182,"rijs":8183,"komple":8184,"riuwe":8185,"Ġaaien":8186,"tersweach":8187,"Ġplakfine":8188,"Ãºtbraak":8189,"abri":8190,"Ġlangs":8191,"Ġbouw":8192,"Ġeff":8193,"ĠII":8194,"Ġflag":8195,"Ġtraind":8196,"acy":8197,"Ġnijste":8198,"sitters":8199,"Ġ44":8200,"Ġgenomen":8201,"Ġbeslute":8202,"folging":8203,"kelÃ¢n":8204,"ĠbrÃ»k":8205,"Ġwoansdeitemoarn":8206,"Ġboppen":8207,"haus":8208,"ĠUMC":8209,"nov":8210,"zjy":8211,"Ġkni":8212,"Ġlossen":8213,"ĠBeNe":8214,"Ġsterker":8215,"ĠBelt":8216,"Ġsinneparken":8217,"Ġkrus":8218,"Ġreedriden":8219,"Ġniemand":8220,"Ġynternasjonaal":8221,"Ġmax":8222,"Ġtaspraak":8223,"Ġmeastentiids":8224,"Ġpresin":8225,"ĠfarrÃ»te":8226,"ĠZwan":8227,"Ġoefening":8228,"blÃªd":8229,"Ġkennen":8230,"Ġreizgje":8231,"Ġmonum":8232,"Ġanty":8233,"Ġbrune":8234,"Ġteksten":8235,"ĠTheo":8236,"ĠdebÃºt":8237,"Ġkonsert":8238,"ĠynstÃ¢nsjes":8239,"Ġoperaasje":8240,"Ġlibbet":8241,"Ġsalang":8242,"eimpe":8243,"Ġkompleks":8244,"Ġadvisearret":8245,"Ġhjoeddeiske":8246,"Ġhjoeddeistige":8247,"ĠKenink":8248,"ĠJapan":8249,"Ġprinsipe":8250,"Ġynformearre":8251,"ĠkompjÃ»ter":8252,"ĠbrÃªgen":8253,"iyachi":8254,"Ġimpact":8255,"Ġferliking":8256,"ĠWinsum":8257,"ĠIFKS":8258,"Ġfamyljel":8259,"Ġkommentaar":8260,"Ġsmoardrok":8261,"60":8262,"Am":8263,"Lang":8264,"Team":8265,"boeren":8266,"coron":8267,"dus":8268,"gas":8269,"gang":8270,"hing":8271,"kons":8272,"lle":8273,"nings":8274,"paden":8275,"teast":8276,"inette":8277,"arter":8278,"Ġfoech":8279,"Ġmjit":8280,"Ġkass":8281,"Ġkuorbal":8282,"ynlik":8283,"Ġfangen":8284,"Ġynsteld":8285,"Ġynstjoer":8286,"Ġplein":8287,"asper":8288,"itia":8289,"dema":8290,"ona":8291,"ijker":8292,"ijfers":8293,"Ġlong":8294,"Ġderoan":8295,"ĠoanhÃ¢ld":8296,"Ġoankaam":8297,"Ġferantwurde":8298,"ĠFarmers":8299,"ĠFriez":8300,"zee":8301,"Ġzwe":8302,"ruis":8303,"ĠBet":8304,"ĠBit":8305,"unde":8306,"Ġrealist":8307,"ĠAuke":8308,"likse":8309,"Ġplay":8310,"ĠDordrecht":8311,"Ġtsiende":8312,"oswert":8313,"Ġwurkjouwers":8314,"Ġaud":8315,"Ġneamde":8316,"jerzje":8317,"Ġgroeie":8318,"Ġiepenje":8319,"ifting":8320,"ifati":8321,"Ġbeneam":8322,"ĠÃ»ndersikers":8323,"skippen":8324,"geren":8325,"Ġfynst":8326,"ĠIe":8327,"Ġfla":8328,"eiligens":8329,"ward":8330,"udinten":8331,"Ġsoarchmeiwurkers":8332,"Ġscholen":8333,"Ġaksjefier":8334,"Ġaksjegroep":8335,"Ġblok":8336,"mooglik":8337,"Ġmiddels":8338,"Ġnatuerlik":8339,"Ġfuotbalje":8340,"Ġdiele":8341,"Ġstilte":8342,"lissen":8343,"Ġskipfeart":8344,"Ġmiljoenen":8345,"Ġonderwijs":8346,"Ġpeaske":8347,"Ġregelje":8348,"Ġmeege":8349,"zjet":8350,"Ġsliepe":8351,"Ġstudinte":8352,"Ġhealoere":8353,"Ġvoldoende":8354,"Ġreedlik":8355,"Ġgebeurd":8356,"Stichting":8357,"ĠZwart":8358,"Ġstiennen":8359,"ĠÃºtfiering":8360,"Ġtelefoanysk":8361,"Ġynspeksje":8362,"blad":8363,"ĠSportCast":8364,"ĠwrÃ¢ldbekers":8365,"Ġkeatst":8366,"Ġfysio":8367,"Ġminske":8368,"Ġmaatskiplike":8369,"Ġoptredens":8370,"ĠTuinenga":8371,"ĠManon":8372,"Ġopsmite":8373,"Ġhanteken":8374,"Onze":8375,"ĠHoogland":8376,"ĠKuipers":8377,"Ġeksperim":8378,"srjochter":8379,"ĠGroningen":8380,"assadeur":8381,"Ġtichteby":8382,"ĠsikehÃ»sopn":8383,"Ġdraachflak":8384,"Ġcaravan":8385,"Ġlearkr":8386,"ĠKoudum":8387,"Ġbeneaming":8388,".)":8389,"70":8390,"Af":8391,"Dijk":8392,"Heit":8393,"Qu":8394,"Sven":8395,"azje":8396,"baden":8397,"buorren":8398,"hn":8399,"hoek":8400,"ibel":8401,"jam":8402,"maar":8403,"ole":8404,"oos":8405,"zetten":8406,"ĠÃ":8407,"Ġdronken":8408,"ance":8409,"Ġmysels":8410,"Ġhalf":8411,"Ġkas":8412,"Ġitens":8413,"stÃ´k":8414,"aling":8415,"Ġynske":8416,"Ġyngri":8417,"Ġyngre":8418,"roet":8419,"riÃ«":8420,"riften":8421,"ley":8422,"Ġput":8423,"Ġoplever":8424,"dem":8425,"aker":8426,"ĠfoarÃ´f":8427,"Ġfoarset":8428,"isma":8429,"Ġommers":8430,"Ġla":8431,"Ġvolle":8432,"Ġvrouw":8433,"Ġoank":8434,"Ġoanjaan":8435,"Ġalarm":8436,"Ġstatus":8437,"ĠFolk":8438,"Ġeksk":8439,"ĠÃºtkear":8440,"ĠBang":8441,"ĠBurd":8442,"ĠHim":8443,"ĠHÃ»s":8444,"opt":8445,"Ġcro":8446,"Ġcomm":8447,"ĠÃ´fst":8448,"Ġergens":8449,"Ġerfgoed":8450,"ĠWeij":8451,"Ġwerkt":8452,"Ġoarlochs":8453,"ĠDoarps":8454,"ĠMir":8455,"ĠKeimpe":8456,"ĠJos":8457,"ĠJuli":8458,"Ġwaarsch":8459,"Ġbesochten":8460,"ĠRad":8461,"Ġlek":8462,"agt":8463,"ĠEind":8464,"ĠEmpatec":8465,"ĠDeputearre":8466,"igers":8467,"Ġriem":8468,"Ġwurkstraf":8469,"riuwt":8470,"inkster":8471,"anner":8472,"echn":8473,"emarken":8474,"Ġneer":8475,"Ġbedrige":8476,"Ġbinn":8477,"Ġplysjeman":8478,"ueren":8479,"oelang":8480,"ifers":8481,"aide":8482,"Ġfertellen":8483,"Ġjou":8484,"Ġjoegen":8485,"ĠÃ»ntwerp":8486,"Ġmiste":8487,"Ġsneontemoarn":8488,"ĠMarten":8489,"ĠÃ¢lderen":8490,"ĠkoÃ¶rdin":8491,"ĠfÃªstlein":8492,"inds":8493,"ĠSteatsboskbehear":8494,"Ġanon":8495,"Ġgroepke":8496,"iÃ«ne":8497,"ĠÃ¢ldste":8498,"Ġ800":8499,"Ġyntocht":8500,"Ġrapste":8501,"ĠNoardlike":8502,"ĠThomas":8503,"Ġgriene":8504,"Ġfrijwilliger":8505,"Ġontstaan":8506,"onomyske":8507,"Ġferkeapjen":8508,"Ġcampings":8509,"Ġ09":8510,"Nederland":8511,"agement":8512,"Ġcoronabesmetting":8513,"reis":8514,"Ġpoppe":8515,"Ġfersoarging":8516,"Ġdemonstre":8517,"Ġtrots":8518,"ĠSmink":8519,"Ġferfongen":8520,"Ġboetes":8521,"Ġgekregen":8522,"Ġjongens":8523,"Ġfestivals":8524,"Ġfleanbasis":8525,"Ġverwachten":8526,"Ġoanfraach":8527,"hankelijk":8528,"ĠKanadeeske":8529,"ĠBelgyske":8530,"iltrant":8531,"ĠÃ»nderdÃ»kers":8532,"Ġbedrijven":8533,"Ġstruktureel":8534,"redakteur":8535,"Ġzomer":8536,"Ġfavori":8537,"Ġsantjin":8538,"ĠBeetstersweach":8539,"monumenten":8540,"ĠRijpstra":8541,"Ġemosjoneel":8542,"ĠTwizel":8543,"ĠGrinzer":8544,"Ġtrouwens":8545,"heffing":8546,"Ġverantwoordelijk":8547,"ĠWeidum":8548,"12":8549,"Bel":8550,"DF":8551,"Moat":8552,"RM":8553,"Tw":8554,"The":8555,"fraach":8556,"fragen":8557,"frou":8558,"gde":8559,"nÃ»mer":8560,"part":8561,"peil":8562,"retten":8563,"soarte":8564,"ĠdÃ»ns":8565,"Ġdieren":8566,"inus":8567,"ana":8568,"Ġwon":8569,"atting":8570,"Ġhok":8571,"Ġynfier":8572,"oarne":8573,"Ġisolaasje":8574,"leving":8575,"Ã»d":8576,"Ġtempo":8577,"ieel":8578,"Ãºk":8579,"amylje":8580,"ĠbeÃ«":8581,"ĠbehÃ¢lden":8582,"Ġlapt":8583,"Ġoanfol":8584,"Ġmob":8585,"earum":8586,"Ġstand":8587,"Ġstarte":8588,"ĠFyts":8589,"Ġjiske":8590,"ilÃ¢n":8591,"meer":8592,"ĠBilt":8593,"ĠHoe":8594,"ronde":8595,"ĠWou":8596,"ĠNat":8597,"ĠrÃºt":8598,"ĠDonker":8599,"Ġbesleat":8600,"oto":8601,"ĠTuin":8602,"ĠTour":8603,"eksp":8604,"ĠEjuke":8605,"veer":8606,"bbet":8607,"Ġonge":8608,"Ġongel":8609,"Ġfersmoar":8610,"ĠOut":8611,"wurden":8612,"Ġtsjintwurdich":8613,"Ġberei":8614,"Ġab":8615,"Ġhyg":8616,"ups":8617,"Ġverz":8618,"Ãºtstjit":8619,"sjier":8620,"Ġgeworden":8621,"Ġlykmakker":8622,"ichten":8623,"Ġtuskentiid":8624,"Ġorganisatie":8625,"Ġfljocht":8626,"ĠÃ»ntrom":8627,"ĠferhÃ¢ld":8628,"Ġeinde":8629,"Ġ2014":8630,"Ġswart":8631,"ĠHarnzer":8632,"Ġtestlokaasje":8633,"Ġwenplak":8634,"gebaan":8635,"Ġschepen":8636,"ctor":8637,"Ġgelijk":8638,"Ġhoofd":8639,"Ġdield":8640,"ĠhÃºskes":8641,"Ġtrainers":8642,"ĠrÃ»nen":8643,"ĠrÃ»ntsje":8644,"Ġmeeste":8645,"ĠNoardwÃ¢lde":8646,"ĠBern":8647,"aartjes":8648,"Ġdesynf":8649,"Daarna":8650,"eindert":8651,"Ġfilmkes":8652,"Ġynsid":8653,"Ġvolgen":8654,"Ġbefrijd":8655,"Ġ2009":8656,"Ġsjauffeur":8657,"Ġgearwurkje":8658,"stikken":8659,"ĠAldegea":8660,"ĠChampion":8661,"brandij":8662,"Ġstjoere":8663,"aulun":8664,"Ġkeapjen":8665,"bliuw":8666,"ĠÃºtspraken":8667,"ĠSportklup":8668,"Ġfysike":8669,"ĠAppel":8670,"Ġbelangrykste":8671,"Ġweekend":8672,"Ġregionaal":8673,"Ġouderen":8674,"Ġklokken":8675,"ĠLelyline":8676,"ĠLawei":8677,"ĠKroes":8678,"ĠfÃ»gelgryp":8679,"vereniging":8680,"Ġlogysk":8681,"Ġferneamde":8682,"ĠJorrit":8683,"ĠMichael":8684,"Ġdjoerder":8685,"ĠÃ´fwachtsje":8686,"Ġamateur":8687,"Ġtoaniel":8688,"Ġynteresse":8689,"itesse":8690,"Ġwinners":8691,"Ġetmiel":8692,"ĠGaryp":8693,"Ġopbringst":8694,"Ġargyf":8695,"Ġsulver":8696,"ĠKooistra":8697,"ĠRijks":8698,"ĠTOP":8699,"riemstra":8700,"Ġburgemeester":8701,"ĠAldeboarn":8702,"Ġallerhanne":8703,"Ġvervelend":8704,"Ġhurder":8705,"fryslan":8706,",'":8707,"24":8708,"39":8709,"55":8710,"Acht":8711,"Bra":8712,"Frij":8713,"FID":8714,"IN":8715,"Natuur":8716,"bru":8717,"bond":8718,"each":8719,"eters":8720,"fet":8721,"fel":8722,"histoar":8723,"iven":8724,"pleats":8725,"vier":8726,"erh":8727,"arant":8728,"Ġfaze":8729,"Ġsur":8730,"Ġdeta":8731,"Ġwoon":8732,"Ġwonen":8733,"stu":8734,"Ġgrap":8735,"Ġtol":8736,"Ġinv":8737,"Ġpopp":8738,"Ġopsp":8739,"Ġopfallend":8740,"terape":8741,"onken":8742,"Ġfoarop":8743,"Ġbewiis":8744,"Ġgec":8745,"oea":8746,"Ġsta":8747,"ĠFoar":8748,"ĠFoswert":8749,"ĠStelling":8750,"adoea":8751,"ĠÃºtkomme":8752,"ĠÃ»nbe":8753,"Ġnochal":8754,"unnel":8755,"ĠAv":8756,"Ġpleite":8757,"Ġdoss":8758,"Ġreid":8759,"Ġlichte":8760,"ĠDNA":8761,"ĠMaats":8762,"Ġproseduere":8763,"ĠKulturele":8764,"ĠGert":8765,"Ġkrimp":8766,"afees":8767,"ĠTim":8768,"Ġtsjins":8769,"spes":8770,"splan":8771,"Ġfersteur":8772,"Ġmanmachtich":8773,"Ġbeginnen":8774,"atelid":8775,"Ġplysjes":8776,"bouwe":8777,"Ġfierd":8778,"Ġzeer":8779,"heen":8780,"Ġsym":8781,"Ġeind":8782,"Ġnatoer":8783,"odder":8784,"Ġoverheid":8785,"Ġoverleg":8786,"ĠÃ»ndersykje":8787,"usema":8788,"Ġevene":8789,"ĠAnna":8790,"ĠbÃ»tenkant":8791,"issa":8792,"ugal":8793,"iveau":8794,"Ġschade":8795,"Ġdream":8796,"Ġromme":8797,"iÃ«r":8798,"Ġfuotbaljen":8799,"Ġfuotballer":8800,"Ġhobby":8801,"ĠUny":8802,"projekten":8803,"asisme":8804,"Ġcoronamaatregel":8805,"ĠbalÃ¢ns":8806,"ĠKNRM":8807,"Ġachttjin":8808,"edsmerk":8809,"ĠlÃ»den":8810,"allaasje":8811,"Ġsmiten":8812,"Ġkijkt":8813,"tekene":8814,"Ġkilometers":8815,"Ġvolgende":8816,"ĠDenemarken":8817,"ĠGerry":8818,"Ġwynstjitten":8819,"Ġenergie":8820,"Ġverspr":8821,"Ġyndustry":8822,"Ġrelay":8823,"Ġsinjaal":8824,"ĠÃºtfiere":8825,"izzer":8826,"Ġhynste":8827,"Ġkappers":8828,"ĠBosch":8829,"Ġtransport":8830,"Ġriedslid":8831,"Ġalternative":8832,"Ġoerlibbe":8833,"bestjoerder":8834,"Ġsponsoaren":8835,"Ġbestjoerslid":8836,"ĠÃ»nbekend":8837,"Ġferneamd":8838,"ĠÃºtstjit":8839,"ĠPatyna":8840,"Ġmuzikanten":8841,"ĠfersoargingshÃ»s":8842,"Kommissaris":8843,"ĠWinters":8844,"ĠPortugal":8845,"Ġsoarchynstellingen":8846,"Ġbezoekers":8847,"Ġynleverje":8848,"gelegenheid":8849,"Ġdireksje":8850,"ĠScheepstra":8851,"ĠLÃ¢nbou":8852,"Ġpublisearre":8853,"ĠStarum":8854,"Ġsneldyk":8855,"Ġcontainers":8856,"Ġylleg":8857,"Ġkjifk":8858,"ĠÃ»ntdutsen":8859,"ĠNieuwenhuizen":8860,"ĠELP":8861,"Ġeffekten":8862,"ĠUMCG":8863,"ĠEindhoven":8864,"FIDEO":8865,"Ġkjifkro":8866,"?\",":8867,"AS":8868,"Ef":8869,"Kramer":8870,"Lit":8871,"PN":8872,"Skip":8873,"bul":8874,"board":8875,"cker":8876,"ckers":8877,"drug":8878,"fun":8879,"fert":8880,"kor":8881,"kard":8882,"lje":8883,"pass":8884,"sde":8885,"ves":8886,"wo":8887,"wieren":8888,"Ġeten":8889,"tet":8890,"Ġduren":8891,"Ġdichter":8892,"Ġdikke":8893,"anderen":8894,"Ġfart":8895,"Ġsystemen":8896,"Ġwoenen":8897,"ĠmÃ»nen":8898,"Ġoait":8899,"robi":8900,"rick":8901,"Ã»ze":8902,"Ġpol":8903,"Ġopsjes":8904,"lizzen":8905,"kearre":8906,"ingers":8907,"akadoea":8908,"gebouwen":8909,"Ġfoarkar":8910,"ijven":8911,"Ġlot":8912,"innema":8913,"Ġoanwi":8914,"ĠstÃ¢l":8915,"Ġwurken":8916,"Ġjud":8917,"ilas":8918,"ĠSh":8919,"ĠSwe":8920,"ĠSuzanne":8921,"Ġoernaam":8922,"steande":8923,"ĠÃºtrop":8924,"ĠBur":8925,"ĠBaas":8926,"ĠHong":8927,"ĠLeer":8928,"Ġskerm":8929,"ĠNord":8930,"ĠNPO":8931,"Ġjierdei":8932,"Ġoargel":8933,"ĠMVV":8934,"ĠMitchel":8935,"ĠMaulun":8936,"ĠGrij":8937,"Ġbeswieren":8938,"aft":8939,"ota":8940,"ĠTop":8941,"ĠTriemstra":8942,"ĠCan":8943,"ĠCour":8944,"ĠEag":8945,"Ġminimaal":8946,"Ġbrand":8947,"rompel":8948,"Ġaanv":8949,"rijf":8950,"rijven":8951,"ferkie":8952,"Ġverke":8953,"Ġvervol":8954,"Ġbetink":8955,"istysk":8956,"Ġpartner":8957,"ĠÃ»ndersiken":8958,"delen":8959,"Ġ55":8960,"ryater":8961,"Ġflater":8962,"Ġtradis":8963,"Ġoerein":8964,"Ġmishannele":8965,"Ġ42":8966,"klus":8967,"Ġbesloten":8968,"Ġkwamen":8969,"ĠHarlingen":8970,"ĠCambuurstadion":8971,"Ġstrand":8972,"Ġspilen":8973,"Ġmedysk":8974,"Ġgelok":8975,"Ġsportfers":8976,"Ġfeilige":8977,"Ġbepale":8978,"Ġgevraagd":8979,"ĠBoersma":8980,"Ġpleatse":8981,"Ġtafal":8982,"onderd":8983,"onderzoek":8984,"Ġknip":8985,"Ġoplossings":8986,"Ġfeestdagen":8987,"Ġfielde":8988,"Ġiedere":8989,"Ġeksplos":8990,"Ġsjonger":8991,"ĠGerard":8992,"Elk":8993,"Ġbepaalt":8994,"Ġferkeapet":8995,"Ġtasein":8996,"Ġslimme":8997,"Harren":8998,"ervice":8999,"Ġbehand":9000,"Ġrestauraasje":9001,"Ġseeh":9002,"Ġ1943":9003,"griet":9004,"behearder":9005,"Ġsenioaren":9006,"ĠFerwert":9007,"Ġhanthavening":9008,"Berg":9009,"Ġynvestear":9010,"Ġkonkre":9011,"Ġstrangere":9012,"Ġbeschik":9013,"ĠSluiter":9014,"ĠbÃ»nte":9015,"Ġvoelt":9016,"Ġkranten":9017,"Ġverhalen":9018,"Ġoptim":9019,"Ġdrone":9020,"ĠMeulen":9021,"ĠLiander":9022,"Ġfleantugen":9023,"Ġkonkurrint":9024,"Ġbeskerming":9025,"offs":9026,"Ġfoldocht":9027,"ĠÃ»nÃ´fhinklik":9028,"ĠBonifati":9029,"Ġbiblioteek":9030,"eigener":9031,"Ġtijdens":9032,"Ġfernuvere":9033,"Ġferlieze":9034,"Ġwurksumheden":9035,"Ġoorlog":9036,"Ġsportskoalle":9037,"Freedsmerk":9038,"Ġtoilet":9039,"ĠSonny":9040,"ĠHaadstÃªd":9041,"ĠDagblad":9042,"ĠKoopmans":9043,"ĠhÃºshÃ¢ldens":9044,"Ġemoasje":9045,"Ġkommersjele":9046,"ĠTerpstra":9047,"Ġkonsekwinsjes":9048,"Ġferskriklik":9049,"NCW":9050,"Ġkrusing":9051,"ĠKeimpema":9052,"Ġlaptop":9053,"!\",":9054,"Faak":9055,"Fly":9056,"PvdA":9057,"Soks":9058,"VO":9059,"bÃ»":9060,"band":9061,"baas":9062,"gat":9063,"gunning":9064,"loft":9065,"lucht":9066,"mingen":9067,"mang":9068,"nÃ´ch":9069,"uers":9070,"wyt":9071,"wachte":9072,"Ġult":9073,"inu":9074,"Ġfiet":9075,"Ġform":9076,"Ġsier":9077,"Ġwoar":9078,"atmang":9079,"Ġneder":9080,"Ġkm":9081,"Ġkijk":9082,"Ġkateg":9083,"Ġtv":9084,"Ġtik":9085,"Ġyntsjin":9086,"Ġynkommen":9087,"Ġynstellingen":9088,"role":9089,"Ġpine":9090,"keamers":9091,"ura":9092,"oline":9093,"gew":9094,"Ġfoarjier":9095,"issen":9096,"Ġvo":9097,"Ġvacc":9098,"Ġderoer":9099,"Ġgemid":9100,"Ġgesproken":9101,"Ġmok":9102,"Ġferrast":9103,"Ġsto":9104,"Ġstoarn":9105,"Ġstiging":9106,"Ġstraat":9107,"ĠFilm":9108,"ĠSitt":9109,"ĠwolwÃªzen":9110,"ienn":9111,"Ġoernimme":9112,"Ġneili":9113,"ĠÃ»nf":9114,"ĠBas":9115,"ĠHein":9116,"ĠHelder":9117,"Ġrec":9118,"maak":9119,"Ġskrift":9120,"Ġlieden":9121,"Ġlibjen":9122,"ĠDel":9123,"ĠDre":9124,"ĠMiedema":9125,"skoar":9126,"skriften":9127,"ertif":9128,"umbo":9129,"ĠVel":9130,"ĠVNO":9131,"Ġbesit":9132,"Ġbesetting":9133,"afer":9134,"ĠTers":9135,"ĠTineke":9136,"Ġhelber":9137,"ĠEis":9138,"ĠEasten":9139,"effen":9140,"alema":9141,"Ġhoeveel":9142,"Ġtahe":9143,"Ġoantrek":9144,"Ġsteun":9145,"ingsdei":9146,"ingsferbÃ¢n":9147,"Ġwelke":9148,"Ġpartners":9149,"oelstra":9150,"Ġiepenlof":9151,"nimt":9152,"nimmen":9153,"Ġbena":9154,"deling":9155,"ivisie":9156,"ĠZeinstra":9157,"ĠIN":9158,"ĠId":9159,"ĠIssa":9160,"ĠIneke":9161,"wizen":9162,"Ġtraap":9163,"klass":9164,"Ġcoronaweach":9165,"ĠMargriet":9166,"Ġdeibesteging":9167,"Ġboerd":9168,"Ġterwijl":9169,"Ġadres":9170,"Ġdelsette":9171,"ĠSkar":9172,"Ġstrjit":9173,"Ġmominten":9174,"akkefean":9175,"Ġoantallen":9176,"ikehÃ»s":9177,"Ġideaal":9178,"Ġwylde":9179,"Ġrestau":9180,"Ġstudio":9181,"gonger":9182,"Ġswimbaden":9183,"ĠYork":9184,"Ġynsekten":9185,"laim":9186,"Ġbeheinen":9187,"igernÃ´ch":9188,"Ġprodukt":9189,"Gemeente":9190,"lichting":9191,"Ġkreas":9192,"Ġdoarpshuzen":9193,"ĠVeiligheid":9194,"lange":9195,"Ġlikegoed":9196,"ĠSmellinghe":9197,"Ġwenningbou":9198,"ĠEastermar":9199,"kunde":9200,"Ġgriente":9201,"ĠAndre":9202,"oneel":9203,"Ġklappen":9204,"Ġlijn":9205,"lÃªzen":9206,"ĠdrÃ»chte":9207,"Ġfolgjend":9208,"besteanden":9209,"pleeg":9210,"Ġbestriding":9211,"Ġsimmers":9212,"Ġstranger":9213,"ĠSlob":9214,"Ġdebat":9215,"ĠLandbouw":9216,"Ġoanfaller":9217,"Ġelektris":9218,"ilieu":9219,"spilers":9220,"ĠSijbrandij":9221,"stituut":9222,"Ġdriuwend":9223,"Ġoanbiede":9224,"ferbaal":9225,"ĠBooy":9226,"Ġspelers":9227,"zhei":9228,"ĠmilitÃªr":9229,"Premier":9230,"ĠDouwstra":9231,"Wetterskip":9232,"Ġwachtet":9233,"Ġneitinke":9234,"Ġvroeg":9235,"Ġferoarsake":9236,"Ġfolwoeksenen":9237,"ĠBrinkman":9238,"ĠÃºtferkocht":9239,"ĠBitgum":9240,"Ġynskeakele":9241,"ĠBurdaard":9242,"ĠAppelhof":9243,"Ġcoronamaatregelen":9244,"drugs":9245,"atmangoen":9246,"Ġgemiddeld":9247,"ĠSittard":9248,"ĠEastenryk":9249,"27":9250,"800":9251,"Ad":9252,"Nyk":9253,"Ryks":9254,"SG":9255,"aaf":9256,"akes":9257,"burgum":9258,"daad":9259,"egeling":9260,"fabryk":9261,"ize":9262,"ieder":9263,"kamer":9264,"mming":9265,"muzyk":9266,"rels":9267,"uker":9268,"erpe":9269,"indt":9270,"Ġbad":9271,"Ġbrom":9272,"Ġham":9273,"Ġnasjonaal":9274,"Ġniveau":9275,"Ġkatten":9276,"state":9277,"Ġynbrek":9278,"riding":9279,"Ġep":9280,"leven":9281,"leane":9282,"Ġpel":9283,"rearje":9284,"lise":9285,"Ġtev":9286,"amelijk":9287,"kenner":9288,"Ġlaag":9289,"Ġoanriding":9290,"Ġgem":9291,"Ġgemaal":9292,"Ġnetwurk":9293,"Ġferlyk":9294,"Ġferdieling":9295,"Ġferwurke":9296,"tske":9297,"ĠFol":9298,"ĠSP":9299,"zeker":9300,"Ġneibesteanden":9301,"ĠBed":9302,"ĠHeid":9303,"ĠHui":9304,"enske":9305,"universiteit":9306,"Ġcijfers":9307,"ĠLou":9308,"Ã´ffal":9309,"ĠAs":9310,"ĠWen":9311,"efkes":9312,"Ġlieder":9313,"ĠDurk":9314,"ĠMiyachi":9315,"ĠGrap":9316,"ĠJumbo":9317,"ĠVoor":9318,"Ġcoronas":9319,"ĠPlan":9320,"uls":9321,"uldig":9322,"agers":9323,"ekker":9324,"Ġtwang":9325,"ijnlijk":9326,"meenten":9327,"sem":9328,"Ġrioel":9329,"yld":9330,"Ġstev":9331,"Ġberekken":9332,"upporters":9333,"rÃ»ten":9334,"Ġbestuur":9335,"ĠÃ»ndersiker":9336,"Ġorganisearret":9337,"Ġtraint":9338,"Ġferhuze":9339,"Ġkwa":9340,"perhaus":9341,"ĠJansma":9342,"Ġrjochtsaak":9343,"Ġnedige":9344,"Ġmoandeitemiddei":9345,"Ġsoarchsintrum":9346,"Ġdelgong":9347,"fersk":9348,"Ġstrjitten":9349,"Ġroute":9350,"ĠfuotbalbÃ»n":9351,"aasjet":9352,"Ġferoarjen":9353,"Ġskriuwers":9354,"Hoefolle":9355,"Trochdat":9356,"Ġsituaasjes":9357,"noaien":9358,"isjatyf":9359,"Ġgevonden":9360,"Ġrappe":9361,"ĠGroen":9362,"Ġkultureel":9363,"ĠsÃ¢nde":9364,"oareka":9365,"rika":9366,"Ġresjerzje":9367,"Ġstimme":9368,"Ġswimmen":9369,"Ġbarren":9370,"ĠYou":9371,"ĠRoos":9372,"maatskip":9373,"onomy":9374,"Ġsjong":9375,"Ġferdjip":9376,"ĠgearwurkingsferbÃ¢n":9377,"Eltsenien":9378,"ĠdÃ»bel":9379,"Ġleveret":9380,"audet":9381,"Ġfoarstellingen":9382,"ĠBosma":9383,"Meardere":9384,"Jansen":9385,"ĠKanada":9386,"ĠgreidefÃ»gel":9387,"Ġopdrachten":9388,"ĠLeeuwarder":9389,"Ġmeinommen":9390,"sprogramma":9391,"ĠHaanstra":9392,"ĠWarten":9393,"Ġclubs":9394,"Ġfretten":9395,"pakket":9396,"ĠwrÃ¢ldbekerwedstriden":9397,"Ġteloarstelling":9398,"ĠbÃ»tend":9399,"ĠtsjÃ»ge":9400,"Ġconc":9401,"kwaliteit":9402,"Ġfernielingen":9403,"Ġbegrip":9404,"Ġkostje":9405,"ventaris":9406,"Ġdemonstraasjes":9407,"Ġfantastisch":9408,"Ġpresintaasje":9409,"ĠKarin":9410,"ferbining":9411,"Ġfruit":9412,"Ġomroppen":9413,"ĠFrouljus":9414,"Ġrustig":9415,"ĠreinbÃ´geflagge":9416,"illert":9417,"ĠNatuurmonumenten":9418,"Tagelyk":9419,"Ġkaartsje":9420,"Ġiensumens":9421,"Ġtanimt":9422,"Ġopfolger":9423,"Ġrotonde":9424,"ĠBauke":9425,"Ġneedferoardering":9426,"Campina":9427,"Ġkonkurrinsje":9428,"ĠWerkman":9429,"Ġdiskriminaasje":9430,"Ġlaboratoar":9431,"ĠFolkssÃ»nens":9432,"Rykswettersteat":9433,"ĠGrapperhaus":9434,"?'<|":9435,"Koart":9436,"Lear":9437,"Rutte":9438,"Soarch":9439,"Veel":9440,"ah":9441,"hÃ´f":9442,"hoarne":9443,"ior":9444,"iver":9445,"jal":9446,"prate":9447,"rel":9448,"rÃ¢n":9449,"uter":9450,"ube":9451,"vangen":9452,"wit":9453,"xit":9454,"zjer":9455,"Ġarre":9456,"anc":9457,"Ġfli":9458,"Ġfirt":9459,"Ġsmo":9460,"ĠsÃ»ne":9461,"Ġsommige":9462,"Ġdeur":9463,"Ġmolk":9464,"Ġbakker":9465,"Ġhoelang":9466,"Ġkroegen":9467,"alstra":9468,"Ġind":9469,"lecht":9470,"leggen":9471,"Ġpoer":9472,"Ġpandemy":9473,"Ġopstelling":9474,"edyk":9475,"deasten":9476,"Ġmeiwurkje":9477,"amie":9478,"gefal":9479,"Ġbestel":9480,"issel":9481,"Ġomgeving":9482,"Ġveld":9483,"Ġdernei":9484,"ĠoanhÃ¢lde":9485,"Ġferrint":9486,"Ġferdielen":9487,"eard":9488,"ĠFormule":9489,"ĠSter":9490,"Ġoerhinne":9491,"imd":9492,"Ġsecht":9493,"ĠÃºtrikt":9494,"idige":9495,"ĠBoel":9496,"ĠBijl":9497,"ĠBakkefean":9498,"ĠLonden":9499,"liker":9500,"Ġsake":9501,"ĠÃ´fbrutsen":9502,"Ġerken":9503,"ĠWÃ¢lden":9504,"ikuli":9505,"Ġharsens":9506,"ĠDer":9507,"ĠDanny":9508,"ĠDutch":9509,"ĠMet":9510,"ĠMienskip":9511,"skrift":9512,"ĠKerk":9513,"umm":9514,"ĠVen":9515,"utten":9516,"ĠRekken":9517,"afel":9518,"ĠPark":9519,"ĠPAL":9520,"Ġtsiis":9521,"ĠÃ»nderfre":9522,"ipp":9523,"ekke":9524,"Ġdistri":9525,"spunt":9526,"Ġvoordat":9527,"verhard":9528,"ylan":9529,"Ġhoeven":9530,"wurken":9531,"Ġsluiten":9532,"Ġstekt":9533,"Ġfregen":9534,"zjes":9535,"Ġbenijd":9536,"Ġfinansier":9537,"Ġrekl":9538,"ĠZienn":9539,"ĠÃ»ntb":9540,"rans":9541,"rante":9542,"Ġ48":9543,"Ġsneontenacht":9544,"ĠÃºtsein":9545,"Ġfean":9546,"Ġferbliuw":9547,"Ġferbettere":9548,"Ġschip":9549,"Ġanderen":9550,"sintra":9551,"Ġlangebaan":9552,"ĠGrand":9553,"lefoan":9554,"Ġblijkt":9555,"Ġhelpferlieners":9556,"Ġoanpaste":9557,"ĠÃ»ngelokken":9558,"ĠbegÃ»nen":9559,"Ġhoarekas":9560,"Ġ130":9561,"Ġrun":9562,"Ġferkearde":9563,"laach":9564,"Ġbeheinde":9565,"Ġduo":9566,"Ġbelutsenen":9567,"Ġmogelijkheden":9568,"Ġkreeg":9569,"Ġdrugsl":9570,"Ġgeweldige":9571,"Ġtechnyk":9572,"Ġtaname":9573,"Ġfoarstelle":9574,"Ġdrugshannel":9575,"Ġkenne":9576,"Ġtekene":9577,"Ġfyfde":9578,"indert":9579,"kommod":9580,"Ġfunks":9581,"Ġboskwachter":9582,"Ġhistoarje":9583,"ĠAndries":9584,"Ġherken":9585,"ĠHerman":9586,"ĠRobin":9587,"Ġgarande":9588,"ettinga":9589,"Ġslotfaze":9590,"Ġferdwynt":9591,"Ġbruorren":9592,"Ġstreekrjocht":9593,"ĠCarola":9594,"ĠreedrydbÃ»n":9595,"kwart":9596,"ĠOerol":9597,"Hielendal":9598,"Ġallerlei":9599,"NSF":9600,"zore":9601,"chelling":9602,"Ġtsjinstanners":9603,"ĠVlap":9604,"Ġflakby":9605,"lexander":9606,"ĠEkonomyske":9607,"Ġneedsaaklik":9608,"ĠOratmangoen":9609,"ĠPortuge":9610,"Ġfavoryt":9611,"Ġkontenerramp":9612,"Ġjuridysk":9613,"ĠGroenewoud":9614,"ĠÃºtnÃ»ge":9615,"gefaar":9616,"Ġrichting":9617,"ĠÃºtsÃ»ndering":9618,"ĠPoalen":9619,"Gelokkich":9620,"Ġyndividuele":9621,"Ġtemperatueren":9622,"Ġstarten":9623,"ĠÃºtwreiding":9624,"ĠRuslÃ¢n":9625,"presidint":9626,"Ġprivacy":9627,"Ġskulden":9628,"Ġoantinkens":9629,"ĠElfstedentocht":9630,"Ġwensoarchsintrum":9631,"Ġonderste":9632,"Ġmelkfee":9633,"Ġmoderne":9634,"Ġhjiroer":9635,"Ġbemanning":9636,"kompleks":9637,"Dijkstra":9638,"Ġkjifkrobbe":9639,"ĠÃºtroppen":9640,"ĠCourant":9641,"zheimer":9642,"ĠRekkenkeamer":9643,"22":9644,"Ho":9645,"Ju":9646,"Man":9647,"Nij":9648,"Pie":9649,"Sad":9650,"Tal":9651,"Uiteindelijk":9652,"bur":9653,"bran":9654,"dings":9655,"date":9656,"dragen":9657,"fÃªst":9658,"grond":9659,"ial":9660,"js":9661,"kafee":9662,"laat":9663,"lyt":9664,"mom":9665,"otste":9666,"si":9667,"toe":9668,"vis":9669,"zier":9670,"Ġdik":9671,"Ġdup":9672,"erst":9673,"iny":9674,"anker":9675,"arren":9676,"Ġfet":9677,"Ġfjilden":9678,"Ġfeiten":9679,"Ġshow":9680,"Ġdeaden":9681,"Ġdezelfde":9682,"Ġdemok":9683,"Ġwiss":9684,"Ġmat":9685,"Ġmik":9686,"Ġoud":9687,"Ġoriz":9688,"ĠbÃ¢n":9689,"Ġbul":9690,"ĠbÃ»nscoach":9691,"atoaren":9692,"Ġheden":9693,"Ġkites":9694,"Ġkoka":9695,"sto":9696,"stiid":9697,"stÃºn":9698,"alich":9699,"Ġtunnel":9700,"Ġynbraken":9701,"leazen":9702,"lies":9703,"limaat":9704,"ash":9705,"ondere":9706,"amine":9707,"gewaasje":9708,"Ġfoarrang":9709,"ĠbeÃ¤":9710,"Ġlading":9711,"Ġvorm":9712,"yselde":9713,"Ġalgemeen":9714,"Ġferstannich":9715,"Ġferbouwing":9716,"tent":9717,"steam":9718,"Ġzaak":9719,"ĠÃºtinoar":9720,"ĠÃºtwedstriid":9721,"ĠÃ»nmooglik":9722,"idich":9723,"ĠBlok":9724,"Ġasfalt":9725,"wezig":9726,"Ġcom":9727,"Ġcapaciteit":9728,"eslach":9729,"Ġplus":9730,"ĠÃ´fset":9731,"Ġerbij":9732,"ĠWieren":9733,"ĠNS":9734,"Ġras":9735,"Ġlijen":9736,"ĠDieren":9737,"ĠMerk":9738,"Ġprostit":9739,"Ġproject":9740,"ĠKamminga":9741,"achters":9742,"ĠVogel":9743,"ĠVitesse":9744,"Ġearnst":9745,"ĠTryater":9746,"Ġwaardoor":9747,"Ġbegonnen":9748,"enno":9749,"Ġbedri":9750,"Ġsneu":9751,"Ġvertellen":9752,"rekking":9753,"Ġpartikuli":9754,"Ġgewend":9755,"manager":9756,"Ġboeten":9757,"skea":9758,"Ġbestie":9759,"Ġ56":9760,"ĠIzore":9761,"ĠbrÃ¢nsj":9762,"Ġsymb":9763,"Ġflat":9764,"Ġraar":9765,"Meiwurkers":9766,"werking":9767,"Ġeinliks":9768,"Ġeiniget":9769,"Ġdienen":9770,"ĠMarijke":9771,"itsjerke":9772,"ĠÃ»ndersykjen":9773,"ĠÃºtsl":9774,"Ġtreft":9775,"Ġtreffe":9776,"ĠHarm":9777,"Ġtinte":9778,"Ġafhankelijk":9779,"ict":9780,"Ġjierrenlang":9781,"smaat":9782,"ĠSpan":9783,"ĠArd":9784,"Ġfamyljes":9785,"ĠBousema":9786,"Ġheechwurker":9787,"Ġbasisskoallen":9788,"Ġdrage":9789,"merking":9790,"Ġkopgroep":9791,"Ġbuske":9792,"Ġtopsport":9793,"ĠAmsterdammers":9794,"Ġsjauffeurs":9795,"ĠHospes":9796,"landen":9797,"ĠChris":9798,"Ġstjoerde":9799,"agemaal":9800,"Ġynspek":9801,"ĠPieters":9802,"Ġsamenleving":9803,"Ġkeatspartij":9804,"speeld":9805,"Ġstrafskop":9806,"Ġriedsgearkomste":9807,"oedselbanken":9808,"Ġferspriede":9809,"Ġalternativen":9810,"Ġatt":9811,"Ġoerlibje":9812,"ĠHerberg":9813,"Ġferantwurdlikheid":9814,"Ġynvestearje":9815,"Ġbreder":9816,"ĠWiebe":9817,"ferliening":9818,"Ġsechsde":9819,"ĠWerf":9820,"ĠWergea":9821,"ĠTsjakadoea":9822,"ĠOerterp":9823,"Ġopsmiten":9824,"Ġbelesting":9825,"Ġbedriuwslibben":9826,"Tegearre":9827,"Ġskilderij":9828,"Ġstipet":9829,"belesting":9830,"Ġzomaar":9831,"Ġferkiezing":9832,"doarp":9833,"Ġskouders":9834,"duksje":9835,"ĠWageningen":9836,"mjittich":9837,"Ġhimpkwe":9838,"Ġkursus":9839,"Ġdisc":9840,"Eigener":9841,"Ġynfolling":9842,"ĠdÃºdlikens":9843,"ĠSimon":9844,"Ã¨re":9845,"Ġfentilaasje":9846,"Ġljipaai":9847,"Ġdirect":9848,"ĠfinanciÃ«le":9849,"ĠProvinsjehÃ»s":9850,"Ġregistrearre":9851,"ĠnÃ»mers":9852,"Ġrekening":9853,"Ġflaggen":9854,"ĠhygiÃ«ne":9855,"Ġynsidinten":9856,"ĠAvine":9857,"ĠSweed":9858,"Bergsma":9859,"ĠBonifatius":9860,"Ġvaccin":9861,"Ġorizjin":9862,"23":9863,"Achter":9864,"Coron":9865,"Epke":9866,"Gro":9867,"Gri":9868,"Ha":9869,"Men":9870,"Mid":9871,"Sal":9872,"Ster":9873,"Ter":9874,"Tot":9875,"back":9876,"ekt":9877,"ektor":9878,"ffen":9879,"jale":9880,"kings":9881,"kbaar":9882,"lon":9883,"last":9884,"ow":9885,"oai":9886,"pun":9887,"sbrand":9888,"vann":9889,"woord":9890,"zond":9891,"Ġup":9892,"offers":9893,"Ġseld":9894,"Ġsco":9895,"Ġbije":9896,"Ġboeke":9897,"ĠhÃ´f":9898,"chje":9899,"Ġkiel":9900,"Ġkep":9901,"Ġynh":9902,"Ġeefkes":9903,"Ġpakes":9904,"ress":9905,"ĠophÃ¢lden":9906,"nemen":9907,"asiteit":9908,"urne":9909,"dek":9910,"aksel":9911,"Ġfoarkomt":9912,"Ġbeurs":9913,"isters":9914,"Ġomstanners":9915,"Ġve":9916,"ĠferrÃ»n":9917,"oekt":9918,"ĠFokk":9919,"ĠSo":9920,"Ġbykaam":9921,"Ġzagen":9922,"ĠÃºtjouwer":9923,"ĠÃºtmakke":9924,"ĠBS":9925,"ĠHem":9926,"ĠHau":9927,"Ġskries":9928,"Ġdood":9929,"Ġweryn":9930,"Ġwerden":9931,"ĠNL":9932,"Ġsprekt":9933,"ĠDon":9934,"ĠDra":9935,"ertoernoai":9936,"ĠGytsjerk":9937,"ĠGalema":9938,"achel":9939,"ĠVal":9940,"Ġcoronast":9941,"utraal":9942,"ĠROC":9943,"Ġearen":9944,"oton":9945,"ĠPau":9946,"Ġditsoarte":9947,"oane":9948,"Ġtwongen":9949,"ĠEric":9950,"eidzjen":9951,"ogroep":9952,"Marie":9953,"Ġvoorstellen":9954,"seaan":9955,"igd":9956,"bestri":9957,"Ġkonsint":9958,"aktiviteiten":9959,"Ġmanifest":9960,"Ġberikber":9961,"ferienings":9962,"anners":9963,"stellend":9964,"Ġverl":9965,"Ġveranderen":9966,"jerken":9967,"Ġbetsjin":9968,"Ġbellen":9969,"Ġbeleid":9970,"Ġbelange":9971,"daten":9972,"box":9973,"Ġiepenjen":9974,"delijke":9975,"ĠIl":9976,"ĠIris":9977,"head":9978,"ĠbrÃ¢nstichting":9979,"jochters":9980,"Ġorganiseren":9981,"ĠÃ»ntf":9982,"ĠStu":9983,"learaar":9984,"ukken":9985,"plannen":9986,"plaats":9987,"klok":9988,"Ġwilden":9989,"Ġfertriet":9990,"ĠSchur":9991,"Ġdoelgroep":9992,"Ġgeduld":9993,"Ġhiere":9994,"Ġfroulike":9995,"Ġpositieve":9996,"Ġgroepkes":9997,"fangen":9998,"model":9999,"Ġfallyt":10000,"Ġjongste":10001,"Ġfuotballe":10002,"lachjouwers":10003,"ĠUt":10004,"pelijke":10005,"Ġregeljouwing":10006,"ĠIngels":10007,"Ġonzeker":10008,"Unders":10009,"ĠGemeente":10010,"trein":10011,"ĠElzinga":10012,"Ġynsetten":10013,"Ġvolgend":10014,"water":10015,"Ġbewarre":10016,"Ġargewaasje":10017,"Ġsadwaande":10018,"Ġaltiten":10019,"ĠGerben":10020,"ĠHout":10021,"ĠkreÃ«":10022,"ĠHecke":10023,"porten":10024,"roege":10025,"ĠChrist":10026,"Ġstjoeren":10027,"Ġcamper":10028,"Ġyndie":10029,"Ġstekpartij":10030,"Ġzorgt":10031,"Undernimmers":10032,"waarm":10033,"Ġagint":10034,"Ġaginten":10035,"Ġsuvel":10036,"Ġfersoarget":10037,"Ġtanaam":10038,"Ġfoarstellen":10039,"izzing":10040,"Ġopposysje":10041,"Ġ1942":10042,"ĠferpleechhÃ»zen":10043,"Ġynstit":10044,"outum":10045,"ĠReade":10046,"hinklike":10047,"ĠWarns":10048,"Ġkwetsber":10049,"Ġhanthavenje":10050,"teams":10051,"Ġbakje":10052,"Johan":10053,"ĠSwan":10054,"ĠdrÃ»ge":10055,"ferlies":10056,"Ġbeslist":10057,"ĠNOC":10058,"Ġeksamen":10059,"Ġstuollen":10060,"ĠCornel":10061,"Ġvoelen":10062,"ĠwrÃ¢l":10063,"Ġkonklude":10064,"Ġdrones":10065,"Ġstruktuer":10066,"Ġtrend":10067,"ĠÃ´fwachtsjen":10068,"ĠMartinitsjerke":10069,"ĠthÃºsk":10070,"Ġklimaatferoar":10071,"Ġkwealik":10072,"kanaal":10073,"matyk":10074,"ĠBootsma":10075,"problemen":10076,"Reed":10077,"ĠrÃ´p":10078,"Ġgezondheid":10079,"gefoel":10080,"Ġyntinsyf":10081,"wimbad":10082,"ĠSneek":10083,"Ġannulear":10084,"ĠRomke":10085,"Ġautomobilist":10086,"ĠLimboarch":10087,"ĠWoudagemaal":10088,"Ġprofesjonele":10089,"Ġvriend":10090,"Ġmedisinen":10091,"Ġproteste":10092,"Ġbeneamd":10093,"Ġtariedingen":10094,"ĠHooge":10095,"ĠArnhem":10096,"ĠKrÃºs":10097,"Ġmondkapje":10098,"eksjesyk":10099,"Ġekstern":10100,"ĠHeeringa":10101,"Ġmeegemaakt":10102,"Twadde":10103,"Natuurlijk":10104,"Ġpoppo":10105,"Ġpleitet":10106,"ĠLeerdam":10107,"ĠNordwin":10108,"ĠTerschelling":10109,"ĠkokaÃ¯ne":10110,"Ġsymboal":10111,"'-":10112,"Hoek":10113,"LU":10114,"MI":10115,"Moarn":10116,"Or":10117,"Vol":10118,"Zorg":10119,"df":10120,"hen":10121,"jert":10122,"kust":10123,"las":10124,"leit":10125,"nal":10126,"namme":10127,"ppe":10128,"rÃ´":10129,"utear":10130,"uiden":10131,"vint":10132,"woners":10133,"zend":10134,"Ġachte":10135,"ĠâĢ":10136,"ĠQu":10137,"Ġdrompel":10138,"erstra":10139,"ofer":10140,"arije":10141,"Ġsyd":10142,"Ġdelen":10143,"Ġike":10144,"Ġwiet":10145,"Ġwette":10146,"Ġmaten":10147,"Ġob":10148,"Ġoude":10149,"Ġoersjoch":10150,"Ġoalje":10151,"Ġbas":10152,"etitia":10153,"Ġner":10154,"eljen":10155,"Ġkafees":10156,"stal":10157,"jeu":10158,"Ġgister":10159,"alm":10160,"Ġynstelling":10161,"Ġynbraak":10162,"leaster":10163,"Ã»ken":10164,"reem":10165,"Ġoptein":10166,"lieg":10167,"deb":10168,"aking":10169,"Ġfoard":10170,"Ã»ngelok":10171,"Ġbesteld":10172,"ĠbehÃ¢ld":10173,"Ġleren":10174,"Ġlukt":10175,"Ġvrouwen":10176,"Ġvader":10177,"Ġvindt":10178,"Ġoanfallen":10179,"Ġoanmerking":10180,"Ġferjitte":10181,"earden":10182,"ĠSee":10183,"ĠSwarte":10184,"ĠSjinkie":10185,"Ġbytiden":10186,"Ġseinen":10187,"Ġwegere":10188,"Ġzicht":10189,"ruim":10190,"ĠBei":10191,"ĠBoonstra":10192,"ĠHid":10193,"Ã¢lde":10194,"okke":10195,"Ġrem":10196,"Ġcent":10197,"ĠLy":10198,"ĠAart":10199,"likt":10200,"esters":10201,"ĠWit":10202,"ĠWeen":10203,"Ġdone":10204,"Ġspoaren":10205,"Ġsprekke":10206,"Ġspringen":10207,"Ġraken":10208,"Ġliken":10209,"ĠDalstra":10210,"ĠDroege":10211,"ĠMaat":10212,"ĠKuorbal":10213,"ĠJillert":10214,"Ġbeswier":10215,"astricht":10216,"ĠRKC":10217,"ĠPh":10218,"ĠPleatslik":10219,"ĠTo":10220,"ĠTom":10221,"ĠTsje":10222,"Ġmakkelijk":10223,"Ġbliek":10224,"Ġvoort":10225,"ĠOM":10226,"ĠOss":10227,"Ġklass":10228,"riuwer":10229,"Ġactie":10230,"iovann":10231,"Ġhiem":10232,"Ġbetrokken":10233,"Ãºster":10234,"boom":10235,"Ġtribu":10236,"Ġgrootste":10237,"Ġboot":10238,"aire":10239,"estival":10240,"rachten":10241,"ĠhjirÃ»nder":10242,"lijnen":10243,"Ġtalitte":10244,"Ġword":10245,"ĠStaartjes":10246,"Ġrac":10247,"learm":10248,"Ġwilt":10249,"uiste":10250,"Ġafspraken":10251,"Ġ66":10252,"ĠJood":10253,"ĠAnder":10254,"Ġprestaasje":10255,"issie":10256,"Ġbegjinnen":10257,"Frysk":10258,"help":10259,"ugger":10260,"ĠSteensma":10261,"Ġmedi":10262,"Ġadvizen":10263,"Ġadviseur":10264,"Ġskema":10265,"Ġfuotballers":10266,"Ġtoeristyske":10267,"Ġprioriteit":10268,"lisse":10269,"ĠdÃªrneist":10270,"Ġparse":10271,"Ġbetellet":10272,"Ġkampioens":10273,"Ġoanpakke":10274,"ĠKees":10275,"Ġferklearre":10276,"markt":10277,"Ġtelt":10278,"Ġjunioaren":10279,"tree":10280,"tsjinst":10281,"kapasiteit":10282,"Ġgezet":10283,"iliteit":10284,"Ġlobby":10285,"Ġstimd":10286,"bierrum":10287,"stregeling":10288,"Ġfergun":10289,"Ġstride":10290,"Ġkreative":10291,"Ġnaast":10292,"ĠHege":10293,"Ġaardige":10294,"roeger":10295,"Ġfari":10296,"rjochten":10297,"Ġbehoe":10298,"reiz":10299,"Ġfoarmje":10300,"Ġkapper":10301,"Ġfoelen":10302,"Ġgerjocht":10303,"ĠRea":10304,"ĠÃ»nderdielen":10305,"Ġeffect":10306,"Ġantwurden":10307,"wethÃ¢lder":10308,"ĠHaach":10309,"Ġminste":10310,"ĠÃ»nwisse":10311,"Ġredaksje":10312,"Ġgroeien":10313,"Ġhotels":10314,"Ġstukje":10315,"ĠÃ»nderdÃ»k":10316,"isseur":10317,"Ġkwartfinale":10318,"ĠJorwert":10319,"Ġziekte":10320,"ĠMaastricht":10321,"Ġamateurf":10322,"ĠEarste":10323,"Ġduorsumens":10324,"Ġpromovearje":10325,"nimmend":10326,"Ġsantich":10327,"Ġjuridyske":10328,"ĠreinbÃ´geprovinsje":10329,"advys":10330,"Ġkandidaat":10331,"ĠFÃ»gelbeskerming":10332,"Ġspringe":10333,"ĠIJs":10334,"ĠKoarnwer":10335,"Ġbiosk":10336,"Ġtichterby":10337,"ĠKommisje":10338,"Ġdegradaasje":10339,"Ġbegrijpen":10340,"Ġfrisse":10341,"DÃªrop":10342,"wadrant":10343,"Ġyngewikkeld":10344,"Ġoarspronklik":10345,"alyze":10346,"foarsjenning":10347,"Ġagraryske":10348,"Ġmaterialen":10349,"Ġsanit":10350,"Ġeconom":10351,"Ġknibbel":10352,"ĠlearkrÃªften":10353,"ĠFytsalvestÃªdetocht":10354,"ĠDonkerbroek":10355,"Ġdrugslab":10356,"Ġfunksjone":10357,"ĠÃ»ntfongen":10358,"iovanni":10359,"'.\"<|":10360,"34":10361,"AM":10362,"At":10363,"Best":10364,"Corona":10365,"Eart":10366,"Hjoed":10367,"OA":10368,"Plysje":10369,"Sommige":10370,"UMO":10371,"aast":10372,"bÃºsje":10373,"eens":10374,"flier":10375,"hÃ¢n":10376,"halen":10377,"hats":10378,"iro":10379,"jar":10380,"jÃªre":10381,"ksjes":10382,"kmaar":10383,"ls":10384,"nik":10385,"nivo":10386,"pleat":10387,"pleech":10388,"rof":10389,"sw":10390,"top":10391,"uder":10392,"was":10393,"wachters":10394,"zij":10395,"Ã¸":10396,"Ġut":10397,"ener":10398,"Ġdonker":10399,"Ġdrink":10400,"erten":10401,"ender":10402,"Ġfout":10403,"Ġmus":10404,"Ġbom":10405,"etitie":10406,"chief":10407,"ĠkÃ¢ld":10408,"ynd":10409,"Ġtad":10410,"Ġtou":10411,"Ġinmiddels":10412,"Ġinternation":10413,"Ġyngean":10414,"Ġynrjochting":10415,"Ġynnov":10416,"Ġynventaris":10417,"route":10418,"Ġeval":10419,"lemint":10420,"keakele":10421,"ingel":10422,"nemer":10423,"Ġtebek":10424,"aslach":10425,"ersch":10426,"akkoart":10427,"Ġfoarbylden":10428,"derje":10429,"derjen":10430,"Ġlul":10431,"Ġvoeren":10432,"Ġfermoed":10433,"Ġferlitte":10434,"Ġstru":10435,"Ġstond":10436,"Ġjuiste":10437,"illen":10438,"ĠSaa":10439,"ĠSmid":10440,"Ġzul":10441,"ida":10442,"ĠBal":10443,"ĠBli":10444,"ĠBak":10445,"ĠBureau":10446,"ĠBaudet":10447,"ĠHeij":10448,"Ġrep":10449,"opvang":10450,"ĠLu":10451,"Ġsko":10452,"ĠÃ´fjÃ»n":10453,"appar":10454,"Ġerop":10455,"Ġervan":10456,"Ġernst":10457,"ĠWater":10458,"ĠWijf":10459,"Ġrasisme":10460,"ktalige":10461,"oede":10462,"ĠDaan":10463,"ĠDennis":10464,"ĠMau":10465,"ĠKammen":10466,"ĠKamer":10467,"irc":10468,"ĠJoch":10469,"Ġlede":10470,"Ġleau":10471,"oerheid":10472,"ĠEU":10473,"bbing":10474,"Ġgemeentlike":10475,"Ġvoorbij":10476,"igranten":10477,"Ġrike":10478,"Ġonver":10479,"ĠOtter":10480,"Ġhoek":10481,"Ġwurkplak":10482,"Ġkondysje":10483,"Ġsteaten":10484,"Ġverk":10485,"rekte":10486,"Ġkeamers":10487,"Ã»ndernimmer":10488,"Ġiepenet":10489,"Ġbestaan":10490,"Ġfinales":10491,"lands":10492,"foaren":10493,"Ġfile":10494,"Ġskoaljier":10495,"Foardat":10496,"Ġ52":10497,"ĠwetterstÃ¢n":10498,"Ġwetterpeil":10499,"wachten":10500,"Ġflammen":10501,"Ġbinnenkaam":10502,"Ġmisstannen":10503,"situ":10504,"Sawol":10505,"ĠMarcel":10506,"Ġnuvere":10507,"egd":10508,"Ġoveral":10509,"Ġtreast":10510,"ĠHarkema":10511,"Ġkrijst":10512,"ytburo":10513,"aait":10514,"scher":10515,"ĠJohann":10516,"ica":10517,"ĠJanssen":10518,"Ġgedachte":10519,"ĠbrÃ»kte":10520,"Ġprem":10521,"Ġseizoenen":10522,"Ġdellein":10523,"mogen":10524,"mobyl":10525,"rinnen":10526,"Ġgauris":10527,"proses":10528,"ĠefterÃºt":10529,"Ġwichtiger":10530,"Ġreitsjen":10531,"ĠDÃºtsk":10532,"noaze":10533,"Ġhearden":10534,"ĠNoardburgum":10535,"Ġkoarter":10536,"tsein":10537,"Ġknoop":10538,"Ġambassadeur":10539,"Ġ125":10540,"Ġiisstadion":10541,"Ġstimming":10542,"Ġkleuren":10543,"strjitten":10544,"atsoen":10545,"Ġ2008":10546,"Ġmanieren":10547,"Ġgeheim":10548,"Eltse":10549,"Ġopsykje":10550,"Ġwerklik":10551,"Ġinisjatyfnimmer":10552,"bbegea":10553,"Ġmotiv":10554,"ĠBrexit":10555,"Ġsterkste":10556,"stappe":10557,"ĠVerbeek":10558,"Ġfearboat":10559,"Ġslagje":10560,"Ġskiedsrjochter":10561,"Ġtekeningen":10562,"Ġhegeskoalle":10563,"ĠdÃªroan":10564,"ologen":10565,"Ġpleatslike":10566,"Ġliedt":10567,"Ġdefinitive":10568,"VVD":10569,"Ġbrede":10570,"iÃ«nt":10571,"Ġbeschermen":10572,"Allinne":10573,"ĠhÃ¢lding":10574,"Ġferbetterje":10575,"fraksjefoarsitter":10576,"ĠCitrix":10577,"Ġfiskje":10578,"ĠTsjumm":10579,"ucas":10580,"Ġsnappe":10581,"Ġmeidocht":10582,"Ġleeftyd":10583,"Ġkeninginne":10584,"hawwer":10585,"Ġtemjitte":10586,"Ġtrof":10587,"ĠMichel":10588,"Ġmessen":10589,"Ġbelibje":10590,"Ġferkiezingen":10591,"ĠPatrick":10592,"Ġdrinke":10593,"ĠSteateleden":10594,"Ġtwivels":10595,"ĠUniversiteit":10596,"Ġkerst":10597,"Ġgeneraasje":10598,"Ġsocial":10599,"Ġverantwoord":10600,"ĠGroeneveld":10601,"Ġontwikkeling":10602,"ĠLauwersmar":10603,"kolleezje":10604,"ĠÃ»nÃ´fhinklike":10605,"ferhalen":10606,"ĠPolytburo":10607,"standigheden":10608,"Ġoerdroegen":10609,"Thialf":10610,"Ġrespekt":10611,"ĠwrÃ¢ldkampioen":10612,"krÃªft":10613,"Ġsoldaten":10614,"Ã»ntwikkeling":10615,"Ġsjonge":10616,"ĠRuijven":10617,"ĠoertsjÃ»ge":10618,"Ġlocatie":10619,"ĠÃ»ntbleat":10620,"Ġpompe":10621,"ĠBokma":10622,"Ġfearnsjier":10623,"Ġbudzjet":10624,"Ġfersoargingste":10625,"Ġabonne":10626,"ĠÃ»ntromme":10627,"ĠferhÃ¢lding":10628,"aranta":10629,"stuollen":10630,"terapeut":10631,"Ġsympt":10632,"ĠGrijpstra":10633,"Ġbeschikbaar":10634,"Ġiepenloftsp":10635,"Ġelektrisiteit":10636,"maatskippij":10637,"ĠbÃ»tendoar":10638,"Ġhimpkwekerij":10639,"Salang":10640,"Hoekstra":10641,"ĠWeening":10642,"ĠDroegeham":10643,"ĠSaailÃ¢n":10644,"ĠTsjummearum":10645,"90":10646,"Alexander":10647,"BT":10648,"Her":10649,"KN":10650,"Museum":10651,"Rob":10652,"Tink":10653,"Tube":10654,"UP":10655,"WA":10656,"azer":10657,"doen":10658,"diep":10659,"egel":10660,"him":10661,"izze":10662,"jut":10663,"lts":10664,"mm":10665,"mam":10666,"mings":10667,"oris":10668,"pakke":10669,"poort":10670,"ser":10671,"slÃ¢n":10672,"sjoen":10673,"swert":10674,"uort":10675,"wan":10676,"zaak":10677,"testen":10678,"Ġdor":10679,"ĠdÃ»n":10680,"inings":10681,"Ġflearm":10682,"Ġsinds":10683,"Ġwan":10684,"Ġwid":10685,"Ġmaster":10686,"Ġmoard":10687,"Ġmorgen":10688,"Ġbron":10689,"Ġbrutsen":10690,"Ġherstel":10691,"Ġhoger":10692,"Ġname":10693,"oarde":10694,"riks":10695,"Ġeast":10696,"Ġpiken":10697,"Ġopfange":10698,"keunst":10699,"Ġteplak":10700,"Ġtegelijk":10701,"Ġtekoarten":10702,"itens":10703,"ieveld":10704,"ammel":10705,"geand":10706,"Ġfoarme":10707,"Ġfoarried":10708,"Ġbez":10709,"Ġbemann":10710,"Ġomzet":10711,"Ġvaren":10712,"Ġvoedselbank":10713,"Ġgeunst":10714,"Ġgebouw":10715,"Ġferwi":10716,"Ġferlitten":10717,"earen":10718,"Ġstren":10719,"Ġstifting":10720,"ĠFili":10721,"ĠSam":10722,"inske":10723,"Ġsep":10724,"Ġzw":10725,"ĠÃºtd":10726,"ĠÃºtgong":10727,"ĠÃºtkomt":10728,"ĠBasketbal":10729,"ĠHas":10730,"ĠHettinga":10731,"enster":10732,"weinsj":10733,"Ġrefal":10734,"ĠLinde":10735,"ĠLokaal":10736,"Ġplom":10737,"Ġsketten":10738,"Ġskrassen":10739,"ĠNatuer":10740,"Ġspand":10741,"Ġhark":10742,"ĠrÃªd":10743,"Ġoardiel":10744,"ĠDuit":10745,"ĠGoot":10746,"Ġwaarde":10747,"Ġwaarom":10748,"Ġwaarman":10749,"ĠRich":10750,"ĠRod":10751,"Ġearre":10752,"afÃ©":10753,"oth":10754,"ĠPVV":10755,"ulÃªre":10756,"Ġsowies":10757,"telingen":10758,"oanne":10759,"oannen":10760,"ĠCon":10761,"ĠCap":10762,"berjocht":10763,"ĠEner":10764,"ĠDekker":10765,"Ġvoorz":10766,"ĠOpen":10767,"Ġhoeft":10768,"Ġaant":10769,"Ġkonsum":10770,"Ġtab":10771,"Ġsile":10772,"Ġsied":10773,"Ġtsjinnet":10774,"riuwing":10775,"Ġbegint":10776,"ĠfolhÃ¢lde":10777,"Ġfrees":10778,"Ġverpleeg":10779,"tersÃ¢n":10780,"fallende":10781,"bourne":10782,"Ġpersoneel":10783,"aiÃ¯n":10784,"Ġbekijken":10785,"foarming":10786,"selen":10787,"Ġ51":10788,"ĠprovinsjehÃ»s":10789,"ĠÃ»ntheffing":10790,"ĠbinnenÃºt":10791,"fiering":10792,"ransport":10793,"Ġmisd":10794,"situaasje":10795,"Ġ46":10796,"Ġ2011":10797,"ĠÃºtskeakele":10798,"rump":10799,"ĠSchuur":10800,"ĠJobbegea":10801,"Ġrjochtsje":10802,"Ġprevint":10803,"Ġferboud":10804,"gebrÃ»k":10805,"ferseker":10806,"Ġstrannen":10807,"Ġsnapt":10808,"Ġblom":10809,"Ġleard":10810,"ĠSpit":10811,"ĠSnitsers":10812,"aasd":10813,"ikem":10814,"Alleen":10815,"Ġfeiliger":10816,"Ġyntro":10817,"Ġbepraat":10818,"geloks":10819,"Ġpleatste":10820,"ĠTwente":10821,"Ġgriep":10822,"Ġkopte":10823,"uwerij":10824,"Ġsjitten":10825,"Ġ110":10826,"Ġredens":10827,"Ġunan":10828,"ĠlÃªsten":10829,"Moai":10830,"Ġroppen":10831,"winst":10832,"winter":10833,"Ġmaksimale":10834,"ovend":10835,"ovic":10836,"Ġdemonstr":10837,"Ġekonomysk":10838,"Ġhichtepunt":10839,"Ġgaos":10840,"Ġmienskiplike":10841,"Ġhuidige":10842,"Ġkeatse":10843,"Ġkaartferkeap":10844,"Ġreizgjen":10845,"Ġoandien":10846,"Ġspeci":10847,"Ġflechtling":10848,"Ġartikel":10849,"Ġoptrede":10850,"Ġkuierders":10851,"Ġmoaier":10852,"Ġferlearen":10853,"ĠSurch":10854,"ĠWiebes":10855,"pakken":10856,"Steatelid":10857,"Ġkeatsferiening":10858,"ĠÃ»ntsn":10859,"Ġautomatysk":10860,"Ġconst":10861,"Ġlichaam":10862,"azens":10863,"Schulting":10864,"ĠbÃ»tenlÃ¢nske":10865,"Ġfaksinaasje":10866,"Ġvaker":10867,"Ġsalaris":10868,"Ġkriminaliteit":10869,"Ġbijzondere":10870,"Ġkompleet":10871,"Ġdriuwende":10872,"Ġoanbefel":10873,"ĠTjongers":10874,"ĠMelbourne":10875,"sporters":10876,"ĠExpo":10877,"Ġdrama":10878,"Ġgedichten":10879,"Ġopromme":10880,"ĠLauwerseach":10881,"Ġwinsk":10882,"Ġtickets":10883,"Ġskuldich":10884,"zhak":10885,"Besikers":10886,"ĠoertrÃªding":10887,"ĠwrÃ¢ldkampioenskip":10888,"ĠKrijger":10889,"Ġspeelt":10890,"ĠJoure":10891,"Ġervaring":10892,"Ġpensjoen":10893,"Ġmaatschappij":10894,"ynsidint":10895,"narek":10896,"ĠMenaam":10897,"Ġfasili":10898,"roetinga":10899,"Ġcrow":10900,"Ġverantwoordelijkheid":10901,"Ġdossier":10902,"AST":10903,"robiolooch":10904,"ĠEagles":10905,"Ġtradisjonele":10906,"Ġpeloton":10907,"ĠYouTube":10908,"Ġwissichheid":10909,"ĠSchurer":10910,"ĠHoogeveen":10911,"ĠJoodse":10912,"ĠAnderlecht":10913,"ĠKoarnwertersÃ¢n":10914,"Ġsowieso":10915,"46":10916,"Bed":10917,"Bart":10918,"Diel":10919,"Friezen":10920,"Fraksje":10921,"Groep":10922,"Hoareka":10923,"PC":10924,"PLU":10925,"Willem":10926,"bef":10927,"cz":10928,"cces":10929,"fjoer":10930,"famylje":10931,"kÃ¢ns":10932,"lasse":10933,"linde":10934,"nde":10935,"oinette":10936,"print":10937,"raten":10938,"som":10939,"side":10940,"uzen":10941,"vic":10942,"ww":10943,"zame":10944,"Ġda":10945,"Ġdw":10946,"Ġdolf":10947,"Ġdyselde":10948,"inzen":10949,"Ġfen":10950,"Ġfel":10951,"Ġier":10952,"Ġmult":10953,"Ġban":10954,"Ġbag":10955,"Ġhoud":10956,"Ġheite":10957,"Ġnut":10958,"ĠnÃªsten":10959,"Ġgif":10960,"Ġtru":10961,"Ġtimmer":10962,"Ġynste":10963,"Ġynteress":10964,"rot":10965,"rook":10966,"oare":10967,"Ġess":10968,"leaze":10969,"Ã»te":10970,"Ġpei":10971,"Ġpyl":10972,"Ġpaden":10973,"Ġophelje":10974,"iti":10975,"Ġlait":10976,"jogge":10977,"Ġdertig":10978,"Ġgeast":10979,"ĠgeÃ¯n":10980,"Ġalris":10981,"Ġferl":10982,"Ġferve":10983,"earts":10984,"Ġsticht":10985,"ĠFrits":10986,"ĠFeitsma":10987,"Ġekstre":10988,"ĠSjoernaal":10989,"ietske":10990,"Ġoergong":10991,"Ġwegge":10992,"Ġzet":10993,"ĠBi":10994,"ĠBor":10995,"ĠBla":10996,"ĠHu":10997,"ĠHaul":10998,"ense":10999,"Ġhetzelfde":11000,"ĠLara":11001,"ĠAssen":11002,"ĠAhead":11003,"ĠÃ´ft":11004,"ĠÃ´frÃ»n":11005,"ĠÃ´fnommen":11006,"Ġheat":11007,"ĠWol":11008,"ĠWike":11009,"ĠWopke":11010,"ikant":11011,"ikaasjet":11012,"ĠNo":11013,"Ġtrochhinne":11014,"efer":11015,"ĠDales":11016,"Ġvanwege":11017,"ĠMenno":11018,"ĠKi":11019,"ĠKoo":11020,"ument":11021,"Ġkrist":11022,"ĠJager":11023,"ĠJustysje":11024,"ĠJamie":11025,"ĠVliet":11026,"Ġwaarbij":11027,"Ġbesetter":11028,"ĠRis":11029,"ĠRonald":11030,"afersjoch":11031,"otten":11032,"ĠTre":11033,"ĠTol":11034,"ĠÃ»ndertekene":11035,"Ġtwat":11036,"berch":11037,"ĠEm":11038,"ĠEel":11039,"ĠDeelen":11040,"ograf":11041,"vee":11042,"ĠbrÃ»n":11043,"Ġvooruit":11044,"arrest":11045,"Ġberger":11046,"itee":11047,"Ġveren":11048,"Ġverzeker":11049,"Ġbetalen":11050,"Ġplysjeburo":11051,"sjitte":11052,"oelen":11053,"Ġgebrek":11054,"Ġkunst":11055,"Ġkearn":11056,"delgong":11057,"Ġhjirfoar":11058,"ĠZand":11059,"Ġminderheid":11060,"Ġdochters":11061,"ĠIreen":11062,"ryt":11063,"Ġflugger":11064,"aaks":11065,"wiid":11066,"wicz":11067,"Ġkante":11068,"dielings":11069,"Ġjildich":11070,"temar":11071,"ĠAlkmaar":11072,"planten":11073,"Ġ41":11074,"Ġ47":11075,"Ġ49":11076,"ĠMarit":11077,"Ġkwijt":11078,"kelijke":11079,"Ġnaartoe":11080,"erein":11081,"ĠÃºtsjocht":11082,"ondag":11083,"Ġmeerdere":11084,"Ġdaarmee":11085,"ĠHarmen":11086,"amera":11087,"Ġfeef":11088,"Ġdoelt":11089,"Ġgedoch":11090,"Ġpred":11091,"Ġhierd":11092,"Ġbelangrike":11093,"Ġdoorgaat":11094,"Ġ77":11095,"Ġ700":11096,"Ġgearst":11097,"ĠblÃªd":11098,"moandei":11099,"ĠSpoelstra":11100,"Ġperfe":11101,"Ġynfeksjesyk":11102,"Ġbeprate":11103,"ĠKNMI":11104,"persoan":11105,"looster":11106,"Ġregelen":11107,"Ġregeljen":11108,"Ġregelingen":11109,"holpen":11110,"jitwei":11111,"ĠBerlts":11112,"Ġkultuers":11113,"Ġspesjalisearre":11114,"Ġpolitisy":11115,"stanner":11116,"Ġlosse":11117,"Ġgezel":11118,"break":11119,"ĠEllen":11120,"Ġfilmje":11121,"ĠFrieslandCampina":11122,"Ġfergru":11123,"Ġpraktijk":11124,"Oanlieding":11125,"Ġfjoerwapen":11126,"Ġkregen":11127,"besit":11128,"Ġtastel":11129,"porter":11130,"Ġgebeure":11131,"Ġgeweldig":11132,"ĠFrjentsjerter":11133,"Ġlikefolle":11134,"Ġsucces":11135,"ĠneedfÃ»ns":11136,"zigt":11137,"Ġferpleechkundige":11138,"Ġferpleechkundigen":11139,"Ġberoppen":11140,"Ġmiddelen":11141,"Ġferfiers":11142,"ĠÃ´fskie":11143,"Ġfertsjinnet":11144,"kommende":11145,"Ġfiskerij":11146,"Ġspekt":11147,"ĠAntoinette":11148,"Ġpleatslik":11149,"Ġartistyk":11150,"Ġhanthavenjen":11151,"ĠTheun":11152,"Ġmaand":11153,"ĠWettersteat":11154,"Ġparkearplak":11155,"ĠFeanster":11156,"ootstra":11157,"Provinsje":11158,"ĠWilde":11159,"Ġsekonde":11160,"Ġpodde":11161,"orpsen":11162,"Ġopsmyt":11163,"Ġmuoi":11164,"Ġwraksel":11165,"Ġhantsje":11166,"joertoer":11167,"Ġ342":11168,"Ġgebruik":11169,"ĠpatiÃ«nt":11170,"Ġsyld":11171,"ĠhÃºshÃ¢ldingen":11172,"Ġferkiezings":11173,"stasjons":11174,"Ġveiligheid":11175,"eksamen":11176,"ĠCentraal":11177,"ĠEkhart":11178,"Ġprotokollen":11179,"Ġplatfoarm":11180,"ĠFrisia":11181,"Ġsociale":11182,"ĠRoyal":11183,"Ġfierljeppen":11184,"club":11185,"Ġympakt":11186,"niewicz":11187,"ĠÃ¢ldjiersdei":11188,"ĠdÃºdlike":11189,"ĠKoarnjum":11190,"Ġtsjuster":11191,"ĠBouwmeester":11192,"ĠFreulepartij":11193,"Ġliefde":11194,"ĠJouke":11195,"ĠSlachtemar":11196,"ĠAtlant":11197,"ĠRiemer":11198,"Ġsign":11199,"Ġymm":11200,"Ġquaranta":11201,"ĠSineeske":11202,"ĠKimswert":11203,"ĠIsrael":11204,"Ġkassa":11205,"ĠsikehÃ»sopnamen":11206,"jamin":11207,"Ġekskur":11208,"ĠWeijden":11209,"Ġbinnend":11210,"Ġ0900":11211,"Ġwoning":11212,"Ġmobile":11213,"BrabÃ¢n":11214,"erheide":11215,"Ġevenementen":11216,"ĠHongarije":11217,"Ġrestaurearre":11218,"Adv":11219,"Learlingen":11220,"Ġindivid":11221,"ĠPortugeeske":11222,"Pieter":11223,"ĠFokkinga":11224,"bestriding":11225,"Ġpoppoadium":11226,"dfund":11227,"ĠTsjech":11228,"Eartiids":11229,"ĠÃ»ntbleating":11230,"Ġcrowdfund":11231,"PLUS":11232,"':":11233,"26":11234,"Aut":11235,"Den":11236,"Heel":11237,"Oar":11238,"Oaren":11239,"Piet":11240,"Wall":11241,"Wiersma":11242,"agel":11243,"bla":11244,"diversiteit":11245,"fit":11246,"film":11247,"frastruktuer":11248,"gy":11249,"haad":11250,"iaan":11251,"ku":11252,"mard":11253,"mÃ»ne":11254,"polder":11255,"rins":11256,"rÃ©":11257,"tende":11258,"titel":11259,"tzigt":11260,"wil":11261,"Ġuiter":11262,"telier":11263,"Ġdoek":11264,"Ġduurt":11265,"Ġdysels":11266,"erry":11267,"Ġfoet":11268,"Ġfiets":11269,"Ġsoft":11270,"Ġdepre":11271,"Ġwand":11272,"Ġmens":11273,"Ġbuurt":11274,"Ġhang":11275,"Ġhouten":11276,"Ġhikke":11277,"Ġhonderd":11278,"eilÃ¢n":11279,"Ġgol":11280,"Ġgran":11281,"Ġtij":11282,"Ġynfallen":11283,"oarre":11284,"oarme":11285,"Ġenkele":11286,"rim":11287,"lek":11288,"Ġpleech":11289,"Ġplicht":11290,"Ġpinkster":11291,"reven":11292,"Ġopsl":11293,"ĠophÃ¢ldt":11294,"Ġopliedingen":11295,"liel":11296,"kest":11297,"edei":11298,"asme":11299,"urken":11300,"urgen":11301,"Ãºdeast":11302,"Ġbestelle":11303,"isearje":11304,"Ġlam":11305,"Ġvallen":11306,"ĠderÃ»nder":11307,"Ġfergel":11308,"ĠferstÃ¢n":11309,"Ġferriden":11310,"Ġstienen":11311,"Ġstoppen":11312,"illing":11313,"Ġoerble":11314,"imo":11315,"ykl":11316,"Ġhavo":11317,"Ġweinen":11318,"Ġzaten":11319,"ĠÃºtlizze":11320,"ĠHen":11321,"ĠHal":11322,"wek":11323,"undigen":11324,"Ġrepetysje":11325,"oper":11326,"opie":11327,"ĠAal":11328,"ĠArum":11329,"ĠAqu":11330,"ĠAlex":11331,"Ġsket":11332,"Ġerger":11333,"ĠWet":11334,"ĠWielen":11335,"ĠWolf":11336,"ĠWMO":11337,"ikaat":11338,"ĠNet":11339,"Ġliif":11340,"Ġlibbe":11341,"ĠDan":11342,"ĠDie":11343,"ĠMeindert":11344,"Ġprobe":11345,"ĠKet":11346,"ĠKle":11347,"ĠKaap":11348,"ĠKPN":11349,"oorden":11350,"ĠGod":11351,"ĠGrut":11352,"ĠGeffen":11353,"Ġmeartal":11354,"ĠJasper":11355,"Ġwurdearring":11356,"Ġbespar":11357,"ĠRes":11358,"Ġsolid":11359,"agram":11360,"ippen":11361,"ipper":11362,"Ġdiag":11363,"Ġdieder":11364,"spel":11365,"venem":11366,"Ġwyke":11367,"Ġhelikopter":11368,"ĠEvert":11369,"ederij":11370,"oging":11371,"Ġbrannen":11372,"igheid":11373,"vering":11374,"ĠOk":11375,"Ġhoegde":11376,"Ġaanwezig":11377,"bec":11378,"beammen":11379,"Ġtsjinoan":11380,"ĠtsjinhÃ¢lde":11381,"Ġbericht":11382,"Ġberikke":11383,"Ġneemt":11384,"ochniewicz":11385,"Ġbeton":11386,"Ġkeal":11387,"boden":11388,"abik":11389,"Ġwantrouwen":11390,"foarsitters":11391,"ĠZwarte":11392,"Ġ57":11393,"ĠweromfÃ»n":11394,"ĠIM":11395,"bless":11396,"ĠStoel":11397,"Ġraakt":11398,"Ġoarsom":11399,"tember":11400,"Ġnijjiers":11401,"Ġuitslag":11402,"ĠMarco":11403,"ĠthÃºswedstriid":11404,"meijer":11405,"ĠÃºtsk":11406,"alenburg":11407,"Ġdaarvan":11408,"Ġafval":11409,"melo":11410,"Ġ69":11411,"Ġboerep":11412,"Ġgedrag":11413,"eneer":11414,"Ġposters":11415,"Ġsoarchpersoniel":11416,"assink":11417,"Ġdelkomme":11418,"Ġanalyze":11419,"Ġfleach":11420,"ĠwrÃ¢ldrekÃ´r":11421,"Ġbestjoerlike":11422,"havens":11423,"ĠtsientÃ»zen":11424,"nsters":11425,"Ġsportklups":11426,"gadering":11427,"Ġparken":11428,"stjoering":11429,"pelijk":11430,"Ġtelefoon":11431,"Ġfaaks":11432,"ĠInst":11433,"Ġkoarts":11434,"Ġ95":11435,"Ġrekkene":11436,"kapkes":11437,"Ġgezin":11438,"Ġselde":11439,"Ġwurdich":11440,"Ġtopskoar":11441,"winner":11442,"Ġhaadredakteur":11443,"ĠYchten":11444,"Ġvolgens":11445,"Ġbeheiningen":11446,"way":11447,"Ġ2002":11448,"ĠAldehou":11449,"Ġkreatyf":11450,"besite":11451,"Ġaksep":11452,"Ġrolstoel":11453,"kosten":11454,"Ġkompetysjewedstriid":11455,"iedenis":11456,"oepboer":11457,"draaie":11458,"ĠÃ»ntwikkelje":11459,"ĠambulÃ¢nsen":11460,"ĠambulÃ¢nses":11461,"Ġsubsydzjer":11462,"Ġbehoor":11463,"ĠÃºtsprutsen":11464,"Ġtermijn":11465,"Ġtrou":11466,"Ġfearboaten":11467,"Ġtekenet":11468,"Ġcoronapasjint":11469,"Ġkwaliteiten":11470,"spectie":11471,"Skoallen":11472,"Ġhanthaveners":11473,"Ġmoeilijke":11474,"auta":11475,"Ġeleminten":11476,"Ġlandelijk":11477,"Ġynvestearre":11478,"Ġblessuer":11479,"ĠFred":11480,"ĠRengers":11481,"Ġchallen":11482,"Ġbeskermje":11483,"Ġfiskjen":11484,"ĠOranjewÃ¢ld":11485,"Ġemot":11486,"ĠOeris":11487,"ship":11488,"ĠKuiken":11489,"Ġhanneljen":11490,"brÃ¢nsj":11491,"Ġpanyk":11492,"ĠMax":11493,"kante":11494,"ĠMeier":11495,"Ġarbeidsmerk":11496,"Ġrjochtet":11497,"Ġtsjerketsjinsten":11498,"Ġdraaiende":11499,"Ġplaatsen":11500,"Ġskoareboerd":11501,"Ġneedsaaklike":11502,"ĠFriso":11503,"probleem":11504,"Ġferstoarne":11505,"Ġdeistige":11506,"ĠÃºtnÃ»ging":11507,"Ġbiblioteken":11508,"Ġljeppers":11509,"hops":11510,"Gelukkig":11511,"Ġannulearre":11512,"ĠGaaster":11513,"ĠMedia":11514,"Ġkontrolearje":11515,"Ġbewarje":11516,"Ġavond":11517,"ĠBenjamin":11518,"Ġlinker":11519,"ĠbefÃªstige":11520,"Ġsammeljen":11521,"Ġgesloten":11522,"ĠferwÃ»nings":11523,"Ġolympysk":11524,"Ġkrapte":11525,"ĠWieling":11526,"ĠEijer":11527,"ĠSpeerstra":11528,"Ã¶peraasje":11529,"Meast":11530,"ĠAkkerman":11531,"Frijwilligers":11532,"Ġvervolgens":11533,"klusyf":11534,"Ġnederlaach":11535,"ĠSkarster":11536,"ĠBednarek":11537,"Ġfirtuele":11538,"ĠBijlsma":11539,"Sterker":11540,"ĠIngelske":11541,"Ġbehoefte":11542,"Ġamateurfuotbal":11543,"ĠBlije":11544,"ĠpremjÃªre":11545,"azerne":11546,"Ġbemannings":11547,"Ġseptember":11548,"Fraksjefoarsitter":11549,"ĠbrÃ»nzen":11550,"Ġfeefoer":11551,"97":11552,"Aris":11553,"Bl":11554,"Bovend":11555,"ED":11556,"Fran":11557,"Frou":11558,"Femke":11559,"IJ":11560,"Minder":11561,"Noppert":11562,"PS":11563,"Poepjes":11564,"Sl":11565,"Sn":11566,"SÃ¢n":11567,"Tsj":11568,"Techn":11569,"WV":11570,"Zeker":11571,"bon":11572,"cels":11573,"feiligens":11574,"grys":11575,"gingen":11576,"ggende":11577,"iast":11578,"jinge":11579,"kade":11580,"krije":11581,"kaarten":11582,"ms":11583,"mend":11584,"master":11585,"oand":11586,"rakt":11587,"sa":11588,"uig":11589,"vrij":11590,"wÃ»ne":11591,"Ġark":11592,"tek":11593,"techn":11594,"ino":11595,"ariteit":11596,"Ġfon":11597,"Ġfjocht":11598,"Ġfoss":11599,"Ġsmel":11600,"Ġsakke":11601,"Ġsertif":11602,"Ġdeed":11603,"Ġijs":11604,"Ġwinsken":11605,"Ġwyks":11606,"Ġooit":11607,"Ġhin":11608,"eizen":11609,"Ġnear":11610,"Ġnad":11611,"Ġnekke":11612,"elders":11613,"yne":11614,"alken":11615,"Ġtil":11616,"Ġtos":11617,"Ġtyp":11618,"Ġineens":11619,"Ġynrjocht":11620,"oarp":11621,"Ġenoarme":11622,"rigen":11623,"Ġpon":11624,"Ġpannen":11625,"Ġpret":11626,"repen":11627,"Ġopboud":11628,"Ġopgroeid":11629,"keur":11630,"ersteld":11631,"ompen":11632,"gesch":11633,"Ġfoarkaam":11634,"Ġfoararrest":11635,"iskers":11636,"isolaasje":11637,"Ġvl":11638,"Ġveilige":11639,"Ġoanlizze":11640,"Ġgespeeld":11641,"Ġferrin":11642,"ĠstÃªf":11643,"Ġstikem":11644,"ĠFlo":11645,"ĠFoppe":11646,"ĠFDF":11647,"ĠFestival":11648,"Ġeksim":11649,"gene":11650,"ĠSAR":11651,"zema":11652,"Ġoerlein":11653,"Ġneidiel":11654,"Ġzondag":11655,"ĠBrits":11656,"okaat":11657,"gelegd":11658,"westen":11659,"weging":11660,"Ġrealiteit":11661,"ĠLytse":11662,"ĠAch":11663,"dtitel":11664,"ĠdÃªrnjonken":11665,"ĠWa":11666,"ĠWylde":11667,"ĠWagt":11668,"ĠNacht":11669,"ĠNauta":11670,"ĠrÃ´f":11671,"Ġrang":11672,"Ġjierlikse":11673,"Ġeenzaam":11674,"ĠModder":11675,"sket":11676,"ĠKo":11677,"ĠKootstra":11678,"ĠJanne":11679,"ĠVrij":11680,"Ġmeters":11681,"Ġmezelf":11682,"Ġwaarvan":11683,"Ġbeset":11684,"Ynwenners":11685,"Ġlesj":11686,"Ġsoer":11687,"ĠTwe":11688,"ĠTaal":11689,"ĠTrump":11690,"ĠÃ»nderling":11691,"ippe":11692,"aalde":11693,"arta":11694,"spons":11695,"oerisme":11696,"ĠCorona":11697,"osjaal":11698,"ĠEverhard":11699,"Ġferske":11700,"ĠOe":11701,"fees":11702,"beurs":11703,"Ġkonsept":11704,"Ġtsjinstregeling":11705,"DÃªrfan":11706,"ĠberÃ´":11707,"ferdigen":11708,"ferwurker":11709,"Ġeilanden":11710,"Opfallend":11711,"Ġsneins":11712,"Ġbeljen":11713,"edstriid":11714,"Ġtrien":11715,"Ġgeande":11716,"ĠfinÃ¢nsjes":11717,"Ġferskine":11718,"ĠZu":11719,"ĠZui":11720,"ĠZout":11721,"ĠIm":11722,"Ġtalint":11723,"eiliging":11724,"Ġberntsje":11725,"Ġboarst":11726,"Ġraad":11727,"Ã«l":11728,"werper":11729,"geten":11730,"Ġuitdaging":11731,"ĠMarc":11732,"Ġalsof":11733,"ĠthÃºswurkjen":11734,"meitsjen":11735,"ytze":11736,"ĠSchuil":11737,"Ġ64":11738,"ĠJoaden":11739,"anks":11740,"Ġrjochtsjen":11741,"ijdagen":11742,"ĠfÃªststelde":11743,"ĠOmtzigt":11744,"ooien":11745,"Ġplante":11746,"Ġkantoaren":11747,"having":11748,"Ġadvert":11749,"Ġgelden":11750,"Ġskeelt":11751,"fenis":11752,"Ġtoern":11753,"Ġtoeriste":11754,"ringa":11755,"Ġmeldings":11756,"Ġmeldpunt":11757,"Ġregelmjittich":11758,"ĠInstituut":11759,"Ġfraachteken":11760,"oppet":11761,"Ġnachtopfang":11762,"Ġboekje":11763,"Ġprojektlieder":11764,"Ġgezeten":11765,"Ġstudint":11766,"Ġiensidich":11767,"ĠgrÃ»nwetter":11768,"Ġhaadfert":11769,"ĠYv":11770,"ĠkontrÃ´":11771,"Ġoffic":11772,"Ġsneller":11773,"aazjes":11774,"ĠFrÃ¢nske":11775,"Ġopslein":11776,"Ġakute":11777,"Ġnauw":11778,"aterdag":11779,"Ġwynpark":11780,"Ġmaatwurk":11781,"Ġbiz":11782,"brandy":11783,"ĠSintrale":11784,"Ġnjoggende":11785,"oria":11786,"kundich":11787,"Ġronden":11788,"Ġbuord":11789,"Ġbuorden":11790,"Ġbuorlju":11791,"Ġleveren":11792,"Ġprachtig":11793,"erskynlik":11794,"Ġnjoggentjin":11795,"reitsje":11796,"ĠVeenker":11797,"ĠFrans":11798,"ĠWestra":11799,"Ġfeart":11800,"Ġtanimme":11801,"ayo":11802,"Ġhandhaven":11803,"Ġferpleechhuzen":11804,"Ġferrommingen":11805,"Ġeasket":11806,"aaike":11807,"Ġparkoers":11808,"Ġynstal":11809,"Ġkrityske":11810,"Ġhistoarysk":11811,"ĠYnfrastruktuer":11812,"Ġgrutskalige":11813,"uchtelingen":11814,"Ġnoardeasten":11815,"Ġmaandag":11816,"Ġsechde":11817,"ĠWereld":11818,"Ġredden":11819,"Ġreedrydster":11820,"Ġpapieren":11821,"ĠOranjewoud":11822,"Prov":11823,"Bewenners":11824,"stiennen":11825,"Ġferrassend":11826,"Ġharddrugs":11827,"Ġpsychyske":11828,"Ġoansletten":11829,"Arriva":11830,"ĠRoest":11831,"ĠÃºtstalling":11832,"Ġhoogte":11833,"Ġvandaan":11834,"Ġwittenskiplike":11835,"lÃ»ker":11836,"Ġkriminelen":11837,"Spit":11838,"Ġappartemint":11839,"houder":11840,"ĠFlor":11841,"Ġadvisearre":11842,"ussie":11843,"ĠWijnstra":11844,"Kommende":11845,"Ġbroek":11846,"Ġziekenhuizen":11847,"Ġstabyl":11848,"ĠWÃ¢ldsein":11849,"Ġiishockey":11850,"Ġiishockeyers":11851,"Ġkaartsjes":11852,"Ġeksperts":11853,"Eigenlijk":11854,"Ġopstappen":11855,"Ġspringt":11856,"Ġbehannelje":11857,"ĠTeake":11858,"Ġoerienkomst":11859,"Ġhurdfytser":11860,"ygren":11861,"ĠsÃ¢ltwinning":11862,"ĠMiljeu":11863,"Ġynspiraasje":11864,"Ġambysjes":11865,"Ġkringloopwinkel":11866,"Ġactiviteiten":11867,"Ġmentaal":11868,"Ġstudearre":11869,"Ġblauwe":11870,"Ġoanpassingen":11871,"Ġbosken":11872,"Ġacc":11873,"masine":11874,"ĠSkÃ»tsjes":11875,"ĠNationaal":11876,"Ġgymn":11877,"ĠSeggeren":11878,"Ġferskynde":11879,"Ġspesifyk":11880,"Ġgoedkeaper":11881,"Ġspreken":11882,"Ġmonuminten":11883,"Ġfamyljeleden":11884,"Ġrealistysk":11885,"ĠMiranda":11886,"Ġwaarschijnlijk":11887,"ĠRadio":11888,"Ġsportferslachjouwer":11889,"Ġyntsjinje":11890,"Ġmoksels":11891,"ĠEisinga":11892,"Ġbenadere":11893,"ĠIND":11894,"ĠWenje":11895,"Ġsakekolleezje":11896,"ĠSweedske":11897,"Ġcoronastjer":11898,"ĠGemeentebelangen":11899,"ĠynstitÃºt":11900,"ĠCornelis":11901,"Ġnergens":11902,"Ġtadracht":11903,"Ġsymptomen":11904,"ĠflearmÃ»zen":11905,"ĠRichard":11906,"ĠHauler":11907,"ikaasjetoernoai":11908,"ĠBerltsum":11909,"Ġquarantaine":11910,"Ġbinnendoar":11911,"mardum":11912,"Bovendien":11913,"Ġeksimpl":11914,"200":11915,"37":11916,"700":11917,"Boar":11918,"Binne":11919,"BÃ»ten":11920,"CDA":11921,"DÃºts":11922,"EF":11923,"EÃ©n":11924,"Fin":11925,"Hans":11926,"Kok":11927,"Muzyk":11928,"Over":11929,"Oost":11930,"SF":11931,"Vand":11932,"aakt":11933,"ba":11934,"bÃ»ten":11935,"brÃ»k":11936,"bieders":11937,"cif":11938,"far":11939,"grutte":11940,"hon":11941,"haal":11942,"hoop":11943,"horst":11944,"istraasje":11945,"ketten":11946,"lus":11947,"ljocht":11948,"leiding":11949,"mus":11950,"nossen":11951,"ping":11952,"pot":11953,"ppel":11954,"son":11955,"the":11956,"toernoai":11957,"uri":11958,"zili":11959,"Ġangst":11960,"Ġdrige":11961,"erden":11962,"inum":11963,"Ġfij":11964,"Ġfakt":11965,"Ġfingers":11966,"Ġsinten":11967,"Ġsongen":11968,"Ġsmaak":11969,"Ġwjer":11970,"Ġwind":11971,"Ġwerstel":11972,"ĠmÃ»zen":11973,"Ġogen":11974,"Ġbol":11975,"Ġbil":11976,"Ġbrekken":11977,"atlon":11978,"Ġhilli":11979,"chap":11980,"eier":11981,"Ġni":11982,"Ġkok":11983,"Ġkort":11984,"star":11985,"stutsen":11986,"sther":11987,"Ġgraf":11988,"Ġfanat":11989,"Ġtrij":11990,"Ġinder":11991,"leaf":11992,"Ã»mb":11993,"Ġpuz":11994,"rem":11995,"rest":11996,"reinen":11997,"Ġopfallende":11998,"lige":11999,"keuring":12000,"ingh":12001,"Ġteory":12002,"itor":12003,"term":12004,"ges":12005,"gemeente":12006,"orge":12007,"Ġfoarhinne":12008,"Ġfoarwerp":12009,"Ġbestelling":12010,"Ġlette":12011,"Ġlatte":12012,"Ġvij":12013,"Ġderde":12014,"earste":12015,"oege":12016,"oepen":12017,"ĠFK":12018,"ĠFUMO":12019,"Ġjas":12020,"uste":12021,"ĠSa":12022,"ĠSal":12023,"ienke":12024,"ĠÃºtjÃ»n":12025,"ĠÃºtriden":12026,"ids":12027,"idaasje":12028,"ĠBle":12029,"ĠBot":12030,"ĠBennie":12031,"ĠBochniewicz":12032,"ĠHuzum":12033,"weer":12034,"unysje":12035,"uniteit":12036,"Ġcultuur":12037,"ĠLut":12038,"ĠAran":12039,"ĠAusma":12040,"ĠAukje":12041,"Ġploeg":12042,"Ġsafol":12043,"Ġskaad":12044,"Ġskod":12045,"Ġskieden":12046,"Ġwiete":12047,"Ġhekt":12048,"Ġeruit":12049,"ĠWel":12050,"ĠWes":12051,"ĠWets":12052,"ĠNV":12053,"Ġharkers":12054,"Ġret":12055,"ĠrÃ»ten":12056,"Ġjierliks":12057,"Ġjierwiksel":12058,"efd":12059,"efter":12060,"Ġlis":12061,"ĠDu":12062,"ĠMou":12063,"ĠMaaike":12064,"skomm":12065,"ĠKelder":12066,"ĠKatal":12067,"ĠKwadrant":12068,"ĠGiro":12069,"umas":12070,"ĠJon":12071,"ĠJels":12072,"ĠVis":12073,"ĠVoort":12074,"Ġbesiker":12075,"utend":12076,"intig":12077,"ĠReitsma":12078,"ĠPrix":12079,"ĠTra":12080,"ĠTrek":12081,"ĠTae":12082,"ĠÃ»nderfine":12083,"ekte":12084,"Ġtwilling":12085,"sper":12086,"spek":12087,"sprek":12088,"ĠCal":12089,"ĠCBS":12090,"Ġheld":12091,"ĠDeenske":12092,"ĠDeWall":12093,"Ġmindere":12094,"Ġministers":12095,"ogt":12096,"bbels":12097,"igrid":12098,"Ġsitting":12099,"Ġond":12100,"Ġfersl":12101,"romp":12102,"fectie":12103,"ĠslÃ»zen":12104,"Ġsteds":12105,"ferfier":12106,"Ġgemeentebestjoer":12107,"Ġbegroeven":12108,"ennisser":12109,"Ġverstandig":12110,"Ġvervoer":12111,"Ġbetrou":12112,"Ġkeep":12113,"sjite":12114,"boel":12115,"Ġtrijen":12116,"ifel":12117,"Ġzeg":12118,"Ġprovinsj":12119,"Ġmoetingsp":12120,"skes":12121,"Ġhjirmei":12122,"Ġefte":12123,"adem":12124,"ademie":12125,"ĠIds":12126,"oopt":12127,"Ġflot":12128,"Ġtalent":12129,"Ġtalitten":12130,"ĠStroetinga":12131,"ĠStalenburg":12132,"Ġboarter":12133,"Ġeinigje":12134,"klachten":12135,"ĠMarkt":12136,"ĠthÃºsisolaasje":12137,"Ġdaarvoor":12138,"Ġafsch":12139,"Ġtestlokaasjes":12140,"Ġ63":12141,"ĠNoarder":12142,"ĠAnker":12143,"bringen":12144,"Ġprinc":12145,"Ġsoarchoan":12146,"Ġdoorgaan":12147,"Ġ74":12148,"Ġfleks":12149,"Ġplantsje":12150,"rieding":12151,"riedslid":12152,"Ġtoernoaien":12153,"Ġhoast":12154,"Ġoplosse":12155,"proef":12156,"Ġ81":12157,"Ġ85":12158,"Ġ86":12159,"Ġ87":12160,"Ġonderzoeken":12161,"Ġhopelijk":12162,"Ġbepalen":12163,"Ġballen":12164,"ĠKNG":12165,"iesz":12166,"Ġaktiv":12167,"allens":12168,"Ġknipe":12169,"Ã¤ter":12170,"Ġkleed":12171,"Ġvoldoen":12172,"Ferkear":12173,"Ġduiz":12174,"Ġdenkt":12175,"Ġsneltrein":12176,"Gemeenten":12177,"ĠAldemardum":12178,"Ġgehouden":12179,"rekkene":12180,"Ġbuien":12181,"Ġleafhawwers":12182,"Ġbeskikbere":12183,"Harkemase":12184,"Ġpresidint":12185,"Ġfraksjes":12186,"Ġbelangrijke":12187,"Ġleverjen":12188,"alisme":12189,"goeding":12190,"Ġtelefyzjeprogramma":12191,"Ġwinterstop":12192,"izzers":12193,"Ġoppakke":12194,"Ġsubsydzjes":12195,"Ġstoart":12196,"wegingen":12197,"wegings":12198,"Ġbelangrijkste":12199,"Ġeask":12200,"Ġynstallaasje":12201,"Ġleauwe":12202,"Ġboskjes":12203,"Ġbewegen":12204,"ijff":12205,"lÃªze":12206,"Ġatlet":12207,"Ġoerlizze":12208,"Ġpassend":12209,"Ġferdigening":12210,"ĠSweden":12211,"Ġynvestearring":12212,"ĠHahn":12213,"herne":12214,"Ġregearing":12215,"ĠHellinga":12216,"Ġfrachtweinen":12217,"Ġoersetting":12218,"Ġparkearterrein":12219,"ĠHamar":12220,"Ġdjipte":12221,"ĠMankes":12222,"Ġoansprutsen":12223,"Ġoptie":12224,"Ġpopulaasje":12225,"Ġstrukturele":12226,"Ġgebruikt":12227,"Ġopknappen":12228,"Ġwittenskippers":12229,"lÃ»ke":12230,"Ġseksuele":12231,"Ġbelibbe":12232,"houders":12233,"Ġtwivel":12234,"ĠOosterman":12235,"Ġboargerynf":12236,"Ġfermist":12237,"Ġmuzikale":12238,"Ġkerrels":12239,"ĠExcels":12240,"Ġkwalifikaasje":12241,"Ġsoarchynstelling":12242,"Ġfoarsjenningen":12243,"Ġyntinsive":12244,"Keamer":12245,"Ġrichtlijnen":12246,"Ġkandidaten":12247,"ĠJeugd":12248,"ĠAntonius":12249,"Klaas":12250,"ĠGaast":12251,"Ġkalinder":12252,"Ġautomobilisten":12253,"Ġferfanger":12254,"Ġsloopt":12255,"Ġhaadklassepartij":12256,"Ġuniversiteiten":12257,"Ġkontrolearjen":12258,"ĠKommissaris":12259,"Ġfernijing":12260,"Ġkonfron":12261,"atista":12262,"Ġferleegjen":12263,"Ġbasketballers":12264,"Ġtapast":12265,"Ġvoorbereid":12266,"ĠRutger":12267,"buorden":12268,"Ġkado":12269,"ĠferdÃ»bel":12270,"Healwei":12271,"ĠKampioen":12272,"Ġflaters":12273,"Ġaksjefierders":12274,"Ġoplevere":12275,"Ġvolledig":12276,"ĠBangma":12277,"ĠHimelf":12278,"Ġfavorite":12279,"ĠTwizelerheide":12280,"Ġongeveer":12281,"fetamine":12282,"Ġoanwizingen":12283,"FlylÃ¢n":12284,"Ġkategory":12285,"ĠbeÃ¤n":12286,"Ġattraksje":12287,"ĠPaulissen":12288,"ĠIlse":12289,"Ġwetteroer":12290,"ĠReahÃ»s":12291,"ĠJohanna":12292,"ĠheitelÃ¢n":12293,"ĠInstagram":12294,"ĠOerisel":12295,"Technysk":12296,"gryslik":12297,"Ġnearne":12298,"alkena":12299,"ĠTweede":12300,"Ġhaadfertochte":12301,"ĠkontrÃ´les":12302,"ĠHaulerwyk":12303,"Ġinderdaad":12304,"Ã»mba":12305,"Ġsafolste":12306,"Ġprovinsjaal":12307,"ĠExcelsior":12308,"!'<|":12309,"058":12310,"43":12311,"68":12312,"Bet":12313,"Bou":12314,"Hof":12315,"Iepen":12316,"Justysje":12317,"Kore":12318,"Peter":12319,"Ro":12320,"Sjinkie":12321,"Twe":12322,"Uit":12323,"VC":12324,"Wichtich":12325,"Zoo":12326,"aZoo":12327,"bra":12328,"bant":12329,"bÃªden":12330,"bureau":12331,"dan":12332,"fli":12333,"grij":12334,"hÃ»":12335,"hum":12336,"iq":12337,"iat":12338,"ianne":12339,"iaanske":12340,"krisis":12341,"long":12342,"lÃªste":12343,"mi":12344,"oant":12345,"pad":12346,"pma":12347,"pes":12348,"past":12349,"rÃ´le":12350,"sers":12351,"swim":12352,"tze":12353,"tinte":12354,"titen":12355,"visie":12356,"wap":12357,"wietske":12358,"yber":12359,"zy":12360,"zijn":12361,"ĠdÃºn":12362,"Ġdonder":12363,"erke":12364,"iness":12365,"anim":12366,"antsjes":12367,"arjende":12368,"arbeid":12369,"Ġfoer":12370,"ĠfÃºzje":12371,"Ġfatsoen":12372,"Ġwc":12373,"Ġmylde":12374,"Ġmunysje":12375,"Ġoerste":12376,"Ġoseaan":12377,"Ġhum":12378,"Ġhinder":12379,"ĠhÃ»nen":12380,"cha":12381,"Ġkaai":12382,"Ġkorte":12383,"stan":12384,"stranten":12385,"Ġgang":12386,"alys":12387,"Ġfand":12388,"Ġtrekken":12389,"Ġtennis":12390,"Ġindruk":12391,"Ġynfolle":12392,"Ġynhelle":12393,"Ġynstellings":12394,"roepen":12395,"rien":12396,"rijen":12397,"Ġechter":12398,"Ġevak":12399,"Ġpin":12400,"Ġpun":12401,"nee":12402,"Ġtein":12403,"Ġtegels":12404,"des":12405,"Ãªres":12406,"Ġmeikoarten":12407,"ieken":12408,"geast":12409,"geul":12410,"Ġfoarmen":12411,"ĠbehÃ¢lde":12412,"Ġluis":12413,"jout":12414,"Ġvoet":12415,"Ġvroeger":12416,"Ġderachter":12417,"Ġoanwiisd":12418,"ysjer":12419,"aarde":12420,"Ġferlo":12421,"Ġfergelyk":12422,"ierders":12423,"earch":12424,"Ġstront":12425,"ĠFeenstra":12426,"iler":12427,"ildere":12428,"ĠSel":12429,"ĠSyl":12430,"ĠSleat":12431,"Ġoerw":12432,"Ġoernacht":12433,"Ġsealen":12434,"Ġmarkt":12435,"aansk":12436,"ĠÃºtkomsten":12437,"ĠBear":12438,"ĠBest":12439,"ĠBoarn":12440,"ĠBies":12441,"ĠBrit":12442,"okt":12443,"okio":12444,"gelijke":12445,"ung":12446,"uning":12447,"unter":12448,"Ġrechter":12449,"Ġreanim":12450,"Ġclaim":12451,"ĠLoek":12452,"ĠAz":12453,"rongen":12454,"Ġskam":12455,"Ġskatten":12456,"Ġskynt":12457,"ĠÃ´fmakke":12458,"ĠÃ´fkundige":12459,"ĠÃ´ffierd":12460,"ĠWurk":12461,"ĠWhats":12462,"ĠWassink":12463,"ĠNiger":12464,"ĠNico":12465,"ĠNygren":12466,"Ġspier":12467,"Ġharkje":12468,"Ġrare":12469,"ĠDylan":12470,"antine":12471,"ĠMat":12472,"ĠMans":12473,"Ġikoan":12474,"ĠKei":12475,"ĠKrante":12476,"andant":12477,"oorten":12478,"ĠGen":12479,"ĠGor":12480,"Ġkrim":12481,"ĠJes":12482,"ĠJonk":12483,"ĠJess":12484,"ĠJaarsma":12485,"ĠJopie":12486,"meniÃ«":12487,"Ġwaarnimmend":12488,"ĠRoan":12489,"ĠRuurd":12490,"ĠPen":12491,"ĠPas":12492,"ĠPiersma":12493,"ulder":12494,"agina":12495,"ĠTr":12496,"ĠTokio":12497,"ĠÃ»nderd":12498,"ĠÃ»nderwi":12499,"oanje":12500,"oanfal":12501,"spile":12502,"spesj":12503,"ĠCultuur":12504,"osint":12505,"Ġmakkers":12506,"ĠDeinum":12507,"eidzje":12508,"bbers":12509,"sevic":12510,"ĠienfÃ¢ld":12511,"ĠOd":12512,"beper":12513,"beurt":12514,"Ġberte":12515,"Ġatelier":12516,"ferwÃ»ne":12517,"Ġbegrepen":12518,"Ġneam":12519,"enny":12520,"Ġellinde":12521,"Ġverlen":12522,"Ġverstand":12523,"Ġbetra":12524,"istoris":12525,"Ġwelkom":12526,"Alteast":12527,"Ġselsstann":12528,"Ġzes":12529,"Ġbood":12530,"Ġsjog":12531,"skipper":12532,"Foarich":12533,"Ġ53":12534,"Ġwettersport":12535,"ĠbrÃ¢nbrief":12536,"Ġorganisator":12537,"ĠÃ»ntfang":12538,"Ġraam":12539,"fiere":12540,"werda":12541,"Ġzover":12542,"Ġeintsje":12543,"sitten":12544,"pluss":12545,"ĠgenÃª":12546,"kelijker":12547,"Ġswalk":12548,"Ġtaks":12549,"Ġtakend":12550,"Ġlytssk":12551,"ssens":12552,"ĠÃºtslaggen":12553,"Ġdaarin":12554,"usektor":12555,"icket":12556,"ionaal":12557,"Ġrjochten":12558,"Ġprest":12559,"Ġpredat":12560,"Ġwaskje":12561,"Ġ78":12562,"Ġroman":12563,"Ġkollektyf":12564,"Ã¢nswert":12565,"Ġmomente":12566,"Ġblomme":12567,"Ġtiisdeitemiddei":12568,"Ġgelukt":12569,"Ġskeel":12570,"Ġfuotbalferiening":12571,"Ġperman":12572,"ĠUWV":12573,"Ġbetsjutting":12574,"ĠArbeid":12575,"wurdfierder":12576,"ĠhÃºslik":12577,"Ġonderdeel":12578,"Ġhearlik":12579,"ĠGrinslanner":12580,"ĠInternation":12581,"Ġ99":12582,"Ġspesjalist":12583,"ĠswierferwÃ»ne":12584,"ĠferkÃ¢lden":12585,"erdyk":12586,"Ġteller":12587,"Ġsmoar":12588,"Ġjuni":12589,"freon":12590,"Ġstimden":12591,"Ġ140":12592,"stryd":12593,"Ġfeilichheids":12594,"Ġhaadspons":12595,"Ġynsjoch":12596,"Ġferskillend":12597,"Ġproduc":12598,"ĠHoreca":12599,"ĠAldeholt":12600,"Ġsokken":12601,"Ġgehaald":12602,"Ġmogelijkheid":12603,"besl":12604,"Ġcontrole":12605,"ĠrÃ»tes":12606,"aurant":12607,"Studinten":12608,"uees":12609,"ĠÃ»ntwikkeljen":12610,"ĠÃ»ntwikkelings":12611,"Ġstekynsidint":12612,"Ġrisikogroep":12613,"Harry":12614,"Ġmiddenyn":12615,"stappen":12616,"ovid":12617,"Ġstienm":12618,"Ġtelefoantsjes":12619,"ĠBruins":12620,"Ġskoart":12621,"ostert":12622,"blom":12623,"blÃªden":12624,"ĠHolt":12625,"Ġferfierd":12626,"ĠferpleechhÃ»s":12627,"Ġkenink":12628,"Ġfoarsjoen":12629,"ĠSyb":12630,"ĠstikstofÃºtstjit":12631,"Ġfertsjinjen":12632,"ĠstÃ¢nbyld":12633,"Ġfisken":12634,"Vooral":12635,"Ġspecif":12636,"Ġlastige":12637,"ĠRott":12638,"ĠYnd":12639,"ĠGrikelÃ¢n":12640,"Ġhuisarts":12641,"Ġkwetsbare":12642,"krigen":12643,"Ġoefenje":12644,"Ġoefeningen":12645,"Ġhannele":12646,"Ġgarnal":12647,"Ġbruts":12648,"eijzer":12649,"ĠRyksuniversiteit":12650,"ĠFreark":12651,"Ġchat":12652,"ĠÃ»ntsp":12653,"Ġkonstruksje":12654,"ĠBloem":12655,"Ġteloarstellend":12656,"ĠTsjÃ»ke":12657,"ĠManagement":12658,"Ġbestjoersleden":12659,"Ġfeesten":12660,"Ġbekerfinale":12661,"Spesj":12662,"Ġskilderijen":12663,"Ġstipep":12664,"Ġverbonden":12665,"kanker":12666,"ĠRoosje":12667,"Ġfermiste":12668,"Ġfermoarde":12669,"Ġskouboarch":12670,"Ġynskreaun":12671,"ĠMidden":12672,"Ġboaiemdelgong":12673,"betoan":12674,"Ġcompetitie":12675,"ĠFroukje":12676,"ĠGoaiÃ¯n":12677,"Ġoardelmeterregel":12678,"ĠBijma":12679,"Ġbeperkt":12680,"eldenrust":12681,"Ġferheging":12682,"Ġheftich":12683,"ĠstedhÃ»s":12684,"gelegenheden":12685,"iktee":12686,"ĠfakbÃ»nen":12687,"ĠParys":12688,"Ġvrienden":12689,"ĠSuder":12690,"Ġprotesten":12691,"Ġsjongen":12692,"Ġeksploitaasje":12693,"wiesa":12694,"Ġrenov":12695,"Ġprofitearje":12696,"ĠFierljep":12697,"Ġstimulearjen":12698,"betelje":12699,"abriken":12700,"Ġmaxim":12701,"ĠKeninkryk":12702,"ĠbeÃ«in":12703,"Daarnaast":12704,"Ġverspreiding":12705,"Efkes":12706,"ĠMitchell":12707,"Ġtafallich":12708,"Ġfietsen":12709,"ĠMetz":12710,"ĠdistribÃºsje":12711,"Ġfinansiering":12712,"Ġdiscussie":12713,"GrienLinks":12714,"Ġscoot":12715,"ĠSociaal":12716,"Ġlikense":12717,"Ġtribune":12718,"Ġfariant":12719,"ĠIJssel":12720,"Ġdonkere":12721,"ircul":12722,"ĠHasker":12723,"otheker":12724,"Ġunanym":12725,"lassemint":12726,"ĠBios":12727,"loosterman":12728,"Ġmuoilik":12729,"ĠSlachtemaraton":12730,"ĠSkarsterbrÃªge":12731,"Provinsjale":12732,"ĠTaeke":12733,"ĠwetteroerlÃªst":12734,"Ġmomenteel":12735,"ĠTsjÃ»kemar":12736,"''":12737,"56":12738,"Boer":12739,"Brok":12740,"Bliuw":12741,"FC":12742,"Fol":12743,"FNP":12744,"Hoop":12745,"Kn":12746,"Knegt":12747,"LM":12748,"NN":12749,"Post":12750,"Paul":12751,"Rail":12752,"Sj":12753,"Seis":12754,"Wim":12755,"Wurk":12756,"ao":12757,"aver":12758,"aille":12759,"ban":12760,"bak":12761,"blok":12762,"hi":12763,"holle":12764,"haske":12765,"ifer":12766,"ioene":12767,"mende":12768,"nod":12769,"ouw":12770,"rende":12771,"sc":12772,"sjerke":12773,"volle":12774,"vlak":12775,"yer":12776,"yke":12777,"zine":12778,"Ġdj":12779,"Ġdunen":12780,"Ġdaalks":12781,"erkt":12782,"inx":12783,"anu":12784,"anaal":12785,"Ġdeaslach":12786,"Ġwalf":12787,"Ġwww":12788,"Ġoade":12789,"Ġbril":12790,"Ġbaalt":12791,"Ġheide":12792,"ĠhÃ»d":12793,"etsje":12794,"Ġnamelijk":12795,"elÃ¢n":12796,"elingen":12797,"Ġklik":12798,"Ġkopp":12799,"Ġketting":12800,"staal":12801,"struksje":12802,"jecten":12803,"Ġgig":12804,"Ġgienen":12805,"ĠfanÃ´f":12806,"Ġtrop":12807,"Ġtuin":12808,"Ġinter":12809,"Ġinteress":12810,"Ġiniti":12811,"Ġiso":12812,"Ġporte":12813,"Ġopmakke":12814,"keat":12815,"edysje":12816,"neg":12817,"ney":12818,"Ġtefoaren":12819,"ita":12820,"Definsje":12821,"gezet":12822,"Ġfoardielen":12823,"isip":12824,"Ġomloop":12825,"Ġlink":12826,"Ġlud":12827,"Ġljochte":12828,"Ġvis":12829,"Ġvlak":12830,"Ġvwo":12831,"Ġoankl":12832,"Ġoanmel":12833,"Ġoanfierder":12834,"Ġoanriden":12835,"Ġoanbesteging":12836,"Ġgesin":12837,"Ġmoeder":12838,"ĠjÃ»nt":12839,"dening":12840,"denburg":12841,"ussel":12842,"ĠSc":12843,"ĠSi":12844,"ĠSjo":12845,"ĠSeel":12846,"ĠSoepboer":12847,"ĠSytze":12848,"Ġbydragen":12849,"adres":12850,"ienkomst":12851,"Ġoername":12852,"Ġoerdeis":12853,"meenschap":12854,"Ġneijier":12855,"Ġneisjoen":12856,"Ġhaal":12857,"Ġsector":12858,"Ã´ne":12859,"ĠÃ»ngel":12860,"ĠBram":12861,"ĠHaar":12862,"ĠHoll":12863,"ĠHjoed":12864,"ĠHessel":12865,"ĠHayo":12866,"gele":12867,"unic":12868,"Ġreder":12869,"ĠLucas":12870,"ĠAN":12871,"Ġplaten":12872,"Ġskel":12873,"Ġskuor":12874,"Ġskoaren":12875,"Ġskroeven":12876,"ĠÃ´fl":12877,"apier":12878,"Ġerf":12879,"ĠWep":12880,"ĠWÃ¢nswert":12881,"Ġdoed":12882,"ĠtrochjÃ»n":12883,"Ġspont":12884,"Ġoarsprong":12885,"ĠMors":12886,"ĠMKB":12887,"ĠMatt":12888,"ĠMostert":12889,"skundigen":12890,"ĠKat":12891,"ĠKam":12892,"ĠKru":12893,"ĠGoutum":12894,"ĠJar":12895,"ĠVelt":12896,"ĠVliel":12897,"intra":12898,"asting":12899,"ĠRitsma":12900,"Ġearmoed":12901,"Ġearbetoan":12902,"Ġlean":12903,"Ġwierskynlik":12904,"aff":12905,"affe":12906,"afond":12907,"Ġhieltiten":12908,"Ġgoedkard":12909,"teljen":12910,"ĠTV":12911,"ĠTil":12912,"ĠTek":12913,"ĠTÃ»mba":12914,"ĠÃ»nderbrocht":12915,"ĠÃ»nderwerpen":12916,"oucher":12917,"Ġtwatal":12918,"Ġtwintig":12919,"ĠCard":12920,"ĠCnossen":12921,"ĠEise":12922,"igh":12923,"igings":12924,"ylden":12925,"Ġkloppet":12926,"Ġhoech":12927,"Ġwurkwize":12928,"Ġavent":12929,"Ġeisen":12930,"Ġneamen":12931,"Ġmetoade":12932,"ates":12933,"Ġvern":12934,"Ġverbe":12935,"istoal":12936,"Ġkeas":12937,"innende":12938,"Ġgewone":12939,"Ġgewerkt":12940,"nimming":12941,"ift":12942,"metaal":12943,"Ġzeven":12944,"ambissa":12945,"Ġboom":12946,"Ġgebracht":12947,"Ġgebieden":12948,"Ġfertelden":12949,"Ġskoalkoepel":12950,"keten":12951,"Foarige":12952,"Ġ5000":12953,"Ġkansen":12954,"werter":12955,"sloten":12956,"Ġdoarpke":12957,"ĠthÃºswurkje":12958,"ĠthÃºssoarch":12959,"meiwurker":12960,"ĠJongsma":12961,"ĠÃºtset":12962,"ĠÃºtsykje":12963,"Ġdaarbij":12964,"ĠHarinx":12965,"ftal":12966,"Ġteststrjitte":12967,"ĠSchokker":12968,"Ġ67":12969,"atieve":12970,"ĠAnke":12971,"ĠAngel":12972,"Ġgrinzen":12973,"ĠbÃ»tengebiet":12974,"enema":12975,"Ã©t":12976,"Ġterp":12977,"Ġmoandeis":12978,"ĠfakÃ¢nsjes":12979,"Ġdoorge":12980,"assist":12981,"ĠStefan":12982,"ĠSteenstra":12983,"Ġ72":12984,"sintator":12985,"Ġgearf":12986,"Ġmomenten":12987,"Ġrou":12988,"Ġroer":12989,"Ġ2023":12990,"Ġleararen":12991,"ĠSparta":12992,"Ġmedal":12993,"ĠSnitswike":12994,"ĠGryn":12995,"ksyg":12996,"cties":12997,"Ġfuotbalklups":12998,"Ġtoerist":12999,"Ġstille":13000,"ĠArchief":13001,"Ġsportive":13002,"Ġsportferieningen":13003,"Ġpublike":13004,"Ġpeallen":13005,"Ġoanpasse":13006,"Ġopnamen":13007,"Ġopnieuw":13008,"Ġwyld":13009,"ĠbasisÃ»nderwiis":13010,"Ġtaffel":13011,"Ġdraaid":13012,"Ġteamlieder":13013,"minister":13014,"ĠGeorge":13015,"Ġdrukke":13016,"bedrach":13017,"oetendal":13018,"strjitwei":13019,"ident":13020,"Ġdupe":13021,"ĠAmsterdammer":13022,"Ġontmo":13023,"Ġarche":13024,"ĠKeamerferkie":13025,"Geert":13026,"Ġsaneamd":13027,"Ġgehiel":13028,"insjele":13029,"Ġaksept":13030,"Ġakkommod":13031,"Ġpleksyg":13032,"ĠdÃ»k":13033,"ĠdÃ»kt":13034,"Ġunif":13035,"Ġtariede":13036,"Ġmeastal":13037,"Ġferliest":13038,"uizen":13039,"Anders":13040,"Ġklim":13041,"ĠwarskÃ´gje":13042,"Ġgasfjilden":13043,"ingstiden":13044,"ĠWevers":13045,"Ġdemonstranten":13046,"Ġtroud":13047,"rapport":13048,"Ġsoantsje":13049,"Ġhandich":13050,"ĠHollÃ¢n":13051,"Ġ1944":13052,"Ġmerkt":13053,"Ġkenteken":13054,"Ġ750":13055,"ĠÃ©cht":13056,"ODC":13057,"ĠspitigernÃ´ch":13058,"Ġgeraakt":13059,"grid":13060,"Ġspeed":13061,"ĠYnlÃ¢nske":13062,"Ġslechte":13063,"joernalist":13064,"uldige":13065,"Ġmotorrider":13066,"aliÃ«n":13067,"ĠHermans":13068,"Ġkuierjen":13069,"Ġkuiertocht":13070,"ĠSwim":13071,"Ġminsk":13072,"ĠSurin":13073,"enLeven":13074,"Ġtrochsette":13075,"Ġrondes":13076,"rouwens":13077,"Ġskjinmakke":13078,"Ġbescherm":13079,"Ġritten":13080,"Ġstuts":13081,"ĠentÃ»sjasme":13082,"Ġkoff":13083,"Ġopskaald":13084,"ĠBlau":13085,"ĠBlack":13086,"ĠbÃ»se":13087,"ĠWilkens":13088,"Ġcontactonderzoek":13089,"ĠÃ»nderdÃ»kt":13090,"ĠÃ´fwachting":13091,"Ġreserves":13092,"barren":13093,"Ġpanielen":13094,"Ġverbind":13095,"ĠkliÃ¯nte":13096,"ĠTerherne":13097,"ĠKnipe":13098,"Ġarbeids":13099,"ĠSteatefraksje":13100,"Ġferplichting":13101,"fiskerij":13102,"ĠMelles":13103,"ĠfersoargingshÃ»zen":13104,"Ġophongen":13105,"Ġeksploazje":13106,"Ġabsoluut":13107,"Somtiden":13108,"Ġsjoernalisten":13109,"dukten":13110,"ĠHendriks":13111,"Ġnoodzak":13112,"Ġ1970":13113,"Ġdramatysk":13114,"Ġontwikkelen":13115,"ĠPoiesz":13116,"Ġfilme":13117,"ĠTsjerken":13118,"Ġsteateleden":13119,"hoeve":13120,"Ġfrjemde":13121,"ĠPoalske":13122,"Ġynfolje":13123,"ĠmilitÃªre":13124,"Ġliteratuer":13125,"Ġdirekte":13126,"ĠÃ»nferwachte":13127,"monuminten":13128,"Ġsulveren":13129,"rinnende":13130,"Ġbewarjen":13131,"dderus":13132,"ĠNieuwpoort":13133,"ogerman":13134,"Ġdeadlike":13135,"ĠGelderlÃ¢n":13136,"8844":13137,"gewoane":13138,"ĠWeissens":13139,"Ġrentree":13140,"Ġfokus":13141,"ĠferwÃ»ningen":13142,"Ġstimulearje":13143,"ĠAcute":13144,"ĠcreÃ«":13145,"ĠRixt":13146,"ĠferdÃ»bele":13147,"ĠÃ»nwissens":13148,"Ġfotograaf":13149,"Ġteleur":13150,"iepening":13151,"Ġkuorballers":13152,"Ġaudi":13153,"Ġfysioterapeut":13154,"Ġyngripe":13155,"ĠStellingwerf":13156,"Ġwoartels":13157,"Ġskriftlike":13158,"ĠLouise":13159,"Ġhoarekasaken":13160,"ĠmelkfeehÃ¢lders":13161,"Ġkonsintraasje":13162,"Ġfergunningen":13163,"ĠFilip":13164,"Ġplomfee":13165,"ĠSchuurman":13166,"ĠRispens":13167,"ĠAquaZoo":13168,"blessuere":13169,"Ġtillefoan":13170,"Ġtoske":13171,"Ġynstallearre":13172,"ĠWetsus":13173,"Ġmoetingsplak":13174,"Ġprincipe":13175,"ĠKNGU":13176,"Ġboargerynfiltrant":13177,"plussers":13178,"ĠjÃ»ntiid":13179,"ĠWeperen":13180,"ĠpleksyglÃªs":13181,"ĠWeissensee":13182,"-,":13183,"41":13184,"App":13185,"Bro":13186,"Bakker":13187,"BrÃ¢n":13188,"Dichter":13189,"Doarps":13190,"Even":13191,"Fa":13192,"Fe":13193,"Fuort":13194,"Kar":13195,"LDODK":13196,"MÃ¼hren":13197,"Natuer":13198,"Ons":13199,"PODC":13200,"SP":13201,"Soe":13202,"SÃºd":13203,"Sokke":13204,"Toch":13205,"ThÃºs":13206,"Veilig":13207,"bach":13208,"bork":13209,"cte":13210,"cro":13211,"ced":13212,"cola":13213,"fÃº":13214,"fort":13215,"fynt":13216,"gast":13217,"gjende":13218,"ka":13219,"kandid":13220,"lopen":13221,"med":13222,"mannen":13223,"mbo":13224,"mond":13225,"nsen":13226,"nijs":13227,"nota":13228,"oate":13229,"pend":13230,"passen":13231,"setten":13232,"toer":13233,"ux":13234,"uvel":13235,"urig":13236,"vÃ©":13237,"vinden":13238,"wal":13239,"wearde":13240,"Ġrug":13241,"enken":13242,"enheid":13243,"enario":13244,"inyk":13245,"arden":13246,"arium":13247,"Ġfinger":13248,"Ġsmer":13249,"Ġswurd":13250,"Ġdefinsje":13251,"Ġwijk":13252,"ĠwÃ³":13253,"ĠmbÃ»":13254,"ĠbÃªden":13255,"Ġhong":13256,"etra":13257,"etarium":13258,"Ġnon":13259,"Ġnaden":13260,"Ġkol":13261,"stsjinst":13262,"studinten":13263,"Ġgre":13264,"Ġgram":13265,"Ġtbs":13266,"Ġtonger":13267,"Ġynsl":13268,"Ġenoarm":13269,"Ġeam":13270,"Ġeink":13271,"Ã»p":13272,"Ġopvang":13273,"Ġoplichting":13274,"ligen":13275,"liver":13276,"ness":13277,"Ġtee":13278,"olling":13279,"akers":13280,"Ġmeist":13281,"Ġmeimeitsje":13282,"gegevens":13283,"Ġfoarsk":13284,"Ġfoarfal":13285,"Ġfoardoar":13286,"Ġfoarljochting":13287,"Ġfoargonger":13288,"Ġbehelle":13289,"isca":13290,"Ġomlizzende":13291,"Ġlje":13292,"ĠlÃºster":13293,"Ġoankeap":13294,"Ġoangeande":13295,"Ġnetten":13296,"Ġalteast":13297,"Ġferzje":13298,"Ġnot":13299,"iere":13300,"eare":13301,"earjende":13302,"Ġstij":13303,"Ġstrate":13304,"ĠFed":13305,"ĠFoeke":13306,"ĠFalkena":13307,"Ġjuli":13308,"Ġjanu":13309,"ĠSher":13310,"ĠSÃºdeast":13311,"Ġoerflak":13312,"Ġzon":13313,"ĠÃºtkaam":13314,"ĠÃºtfeart":13315,"ĠBinnen":13316,"ĠBatista":13317,"ĠBogerman":13318,"rysk":13319,"ĠHou":13320,"weagen":13321,"unsters":13322,"Ġredelijk":13323,"Ġcor":13324,"ĠLok":13325,"ĠLive":13326,"ĠLeiden":13327,"ĠLange":13328,"rene":13329,"renzen":13330,"ĠAus":13331,"ĠAut":13332,"ĠAko":13333,"Ġsawiesa":13334,"Ġskuon":13335,"ĠÃ´flever":13336,"ĠÃ´fdielingen":13337,"aple":13338,"Ġerin":13339,"ĠWilli":13340,"ikels":13341,"ikrobiolooch":13342,"ĠNEC":13343,"ĠNienke":13344,"Ġspyt":13345,"efstra":13346,"Ġliever":13347,"ĠDol":13348,"ĠDom":13349,"ĠDiks":13350,"ĠDissel":13351,"antgum":13352,"ĠMc":13353,"ĠMal":13354,"ĠMag":13355,"ĠMeld":13356,"ĠMees":13357,"ĠMilieu":13358,"ĠMoarre":13359,"skou":13360,"ĠKunst":13361,"ĠKinder":13362,"ĠKlimaat":13363,"ĠKloosterman":13364,"ĠGoud":13365,"ĠGaliÃ«n":13366,"irns":13367,"ĠJust":13368,"ĠJud":13369,"ĠJonker":13370,"ĠVak":13371,"ĠVoedsel":13372,"ĠVitens":13373,"Ġmeub":13374,"Ġbesef":13375,"utta":13376,"ĠRyp":13377,"ĠRuss":13378,"otlÃ¢n":13379,"otanus":13380,"ĠPan":13381,"ĠPraag":13382,"telaar":13383,"ĠTot":13384,"ĠTess":13385,"zenga":13386,"ĠÃ»nderhannel":13387,"ĠCallens":13388,"oso":13389,"berne":13390,"ĠEsther":13391,"olleezje":13392,"ederatie":13393,"Ġrivier":13394,"Ġferslein":13395,"ĠOud":13396,"ĠOude":13397,"West":13398,"pekt":13399,"feer":13400,"Ġwurkgelegenheid":13401,"Ġoantaast":13402,"Ġdiep":13403,"Ġberch":13404,"Ġberoep":13405,"ferg":13406,"Ġbegon":13407,"Ġeilanners":13408,"Ġbedra":13409,"stell":13410,"Ġverboden":13411,"Ġvergeten":13412,"Ġbellet":13413,"Ãºtstjoering":13414,"Ġtried":13415,"Ġ350":13416,"Ġgroeide":13417,"abed":13418,"abon":13419,"amping":13420,"Ġlykspul":13421,"Ġiepeningstiden":13422,"Ġmoetsje":13423,"Ġgebeld":13424,"Ġpersonen":13425,"Ġkeare":13426,"Ġbestim":13427,"landse":13428,"Ġorde":13429,"lijker":13430,"keting":13431,"entie":13432,"Ġweromkomme":13433,"ĠIerlÃ¢n":13434,"wenning":13435,"ĠÃ»ntken":13436,"ĠStok":13437,"ĠferhÃ»":13438,"Ġjildende":13439,"ĠItal":13440,"Ġzowel":13441,"Ġbedriuweter":13442,"learring":13443,"sluit":13444,"Ġfuortfallen":13445,"odium":13446,"ploegen":13447,"Ġ450":13448,"Ġcoronagefallen":13449,"ĠMarinus":13450,"Ġ2010":13451,"Ġswom":13452,"Ġpassy":13453,"Ġfamili":13454,"ĠÃºtsocht":13455,"ĠNoarwegen":13456,"Ġgreiden":13457,"Ġpreem":13458,"ĠwenhÃ»s":13459,"ĠpoÃ«":13460,"Ġschoon":13461,"ĠSkotlÃ¢n":13462,"Ġsnie":13463,"Ġsykaksje":13464,"ĠSpaanske":13465,"diken":13466,"ĠGrÃ»n":13467,"Ġfytspaden":13468,"Ġnatuerlike":13469,"ttema":13470,"Ġdielname":13471,"Ġferoarsaak":13472,"ĠeftergrÃ»n":13473,"Ġparad":13474,"Ġparkearre":13475,"ĠrÃ»nte":13476,"Ġblijf":13477,"hous":13478,"hotel":13479,"Ġwinters":13480,"Ġideale":13481,"Ġbeppes":13482,"Ġwitst":13483,"loit":13484,"fining":13485,"ĠGroenLinks":13486,"Ġtafalt":13487,"Ġ900":13488,"Ġ180":13489,"Ġswierder":13490,"Ġboekingen":13491,"Ġmuziek":13492,"ĠGebben":13493,"Ġreser":13494,"Ġbleek":13495,"sesje":13496,"Ġpersintaazje":13497,"ĠLeo":13498,"akkerbuorren":13499,"Ġ170":13500,"waele":13501,"Ġtoege":13502,"Ġ2001":13503,"Ã¯teit":13504,"Ġpraktiken":13505,"ĠGerald":13506,"Ġfernijd":13507,"ĠAldehaske":13508,"Ġgehei":13509,"Ġdoarpsbewenners":13510,"Ġkompetysjes":13511,"wente":13512,"Ġbiologyske":13513,"Ġferlienen":13514,"Ġ0800":13515,"Ġfarsk":13516,"Ġsintsje":13517,"ĠkrystfakÃ¢nsje":13518,"Ġboekt":13519,"Ġtanommen":13520,"Ġ1940":13521,"Ġsochten":13522,"ĠSportcast":13523,"Ġkapot":13524,"Ġkwytrekke":13525,"Ġdynam":13526,"Ġynstrum":13527,"ĠstÃ¢npunt":13528,"Ġreizge":13529,"gricola":13530,"Ġstjerre":13531,"ĠRotte":13532,"Ġflechten":13533,"Ġtankjen":13534,"Ġhanthavene":13535,"valid":13536,"Ġbrea":13537,"ĠKollumers":13538,"nelheid":13539,"Ġtrochsocht":13540,"Ġfjoerwurkferbod":13541,"Ġoerset":13542,"Ġverdriet":13543,"Ġeksamens":13544,"Ġferbettering":13545,"Ġkonserten":13546,"Ġadvokaten":13547,"Ġvrijwilligers":13548,"ĠWesterbork":13549,"ĠJoadsk":13550,"onkerak":13551,"buske":13552,"Ġkommissarissen":13553,"winkels":13554,"Ġhouts":13555,"Ġlogisch":13556,"ĠNoorden":13557,"Ġblykber":13558,"ĠBrazili":13559,"Ġdjoere":13560,"buien":13561,"Ġminstens":13562,"ĠynhÃ¢ldlike":13563,"Ġfoldogge":13564,"ĠreeÃ«n":13565,"ĠWijnia":13566,"Ġpromovearret":13567,"Ġaangegeven":13568,"Ġwinnende":13569,"nimmende":13570,"Ġcoaches":13571,"materi":13572,"Ġgeneraasjes":13573,"Ġfergoede":13574,"Ġspeler":13575,"clus":13576,"cherming":13577,"Ġkursussen":13578,"ĠKuiper":13579,"Bosk":13580,"Ġperspectief":13581,"ĠAntonia":13582,"ĠoertrÃªd":13583,"ĠScheepvaart":13584,"ĠÃ»ndersyksburo":13585,"Ġfinzenisstraf":13586,"Jongerein":13587,"Ġturnsters":13588,"Ġpykjes":13589,"Ġliefst":13590,"rinnend":13591,"Ġoanskerpe":13592,"Ġboatsjeminsken":13593,"ĠBaukje":13594,"Ġbesoarge":13595,"DÃªroer":13596,"Ġsuske":13597,"Ġyngewikkel":13598,"ĠÃºtbrekken":13599,"ĠOsinga":13600,"Ġgevaarlijk":13601,"Tsientallen":13602,"ĠRuth":13603,"ĠmÃ»lekapkes":13604,"Ġomskriuwt":13605,"Ġwytwas":13606,"splakken":13607,"Ġspesifike":13608,"Ġferlinging":13609,"Ġfleurich":13610,"ĠAlvestÃªdehal":13611,"ĠEdwin":13612,"ĠFriezinne":13613,"Ġeksperimint":13614,"Afrika":13615,"ĠChampions":13616,"ĠChampionship":13617,"Ġyllegaal":13618,"Ġemoasjes":13619,"inuÃ¯teit":13620,"ĠDresevic":13621,"ĠVellinga":13622,"ĠAndreae":13623,"ĠLandbouwmuseum":13624,"Ġynbrekkers":13625,"ĠFolker":13626,"ĠHeida":13627,"Ġerkenning":13628,"ĠÃ»nderfregen":13629,"Ġupdate":13630,"Ġseldsume":13631,"Ġkeppele":13632,"Ġmanifestaasje":13633,"Ġklimaatferoaring":13634,"Ġgerjochtsh":13635,"ĠJochem":13636,"Ġwerklikheid":13637,"ĠBasketball":13638,"weinsjauffeur":13639,"Ġearrebarren":13640,"Ġdolfyn":13641,"Ġynfeksjesykten":13642,"Ġgranul":13643,"ĠAaldering":13644,"ĠKetlik":13645,"Ġwykeinen":13646,"Ġbehoorlijk":13647,"ĠNachtwacht":13648,"ĠJannewietske":13649,"Ġlesjaan":13650,"ĠZuider":13651,"Ġcoronastjergefallen":13652,"sjitekt":13653,"humus":13654,"ique":13655,"wapens":13656,"ĠJessica":13657,"Ġboodschap":13658,"Ġhaadsponsor":13659,"beslÃºt":13660,"Ġgigant":13661,"ĠSeelÃ¢n":13662,"ĠCardoso":13663,"Ġmedaljes":13664,"PODCAST":13665,"ĠwÃ³l":13666,"300":13667,"47":13668,"59":13669,"91":13670,"Car":13671,"Dok":13672,"Fak":13673,"Flak":13674,"HÃ¢ld":13675,"Hurd":13676,"Hokker":13677,"Jet":13678,"Kan":13679,"Like":13680,"Lytse":13681,"ONS":13682,"Stel":13683,"Suzanne":13684,"VID":13685,"Visma":13686,"Wink":13687,"aer":13688,"bol":13689,"bers":13690,"brig":13691,"cam":13692,"confer":13693,"fi":13694,"fde":13695,"fla":13696,"gal":13697,"graaf":13698,"hurd":13699,"hande":13700,"iend":13701,"iip":13702,"jalen":13703,"kop":13704,"kking":13705,"lop":13706,"nd":13707,"nr":13708,"ned":13709,"nammen":13710,"pende":13711,"rjitte":13712,"rasse":13713,"supporters":13714,"th":13715,"tin":13716,"uv":13717,"ues":13718,"uearre":13719,"velf":13720,"valt":13721,"wyn":13722,"wed":13723,"wille":13724,"walif":13725,"yck":13726,"zendal":13727,"ĠIk":13728,"Ġyt":13729,"Ġdaad":13730,"Ġdachten":13731,"Ġdrukt":13732,"inters":13733,"anley":13734,"enda":13735,"aryske":13736,"Ġfig":13737,"Ġsho":13738,"Ġwo":13739,"Ġwoord":13740,"Ġwaait":13741,"Ġocht":13742,"Ġbaar":13743,"Ġbaal":13744,"elix":13745,"Ġkent":13746,"Ġkorpsen":13747,"Ġkazerne":13748,"ynstit":13749,"string":13750,"stroom":13751,"Ġgit":13752,"alch":13753,"alit":13754,"ĠtÃ»k":13755,"Ġinwoners":13756,"Ġynw":13757,"Ġynkeap":13758,"Ġynbrutsen":13759,"ria":13760,"rise":13761,"ritsma":13762,"riteiten":13763,"leet":13764,"Ġopste":13765,"Ġoparbeid":13766,"keazen":13767,"neel":13768,"Ġtegem":13769,"asium":13770,"itze":13771,"akte":13772,"akelje":13773,"Ġmeihel":13774,"ommel":13775,"gesteld":13776,"Ġfoaroan":13777,"Ġfoarstanner":13778,"Ġomride":13779,"Ġomstandigheden":13780,"ijer":13781,"Ġlokkich":13782,"joersk":13783,"Ġvele":13784,"Ġvoren":13785,"Ġvieren":13786,"Ġvlieg":13787,"Ġoangean":13788,"Ġoankomme":13789,"Ġoankomt":13790,"Ġgep":13791,"Ġferfierder":13792,"Ġferfalle":13793,"Ġferfangen":13794,"oefen":13795,"Ġstrop":13796,"Ġstate":13797,"Ġstazj":13798,"Ġstokje":13799,"ĠFÃ»ns":13800,"ilers":13801,"genie":13802,"ĠSli":13803,"ĠSambissa":13804,"adia":13805,"Ġoerfallen":13806,"Ġoerbliuwe":13807,"Ġoerlange":13808,"ima":13809,"imen":13810,"mes":13811,"stein":13812,"stekken":13813,"lÃ¢nbou":13814,"Ġwegen":13815,"Ġzingen":13816,"Ġzonne":13817,"Ġzaterdag":13818,"ĠÃ»ngem":13819,"ĠBril":13820,"ĠHy":13821,"ĠHek":13822,"Ġrezjy":13823,"ĠFryslan":13824,"ĠLam":13825,"ĠLes":13826,"ĠLiss":13827,"ĠLee":13828,"ĠLucht":13829,"ĠLars":13830,"ĠLetitia":13831,"Ã´fstÃ¢n":13832,"Ã´fdielingen":13833,"ĠAb":13834,"ĠArie":13835,"esje":13836,"Ġplei":13837,"Ġplafond":13838,"Ġskat":13839,"Ġskuorren":13840,"ĠÃ´fkomst":13841,"ĠÃ´fnimme":13842,"Ġheak":13843,"apel":13844,"ĠWaal":13845,"ĠWind":13846,"iking":13847,"ĠNu":13848,"ĠNoflik":13849,"Ġsprieding":13850,"Ġharte":13851,"Ġrend":13852,"Ġrele":13853,"efrij":13854,"ĠDyk":13855,"Ġvanavond":13856,"antinga":13857,"ĠMech":13858,"Ġproces":13859,"ĠKla":13860,"ĠKeijzer":13861,"ĠGouden":13862,"ĠGiovanni":13863,"ummer":13864,"ĠJanneke":13865,"ĠVest":13866,"menga":13867,"astic":13868,"ĠRin":13869,"ĠRien":13870,"ĠRand":13871,"ĠRub":13872,"Ġlezen":13873,"Ġleeg":13874,"Ġlevert":13875,"aatsen":13876,"ĠPap":13877,"ĠPee":13878,"ĠPein":13879,"ĠPRO":13880,"ĠPodium":13881,"ulÃªr":13882,"Ġsouder":13883,"agroep":13884,"aginda":13885,"ĠTerk":13886,"ĠTransport":13887,"ĠÃ»nderhÃ¢lden":13888,"Ġtwijf":13889,"Ġdilem":13890,"ĠCru":13891,"ĠComm":13892,"Ġhellen":13893,"ĠEva":13894,"verlen":13895,"Ġrid":13896,"ĠOt":13897,"peal":13898,"petear":13899,"Ġsluit":13900,"Ġsloep":13901,"Ġtsjinje":13902,"Ġmanee":13903,"ĠtwahÃ»ndert":13904,"Ġactief":13905,"Ġbegro":13906,"Ġbegraf":13907,"Ġelftal":13908,"stripe":13909,"Ġverv":13910,"Ġverplicht":13911,"aune":13912,"istike":13913,"Ġkeuring":13914,"Ġgrotere":13915,"abylden":13916,"Ġbovend":13917,"Ġbenzine":13918,"Ġpersconfer":13919,"aiden":13920,"estiids":13921,"skippers":13922,"foarstel":13923,"Ġbijen":13924,"Ġeffis":13925,"ball":13926,"adema":13927,"Ġfleis":13928,"Ġautoriteiten":13929,"Ġkanalen":13930,"Ġraces":13931,"Ġzoon":13932,"ĠeinstÃ¢n":13933,"Ġfuortgean":13934,
[...]
