{"<|endoftext|>":0,"!":1,"\"":2,"#":3,"$":4,"%":5,"&":6,"'":7,"(":8,")":9,"*":10,"+":11,",":12,"-":13,".":14,"/":15,"0":16,"1":17,"2":18,"3":19,"4":20,"5":21,"6":22,"7":23,"8":24,"9":25,":":26,";":27,"<":28,"=":29,">":30,"?":31,"@":32,"A":33,"B":34,"C":35,"D":36,"E":37,"F":38,"G":39,"H":40,"I":41,"J":42,"K":43,"L":44,"M":45,"N":46,"O":47,"P":48,"Q":49,"R":50,"S":51,"T":52,"U":53,"V":54,"W":55,"X":56,"Y":57,"Z":58,"[":59,"\\":60,"]":61,"^":62,"_":63,"`":64,"a":65,"b":66,"c":67,"d":68,"e":69,"f":70,"g":71,"h":72,"i":73,"j":74,"k":75,"l":76,"m":77,"n":78,"o":79,"p":80,"q":81,"r":82,"s":83,"t":84,"u":85,"v":86,"w":87,"x":88,"y":89,"z":90,"{":91,"|":92,"}":93,"~":94,"¡":95,"¢":96,"£":97,"¤":98,"¥":99,"¦":100,"§":101,"¨":102,"©":103,"ª":104,"«":105,"¬":106,"®":107,"¯":108,"°":109,"±":110,"²":111,"³":112,"´":113,"µ":114,"¶":115,"·":116,"¸":117,"¹":118,"º":119,"»":120,"¼":121,"½":122,"¾":123,"¿":124,"À":125,"Á":126,"Â":127,"Ã":128,"Ä":129,"Å":130,"Æ":131,"Ç":132,"È":133,"É":134,"Ê":135,"Ë":136,"Ì":137,"Í":138,"Î":139,"Ï":140,"Ð":141,"Ñ":142,"Ò":143,"Ó":144,"Ô":145,"Õ":146,"Ö":147,"×":148,"Ø":149,"Ù":150,"Ú":151,"Û":152,"Ü":153,"Ý":154,"Þ":155,"ß":156,"à":157,"á":158,"â":159,"ã":160,"ä":161,"å":162,"æ":163,"ç":164,"è":165,"é":166,"ê":167,"ë":168,"ì":169,"í":170,"î":171,"ï":172,"ð":173,"ñ":174,"ò":175,"ó":176,"ô":177,"õ":178,"ö":179,"÷":180,"ø":181,"ù":182,"ú":183,"û":184,"ü":185,"ý":186,"þ":187,"ÿ":188,"Ā":189,"ā":190,"Ă":191,"ă":192,"Ą":193,"ą":194,"Ć":195,"ć":196,"Ĉ":197,"ĉ":198,"Ċ":199,"ċ":200,"Č":201,"č":202,"Ď":203,"ď":204,"Đ":205,"đ":206,"Ē":207,"ē":208,"Ĕ":209,"ĕ":210,"Ė":211,"ė":212,"Ę":213,"ę":214,"Ě":215,"ě":216,"Ĝ":217,"ĝ":218,"Ğ":219,"ğ":220,"Ġ":221,"ġ":222,"Ģ":223,"ģ":224,"Ĥ":225,"ĥ":226,"Ħ":227,"ħ":228,"Ĩ":229,"ĩ":230,"Ī":231,"ī":232,"Ĭ":233,"ĭ":234,"Į":235,"į":236,"İ":237,"ı":238,"Ĳ":239,"ĳ":240,"Ĵ":241,"ĵ":242,"Ķ":243,"ķ":244,"ĸ":245,"Ĺ":246,"ĺ":247,"Ļ":248,"ļ":249,"Ľ":250,"ľ":251,"Ŀ":252,"ŀ":253,"Ł":254,"ł":255,"Ń":256,"en":257,"te":258,"Ġd":259,"er":260,"in":261,"an":262,"of":263,"end":264,"xt":265,"ofte":266,"<|":267,"|>":268,"endofte":269,"endoftext":270,"ar":271,"Ġf":272,".<|":273,"Ġs":274,"Ġde":275,"Ġi":276,"Ġw":277,"Ġm":278,"Ġo":279,"Ġb":280,"at":281,"Ġh":282,"et":283,"ch":284,"ei":285,"Ġn":286,"el":287,"Ġk":288,"yn":289,"Ġit":290,"st":291,"je":292,"Ġg":293,"al":294,"Ġfan":295,"Ġt":296,"ĠD":297,"Ġin":298,"Ġyn":299,"ro":300,"oar":301,"Ġen":302,"Ġis":303,"ri":304,"Ġe":305,"le":306,"Ã»":307,"Ġp":308,"re":309,"Ġop":310,"li":311,"ke":312,"ing":313,"Ġdat":314,"ed":315,"ne":316,"Ã¢":317,"Ġte":318,"as":319,"ur":320,"ol":321,"it":322,"ers":323,"de":324,"Ãª":325,"ak":326,"Ġmei":327,"ter":328,"on":329,"ie":330,"cht":331,"om":332,"Ãº":333,"ĠDe":334,"am":335,"ge":336,"or":337,"Ġfoar":338,"ken":339,"Ã»n":340,"Ġ\"":341,"der":342,"ĠS":343,"Ġbe":344,"ĠF":345,"is":346,"Ġom":347,"Ã¢n":348,"ij":349,"ĠI":350,"Ġl":351,"jo":352,"inne":353,"Ġv":354,"Ġder":355,"ra":356,"Ġoan":357,"ys":358,"Ġge":359,"Ġnet":360,"Ġal":361,"aar":362,"Ġmo":363,"Ġfer":364,"'t":365,"Ġno":366,"ier":367,"ear":368,"oe":369,"Ġst":370,"ĠH":371,"ten":372,"ts":373,"Ġwur":374,"Ġj":375,"il":376,"uw":377,"den":378,"\"<|":379,"Ġek":380,"ĠÃº":381,"ĠM":382,"gen":383,"us":384,"ĠB":385,"Ġdy":386,"ins":387,"iet":388,"ĠW":389,"Ġby":390,"Ġwol":391,"ad":392,"Ãªr":393,"ĠN":394,"ien":395,".\"<|":396,"ze":397,"Ġoer":398,"ĠIt":399,"ĠA":400,"im":401,"yk":402,"me":403,"ste":404,"Ġnei":405,"Ġha":406,"Ġbinne":407,"Ġkom":408,"lÃ¢n":409,"Ġse":410,"Ġwe":411,"ĠE":412,"Ġmar":413,"jen":414,"Ã´":415,"aan":416,"Ġz":417,"jin":418,"ĠÃºt":419,"ĠÃ»n":420,"00":421,"iel":422,"Ġhat":423,"ru":424,"id":425,"rys":426,"Ã¢l":427,"Ġas":428,"ĠL":429,"ok":430,"ens":431,"ĠO":432,"gel":433,"Ġnoch":434,"ĠFrys":435,"we":436,"Ġsei":437,"un":438,"Ġre":439,"roch":440,"op":441,"Ġhet":442,"Ġc":443,"ich":444,"Ã´f":445,"ren":446,"ĠK":447,"lik":448,"Ġ1":449,"ma":450,"dt":451,"es":452,"ĠT":453,"Ġpl":454,"Ġsa":455,"ron":456,"ĠdÃªr":457,"Ġsk":458,"Ġwie":459,"ĠÃ´f":460,"ĠJ":461,"ĠG":462,"20":463,"Ġhe":464,"ap":465,"Ġmoat":466,"Ġer":467,"ik":468,"Ġ'":469,"Ġdo":470,"Ġwer":471,"insken":472,"ĠV":473,"Ġtroch":474,"Ġsp":475,"nen":476,"Ġhar":477,"Ġr":478,"Ġjier":479,"kt":480,"Ġoar":481,"ĠDat":482,"ef":483,"oed":484,"Ġeen":485,"Ġli":486,"Ġwat":487,"Ġvan":488,"ant":489,"Ġpro":490,"Ġik":491,"sk":492,"and":493,"Ġminsken":494,"ĠR":495,"ĠP":496,"ert":497,"Ġseit":498,"oor":499,"ach":500,"Ġmear":501,"jouw":502,"ir":503,"oron":504,"um":505,"Ġkri":506,"Ġwurde":507,"Ġme":508,"men":509,"ingen":510,"Ġcoron":511,"pen":512,"ĠY":513,"asje":514,"Ġalle":515,"Ġwaar":516,"Ġdan":517,"Ġof":518,"sje":519,"Ġbes":520,"ut":521,"acht":522,"int":523,"ast":524,"Ġear":525,"Ġle":526,"Ġwi":527,"af":528,"ang":529,"Ġkin":530,"Ġje":531,"ot":532,"ĠFryslÃ¢n":533,"Ġhiel":534,"els":535,"aat":536,"ĠYn":537,"Ġwurdt":538,"Ġti":539,"Ġgoed":540,"ul":541,"\",":542,"Ġso":543,"ag":544,"tel":545,"21":546,"Ġts":547,"25":548,"zen":549,"ĠÃ»nder":550,"ip":551,"aal":552,"aasje":553,"24":554,"Ġhaw":555,"30":556,"ou":557,"ĠMar":558,"Ġdit":559,"oan":560,"ek":561,"ong":562,"Ġsyn":563,"35":564,"94":565,"75":566,"len":567,"zze":568,"31":569,"28":570,"Ġtw":571,"art":572,"ĠC":573,"ijn":574,"66":575,"95":576,"Ġkinne":577,"Ġdi":578,"34":579,"98":580,"38":581,"sp":582,"91":583,"71":584,"dei":585,"78":586,"74":587,"70":588,"Ġhawwe":589,"90":590,"26":591,"Ġniet":592,"ven":593,"oer":594,"96":595,"36":596,"etter":597,"Ġwy":598,"Ġgru":599,"76":600,"os":601,"stra":602,"ber":603,"Ġhel":604,"ker":605,"Ġmak":606,"olle":607,"ine":608,"meen":609,"Ġbli":610,"eid":611,"eff":612,"ĠLjouw":613,"Ġmin":614,"eder":615,"og":616,"ort":617,"ve":618,"aam":619,"Ġgjin":620,"ysje":621,"Ġbr":622,"ders":623,"bb":624,"Ġgemeen":625,"effens":626,"Ġvoor":627,"tsje":628,"se":629,"Ġien":630,"18":631,"ig":632,"50":633,"ver":634,"Ġgrut":635,"ale":636,"Ġgiet":637,"Ġsit":638,"sten":639,"Ġri":640,"Ġmoatte":641,"Ġon":642,"Ġwaard":643,"Ġkomt":644,"ocht":645,"ĠIn":646,"sen":647,"Ġfers":648,"ije":649,"yl":650,"ende":651,"14":652,"Ã¢ld":653,"Ġsil":654,"iene":655,"yd":656,"58":657,"Ġkl":658,"54":659,"Ġhoe":660,"pe":661,"Ġzijn":662,"wur":663,"rom":664,"uit":665,"Ġoare":666,"16":667,"Ġhim":668,"jocht":669,"fe":670,"10":671,"ĠDer":672,"Ġaan":673,"Ġwurk":674,"mer":675,"be":676,"oal":677,"Ġsl":678,"22":679,"Ġsoad":680,"Ġmaar":681,"Ġkon":682,"rij":683,"Ġta":684,"akt":685,"Ġsi":686,"gels":687,"56":688,"kom":689,"Ġtsjin":690,"oen":691,"Ġoant":692,"Ġkomme":693,"arre":694,"eld":695,"Ġnije":696,"riuw":697,"ĠAl":698,"Ġman":699,"Ġste":700,"Ġtwa":701,"ele":702,"ĠEn":703,"ĠLjouwert":704,"Ġdie":705,"Ġber":706,"ink":707,"Ġa":708,"Ġhy":709,"fer":710,"Ġgemeente":711,"ĠHy":712,"ann":713,"Ġbeg":714,"44":715,"88":716,"ĠDÃªr":717,"ech":718,"ite":719,"em":720,"waan":721,"99":722,"irus":723,"heid":724,"bben":725,"Ġharren":726,"Ġei":727,"37":728,"Ġne":729,"joer":730,"Ġ20":731,"ings":732,"27":733,"Ġdizze":734,"ĠwÃª":735,"enn":736,"Ġel":737,"40":738,"ĠOp":739,"ĠNeder":740,"Ġmet":741,"Ġbed":742,"Ã»s":743,"Ġfol":744,"stel":745,"80":746,"uur":747,"epen":748,"Ġfre":749,"Ġdus":750,"Ãªst":751,"stri":752,"up":753,"39":754,"Ġsoar":755,"rÃ»":756,"Ġsne":757,"15":758,"ĠFryske":759,"60":760,"rop":761,"ige":762,"ep":763,"io":764,"ate":765,"Ġver":766,"Ġhie":767,"jir":768,"yts":769,"zje":770,"ters":771,"29":772,"Ġplak":773,"ĠhÃ¢l":774,"och":775,"ijk":776,"jer":777,"Ġearste":778,"Ġook":779,"rek":780,"insje":781,"annen":782,"23":783,"Ġ(":784,"Ġfu":785,"ris":786,"ied":787,"ling":788,"Ġsoe":789,"Ġbet":790,"ĠÃºs":791,"Ġbel":792,"Ãºs":793,"77":794,"yf":795,"Ġbin":796,"eit":797,"Ġdwaan":798,"ĠEk":799,"au":800,"fal":801,"ĠIk":802,"46":803,"ist":804,"11":805,"48":806,"agen":807,"Ġwel":808,"Ik":809,"ĠSe":810,"55":811,"Ãºt":812,"Ġkaam":813,"dat":814,"Ġsjen":815,"Ġdoar":816,"33":817,"like":818,"Ġtiid":819,"edstri":820,"Ġplysje":821,"tyd":822,"Ġke":823,"Ã»nder":824,"earren":825,"usken":826,"gan":827,"sj":828,"ild":829,"Ġsels":830,"'s":831,"inn":832,"ĠOm":833,"Ġpart":834,"fean":835,"Ġeigen":836,"bo":837,"Ġgew":838,"ries":839,"86":840,"ĠwÃªze":841,"Ġtri":842,"uro":843,"ĠWe":844,"etten":845,"ganis":846,"itte":847,"ĠZ":848,"aksje":849,"ĠNeffens":850,"uer":851,"19":852,"oel":853,"?<|":854,"Ġwike":855,"Ġgro":856,"aatre":857,"Ġgrutte":858,"ab":859,"Ġlang":860,"79":861,"amp":862,"Ġlyk":863,"Ġgean":864,"oek":865,"Ġiepen":866,"wurk":867,"Ġfier":868,"aten":869,"Ġmakke":870,"ĠNederlÃ¢n":871,"earrenfean":872,"Ġhebben":873,"nim":874,"if":875,"man":876,"met":877,"Ġze":878,"ĠHearrenfean":879,"amb":880,"Ġwiene":881,"Ġbo":882,"Ġben":883,"45":884,"Ãºd":885,"Ġprov":886,"Ġmoet":887,"rekt":888,"Ġgeb":889,"Ġpers":890,"anne":891,"ĠVan":892,"Ġkun":893,"Ãªste":894,"Ġbliuw":895,"ai":896,"Ġkear":897,"Ġlit":898,"dere":899,"Ġmoog":900,"We":901,"Ġfertel":902,"32":903,"ske":904,"000":905,"Ġsjo":906,"racht":907,"Ġbest":908,"ĠÃ»nders":909,"skip":910,"Ġth":911,"It":912,"Ġfin":913,"ger":914,"del":915,"land":916,"kes":917,"Ġbek":918,"Ġcoronaf":919,"iv":920,"68":921,"Ġwant":922,"uor":923,"Ġmeter":924,"ĠSt":925,"Ġor":926,"Ġhjir":927,"Ġstiet":928,"foar":929,"Ġaut":930,"lij":931,"Ġrek":932,"gge":933,"Ġwolle":934,"Ġfi":935,"aad":936,"Ġfersk":937,"Ġcoronafirus":938,"17":939,"mers":940,"Ġbij":941,"Ġef":942,"ĠU":943,"hÃ¢l":944,"Ġtrije":945,"Ġskoal":946,"sel":947,"bal":948,"ket":949,"ent":950,"ade":951,"Ġjo":952,"Ġall":953,"est":954,"ster":955,"aatregels":956,"Ġmooglik":957,"ub":958,"ensen":959,"Ġneffens":960,"Ãªd":961,"ĠDy":962,"Ġwedstri":963,"97":964,"Ġnog":965,"Ġminder":966,"yks":967,"Ġdoch":968,"Ġprovinsje":969,"jon":970,"De":971,"Ġfyn":972,"84":973,"Ġwerom":974,"iteit":975,"adde":976,"he":977,"nei":978,"85":979,"Ġfro":980,"Ġwetter":981,"06":982,"icht":983,"Ġtusken":984,"ĠFoar":985,"Ġoft":986,"ĠbrÃ¢n":987,"joch":988,"Ġorganis":989,"wacht":990,"ry":991,"Ġkont":992,"Ġsy":993,"wenn":994,"oop":995,"Ġdoe":996,"ammen":997,"Ġfl":998,"aak":999,"Ġtal":1000,"eili":1001,"amen":1002,"lein":1003,"hÃ»s":1004,"jouwer":1005,"ĠBy":1006,"line":1007,"Ġwor":1008,"aster":1009,"Ġbern":1010,"yske":1011,"ĠÃ»nt":1012,"wi":1013,"Ġtra":1014,"Ġauto":1015,"ble":1016,"Ġbinnen":1017,"eel":1018,"Ġoere":1019,"rÃ»ne":1020,"Ġbesmet":1021,"Ġkan":1022,"Ġboar":1023,"ĠHar":1024,"Ġkrije":1025,"51":1026,"diel":1027,"raach":1028,"Ġra":1029,"fier":1030,"ran":1031,"ĠMei":1032,"ĠAs":1033,"Ġoars":1034,"Ã«":1035,"ĠwÃªr":1036,"73":1037,"ac":1038,"wol":1039,"Ġferh":1040,"sels":1041,"Ġjild":1042,"wer":1043,"tem":1044,"Ġnij":1045,"earre":1046,"64":1047,"Ġmensen":1048,"tsen":1049,"Ġfertelt":1050,"Ġzo":1051,"Ġbedriuw":1052,"ju":1053,"ult":1054,"Ġbekend":1055,"Ã»ten":1056,"72":1057,"lear":1058,"08":1059,"Ġecht":1060,"ĠlÃ¢n":1061,"Ġleit":1062,"13":1063,"jÃ»n":1064,"93":1065,"ram":1066,"get":1067,"Ġmis":1068,"Ãªrom":1069,"war":1070,"Ġein":1071,"oarn":1072,"sl":1073,"ust":1074,"Ġkrekt":1075,"uk":1076,"sit":1077,"Ġkomm":1078,"gem":1079,"Ġfuort":1080,"Ġnat":1081,"Het":1082,"inten":1083,"ĠSa":1084,"Ġstean":1085,"by":1086,"65":1087,"Ġuit":1088,"ĠÃ´frÃ»ne":1089,"od":1090,"pl":1091,"Ġheel":1092,"41":1093,"kl":1094,"Ġsneon":1095,"92":1096,"Ġcorona":1097,"stÃ¢n":1098,"Ġeuro":1099,"Ġkunnen":1100,"Ġgen":1101,"eide":1102,"Ġdien":1103,"rok":1104,"Ġbesl":1105,"04":1106,"Ġkoe":1107,"aken":1108,"Ġdoarp":1109,"12":1110,"Ġals":1111,"jier":1112,"ĠthÃºs":1113,"eden":1114,"Ġalles":1115,"fol":1116,"Ġdagen":1117,"Ġkw":1118,"Ġdei":1119,"Ġnaar":1120,"kel":1121,"Ġnu":1122,"ĠAn":1123,"ĠJo":1124,"iid":1125,"ĠHet":1126,"tear":1127,"rie":1128,"Ġsw":1129,"ere":1130,"koar":1131,"ĠJan":1132,"ĠJong":1133,"ĠÃ¢l":1134,"Ġdochs":1135,"Ġ2":1136,"81":1137,"its":1138,"ĠSch":1139,"ambuur":1140,"05":1141,"Ġmoast":1142,"Ġap":1143,"ĠlÃªste":1144,"Ġdocht":1145,"wei":1146,"mei":1147,"Ġaltyd":1148,"Ġfolle":1149,"ĠSy":1150,"Ġpas":1151,"Ġfam":1152,"Ġwil":1153,"ysk":1154,"Ġomdat":1155,"Ġhiele":1156,"Ġover":1157,"Ġtak":1158,"ĠCambuur":1159,"ĠÃ»ndersyk":1160,"ette":1161,"Ġfert":1162,"wenners":1163,"Ġko":1164,"Ġlyts":1165,"res":1166,"ĠÃºts":1167,"alen":1168,"Ġfynt":1169,"ond":1170,"59":1171,"57":1172,"Ã»nt":1173,"ylje":1174,"lijk":1175,"43":1176,"Ġtre":1177,"Ġmeer":1178,"Ġsike":1179,"Ġdaar":1180,"eg":1181,"innich":1182,"Ġsitte":1183,"rum":1184,"Ġproble":1185,"49":1186,"Ġwest":1187,"Ġtwadde":1188,"eft":1189,"uis":1190,"andei":1191,"47":1192,"61":1193,"Ġsnein":1194,"53":1195,"Ġkrij":1196,"zoen":1197,"aasjes":1198,"Ġgewoan":1199,"Ġtin":1200,"ft":1201,"ĠNei":1202,"ia":1203,"sch":1204,"ĠNoar":1205,"Ġaf":1206,"Ġfrij":1207,"ĠSp":1208,"teur":1209,"Ġtest":1210,"Ġnim":1211,"yt":1212,"Ġticht":1213,"mel":1214,"kear":1215,"amer":1216,"gelyks":1217,"pt":1218,"Ġmeitsje":1219,"sitter":1220,"rÃ¢ld":1221,"ud":1222,"ĠSk":1223,"89":1224,"gers":1225,"per":1226,"leat":1227,"Ġwiken":1228,"use":1229,"aie":1230,"Ġfe":1231,"imber":1232,"ret":1233,"Ġboer":1234,"52":1235,"atie":1236,"ic":1237,"jes":1238,"Ġfreed":1239,"87":1240,"ion":1241,"oans":1242,"Ġeven":1243,"Ġstik":1244,"Ġtakom":1245,"42":1246,"rige":1247,"Ġmy":1248,"tsjen":1249,"Ġjierren":1250,"01":1251,"Ġdoel":1252,"Ġwedstriid":1253,"ĠFries":1254,"ank":1255,"gear":1256,"Dat":1257,"Ġmaatregels":1258,"Ġpartij":1259,"Ġbesmett":1260,"inen":1261,"Ġstuit":1262,"Ġgr":1263,"ĠbÃ»ten":1264,"risis":1265,"Ġged":1266,"achten":1267,"ĠfÃ»n":1268,"ĠSte":1269,"83":1270,"oansdei":1271,"ĠbrÃ»":1272,"ene":1273,"Ãºdlik":1274,"Ã©":1275,"ongers":1276,"ĠDan":1277,"Ġter":1278,"Ġrjocht":1279,"Ġfanwe":1280,"Ġbygelyks":1281,"Ġwitte":1282,"lingen":1283,"Ġpear":1284,"onge":1285,"Ġpos":1286,"Ġned":1287,"wols":1288,"ijd":1289,"uwen":1290,"eren":1291,"Ġlykwols":1292,"ĠGG":1293,"Ġhast":1294,"Ġearst":1295,"69":1296,"82":1297,"br":1298,"Ġfjouwer":1299,"Ġearder":1300,"ĠhÃ¢lde":1301,"Ġallinnich":1302,"iss":1303,"ĠfÃªst":1304,"ĠhÃ¢n":1305,"Ġpr":1306,"ĠhÃ¢lden":1307,"67":1308,"ĠWy":1309,"endal":1310,"Ġtot":1311,"ind":1312,"Ġmoandei":1313,"Ġhier":1314,"Ġmeie":1315,"joen":1316,"Ġferb":1317,"Ġbegjin":1318,"uwe":1319,"nimmers":1320,"tejÃ»n":1321,"63":1322,"Ġsille":1323,"Ġnedich":1324,"otbal":1325,"Ġveel":1326,"Ã´ch":1327,"Ġgie":1328,"09":1329,"ets":1330,"Ġwen":1331,"Wy":1332,"Ġwas":1333,"isdei":1334,"Ġpo":1335,"gemaster":1336,"lit":1337,"Ġsoarch":1338,"Ġ5":1339,"hel":1340,"Ġbelang":1341,"Ġfak":1342,"een":1343,"ĠOmrop":1344,"gean":1345,"Ġdoor":1346,"Ġgaan":1347,"Ġkommen":1348,"folle":1349,"ĠdÃºdlik":1350,"ister":1351,"sma":1352,"ĠLjouwer":1353,"Ġferskate":1354,"ĠBo":1355,"Ġfrou":1356,"Ġad":1357,"Ġheb":1358,"ss":1359,"ug":1360,"Ġmil":1361,"maal":1362,"achter":1363,"Ġgu":1364,"62":1365,"ark":1366,"Ġseizoen":1367,"Ġwoansdei":1368,"ass":1369,"Ġons":1370,"Ġdel":1371,"Ġfierder":1372,"Ġstel":1373,"Ġkrijen":1374,"07":1375,"ive":1376,"ĠSn":1377,"itten":1378,"geb":1379,"uz":1380,"stelling":1381,"Ġsch":1382,"Ġmeitsjen":1383,"fers":1384,"enk":1385,"Ġferw":1386,"Ġan":1387,"Ġfle":1388,"oech":1389,"okk":1390,"Ġwet":1391,"Ġma":1392,"Ġhieltyd":1393,"ongersdei":1394,"Ġrom":1395,"set":1396,"Ġreg":1397,"ee":1398,"urd":1399,"Ġletter":1400,"Ġposit":1401,"ĠGGD":1402,"ruk":1403,"jierrige":1404,"Ġdre":1405,"03":1406,"Ġlan":1407,"Ġstr":1408,"ĠWaad":1409,"Ġkrigen":1410,"Ġhinne":1411,"Ġspil":1412,"Ġaksje":1413,"Ġsn":1414,"ĠwrÃ¢ld":1415,"Ġgear":1416,"Ġweer":1417,"uten":1418,"bel":1419,"Ġcoronak":1420,"Ġneat":1421,"unt":1422,"wiis":1423,"Ġkolle":1424,"ĠFan":1425,"Ġplan":1426,"elen":1427,"Ã¢ns":1428,"Ġgroep":1429,"'.<|":1430,"Ġsyk":1431,"Ġmom":1432,"fan":1433,"iÃ«":1434,"mo":1435,"Ġro":1436,"jitte":1437,"ragen":1438,"Ġbl":1439,"ĠAr":1440,"ried":1441,"Ġlear":1442,"Ġwei":1443,"Ġjout":1444,"gram":1445,"Ġmid":1446,"Ġdogge":1447,"kers":1448,"Ġfansels":1449,"ost":1450,"ĠVries":1451,"Ġtiisdei":1452,"Ġskoalle":1453,"Ġmed":1454,"Ġbesk":1455,"Ġmoeten":1456,"Ġcoronakrisis":1457,"ĠGe":1458,"ĠGr":1459,"ĠSnits":1460,"Ġbop":1461,"Ġdoen":1462,"Ġklup":1463,"02":1464,"ute":1465,"Ġkommende":1466,"di":1467,"Ġkant":1468,"akke":1469,"Ġdrok":1470,"rekteur":1471,"Ġbestjoer":1472,"Ġhiene":1473,"Ġkrige":1474,"Ġlok":1475,"Ġwurden":1476,"ĠgenÃ´ch":1477,"ĠRo":1478,"Ġbliuwe":1479,"useum":1480,"hann":1481,"Ġried":1482,"Ġfal":1483,"Ġgaat":1484,"Ġfiif":1485,"ggen":1486,"ct":1487,"ha":1488,"ks":1489,"aste":1490,"ĠMaar":1491,"ĠTw":1492,"ging":1493,"Ġeins":1494,",\"":1495,"Ġtongersdei":1496,"Ã»zen":1497,"Ġjong":1498,"Ġfyts":1499,"ly":1500,"Ġadv":1501,"Ġlyn":1502,"Ġris":1503,"Ġgel":1504,"ĠDus":1505,"oene":1506,"aard":1507,"Ġnatuer":1508,"Ġske":1509,"Ãºts":1510,"Ġsjoen":1511,"Ġkomp":1512,"Ġfuotbal":1513,"immer":1514,"fen":1515,"Ġper":1516,"asjon":1517,"ĠÃºte":1518,"elf":1519,"oud":1520,"Ġtoer":1521,"aas":1522,"ming":1523,"tte":1524,"ĠdÃªrom":1525,"ouden":1526,"oft":1527,"Ġho":1528,"rocht":1529,"wik":1530,"ĠhÃ»s":1531,"Ġheeft":1532,"Ġwaarden":1533,"ĠDracht":1534,"fallen":1535,"Ġpersoan":1536,"Ġdiel":1537,"Ġpri":1538,"ĠsikehÃ»s":1539,"lach":1540,"gramma":1541,"gearre":1542,"ĠÃ´fstÃ¢n":1543,"Ġferoar":1544,"Ġbetsj":1545,"Ġstil":1546,"rin":1547,"Ġmyn":1548,"Ġbetter":1549,"Ġopl":1550,"raak":1551,"ns":1552,"Ġskriuw":1553,"oon":1554,"lis":1555,"Ġtsien":1556,"Ġgemeenten":1557,"Ġbliuwt":1558,"Frys":1559,"Ġachter":1560,"ĠNo":1561,"Ġmakket":1562,"Ġsjocht":1563,"Ġmoai":1564,"ĠdÃªrnei":1565,"waris":1566,"Ġkontakt":1567,"utsen":1568,"Ġfirus":1569,"Ġelk":1570,"tern":1571,"Ġkamen":1572,"ikers":1573,"agge":1574,"ting":1575,"Ġgau":1576,"Ġjonge":1577,"Ġbetsjut":1578,"Ġkar":1579,"Ġsport":1580,"ĠsÃ»nt":1581,"asis":1582,"ĠHoe":1583,"Ġsizze":1584,"Ġoantal":1585,"heden":1586,"isten":1587,"pro":1588,"Ġekstra":1589,"ile":1590,"ike":1591,"ĠEl":1592,"Ġwordt":1593,"Ġfamylje":1594,"Ġstie":1595,"Ġskip":1596,"Ġefter":1597,"ĠÃ¢ld":1598,"lef":1599,"'<|":1600,"Ġhielendal":1601,"Ġrekke":1602,"ard":1603,"Ġbenammen":1604,"ienen":1605,"troch":1606,"Ġ3":1607,"inoar":1608,"jekt":1609,"Ġtsjer":1610,"ga":1611,"gje":1612,"gro":1613,"ane":1614,"ĠBer":1615,"rug":1616,"Ġgeen":1617,"Ġdwaande":1618,"no":1619,"Ġduor":1620,"Ġwink":1621,"ĠAm":1622,"wurd":1623,"Ġsjogge":1624,"Ġmiljoen":1625,"sint":1626,"atyf":1627,"Ġwicht":1628,"steld":1629,"Ġbliken":1630,"Ġbliid":1631,"dam":1632,"org":1633,"ĠSC":1634,"ĠDÃºts":1635,"Ġhoop":1636,"Ġwij":1637,"stÃªd":1638,"ring":1639,"ĠhÃºs":1640,"ĠWat":1641,"Ġrei":1642,"ande":1643,"Ġynf":1644,"ĠFrysk":1645,"Ġonder":1646,"lo":1647,"iening":1648,"Ġlykas":1649,"Ġgoede":1650,"ichting":1651,"FryslÃ¢n":1652,"unst":1653,"ĠTroch":1654,"ck":1655,"Ġgraach":1656,"ĠDoe":1657,"Ġpar":1658,"illi":1659,"Ġbyl":1660,"Ġ4":1661,"Ġtrain":1662,"Ġboargemaster":1663,"Ġferp":1664,"ĠrÃ»n":1665,"Ġlibben":1666,"Ġsitu":1667,"Ġfine":1668,"Ġhop":1669,"stjoer":1670,"Ġpra":1671,"Ġblij":1672,"ho":1673,"Ġpub":1674,"Ġferline":1675,"ieten":1676,"Ġfeili":1677,"Ġset":1678,"Ġynt":1679,"Ġfoarsitter":1680,"Ġhelp":1681,"Ġworden":1682,"Ġbesmettingen":1683,"eter":1684,"Ġpak":1685,"keap":1686,"aren":1687,"Ã»ne":1688,"Ġwin":1689,"Ġbetel":1690,"isk":1691,"ĠLjouwerter":1692,"Ġide":1693,"Ġtocht":1694,"ĠTh":1695,"Ġwa":1696,"Ġpe":1697,"Ġbep":1698,"Ġefkes":1699,"Ġstap":1700,"Ġboeren":1701,"ĠDrachten":1702,"hu":1703,"Ġwenn":1704,"Ġmeld":1705,"Ġhear":1706,"Ġkamp":1707,"ont":1708,"Ġkomen":1709,"tsjes":1710,"esj":1711,"Ġlitten":1712,"zzen":1713,"Ġkab":1714,"Ġklear":1715,"Ġgef":1716,"ĠKe":1717,"achte":1718,"Ġmel":1719,"ril":1720,"amme":1721,"ĠFer":1722,"Ġjaan":1723,"Ġorganisaasje":1724,"mp":1725,"Ġjaar":1726,"Ġdeze":1727,"ans":1728,"Ãºn":1729,"ĠKN":1730,"Ġcoronam":1731,"Ġsoene":1732,"ipe":1733,"pp":1734,"yzje":1735,"Ġsup":1736,"isj":1737,"Ġ19":1738,"Ġ6":1739,"ĠGro":1740,"Ġferhaal":1741,"Ġtelef":1742,"Ġplakken":1743,"dde":1744,"ĠDit":1745,"eer":1746,"Ġbal":1747,"Ġhurd":1748,"Ġproblemen":1749,"asse":1750,"Ġkrijt":1751,"orm":1752,"riezen":1753,"Ġminister":1754,"Ġgev":1755,"Ġboppe":1756,"iers":1757,"iddei":1758,"heids":1759,"uma":1760,"sjes":1761,"asten":1762,"Ġwillen":1763,"ommen":1764,"ĠGrins":1765,"ide":1766,"Ġwit":1767,"Ġlytse":1768,"gelok":1769,"jild":1770,"Ġwoe":1771,"Ġkil":1772,"Ġlik":1773,"ĠkÃ¢ns":1774,"tste":1775,"opp":1776,"ĠbrÃ¢nwacht":1777,"fin":1778,"let":1779,"lied":1780,"unten":1781,"ler":1782,"Ġregel":1783,"ulju":1784,"ochs":1785,"Ġtredde":1786,"Ġsimmer":1787,"ĠIen":1788,"wurkers":1789,"ĠNoard":1790,"ĠwÃ»n":1791,"ĠNederland":1792,"Ġlitte":1793,"inet":1794,"ĠBe":1795,"Ġsaak":1796,"aa":1797,"etysje":1798,"hol":1799,"Ġlizze":1800,"Ġmee":1801,"jit":1802,"av":1803,"hÃ¢ld":1804,"ĠjÃ»n":1805,"bou":1806,"kenien":1807,"bs":1808,"Ġfaak":1809,"les":1810,"ĠJe":1811,"willi":1812,"Ġpre":1813,"Ġmeaste":1814,"Ġallegear":1815,"Ġdirekteur":1816,"Ġtakomst":1817,"Ġoanp":1818,"Ġidee":1819,"Ġheech":1820,"oss":1821,"temiddei":1822,"Ġ-":1823,"Ġacht":1824,"inte":1825,"Ġhele":1826,"jochte":1827,"ĠbeslÃºt":1828,"ezje":1829,"ĠsÃ»nder":1830,"Ġkoar":1831,"Ġopn":1832,"raaf":1833,"Ġfia":1834,"Ġkabinet":1835,"aag":1836,"ryk":1837,"Ġwyl":1838,"Ġfraach":1839,"chte":1840,"Ġkult":1841,"alf":1842,"Ġpleat":1843,"gens":1844,"ĠÃºtein":1845,"Ġbasis":1846,"urg":1847,"Ġrest":1848,"Ġtaf":1849,"ĠsÃ¢n":1850,"ĠDÃªrnei":1851,"Ġcoronamaatregels":1852,"Ġspesj":1853,"Ġoeren":1854,"jinten":1855,"ies":1856,"Ġdreech":1857,"sjen":1858,"wedstri":1859,"aris":1860,"oarek":1861,"Ġgefol":1862,"okkum":1863,"ĠfÃ»":1864,"Ġnacht":1865,"temoarn":1866,"Ġtinkt":1867,"oord":1868,"Ġswier":1869,"hannel":1870,"zj":1871,"Ġdra":1872,"deren":1873,"ening":1874,"ĠDokkum":1875,"omm":1876,"Ġferk":1877,"Ġploech":1878,"hÃ¢lder":1879,"Ġfanwege":1880,").<|":1881,"erk":1882,"ilm":1883,"aun":1884,"are":1885,"west":1886,"wikkel":1887,"Ġakt":1888,"Ġteam":1889,"Ġbewenners":1890,"Ġdyk":1891,"Ġoardel":1892,"Ġlanger":1893,"Ġromte":1894,"tse":1895,"ille":1896,"mar":1897,"Ġbeide":1898,"earje":1899,"Ġmaart":1900,"ĠWol":1901,"ĠUn":1902,"Ġguon":1903,"Ġsli":1904,"ĠDochs":1905,"rik":1906,"ĠEr":1907,"und":1908,"Ġrekken":1909,"eds":1910,"Ġ15":1911,"merk":1912,"selde":1913,"Ġnaam":1914,"aart":1915,"Ġseis":1916,"Ġwedstriden":1917,"Ġpartijen":1918,"mon":1919,"raksje":1920,"Ġsint":1921,"reg":1922,"ĠlÃ»":1923,"Ġslacht":1924,"Ġpolit":1925,"gt":1926,"tin":1927,"offen":1928,"Ġzien":1929,"Ġapril":1930,"pel":1931,"ĠMinsken":1932,"all":1933,"kein":1934,"min":1935,"Ġbys":1936,"Ġjil":1937,"Ġwize":1938,"eilig":1939,"Ġnamme":1940,"ĠFriezen":1941,"ĠÃ»ngelok":1942,"Ġ10":1943,"oo":1944,"pers":1945,"Ġtwe":1946,"Ġtel":1947,"jinne":1948,"lyk":1949,"Ġsm":1950,"onder":1951,"Ġboek":1952,"Ġgri":1953,"Ġtrochgean":1954,"Ġposityf":1955,"Al":1956,"lju":1957,"organis":1958,"ĠLe":1959,"Ġonze":1960,"Ġkeunst":1961,"Ġfroulju":1962,"Ġmuz":1963,"Ġgong":1964,"ĠbegÃ»n":1965,"Ġkn":1966,"ĠDi":1967,"Ġamb":1968,"Ġbrocht":1969,"Ġjun":1970,"jonken":1971,"Ġwichtich":1972,"stann":1973,"ĠDijk":1974,"ĠHe":1975,"klup":1976,"Ġbot":1977,"Ġhad":1978,"Ġliket":1979,"erd":1980,"Ġsette":1981,"Ġelkoar":1982,"ryp":1983,"Ġbedriuwen":1984,"Ġtotaal":1985,"Ġkolleezje":1986,"Ġres":1987,"Ġregels":1988,"Ġmijn":1989,"Ġhol":1990,"oaren":1991,"Ġwurkje":1992,"Ġfols":1993,"par":1994,"inga":1995,"ĠEar":1996,"Ġprojekt":1997,"plak":1998,"Ġhoarek":1999,"Ġkoene":2000,"komme":2001,"tal":2002,"iek":2003,"tsjin":2004,"Ġfinan":2005,"Ġprobleem":2006,"Ġble":2007,"Ġkij":2008,"Ġmoannen":2009,"ĠNet":2010,"gelijk":2011,"Ġhelte":2012,"tre":2013,"Ġoprop":2014,"jende":2015,"Ġdruk":2016,"kap":2017,"sum":2018,"ĠSÃºd":2019,"Ġlos":2020,"Ġgez":2021,"oeken":2022,"Ġstud":2023,"Ġtige":2024,"ĠhÃ¢ldt":2025,"Ã¤":2026,"teken":2027,"Ġiis":2028,"Ġwurket":2029,"ĠHarns":2030,"log":2031,"Ġkop":2032,"Ġfinale":2033,"anten":2034,"Ġiens":2035,"ili":2036,"Ġwylst":2037,"amde":2038,"Ġlo":2039,"ĠrÃ»":2040,"Ġfanwegen":2041,"tsjer":2042,"Ġhelle":2043,"Ġfot":2044,"Ġstim":2045,"Ġ18":2046,"Ġelkenien":2047,"ses":2048,"ĠDÃªrom":2049,"fre":2050,"Ġsel":2051,"Ġkle":2052,"Ġplannen":2053,"Ġoploss":2054,"Ġdingen":2055,"Ġdes":2056,"ĠOf":2057,"Ġheal":2058,"Ġnijs":2059,"Ġfrijwilli":2060,"bek":2061,"eie":2062,"aliteit":2063,"Ġtoch":2064,"Ġbeste":2065,"ĠBoer":2066,"groep":2067,"regio":2068,"bed":2069,"ongen":2070,"isch":2071,"Ġskoallen":2072,"oarch":2073,"Ġpersint":2074,"ĠbysÃ»nder":2075,"Ġbus":2076,"ĠBuma":2077,"Ġbesikers":2078,"ochte":2079,"rong":2080,"Ġslachtof":2081,"ame":2082,"Ġstipe":2083,"ĠHenk":2084,"Ġsept":2085,"Ġmaken":2086,"Ġseptimber":2087,"Ġ25":2088,"str":2089,"artij":2090,"tearje":2091,"ĠgrÃ»n":2092,"Der":2093,"do":2094,"oals":2095,"ĠAlle":2096,"Ġfeilich":2097,"Ġwurd":2098,"Ġfrege":2099,"Ġkilom":2100,"fear":2101,"iden":2102,"Ġtink":2103,"akker":2104,"ĠBel":2105,"Ġwykein":2106,"loch":2107,"Ġru":2108,"isje":2109,"uwer":2110,"ĠGer":2111,"Ġprotte":2112,"Ġwinkel":2113,"lieding":2114,"ander":2115,"Ġ100":2116,"ĠDen":2117,"annewaris":2118,"Ġandere":2119,"bre":2120,"bier":2121,"Ġjannewaris":2122,"Ġonline":2123,"Ġopr":2124,"Ã¢nsje":2125,"ĠNederlÃ¢nske":2126,"Ġbyld":2127,"gong":2128,"winn":2129,"Ġstad":2130,"Ġhaad":2131,"ochten":2132,"hÃ¢lden":2133,"Ġswim":2134,"kje":2135,"Ġsaken":2136,"ce":2137,"Ġferst":2138,"ĠHo":2139,"ĠOer":2140,"In":2141,"oet":2142,"iste":2143,"yp":2144,"Ġkinnen":2145,"rÃ»k":2146,"mid":2147,"Ġfilm":2148,"Ġbar":2149,"Ġferkear":2150,"ĠPro":2151,"Ġtop":2152,"assen":2153,"Ġminuten":2154,"Ġgebiet":2155,"ĠbrÃ»kt":2156,"Ġpetear":2157,"bank":2158,"Ġnatuur":2159,"ĠFriesland":2160,"Ġgefolgen":2161,"inge":2162,"ĠstÃªd":2163,"Ġskoft":2164,"sterdam":2165,"Ġkontr":2166,"Ġ24":2167,"rit":2168,"jochter":2169,"ĠÃ¢lde":2170,"la":2171,"punt":2172,"Ġyns":2173,"Ãªge":2174,"oniel":2175,"Ġprogramma":2176,"Ġelkaar":2177,"dag":2178,"ner":2179,"Ġster":2180,"eil":2181,"Ġpres":2182,"amt":2183,"Ġvol":2184,"Ġmoanne":2185,"Ġklachten":2186,"Ġfeest":2187,"heidsregio":2188,"Ġ30":2189,"Ġbehe":2190,"ĠGraaf":2191,"ĠAmsterdam":2192,"hal":2193,"ialf":2194,"Ġzich":2195,"Ġsituaasje":2196,"Ġjuny":2197,"Ġwacht":2198,"Ġzou":2199,"Ġrap":2200,"fang":2201,"rief":2202,"ktor":2203,"Ġpublyk":2204,"Ġfiel":2205,"Ġsinne":2206,"Ġsiet":2207,"Ġheit":2208,"earst":2209,"Ġjul":2210,"aatregel":2211,"Ġlearlingen":2212,"Ġhopet":2213,"tich":2214,"Ġdu":2215,"ĠRut":2216,"Ġperio":2217,"Ġfjir":2218,"Ġkr":2219,"ĠWant":2220,"Ġleech":2221,"digen":2222,"ĠThialf":2223,"ait":2224,"hear":2225,"Ġinoar":2226,"gebiet":2227,"dwaan":2228,"ats":2229,"Ġbef":2230,"Ġreed":2231,"Ġsafolle":2232,"Ġmem":2233,"Ġtoe":2234,"lid":2235,"Ġoff":2236,"ĠÃ»nderwiis":2237,"kker":2238,"ober":2239,"Ġden":2240,"leech":2241,"Ġmeiwurkers":2242,"maat":2243,"Ġ200":2244,"ĠSport":2245,"Ġsam":2246,"Ġieder":2247,"oll":2248,"ĠMo":2249,"Ġzelf":2250,"iks":2251,"Ġlive":2252,"iger":2253,"Ġsitten":2254,"Ġont":2255,"Ġsnel":2256,"ium":2257,"zer":2258,"Ġride":2259,"Ġferskil":2260,"huis":2261,"stre":2262,"Ã»l":2263,"Ġbew":2264,"raag":2265,"Ġmanlju":2266,"Ġhoareka":2267,"Ġkilometer":2268,"Ã¯":2269,"Ġnie":2270,"Ġeksp":2271,"ĠVV":2272,"huzen":2273,"ĠKeamer":2274,"joed":2275,"Ġferg":2276,"ktober":2277,"antwurd":2278,"Ġmomint":2279,"',":2280,"Ġgo":2281,"Ġrinne":2282,"aden":2283,"Ġynwenners":2284,"gea":2285,"Ġprod":2286,"iviteit":2287,"ĠJoh":2288,"Ġnimme":2289,"Ġprakt":2290,"ure":2291,"Ġinisj":2292,"edat":2293,"onom":2294,"yste":2295,"Ġmocht":2296,"Ġfertochte":2297,"Ġmaaie":2298,"Ġar":2299,"Ġsj":2300,"Ġoktober":2301,"Ġstri":2302,"kens":2303,"Ġferd":2304,"Ġreaksje":2305,"Ġbelutsen":2306,"Ġgearwurk":2307,"makke":2308,"Ġhij":2309,"ĠFr":2310,"Ġmoo":2311,"ichte":2312,"Ġ14":2313,"Ġmuseum":2314,"ĠDo":2315,"Ġfoarearst":2316,"ĠÃ»ndernimmers":2317,"aazje":2318,"ater":2319,"Ġmoasten":2320,"gjen":2321,"tra":2322,"erm":2323,"Ġfjoer":2324,"Ġsom":2325,"ersk":2326,"ord":2327,"Ġfinen":2328,"Ġfoto":2329,"wÃ¢l":2330,"Ġsad":2331,"Ġhouden":2332,"Ġalt":2333,"feriening":2334,"ubs":2335,"Dit":2336,"Ġbytsje":2337,"isser":2338,"aze":2339,"tjin":2340,"iten":2341,"ĠAlde":2342,"Ġregio":2343,"king":2344,"ĠFly":2345,"apas":2346,"Ġgewoon":2347,"Ġferwachte":2348,"Ġfrijwilligers":2349,"ein":2350,"Ġkonten":2351,"Ġgeane":2352,"Ġferhalen":2353,"Ġtaal":2354,"oard":2355,"Ġmoaie":2356,"Ġsoargen":2357,"bedriuw":2358,"voor":2359,"Ġdenk":2360,"uren":2361,"ons":2362,"Ġfern":2363,"ĠEuro":2364,"open":2365,"stik":2366,"urs":2367,"ĠFN":2368,"ĠOan":2369,"Ġgebou":2370,"VM":2371,"wÃ¢ld":2372,"elijk":2373,"stand":2374,"iket":2375,"ĠCh":2376,"Ġmanier":2377,"Ġyntusken":2378,"kien":2379,"ui":2380,"Ġ17":2381,"Ġspann":2382,"skoal":2383,"bod":2384,"eske":2385,"Ġgedachten":2386,"ĠTwadde":2387,"Ġtijd":2388,"ĠrÃªst":2389,"Ġoaren":2390,"Mar":2391,"Ġsok":2392,"Ġsane":2393,"leden":2394,"Ġpunten":2395,"Ã»ns":2396,"Ġsosj":2397,"Ġbegjint":2398,"IVM":2399,"Ġsetten":2400,"Ġmaatregel":2401,"Ãªre":2402,"ĠFe":2403,"Ġgeh":2404,"ĠVeilig":2405,"Ġjildt":2406,"bes":2407,"dok":2408,"vd":2409,"zoek":2410,"insj":2411,"Ġallegearre":2412,"Ġsteane":2413,"Ġpraat":2414,"winning":2415,"ykje":2416,"ĠdÃªrmei":2417,"Ġspile":2418,"Ġsuper":2419,"Ġmuzyk":2420,"eiden":2421,"ĠMin":2422,"ĠRIVM":2423,"co":2424,"Ġwar":2425,"Ġyntern":2426,"licht":2427,"ikber":2428,"dig":2429,"roffen":2430,"rije":2431,"Ãªden":2432,"ĠFre":2433,"Ġmogelijk":2434,"Ġslagge":2435,"Ã©n":2436,"ĠferwÃ»ne":2437,"ĠEurope":2438,"Ġkre":2439,"ĠlÃªst":2440,"ĠHoek":2441,"Ġmiskien":2442,"Ġbesletten":2443,"utearre":2444,"ĠSÃºdwest":2445,"Ã¢ne":2446,"Ġgefal":2447,"oeke":2448,"rekken":2449,"Ġdoarps":2450,"Ġjongere":2451,"ĠÃºteinlik":2452,"ĠFNP":2453,"Ġ13":2454,"Ġleaf":2455,"\".<|":2456,"wetter":2457,"Ġna":2458,"Ġops":2459,"Ġsifers":2460,"ĠgebrÃ»k":2461,"Ġnimt":2462,"Ġfalt":2463,"Ġak":2464,"Ġbrief":2465,"ĠDaar":2466,"Ġgefallen":2467,"ĠAls":2468,"egje":2469,"Ġevenem":2470,"reaun":2471,"sprong":2472,"Ġspilers":2473,"Ġrol":2474,"byl":2475,"Ġreden":2476,"Ġ12":2477,"ĠÃ´fsl":2478,"jouwing":2479,"Ġgrutste":2480,"Ġ2020":2481,"vdA":2482,"Ġwyn":2483,"chn":2484,"stof":2485,"gev":2486,"rutsen":2487,"Ġspor":2488,"Ġrint":2489,"Ġalleen":2490,"Ġtsjerke":2491,"Ġbepaal":2492,"baar":2493,"Ġaard":2494,"Ġbu":2495,"rouwen":2496,"erste":2497,"Ġferkeap":2498,"ienskip":2499,"Ġ16":2500,"komst":2501,"ĠSkyl":2502,"Ġdesimber":2503,"Je":2504,"ko":2505,"orma":2506,"ĠAmel":2507,"Ġwerk":2508,"Ġtinke":2509,"Ġgoeie":2510,"Ġaltijd":2511,"Ġ50":2512,"Ġfragen":2513,"Ġple":2514,"ĠFier":2515,"ijke":2516,"Ġkompetysje":2517,"Ġfolslein":2518,"Ġjuly":2519,"putearre":2520,"wert":2521,"ĠdÃ»":2522,"arje":2523,"Ġmaat":2524,"Ġtas":2525,"Ġfoaral":2526,"Ġstre":2527,"Ġseach":2528,"Ġwiis":2529,"Ġriden":2530,"Ġsaneamde":2531,"lok":2532,"wen":2533,"innen":2534,"roe":2535,"tsk":2536,"Ġ2019":2537,"ĠwÃªzen":2538,"ieden":2539,"Ġallinne":2540,"Ġspilet":2541,"ĠDijkstra":2542,"ĠRutte":2543,"ps":2544,"roer":2545,"Ġbesite":2546,"Ġslim":2547,"Ã¼":2548,"Ġhing":2549,"Ġkijken":2550,"Ġnatuurlijk":2551,"Ġhjoed":2552,"earjen":2553,"oort":2554,"ĠDizze":2555,"lan":2556,"Ġdrug":2557,"Ġiets":2558,"Ġbi":2559,"ĠVisser":2560,"ĠPvdA":2561,"belang":2562,"wedstriid":2563,"jend":2564,"ĠSint":2565,"Ġoarloch":2566,"Ġmeardere":2567,"ĠÃ»ntst":2568,"brand":2569,"Ġskriuwt":2570,"tocht":2571,"ulÃ¢n":2572,"Ġiten":2573,"Ġener":2574,"raf":2575,"ĠVer":2576,"Ġspylje":2577,"fierder":2578,"Ġmoment":2579,"rein":2580,"Ġcont":2581,"ĠJansen":2582,"helle":2583,"Ġhoopje":2584,"ining":2585,"deast":2586,"ester":2587,"Ġperioade":2588,"uli":2589,"Ġun":2590,"Ġtar":2591,"ĠSne":2592,"ĠWij":2593,"ĠTe":2594,"iging":2595,"komsten":2596,"Ġadvys":2597,"ĠSkylge":2598,"ĠbÃªste":2599,"Ġvers":2600,"Ġstudinten":2601,"ĠrÃ»te":2602,"Ġinisjatyf":2603,"bÃ»n":2604,"jÃ»":2605,"jip":2606,"Ġ8":2607,"ĠlÃª":2608,"Ġgebe":2609,"ĠBr":2610,"Ġfersp":2611,"ĠeilÃ¢n":2612,"hÃ¢lde":2613,"ugd":2614,"Ġskea":2615,"iviteiten":2616,"ormaasje":2617,"lende":2618,"ĠNij":2619,"Ġoplossing":2620,"aur":2621,"ina":2622,"Ġbou":2623,"Ġhun":2624,"Ġferwacht":2625,"Ġgeweld":2626,"ryst":2627,"werf":2628,"Ġbeskikber":2629,"Ġsadat":2630,"iken":2631,"sim":2632,"istearje":2633,"Ġstjoer":2634,"ĠKl":2635,"Ġbedoel":2636,"ĠbrÃ»ke":2637,"ollum":2638,"bert":2639,"anje":2640,"asjonale":2641,"ĠFrjen":2642,"mint":2643,"Ġlei":2644,"Ġmeast":2645,"oat":2646,"ue":2647,"Ġtegen":2648,"Ġferli":2649,"ĠWille":2650,"Ġoerlis":2651,"ival":2652,"koart":2653,"Ġbestjoerder":2654,"haven":2655,"dra":2656,"ja":2657,"kar":2658,"ĠhÃ»nder":2659,"oren":2660,"Ġstart":2661,"Ġsein":2662,"Ġcamp":2663,"eksje":2664,"Ġsteeds":2665,"ĠfÃªststeld":2666,"Ġmedia":2667,"VB":2668,"kaam":2669,"Ġ7":2670,"ĠmÃ»l":2671,"Ġbart":2672,"ieren":2673,"oep":2674,"ĠUt":2675,"Ġkultuer":2676,"ĠFrjentsjer":2677,"As":2678,"aul":2679,"aats":2680,"Ġ2021":2681,"Ġgefaar":2682,"Ġiedereen":2683,"Ġbarre":2684,"Ġnjo":2685,"Ġgasten":2686,"Ġtesten":2687,"Ġwurke":2688,"Ġrjochter":2689,"bere":2690,"Ġmaklik":2691,"ĠÃ»ntwikkel":2692,"ĠwethÃ¢lder":2693,"Ġlange":2694,"ude":2695,"Ġsubs":2696,"Ġynd":2697,"uiten":2698,"Ġstek":2699,"Ġrisik":2700,"500":2701,"sjin":2702,"sek":2703,"Ġhannen":2704,"Ġwebs":2705,"Ġles":2706,"Ġeigener":2707,"Ġslachtoffer":2708,"ake":2709,"Ġtechn":2710,"ĠBro":2711,"Ġcoronab":2712,"dieling":2713,"Ġjongerein":2714,"ĠmÃ»lkap":2715,"onden":2716,"Ġzorg":2717,"Ġheger":2718,"Ġpasjinten":2719,"ning":2720,"wÃª":2721,"alt":2722,"ĠBre":2723,"ĠVeen":2724,"Ġklasse":2725,"Ġkeap":2726,"Ġnimmen":2727,"ĠKNVB":2728,"ĠUnder":2729,"ĠambulÃ¢n":2730,"ĠWillem":2731,"),":2732,"ay":2733,"rint":2734,"erlÃ¢n":2735,"rast":2736,"Ġzitten":2737,"Ġleden":2738,"Ġboat":2739,"Ġkosten":2740,"melling":2741,"ysteem":2742,"rÃ»n":2743,"Ġfoarsprong":2744,"uster":2745,"azen":2746,"bli":2747,"Ġ22":2748,"Ġmij":2749,"Ġderfoar":2750,"por":2751,"Ġfraksje":2752,"ĠsÃ»n":2753,"amd":2754,"Ġstichting":2755,"ĠskÃ»":2756,"ager":2757,"vestÃªd":2758,"schap":2759,"Ġstellen":2760,"ctie":2761,"urgum":2762,"ioen":2763,"Ġron":2764,"Ġdok":2765,"erv":2766,"Ġynset":2767,"lever":2768,"ormaal":2769,"ĠNat":2770,"Ġlike":2771,"Ġhelpe":2772,"act":2773,"vestÃªdet":2774,"Er":2775,"Ġfar":2776,"ĠFran":2777,"rach":2778,"Ġkinst":2779,"ĠHoekstra":2780,"Ġwanne":2781,"ator":2782,"Ġopd":2783,"Ġwolris":2784,"outen":2785,"Ġbelangrij":2786,"ĠfÃ»gels":2787,"!\"<|":2788,"nis":2789,"Ġ21":2790,"Ġbuor":2791,"ĠSm":2792,"ĠSmelling":2793,"raat":2794,"Ġlever":2795,"bbe":2796,"aud":2797,"ĠZw":2798,"nimme":2799,"ĠÃ¢ldere":2800,"DA":2801,"kund":2802,"ners":2803,"Ġrop":2804,"Ġkli":2805,"ĠBopp":2806,"rukt":2807,"skÃ´":2808,"ĠRe":2809,"ĠSteaten":2810,"Ġpracht":2811,"okker":2812,"Ġrel":2813,"Ġheljen":2814,"komen":2815,"Ġdoarren":2816,"ĠVeiligheidsregio":2817,"vestÃªdetocht":2818,"hÃ»zen":2819,"rjocht":2820,"angen":2821,"Ġgien":2822,"Ġlaten":2823,"sport":2824,"Ġbegjinne":2825,"Ġsoarget":2826,"istoar":2827,"Ġlokaasje":2828,"Ġprate":2829,"Ġsubsyd":2830,"ori":2831,"waar":2832,"Ġdak":2833,"anen":2834,"Ġsin":2835,"alis":2836,"Ġgemeenteried":2837,"Als":2838,"age":2839,"ny":2840,"partij":2841,"Ġag":2842,"Ġsu":2843,"Ġhert":2844,"Ġmot":2845,"esmet":2846,"ĠdÃªrfoar":2847,"ĠStichting":2848,"foarsitter":2849,"Ġkrijgen":2850,"Ġpriis":2851,"Ġgearwurking":2852,"ĠwarskÃ´":2853,"Yn":2854,"Ġnammen":2855,"Ġgas":2856,"ĠBru":2857,"Ġhelpen":2858,"Ġiepenbier":2859,"Ġpersoniel":2860,"Ġopnij":2861,"kip":2862,"na":2863,"post":2864,"Ã»mer":2865,"ede":2866,"urele":2867,"Ġferantwurd":2868,"Ã´le":2869,"Ġ11":2870,"ĠdÃªrfan":2871,"ĠbrÃªge":2872,"Ġneed":2873,"sjele":2874,"Ġ500":2875,"ĠfakÃ¢nsje":2876,"Ġtrainer":2877,"brewaris":2878,"Ġsterk":2879,"onen":2880,"ĠSyn":2881,"Ġbeh":2882,"Ġnea":2883,"Ġlanlike":2884,"Ġmidden":2885,"Ġbedoeling":2886,"Ġnjoggen":2887,"Ġcoronabesmet":2888,"goed":2889,"lÃªst":2890,"tiid":2891,"Ġoef":2892,"stap":2893,"ĠBoar":2894,"adiel":2895,"komt":2896,"ĠDÃªrmei":2897,"Ġfebrewaris":2898,"Ġguod":2899,"loed":2900,"eten":2901,"Ġkryst":2902,"omp":2903,"ĠAk":2904,"ĠÃ´fsp":2905,"Ġerg":2906,"iede":2907,"Ġdoarpen":2908,"ĠNoardeast":2909,"Ġwenning":2910,"Ġsosjale":2911,"Ġfoarm":2912,"Ã»nders":2913,"ijl":2914,"ĠHol":2915,"ĠBÃ»ten":2916,"ĠEaster":2917,"komste":2918,"Ġaug":2919,"Ġjonges":2920,"holden":2921,"ĠBoppedat":2922,"win":2923,"test":2924,"ustus":2925,"Ġpraktyk":2926,"Ġaugustus":2927,"braak":2928,"zig":2929,"Ġwienen":2930,"Ãªft":2931,"Ġoerheid":2932,"gelyk":2933,"ĠPie":2934,"Ġmaksim":2935,"Ġberne":2936,"Ġsoargje":2937,"ioens":2938,"Ġblijven":2939,"Ġfinansjele":2940,"Ġfjirde":2941,"CL":2942,"park":2943,"sis":2944,"inke":2945,"Ġmoarn":2946,"Ġljocht":2947,"oeg":2948,"ĠLee":2949,"ĠCDA":2950,"Ġienn":2951,"Ġrige":2952,"Ġ2018":2953,"Ġbestiet":2954,"Ġtelefyzje":2955,"Ġspesjale":2956,"insjale":2957,"iner":2958,"ĠtÃºn":2959,"Ġpop":2960,"ijs":2961,"ilder":2962,"eker":2963,"ĠÃ¢lden":2964,"ĠÃºtsp":2965,"Ġterm":2966,"ĠBerg":2967,"Ġwinter":2968,"jins":2969,"Ġbre":2970,"ingst":2971,"ĠHel":2972,"ĠdÃªrby":2973,"ĠLjouwerters":2974,"Ġjongeren":2975,"Ġynformaasje":2976,"hof":2977,"raken":2978,"jek":2979,"ĠSÃ»nt":2980,"Ġvind":2981,"ĠHaag":2982,"Ġju":2983,"Ġleuk":2984,"Ġfersoar":2985,"hanneling":2986,"Ġenerzj":2987,"Ġopp":2988,"Ġstien":2989,"ĠÃºtfier":2990,"Ġcoronat":2991,"Ġjeugd":2992,"nimmer":2993,"Ġrjochtbank":2994,"Ġtelefoan":2995,"Ġwebside":2996,"Dan":2997,"Ġdemon":2998,"allen":2999,"Ġtro":3000,"Ġynsp":3001,"Ġjust":3002,"wenner":3003,"Ġgefoel":3004,"tinken":3005,"dagen":3006,"Ġfear":3007,"Ġboe":3008,"Ġtan":3009,"Ġfoarstel":3010,"Ġsoan":3011,"kommen":3012,"bouw":3013,"Ġwennet":3014,"Ġrestaur":3015,"ĠEarder":3016,"cent":3017,"iz":3018,"lak":3019,"ĠBos":3020,"ĠOn":3021,"Ġskoar":3022,"Ġdig":3023,"oster":3024,"ĠProv":3025,"ool":3026,"ucht":3027,"woan":3028,"Ġdisk":3029,"Ġbist":3030,"Ġbesocht":3031,"strjitte":3032,"skoalle":3033,"aai":3034,"bl":3035,"uele":3036,"Ġfjild":3037,"Ġdeselde":3038,"Ġhand":3039,"Ġnov":3040,"Ġsee":3041,"Ġnochris":3042,"Ġslag":3043,"Ġgrote":3044,"hÃ¢lders":3045,"issaris":3046,"Ġsamar":3047,"Ġbuert":3048,"ob":3049,"Ġstaan":3050,"Ġ194":3051,"Ġskied":3052,"kerij":3053,"ivo":3054,"ramer":3055,"ĠAnne":3056,"ĠferbÃ¢n":3057,"ĠAmelÃ¢n":3058,"ym":3059,"Ġkrisis":3060,"Ġallemaal":3061,"Ġflagge":3062,"organisaasje":3063,"Ġdrugs":3064,"Ġsubsydzje":3065,"Ġnovimber":3066,"bad":3067,"Ġbisten":3068,"Ġhyn":3069,"orgen":3070,"Ġlaat":3071,"Ġferfier":3072,"ĠBurgum":3073,"Ġsocht":3074,"uon":3075,"wn":3076,"zet":3077,"etje":3078,"ĠÃºtstjoer":3079,"Ġaanst":3080,"Ġaantal":3081,"Ġelke":3082,"Ġduorret":3083,"Ġsintrum":3084,"Ġrisiko":3085,"ci":3086,"keld":3087,"alist":3088,"Ġto":3089,"Ġtol":3090,"Ġtegearre":3091,"ĠBen":3092,"Ã´r":3093,"Ġlizzen":3094,"Ġpromo":3095,"tsenien":3096,"Ġfertochten":3097,"lachjouwer":3098,"Ġkap":3099,"learre":3100,"Ġomtinken":3101,"Ġnodig":3102,"Ġekonom":3103,"Ġbesykje":3104,"Ġkoste":3105,"ĠTwa":3106,"Ġferpleech":3107,"Ġdigit":3108,"giet":3109,"Ġ9":3110,"Ġmer":3111,"keamer":3112,"ussen":3113,"ĠKramer":3114,"Ġberop":3115,"ĠBoargemaster":3116,"ding":3117,"Ġken":3118,"Ġkie":3119,"Ġfoars":3120,"Ġsjoch":3121,"noai":3122,"Ġaardich":3123,"ĠLeeuw":3124,"fÃ»":3125,"lann":3126,"Ġferrom":3127,"Ġstoar":3128,"ĠKan":3129,"ĠJonge":3130,"Ġwurkjen":3131,"ĠAnt":3132,"sintrum":3133,"Ġtafel":3134,"dokter":3135,"ĠSmellingerlÃ¢n":3136,"baan":3137,"brocht":3138,"kant":3139,"vens":3140,"enden":3141,"Ġhichte":3142,"Ġku":3143,"Ġteken":3144,"omen":3145,"ĠAcht":3146,"see":3147,"Ġslach":3148,"Ġthuis":3149,"Ġrad":3150,"ĠbysÃ»ndere":3151,"Ġ75":3152,"Ġfyf":3153,"Ġwoene":3154,"Ġterug":3155,"ikt":3156,"Ġfreegje":3157,"bouwen":3158,"Ġfaker":3159,"Ã¯n":3160,"Ġfest":3161,"Ġsieten":3162,"Ġwyk":3163,"ĠMCL":3164,"weg":3165,"Ġtitel":3166,"veen":3167,"Ġgrutter":3168,"Ġwenje":3169,"Ġstrjitte":3170,"Ġbelangrijk":3171,"!<|":3172,"fte":3173,"tlik":3174,"tiden":3175,"rich":3176,"Ġeas":3177,"ĠteÃ¤":3178,"iem":3179,"ĠKollum":3180,"umint":3181,"afee":3182,"Ġorganisaasjes":3183,"stellingwerf":3184,"Ġmeldt":3185,"uin":3186,"Ġeerste":3187,"Ã¢nsen":3188,"ĠMear":3189,"ĠOant":3190,"ĠÃ´ffal":3191,"Ġhege":3192,"ĠPl":3193,"intich":3194,"Ġkinderen":3195,"Ġkwyt":3196,"Ġprof":3197,"Ġbarde":3198,"Maar":3199,"kamp":3200,"tingen":3201,"urop":3202,"ĠÃ©":3203,"eij":3204,"Ġtast":3205,"ersjoch":3206,"ĠMuseum":3207,"ennis":3208,"Ġeigenlijk":3209,"Ġmiddel":3210,"Ġdielnimmers":3211,"Ġbetelje":3212,"Ġkoart":3213,"stannich":3214,"ĠBÃ»tenpost":3215,"ksje":3216,"net":3217,"sy":3218,"Ġ40":3219,"Ġsamen":3220,"Ġbaan":3221,"Ġga":3222,"Ġgewe":3223,"ĠTer":3224,"Ġfreget":3225,"Ġsoarge":3226,"ivers":3227,"Ġjoech":3228,"ĠAnd":3229,"schien":3230,"Ġwinkels":3231,"bin":3232,"Ġdyn":3233,"Ġmienskip":3234,"alk":3235,"kema":3236,"Ġomjouwing":3237,"ielen":3238,"ĠTal":3239,"Ġhart":3240,"ĠPC":3241,"Ġlest":3242,"ĠwrÃ¢ldbek":3243,"Ġklups":3244,"Ġbetelle":3245,"iersma":3246,"wÃ¢lde":3247,"ĠÃ´fsletten":3248,"ĠambulÃ¢nse":3249,".'<|":3250,"Wij":3251,"boer":3252,"Ġu":3253,"Ġand":3254,"Ġholle":3255,"olo":3256,"tsma":3257,"Ġprosint":3258,"ĠSchouten":3259,"Ġresult":3260,"Ġholden":3261,"Ã»ndersyk":3262,"OD":3263,"bij":3264,"hoeke":3265,"Ġhu":3266,"Ġeer":3267,"Ġpark":3268,"ĠSw":3269,"Ġferf":3270,"Ġbyinoar":3271,"Ġskreaun":3272,"ĠÃ´fsk":3273,"Ġcoronapas":3274,"Ġhelje":3275,"delijk":3276,"Ġkollega":3277,"Ġstriid":3278,"ioenskip":3279,"boek":3280,"Ġfoel":3281,"Ġhearre":3282,"Ġynst":3283,"olog":3284,"ieningen":3285,"Ġspul":3286,"Ġklanten":3287,"ieding":3288,"lijke":3289,"Ġstikstof":3290,"Ġmaatregelen":3291,"ffe":3292,"gaan":3293,"Ġbank":3294,"Ġfertsjin":3295,"ĠHer":3296,"ĠWetter":3297,"Ġzie":3298,"apt":3299,"Ġspit":3300,"komm":3301,"Ġkeat":3302,"oetbal":3303,"Ġcoronatiid":3304,"?\"<|":3305,"my":3306,"Ġfun":3307,"stad":3308,"earret":3309,"Ġzit":3310,"ĠGri":3311,"ĠPr":3312,"beeld":3313,"Ġberjocht":3314,"inks":3315,"Ġbetocht":3316,"Ġkwaliteit":3317,"Ġaktiviteiten":3318,"Ġhadden":3319,"kundige":3320,"arjen":3321,"Ġnormaal":3322,"regel":3323,"ase":3324,"Ġstaat":3325,"Ġweet":3326,"rutte":3327,"antÃª":3328,"spe":3329,"veste":3330,"dysje":3331,"hinne":3332,"mmen":3333,"anden":3334,"elde":3335,"Ġkaart":3336,"ĠFC":3337,"ĠstÃ¢n":3338,"ĠRyks":3339,"veel":3340,"Ġbringen":3341,"ĠNederlÃ¢nsk":3342,"ĠsneontejÃ»n":3343,"ress":3344,"Ġgreide":3345,"sin":3346,"Ġfis":3347,"Ġfys":3348,"elle":3349,"Ġger":3350,"ĠtÃ»zen":3351,"urde":3352,"Ġkrit":3353,"Ġlea":3354,"spelen":3355,"ĠDÃºtske":3356,"Ġreiz":3357,"Ġhelemaal":3358,"ĠLeeuwar":3359,"Ġgeweest":3360,"vel":3361,"teande":3362,"Ġdag":3363,"Ġwis":3364,"stannen":3365,"Ġpunt":3366,"Ãªf":3367,"onk":3368,"Ġvlog":3369,"Ġoand":3370,"ĠhÃ»ndert":3371,"Ġopdracht":3372,"da":3373,"kken":3374,"ĠdÃª":3375,"ative":3376,"Ġhokker":3377,"Ġten":3378,"onfer":3379,"Ġomhe":3380,"Ġwist":3381,"ace":3382,"ĠSkier":3383,"ĠPieter":3384,"bje":3385,"gri":3386,"igen":3387,"va":3388,"Ġdefin":3389,"Ġmon":3390,"ĠnÃ»mer":3391,"Ġitselde":3392,"tens":3393,"Ġsektor":3394,"ĠrÃª":3395,"Ġmein":3396,"Ġleger":3397,"Ġelts":3398,"rÃ»te":3399,"ĠwÃªrtroch":3400,"Ġapp":3401,"Ġbelangryk":3402,"Ġweten":3403,"Neder":3404,"kun":3405,"ryd":3406,"Ġwaren":3407,"Ġmag":3408,"atte":3409,"atuer":3410,"Ġhant":3411,"Ġlet":3412,"Ġvin":3413,"rut":3414,"ĠdÃªrtroch":3415,"ĠPaul":3416,"rijd":3417,"Ġprovinsjes":3418,"Ã«n":3419,"slach":3420,"Ġbylden":3421,"Ġwinst":3422,"Ġmelding":3423,"Ġtweintich":3424,"Ġwannear":3425,"jinsteande":3426,"Ġradio":3427,"SC":3428,"one":3429,"Ġdea":3430,"Ġstjer":3431,"ĠWar":3432,"ĠWie":3433,"Ġzal":3434,"ĠPiet":3435,"straasje":3436,"Ġbosk":3437,"ĠlÃ¢nbou":3438,"ĠÃºteins":3439,"Ġpakte":3440,"wedstriden":3441,"Ġtwee":3442,"Ġgrien":3443,"izen":3444,"rale":3445,"Ġhistoar":3446,"Ġpaad":3447,"lie":3448,"ief":3449,"raal":3450,"Ġstraf":3451,"ĠJac":3452,"Ġspe":3453,"spro":3454,"Ġtoeristen":3455,"Ġnieuwe":3456,"ĠFlylÃ¢n":3457,"ĠEuropeeske":3458,"Ġboete":3459,"antÃªne":3460,"mier":3461,"Ġtyd":3462,"Ġtran":3463,"Ġbewe":3464,"Ġlast":3465,"Ġgek":3466,"ĠHa":3467,"tsjinsteande":3468,"imme":3469,"ĠLem":3470,"ĠThe":3471,"ĠRot":3472,"Ġbringe":3473,"behear":3474,"Ġsletten":3475,"inner":3476,"Ġzeggen":3477,"Ġrjochting":3478,"Ġrieds":3479,"ckdo":3480,"ĠlÃ»d":3481,"KS":3482,"mÃ»n":3483,"ras":3484,"Ġher":3485,"ĠkÃ¢nsen":3486,"Ġfoarby":3487,"irk":3488,"Ġklap":3489,"Ġhimsels":3490,"ĠDÃªrby":3491,"ĠwÃªrby":3492,"Ġpositive":3493,"Ġproduk":3494,"Ġomheech":3495,"burg":3496,"mak":3497,"Ġ23":3498,"Ġtoen":3499,"riaal":3500,"Ġmeidwaan":3501,"ĠHaan":3502,"oedsel":3503,"Ġlij":3504,"eiding":3505,"ĠminÃºt":3506,"Ġkunt":3507,"uorren":3508,"Ġorganisearre":3509,"Ġreis":3510,"Ġpakken":3511,"Ġpleats":3512,"ĠkontrÃ´le":3513,"porters":3514,"Ġanders":3515,"ĠWer":3516,"Ġweg":3517,"ĠEurop":3518,"Ġlied":3519,"ĠRyk":3520,"warte":3521,"Ġsoms":3522,"Ġferspried":3523,"Ġdefinit":3524,"ckdown":3525,"lÃª":3526,"out":3527,"rei":3528,"enen":3529,"Ġsen":3530,"eizoen":3531,"riden":3532,"Ġopset":3533,"ĠBrok":3534,"ĠVeer":3535,"ullen":3536,"Ġgrutsk":3537,"Ġbegryp":3538,"Ġeltsenien":3539,"Ġfamke":3540,"Ġbesmettings":3541,"Ġflecht":3542,"ĠGrinslÃ¢n":3543,"Ġferstoarn":3544,"ĠVVD":3545,"Ġreaksjes":3546,"Ġcamping":3547,"cke":3548,"kn":3549,"Ã¶":3550,"Ġsle":3551,"ati":3552,"ĠDie":3553,"urt":3554,"ĠWa":3555,"adskip":3556,"Ġoerwinning":3557,"maakt":3558,"apen":3559,"Ġryd":3560,"Ġgroepen":3561,"lymp":3562,"eilannen":3563,"Ġmooi":3564,"Ġferwachtet":3565,"Ġspannend":3566,"Ġiennige":3567,"Ġskiednis":3568,"Op":3569,"bÃ¢n":3570,"buro":3571,"hink":3572,"Ġart":3573,"ĠbÃªst":3574,"ĠDam":3575,"Ġstiene":3576,"Ġjon":3577,"ĠMe":3578,"ĠWK":3579,"Ġlekker":3580,"ĠÃ»nderdiel":3581,"joern":3582,"Ġfestival":3583,"ca":3584,"fjild":3585,"jitten":3586,"Ġmate":3587,"Ġhuis":3588,"urn":3589,"jone":3590,"Ġaltern":3591,"Ġweek":3592,"jouwe":3593,"uld":3594,"wurker":3595,"Ġsoarte":3596,"Ġzeker":3597,"Ġflink":3598,"Ġsykje":3599,"ĠDÃºtsers":3600,"ĠFerline":3601,"Ġpleatst":3602,"Ġkonteners":3603,"wÃªz":3604,"Ġtrek":3605,"Ġtank":3606,"Ġeens":3607,"Ġvirus":3608,"rap":3609,"Ġneist":3610,"ĠKro":3611,"Ġministearje":3612,"ĠwÃªrom":3613,"Ġbelied":3614,"Ġkwets":3615,"ĠJouwer":3616,"ische":3617,"byld":3618,"Ġnammentlik":3619,"Ġtermyn":3620,"iversiteit":3621,"aien":3622,"Ġat":3623,"Ġteste":3624,"asters":3625,"uring":3626,"Ġbeetje":3627,"Ġoerli":3628,"Ġheale":3629,"ĠPost":3630,"Ġkearen":3631,"Ġpass":3632,"ĠDÃºtslÃ¢n":3633,"Ġynfloed":3634,"ĠDÃªrneist":3635,"Ġpolityk":3636,"Ġmotor":3637,"jekten":3638,"dels":3639,"jaan":3640,"Ġechte":3641,"Ġoptre":3642,"urk":3643,"Ġnoait":3644,"Ġhawwen":3645,"ĠCar":3646,"ĠColle":3647,"bean":3648,"Ġboadskip":3649,"ĠBoys":3650,"Ġsituatie":3651,"Ġlockdown":3652,"ĠFierder":3653,"Ġoefen":3654,"Ġcoronapasjinten":3655,"Ġhanthaven":3656,"team":3657,"Ġhann":3658,"Ġgaten":3659,"aliÃ«":3660,"olen":3661,"isme":3662,"ĠoanhÃ¢lden":3663,"Ġmoei":3664,"Ġferlet":3665,"ĠWiersma":3666,"idint":3667,"Ġrein":3668,"ichter":3669,"Ġspoar":3670,"Ġleven":3671,"Ġhoefolle":3672,"Ġsiik":3673,"koarten":3674,"Ġoproppen":3675,"Ġseleksje":3676,"feart":3677,"voorbeeld":3678,"aut":3679,"gre":3680,"jus":3681,"Ġ27":3682,"tere":3683,"ĠfÃªste":3684,"Ġbak":3685,"Ġnommen":3686,"Ġferdigen":3687,"ĠGuon":3688,"Ġeardere":3689,"bestjoer":3690,"Ġtagelyk":3691,"ĠAlvestÃªdetocht":3692,"Ġtrein":3693,"ionale":3694,"Ġfalle":3695,"karspelen":3696,"Ġkuier":3697,"oit":3698,"val":3699,"Ġ28":3700,"Ġgar":3701,"room":3702,"rake":3703,"Ġferiening":3704,"ĠHof":3705,"ĠBakker":3706,"Ġsicht":3707,"stellingen":3708,"book":3709,"Ġeffe":3710,"werp":3711,"ĠkarantÃªne":3712,"tseach":3713,"organisaasjes":3714,"Ġ60":3715,"Ġnivo":3716,"Ġopen":3717,"ĠNie":3718,"steat":3719,"Ġslot":3720,"Ġsizzen":3721,"Ġneg":3722,"Ġgroot":3723,"Ġafstand":3724,"Ġflean":3725,"Ġwurdfierder":3726,"Ġstadion":3727,"Ġferdw":3728,"Ġkostet":3729,"ĠAchtkarspelen":3730,"acebook":3731,"ĠSkiermÃ»n":3732,"ov":3733,"ta":3734,"zelf":3735,"Ġele":3736,"ern":3737,"Ġser":3738,"Ġwitten":3739,"Ġou":3740,"Ġoanholden":3741,"Ġgeven":3742,"ĠHans":3743,"ĠNe":3744,"Ġwein":3745,"Ġrea":3746,"ague":3747,"Ġklok":3748,"oenen":3749,"Ġkeer":3750,"ukses":3751,"ĠFriese":3752,"Ġgedaan":3753,"Ġpraten":3754,"okkich":3755,"ĠWaadeilannen":3756,"Ġmiddei":3757,"Ġskippen":3758,"ĠsÃ»nens":3759,"ĠÃ©Ã©n":3760,"ĠSkiermÃ»ntseach":3761,"dÃ»":3762,"fak":3763,"kri":3764,"uo":3765,"van":3766,"dering":3767,"Ġderop":3768,"Ġoanlieding":3769,"ĠBoals":3770,"adium":3771,"Ġiene":3772,"Ġtsjinst":3773,"Ġstikken":3774,"Ġlokale":3775,"hannele":3776,"Ġkampioen":3777,"Ġferantwurdlik":3778,"Ġant":3779,"Ġdeputearre":3780,"Ġbru":3781,"atten":3782,"Ġnjonken":3783,"Ġgoal":3784,"leine":3785,"Ġbeteken":3786,"Ġland":3787,"ĠMul":3788,"ĠLel":3789,"ĠGord":3790,"Ġsprake":3791,"Ġliet":3792,"ĠRen":3793,"straf":3794,"Ġfolgje":3795,"jerk":3796,"Ġbliuwen":3797,"ĠtelÃ¢ne":3798,"twurd":3799,"uinen":3800,"zing":3801,"Ġtent":3802,"Ġent":3803,"geven":3804,"Ġbeam":3805,"ĠMan":3806,"ĠNoord":3807,"ĠLa":3808,"Ġwerken":3809,"ĠMarren":3810,"342":3811,"osysje":3812,"Ġbetiid":3813,"weis":3814,"Ġleafst":3815,"onferinsje":3816,"En":3817,"inder":3818,"Ġsukses":3819,"Ġkamer":3820,"ise":3821,"ĠIepen":3822,"Ġmoa":3823,"ĠBl":3824,"geld":3825,"ĠKening":3826,"ĠTsj":3827,"oeksen":3828,"Ġbenaud":3829,"Ġmooglikheden":3830,"kelijk":3831,"ĠGrou":3832,"Ġstreek":3833,"058":3834,"beid":3835,"lje":3836,"wet":3837,"Ġfeit":3838,"Ġwed":3839,"Ġmerk":3840,"Ġgere":3841,"Ġynveste":3842,"ĠFacebook":3843,"ĠAris":3844,"ĠApp":3845,"unning":3846,"Ġdoet":3847,"teld":3848,"Ġhoege":3849,"ĠAld":3850,"ĠDÃªrtroch":3851,"Ġbijvoorbeeld":3852,"ĠWaadhoeke":3853,"Ġwater":3854,"ĠkrÃªft":3855,"Ġsoks":3856,"jax":3857,"ĠVeerman":3858,"qu":3859,"ule":3860,"uke":3861,"uze":3862,"Ġdrie":3863,"Ġtek":3864,"ĠSur":3865,"Ġferler":3866,"usje":3867,"350":3868,"anning":3869,"Ġfolget":3870,"Ġfolgjen":3871,"ĠWest":3872,"Ġmooglike":3873,"Ġappar":3874,"Ġbesmetting":3875,"Ġaktyf":3876,"Ġbless":3877,"Ġfielt":3878,"ĠskÃ»tsje":3879,"Ġspitich":3880,"her":3881,"rass":3882,"uotbal":3883,"Ġ0":3884,"Ġam":3885,"ĠdrÃ»":3886,"Ġkaar":3887,"ĠDO":3888,"Ġloft":3889,"Ġferlear":3890,"Ġzoals":3891,"ĠLan":3892,"Ġregear":3893,"ess":3894,"ĠTs":3895,"Ġheart":3896,"Ġspesjaal":3897,"drage":3898,"Ġenerzjy":3899,"lanners":3900,"Ġ80":3901,"Ġmins":3902,"Ġboeken":3903,"elt":3904,"onde":3905,"Ġfoarkomme":3906,"Ġalve":3907,"ĠHam":3908,"tsjinne":3909,"ĠNK":3910,"ĠNjonken":3911,"imming":3912,"Ġzorgen":3913,"ĠRied":3914,"Ġnemen":3915,"Ġfolg":3916,"rekke":3917,"Ġmisschien":3918,"Ġpersoanen":3919,"lend":3920,"pij":3921,"enL":3922,"leg":3923,"Ġfoardat":3924,"ĠFor":3925,"Ġoanbelang":3926,"oegen":3927,"ĠMÃ¼":3928,"Ġspyl":3929,"sjeel":3930,"Ġtiden":3931,"beste":3932,"Ġoantroffen":3933,"Ġverwacht":3934,"Ġtritich":3935,"uorre":3936,"Ġlanlik":3937,"ĠFanwe":3938,"Ġparsek":3939,"Ġtolve":3940,"lag":3941,"nie":3942,"elder":3943,"recht":3944,"gefallen":3945,"Ġvoetbal":3946,"ĠoanwÃªz":3947,"Ġoeral":3948,"Ġco":3949,"Ġmoatten":3950,"ikke":3951,"Ġwaarm":3952,"ĠCor":3953,"985":3954,"ĠIngel":3955,"ĠSybrand":3956,"ĠsikehÃ»zen":3957,"ĠfreedtejÃ»n":3958,"Ġlokaasjes":3959,"ĠWolve":3960,"Ġwachtsje":3961,"Ġmochten":3962,"Ġbepaalde":3963,"Ġversch":3964,"ĠKlaas":3965,"ĠmÃ»lkapke":3966,"woanwei":3967,"Ġlestich":3968,"ĠLeeuwarden":3969,"ĠEuropa":3970,"Ġferlern":3971,"hren":3972,"po":3973,"ukt":3974,"ueel":3975,"Ġ26":3976,"Ġjouwe":3977,"Ġinkeld":3978,"regels":3979,"Ġbegel":3980,"ĠFa":3981,"ĠIs":3982,"ĠoanjÃ»n":3983,"Ġspons":3984,"oorn":3985,"Ġhoecht":3986,"Ġneamt":3987,"uere":3988,"Ġkoarte":3989,"ĠfÃ»gel":3990,"Ġevenemint":3991,"Ġvinden":3992,"Ġparsekonferinsje":3993,"dyk":3994,"uch":3995,"vers":3996,"Ġ31":3997,"Ġsh":3998,"edif":3999,"nema":4000,"ollen":4001,"joers":4002,"Ġoanf":4003,"ĠAjax":4004,"aanske":4005,"ĠKomm":4006,"ĠJa":4007,"ika":4008,"954":4009,"ĠAll":4010,"ferli":4011,"Ġeltse":4012,"Ġander":4013,"Ġtsjerken":4014,"Ġswiere":4015,"Ġferkocht":4016,"Ġbleau":4017,"Ġynternasjonale":4018,"ĠÃ¢lderein":4019,"DÃªr":4020,"lyn":4021,"loop":4022,"ple":4023,"veld":4024,"Ġbuiten":4025,"Ġeach":4026,"ijf":4027,"earde":4028,"ĠEast":4029,"ĠÃ»nw":4030,"Ġcl":4031,"Ġtrochs":4032,"Ġlist":4033,"969":4034,"360":4035,"Ġkonk":4036,"Ġpartoer":4037,"dield":4038,"iids":4039,"Ġstelt":4040,"Ġoanpak":4041,"Ġruim":4042,"Ġkontrakt":4043,"ĠJohn":4044,"ĠBoalsert":4045,"Ġoanbelanget":4046,"ĠMÃ¼hren":4047,"194":4048,"Wat":4049,"gra":4050,"nel":4051,"anken":4052,"ars":4053,"Ġfr":4054,"Ġhearren":4055,"chter":4056,"Ġkafee":4057,"Ġgraag":4058,"Ġbestri":4059,"ĠHjir":4060,"ĠBij":4061,"ĠNO":4062,"Ġhaven":4063,"ĠOran":4064,"Ġry":4065,"953":4066,"986":4067,"ĠZoe":4068,"mans":4069,"Ġkontro":4070,"Ġrapp":4071,"Ġgewoanwei":4072,"ĠFlyers":4073,"ĠFean":4074,"ĠBrouwer":4075,"Ġronde":4076,"Ġmaksimaal":4077,"200":4078,"gar":4079,"pak":4080,"vol":4081,"Ġch":4082,"Ġfracht":4083,"Ġsim":4084,"Ġnoar":4085,"ynt":4086,"Ġtroffen":4087,"rid":4088,"itter":4089,"Ġmoasje":4090,"gelopen":4091,"Ġrin":4092,"Ġproef":4093,"Ġbesli":4094,"355":4095,"diele":4096,"werk":4097,"Ġdoelpunt":4098,"Ġterrein":4099,"endaliks":4100,"Ġhebt":4101,"Ġstrang":4102,"iÃ«n":4103,"Ġbeskerm":4104,"Ġbestean":4105,"Ġropt":4106,"ĠwrÃ¢ldbeker":4107,"NederlÃ¢n":4108,"700":4109,"tein":4110,"rouw":4111,"Ġtekoart":4112,"aske":4113,"Ã»nen":4114,"Ġbeter":4115,"ĠMSC":4116,"ĠEen":4117,"esk":4118,"Ġskjin":4119,"ktyf":4120,"250":4121,"ĠCO":4122,"980":4123,"968":4124,"eper":4125,"Ġkulturele":4126,"Ġswimbad":4127,"middel":4128,"Ġfjoerwurk":4129,"Ġferwachting":4130,"fÃ»gels":4131,"ĠLemmer":4132,"ĠGordyk":4133,"bid":4134,"kie":4135,"moed":4136,"port":4137,"punten":4138,"zel":4139,"Ġmaan":4140,"Ġoers":4141,"Ġhienen":4142,"Ġopsje":4143,"ingt":4144,"olf":4145,"orte":4146,"Ġges":4147,"ĠAZ":4148,"Ġsech":4149,"weach":4150,"iker":4151,"Ġbesch":4152,"onger":4153,"359":4154,"950":4155,"956":4156,"957":4157,"984":4158,"988":4159,"381":4160,"Ã»sj":4161,"Ġverd":4162,"Ġkeats":4163,"ĠSchult":4164,"onds":4165,"egjen":4166,"ico":4167,"Ġferoare":4168,"Ġsupporters":4169,"ĠLeague":4170,"Ġbewust":4171,"ĠEasterwÃ¢lde":4172,"bos":4173,"gings":4174,"lers":4175,"pstra":4176,"ĠhÃ¢ld":4177,"Ġkro":4178,"Ġeks":4179,"wein":4180,"ĠCit":4181,"959":4182,"982":4183,"962":4184,"965":4185,"967":4186,"berg":4187,"auffe":4188,"Ġtests":4189,"Ġsteld":4190,"Ġparkear":4191,"Ġmelde":4192,"Ġeveneminten":4193,"roegen":4194,"Ġcoronabesmettingen":4195,"Ġserie":4196,"ĠWolvegea":4197,"ĠSchulting":4198,"300":4199,"jil":4200,"Ãºzje":4201,"ĠWester":4202,"Ġred":4203,"ĠGrutte":4204,"202":4205,"ĠÃ»nderfin":4206,"351":4207,"951":4208,"987":4209,"961":4210,"Ġhelpt":4211,"997":4212,"Ġferbetter":4213,"Ġreedryd":4214,"Ġmaatskip":4215,"ĠCollege":4216,"fÃ¢ld":4217,"gd":4218,"museum":4219,"naam":4220,"oot":4221,"Ġsysteem":4222,"Ġpap":4223,"ĠWil":4224,"ĠWad":4225,"Ġwolkom":4226,"ĠÃ»nts":4227,"ĠLand":4228,"Ġearedif":4229,"358":4230,"989":4231,"910":4232,"919":4233,"909":4234,"oere":4235,"oglik":4236,"Ġrit":4237,"Ġ2017":4238,"ĠZe":4239,"rypt":4240,"ĠJoad":4241,"Ġtafersjoch":4242,"ĠOranje":4243,"DOD":4244,"fraksje":4245,"uid":4246,"Ġ70":4247,"Ġdri":4248,"Ġdeb":4249,"Ġynienen":4250,"ĠSander":4251,"ĠFro":4252,"Ġlannen":4253,"Ġallen":4254,"Ġstu":4255,"ĠLDOD":4256,"Ġsker":4257,"ĠCo":4258,"345":4259,"981":4260,"914":4261,"918":4262,"Ġkons":4263,"Ġkonst":4264,"Ġdochter":4265,"Ġfuortendaliks":4266,"usea":4267,"Ġevent":4268,"Ġadvok":4269,"huizen":4270,"Ġprachtich":4271,"ĠKanade":4272,"ĠentÃ»sj":4273,"Ġwedst":4274,"ĠLDODK":4275,"fl":4276,"hÃºs":4277,"lannen":4278,"tr":4279,"wat":4280,"Ġmist":4281,"Ġkof":4282,"jefte":4283,"als":4284,"Ġopsk":4285,"lier":4286,"Ġvrij":4287,"ĠTuinen":4288,"Ġlid":4289,"uting":4290,"Ġlege":4291,"211":4292,"aald":4293,"353":4294,"958":4295,"963":4296,"964":4297,"361":4298,"straat":4299,"999":4300,"Ġbedrach":4301,"392":4302,"abryk":4303,"ĠrekÃ´r":4304,"Ġoarsaak":4305,"Ġbopp":4306,"Ġteloar":4307,"Ġslachtoffers":4308,"Ġbefrij":4309,"ĠProvinsjale":4310,"ĠteÃ¤ter":4311,"ĠWetterskip":4312,"Ġoptreden":4313,"275":4314,"966":4315,"Een":4316,"egen":4317,"form":4318,"Ġast":4319,"ends":4320,"Ġfisk":4321,"ĠbÃ»":4322,"etting":4323,"ĠSels":4324,"Ġbezig":4325,"Ġzullen":4326,"ĠLi":4327,"oppen":4328,"ichoan":4329,"ĠRoel":4330,"214":4331,"356":4332,"955":4333,"380":4334,"384":4335,"911":4336,"913":4337,"915":4338,"719":4339,"741":4340,"907":4341,"960":4342,"Ġslute":4343,"Ġgroei":4344,"dielen":4345,"klasse":4346,"Ġgewoane":4347,"Ġsykjen":4348,"ĠBelg":4349,"stikke":4350,"Ġslagget":4351,"100":4352,"800":4353,"fle":4354,"oten":4355,"tusken":4356,"inde":4357,"ĠbÃ»n":4358,"Ġbard":4359,"Ġnoard":4360,"Ġgiene":4361,"ĠDrin":4362,"Ġstasjon":4363,"meter":4364,"ĠLang":4365,"Ġskrast":4366,"203":4367,"app":4368,"212":4369,"ĠtsjÃ»":4370,"252":4371,"ĠMartin":4372,"354":4373,"357":4374,"282":4375,"952":4376,"983":4377,"916":4378,"917":4379,"714":4380,"780":4381,"902":4382,"903":4383,"904":4384,"905":4385,"369":4386,"veren":4387,"393":4388,"linge":4389,"Ġautom":4390,"lijn":4391,"Ġschool":4392,"Ġmaakt":4393,"Ġsykte":4394,"Ġtraining":4395,"Ġmeldingen":4396,"isjele":4397,"Ġhinget":4398,"ĠBenammen":4399,"hinklik":4400,"066":4401,"014":4402,"175":4403,"158":4404,"294":4405,"375":4406,"424":4407,"475":4408,"575":4409,"531":4410,"600":4411,"658":4412,"831":4413,"866":4414,"814":4415,"854":4416,"844":4417,"blog":4418,"oeld":4419,"uc":4420,"Ġ29":4421,"enstra":4422,"reen":4423,"kem":4424,"ama":4425,"Ġderfan":4426,"Ġferfol":4427,"Ġstyp":4428,"ĠÃºtw":4429,"Ġcon":4430,"209":4431,"Ġoarder":4432,"217":4433,"218":4434,"255":4435,"306":4436,"288":4437,"340":4438,"341":4439,"343":4440,"347":4441,"382":4442,"385":4443,"912":4444,"711":4445,"713":4446,"715":4447,"716":4448,"781":4449,"782":4450,"784":4451,"785":4452,"744":4453,"703":4454,"901":4455,"906":4456,"363":4457,"368":4458,"760":4459,"761":4460,"762":4461,"764":4462,"orttra":4463,"wurke":4464,"377":4465,"379":4466,"Ġkeazen":4467,"gemasters":4468,"Ġhotel":4469,"Ġfolsleine":4470,"ĠDouwe":4471,"Ġsupermerk":4472,"ĠPrins":4473,"ĠMulder":4474,"Ġgeregeld":4475,"ĠFaber":4476,"Ġrydt":4477,"024":4478,"094":4479,"075":4480,"031":4481,"018":4482,"054":4483,"044":4484,"088":4485,"124":4486,"131":4487,"166":4488,"118":4489,"114":4490,"154":4491,"224":4492,"231":4493,"266":4494,"324":4495,"394":4496,"331":4497,"366":4498,"494":4499,"431":4500,"466":4501,"418":4502,"414":4503,"458":4504,"454":4505,"488":4506,"524":4507,"594":4508,"566":4509,"518":4510,"514":4511,"558":4512,"554":4513,"624":4514,"694":4515,"675":4516,"631":4517,"618":4518,"614":4519,"654":4520,"644":4521,"688":4522,"724":4523,"794":4524,"775":4525,"731":4526,"766":4527,"824":4528,"894":4529,"875":4530,"818":4531,"858":4532,"924":4533,"994":4534,"975":4535,"931":4536,"Dy":4537,"fyts":4538,"Ġdjip":4539,"oflik":4540,"arte":4541,"Ġsiket":4542,"Ġmusea":4543,"Ġkennis":4544,"Ġgast":4545,"Ġfant":4546,"roep":4547,"Ġext":4548,"Ġpaar":4549,"ĠDeputearre":4550,"ĠMich":4551,"Ã´ge":4552,"Ġziet":4553,"ĠdÃªryn":4554,"201":4555,"204":4556,"205":4557,"206":4558,"207":4559,"208":4560,"ikop":4561,"210":4562,"213":4563,"215":4564,"216":4565,"219":4566,"251":4567,"253":4568,"254":4569,"256":4570,"257":4571,"258":4572,"259":4573,"301":4574,"302":4575,"303":4576,"304":4577,"305":4578,"307":4579,"308":4580,"309":4581,"352":4582,"280":4583,"281":4584,"283":4585,"284":4586,"285":4587,"286":4588,"287":4589,"289":4590,"344":4591,"346":4592,"348":4593,"349":4594,"383":4595,"386":4596,"387":4597,"388":4598,"389":4599,"710":4600,"712":4601,"717":4602,"718":4603,"783":4604,"786":4605,"787":4606,"788":4607,"789":4608,"740":4609,"742":4610,"743":4611,"745":4612,"746":4613,"747":4614,"748":4615,"749":4616,"701":4617,"702":4618,"704":4619,"705":4620,"706":4621,"707":4622,"708":4623,"709":4624,"908":4625,"260":4626,"261":4627,"262":4628,"263":4629,"264":4630,"265":4631,"267":4632,"268":4633,"269":4634,"362":4635,"364":4636,"365":4637,"367":4638,"763":4639,"765":4640,"767":4641,"768":4642,"769":4643,"igje":4644,"emand":4645,"372":4646,"373":4647,"Ġneamd":4648,"Ġfreonen":4649,"397":4650,"Ġverder":4651,"ĠZo":4652,"ĠÃ»ndersocht":4653,"leats":4654,"Ġsnap":4655,"ĠGeert":4656,"ĠGewoanwei":4657,"Ġdrokte":4658,"Ġskeat":4659,"Ġduorje":4660,"Ġfinansjeel":4661,"sych":4662,"Ġbetekent":4663,"400":4664,"gien":4665,"lang":4666,"ald":4667,"alje":4668,"Ġynte":4669,"ĠynstÃ¢n":4670,"Ġeagen":4671,"Ġoper":4672,"olk":4673,"onker":4674,"ĠSl":4675,"ĠFort":4676,"ijden":4677,"Ġoanfal":4678,"Ġfernim":4679,"ĠBou":4680,"ĠBalk":4681,"Ġbydrage":4682,"Ġsek":4683,"Ġlich":4684,"ĠRoe":4685,"intrum":4686,"993":4687,"Ġterjochte":4688,"ĠRobert":4689,"Ġwichtige":4690,"ĠhÃºsdokter":4691,"isjeel":4692,"Ġcontact":4693,"Ġdefinityf":4694,"enLinks":4695,"az":4696,"bus":4697,"gie":4698,"kw":4699,"teit":4700,"ara":4701,"Ġyngong":4702,"ĠSiet":4703,"ĠSKS":4704,"Ġbeammen":4705,"Ġvoel":4706,"ĠoerlÃªst":4707,"Ġweken":4708,"ĠJor":4709,"Ġlibb":4710,"ĠPier":4711,"ment":4712,"Ġvooral":4713,"jochten":4714,"992":4715,"ĠOmdat":4716,"ĠstrÃ¢n":4717,"Ġgearkomste":4718,"ĠArjen":4719,"programma":4720,"Ġpremier":4721,"Ġoffisjele":4722,"ĠSportklup":4723,"Ġferniel":4724,"ĠSneon":4725,"kundigen":4726,"150":4727,"meld":4728,"Ġfit":4729,"etal":4730,"Ġea":4731,"older":4732,"akk":4733,"Ġmeid":4734,"ĠFers":4735,"Ġstuk":4736,"Ġja":4737,"ĠBart":4738,"Ġkomst":4739,"ĠOft":4740,"ĠKok":4741,"Ġsafier":4742,"Ġspelen":4743,"Ġleef":4744,"ĠÃ»nderhÃ¢ld":4745,"ĠÃ»nderdÃ»":4746,"Ġbedrij":4747,"Ġmooglikheid":4748,"Ġkommissaris":4749,"Ġsikehuzen":4750,"Ġheechste":4751,"freden":4752,"ĠrÃªstich":4753,"ĠMinister":4754,"Ġhartstikke":4755,"Ġtentoan":4756,"ĠoanwÃªzich":4757,"kte":4758,"reide":4759,"su":4760,"yen":4761,"zjen":4762,"Ġsc":4763,"Ġkran":4764,"Ġkening":4765,"stien":4766,"alif":4767,"lizze":4768,"Ġoansp":4769,"Ġoanfre":4770,"Ġgebouwen":4771,"ĠNoor":4772,"ĠÃ»nbek":4773,"opro":4774,"Ġdirekt":4775,"ĠslÃºt":4776,"Ġsluten":4777,"Ġbegri":4778,"ĠDÃªrfoar":4779,"Ġfolge":4780,"Ġplakje":4781,"Ġzoveel":4782,"rokken":4783,"meitsje":4784,"Ġkost":4785,"Ġdrege":4786,"haw":4787,"Ġgelyk":4788,"Ġferskillende":4789,"ĠChri":4790,"Ġelekt":4791,"Ġearedifyzje":4792,"SB":4793,"jiers":4794,"Ġ&":4795,"erde":4796,"ĠmÃªd":4797,"Ġynwenner":4798,"Ġem":4799,"Ġpast":4800,"Ġpod":4801,"isse":4802,"ĠBeide":4803,"jint":4804,"ĠPoep":4805,"sein":4806,"fest":4807,"Ġfoldwaan":4808,"Ġbestjoers":4809,"Ġeinige":4810,"ĠSpelen":4811,"ĠSteate":4812,"Ġpoadium":4813,"gebieten":4814,"Ġfallen":4815,"tsjinsten":4816,"wettersteat":4817,"ĠBergsma":4818,"Ġdiskusje":4819,"Ġstoarm":4820,"110":4821,"900":4822,"cast":4823,"finsje":4824,"ius":4825,"ringen":4826,"sters":4827,"ario":4828,"Ġkocht":4829,"Ġynkomsten":4830,"likens":4831,"terdam":4832,"orp":4833,"ĠSij":4834,"ĠSven":4835,"ijen":4836,"Ġferrass":4837,"ienings":4838,"ĠEK":4839,"ĠKrekt":4840,"Ġsawol":4841,"ĠJer":4842,"Ġhard":4843,"Ġleeft":4844,"Ġniets":4845,"inkel":4846,"272":4847,"Ġverh":4848,"ytsjerk":4849,"Ġgebieten":4850,"ubile":4851,"ĠlÃ¢ns":4852,"Ġafgelopen":4853,"ĠbÃ»tenlÃ¢n":4854,"brÃªge":4855,"Ġpersoanlik":4856,"Ġheard":4857,"Ġkampioenskip":4858,"Ġmelden":4859,"Ġopnaam":4860,"tallen":4861,"Ġnieuw":4862,"Ġopsm":4863,"ĠRykswettersteat":4864,"ĠRotterdam":4865,"ĠPoepjes":4866,"ubileum":4867,"050":4868,"550":4869,"510":4870,"SV":4871,"fyzje":4872,"grÃ»n":4873,"tend":4874,"ving":4875,"Ġ35":4876,"Ġmen":4877,"Ġhou":4878,"che":4879,"Ġgeld":4880,"reau":4881,"lieder":4882,"Ġlog":4883,"ĠAd":4884,"una":4885,"ĠKon":4886,"macht":4887,"Ġdos":4888,"Ġbesiket":4889,"Ġsneontemiddei":4890,"ĠNeist":4891,"ĠNoarden":4892,"Ġfee":4893,"Ġfaksin":4894,"Ġprima":4895,"Ġjilde":4896,"ĠHeeren":4897,"Ġoffisjeel":4898,"ĠJohan":4899,"coach":4900,"Ġhannel":4901,"ĠDOK":4902,"ikopter":4903,"060":4904,"156":4905,"456":4906,"480":4907,"460":4908,"810":4909,"njonken":4910,"pan":4911,"tje":4912,"vo":4913,"wers":4914,"Ġfrije":4915,"Ġiemand":4916,"Ġmuo":4917,"Ġbang":4918,"Ġhal":4919,"Ġgra":4920,"Ġtag":4921,"Ġpsych":4922,"Ġopfang":4923,"lichte":4924,"aks":4925,"Ġderby":4926,"Ġoansl":4927,"Ġferne":4928,"Ġnooit":4929,"earika":4930,"Ġjubileum":4931,"ĠMid":4932,"ĠÃºtbraak":4933,"ĠOlymp":4934,"Ġreek":4935,"Ġhem":4936,"ĠVoor":4937,"vent":4938,"229":4939,"Ġsteat":4940,"Ġbedoeld":4941,"233":4942,"wurkje":4943,"ĠUtre":4944,"ĠÃºtslach":4945,"ĠbrÃ»ken":4946,"Ġreguli":4947,"Ġkampanje":4948,"ĠjÃ»ns":4949,"Ġpolitike":4950,"Ġmooie":4951,"Ġsomtiden":4952,"Ġpopul":4953,"Ġdemonstraasje":4954,"joneel":4955,"ĠWadden":4956,"Ġextra":4957,"016":4958,"010":4959,"056":4960,"040":4961,"080":4962,"116":4963,"450":4964,"416":4965,"410":4966,"516":4967,"556":4968,"650":4969,"616":4970,"610":4971,"656":4972,"640":4973,"680":4974,"850":4975,"816":4976,"856":4977,"840":4978,"860":4979,"lings":4980,"rassen":4981,"Ġy":4982,"enten":4983,"Ġwr":4984,"Ġhan":4985,"Ġopt":4986,"lich":4987,"akel":4988,"Ġvert":4989,"Ġgemaakt":4990,"Ġmogen":4991,"ĠKar":4992,"ĠÃ´fstannen":4993,"Ġtrochgiet":4994,"Ġprot":4995,"jouwers":4996,"222":4997,"223":4998,"227":4999,"Ġkonkl":5000,"273":5001,"277":5002,"279":5003,"292":5004,"293":5005,"297":5006,"232":5007,"Ġboaten":5008,"Ġwetterskip":5009,"Ġtinken":5010,"Ġplanten":5011,"direkteur":5012,"Ġhout":5013,"ĠoprÃ»n":5014,"Ġstadichoan":5015,"ĠÃ»ntstien":5016,"ĠTeam":5017,"Ġfersprieding":5018,"Ġfantast":5019,"ĠUtrecht":5020,"An":5021,"VV":5022,"dy":5023,"euw":5024,"odei":5025,"sh":5026,"zingen":5027,"Ġdro":5028,"inc":5029,"ants":5030,"Ġintens":5031,"ish":5032,"joert":5033,"Ġstrukt":5034,"ĠMet":5035,"ads":5036,"ĠNije":5037,"Ġseagen":5038,"Ġgruttere":5039,"Ġgebru":5040,"Ġbekende":5041,"Ġaksjes":5042,"Ġblyk":5043,"finale":5044,"Ġsokke":5045,"Ġgehad":5046,"ĠlÃªzen":5047,"Ġoppakt":5048,"Ġhuzen":5049,"stadion":5050,"Ġserieus":5051,"ces":5052,"druk":5053,"wijk":5054,"Ġdiene":5055,"Ġbur":5056,"Ġbele":5057,"eis":5058,"ynf":5059,"Ġgele":5060,"Ġpat":5061,"ĠStel":5062,"ĠstÃªden":5063,"ilen":5064,"ĠOr":5065,"ĠKn":5066,"ĠPat":5067,"ĠÃ»nderweis":5068,"jerke":5069,"Ġflinke":5070,"Ġkans":5071,"ĠHarry":5072,"Ġradi":5073,"ĠwethÃ¢lders":5074,"Ġregionale":5075,"Ġleare":5076,"Ġ300":5077,"apasiteit":5078,"Ġoandacht":5079,"Ġspyljen":5080,"ĠJohnny":5081,"Ġrapport":5082,"ĠJoadske":5083,"bi":5084,"saak":5085,"arret":5086,"Ġdatum":5087,"Ġtefolle":5088,"Ġbeker":5089,"Ġvak":5090,"Ġvragen":5091,"ĠBra":5092,"ĠAbe":5093,"ĠAnema":5094,"ĠKne":5095,"ĠÃ´fdieling":5096,"ikaasje":5097,"ĠPeter":5098,"Ġsoenen":5099,"Ġ2016":5100,"Ġaller":5101,"sterlÃ¢n":5102,"Ġbedriuws":5103,"Ġkwart":5104,"Ġsneintemiddei":5105,"ick":5106,"helje":5107,"ĠRoo":5108,"Ġblijft":5109,"Ġregeling":5110,"ĠNederlandse":5111,"Ġferklear":5112,"ooi":5113,"klups":5114,"ilie":5115,"daging":5116,"Ġdenken":5117,"Ġliveblog":5118,"ĠÃ´fspraken":5119,"ĠÃºtstjoering":5120,"Ġekonomy":5121,"Ġruimte":5122,"bjen":5123,"ote":5124,"ulear":5125,"virus":5126,"Ġ90":5127,"Ġsal":5128,"aton":5129,"ation":5130,"eite":5131,"Ġopkn":5132,"Ġtem":5133,"orts":5134,"Ġbehear":5135,"Ġalgem":5136,"Ġstroom":5137,"ĠMa":5138,"ĠWal":5139,"ĠWyl":5140,"ĠNA":5141,"unen":5142,"opfang":5143,"ĠVl":5144,"antie":5145,"uljus":5146,"oernoai":5147,"Ã»nderwiis":5148,"Ġfide":5149,"Ġzodat":5150,"Ġkommun":5151,"inda":5152,"belied":5153,"Ġkarbid":5154,"intearre":5155,"Ġklean":5156,"Ġbesteande":5157,"Ġduid":5158,"Ġbepaald":5159,"ĠSnein":5160,"ĠmÃ»lkapkes":5161,"ativen":5162,"jilden":5163,"NS":5164,"han":5165,"pri":5166,"tings":5167,"âĢ":5168,"tearre":5169,"Ġsyl":5170,"Ġbier":5171,"eim":5172,"staan":5173,"Ġtr":5174,"riva":5175,"onne":5176,"iep":5177,"Ġgesp":5178,"ĠHiel":5179,"Ġwolf":5180,"ĠÃºtst":5181,"Ġcoronap":5182,"yls":5183,"behe":5184,"feroar":5185,"ĠlÃ¢nskip":5186,"Ġkommisje":5187,"Ġgenoeg":5188,"Ġwenne":5189,"Ġfleant":5190,"Ġhoog":5191,"ĠhÃºshÃ¢ld":5192,"Ġhopen":5193,"hoven":5194,"Ġbussen":5195,"Ġfergunning":5196,"ureel":5197,"Ġlessen":5198,"Ġtrans":5199,"Ġlieding":5200,"Ġmateriaal":5201,"Ġfolgjende":5202,"ĠDrinte":5203,"ĠHeerenveen":5204,"iter":5205,"petysje":5206,"waasje":5207,"zorg":5208,"ĠÃ©n":5209,"chel":5210,"Ġnasjonale":5211,"Ġkapasiteit":5212,"Ġtefreden":5213,"ĠFl":5214,"Ġloop":5215,"Ġgeeft":5216,"ĠHyl":5217,"Ġskot":5218,"Ġvand":5219,"ĠPop":5220,"ĠMark":5221,"Ġmakken":5222,"bbel":5223,"Ġrij":5224,"merken":5225,"Ġabs":5226,"itein":5227,"Ġfiere":5228,"Ġfertelle":5229,"Ġboargemasters":5230,"aiem":5231,"fange":5232,"ĠArriva":5233,"Ġwinnen":5234,"personiel":5235,"ĠÃºtspraak":5236,"ĠÃºteinset":5237,"Ġtydlik":5238,"Ġwittenskip":5239,"Ġverschil":5240,"ĠÃ»nderfining":5241,"Mei":5242,"makker":5243,"zo":5244,"Ġdjoer":5245,"Ġsleat":5246,"Ġmes":5247,"Ġbren":5248,"Ġtussen":5249,"Ġynter":5250,"Ġpil":5251,"Ġpakt":5252,"asket":5253,"ors":5254,"uwers":5255,"ĠMel":5256,"Ġseks":5257,"Ġzouden":5258,"Ġziek":5259,"oppe":5260,"ĠKlein":5261,"ĠTa":5262,"ĠÃ´fwacht":5263,"Ġspits":5264,"umer":5265,"Ġkrimin":5266,"spil":5267,"ĠHarkem":5268,"plan":5269,"ĠGemeen":5270,"asjonaal":5271,"Ġreserv":5272,"ĠMinistearje":5273,"ĠÃ»ntstie":5274,"ĠVeenstra":5275,"Ġmoarns":5276,"Ġdigitaal":5277,"stannichheden":5278,"ĠHofstra":5279,"Ġshorttra":5280,"086":5281,"bu":5282,"lÃ»":5283,"wier":5284,"Ġboud":5285,"red":5286,"ammer":5287,"ĠWim":5288,"ĠLetter":5289,"Ġskilder":5290,"Ġwerd":5291,"ĠVol":5292,"Ġligt":5293,"Ġlein":5294,"Ġwisten":5295,"ippen":5296,"Ġhellet":5297,"vere":5298,"feest":5299,"joerd":5300,"Ġ2015":5301,"Ġkeeper":5302,"Ġiepene":5303,"Ġbouwen":5304,"ademy":5305,"wike":5306,"aties":5307,"ĠGGZ":5308,"brÃ¢n":5309,"Ġskriuwe":5310,"ĠAmearika":5311,"plakken":5312,"Ġpresint":5313,"Ġfiele":5314,"ĠÃ»ntwikkeling":5315,"ĠNatuur":5316,"Ġlastig":5317,"fakÃ¢nsje":5318,"Ġappartem":5319,"oprogramma":5320,"046":5321,"048":5322,"646":5323,"648":5324,"686":5325,"846":5326,"848":5327,"Se":5328,"Voor":5329,"bar":5330,"bÃ´ge":5331,"ees":5332,"kele":5333,"mond":5334,"riders":5335,"Ġpan":5336,"nemers":5337,"ork":5338,"Ġlucht":5339,"usma":5340,"ĠBil":5341,"Ġzetten":5342,"ĠGo":5343,"ĠGal":5344,"Ġproses":5345,"andid":5346,"Ġdifyzje":5347,"Ġneeds":5348,"stellen":5349,"Ġbeli":5350,"332":5351,"333":5352,"abel":5353,"Ġfieren":5354,"Ġbene":5355,"Ġmilje":5356,"Ġferplichte":5357,"ĠGroot":5358,"Ġholpen":5359,"ĠFreed":5360,"Ġgesicht":5361,"go":5362,"hou":5363,"iis":5364,"kjen":5365,"name":5366,"Ġkust":5367,"stit":5368,"list":5369,"akten":5370,"Ġbehanneling":5371,"Ġvraag":5372,"Ġass":5373,"Ġcar":5374,"Ġ150":5375,"Ġtrochdat":5376,"ertier":5377,"ekken":5378,"Ġdicht":5379,"Ġbringt":5380,"bewiis":5381,"Ġeilannen":5382,"falt":5383,"ĠthÃº":5384,"ivid":5385,"Ġrekre":5386,"Ġbijz":5387,"Ġtrainen":5388,"Ġkwam":5389,"Ġfytsen":5390,"Ġkomple":5391,"Ġsmyt":5392,"Ġpresintearre":5393,"Ġwachtsjen":5394,"Ġklimaat":5395,"ĠkliÃ¯n":5396,"Ġiepenbiere":5397,"Ġhistoaryske":5398,"kriten":5399,"Ġkonkur":5400,"Ġkroech":5401,"Ġreguliere":5402,"odeiboek":5403,"DC":5404,"Minsken":5405,"soarch":5406,"inken":5407,"Ġkwe":5408,"Ġton":5409,"Ġopf":5410,"chten":5411,"Ġbehannele":5412,"Ġomkriten":5413,"oepel":5414,"ĠOoster":5415,"Ġlil":5416,"Ġvanuit":5417,"bern":5418,"Ġbegrut":5419,"Ġbegrypt":5420,"ĠFoarsitter":5421,"ustr":5422,"gearkomste":5423,"ĠBoo":5424,"Ġadvis":5425,"ĠEls":5426,"Ġstappen":5427,"Ġgrif":5428,"Ġkeunstner":5429,"halve":5430,"ĠSmit":5431,"ĠÃ´fskied":5432,"Ġbeweging":5433,"Ġreagear":5434,"ĠIepenbier":5435,"Ġbesliss":5436,"Ġradioprogramma":5437,"asketbal":5438,"ĠHarkemase":5439,"boar":5440,"bele":5441,"brutsen":5442,"ds":5443,"Ġwier":5444,"rig":5445,"itie":5446,"Ġoanjefte":5447,"Ġgesk":5448,"Ġstip":5449,"uss":5450,"ĠWÃªr":5451,"ĠWijn":5452,"ĠWoansdei":5453,"Ġseker":5454,"Ġzom":5455,"ĠLenstra":5456,"ĠKu":5457,"ĠPas":5458,"ĠYntusken":5459,"mere":5460,"Ġtsjinstann":5461,"Ġstee":5462,"Ġfreon":5463,"Ġprovinsjale":5464,"Ġfertrouwen":5465,"ĠtiisdeitejÃ»n":5466,"Ġtoernoai":5467,"Ġtoerisme":5468,"Ġkilo":5469,"Ġoanpast":5470,"Ġferkie":5471,"Ġgezien":5472,"ĠHoog":5473,"Ġduel":5474,"Ġferlies":5475,"ĠskÃ»tsjes":5476,"ĠFrank":5477,"ĠAkk":5478,"Ġrestaurant":5479,"ĠOnder":5480,"Ġeerst":5481,"Ġtenei":5482,"ĠDamwÃ¢ld":5483,"Ġeffekt":5484,"Ġmoaiste":5485,"Ġamate":5486,"ĠJeroen":5487,"Hy":5488,"ader":5489,"ben":5490,"fro":5491,"ged":5492,"kan":5493,"ppen":5494,"ente":5495,"Ġdriuw":5496,"Ġdragen":5497,"Ġboel":5498,"stasjon":5499,"ĠfanÃºt":5500,"Ġtoan":5501,"rimin":5502,"ĠpÃ¢n":5503,"rearre":5504,"Ġveilig":5505,"rate":5506,"Ġnoed":5507,"Ġjim":5508,"ĠMeer":5509,"ĠWark":5510,"Ġzij":5511,"ryske":5512,"ĠTrije":5513,"rond":5514,"Ġbesjoen":5515,"ulp":5516,"eks":5517,"Ġminst":5518,"inking":5519,"ferbod":5520,"ĠNederlanners":5521,"Ġbedarre":5522,"Ġfuot":5523,"Ġbetingst":5524,"777":5525,"Ġfinzen":5526,"Ġallro":5527,"Ġcoronavirus":5528,"Ġterras":5529,"Ġspiler":5530,"Ġbesker":5531,"Ġkompens":5532,"Ġgeval":5533,"Ġregele":5534,"allon":5535,"ĠGraafschap":5536,"Ġynternet":5537,"Ġgefaarlik":5538,"olooch":5539,"Ġresultaat":5540,"Ġresultaten":5541,"Ġleaver":5542,"Ġmoeilijk":5543,"auto":5544,"gende":5545,"iisdei":5546,"lysje":5547,"linen":5548,"minten":5549,"pke":5550,"vert":5551,"zaam":5552,"Ġdrin":5553,"off":5554,"Ġhaar":5555,"reca":5556,"Ġopge":5557,"Ġalder":5558,"oks":5559,"okken":5560,"liks":5561,"ĠTj":5562,"ĠGoed":5563,"Ġharsels":5564,"Ġklam":5565,"Ġmannen":5566,"uurt":5567,"ack":5568,"ĠwoansdeitejÃ»n":5569,"ĠArends":5570,"middels":5571,"Ġbeheind":5572,"Ġbeheining":5573,"Ġarbeid":5574,"wÃ¢lden":5575,"Ġplek":5576,"sjinst":5577,"ĠAllinnich":5578,"Ġboppedat":5579,"Ġintensive":5580,"Daar":5581,"bro":5582,"mat":5583,"wrÃ¢ld":5584,"winkel":5585,"ĠsÃºd":5586,"Ġbroer":5587,"Ġinkel":5588,"ĠynhÃ¢ld":5589,"Ã»gel":5590,"aket":5591,"Ġfoarige":5592,"ĠSjoch":5593,"ĠFem":5594,"Ġderyn":5595,"Ġoanb":5596,"Ġferbod":5597,"Ġstop":5598,"ĠWrÃ¢ld":5599,"Ġasyls":5600,"ensch":5601,"ĠOok":5602,"ĠTiisdei":5603,"Ġrjochte":5604,"ĠCoron":5605,"insjes":5606,"eilich":5607,"Ġmisse":5608,"ploech":5609,"ĠWaadsee":5610,"Ġgefolch":5611,"ommels":5612,"Ã¤lysje":5613,"ĠMoandei":5614,"Ġhjoeddei":5615,"ĠÃºtfierd":5616,"Ġpromoasje":5617,"Ġfyftjin":5618,"ĠAppels":5619,"ĠLanlik":5620,"Ġpapier":5621,"Ġadvokaat":5622,"Ġdosinten":5623,"Ġalgemien":5624,"ĠFemke":5625,"dien":5626,"fÃ»ns":5627,"kocht":5628,"nÃ»":5629,"sed":5630,"ĠhÃ»n":5631,"Ġnoflik":5632,"rits":5633,"ĠDefinsje":5634,"Ġlje":5635,"Ġlab":5636,"ĠHij":5637,"ĠMer":5638,"ĠAmer":5639,"ime":5640,"ĠÃ»nd":5641,"ĠTak":5642,"ĠTra":5643,"Ġskreau":5644,"antum":5645,"Ġprocent":5646,"ekten":5647,"ĠCent":5648,"ogge":5649,"vest":5650,"Ġmanager":5651,"ferb":5652,"ites":5653,"Ġfiersten":5654,"ichtich":5655,"Ġflak":5656,"Ġtraine":5657,"plaat":5658,"retaris":5659,"ionaal":5660,"Ġwente":5661,"ĠArno":5662,"Ġbetsjutte":5663,"ĠKNSB":5664,"holt":5665,"Ġhold":5666,"ĠBelang":5667,"dokters":5668,"Ġferwachtsje":5669,"ĠPostma":5670,"ĠEaststellingwerf":5671,"fÃ¢ldich":5672,"Ġtentoanstelling":5673,"ĠKnegt":5674,"boarch":5675,"din":5676,"nacht":5677,"ssen":5678,"uts":5679,"ype":5680,"Ġfarre":5681,"Ġmass":5682,"Ġbieden":5683,"Ġgat":5684,"Ġgers":5685,"ales":5686,"ieke":5687,"amers":5688,"derheid":5689,"ĠFok":5690,"ĠFris":5691,"ĠFide":5692,"ĠWagen":5693,"ĠJoe":5694,"antw":5695,"Ġtwiv":5696,"beren":5697,"Ġverb":5698,"792":5699,"Ġfertelde":5700,"Ġboarger":5701,"ĠwÃªrnei":5702,"Ġfrijheid":5703,"atief":5704,"Ġfytsers":5705,"Ġtsjerket":5706,"Ġduorsum":5707,"Ġferplicht":5708,"Ġfeiligens":5709,"Ġhelptsjinsten":5710,"Ġgevoel":5711,"trainer":5712,"Ġgebeurt":5713,"Ġkrystdagen":5714,"Ġfunksje":5715,"ĠHamstra":5716,"ĠentÃ»sjast":5717,"ĠFerslachjouwer":5718,"ĠAkkrum":5719,"068":5720,"IS":5721,"TO":5722,"doar":5723,"gum":5724,"paad":5725,"rjochte":5726,"Ã³":5727,"Ġdom":5728,"Ġfru":5729,"Ġwinne":5730,"ĠwÃ¢l":5731,"jem":5732,"ĠDoeksen":5733,"oarloch":5734,"lex":5735,"Ġdatst":5736,"eders":5737,"urf":5738,"gemeen":5739,"Ġfoarbyld":5740,"Ġomrop":5741,"ĠHend":5742,"ĠHiem":5743,"ĠWin":5744,"mee":5745,"ĠKen":5746,"ĠVoedsel":5747,"ĠRei":5748,"ĠPo":5749,"fee":5750,"Ġwurknimmers":5751,"Ġbelle":5752,"772":5753,"773":5754,"779":5755,"793":5756,"797":5757,"ĠwÃªryn":5758,"Ġmait":5759,"Ġrisico":5760,"Ġdraai":5761,"Ġpetearen":5762,"Ġsinnepan":5763,"Ġgebeuren":5764,"Ġjustysje":5765,"ĠLely":5766,"Ġkamera":5767,"ĠCity":5768,"Ġduidelijk":5769,"Ġbegrutting":5770,"fis":5771,"voer":5772,"eling":5773,"Ġkoenen":5774,"alling":5775,"oarte":5776,"rider":5777,"ingsten":5778,"olke":5779,"akken":5780,"onnen":5781,"ĠFersk":5782,"ĠIC":5783,"Ġnettsjinsteande":5784,"Ġferm":5785,"ĠHall":5786,"ĠWet":5787,"meester":5788,"Ġree":5789,"ichheid":5790,"Ġskou":5791,"ĠJel":5792,"ĠJap":5793,"ĠRom":5794,"Ġwite":5795,"ĠOpsterlÃ¢n":5796,"Ġbettere":5797,"boat":5798,"bosk":5799,"annes":5800,"ĠStien":5801,"foarm":5802,"Ġboargers":5803,"klaas":5804,"ĠkoÃ¤lysje":5805,"Ġmoandeitemoarn":5806,"litten":5807,"ĠGea":5808,"Ġmuzik":5809,"ĠDirekteur":5810,"uiter":5811,"gevens":5812,"lokaasje":5813,"Ġfersoargings":5814,"Ġpromov":5815,"Ġdigitale":5816,"Ġprodukten":5817,"ĠKleinhuis":5818,"antumadiel":5819,"ail":5820,"bare":5821,"pr":5822,"rinne":5823,"zers":5824,"Ġamt":5825,"Ġantwurd":5826,"Ġsoort":5827,"Ġklein":5828,"alisten":5829,"ĠDantumadiel":5830,"Ġynsk":5831,"ride":5832,"Ġoph":5833,"kea":5834,"orden":5835,"Ġvaak":5836,"Ġgegeven":5837,"ĠNopp":5838,"Ġrealis":5839,"ĠKallon":5840,"Ġplaat":5841,"ĠGent":5842,"Ġsprekken":5843,"Ġlibje":5844,"Ġprojekten":5845,"Ġleer":5846,"spor":5847,"Ġgjinien":5848,"romte":5849,"Ġaange":5850,"ytse":5851,"falle":5852,"uery":5853,"Ġboaiem":5854,"Ġorganisearje":5855,"ĠbinnenstÃªd":5856,"ĠwÃªrÃ»nder":5857,"ukk":5858,"Ġgrins":5859,"helikopter":5860,"Ġfleane":5861,"ĠRouwe":5862,"ĠDrachtster":5863,"Ġferpleat":5864,"Ġteams":5865,"Ġhealwei":5866,"Ġ250":5867,"Ġeksplo":5868,"ĠEuropeesk":5869,"Ġmakliker":5870,"Ġklassemint":5871,"Ġskoare":5872,"Ġabsol":5873,"Ġneedsaak":5874,"ĠWarkum":5875,"bet":5876,"Ġfijn":5877,"Ġband":5878,"Ġhurde":5879,"elijke":5880,"Ġker":5881,"alige":5882,"Ġynkoarten":5883,"Ġpake":5884,"nes":5885,"ĠSjoerd":5886,"ĠFin":5887,"Ġomset":5888,"Ġomstannichheden":5889,"Ġoanlis":5890,"Ġferge":5891,"Ġnocht":5892,"ĠWW":5893,"ĠWommels":5894,"ĠEx":5895,"ĠLo":5896,"ĠLaat":5897,"Ġcomp":5898,"Ġploegen":5899,"ĠÃ´frin":5900,"ĠPort":5901,"irt":5902,"ĠAlles":5903,"Ġeigeners":5904,"ĠZonder":5905,"Ġbloed":5906,"Ġferoaret":5907,"Ġtsientallen":5908,"Ġonderzoek":5909,"hocke":5910,"ĠlÃ»kt":5911,"ĠNettsjinsteande":5912,"stream":5913,"Ġstjoerd":5914,"Ġlaatste":5915,"lÃªs":5916,"Anne":5917,"ĠFideodeiboek":5918,"ilit":5919,"jaal":5920,"lof":5921,"over":5922,"ood":5923,"praat":5924,"sm":5925,"seizoen":5926,"Ġwinn":5927,"Ġbiste":5928,"Ġturn":5929,"Ġedysje":5930,"Ġoplieding":5931,"ersma":5932,"Ġfoardiel":5933,"Ġlaket":5934,"Ġmoe":5935,"tsing":5936,"Ġoerbrocht":5937,"Ġkombin":5938,"ĠÃ»ntste":5939,"ĠJust":5940,"Ġsprint":5941,"Ġramt":5942,"ĠPSV":5943,"Ġkriget":5944,"wurde":5945,"ĠAlbert":5946,"Ġfold":5947,"Ġfierlje":5948,"Ġkwalif":5949,"ĠmoandeitejÃ»n":5950,"gebou":5951,"ĠGroene":5952,"bedriuwen":5953,"ĠdoarpshÃ»s":5954,"Ġdokter":5955,"Ġhynders":5956,"ĠGrienLinks":5957,"Ġlijkt":5958,"Ġclub":5959,"Ġnoardlike":5960,"ĠtsjÃ»gen":5961,"Ġlichem":5962,"sume":5963,"Ġprotok":5964,"Ġallround":5965,"Ġinkelde":5966,"ĠAmerik":5967,"ĠNoppert":5968,"Ber":5969,"boeken":5970,"mann":5971,"Ġuur":5972,"arring":5973,"ĠsÃ¢l":5974,"Ġsjoern":5975,"Ġminne":5976,"Ġbro":5977,"Ġbrie":5978,"sting":5979,"ĠDron":5980,"itt":5981,"Ãªde":5982,"teren":5983,"iew":5984,"Ġbewenner":5985,"rag":5986,"ĠNH":5987,"Ã¢lden":5988,"ĠTres":5989,"ĠJelle":5990,"Ġmoatst":5991,"Ġramp":5992,"Ġliggen":5993,"Ġprotest":5994,"Ġmearderheid":5995,"angst":5996,"berens":5997,"rijden":5998,"ĠDÃªrnjonken":5999,"Ġfuorts":6000,"nimm":6001,"Ġboven":6002,"jonele":6003,"Ġ2000":6004,"ĠtongersdeitejÃ»n":6005,"Ġferoardiele":6006,"Ġduorre":6007,"iskien":6008,"Ġoprjochte":6009,"ĠMooglik":6010,"Ġsjuery":6011,"Ġtarieding":6012,"ijlstra":6013,"Ġtastien":6014,"ĠgreidefÃ»gels":6015,"ĠrÃªde":6016,"Ġtekst":6017,"Ġcoach":6018,"Ġblykt":6019,"iteindelijk":6020,"ĠTresoar":6021,"Foar":6022,"cket":6023,"ff":6024,"ian":6025,"itel":6026,"kend":6027,"plicht":6028,"Ġet":6029,"arts":6030,"Ġswarte":6031,"Ġdeade":6032,"Ġging":6033,"ĠDoar":6034,"roan":6035,"rift":6036,"Ġpetysje":6037,"ingsp":6038,"terp":6039,"oners":6040,"ĠfoarÃºt":6041,"Ġfoarstelling":6042,"Ġvier":6043,"Ġoanbean":6044,"ĠHuis":6045,"dent":6046,"ĠWÃ¢ld":6047,"ĠNoch":6048,"zegd":6049,"ĠEin":6050,"ĠÃºtdaging":6051,"ruts":6052,"Ġreade":6053,"mate":6054,"Ġplat":6055,"ĠVelde":6056,"ktoaren":6057,"ĠPartij":6058,"aalks":6059,"ĠCamp":6060,"Ġklaar":6061,"ĠZorg":6062,"uorbal":6063,"Ġtrauma":6064,"Ġgener":6065,"Ġfamkes":6066,"Ġsoarchyn":6067,"ĠBern":6068,"Ġbasisskoalle":6069,"Ġpolitie":6070,"Ġoplossingen":6071,"Ġrust":6072,"Ġfergoed":6073,"ĠBrand":6074,"Ġgeweldich":6075,"Ġyndruk":6076,"Ġkeapje":6077,"tiids":6078,"Ġzieken":6079,"Ãªften":6080,"Ġkofje":6081,"Ġsinnepanielen":6082,"ĠZonderland":6083,"duk":6084,"eep":6085,"fgoed":6086,"ld":6087,"nst":6088,"oaten":6089,"smerk":6090,"uken":6091,"Ġfav":6092,"Ġiuw":6093,"Ġwap":6094,"Ġhalen":6095,"ĠophÃ¢lde":6096,"liz":6097,"inger":6098,"Ġmeimakke":6099,"Ġomgean":6100,"Ġlopen":6101,"ĠstÃºd":6102,"ĠHoop":6103,"ĠBon":6104,"ĠOver":6105,"geling":6106,"Ġspel":6107,"ĠrÃªden":6108,"ĠPe":6109,"Ġsoci":6110,"spl":6111,"edereen":6112,"iget":6113,"ĠDÃªryn":6114,"ĠStad":6115,"Ġorganisearjen":6116,"Ġboard":6117,"fierd":6118,"Ġmishanneling":6119,"ĠÃºtsteld":6120,"Ġdaarom":6121,"Ġpost":6122,"Ġmede":6123,"Ġferoarje":6124,"ĠkontaktÃ»ndersyk":6125,"proble":6126,"Ġwenningen":6127,"ansearre":6128,"Ġsliep":6129,"skoallen":6130,"Ġsporten":6131,"Ġfraksjefoarsitter":6132,"levering":6133,"Ġmerke":6134,"ĠtÃ»zenen":6135,"Ġmeinaam":6136,"Ġsenario":6137,"Ġwedstrijd":6138,"Ġfernimt":6139,"ĠOlympyske":6140,"Ġmaitiid":6141,"ĠFerskate":6142,"ĠDronryp":6143,"Ze":6144,"beld":6145,"wel":6146,"inkt":6147,"Ġsant":6148,"Ġbun":6149,"Ã»le":6150,"Ãºch":6151,"ĠFle":6152,"ĠderÃºt":6153,"Ġalwer":6154,"Ġferieningen":6155,"Ġferbean":6156,"Ġnood":6157,"Ġstab":6158,"ĠBar":6159,"insma":6160,"imaal":6161,"ĠEpke":6162,"ĠLyk":6163,"ĠTytsjerk":6164,"ĠGar":6165,"Ġsprong":6166,"ĠrÃ´":6167,"ipl":6168,"bby":6169,"Ġferslachjouwer":6170,"152":6171,"157":6172,"Ġlytsere":6173,"Ġtreinen":6174,"peratuer":6175,"Ġferbining":6176,"ĠRoy":6177,"ĠMaarten":6178,"Ġbleaun":6179,"Ġferstoar":6180,"Ġkontener":6181,"Ġsupermerken":6182,"Ġprachtige":6183,"ĠAkademy":6184,"Ġjurid":6185,"ĠProvinsje":6186,"Ġkieze":6187,"Ġsjochst":6188,"ĠrÃªch":6189,"Ġstjergefallen":6190,"Ã¶r":6191,"ĠreinbÃ´ge":6192,"garyp":6193,"Ġmaanden":6194,"ĠBelgiÃ«":6195,"Ġbrengen":6196,"Ġasylsikers":6197,"ukkig":6198,"055":6199,"455":6200,"655":6201,"855":6202,"Hol":6203,"Mensen":6204,"fine":6205,"gend":6206,"ioaren":6207,"jet":6208,"Ã¡":6209,"Ġdram":6210,"Ġdeist":6211,"Ġwearde":6212,"eien":6213,"Ġkor":6214,"stop":6215,"ĠDirk":6216,"amming":6217,"Ġfoaren":6218,"ĠSip":6219,"Ġbezoek":6220,"ĠIsel":6221,"Ġline":6222,"ysels":6223,"Ġjaren":6224,"ĠMon":6225,"ĠMil":6226,"ĠÃºtnÃ»":6227,"ĠKo":6228,"ĠTo":6229,"ĠTri":6230,"ĠGa":6231,"Ġwereld":6232,"Ġfersyk":6233,"151":6234,"153":6235,"155":6236,"159":6237,"Ġverantw":6238,"Ġlangere":6239,"Ġkanten":6240,"ĠÃ¢lder":6241,"Ġboere":6242,"Ġstikje":6243,"Ġgedicht":6244,"Ġwenjen":6245,"wiisd":6246,"Ġtrainingen":6247,"Ġhearde":6248,"Ġoardelmeter":6249,"Ġknap":6250,"parken":6251,"Ġgezond":6252,"Ġferkears":6253,"Ġrapper":6254,"Ġontwikkel":6255,"wÃªzen":6256,"Ġmerken":6257,"Ġferfel":6258,"Ġouders":6259,"ĠLauwers":6260,"ĠNOS":6261,"ĠFeanwÃ¢lden":6262,"auffeur":6263,"Ġbefrijing":6264,"ĠNAC":6265,"Ġassist":6266,"ĠKuip":6267,"ĠWrÃ¢ldoarloch":6268,"ĠTakom":6269,"Ġfierstente":6270,"azj":6271,"igens":6272,"ji":6273,"jan":6274,"minsken":6275,"rar":6276,"systeem":6277,"zc":6278,"ofd":6279,"Ġwinner":6280,"Ġmacht":6281,"atysk":6282,"Ġkwest":6283,"ĠDr":6284,"ĠDav":6285,"riÃªre":6286,"Ġoprom":6287,"akele":6288,"oms":6289,"omme":6290,"Ġfoarsjen":6291,"ĠSina":6292,"ĠFÃ»gel":6293,"Ġomwenners":6294,"Ġfernimme":6295,"Ġferienings":6296,"ĠHast":6297,"ill":6298,"ĠMyn":6299,"ĠMed":6300,"ĠMakk":6301,"ĠWyn":6302,"ĠWyt":6303,"adv":6304,"ĠNDC":6305,"ĠAt":6306,"Ġplatte":6307,"ĠÃ´fs":6308,"ĠÃ´fhinklik":6309,"Ġheen":6310,"ĠRein":6311,"ĠPal":6312,"Ġdiken":6313,"seal":6314,"Ġhimp":6315,"beek":6316,"Ġsite":6317,"kompetysje":6318,"Ġ2022":6319,"Ġthe":6320,"ĠStenden":6321,"Ġfluch":6322,"wize":6323,"Ġbesmette":6324,"Ġboarne":6325,"werkers":6326,"Ġkoers":6327,"Ġrjochtlinen":6328,"ĠBouw":6329,"ĠSnitser":6330,"Ġdrokker":6331,"Ġgelokkich":6332,"Ġskriuwer":6333,"Ġreitsje":6334,"Ġ400":6335,"ĠBeets":6336,"ĠideeÃ«n":6337,"Ġloads":6338,"Ġprodus":6339,"Ã¢nestÃªd":6340,"Ġrond":6341,"Ġbreed":6342,"ĠTalma":6343,"Ġweinig":6344,"ĠFanwege":6345,"iÃ«nten":6346,"ĠkonklÃºzje":6347,"ĠstÃºdzje":6348,"MO":6349,"cl":6350,"gu":6351,"rÃªst":6352,"uut":6353,"wijs":6354,"zicht":6355,"Ġ45":6356,"Ġfil":6357,"Ġwins":6358,"Ġwik":6359,"Ġbiede":6360,"Ġhjit":6361,"elje":6362,"elden":6363,"Ġkertier":6364,"ĠDoel":6365,"oart":6366,"rix":6367,"ask":6368,"gef":6369,"orme":6370,"ĠSim":6371,"Ġbeper":6372,"Ġgezegd":6373,"ĠAustr":6374,"ykjen":6375,"Ġsektoaren":6376,"iele":6377,"Ġcare":6378,"ĠTje":6379,"ĠGel":6380,"Ġdosint":6381,"ĠRÃ¢nestÃªd":6382,"Ġbesp":6383,"Ġeartiids":6384,"Ġwiid":6385,"Ġticket":6386,"ĠMargre":6387,"ĠAlmere":6388,"Ġsteate":6389,"Ġgebied":6390,"ĠUN":6391,"972":6392,"Ġsym":6393,"Ġbeslach":6394,"meiwurkers":6395,"ĠfÃ»nen":6396,"Ġbelangstelling":6397,"Ġguo":6398,"Ġpersoanlike":6399,"ĠHoewol":6400,"Ġyntins":6401,"Ġpakket":6402,"ĠOfrÃ»ne":6403,"ĠJohannes":6404,"Ġleafde":6405,"Ġferkeapje":6406,"Ġstekken":6407,"Ġtechnysk":6408,"ĠBreeuw":6409,"Ġdokumint":6410,"ĠWeststellingwerf":6411,"ĠIngelÃ¢n":6412,"Ġbedrijf":6413,"Ġferklearring":6414,"Ġlilk":6415,"ĠNHL":6416,"ĠMargreet":6417,"ĠBreeuwsma":6418,"BO":6419,"Doe":6420,"KB":6421,"TV":6422,"door":6423,"faze":6424,"mjit":6425,"Ġ34":6426,"Ġwachten":6427,"Ġophelle":6428,"ola":6429,"oma":6430,"ampen":6431,"ory":6432,"ĠSaken":6433,"isier":6434,"Ã¢nsjes":6435,"ĠIJ":6436,"raging":6437,"Ġstjoert":6438,"ĠMen":6439,"ĠMolen":6440,"ĠÃ»nÃ´f":6441,"Ġcolle":6442,"ĠTsjin":6443,"ĠPol":6444,"Ġmekoar":6445,"Ġcoronate":6446,"ĠMarc":6447,"jochting":6448,"Ġazc":6449,"ferh":6450,"Ġbegin":6451,"Ãºtdyk":6452,"ĠZee":6453,"Ġprovinc":6454,"973":6455,"Ġrace":6456,"ugo":6457,"iÃ«le":6458,"Ġskriuwen":6459,"ĠefterstÃ¢n":6460,"Ġoanpakt":6461,"Alle":6462,"Ġiishocke":6463,"ureau":6464,"ĠhÃ»nderten":6465,"ĠBroek":6466,"bliuwe":6467,"Ġaginda":6468,"ĠAnton":6469,"ĠTalsma":6470,"ĠdÃªroer":6471,"Ġkaarten":6472,"ĠJaap":6473,"Ġferfolch":6474,"ĠynstÃ¢nsje":6475,"Ġferrassing":6476,"ĠAppelskea":6477,"Berjochten":6478,"ĠDavid":6479,"Om":6480,"Unie":6481,"borg":6482,"gongers":6483,"hoe":6484,"hard":6485,"nommen":6486,"weid":6487,"woud":6488,"ange":6489,"Ġkurs":6490,"Ġtema":6491,"terrein":6492,"aming":6493,"ĠSie":6494,"ĠSand":6495,"Ġvast":6496,"Ġvijf":6497,"Ġgesch":6498,"Ġstran":6499,"ĠWÃ¼":6500,"ĠItaliÃ«":6501,"okje":6502,"ĠKing":6503,"ĠKult":6504,"Ġskuld":6505,"ĠGjin":6506,"anda":6507,"stenUnie":6508,"Ġricht":6509,"Ġfinish":6510,"hÃ¢ldt":6511,"acker":6512,"slag":6513,"Ġdaarna":6514,"Ġdoelman":6515,"Ġprins":6516,"Ġsyktocht":6517,"Ġlokaal":6518,"ĠhÃºsdokters":6519,"Ġpubli":6520,"Ġkeunstners":6521,"ĠwarskÃ´get":6522,"ĠÃ´fspraak":6523,"Ġferromme":6524,"ĠJacob":6525,"Ġrydbewiis":6526,"Ġkwetsbere":6527,"Ġpodcast":6528,"Ġgraden":6529,"Ġgesprek":6530,"beheer":6531,"Ġvandaag":6532,"ĠGalama":6533,"ĠIselmar":6534,"ĠWÃ¼st":6535,"EC":6536,"NV":6537,"TC":6538,"aid":6539,"flak":6540,"gryp":6541,"kolle":6542,"laan":6543,"view":6544,"wy":6545,"wachter":6546,"zh":6547,"Ġdal":6548,"Ġding":6549,"Ġdis":6550,"Ġdong":6551,"Ġsfear":6552,"Ġdeel":6553,"Ġimmen":6554,"Ġwapen":6555,"Ġbanen":6556,"Ġhjer":6557,"eiten":6558,"Ġkast":6559,"Ġkandid":6560,"ynke":6561,"Ġinge":6562,"Ġenorm":6563,"libben":6564,"Ġfoarich":6565,"dert":6566,"Ġferhe":6567,"Ġfertsjinne":6568,"ĠHeiden":6569,"ĠAst":6570,"ĠLTO":6571,"rent":6572,"ĠKooi":6573,"Ġskansearre":6574,"Ġheft":6575,"Ġspoed":6576,"Ġproberen":6577,"ĠPoal":6578,"Ġwiist":6579,"ĠÃ»ndernimmer":6580,"sept":6581,"Ġferset":6582,"oalle":6583,"Ġsted":6584,"Ġsteuring":6585,"stelle":6586,"Ġfreond":6587,"Ġbent":6588,"Ġperspe":6589,"steradiel":6590,"tearjen":6591,"ĠScheep":6592,"Ġpassen":6593,"ĠÃºtsÃ»nder":6594,"Ġafge":6595,"ytst":6596,"Ġposysje":6597,"Ġkantine":6598,"stjoerd":6599,"aregels":6600,"Ġoffisier":6601,"maatregels":6602,"Ġkontenersk":6603,"bylden":6604,"Ġbibli":6605,"Ġtechnyske":6606,"Ġsuver":6607,"Ġbehoar":6608,"Ġkrityk":6609,"ĠdÃªrop":6610,"Ġtrekkers":6611,"Ġferdigener":6612,"zelfde":6613,"Ġfrjem":6614,"Ġbeskermjen":6615,"Ġkrante":6616,"ĠÃ»nbekende":6617,"ĠChristenUnie":6618,"Ġmuoite":6619,"priis":6620,"Ġfergees":6621,"ĠTytsjerksteradiel":6622,"Ġwiidweid":6623,"ĠHeidenskip":6624,"El":6625,"Fan":6626,"boud":6627,"basis":6628,"frij":6629,"gjir":6630,"koepel":6631,"oc":6632,"sw":6633,"wyk":6634,"za":6635,"Ġslein":6636,"eigen":6637,"ĠkrÃ»":6638,"stichting":6639,"Ġynlever":6640,"liet":6641,"akket":6642,"Ġmeiwurker":6643,"terfean":6644,"omas":6645,"raan":6646,"Ġoanlein":6647,"Ġmoed":6648,"Ġferlinge":6649,"ĠBert":6650,"ĠNu":6651,"ĠNynke":6652,"ĠÃ»nge":6653,"ĠLÃ¢n":6654,"ĠOare":6655,"Ġsawat":6656,"Ġryk":6657,"ĠRij":6658,"ĠPiter":6659,"Ġcoronaregels":6660,"Ġbesun":6661,"ekretaris":6662,"spul":6663,"oeren":6664,"best":6665,"ferieningen":6666,"Ġbelje":6667,"amper":6668,"ĠUtein":6669,"Ġkontakten":6670,"ĠwÃªrfan":6671,"Ġnijbou":6672,"slÃºtdyk":6673,"Ġapart":6674,"Ġpasjint":6675,"Ġtotale":6676,"Ġrommel":6677,"Ġgeleden":6678,"ringloop":6679,"Ġtochten":6680,"Ġnachts":6681,"Ġsintrale":6682,"Ġiensum":6683,"ĠOfslÃºtdyk":6684,"Ġfjirtjin":6685,"Ġeksper":6686,"Ġsosjaal":6687,"geving":6688,"kohol":6689,"ĠBreda":6690,"Ġtanim":6691,"Ġferromming":6692,"Ġmonumint":6693,"Ġtrekker":6694,"ĠSurhÃºs":6695,"Ġwaarmte":6696,"ferlien":6697,"ĠRoelof":6698,"Ġymp":6699,"oteek":6700,"Ġshorttrack":6701,"Ã¶rdin":6702,"ĠSurhÃºsterfean":6703,"ID":6704,"Ja":6705,"fÃ»n":6706,"ften":6707,"hop":6708,"houden":6709,"jum":6710,"pres":6711,"vend":6712,"vetal":6713,"Ġdeis":6714,"Ġwens":6715,"stoel":6716,"Ġtijden":6717,"Ġynfol":6718,"Ġynrjochte":6719,"ric":6720,"Ġpot":6721,"Ġopstap":6722,"olaasje":6723,"erstel":6724,"ieve":6725,"derij":6726,"ĠSimmer":6727,"Ġbeeld":6728,"Ġbefol":6729,"ĠFeilich":6730,"Ġoankundige":6731,"Ġgesel":6732,"ush":6733,"Ġzwaar":6734,"ĠONS":6735,"gelegen":6736,"ĠKrij":6737,"ĠKoarn":6738,"ĠKorte":6739,"ĠÃ´fsein":6740,"ĠJou":6741,"Ġspring":6742,"ijna":6743,"Ġsluting":6744,"Ġaai":6745,"Ġsoargjen":6746,"Ġbetinken":6747,"fallend":6748,"ĠOmrin":6749,"Ġiepening":6750,"Ġzegt":6751,"ĠÃ»ndersiket":6752,"ĠStevens":6753,"Ġstelle":6754,"prov":6755,"Ġskipper":6756,"ĠÃ¢ldjiers":6757,"Ġynform":6758,"lessen":6759,"Ġnijsgjir":6760,"Ġtoekomst":6761,"Ġfernu":6762,"standig":6763,"Ġspanning":6764,"ĠFeyen":6765,"Ġhingjen":6766,"Ġinisjatyfnimmers":6767,"ĠlÃªze":6768,"ctief":6769,"partijen":6770,"ĠHelm":6771,"Ġjuist":6772,"Ġrestaurants":6773,"Ġnegatyf":6774,"Ġsechst":6775,"Ġlibbens":6776,"ĠNoorder":6777,"Ġbeslissing":6778,"Ġbrieven":6779,"ĠUteinlik":6780,"045":6781,"511":6782,"NA":6783,"dige":6784,"ib":6785,"iif":6786,"nl":6787,"praak":6788,"Ġ36":6789,"Ġann":6790,"ĠdÃºd":6791,"Ġdran":6792,"ari":6793,"Ġmilit":6794,"Ġbon":6795,"Ġblik":6796,"Ġhen":6797,"Ġniks":6798,"leas":6799,"Ġopfol":6800,"Ġopbr":6801,"Ġbehannel":6802,"ĠHugo":6803,"ils":6804,"ĠBau":6805,"iets":6806,"ĠWÃªrom":6807,"ĠÃ»nrÃªst":6808,"oka":6809,"ĠKin":6810,"Ġ1000":6811,"ĠTusken":6812,"ikken":6813,"Ġrinnen":6814,"Ġliter":6815,"ĠPar":6816,"Ġbesjen":6817,"tels":6818,"spron":6819,"192":6820,"Ġfertocht":6821,"perio":6822,"rettjin":6823,"Ġdoelpunten":6824,"ssekretaris":6825,"uzyk":6826,"ĠElkenien":6827,"Ġskippers":6828,"Ġhope":6829,"Ġpeal":6830,"eerd":6831,"ĠNoardsee":6832,"inteklaas":6833,"ĠEarst":6834,"Ġselstraf":6835,"ĠBoeren":6836,"Ġpresys":6837,"ĠVVV":6838,"ĠDouw":6839,"besker":6840,"lokaasjes":6841,"Ġhingje":6842,"Ġferspraat":6843,"Ġferlie":6844,"ĠBruin":6845,"Ġsichtber":6846,"ernÃ´ch":6847,"Ġanderhalve":6848,"Ġrekreaasje":6849,"ĠFeyenoord":6850,"011":6851,"084":6852,"085":6853,"411":6854,"611":6855,"645":6856,"811":6857,"845":6858,"Met":6859,"ain":6860,"brek":6861,"banken":6862,"hem":6863,"vaart":6864,"Ġmond":6865,"Ġbried":6866,"etÃºn":6867,"cher":6868,"Ġtrettjin":6869,"roof":6870,"Ã»k":6871,"Ġpakke":6872,"need":6873,"ĠSter":6874,"ĠFjouwer":6875,"Ġgegevens":6876,"ĠHurde":6877,"Ġoerd":6878,"Ġoertr":6879,"Ġneidat":6880,"ĠEins":6881,"wegen":6882,"ĠKr":6883,"Ġtsj":6884,"Ġdirek":6885,"Ġvoorkomen":6886,"igjen":6887,"Ġfolk":6888,"Ġfolw":6889,"sjitten":6890,"ĠWeste":6891,"193":6892,"197":6893,"Ġferskaat":6894,"172":6895,"173":6896,"Ġlytser":6897,"Ġgroeps":6898,"Ġrot":6899,"Ġfytse":6900,"Ġfuotbalklup":6901,"Ġhoreca":6902,"Ġbeteljen":6903,"ommige":6904,"Ġfeilichheid":6905,"Ġarg":6906,"Ġyndivid":6907,"Ġhegere":6908,"ruktuer":6909,"ĠHolwert":6910,"obili":6911,"Ġfyftich":6912,"Ġfysyk":6913,"Ġalternatyf":6914,"ĠFanwegen":6915,"Ġbestriden":6916,"Ġkonstate":6917,"ĠKanadezen":6918,"ĠJoey":6919,"ĠHiemstra":6920,"iploma":6921,"ĠplattelÃ¢n":6922,"Ġprovincie":6923,"Ġhjerst":6924,"houd":6925,"mele":6926,"ningen":6927,"rang":6928,"ratie":6929,"to":6930,"vang":6931,"Ġsol":6932,"Ġsirk":6933,"ĠmÃ»ne":6934,"Ġbijna":6935,"atus":6936,"Ġnorm":6937,"Ġkal":6938,"Ġyntsjinne":6939,"Ã»ke":6940,"lig":6941,"ĠFar":6942,"isearre":6943,"ĠMi":6944,"ĠMiskien":6945,"ĠWTC":6946,"Ġoerien":6947,"ĠEd":6948,"ĠEij":6949,"ĠÃ»nfer":6950,"ĠLim":6951,"ĠOars":6952,"Ġrespe":6953,"ĠTongersdei":6954,"Ġplaats":6955,"ĠReg":6956,"Ġearne":6957,"ĠCup":6958,"deis":6959,"Ġrieden":6960,"Ġwurksum":6961,"Ġkonden":6962,"riuwen":6963,"rekÃ´r":6964,"iedt":6965,"linga":6966,"Ġbetre":6967,"istyske":6968,"ĠZijlstra":6969,"Ġfierdere":6970,"ĠÃ»ndersyks":6971,"ĠUs":6972,"Ġfrouljus":6973,"ukje":6974,"ĠÃ¢lders":6975,"ĠSteat":6976,"ĠdÃºdlikheid":6977,"ĠwrÃ¢ldkamp":6978,"Ġmedalje":6979,"Ġondernemers":6980,"Ġbeppe":6981,"Ġstapt":6982,"Ġprec":6983,"monum":6984,"Ġsintraal":6985,"Ġkleine":6986,"Ġsinnepark":6987,"Ġeksposysje":6988,"ystemen":6989,"Ġwanneer":6990,"kommisje":6991,"Ġslecht":6992,"ĠRenÃ©":6993,"Ġeventuele":6994,"Ġautomobili":6995,"Ġstypje":6996,"ĠBouma":6997,"Ġfoldwaande":6998,"ĠWylst":6999,"ĠGemeente":7000,"Ġgeskikt":7001,"Ġfinzenis":7002,"Ġtraumahelikopter":7003,"Ġferfelend":7004,"OC":7005,"hand":7006,"kr":7007,"kÃ´":7008,"sr":7009,"sette":7010,"Ã¨":7011,"Ġsul":7012,"Ġident":7013,"Ġbio":7014,"Ġhoor":7015,"Ġgl":7016,"Ġtur":7017,"Ġtichter":7018,"Ġynfal":7019,"Ġpen":7020,"Ġopsteld":7021,"Ãªsten":7022,"ames":7023,"iske":7024,"isie":7025,"ĠIS":7026,"Ġferfang":7027,"Ġstutsen":7028,"ĠHaad":7029,"ĠBet":7030,"Ġwollen":7031,"ĠLok":7032,"ĠKust":7033,"ĠJanne":7034,"ape":7035,"ikte":7036,"Ġleg":7037,"Ġtips":7038,"ĠMarrit":7039,"oerlÃªst":7040,"Ġsloop":7041,"Ġfolop":7042,"Ġfreegjen":7043,"Ġverander":7044,"Ġbetingsten":7045,"Ġbotsing":7046,"Ġuitge":7047,"Ġgeniet":7048,"Ġbesluit":7049,"Ġwilde":7050,"Ġkrijgt":7051,"litte":7052,"ssa":7053,"Ġmilj":7054,"Ġpositief":7055,"ĠWaadferiening":7056,"Ġprizen":7057,"Ġkarak":7058,"ĠElf":7059,"Ġhurdfyts":7060,"ĠErwin":7061,"ĠHeech":7062,"ĠGerrit":7063,"Ġhaadklasse":7064,"Ġynsidint":7065,"Ġzelfs":7066,"ĠFreule":7067,"Ġakkoart":7068,"Ġuniversiteit":7069,"ĠZwolle":7070,"Ġrelatyf":7071,"rjochting":7072,"Ġekonomyske":7073,"Ġeerder":7074,"Ġfertsjinje":7075,"Ġproduksje":7076,"ĠNieuw":7077,"ĠForum":7078,"Ġsponsor":7079,"ĠKommissaris":7080,"ĠPrinsetÃºn":7081,"ĠkliÃ¯nten":7082,"seduere":7083,"ĠFokkens":7084,"Ġpubliek":7085,"kke":7086,"klik":7087,"lutsen":7088,"miel":7089,"osten":7090,"wij":7091,"Ġ38":7092,"Ġ37":7093,"Ġamper":7094,"ines":7095,"endam":7096,"Ġfent":7097,"Ġfabryk":7098,"Ġfytst":7099,"Ġsearje":7100,"elkoar":7101,"Ġtien":7102,"riet":7103,"rieden":7104,"Ġpyk":7105,"ree":7106,"ĠSuz":7107,"Ġljip":7108,"raad":7109,"Ġstaazje":7110,"ĠBed":7111,"ĠWor":7112,"ĠWoud":7113,"Ġzonder":7114,"ĠTO":7115,"Ġpland":7116,"ĠVC":7117,"Ġlief":7118,"Ġliede":7119,"ĠRu":7120,"ĠRijk":7121,"Ġmete":7122,"Ġearlik":7123,"Ġkind":7124,"Ġferseker":7125,"Ġwurkgroep":7126,"Ġneame":7127,"Ãºtkear":7128,"ĠÃ»ntfange":7129,"Ġferhier":7130,"Ġfeang":7131,"ĠSteen":7132,"ĠSteats":7133,"heljen":7134,"Ġkolleksje":7135,"ĠkompjÃ»":7136,"Ġgevol":7137,"ĠlikernÃ´ch":7138,"Ġdraait":7139,"Ġsmiet":7140,"Ġkleur":7141,"ĠAmeland":7142,"Ġleverje":7143,"Ġskoarde":7144,"ĠPaulusma":7145,"ĠlÃ»ds":7146,"ĠdrÃ»ch":7147,"Ġkontrolear":7148,"Ġkontrolearre":7149,"Ġfrachtwein":7150,"Ġmaatskippij":7151,"ĠKonink":7152,"Ġtagonk":7153,"Ġtemperatuer":7154,"Ġmiljeu":7155,"boskbehear":7156,"Ġleerlingen":7157,"ĠÃ»ntstean":7158,"ĠDoarps":7159,"ĠUNIS":7160,"Ġstrange":7161,"Sa":7162,"air":7163,"fj":7164,"rinn":7165,"yg":7166,"zoeken":7167,"ante":7168,"arm":7169,"Ġite":7170,"Ġoor":7171,"omin":7172,"Ġbewar":7173,"ĠII":7174,"Ġvoedsel":7175,"raasje":7176,"Ġoansk":7177,"Ġstar":7178,"ĠBes":7179,"ĠBeg":7180,"Ġseal":7181,"ĠOs":7182,"gelju":7183,"ront":7184,"ĠJos":7185,"Ġwatfoar":7186,"ĠPoort":7187,"Ġslaan":7188,"Ġav":7189,"Ã»ndert":7190,"annear":7191,"Ġkanker":7192,"ranten":7193,"werpen":7194,"Ġkommend":7195,"Ġfamilie":7196,"ĠÃºtstel":7197,"Ġsneintemoarn":7198,"Ġmail":7199,"ĠFansels":7200,"Ġfiifde":7201,"ĠTwitter":7202,"Ġnatuergebiet":7203,"groepen":7204,"how":7205,"Ġferkeard":7206,"Ġreedriders":7207,"Ġboatsje":7208,"Ġhynder":7209,"ĠPloeg":7210,"Ġberjochten":7211,"Ġarty":7212,"ĠKrol":7213,"besteging":7214,"Ġnoarden":7215,"Ġferbetterjen":7216,"ĠFortuna":7217,"Ġverhaal":7218,"Ġnieuws":7219,"Ġapparteminten":7220,"Ġbijzonder":7221,"ĠElsacker":7222,"Ġdrinken":7223,"ĠLelylijn":7224,"ĠsÃ¢lt":7225,"HollÃ¢n":7226,"amminga":7227,"Ġkwestje":7228,"Ġguozzen":7229,"Ġcoronatest":7230,"ĠHurdegaryp":7231,"ĠKustwacht":7232,"Hoe":7233,"ba":7234,"coron":7235,"dder":7236,"fjilden":7237,"jel":7238,"kaart":7239,"rings":7240,"sens":7241,"ugen":7242,"uaasje":7243,"Ġdacht":7244,"Ġflein":7245,"Ġflier":7246,"atal":7247,"keken":7248,"Ã»nens":7249,"ĠSu":7250,"Ġomleech":7251,"Ġlutsen":7252,"Ġgemiddel":7253,"Ġalkohol":7254,"Ġferdield":7255,"ĠWassen":7256,"zemond":7257,"ĠAf":7258,"ĠEju":7259,"Ġplanning":7260,"appen":7261,"ikus":7262,"Ġlicht":7263,"ĠRi":7264,"ĠPel":7265,"menten":7266,"Ġwaarin":7267,"Ġeare":7268,"Ġearm":7269,"Ġtip":7270,"ĠCNV":7271,"Ġdire":7272,"Ġriders":7273,"Ġklant":7274,"ĠAlvest":7275,"Ġ2012":7276,"ennie":7277,"Ġbelangen":7278,"gere":7279,"Ġrekket":7280,"ultuur":7281,"Ġwille":7282,"braken":7283,"ĠfakbÃ»n":7284,"Ġdelset":7285,"utens":7286,"Ġoplost":7287,"hout":7288,"Ġachtste":7289,"tsjerke":7290,"Ġferstjer":7291,"Ġjullie":7292,"Ġsnelheid":7293,"Ġfernij":7294,"Ġsportsk":7295,"Ġplestik":7296,"orig":7297,"Ġeasken":7298,"ĠteÃ¤ters":7299,"Ġmiddelbere":7300,"sproken":7301,"Ġjonkje":7302,"Ġjongelju":7303,"ĠIngelsk":7304,"Ġoanfragen":7305,"portaazje":7306,"Ġeventueel":7307,"flean":7308,"ĠÃºtwr":7309,"ĠRoes":7310,"ĠSietske":7311,"Ġgelegen":7312,"ĠRoozemond":7313,"Ġtsjinstanner":7314,"ĠFrankryk":7315,"Ġfuotten":7316,"ĠÃ»ndÃºdlik":7317,"Ġsitewaasje":7318,"ĠSteatsboskbehear":7319,"fjilder":7320,"Hij":7321,"NO":7322,"Ne":7323,"du":7324,"even":7325,"jaar":7326,"kon":7327,"mis":7328,"zien":7329,"Ġdon":7330,"ĠsÃ»":7331,"Ġsear":7332,"Ġdegra":7333,"staasje":7334,"Ġgryp":7335,"richt":7336,"Ġex":7337,"Ġopmerk":7338,"Ġopnimme":7339,"Ãºsje":7340,"ĠFei":7341,"ĠFia":7342,"Ġlin":7343,"earring":7344,"ĠMat":7345,"steden":7346,"ĠEmmen":7347,"Ġzei":7348,"Ġzoeken":7349,"Ġreportaazje":7350,"Ġskrik":7351,"Ġskuorre":7352,"ĠGron":7353,"Ġspeel":7354,"ĠRa":7355,"ĠRie":7356,"ĠRus":7357,"ĠRTV":7358,"ĠPa":7359,"Ġbesoar":7360,"achtich":7361,"otte":7362,"ulen":7363,"Ġdieders":7364,"Ġaand":7365,"Ġkonf":7366,"ferkear":7367,"Ġbegrij":7368,"ept":7369,"ĠZuid":7370,"ĠStaats":7371,"adem":7372,"Ġtalen":7373,"eilige":7374,"Ġtradysje":7375,"ĠJouster":7376,"ice":7377,"Ġgedrach":7378,"Ġwenten":7379,"assade":7380,"Ġtiisdeitemoarn":7381,"wiksel":7382,"Ġpublis":7383,"ĠDokkumer":7384,"Ġfinanc":7385,"Ġiisbaan":7386,"ĠbefÃªst":7387,"Ġgefaarlike":7388,"Ġstekke":7389,"Ġynspi":7390,"Ġprofes":7391,"Ġboadskippen":7392,"Ġfleanfjild":7393,"ĠManon":7394,"ĠForce":7395,"laggen":7396,"ĠCOA":7397,"Ġsekonden":7398,"Ġscoo":7399,"ĠKnol":7400,"ĠOnderzoek":7401,"Ġkompensaasje":7402,"Ġkombinaasje":7403,"ĠLykas":7404,"guod":7405,"ĠTjeerd":7406,"ĠÃ»ngefear":7407,"ĠISU":7408,"ĠSuzanne":7409,"ĠWorld":7410,"Ġgemiddelde":7411,"ĠWassenaar":7412,"ĠEjuke":7413,"ael":7414,"dijk":7415,"plein":7416,"rinner":7417,"wa":7418,"yers":7419,"zings":7420,"Ġ32":7421,"Ġfris":7422,"Ġierd":7423,"Ġwend":7424,"Ġmaak":7425,"Ġburo":7426,"alik":7427,"Ġtichte":7428,"Ġpolder":7429,"liuw":7430,"amens":7431,"orn":7432,"ĠSlo":7433,"Ġvri":7434,"Ġnoas":7435,"ĠHeide":7436,"denten":7437,"ĠMaats":7438,"ĠWiel":7439,"megen":7440,"ĠErik":7441,"Ġzin":7442,"wege":7443,"Ġrecht":7444,"Ġrepar":7445,"ĠKoop":7446,"ĠGert":7447,"ĠRem":7448,"ĠPleats":7449,"Ġwaarme":7450,"Ġleuke":7451,"ĠMarsum":7452,"oger":7453,"Ġklaai":7454,"anny":7455,"Ġfolks":7456,"Ġsoart":7457,"Ġpersoon":7458,"ĠStar":7459,"ĠMeijer":7460,"ware":7461,"ustry":7462,"Ġfuorthelle":7463,"ĠSkÃ»":7464,"Ġrjochts":7465,"Ġblommen":7466,"Ġmedis":7467,"Ġbestjoerders":7468,"Ġsporthal":7469,"projekt":7470,"ansters":7471,"liedingen":7472,"ĠBeek":7473,"ĠlÃ»ke":7474,"Ġtweede":7475,"Ġambysje":7476,"Ġstimmen":7477,"Ġoprinne":7478,"Ġsammel":7479,"Ġontzet":7480,"ĠFeansters":7481,"ĠtaskÃ´":7482,"ĠNijmegen":7483,"Ġeaske":7484,"Ġkritysk":7485,"twurdich":7486,"ĠTsien":7487,"bosbeheer":7488,"Ġoanfrege":7489,"Ġverschillende":7490,"ĠHendrik":7491,"ĠHallum":7492,"ĠWethÃ¢lder":7493,"Ġmoesten":7494,"ĠBrandsma":7495,"Ġmedewerkers":7496,"ĠDryl":7497,"ĠAustraliÃ«":7498,"ĠKingma":7499,"Ġtagonklik":7500,"ĠStaatsbosbeheer":7501,"AR":7502,"Ge":7503,"Jan":7504,"St":7505,"daasje":7506,"ffer":7507,"hart":7508,"lei":7509,"rant":7510,"tig":7511,"zende":7512,"zinga":7513,"Ġdiploma":7514,"endaalks":7515,"atist":7516,"Ġkringloop":7517,"stan":7518,"stoffen":7519,"alle":7520,"alvestÃªdetocht":7521,"edte":7522,"ĠSup":7523,"ĠSinteklaas":7524,"Ġbev":7525,"ĠFol":7526,"Ġlater":7527,"Ġvia":7528,"Ġdermei":7529,"Ġgetest":7530,"Ġgegaan":7531,"Ġferle":7532,"tenacht":7533,"ĠBok":7534,"ĠBuro":7535,"Ġhavens":7536,"Ġkomende":7537,"ĠEigen":7538,"rust":7539,"ĠOl":7540,"ichste":7541,"antwurde":7542,"Ġprote":7543,"ĠÃ»nderÃºt":7544,"ĠÃ»nderwerp":7545,"ĠCl":7546,"ĠbrÃª":7547,"igingen":7548,"Ġferster":7549,"Ġfersets":7550,"bewenners":7551,"Ġtaak":7552,"Ġact":7553,"ferkeap":7554,"Ġnee":7555,"uurd":7556,"Ġkeamer":7557,"Ġgroter":7558,"wurkjen":7559,"Ġraak":7560,"jierrich":7561,"ĠgrÃªf":7562,"Ġterrassen":7563,"Ġwennen":7564,"Ġgearkomsten":7565,"ĠsikehÃ»sop":7566,"Ġduorsume":7567,"Ġstappe":7568,"marsum":7569,"ĠEarne":7570,"tsjerk":7571,"doende":7572,"breedte":7573,"ĠhaadstÃªd":7574,"Ġfeestje":7575,"Ġleechflean":7576,"Ġlivestream":7577,"ĠAldeb":7578,"Ġunyk":7579,"rastruktuer":7580,"Ġneedferoar":7581,"Ġmaksimum":7582,"centrum":7583,"ĠÃºtstjoerd":7584,"Ġfoarsoarch":7585,"regeling":7586,"Ġreizgers":7587,"ĠJaco":7588,"Ġskermen":7589,"Ġemos":7590,"Ġleeftiid":7591,"ĠfleantÃºch":7592,"Ġreagearje":7593,"Ġferpleatst":7594,"ĠStadion":7595,"Ġbehoarlik":7596,"ĠWestereen":7597,"ĠFarmers":7598,"Ġprecies":7599,"Ġmeteen":7600,"Ġontzettend":7601,"ĠDrylts":7602,"RO":7603,"fuotbal":7604,"gaat":7605,"gaard":7606,"ham":7607,"hiem":7608,"mienskip":7609,"tÃºn":7610,"tes":7611,"teiten":7612,"Ġsus":7613,"Ġdead":7614,"Ġwachte":7615,"Ġment":7616,"Ġmolke":7617,"Ġbasketbal":7618,"Ġhjitte":7619,"ĠhÃ»zen":7620,"stige":7621,"ĠDÃª":7622,"Ġynge":7623,"Ġenige":7624,"dem":7625,"orat":7626,"ĠSal":7627,"ĠSon":7628,"ĠSlach":7629,"ijken":7630,"Ġvond":7631,"Ġgesl":7632,"Ġstude":7633,"ĠHil":7634,"ĠHoo":7635,"tsjÃ»":7636,"Ġjacht":7637,"genoaten":7638,"ĠWei":7639,"ĠNes":7640,"ĠAc":7641,"ĠAuke":7642,"Ġseine":7643,"jinkie":7644,"ensma":7645,"ĠOt":7646,"Ġcrisis":7647,"ĠTine":7648,"Ġpleit":7649,"ĠGelder":7650,"Ġerv":7651,"Ġsprutsen":7652,"Ġoarspron":7653,"ĠPyt":7654,"berkeap":7655,"Ġferslach":7656,"Ġberikken":7657,"stellings":7658,"Ġfiert":7659,"Ġkunde":7660,"Ġbekendmakke":7661,"Ġfertraging":7662,"resse":7663,"Ã»ntwikkel":7664,"ĠSpanje":7665,"Ġwoansdeitemiddei":7666,"ĠWaadgebiet":7667,"Ġsneld":7668,"Ġbla":7669,"ĠArn":7670,"Ġlearling":7671,"Ġkantoar":7672,"Ġtongersdeitemiddei":7673,"Ġferoaring":7674,"ĠhÃºske":7675,"Ġreizen":7676,"ĠThomas":7677,"ppers":7678,"Ġgevaar":7679,"avond":7680,"Ġoanpass":7681,"Ġdraaie":7682,"Ġwichtichste":7683,"Ġswimme":7684,"Ġynsette":7685,"ĠKeamerlid":7686,"Ġinisjativen":7687,"Ġdoarpsbelang":7688,"Ġbiof":7689,"Ġroppe":7690,"ĠBruinsma":7691,"Ġmiddenfjilder":7692,"ciaal":7693,"Ġtoil":7694,"Ġtastimming":7695,"ĠAndor":7696,"ĠÃºteinsette":7697,"ĠTheo":7698,"Ġnegative":7699,"Ġreagearre":7700,"Ġtrochsneed":7701,"Ġsimpel":7702,"ĠFortuin":7703,"Ġburge":7704,"Ġfideo":7705,"Ġrijden":7706,"Ġynterview":7707,"ĠsÃºdlike":7708,"ĠTrainer":7709,"Ġprotokol":7710,"ĠHuisman":7711,"materiaal":7712,"ferlieners":7713,"ĠFeilichheidsregio":7714,"ĠtaskÃ´gers":7715,"BS":7716,"By":7717,"Cast":7718,"No":7719,"Us":7720,"hÃ»ndert":7721,"tille":7722,"wad":7723,"Ġyl":7724,"Ġdraach":7725,"Ġdorp":7726,"inter":7727,"iningen":7728,"often":7729,"Ġsjon":7730,"Ġsjit":7731,"Ġdek":7732,"Ġimp":7733,"Ġierde":7734,"Ġbos":7735,"Ġhom":7736,"Ġhoren":7737,"Ġnomin":7738,"Ġgoud":7739,"Ġgongen":7740,"aly":7741,"Ġtap":7742,"Ġtaken":7743,"oarm":7744,"riz":7745,"rist":7746,"Ġpens":7747,"rede":7748,"lien":7749,"Ãªte":7750,"ĠDefen":7751,"gewoan":7752,"ĠSjinkie":7753,"ĠFyts":7754,"Ġvro":7755,"Ġalvetal":7756,"aarsma":7757,"ĠHeer":7758,"tsp":7759,"Ġjammer":7760,"ĠBinnen":7761,"ĠWins":7762,"ĠAD":7763,"Ġzoek":7764,"Ã´fdieling":7765,"ĠKoud":7766,"ronken":7767,"Ġskriezen":7768,"Ġsprek":7769,"skl":7770,"Ġcoronac":7771,"Ġbesykjen":7772,"utch":7773,"Ġleine":7774,"ĠbrÃ»ns":7775,"ĠienfÃ¢ldich":7776,"Ġsloech":7777,"Ġac":7778,"Ġsoarten":7779,"ieders":7780,"wurking":7781,"ĠState":7782,"entiids":7783,"acc":7784,"ettere":7785,"Ġfreedtemoarn":7786,"ĠfÃ»ns":7787,"Ġregist":7788,"ruksje":7789,"Ġfytspaad":7790,"wikkeld":7791,"Ġpriv":7792,"Ġferoars":7793,"Ġstapte":7794,"ansier":7795,"Ġpleatsen":7796,"ĠlÃ»ken":7797,"maatregel":7798,"Ã¯ne":7799,"Ġspannende":7800,"Ġmaatschap":7801,"Ġtaret":7802,"Ġtaried":7803,"ĠSmink":7804,"Ġ1945":7805,"Ġkiezen":7806,"lanner":7807,"Ġfertsjintwurd":7808,"Ġfiskers":7809,"Ġtydlike":7810,"makkers":7811,"Ġvoetballen":7812,"auffeurs":7813,"flagge":7814,"ĠLangwar":7815,"Ġelektryske":7816,"ĠpopulÃªr":7817,"Ġallerh":7818,"Ġkarbidsjitten":7819,"spiler":7820,"Ġcarav":7821,"ĠthÃºspl":7822,"Ġeksploit":7823,"ĠRijpstra":7824,"Ġgesellich":7825,"ushoorn":7826,"ĠNoorderbreedte":7827,"Ġnormale":7828,"Ġpenalt":7829,"ĠDefence":7830,"ĠthÃºsploech":7831,"MC":7832,"brief":7833,"iende":7834,"los":7835,"mas":7836,"oof":7837,"ramp":7838,"wies":7839,"Ġren":7840,"Ġ65":7841,"Ġ43":7842,"ermen":7843,"Ġfra":7844,"Ġbaas":7845,"Ġkraan":7846,"stjit":7847,"Ġget":7848,"Ġgoals":7849,"ĠglÃªs":7850,"Ġfans":7851,"ĠDag":7852,"Ġeangst":7853,"Ġpeil":7854,"regen":7855,"onald":7856,"ome":7857,"ĠSh":7858,"isy":7859,"Ã¢nske":7860,"ĠIF":7861,"Ġgekomen":7862,"Ġferlik":7863,"Ġstress":7864,"Ġjimme":7865,"ĠMensen":7866,"genoat":7867,"ĠWerk":7868,"ĠoertsjÃ»":7869,"Ġneitocht":7870,"Ã´k":7871,"Ġzat":7872,"Ġzag":7873,"ĠOost":7874,"weinen":7875,"ĠÃ´fpraat":7876,"ĠJuli":7877,"Ġspes":7878,"Ġvanaf":7879,"ĠRed":7880,"ĠPre":7881,"tellen":7882,"aalt":7883,"spartij":7884,"Ġvoorber":7885,"sektor":7886,"Ġklinkt":7887,"beam":7888,"ĠslÃ»s":7889,"Ġeiland":7890,"Ġvervel":7891,"Ġbetinking":7892,"ĠSeg":7893,"Ġlykje":7894,"foarsjen":7895,"ĠÃ»ntwik":7896,"ĠlÃ¢nbo":7897,"Ġfuortendaalks":7898,"Ġnuver":7899,"ĠAnna":7900,"tearret":7901,"riez":7902,"Ġaparte":7903,"Ġpasse":7904,"Ġfertro":7905,"Ġkoade":7906,"Ġkrijg":7907,"Ġfreedsmerk":7908,"ĠferbÃ»n":7909,"helling":7910,"Ġstelde":7911,"Ġstraks":7912,"Ġfytser":7913,"lybal":7914,"Ġtoerno":7915,"Ġdielen":7916,"ĠkarriÃªre":7917,"ĠrÃ»nom":7918,"ĠwÃ»nen":7919,"willigers":7920,"tinke":7921,"Ġloc":7922,"Ġperiode":7923,"Ġopsetten":7924,"ĠFierders":7925,"ĠBreij":7926,"alisearre":7927,"Ġcoronabesmettings":7928,"ĠHolland":7929,"bouwing":7930,"Ġfoarsichtich":7931,"Ġprofite":7932,"ologyske":7933,"Ġlegere":7934,"ĠNew":7935,"ĠNeushoorn":7936,"Ġbegelieding":7937,"ĠJorrit":7938,"Ġbegripe":7939,"Ġhoudt":7940,"Ġsteatssekretaris":7941,"Ġkommunikaasje":7942,"Ġloopt":7943,"Ġkonkurr":7944,"Ġbeskerme":7945,"ĠVoedselbank":7946,"Ġbunder":7947,"Ġwiksel":7948,"Ġdaliks":7949,"Ġfreondinne":7950,"Ġwiidweidich":7951,"Ġbetreft":7952,"Ġartysten":7953,"Ġaandacht":7954,"Fries":7955,"KC":7956,"fonds":7957,"gr":7958,"izze":7959,"mny":7960,"nij":7961,"ots":7962,"ogel":7963,"th":7964,"ty":7965,"tige":7966,"vak":7967,"aring":7968,"Ġfor":7969,"Ġfok":7970,"Ġsjitte":7971,"Ġmas":7972,"Ġbanken":7973,"atyske":7974,"ĠnÃ»":7975,"Ġkj":7976,"ynst":7977,"start":7978,"Ġgouden":7979,"aler":7980,"keer":7981,"neke":7982,"oryt":7983,"Ġbeoar":7984,"Ġoanmeld":7985,"Ġfermin":7986,"ĠHart":7987,"ilaasje":7988,"ĠMit":7989,"ĠWier":7990,"ĠWannear":7991,"ading":7992,"Ġoerstap":7993,"Ġweach":7994,"ĠÃºtb":7995,"ĠÃºtkomst":7996,"ĠÃºtdield":7997,"ĠKamp":7998,"ĠKoster":7999,"essel":8000,"ĠTim":8001,"ĠTop":8002,"ĠTwi":8003,"Ġskul":8004,"efel":8005,"Ġlieten":8006,"ĠRaad":8007,"Ġmeasten":8008,"Ġleark":8009,"ĠÃ»nderen":8010,"ĠMarten":8011,"Ġberikt":8012,"ferbÃ¢n":8013,"ĠgemeentehÃ»s":8014,"istyk":8015,"Ġgroeit":8016,"ĠÃ»ndersk":8017,"Ġfamyl":8018,"Ġtichtby":8019,"ĠSkoal":8020,"Ġdoelen":8021,"gebied":8022,"uzum":8023,"ĠferwÃ»n":8024,"belangen":8025,"Ġlearen":8026,"Ġmedyske":8027,"Ġnatuergebieten":8028,"ĠBergen":8029,"ĠhÃºshÃ¢lden":8030,"Ġtrainings":8031,"Ġpakten":8032,"mpo":8033,"ĠKNKB":8034,"ĠNederlands":8035,"Ġrekkenje":8036,"stanners":8037,"Ġkoprinner":8038,"Ġstimulear":8039,"raagd":8040,"Ã»nscoach":8041,"ĠDaarom":8042,"Ġsporte":8043,"ĠdÃ»beld":8044,"roeven":8045,"oriteit":8046,"ĠwarskÃ´ging":8047,"boerd":8048,"Ġuter":8049,"ology":8050,"Ġflechtlingen":8051,"ĠferdwÃ»n":8052,"Ġmiddeis":8053,"Ġblessearre":8054,"ĠÃ»nwis":8055,"Ġskerp":8056,"ĠLiander":8057,"Ġmeidogge":8058,"hawwers":8059,"Ġgebruiken":8060,"Ġopknapt":8061,"broek":8062,"enschap":8063,"dienst":8064,"Ġamtners":8065,"ĠabsolÃºt":8066,"ĠJustysje":8067,"ĠAmerikaanske":8068,"Ġsjoernalist":8069,"Ġassistint":8070,"azjiers":8071,"ĠMakkum":8072,"Ġkontenerskippen":8073,"ĠHelmholt":8074,"Ġgenietsje":8075,"Ġmiljard":8076,"ĠElfsteden":8077,"Ġfeangreide":8078,"Ġgelegenheid":8079,"ĠEarnewÃ¢ld":8080,"Ġpenalty":8081,"AL":8082,"Bij":8083,"Dus":8084,"Van":8085,"bren":8086,"buor":8087,"ever":8088,"kle":8089,"kaar":8090,"kÃªte":8091,"moar":8092,"oers":8093,"pas":8094,"tlike":8095,"uge":8096,"uite":8097,"wijl":8098,"Ġutens":8099,"Ġdwers":8100,"arken":8101,"Ġsig":8102,"Ġmiening":8103,"Ġhur":8104,"ĠnÃªst":8105,"Ġkollum":8106,"jewÃ¢ld":8107,"Ġemo":8108,"ĠSpe":8109,"Ġvalt":8110,"Ġoankommen":8111,"oem":8112,"Ġstof":8113,"ĠHÃ»s":8114,"ĠHjoed":8115,"ĠBest":8116,"ĠWou":8117,"ĠNa":8118,"imeter":8119,"Ġwekker":8120,"oplieding":8121,"ĠKoat":8122,"Ġ120":8123,"ĠTon":8124,"ĠTech":8125,"Ġskaal":8126,"Ġskrokken":8127,"apac":8128,"Ġervoor":8129,"ikel":8130,"ĠrÃ¢ne":8131,"skop":8132,"oto":8133,"Ġhelaas":8134,"Ġhoeke":8135,"ĠwÃªrop":8136,"ateg":8137,"Ġbetrouwen":8138,"boaten":8139,"aksjes":8140,"Ġbouwe":8141,"Ġferteld":8142,"Ġbestimming":8143,"foarst":8144,"stertille":8145,"Ãªding":8146,"ĠÃ»ntd":8147,"ĠÃ»ntble":8148,"Ġbesluten":8149,"ĠsneintejÃ»n":8150,"bringe":8151,"moc":8152,"Ġtongersdeitemoarn":8153,"Ġgeldt":8154,"Ġnatuerorganisaasjes":8155,"Ġstillein":8156,"andemy":8157,"ĠFeriene":8158,"ĠsimmerfakÃ¢nsje":8159,"aaid":8160,"ĠErve":8161,"Ġkeunstwurk":8162,"Ġhealjier":8163,"ĠGerry":8164,"Ġfilmke":8165,"Ġsporters":8166,"Ġslimmer":8167,"ĠÃ»ntstiet":8168,"ĠÃ»ntwikkelingen":8169,"Ġbuorkerij":8170,"Ġagrar":8171,"Ġiennichste":8172,"fÃ»gel":8173,"Ġkeatsen":8174,"Ġoefenwedstriid":8175,"ĠNieuwen":8176,"Ġstypjen":8177,"festival":8178,"Ġvertrouwen":8179,"âĢĻ":8180,"ĠhÃºshÃ¢lding":8181,"ĠHylpen":8182,"ĠCentrum":8183,"Ġfergoeding":8184,"Ġwapens":8185,"wykein":8186,"Ġwensoarch":8187,"perioade":8188,"Ġidentiteit":8189,"ĠOnderzoeks":8190,"ĠJacobs":8191,"ĠKoatstertille":8192,"PO":8193,"Sy":8194,"Toen":8195,"aap":8196,"frys":8197,"ht":8198,"ider":8199,"jele":8200,"kast":8201,"lochs":8202,"nar":8203,"pot":8204,"ppe":8205,"pakt":8206,"pele":8207,"ĠQ":8208,"ĠÃ":8209,"Ġ39":8210,"Ġ33":8211,"anus":8212,"ĠmÃ»le":8213,"Ġolymp":8214,"ĠbÃªd":8215,"Ġhanden":8216,"Ġkad":8217,"Ġkracht":8218,"ject":8219,"Ġgym":8220,"Ġgrond":8221,"Ġtuorren":8222,"ĠDrent":8223,"rike":8224,"Ġpom":8225,"lim":8226,"deel":8227,"ĠSine":8228,"ĠFriez":8229,"Ġomsk":8230,"ĠIssa":8231,"Ġoandiel":8232,"Ġstoffen":8233,"ĠMir":8234,"ĠMein":8235,"genomen":8236,"Ġwolst":8237,"Ġoerfal":8238,"ĠAan":8239,"Ġkommers":8240,"Ġmaraton":8241,"Ġcre":8242,"ĠTuin":8243,"ĠÃ´flevering":8244,"Ġspruts":8245,"ĠCees":8246,"spraak":8247,"oerd":8248,"Ġwyt":8249,"ossen":8250,"sep":8251,"Ġonders":8252,"betel":8253,"Ġkonsek":8254,"Ġtsjinsten":8255,"emt":8256,"ifk":8257,"Ġzee":8258,"Ġoranje":8259,"Ġfloat":8260,"ĠBygelyks":8261,"Ġtrad":8262,"ĠwÃªrmei":8263,"itsma":8264,"gersma":8265,"geande":8266,"Ġkomment":8267,"Ġfierderop":8268,"Ġdreger":8269,"groeid":8270,"Ġparten":8271,"Ġmelk":8272,"Ġ600":8273,"Ġsaakkundigen":8274,"Ġopnommen":8275,"Ġsmoard":8276,"ĠHeal":8277,"Ġruten":8278,"Ġsterke":8279,"ĠSportCast":8280,"Ġbewoners":8281,"ĠferdÃ»":8282,"erskaat":8283,"ĠAldeberkeap":8284,"Ġplekken":8285,"ĠBrink":8286,"Ġdokters":8287,"Ġlevere":8288,"Ġgaswinning":8289,"Ġferantwurdlikens":8290,"Ġfearn":8291,"Ġdiskrimin":8292,"ĠHerman":8293,"Ġvlogs":8294,"Ġmeinimme":8295,"ĠÃ»nwiss":8296,"Ġopskuor":8297,"ĠTuinenga":8298,"Ġteloarsteld":8299,"machtich":8300,"Ġfantastysk":8301,"Ġvakantie":8302,"Ġcoronaproof":8303,"Ġtransfer":8304,"Ġpilot":8305,"ĠVolendam":8306,"Ġpresintator":8307,"ĠskÃ»tsjesilen":8308,"Ġlaborat":8309,"ĠJapan":8310,"ĠCampus":8311,"lizzende":8312,"ĠSipke":8313,"ĠWynjewÃ¢ld":8314,"ĠWytmarsum":8315,"ĠKooistra":8316,"Ġbefolking":8317,"Ġnijsgjirrich":8318,"Ġmondkap":8319,"Ġfolwoeksen":8320,"Ġkarakter":8321,"Ãºtkearings":8322,"ĠKoninklijke":8323,"ĠAlvestÃªde":8324,"Ġscooter":8325,"Ġbioferskaat":8326,"ĠADO":8327,"Ġcoronacrisis":8328,"ĠMitchel":8329,"apaciteit":8330,"Ġkonsekw":8331,"cten":8332,"lant":8333,"mand":8334,"slid":8335,"tÃ»zen":8336,"uil":8337,"ulearre":8338,"vin":8339,"waard":8340,"Ġym":8341,"Ġdier":8342,"Ġduur":8343,"erp":8344,"Ġfas":8345,"Ġmuorre":8346,"Ġbiedt":8347,"Ġhoort":8348,"Ġhulp":8349,"Ġkrap":8350,"yna":8351,"Ġgolf":8352,"Ġtachtich":8353,"Ġenorme":8354,"rikt":8355,"reed":8356,"Ġopslach":8357,"akteur":8358,"ĠDemoc":8359,"orst":8360,"orren":8361,"Ġfoarkommen":8362,"ĠFrij":8363,"ijt":8364,"ijker":8365,"Ġluts":8366,"Ġderom":8367,"Ġmoder":8368,"Ġnou":8369,"eart":8370,"Ġstoel":8371,"Ġjuster":8372,"ĠMiede":8373,"ĠBi":8374,"ĠBang":8375,"ĠBurd":8376,"Ġoerheden":8377,"ĠAkker":8378,"lÃ¢nske":8379,"ĠEL":8380,"Ġreken":8381,"Ġread":8382,"ĠKim":8383,"ĠTre":8384,"Ġplant":8385,"ĠROC":8386,"Ġwizen":8387,"eksjes":8388,"splak":8389,"Ġhelft":8390,"Ġklas":8391,"waande":8392,"stelde":8393,"atec":8394,"Ġkeuze":8395,"Ġferskyn":8396,"Ġferskrik":8397,"ĠUMC":8398,"ĠHarn":8399,"dielingen":8400,"Ġmissen":8401,"teurs":8402,"Ġfreedtemiddei":8403,"ereniging":8404,"ssÃ»nens":8405,"ĠGrin":8406,"Ġperfoarst":8407,"mpatec":8408,"Ġ1500":8409,"monie":8410,"Ġsintimeter":8411,"Ġfotog":8412,"Ġfilms":8413,"Ġskoftke":8414,"Ġfjirtich":8415,"ĠrÃªstiger":8416,"sjinsten":8417,"ĠZwieten":8418,"Ġrelaasje":8419,"Ġsuden":8420,"ĠpraktykÃ»nderwiis":8421,"Ġtrouw":8422,"Ġberops":8423,"Ġkiest":8424,"Ġkoartlyn":8425,"ĠambulÃ¢nsepersoniel":8426,"Ġuiteindelijk":8427,"ĠSwim":8428,"Ã¶per":8429,"ĠKroes":8430,"Ġpassazjiers":8431,"Ġgaraazje":8432,"Ġferdwine":8433,"iseur":8434,"Ġblessuere":8435,"Ġdriget":8436,"Ġstudenten":8437,"formatie":8438,"Ġstasjons":8439,"ĠÃºtwreide":8440,"ĠMichael":8441,"ĠSluiter":8442,"ĠPatyna":8443,"zoens":8444,"Ġopfongen":8445,"ĠHoogland":8446,"Ġtsjerketsjinst":8447,"Ġziekenhuis":8448,"Ġdeistich":8449,"ĠdokumintÃªre":8450,"Ġcollega":8451,"Ġperspektyf":8452,"Ġdrank":8453,"beskerming":8454,"ĠleechfleanrÃ»te":8455,"Ġspesif":8456,"ĠÃ»ntwikkele":8457,"ĠOnderzoeksraad":8458,"ĠDemocratie":8459,"ĠMiedema":8460,"NC":8461,"On":8462,"deld":8463,"epe":8464,"hing":8465,"ix":8466,"kwe":8467,"lin":8468,"ljochting":8469,"pens":8470,"tze":8471,"Ġqu":8472,"ana":8473,"Ġdem":8474,"Ġwint":8475,"Ġbocht":8476,"Ġbeiden":8477,"Ġnul":8478,"Ġnamen":8479,"Ġkat":8480,"Ġkerk":8481,"yns":8482,"Ġgiel":8483,"Ġtype":8484,"ĠDre":8485,"ĠDord":8486,"Ġintern":8487,"Ġinformatie":8488,"ĠenkÃªte":8489,"Ġpijn":8490,"Ġport":8491,"reden":8492,"Ġoplein":8493,"akje":8494,"Ġfoarinoar":8495,"ĠFonds":8496,"ĠFiif":8497,"isschien":8498,"Ġlinks":8499,"Ġoanbod":8500,"Ġgekeken":8501,"Ġmoest":8502,"Ġferling":8503,"ierd":8504,"Ġjongen":8505,"ĠBol":8506,"ĠWaar":8507,"ĠWeid":8508,"ada":8509,"ĠEmpatec":8510,"Ġzaken":8511,"ĠÃºtfer":8512,"Ġseizoens":8513,"Ġskande":8514,"ĠGre":8515,"appe":8516,"ĠVeld":8517,"Ġryks":8518,"Ġprogram":8519,"skied":8520,"skamp":8521,"Ġmeest":8522,"Ġgoedkeap":8523,"spraken":8524,"Ġhelder":8525,"aktyk":8526,"Ġtsjinoer":8527,"Ġ2013":8528,"Ġfollybal":8529,"Ġbetinke":8530,"Ġkeuken":8531,"Ã»ndernimmers":8532,"Ġselsstannich":8533,"ĠZij":8534,"ampion":8535,"Ġboa":8536,"Ġskoalbern":8537,"ĠFoaral":8538,"Ġtrajekt":8539,"ĠHarmonie":8540,"werken":8541,"Ġdaardoor":8542,"ĠBoersma":8543,"Ġfleu":8544,"Ġdrokke":8545,"Ġadvies":8546,"Ġgelukkig":8547,"ormule":8548,"ĠBeNe":8549,"Ġdraaien":8550,"Ġsmite":8551,"Ġfeilichheidsregio":8552,"ĠBelt":8553,"ĠGerard":8554,"ĠkrÃºs":8555,"Ġsammele":8556,"Ġferskillen":8557,"streek":8558,"Ġredenen":8559,"ĠdÃ»mny":8560,"Ġunike":8561,"Ġfarren":8562,"ĠwarskÃ´ge":8563,"ologysk":8564,"Ġvloggers":8565,"Ġriedsleden":8566,"joernaal":8567,"Ġmateri":8568,"ĠIsra":8569,"Ġwedstrijden":8570,"Ġfernield":8571,"Ġleefberens":8572,"Ġoanfreegje":8573,"Ġtagong":8574,"ĠpatiÃ«nten":8575,"ĠBrabÃ¢n":8576,"Ġkriminele":8577,"ĠBooy":8578,"froulju":8579,"ĠCorona":8580,"Ġmassaal":8581,"ĠStiens":8582,"Ġfuortset":8583,"Ġverantwoor":8584,"Ġfrjemd":8585,"Ġsechstjin":8586,"Ġkonstatearre":8587,"Ġgevolgen":8588,"ĠlÃ»dsoerlÃªst":8589,"Ġferstjerren":8590,"ĠPremier":8591,"ĠDordrecht":8592,"EO":8593,"Myn":8594,"aus":8595,"car":8596,"heff":8597,"ifest":8598,"kende":8599,"klike":8600,"kont":8601,"oai":8602,"oade":8603,"oteken":8604,"vor":8605,"vic":8606,"wis":8607,"wapen":8608,"yach":8609,"Ġ44":8610,"Ġdr":8611,"Ġsan":8612,"Ġsis":8613,"Ġwaad":8614,"Ġmjitte":8615,"Ġbud":8616,"Ġhji":8617,"sto":8618,"staat":8619,"stjitten":8620,"Ġinst":8621,"oarten":8622,"Ġene":8623,"Ġec":8624,"lem":8625,"Ġpu":8626,"reken":8627,"Ġtele":8628,"Ġterecht":8629,"Ġbem":8630,"ĠFos":8631,"ĠIe":8632,"Ġla":8633,"Ġlju":8634,"Ġvorig":8635,"Ġoanrin":8636,"aars":8637,"Ġmodel":8638,"Ġferlyn":8639,"ĠHim":8640,"Ġekster":8641,"ĠBaas":8642,"stean":8643,"ĠEind":8644,"Ġrederij":8645,"ĠKeim":8646,"Ġskiep":8647,"ĠÃ´fnaam":8648,"ĠVel":8649,"ĠVereniging":8650,"ĠYs":8651,"Ġleggen":8652,"bergen":8653,"Ġferste":8654,"yline":8655,"Ġsilen":8656,"Ġklassen":8657,"Ġwurkjouwer":8658,"rijs":8659,"komple":8660,"riuwe":8661,"Ġaaien":8662,"tersweach":8663,"Ġplakfine":8664,"Ãºtbraak":8665,"ueren":8666,"abri":8667,"Ġlangs":8668,"Ġbouw":8669,"Ġeff":8670,"Ġflag":8671,"Ġtraind":8672,"acy":8673,"Ġnijste":8674,"sitters":8675,"Ġgenomen":8676,"Ġbeslute":8677,"folging":8678,"kelÃ¢n":8679,"ĠbrÃ»k":8680,"Ġwoansdeitemoarn":8681,"Ġmax":8682,"Ġboppen":8683,"haus":8684,"nov":8685,"zjy":8686,"Alles":8687,"Ġkni":8688,"Ġlossen":8689,"Ġsterker":8690,"Ġpresin":8691,"Ġsinneparken":8692,"Ġkrus":8693,"Ġreedriden":8694,"Ġniemand":8695,"Ġynternasjonaal":8696,"Ġtaspraak":8697,"Ġmeastentiids":8698,"ĠNatuer":8699,"ĠfarrÃ»te":8700,"ĠZwan":8701,"ĠZwart":8702,"Ġoefening":8703,"blÃªd":8704,"Ġkennen":8705,"Ġreizgje":8706,"Ġmonum":8707,"Ġanty":8708,"Ġbrune":8709,"Ġteksten":8710,"ĠdebÃºt":8711,"Ġkonsert":8712,"ĠynstÃ¢nsjes":8713,"Ġoperaasje":8714,"Ġlibbet":8715,"Ġsalang":8716,"Ġkompleks":8717,"Ġadvisearret":8718,"Ġhjoeddeiske":8719,"Ġhjoeddeistige":8720,"ĠKenink":8721,"ĠBonif":8722,"ĠKuipers":8723,"Ġprinsipe":8724,"Ġynformearre":8725,"ĠMiyach":8726,"ĠkompjÃ»ter":8727,"ĠBegjin":8728,"ĠPleatslik":8729,"ĠbrÃªgen":8730,"Ġimpact":8731,"ĠWinsum":8732,"ĠIFKS":8733,"Ġferliking":8734,"Ġfamyljel":8735,"Ġkommentaar":8736,"Ġsmoardrok":8737,"ĠKeimpe":8738,"ĠMiyachi":8739,"Die":8740,"Hjir":8741,"dus":8742,"gas":8743,"gang":8744,"kons":8745,"lle":8746,"nings":8747,"oin":8748,"paden":8749,"zak":8750,"teast":8751,"arter":8752,"Ġfoech":8753,"Ġmjit":8754,"ath":8755,"Ġkass":8756,"Ġkuorbal":8757,"ynlik":8758,"Ġfangen":8759,"ĠDanny":8760,"Ġynsteld":8761,"Ġynstjoer":8762,"Ġplein":8763,"reek":8764,"asper":8765,"itia":8766,"dema":8767,"iepen":8768,"ĠSo":8769,"ĠFuotbal":8770,"ijfers":8771,"Ġlong":8772,"Ġderoan":8773,"ĠoanhÃ¢ld":8774,"Ġoankaam":8775,"Ġferantwurde":8776,"oes":8777,"ĠMocht":8778,"ĠMVV":8779,"ĠBit":8780,"ĠWen":8781,"ĠWeij":8782,"ĠWurk":8783,"zee":8784,"Ġzwe":8785,"ruis":8786,"ĠLet":8787,"ĠLeer":8788,"unde":8789,"Ġrealist":8790,"likse":8791,"Ġplay":8792,"Ġtsiende":8793,"ipper":8794,"Ġwurkjouwers":8795,"Ġaud":8796,"Ġneamde":8797,"jerzje":8798,"Ġgroeie":8799,"Ġiepenje":8800,"ifting":8801,"ĠÃ»ndersikers":8802,"skippen":8803,"geren":8804,"Ġfla":8805,"eiligens":8806,"ward":8807,"ĠSpit":8808,"udinten":8809,"Ġsoarchmeiwurkers":8810,"ĠBoon":8811,"Ġscholen":8812,"Ġaksjefier":8813,"Ġaksjegroep":8814,"mooglik":8815,"Ġblok":8816,"Ġmiddels":8817,"Ġnatuerlik":8818,"Ġfuotbalje":8819,"Ġdiele":8820,"Ġstilte":8821,"lissen":8822,"Ġskipfeart":8823,"Ġmiljoenen":8824,"Ġonderwijs":8825,"Ġpeaske":8826,"Ġregelje":8827,"ĠNoardlike":8828,"Ġmeege":8829,"zjet":8830,"Ġsliepe":8831,"Ġstudinte":8832,"Ġhealoere":8833,"ĠHosp":8834,"Ġvoldoende":8835,"Ġreedlik":8836,"Ġgebeurd":8837,"Ġstiennen":8838,"ĠÃºtfiering":8839,"Ġtelefoanysk":8840,"Ġynspeksje":8841,"blad":8842,"ĠAntoin":8843,"ĠAndries":8844,"ĠwrÃ¢ldbekers":8845,"boeren":8846,"Ġkeatst":8847,"Ġfysio":8848,"Ġminske":8849,"Ġmaatskiplike":8850,"ĠKanadeeske":8851,"Ġoptredens":8852,"Ġopsmite":8853,"Ġhanteken":8854,"ĠStelling":8855,"ĠVlap":8856,"Ġbeneaming":8857,"ĠWinters":8858,"ĠRomke":8859,"ĠBeetstersweach":8860,"ĠLÃ¢nbou":8861,"Ġeksperim":8862,"ĠDouwstra":8863,"srjochter":8864,"ĠTOP":8865,"ĠGroningen":8866,"assadeur":8867,"Ġtichteby":8868,"ĠKoopmans":8869,"ĠsikehÃ»sopn":8870,"ĠAldeboarn":8871,"Ġdraachflak":8872,"ĠKoudum":8873,"Ġcaravan":8874,"ĠTwizel":8875,"Ġlearkr":8876,"ĠHarnzer":8877,"ĠWeidum":8878,"ĠFoswert":8879,"ĠBonifati":8880,"ĠAntoinette":8881,".)":8882,"Zo":8883,"azje":8884,"baden":8885,"buorren":8886,"hoek":8887,"jam":8888,"maar":8889,"part":8890,"zetten":8891,"Ġ09":8892,"Ġdronken":8893,"erh":8894,"Ġmysels":8895,"Ġhalf":8896,"Ġkas":8897,"Ġitens":8898,"stÃ´k":8899,"aling":8900,"ĠDoor":8901,"ĠDonker":8902,"Ġynske":8903,"Ġyngri":8904,"Ġyngre":8905,"rol":8906,"roet":8907,"riÃ«":8908,"riften":8909,"ley":8910,"Ġput":8911,"Ġoplever":8912,"aker":8913,"orten":8914,"ĠfoarÃ´f":8915,"Ġfoarset":8916,"ĠFilm":8917,"ĠFolk":8918,"isma":8919,"Ġommers":8920,"ĠIneke":8921,"Ġvolle":8922,"Ġvrouw":8923,"Ġoanjaan":8924,"Ġalarm":8925,"Ġstatus":8926,"ĠHong":8927,"ĠHeid":8928,"iltr":8929,"Ġeksk":8930,"ĠAut":8931,"ĠÃºtkear":8932,"opt":8933,"Ġcro":8934,"Ġcomm":8935,"esters":8936,"Ġergens":8937,"Ġerfgoed":8938,"Ġwerkt":8939,"Ġoarlochs":8940,"ĠRad":8941,"Ġwaarsch":8942,"Ġbesochten":8943,"Ġlek":8944,"agt":8945,"telling":8946,"ĠMarijke":8947,"osse":8948,"igers":8949,"Ġriem":8950,"Ġwurkstraf":8951,"riuwt":8952,"inkster":8953,"anner":8954,"emarken":8955,"Ġneer":8956,"Ġbedrige":8957,"Ġbinn":8958,"Ġplysjeman":8959,"ĠWeening":8960,"oelang":8961,"ifers":8962,"Ġfertellen":8963,"Ġjou":8964,"Ġjoegen":8965,"Ġfynst":8966,"ĠÃ»ntwerp":8967,"Ġmiste":8968,"Ġsneontemoarn":8969,"ĠÃ¢lderen":8970,"ĠkoÃ¶rdin":8971,"ĠfÃªstlein":8972,"inds":8973,"Ġanon":8974,"Ġgroepke":8975,"iÃ«ne":8976,"ĠRoos":8977,"ĠRobin":8978,"ĠÃ¢ldste":8979,"Ġyntocht":8980,"ĠNoardwÃ¢lde":8981,"aaien":8982,"Ġgriene":8983,"ĠHein":8984,"ĠEarste":8985,"Ġfrijwilliger":8986,"ĠDenemarken":8987,"Ġrapste":8988,"Ġontstaan":8989,"onomyske":8990,"Ġferkeapjen":8991,"Ġ800":8992,"Ġcampings":8993,"agement":8994,"Ġcoronabesmetting":8995,"Ġpoppe":8996,"Ġfersoarging":8997,"Ġdemonstre":8998,"Ġtrots":8999,"ĠBosma":9000,"Ġferfongen":9001,"Ġboetes":9002,"Ġgekregen":9003,"reis":9004,"Ġjongens":9005,"Ġfestivals":9006,"Ġfleanbasis":9007,"Ġverwachten":9008,"Ġoanfraach":9009,"ĠBelgyske":9010,"ĠÃ»nderdÃ»kers":9011,"Ġbedrijven":9012,"Ġstruktureel":9013,"hankelijk":9014,"redakteur":9015,"Ġzomer":9016,"Ġfavori":9017,"Ġsantjin":9018,"ĠGaryp":9019,"ĠKulturele":9020,"provinsje":9021,"monumenten":9022,"Ġemosjoneel":9023,"ĠTineke":9024,"ĠUMCG":9025,"ĠGrinzer":9026,"Ġtrouwens":9027,"Ġverantwoordelijk":9028,"iltrant":9029,"Camp":9030,"DF":9031,"RM":9032,"Sk":9033,"fraach":9034,"fragen":9035,"gde":9036,"lum":9037,"nÃ»mer":9038,"peil":9039,"retten":9040,"soarte":9041,"ĠdÃ»ns":9042,"Ġdieren":9043,"ance":9044,"Ġwon":9045,"atting":9046,"Ġhok":9047,"ĠDal":9048,"Ġynfier":9049,"Ġisolaasje":9050,"lemint":9051,"leving":9052,"Ã»d":9053,"Ġtempo":9054,"ersch":9055,"ieel":9056,"Ãºk":9057,"amylje":9058,"ĠbeÃ«":9059,"ĠbehÃ¢lden":9060,"ĠId":9061,"ĠIedereen":9062,"Ġlapt":9063,"rapp":9064,"Ġoanfol":9065,"Ġmob":9066,"Ġstand":9067,"Ġstarte":9068,"Ġjiske":9069,"ĠMaul":9070,"ĠBinne":9071,"meer":9072,"ĠLuc":9073,"ĠOut":9074,"opke":9075,"ĠTol":9076,"ĠTwe":9077,"ĠTot":9078,"ronde":9079,"ĠrÃºt":9080,"ĠYou":9081,"Ġbesleat":9082,"utte":9083,"eksp":9084,"veer":9085,"bbet":9086,"Ġonge":9087,"Ġongel":9088,"Ġfersmoar":9089,"wurden":9090,"Ġtsjintwurdich":9091,"Ġberei":9092,"Ġab":9093,"Ġhyg":9094,"emstra":9095,"Ġ2014":9096,"ups":9097,"Ġverz":9098,"Ãºtstjit":9099,"sjier":9100,"Ġgeworden":9101,"Ġlykmakker":9102,"ichten":9103,"Ġtuskentiid":9104,"Ġorganisatie":9105,"Ġfljocht":9106,"ĠÃ»ntrom":9107,"ĠHarlingen":9108,"ĠferhÃ¢ld":9109,"Ġeinde":9110,"Ġswart":9111,"Ġtestlokaasje":9112,"Ġwenplak":9113,"eenstra":9114,"gebaan":9115,"Ġschepen":9116,"Ġregionaal":9117,"ctor":9118,"Ġgelijk":9119,"Ġhoofd":9120,"Ġdield":9121,"ĠElzinga":9122,"ĠhÃºskes":9123,"ĠrÃ»nen":9124,"ĠrÃ»ntsje":9125,"ĠKees":9126,"Ġmeeste":9127,"aartjes":9128,"Ġdesynf":9129,"Ġfilmkes":9130,"Ġynsid":9131,"Ġvolgen":9132,"Ġbefrijd":9133,"Ġ2009":9134,"Ġsjauffeur":9135,"Ġgearwurkje":9136,"ĠAldegea":9137,"stikken":9138,"ĠChampion":9139,"uiken":9140,"uizen":9141,"ĠFreeds":9142,"brandij":9143,"Ġstjoere":9144,"Ġkeapjen":9145,"bliuw":9146,"ĠÃºtspraken":9147,"ĠBosch":9148,"Ġfysike":9149,"Ġbelangrykste":9150,"ĠWiebe":9151,"Ġweekend":9152,"Ġouderen":9153,"Ġklokken":9154,"ĠLelyline":9155,"ĠLawei":9156,"ĠfÃ»gelgryp":9157,"vereniging":9158,"Ġynteresse":9159,"Ġlogysk":9160,"Ġferneamde":9161,"Ġdjoerder":9162,"ĠÃ´fwachtsje":9163,"ĠNatuurmonumenten":9164,"ĠBilt":9165,"ĠBootsma":9166,"Ġamateur":9167,"frou":9168,"Ġtoaniel":9169,"itesse":9170,"Ġwinners":9171,"ĠGroenewoud":9172,"Ġetmiel":9173,"ĠTour":9174,"ĠTriemstra":9175,"ĠScheepstra":9176,"Ġopbringst":9177,"Ġargyf":9178,"Ġsulver":9179,"ĠSonny":9180,"Ġburgemeester":9181,"Ġallerhanne":9182,"Ġvervelend":9183,"Ġhurder":9184,"ĠTechn":9185,"fryslan":9186,"ĠBurdaard":9187,"ĠELP":9188,"heffing":9189,"ĠMaulun":9190,",'":9191,"Net":9192,"Want":9193,"bru":9194,"bond":9195,"each":9196,"eters":9197,"fet":9198,"fel":9199,"histoar":9200,"iven":9201,"pte":9202,"pleats":9203,"vier":9204,"ender":9205,"arant":9206,"Ġfaze":9207,"Ġsur":9208,"Ġdeta":9209,"Ġwoon":9210,"Ġwonen":9211,"stu":9212,"ĠDurk":9213,"ĠDNA":9214,"Ġinv":9215,"Ġinte":9216,"oarne":9217,"Ġpopp":9218,"Ġopsp":9219,"Ġopfallend":9220,"terape":9221,"onken":9222,"Ġfoarop":9223,"ĠSoarch":9224,"Ġbewiis":9225,"ĠIris":9226,"Ġoank":9227,"Ġgec":9228,"Ġgem":9229,"oea":9230,"Ġsta":9231,"ĠMerk":9232,"ĠBas":9233,"ĠBur":9234,"adoea":9235,"ĠNord":9236,"ĠNPO":9237,"ĠEis":9238,"ĠÃºtkomme":9239,"ĠÃ»nbe":9240,"ĠLou":9241,"ĠLytse":9242,"Ġnochal":9243,"unnel":9244,"ĠKamminga":9245,"Ġpleite":9246,"ĠJu":9247,"ĠJill":9248,"ĠGrij":9249,"ĠGrut":9250,"Ġdoss":9251,"Ġreid":9252,"Ġlichte":9253,"Ġproseduere":9254,"ĠPau":9255,"ĠPAL":9256,"Ġkrimp":9257,"afees":9258,"Ġtsjins":9259,"ĠCan":9260,"splan":9261,"Ġfersteur":9262,"Ġmanmachtich":9263,"Ġbeginnen":9264,"Ġplysjes":9265,"bouwe":9266,"ĠZien":9267,"ĠZein":9268,"Ġfierd":9269,"Ġzeer":9270,"ĠStu":9271,"heen":9272,"Ġeind":9273,"Ġnatoer":9274,"odder":9275,"Ġoverheid":9276,"Ġoverleg":9277,"ĠÃ»ndersykje":9278,"usema":9279,"Ġevene":9280,"ĠbÃ»tenkant":9281,"issa":9282,"ĠBousema":9283,"ugal":9284,"iveau":9285,"Ġschade":9286,"Ġromme":9287,"Ġdream":9288,"iÃ«r":9289,"Ġfuotbaljen":9290,"Ġfuotballer":9291,"Ġhobby":9292,"tinga":9293,"asisme":9294,"projekten":9295,"Ġtrainers":9296,"ĠKNRM":9297,"Ġcoronamaatregel":9298,"ĠbalÃ¢ns":9299,"Ġachttjin":9300,"ĠUny":9301,"ĠlÃ»den":9302,"allaasje":9303,"Ġsmiten":9304,"Ġkijkt":9305,"tekene":9306,"Ġkilometers":9307,"ĠOerol":9308,"Ġvolgende":9309,"ĠChris":9310,"Ġwynstjitten":9311,"Ġstream":9312,"Ġenergie":9313,"Ġcontain":9314,"Ġverspr":9315,"Ġyndustry":9316,"Ġrelay":9317,"Ġsinjaal":9318,"ĠÃºtfiere":9319,"izzer":9320,"Ġhynste":9321,"Ġkappers":9322,"ĠTerpstra":9323,"Ġtransport":9324,"Ġriedslid":9325,"Ġalternative":9326,"Ġoerlibbe":9327,"bestjoerder":9328,"Ġsponsoaren":9329,"pleeg":9330,"ĠÃ»nbekend":9331,"Ġbestjoerslid":9332,"ĠSijbrandij":9333,"Ġferneamd":9334,"ĠÃºtstjit":9335,"Ġmuzikanten":9336,"ĠfersoargingshÃ»s":9337,"ĠPortugal":9338,"Ġsoarchynstellingen":9339,"Ġbezoekers":9340,"Ġynleverje":9341,"IDEO":9342,"vendien":9343,"gelegenheid":9344,"Ġdireksje":9345,"ĠEijer":9346,"Ġpublisearre":9347,"ĠStarum":9348,"Ġsneldyk":9349,"Ġylleg":9350,"ĠHeeringa":9351,"Ġkjifk":9352,"ĠÃ»ntdutsen":9353,"ĠNieuwenhuizen":9354,"ĠMeindert":9355,"ĠEindhoven":9356,"Ġeffekten":9357,"ĠHospes":9358,"ĠFreedsmerk":9359,"ĠZeinstra":9360,"Ġkjifkro":9361,"?\",":9362,"Bra":9363,"IN":9364,"Nee":9365,"PN":9366,"bÃ»":9367,"bul":9368,"board":9369,"cker":9370,"ckers":9371,"drug":9372,"fun":9373,"fert":9374,"kard":9375,"oi":9376,"oven":9377,"pass":9378,"sde":9379,"ves":9380,"wo":9381,"wieren":9382,"Ġ55":9383,"Ġeten":9384,"tet":9385,"Ġduren":9386,"Ġdichter":9387,"Ġdikke":9388,"anderen":9389,"Ġfart":9390,"Ġsystemen":9391,"Ġwoenen":9392,"Ġmyl":9393,"ĠmÃ»nen":9394,"Ġoait":9395,"ĠDaan":9396,"robi":9397,"rick":9398,"Ã»ze":9399,"Ġpol":9400,"Ġopsjes":9401,"lizzen":9402,"kearre":9403,"ingers":9404,"old":9405,"akadoea":9406,"ona":9407,"gebouwen":9408,"Ġfoarkar":9409,"ĠSÃ¢n":9410,"ĠSwe":9411,"ĠSoms":9412,"ijven":9413,"ĠIN":9414,"ĠIreen":9415,"Ġlot":9416,"Ġoanwi":9417,"ĠstÃ¢l":9418,"ĠHeit":9419,"Ġwurken":9420,"Ġjud":9421,"ilas":9422,"Ġoernaam":9423,"ĠAv":9424,"ĠAchter":9425,"steande":9426,"ĠEag":9427,"ĠÃºtrop":9428,"ĠLu":9429,"ĠTers":9430,"ĠToen":9431,"ĠTry":9432,"Ġskerm":9433,"ĠJum":9434,"ĠVNO":9435,"ĠVitesse":9436,"Ġjierdei":9437,"Ġoargel":9438,"Ġbeswieren":9439,"aft":9440,"ota":9441,"ĠMargri":9442,"Ġminimaal":9443,"Ġbrand":9444,"rompel":9445,"rijf":9446,"rijven":9447,"ferkie":9448,"Ġverke":9449,"Ġvervol":9450,"Ġbetink":9451,"istysk":9452,"Ġpartner":9453,"ĠÃ»ndersiken":9454,"delen":9455,"ĠStaartjes":9456,"Ġflater":9457,"Ġoerein":9458,"ĠHarm":9459,"Ġmishannele":9460,"klus":9461,"Ġbesloten":9462,"Ġkwamen":9463,"ĠJansma":9464,"ĠCambuurstadion":9465,"ĠSkar":9466,"Ġstrand":9467,"Ġspilen":9468,"Ġmedysk":9469,"Ġgelok":9470,"Ġsportfers":9471,"Ġfeilige":9472,"Ġbepale":9473,"ĠFerwert":9474,"ĠGroen":9475,"Ġgevraagd":9476,"Ġpleatse":9477,"Ġtafal":9478,"onderd":9479,"onderzoek":9480,"Ġoplossings":9481,"ĠGerben":9482,"Ġfeestdagen":9483,"Ġfielde":9484,"Ġiedere":9485,"Ġeksplos":9486,"Ġsjonger":9487,"ĠVeiligheid":9488,"Ġbepaalt":9489,"Ġferkeapet":9490,"Ġtasein":9491,"Ġslimme":9492,"ervice":9493,"Ġbehand":9494,"ĠEastermar":9495,"ĠPieters":9496,"ĠHelder":9497,"Ġrestauraasje":9498,"Ġseeh":9499,"Ġ1943":9500,"ĠAndre":9501,"behearder":9502,"Ġsenioaren":9503,"ĠMeulen":9504,"Ġhanthavening":9505,"ĠTsjakadoea":9506,"Ġynvestear":9507,"ĠAppel":9508,"Ġkonkre":9509,"Ġstrangere":9510,"Ġbeschik":9511,"ĠCour":9512,"ĠbÃ»nte":9513,"Ġvoelt":9514,"Ġkranten":9515,"Ġverhalen":9516,"ĠAdv":9517,"ĠMidden":9518,"Ġoptim":9519,"ĠKarin":9520,"Ġdrone":9521,"Ġfleantugen":9522,"Ġkonkurrint":9523,"Ġbeskerming":9524,"offs":9525,"Ġfoldocht":9526,"ĠÃ»nÃ´fhinklik":9527,"ĠMarcel":9528,"Ġbiblioteek":9529,"eigener":9530,"Ġtijdens":9531,"Ġfernuvere":9532,"Ġferlieze":9533,"Ġwurksumheden":9534,"ĠHaadstÃªd":9535,"Ġoorlog":9536,"Ġsportskoalle":9537,"ĠSlob":9538,"Ġtoilet":9539,"ĠDagblad":9540,"ĠWerkman":9541,"ĠhÃºshÃ¢ldens":9542,"Ġemoasje":9543,"Ġkommersjele":9544,"Ġtradis":9545,"ĠBrinkman":9546,"Ġkonsekwinsjes":9547,"Ġferskriklik":9548,"NCW":9549,"Ġkrusing":9550,"ĠKeimpema":9551,"ĠBonifatius":9552,"Ġlaptop":9553,"ĠTryater":9554,"ĠMargriet":9555,"!\",":9556,"AS":9557,"Be":9558,"Iedereen":9559,"VO":9560,"band":9561,"baas":9562,"gat":9563,"gunning":9564,"kor":9565,"kings":9566,"loft":9567,"lucht":9568,"mm":9569,"mear":9570,"mang":9571,"nÃ´ch":9572,"uers":9573,"wyt":9574,"wachte":9575,"Ġult":9576,"Ġ42":9577,"inu":9578,"Ġfiet":9579,"Ġform":9580,"Ġsier":9581,"Ġwoar":9582,"atmang":9583,"Ġneder":9584,"Ġkm":9585,"Ġkijk":9586,"Ġkateg":9587,"Ġtv":9588,"Ġtik":9589,"ĠDel":9590,"Ġyntsjin":9591,"Ġynkommen":9592,"Ġynstellingen":9593,"role":9594,"Ġpine":9595,"rearje":9596,"keamers":9597,"ash":9598,"ura":9599,"oline":9600,"ieuw":9601,"gew":9602,"Ġfoarjier":9603,"ĠSP":9604,"ĠSam":9605,"ĠSinne":9606,"ĠSÃ»nder":9607,"ĠSeis":9608,"ĠSitt":9609,"Ġvo":9610,"Ġvacc":9611,"Ġderoer":9612,"Ġgemid":9613,"Ġgesproken":9614,"Ġmok":9615,"Ġferrast":9616,"Ġsto":9617,"Ġstoarn":9618,"Ġstiging":9619,"Ġstraat":9620,"ĠHid":9621,"ĠHoarek":9622,"ĠMoarn":9623,"ĠMienskip":9624,"ĠBakke":9625,"ĠBijl":9626,"ĠwolwÃªzen":9627,"Ġoernimme":9628,"ĠAart":9629,"Ġneili":9630,"Ġneitinke":9631,"ĠEasten":9632,"ĠÃ»nf":9633,"Ġrec":9634,"ĠKom":9635,"maak":9636,"ĠToer":9637,"Ġskrift":9638,"ĠGale":9639,"ĠGrap":9640,"ĠVogel":9641,"Ġlieden":9642,"Ġlibjen":9643,"skoar":9644,"skriften":9645,"ĠPlan":9646,"ertif":9647,"ĠYork":9648,"Ġbesit":9649,"Ġbesetting":9650,"afer":9651,"Ġhelber":9652,"effen":9653,"Ġhoeveel":9654,"Ġaanv":9655,"Ġtahe":9656,"Ġoantrek":9657,"Ġsteun":9658,"8844":9659,"ingsdei":9660,"ingsferbÃ¢n":9661,"uurlijk":9662,"Ġwelke":9663,"oelstra":9664,"Ġiepenlof":9665,"nimt":9666,"nimmen":9667,"Ġbena":9668,"aide":9669,"deling":9670,"ivisie":9671,"wizen":9672,"Ġtraap":9673,"ĠHarren":9674,"klass":9675,"Ġcoronaweach":9676,"Ġdeibesteging":9677,"scher":9678,"Ġboerd":9679,"Ġterwijl":9680,"ĠBosk":9681,"Ġadres":9682,"Ġdelsette":9683,"Ġstrjit":9684,"Ġmominten":9685,"Ġoantallen":9686,"ikehÃ»s":9687,"Ġideaal":9688,"Ġwylde":9689,"Ġrestau":9690,"Ġstudio":9691,"gonger":9692,"Ġswimbaden":9693,"laim":9694,"Ġynsekten":9695,"Ġbeheinen":9696,"igernÃ´ch":9697,"Ġprodukt":9698,"lichting":9699,"Ġkreas":9700,"Ġdoarpshuzen":9701,"lange":9702,"Ġlikegoed":9703,"ĠSmellinghe":9704,"Ġwenningbou":9705,"Nederland":9706,"kunde":9707,"oneel":9708,"Ġgriente":9709,"Ġklappen":9710,"ĠHaanstra":9711,"Ġlijn":9712,"lÃªzen":9713,"ĠdrÃ»chte":9714,"ĠTsjer":9715,"Ġfolgjend":9716,"besteanden":9717,"Ġbestriding":9718,"Ġsimmers":9719,"Ġstranger":9720,"ĠLandbouw":9721,"Ġdebat":9722,"Ġoanfaller":9723,"Ġelektris":9724,"ĠOratmang":9725,"ilieu":9726,"spilers":9727,"stituut":9728,"Ġoanbiede":9729,"ferbaal":9730,"Ġspelers":9731,"ĠSimon":9732,"zhei":9733,"ĠmilitÃªr":9734,"ĠBauke":9735,"ĠFeitsma":9736,"Ġwachtet":9737,"Ġvroeg":9738,"Ġferoarsake":9739,"Ġfolwoeksenen":9740,"ĠÃºtferkocht":9741,"ĠBitgum":9742,"ĠLeerdam":9743,"ĠBoonstra":9744,"Ġynskeakele":9745,"ĠZienn":9746,"Ġcoronamaatregelen":9747,"drugs":9748,"ĠJumbo":9749,"ĠAppelhof":9750,"ĠSittard":9751,"Ġgemiddeld":9752,"ĠEastenryk":9753,"ĠGalema":9754,"ĠOratmangoen":9755,"Le":9756,"Of":9757,"SG":9758,"aaf":9759,"burgum":9760,"date":9761,"daad":9762,"egeling":9763,"fabryk":9764,"ize":9765,"kamer":9766,"mming":9767,"muzyk":9768,"rels":9769,"tjes":9770,"uker":9771,"ube":9772,"Ġ56":9773,"Ġ51":9774,"Ġdep":9775,"Ġbad":9776,"Ġbrom":9777,"Ġham":9778,"eijen":9779,"Ġnasjonaal":9780,"Ġniveau":9781,"elÃ¢n":9782,"Ġkatten":9783,"state":9784,"Ġtil":9785,"ĠDra":9786,"Ġynbrek":9787,"riding":9788,"Ġep":9789,"leven":9790,"leane":9791,"Ġpa":9792,"Ġpel":9793,"lise":9794,"Ġtev":9795,"amelijk":9796,"kenner":9797,"ĠFokk":9798,"ĠFormule":9799,"issen":9800,"ĠIl":9801,"Ġlaag":9802,"Ġoanriding":9803,"Ġgemaal":9804,"Ġnetwurk":9805,"Ġferlyk":9806,"Ġferdieling":9807,"Ġferwurke":9808,"tske":9809,"ĠBli":9810,"ĠBoel":9811,"ĠBasketbal":9812,"zeker":9813,"ĠAlex":9814,"Ġneibesteanden":9815,"ĠEf":9816,"enske":9817,"universiteit":9818,"Ġcijfers":9819,"Ã´ffal":9820,"ĠKle":9821,"ĠKerk":9822,"ĠKoart":9823,"ĠJam":9824,"efkes":9825,"Ġlieder":9826,"ĠRekken":9827,"Ġcoronas":9828,"uls":9829,"uldig":9830,"agers":9831,"ekker":9832,"Ġtwang":9833,"ijnlijk":9834,"sem":9835,"Ġrioel":9836,"Ġstev":9837,"Ġberekken":9838,"rÃ»ten":9839,"ĠEkhart":9840,"ĠEkonomyske":9841,"Ġpartners":9842,"ĠÃ»ndersiker":9843,"Ġorganisearret":9844,"Ġtraint":9845,"Ġferhuze":9846,"Ġkwa":9847,"ĠAnder":9848,"perhaus":9849,"Ġrjochtsaak":9850,"Ġnedige":9851,"Ġmoandeitemiddei":9852,"Ġsoarchsintrum":9853,"Ġdelgong":9854,"fersk":9855,"Ġstrjitten":9856,"Ġroute":9857,"ĠGrand":9858,"ĠfuotbalbÃ»n":9859,"aasjet":9860,"Ġferoarjen":9861,"Ġskriuwers":9862,"Ġsituaasjes":9863,"isjatyf":9864,"Ġgevonden":9865,"Ġkultureel":9866,"ĠsÃ¢nde":9867,"rika":9868,"Ġresjerzje":9869,"Ġstimme":9870,"Ġswimmen":9871,"Ġbarren":9872,"Ġrappe":9873,"maatskip":9874,"onomy":9875,"Ġsjong":9876,"Ġferdjip":9877,"ĠgearwurkingsferbÃ¢n":9878,"ĠdÃ»bel":9879,"Ġleveret":9880,"audet":9881,"ĠReed":9882,"Ġfoarstellingen":9883,"ĠKanada":9884,"ĠgreidefÃ»gel":9885,"ĠLeeuwarder":9886,"Ġopdrachten":9887,"Ġmeinommen":9888,"ĠWarten":9889,"sprogramma":9890,"ĠCarola":9891,"Ġkaartsje":9892,"ĠCornel":9893,"Ġclubs":9894,"Ġfretten":9895,"pakket":9896,"ĠwrÃ¢ldbekerwedstriden":9897,"ĠFrouljus":9898,"Ġteloarstelling":9899,"ĠbÃ»tend":9900,"ĠtsjÃ»ge":9901,"Ġconc":9902,"kwaliteit":9903,"Ġfernielingen":9904,"Ġbegrip":9905,"Ġkostje":9906,"ventaris":9907,"Ġdemonstraasjes":9908,"Ġfantastisch":9909,"Ġpresintaasje":9910,"ferbining":9911,"Ġfruit":9912,"Ġomroppen":9913,"ĠPortuge":9914,"Ġrustig":9915,"ĠreinbÃ´geflagge":9916,"ĠPoalen":9917,"Ġiensumens":9918,"Ġtanimt":9919,"ĠJouke":9920,"Ġopfolger":9921,"ĠKinst":9922,"Ġrotonde":9923,"ĠRuslÃ¢n":9924,"Ġneedferoardering":9925,"Ġkonkurrinsje":9926,"ĠQu":9927,"Ġdiskriminaasje":9928,"Ġlaboratoar":9929,"ĠFolkssÃ»nens":9930,"ĠJillert":9931,"ĠBakkefean":9932,"ĠGrapperhaus":9933,"?'<|":9934,"hÃ´f":9935,"hoarne":9936,"ior":9937,"iver":9938,"oei":9939,"oog":9940,"prate":9941,"uter":9942,"vangen":9943,"xit":9944,"zjer":9945,"Ġarre":9946,"Ġ48":9947,"inkens":9948,"Ġfli":9949,"Ġfirt":9950,"Ġsmo":9951,"ĠsÃ»ne":9952,"Ġsommige":9953,"Ġdeur":9954,"Ġmolk":9955,"Ġbakker":9956,"Ġhoelang":9957,"Ġkroegen":9958,"ĠDutch":9959,"Ġind":9960,"rou":9961,"lecht":9962,"leggen":9963,"Ġpoer":9964,"Ġpandemy":9965,"Ġopstelling":9966,"edyk":9967,"deasten":9968,"Ġmeiwurkje":9969,"gefal":9970,"ĠSoks":9971,"Ġbestel":9972,"ĠFIDEO":9973,"issel":9974,"Ġomgeving":9975,"ĠIzo":9976,"Ġveld":9977,"Ġdernei":9978,"ĠoanhÃ¢lde":9979,"Ġferrint":9980,"Ġferdielen":9981,"eard":9982,"ĠHau":9983,"ĠBei":9984,"ĠBle":9985,"ĠBlok":9986,"ĠWel":9987,"ĠWÃ¢lden":9988,"ĠNS":9989,"ĠNee":9990,"Ġoerhinne":9991,"imd":9992,"Ġsecht":9993,"ĠEel":9994,"ĠEver":9995,"ĠÃºtrikt":9996,"idige":9997,"ĠLoek":9998,"ĠLonden":9999,"liker":10000,"Ġ130":10001,"Ġsake":10002,"ĠÃ´fbrutsen":10003,"ĠGen":10004,"ĠGytsjerk":10005,"Ġerken":10006,"ikuli":10007,"ĠVen":10008,"ĠVal":10009,"Ġharsens":10010,"skrift":10011,"ĠRes":10012,"ĠRod":10013,"ĠPh":10014,"ĠPark":10015,"utten":10016,"afel":10017,"Ġtsiis":10018,"ĠÃ»nderfre":10019,"ekke":10020,"Ġdistri":10021,"spunt":10022,"Ġvoordat":10023,"ylan":10024,"Ġhoeven":10025,"wurken":10026,"Ġsluiten":10027,"Ġoantinkens":10028,"Ġstekt":10029,"ĠEner":10030,"Ġfregen":10031,"zjes":10032,"Ġbenijd":10033,"Ġfinansier":10034,"Ġrekl":10035,"aaks":10036,"ĠÃ»ntb":10037,"ĠHarmen":10038,"rante":10039,"Ġsneontenacht":10040,"ĠHettinga":10041,"ĠÃºtsein":10042,"Ġfean":10043,"Ġferbliuw":10044,"Ġferbettere":10045,"Ġanderen":10046,"Ġlangebaan":10047,"ĠArd":10048,"ĠHoefolle":10049,"lefoan":10050,"Ġblijkt":10051,"Ġhelpferlieners":10052,"Ġoanpaste":10053,"ĠÃ»ngelokken":10054,"ĠbegÃ»nen":10055,"Ġhoarekas":10056,"Ġrun":10057,"Ġferkearde":10058,"laach":10059,"Ġbeheinde":10060,"ĠAmsterdammers":10061,"Ġduo":10062,"Ġbelutsenen":10063,"Ġmogelijkheden":10064,"Ġkreeg":10065,"Ġdrugsl":10066,"Ġgeweldige":10067,"Ġtechnyk":10068,"ĠRea":10069,"Ġtaname":10070,"Ġfoarstelle":10071,"Ġdrugshannel":10072,"Ġkenne":10073,"Ġtekene":10074,"Ġfyfde":10075,"ĠMeardere":10076,"ĠHerberg":10077,"kommod":10078,"Ġfunks":10079,"Ġboskwachter":10080,"Ġhistoarje":10081,"Ġherken":10082,"ĠWergea":10083,"Ġgarande":10084,"Ġslotfaze":10085,"Ġferdwynt":10086,"Ġbruorren":10087,"Ġstreekrjocht":10088,"ĠNOC":10089,"ĠreedrydbÃ»n":10090,"ĠMichel":10091,"kwart":10092,"ĠSteateleden":10093,"Ġallerlei":10094,"NSF":10095,"chelling":10096,"ĠTagelyk":10097,"Ġtsjinstanners":10098,"Ġdriuwend":10099,"Ġflakby":10100,"Ġneedsaaklik":10101,"Ġfavoryt":10102,"Ġkontenerramp":10103,"Ġjuridysk":10104,"ĠÃºtnÃ»ge":10105,"gefaar":10106,"ĠIJs":10107,"Ġrichting":10108,"ĠÃºtsÃ»ndering":10109,"presidint":10110,"Ġyndividuele":10111,"Ġtemperatueren":10112,"Ġstarten":10113,"ĠÃºtwreiding":10114,"ĠRiemer":10115,"ĠWieling":10116,"ĠBokma":10117,"Ġprivacy":10118,"Ġskulden":10119,"ĠElfstedentocht":10120,"Ġwensoarchsintrum":10121,"Ġonderste":10122,"Ġmelkfee":10123,"Ġmoderne":10124,"Ġhjiroer":10125,"Ġbemanning":10126,"kompleks":10127,"Ġkjifkrobbe":10128,"ĠÃºtroppen":10129,"ĠCourant":10130,"zheimer":10131,"ĠJamie":10132,"ĠRekkenkeamer":10133,"ĠIzore":10134,"ĠEverhard":10135,"Ek":10136,"Nyk":10137,"Un":10138,"bur":10139,"boal":10140,"bran":10141,"dings":10142,"dragen":10143,"fÃªst":10144,"grond":10145,"ial":10146,"js":10147,"jal":10148,"kafee":10149,"laat":10150,"lyt":10151,"mom":10152,"mingen":10153,"ore":10154,"otste":10155,"sup":10156,"toe":10157,"zier":10158,"Ġ66":10159,"ĠâĢ":10160,"Ġdik":10161,"Ġdup":10162,"erst":10163,"anker":10164,"arren":10165,"Ġfet":10166,"Ġfjilden":10167,"Ġfeiten":10168,"Ġshow":10169,"Ġdeaden":10170,"Ġdezelfde":10171,"Ġwiss":10172,"Ġmat":10173,"Ġmik":10174,"Ġoud":10175,"Ġoriz":10176,"ĠbÃ¢n":10177,"Ġbul":10178,"ĠbÃ»nscoach":10179,"atoaren":10180,"Ġheden":10181,"Ġkites":10182,"Ġkoka":10183,"stiid":10184,"stÃºn":10185,"Ġgrap":10186,"Ġtunnel":10187,"ĠDon":10188,"ĠDieren":10189,"Ġynbraken":10190,"Ġiso":10191,"leazen":10192,"lies":10193,"limaat":10194,"ondere":10195,"ĠDeze":10196,"amine":10197,"gewaasje":10198,"Ġfoarrang":10199,"ĠSj":10200,"ĠbeÃ¤":10201,"Ġlading":10202,"Ġvorm":10203,"yselde":10204,"Ġalgemeen":10205,"Ġferstannich":10206,"Ġferbouwing":10207,"tent":10208,"ĠMaat":10209,"ĠMau":10210,"ĠWieren":10211,"ĠNiet":10212,"steam":10213,"ĠEric":10214,"Ġzaak":10215,"ĠÃºtinoar":10216,"ĠÃºtwedstriid":10217,"ĠÃ»nmooglik":10218,"idich":10219,"Ġasfalt":10220,"wezig":10221,"Ġcom":10222,"Ġcapaciteit":10223,"ĠKuorbal":10224,"eslach":10225,"ĠTom":10226,"ĠTsje":10227,"Ġplus":10228,"ĠÃ´fset":10229,"Ġerbij":10230,"Ġ''":10231,"ĠVit":10232,"Ġras":10233,"Ġlijen":10234,"Ġprostit":10235,"Ġproject":10236,"ĠRKC":10237,"achters":10238,"Ġearnst":10239,"Ġwaardoor":10240,"ĠIntern":10241,"Ġbegonnen":10242,"enno":10243,"Ġbedri":10244,"Ġsneu":10245,"iov":10246,"Ġvertellen":10247,"rekking":10248,"ĠSee":10249,"Ġpartikuli":10250,"Ġgewend":10251,"manager":10252,"Ġboeten":10253,"skea":10254,"Ġbestie":10255,"ĠbrÃ¢nsj":10256,"Ġflat":10257,"Ġraar":10258,"werking":10259,"Ġeinliks":10260,"Ġeiniget":10261,"Ġdienen":10262,"ĠJanssen":10263,"itsjerke":10264,"ĠÃ»ndersykjen":10265,"ĠÃºtsl":10266,"Ġtreft":10267,"Ġtreffe":10268,"Ġtinte":10269,"Ġafhankelijk":10270,"ĠSpan":10271,"ict":10272,"Ġjierrenlang":10273,"ĠStefan":10274,"smaat":10275,"Ġfamyljes":10276,"Ġheechwurker":10277,"Ġbasisskoallen":10278,"Ġdrage":10279,"merking":10280,"ĠHege":10281,"Ġkopgroep":10282,"Ġbuske":10283,"ĠHout":10284,"ĠOerterp":10285,"Ġtopsport":10286,"ĠFrieslandCamp":10287,"Ġsjauffeurs":10288,"landen":10289,"ĠVerbeek":10290,"ĠTegearre":10291,"Ġstjoerde":10292,"agemaal":10293,"Ġbreder":10294,"Ġynspek":10295,"ĠPlysje":10296,"Ġsamenleving":10297,"Ġkeatspartij":10298,"speeld":10299,"ĠWarns":10300,"Ġstrafskop":10301,"Ġriedsgearkomste":10302,"ĠWerf":10303,"Ġferspriede":10304,"Ġalternativen":10305,"Ġoerlibje":10306,"Ġferantwurdlikheid":10307,"Ġynvestearje":10308,"ferliening":10309,"Ġsechsde":10310,"ĠSteatelid":10311,"Ġopsmiten":10312,"Ġbelesting":10313,"ĠPatrick":10314,"Ġbedriuwslibben":10315,"ĠGemeenten":10316,"Ġskilderij":10317,"belesting":10318,"Ġstipet":10319,"Ġzomaar":10320,"Ġferkiezing":10321,"ĠWageningen":10322,"doarp":10323,"Ġskouders":10324,"duksje":10325,"ĠProvinsjehÃ»s":10326,"Ġhimpkwe":10327,"ĠBouwmeester":10328,"mjittich":10329,"Ġkursus":10330,"Ġdisc":10331,"Ġynfolling":10332,"ĠdÃºdlikens":10333,"ĠLimboarch":10334,"Ã¨re":10335,"Ġfentilaasje":10336,"Ġljipaai":10337,"Ġdirect":10338,"ĠfinanciÃ«le":10339,"ĠEigener":10340,"Ġregistrearre":10341,"ĠnÃ»mers":10342,"Ġrekening":10343,"Ġdemok":10344,"Ġflaggen":10345,"ĠDalstra":10346,"ĠhygiÃ«ne":10347,"Ġynsidinten":10348,"ĠNordwin":10349,"ĠSweed":10350,"ĠAvine":10351,"ĠTerschelling":10352,"Ġvaccin":10353,"Ġorizjin":10354,"ĠFrieslandCampina":10355,"051":10356,"651":10357,"Af":10358,"Cambuur":10359,"Ear":10360,"Te":10361,"back":10362,"eke":10363,"ektor":10364,"ffen":10365,"jale":10366,"kbaar":10367,"lon":10368,"ow":10369,"pun":10370,"uder":10371,"woord":10372,"zond":10373,"Ġup":10374,"erten":10375,"iny":10376,"inus":10377,"anc":10378,"offers":10379,"Ġseld":10380,"Ġsco":10381,"Ġbije":10382,"Ġboeke":10383,"ĠhÃ´f":10384,"chje":10385,"Ġkiel":10386,"Ġkep":10387,"alich":10388,"ĠDok":10389,"ĠDennis":10390,"Ġynh":10391,"oarre":10392,"Ġeefkes":10393,"ĠophÃ¢lden":10394,"nemen":10395,"asiteit":10396,"urne":10397,"dek":10398,"aksel":10399,"ĠDekker":10400,"Ġfoarkomt":10401,"ĠSwarte":10402,"Ġbeurs":10403,"ĠFrits":10404,"isters":10405,"isearje":10406,"Ġomstanners":10407,"Ġve":10408,"ĠferrÃ»n":10409,"oekt":10410,"ĠHem":10411,"ĠBS":10412,"ĠBla":10413,"ĠBaudet":10414,"ĠWit":10415,"Ġbykaam":10416,"ĠNL":10417,"ĠNormaal":10418,"ĠAch":10419,"Ġzagen":10420,"ĠÃºtjouwer":10421,"ĠÃºtmakke":10422,"ĠOar":10423,"Ġskries":10424,"ĠJes":10425,"ĠJud":10426,"Ġdood":10427,"Ġweryn":10428,"Ġwerden":10429,"Ġsprekt":10430,"ĠRonald":10431,"ertoernoai":10432,"achel":10433,"Ġcoronast":10434,"ĠYv":10435,"utraal":10436,"Ġearen":10437,"oton":10438,"ipp":10439,"ĠMarit":10440,"Ġditsoarte":10441,"oane":10442,"Ġtwongen":10443,"eidzjen":10444,"ogroep":10445,"Ġvoorstellen":10446,"seaan":10447,"igd":10448,"ĠIngels":10449,"bestri":10450,"Ġkonsint":10451,"aktiviteiten":10452,"Ġmanifest":10453,"Ġberikber":10454,"ferienings":10455,"anners":10456,"stellend":10457,"Ġverl":10458,"Ġveranderen":10459,"Ġbetsjin":10460,"Ġbellen":10461,"Ġbeleid":10462,"Ġbelange":10463,"daten":10464,"box":10465,"Ġiepenjen":10466,"delijke":10467,"head":10468,"ĠbrÃ¢nstichting":10469,"jochters":10470,"Ġorganiseren":10471,"ĠÃ»ntf":10472,"learaar":10473,"0800":10474,"ukken":10475,"plannen":10476,"plaats":10477,"klok":10478,"ĠJohann":10479,"ĠSchur":10480,"Ġwilden":10481,"Ġfertriet":10482,"Ġdoelgroep":10483,"Ġgeduld":10484,"ĠSteensma":10485,"Ġhiere":10486,"Ġfroulike":10487,"Ġschip":10488,"Ġpositieve":10489,"Ġgroepkes":10490,"fangen":10491,"model":10492,"Ġfallyt":10493,"Ġjongste":10494,"Ġfuotballe":10495,"lachjouwers":10496,"sintra":10497,"Ġregeljouwing":10498,"Ġprev":10499,"pelijke":10500,"Ġonzeker":10501,"ĠHecke":10502,"trein":10503,"Ġynsetten":10504,"Ġvolgend":10505,"Ġbewarre":10506,"Ġargewaasje":10507,"Ġsadwaande":10508,"Ġaltiten":10509,"Marie":10510,"ĠkreÃ«":10511,"ĠDaarna":10512,"roege":10513,"ĠSneek":10514,"Ġstjoeren":10515,"Ġcamper":10516,"Ġyndie":10517,"Ġstekpartij":10518,"Ġzorgt":10519,"ĠVeenker":10520,"ĠUndernimmers":10521,"ĠReade":10522,"waarm":10523,"Ġagint":10524,"Ġaginten":10525,"Ġsuvel":10526,"Ġfersoarget":10527,"Ġopposysje":10528,"Ġtanaam":10529,"Ġfoarstellen":10530,"izzing":10531,"Ġ1942":10532,"ĠferpleechhÃ»zen":10533,"ĠSwan":10534,"Ġynstit":10535,"ĠTheun":10536,"outum":10537,"hinklike":10538,"Ġkwetsber":10539,"Ġatt":10540,"Ġhanthavenje":10541,"teams":10542,"Ġbakje":10543,"ĠdrÃ»ge":10544,"ĠLange":10545,"ĠKommisje":10546,"ferlies":10547,"Ġbeslist":10548,"Ġeksamen":10549,"Ġstuollen":10550,"ĠMartinitsjerke":10551,"Ġvoelen":10552,"ĠwrÃ¢l":10553,"Ġkonklude":10554,"Ġdrones":10555,"Ġstruktuer":10556,"Ġtrend":10557,"ĠÃ´fwachtsjen":10558,"Ġbeneamd":10559,"ĠthÃºsk":10560,"Ġklimaatferoar":10561,"Ġkwealik":10562,"kanaal":10563,"matyk":10564,"problemen":10565,"ĠrÃ´p":10566,"ĠMilje":10567,"ĠFÃ»gelbeskerming":10568,"ĠMedia":10569,"gefoel":10570,"Ġsymboal":10571,"Ġyntinsyf":10572,"Ġannulear":10573,"ĠKrÃºs":10574,"Ġautomobilist":10575,"ĠJanneke":10576,"ĠWoudagemaal":10577,"ĠRijks":10578,"Ġprofesjonele":10579,"Ġvriend":10580,"Ġmedisinen":10581,"Ġproteste":10582,"ĠHooge":10583,"ĠOtter":10584,"ĠArnhem":10585,"ĠFytsalvestÃªdetocht":10586,"Ġtariedingen":10587,"Ġmondkapje":10588,"eksjesyk":10589,"Ġekstern":10590,"Ġknibbel":10591,"Ġmeegemaakt":10592,"Ġpoppo":10593,"Ġpleitet":10594,"ĠHoareka":10595,"Ġpakes":10596,"ĠkokaÃ¯ne":10597,"'-":10598,"Ast":10599,"LU":10600,"MI":10601,"WA":10602,"ah":10603,"df":10604,"hen":10605,"ieder":10606,"jert":10607,"kust":10608,"las":10609,"last":10610,"leit":10611,"mings":10612,"nal":10613,"namme":10614,"rel":10615,"si":10616,"utear":10617,"uiden":10618,"wit":10619,"woners":10620,"Ġachte":10621,"Ġdrompel":10622,"erstra":10623,"ofer":10624,"arije":10625,"Ġsyd":10626,"Ġdelen":10627,"Ġike":10628,"Ġwiet":10629,"Ġwette":10630,"Ġmaten":10631,"Ġob":10632,"Ġoude":10633,"Ġoersjoch":10634,"Ġoalje":10635,"Ġbas":10636,"Ġner":10637,"Ġkafees":10638,"stal":10639,"Ġgister":10640,"alm":10641,"ĠDroege":10642,"Ġynstelling":10643,"Ġynbraak":10644,"Ã»ken":10645,"Ġoptein":10646,"lieg":10647,"aking":10648,"Ġfoard":10649,"Ã»ngelok":10650,"ĠSad":10651,"ĠSyl":10652,"ĠSmid":10653,"Ġbesteld":10654,"ĠbehÃ¢ld":10655,"ĠFili":10656,"Ġleren":10657,"Ġlukt":10658,"Ġvrouwen":10659,"Ġvader":10660,"Ġoanfallen":10661,"Ġoanmerking":10662,"Ġferjitte":10663,"ĠHu":10664,"ĠMisschien":10665,"ĠBal":10666,"ĠBor":10667,"ĠBureau":10668,"ĠBennie":10669,"ĠWater":10670,"ĠWopke":10671,"Ġbytiden":10672,"Ġseinen":10673,"Ġwegere":10674,"ĠEvert":10675,"Ġzicht":10676,"ruim":10677,"Ã¢lde":10678,"ĠLy":10679,"ĠLara":10680,"ĠOM":10681,"ĠOpen":10682,"ĠOss":10683,"Ġrem":10684,"Ġcent":10685,"ĠKamer":10686,"ĠKwad":10687,"ĠKuiken":10688,"likt":10689,"ĠTran":10690,"ĠÃ´fst":10691,"ĠJoch":10692,"ĠGiov":10693,"Ġdone":10694,"Ġspoaren":10695,"Ġsprekke":10696,"Ġspringen":10697,"Ġraken":10698,"Ġliken":10699,"ĠRis":10700,"Ġbeswier":10701,"astricht":10702,"ĠCon":10703,"Ġmakkelijk":10704,"Ġbliek":10705,"Ġvoort":10706,"Ġklass":10707,"riuwer":10708,"inkels":10709,"Ġactie":10710,"anni":10711,"Ġhiem":10712,"Ġbetrokken":10713,"Ãºster":10714,"boom":10715,"Ġtribu":10716,"ĠWestra":10717,"Ġgrootste":10718,"Ġboot":10719,"aire":10720,"ĠhjirÃ»nder":10721,"lijnen":10722,"estival":10723,"Deze":10724,"Ġtalitte":10725,"Ġword":10726,"Ġrac":10727,"ĠMeiwurkers":10728,"learm":10729,"ĠJood":10730,"Ġwilt":10731,"uiste":10732,"Ġafspraken":10733,"ĠSpoelstra":10734,"issie":10735,"Ġbegjinnen":10736,"help":10737,"ugger":10738,"Ġmedi":10739,"Ġadvizen":10740,"Ġadviseur":10741,"Ġskema":10742,"Ġfuotballers":10743,"Ġtoeristyske":10744,"Ġprioriteit":10745,"lisse":10746,"ĠdÃªrneist":10747,"ĠElke":10748,"ĠDÃºtsk":10749,"Ġparse":10750,"Ġbetellet":10751,"Ġkampioens":10752,"ĠNoardburgum":10753,"Ġprem":10754,"Ġprestaasje":10755,"Ġoanpakke":10756,"Ġferklearre":10757,"markt":10758,"Ġtelt":10759,"Ġjunioaren":10760,"tsjinst":10761,"tree":10762,"kapasiteit":10763,"Ġgezet":10764,"iliteit":10765,"Ġlobby":10766,"Ġstimd":10767,"bierrum":10768,"stregeling":10769,"Ġfergun":10770,"Ġstride":10771,"Ġkreative":10772,"Ġnaast":10773,"Ġaardige":10774,"roeger":10775,"ĠWijf":10776,"ĠTeake":10777,"Ġfari":10778,"rjochten":10779,"Ġbehoe":10780,"Ġfoarmje":10781,"ĠHellinga":10782,"Ġkapper":10783,"Ġfoelen":10784,"Ġgerjocht":10785,"Ġvindt":10786,"ĠWiebes":10787,"ĠHaach":10788,"reiz":10789,"ĠÃ»nderdielen":10790,"Ġeffect":10791,"Ġantwurden":10792,"wethÃ¢lder":10793,"Ġminste":10794,"ĠÃ»nwisse":10795,"ĠCitrix":10796,"Ġredaksje":10797,"Ġgroeien":10798,"Ġhotels":10799,"ĠJorwert":10800,"Ġstukje":10801,"ĠÃ»nderdÃ»k":10802,"isseur":10803,"Ġkwartfinale":10804,"ĠMaastricht":10805,"Ġziekte":10806,"Ġamateurf":10807,"Ġduorsumens":10808,"Ġpromovearje":10809,"nimmend":10810,"Ġsantich":10811,"Ġjuridyske":10812,"Ġgezondheid":10813,"advys":10814,"Ġkandidaat":10815,"ĠKoarnwer":10816,"Ġspringe":10817,"Ġbiosk":10818,"Ġtichterby":10819,"Ġdegradaasje":10820,"Ġbegrijpen":10821,"Ġfrisse":10822,"ĠDÃªrop":10823,"Ġyngewikkeld":10824,"Ġoarspronklik":10825,"alyze":10826,"foarsjenning":10827,"Ġagraryske":10828,"ĠMitchell":10829,"Ġmaterialen":10830,"Ġsanit":10831,"Ġeconom":10832,"ĠYsbrand":10833,"ĠLetitia":10834,"ĠlearkrÃªften":10835,"ĠDonkerbroek":10836,"ĠHongarije":10837,"ĠFokkinga":10838,"Ġdrugslab":10839,"Ġfunksjone":10840,"ĠÃ»ntfongen":10841,"ĠKwadrant":10842,"ĠGiovanni":10843,"'.\"<|":10844,"Mijn":10845,"UMO":10846,"bÃºsje":10847,"cel":10848,"eens":10849,"flier":10850,"hÃ¢n":10851,"hats":10852,"iro":10853,"jar":10854,"jÃªre":10855,"ksjes":10856,"kmaar":10857,"ls":10858,"nivo":10859,"pels":10860,"pleat":10861,"pleech":10862,"was":10863,"wachters":10864,"zend":10865,"zij":10866,"Ã¸":10867,"Ġut":10868,"ener":10869,"Ġdonker":10870,"Ġfout":10871,"Ġmus":10872,"Ġot":10873,"Ġbom":10874,"etitie":10875,"chief":10876,"ĠkÃ¢ld":10877,"ynd":10878,"Ġtad":10879,"Ġtou":10880,"ĠDichter":10881,"Ġinmiddels":10882,"Ġyngean":10883,"Ġynrjochting":10884,"Ġynnov":10885,"Ġynventaris":10886,"Ġeval":10887,"keakele":10888,"ingel":10889,"nemer":10890,"Ġtebek":10891,"aslach":10892,"akkoart":10893,"Ġfoarbylden":10894,"derje":10895,"derjen":10896,"ĠFlo":10897,"Ġlul":10898,"Ġvoeren":10899,"Ġfermoed":10900,"Ġferlitte":10901,"earden":10902,"Ġstru":10903,"Ġstond":10904,"ĠHen":10905,"ĠHeij":10906,"Ġjuiste":10907,"ĠMenno":10908,"ĠBak":10909,"ĠBram":10910,"ĠNico":10911,"ĠAal":10912,"ĠEU":10913,"ĠEm":10914,"Ġzul":10915,"ida":10916,"ĠLear":10917,"okke":10918,"Ġrep":10919,"opvang":10920,"ĠKammen":10921,"ĠKelder":10922,"Ġ125":10923,"Ġsko":10924,"ĠÃ´fjÃ»n":10925,"ĠJon":10926,"ĠJager":10927,"appar":10928,"Ġerop":10929,"Ġervan":10930,"Ġernst":10931,"Ġrasisme":10932,"ktalige":10933,"ĠRich":10934,"ĠPVV":10935,"irc":10936,"ummear":10937,"Ġwaarde":10938,"Ġlede":10939,"Ġleau":10940,"oerheid":10941,"bbing":10942,"Ġgemeentlike":10943,"Ġvoorbij":10944,"igranten":10945,"Ġrike":10946,"Ġonver":10947,"Ġhoek":10948,"Ġwurkplak":10949,"Ġkondysje":10950,"ĠAlkmaar":10951,"Ġsteaten":10952,"Ġverk":10953,"rekte":10954,"Ġkeamers":10955,"Ã»ndernimmer":10956,"Ġiepenet":10957,"Ġbestaan":10958,"Ġbestuur":10959,"Ġfinales":10960,"lands":10961,"foaren":10962,"Ġfile":10963,"Ġskoaljier":10964,"ĠwetterstÃ¢n":10965,"Ġwetterpeil":10966,"wachten":10967,"Ġflammen":10968,"Ġbinnenkaam":10969,"ĠHarkema":10970,"Ġmisstannen":10971,"situ":10972,"ĠSawol":10973,"ĠSaail":10974,"Ġnuvere":10975,"ĠSyb":10976,"Ġoveral":10977,"Ġtreast":10978,"egd":10979,"Ġkrijst":10980,"ytburo":10981,"ica":10982,"Ġgedachte":10983,"ĠbrÃ»kte":10984,"Ġseizoenen":10985,"Ġdellein":10986,"mogen":10987,"mobyl":10988,"rinnen":10989,"Ġgauris":10990,"proses":10991,"ĠefterÃºt":10992,"noaze":10993,"Ġwichtiger":10994,"Ġreitsjen":10995,"ĠTrochdat":10996,"Ġhearden":10997,"ĠJeugd":10998,"Ġkoarter":10999,"tsein":11000,"ĠUniversiteit":11001,"Ġknip":11002,"Ġknoop":11003,"Ġambassadeur":11004,"Ġiisstadion":11005,"Ġstimming":11006,"Ġkleuren":11007,"strjitten":11008,"atsoen":11009,"Ġ2008":11010,"Ġmanieren":11011,"Ġgeheim":11012,"ĠFred":11013,"Ġopsykje":11014,"Ġwerklik":11015,"Ġinisjatyfnimmer":11016,"ĠFrjentsjerter":11017,"ĠBrexit":11018,"bbegea":11019,"Ġmotiv":11020,"Ġsterkste":11021,"stappe":11022,"Ġbrede":11023,"Ġfearboat":11024,"Ġslagje":11025,"Ġskiedsrjochter":11026,"Ġtekeningen":11027,"Ġhegeskoalle":11028,"ologen":11029,"ĠdÃªroan":11030,"Ġpleatslike":11031,"Ġliedt":11032,"Ġdefinitive":11033,"ĠTsjummear":11034,"iÃ«nt":11035,"Ġbeschermen":11036,"ĠhÃ¢lding":11037,"Ġferbetterje":11038,"fraksjefoarsitter":11039,"Ġfiskje":11040,"Ġsnappe":11041,"Ġmeidocht":11042,"Ġleeftyd":11043,"Ġkeninginne":11044,"hawwer":11045,"ĠChrist":11046,"Ġtemjitte":11047,"Ġtrof":11048,"ĠHielendal":11049,"ĠFlor":11050,"Ġmessen":11051,"Ġbelibje":11052,"Ġferkiezingen":11053,"Ġdrinke":11054,"ĠTjongers":11055,"ĠFriso":11056,"ĠFrisia":11057,"ĠWagenborg":11058,"Ġtwivels":11059,"Ġkerst":11060,"Ġfierljep":11061,"ĠGroeneveld":11062,"Ġgeneraasje":11063,"Ġsocial":11064,"ĠRoyal":11065,"ĠreinbÃ´geprovinsje":11066,"Ġverantwoord":11067,"Ġontwikkeling":11068,"ĠLauwersmar":11069,"ĠLauwerseach":11070,"Ġsympt":11071,"ĠÃ»nÃ´fhinklike":11072,"ĠPolytburo":11073,"ferhalen":11074,"kolleezje":11075,"ĠKrijger":11076,"standigheden":11077,"Ġoerdroegen":11078,"Ġsoldaten":11079,"Ġrespekt":11080,"ĠwrÃ¢ldkampioen":11081,"krÃªft":11082,"ĠLokaal":11083,"ĠRuijven":11084,"Ã»ntwikkeling":11085,"Ġsjonge":11086,"ĠoertsjÃ»ge":11087,"Ġlocatie":11088,"Friesland":11089,"ĠÃ»ntbleat":11090,"Ġpompe":11091,"Ġfearnsjier":11092,"Ġbudzjet":11093,"Ġfersoargingste":11094,"ĠLucas":11095,"Ġabonne":11096,"ĠÃ»ntromme":11097,"ĠferhÃ¢lding":11098,"aranta":11099,"stuollen":11100,"terapeut":11101,"ĠGrijpstra":11102,"Ġbeschikbaar":11103,"Ġiepenloftsp":11104,"Ġelektrisiteit":11105,"ĠAnderlecht":11106,"maatskippij":11107,"ĠbÃ»tendoar":11108,"Ġhimpkwekerij":11109,"ĠDroegeham":11110,"ĠSaailÃ¢n":11111,"ĠTsjummearum":11112,"Alex":11113,"BT":11114,"Door":11115,"OA":11116,"Ste":11117,"Tube":11118,"aast":11119,"azer":11120,"bok":11121,"doen":11122,"diep":11123,"egel":11124,"ekt":11125,"fde":11126,"him":11127,"lts":11128,"mam":11129,"nik":11130,"oris":11131,"poort":11132,"ser":11133,"sjoen":11134,"swert":11135,"top":11136,"tende":11137,"uort":11138,"wan":11139,"zaak":11140,"Ġ46":11141,"testen":11142,"Ġdor":11143,"ĠdÃ»n":11144,"erden":11145,"inings":11146,"Ġflearm":11147,"Ġsinds":11148,"Ġwan":11149,"Ġwid":11150,"Ġmaster":11151,"Ġmoard":11152,"Ġmorgen":11153,"Ġbron":11154,"Ġbrutsen":11155,"Ġherstel":11156,"Ġhoger":11157,"etra":11158,"Ġname":11159,"eljen":11160,"ĠDuit":11161,"ĠDales":11162,"rot":11163,"route":11164,"ria":11165,"riks":11166,"Ġeast":11167,"leaster":11168,"Ġpiken":11169,"Ġopfange":11170,"keunst":11171,"Ġteplak":11172,"Ġtegelijk":11173,"Ġtekoarten":11174,"ieveld":11175,"ammel":11176,"geand":11177,"Ġfoarme":11178,"Ġfoarried":11179,"Ġbez":11180,"Ġbemann":11181,"ĠFal":11182,"Ġomzet":11183,"ĠIm":11184,"Ġvaren":11185,"Ġgeunst":11186,"Ġgebouw":11187,"Ġferwi":11188,"Ġferlitten":11189,"earen":11190,"Ġstren":11191,"Ġstifting":11192,"ĠHas":11193,"ĠHessel":11194,"inske":11195,"ĠWike":11196,"ĠNacht":11197,"ĠItzh":11198,"ĠAusma":11199,"ĠEven":11200,"Ġzw":11201,"ĠÃºtd":11202,"ĠÃºtgong":11203,"ĠÃºtkomt":11204,"ĠLit":11205,"ĠLinde":11206,"enster":11207,"ĠOk":11208,"weinsj":11209,"Ġrefal":11210,"ĠKi":11211,"ĠKel":11212,"ĠKoo":11213,"Ġ110":11214,"Ġplom":11215,"Ġsketten":11216,"Ġskrassen":11217,"ĠJut":11218,"ĠJaarsma":11219,"ĠGoot":11220,"ĠVrij":11221,"ĠVliet":11222,"Ġspand":11223,"Ġhark":11224,"ĠrÃªd":11225,"Ġoardiel":11226,"ĠPres":11227,"Ġwaarom":11228,"Ġwaarman":11229,"Ġearre":11230,"afÃ©":11231,"ulÃªre":11232,"Ġsowies":11233,"telingen":11234,"oanne":11235,"oannen":11236,"ĠCap":11237,"berjocht":11238,"Ġvoorz":11239,"Ġhoeft":11240,"Ġaant":11241,"Ġkonsum":11242,"Ġtab":11243,"Ġsile":11244,"Ġsied":11245,"Ġtsjinnet":11246,"riuwing":11247,"Ġbegint":11248,"Ġ2011":11249,"ĠfolhÃ¢lde":11250,"Ġfrees":11251,"Ġverpleeg":11252,"tersÃ¢n":11253,"fallende":11254,"bourne":11255,"Ġpersoneel":11256,"rachten":11257,"Ġbekijken":11258,"ĠStoel":11259,"ĠStroet":11260,"foarming":11261,"selen":11262,"ĠprovinsjehÃ»s":11263,"ĠFoardat":11264,"ĠÃ»ntheffing":11265,"ĠbinnenÃºt":11266,"fiering":11267,"rans":11268,"ĠAssen":11269,"Ġmisd":11270,"situaasje":11271,"ĠJobbegea":11272,"ĠSchuur":11273,"ĠÃºtskeakele":11274,"rump":11275,"Ġrjochtsje":11276,"Ġferboud":11277,"gebrÃ»k":11278,"ferseker":11279,"Ġstrannen":11280,"Ġsnapt":11281,"Ġleard":11282,"ĠSnitsers":11283,"ĠTwente":11284,"aasd":11285,"ikem":11286,"ĠEllen":11287,"ĠBerlts":11288,"Ġfeiliger":11289,"Ġyntro":11290,"Ġbepraat":11291,"ĠKNMI":11292,"geloks":11293,"Ġpleatste":11294,"ĠUnders":11295,"Ġgriep":11296,"Ġkopte":11297,"uwerij":11298,"ĠRuth":11299,"Ġsjitten":11300,"besit":11301,"Ġredens":11302,"Ġunan":11303,"ĠlÃªsten":11304,"ĠBrÃ¢n":11305,"Ġroppen":11306,"winst":11307,"winter":11308,"Ġmaksimale":11309,"Ġdemonstr":11310,"Ġekonomysk":11311,"Ġhichtepunt":11312,"Ġgaos":11313,"Ġmienskiplike":11314,"Ġhuidige":11315,"Ġkeatse":11316,"Ġkaartferkeap":11317,"Ġreizgjen":11318,"Ġoandien":11319,"Ġspeci":11320,"Ġflechtling":11321,"Ġartikel":11322,"Ġoptrede":11323,"Ġkuierders":11324,"Ġmoaier":11325,"ĠSurch":11326,"Ġferlearen":11327,"ĠBijma":11328,"ĠFeanster":11329,"pakken":11330,"Ġkeatsferiening":11331,"ĠÃ»ntsn":11332,"ĠFroukje":11333,"Ġautomatysk":11334,"Ġconst":11335,"Ġlichaam":11336,"ĠRoest":11337,"azens":11338,"ĠbÃ»tenlÃ¢nske":11339,"Ġfaksinaasje":11340,"ĠOrganis":11341,"Ġvaker":11342,"Ġsalaris":11343,"ĠMax":11344,"ĠMelbourne":11345,"Ġkriminaliteit":11346,"Ġbijzondere":11347,"Ġkompleet":11348,"ĠWijnstra":11349,"Ġdriuwende":11350,"Ġoanbefel":11351,"sporters":11352,"ĠExpo":11353,"Ġdrama":11354,"Ġgedichten":11355,"Ġopromme":11356,"Ġwinsk":11357,"Ġtickets":11358,"ĠMenaam":11359,"Ġskuldich":11360,"ĠJoure":11361,"ĠoertrÃªding":11362,"ĠwrÃ¢ldkampioenskip":11363,"ĠGemeentebelangen":11364,"ĠBednar":11365,"Ġvoedselbank":11366,"ĠBesikers":11367,"Ġspeelt":11368,"ĠSalang":11369,"Ġervaring":11370,"Ġpensjoen":11371,"Ġmaatschappij":11372,"ĠSineeske":11373,"ĠMiranda":11374,"Ġfasili":11375,"ynsidint":11376,"Ġdrink":11377,"Ġcrow":11378,"Ġverantwoordelijkheid":11379,"ĠYouTube":11380,"Ġdossier":11381,"Ġcontainers":11382,"robiolooch":11383,"ĠEagles":11384,"Ġtradisjonele":11385,"AST":11386,"ĠBijlsma":11387,"ĠTsjerken":11388,"Ġpeloton":11389,"ĠCornelis":11390,"ĠPortugeeske":11391,"Ġwissichheid":11392,"ĠTsjech":11393,"ĠSchurer":11394,"Ġprevint":11395,"ĠHoogeveen":11396,"ĠJoodse":11397,"ĠKoarnwertersÃ¢n":11398,"Alexander":11399,"ĠItzhak":11400,"Ġsowieso":11401,"ĠStroetinga":11402,"ĠBednarek":11403,"PLU":11404,"Troch":11405,"bef":11406,"cz":11407,"cces":11408,"fjoer":11409,"famylje":11410,"halen":11411,"ibel":11412,"kÃ¢ns":11413,"lasse":11414,"linde":11415,"nde":11416,"print":11417,"polder":11418,"raten":11419,"side":11420,"uzen":11421,"ww":11422,"zame":11423,"Ġ41":11424,"Ġ342":11425,"Ġda":11426,"Ġdw":11427,"Ġdolf":11428,"Ġdyselde":11429,"erts":11430,"Ġfen":11431,"Ġfel":11432,"Ġmult":11433,"Ġban":11434,"Ġbil":11435,"Ġbag":11436,"Ġhoud":11437,"Ġheite":11438,"Ġnut":11439,"ĠnÃªsten":11440,"Ġkopp":11441,"Ġgif":11442,"Ġtru":11443,"Ġtimmer":11444,"ĠDiel":11445,"ĠDiks":11446,"Ġynste":11447,"rook":11448,"oare":11449,"oarde":11450,"Ġess":11451,"leaze":11452,"Ã»te":11453,"Ġpei":11454,"Ġpyl":11455,"Ġpaden":11456,"reem":11457,"Ġophelje":11458,"iti":11459,"deb":11460,"ĠDeelen":11461,"ĠSig":11462,"ĠSher":11463,"ĠSjoernaal":11464,"ĠFraksje":11465,"ĠFoppe":11466,"ĠFDF":11467,"ĠFestival":11468,"Ġlait":11469,"jogge":11470,"Ġdertig":11471,"Ġgeast":11472,"ĠgeÃ¯n":11473,"Ġalris":11474,"Ġferl":11475,"Ġferve":11476,"Ġsticht":11477,"ĠHal":11478,"ĠHou":11479,"ĠHaul":11480,"ĠHay":11481,"Ġekstre":11482,"ĠMuzyk":11483,"ĠWass":11484,"ĠWurd":11485,"ĠWielen":11486,"ĠWMO":11487,"Ġoergong":11488,"ĠAqu":11489,"ĠAhead":11490,"Ġsep":11491,"Ġwegge":11492,"ĠEst":11493,"Ã´v":11494,"Ã´les":11495,"Ġzet":11496,"ĠLut":11497,"ense":11498,"ĠOe":11499,"Ġhetzelfde":11500,"ĠKoot":11501,"ĠTrump":11502,"ĠÃ´ft":11503,"ĠÃ´frÃ»n":11504,"ĠÃ´fnommen":11505,"ĠJasper":11506,"Ġheat":11507,"ikant":11508,"ikaasjet":11509,"Ġtrochhinne":11510,"efer":11511,"Ġvanwege":11512,"ĠReder":11513,"ument":11514,"Ġkrist":11515,"ĠYchten":11516,"Ġwaarbij":11517,"Ġbesetter":11518,"afersjoch":11519,"otten":11520,"ĠYnd":11521,"ĠÃ»ndertekene":11522,"ĠMart":11523,"Ġtwat":11524,"artiids":11525,"berch":11526,"ograf":11527,"vee":11528,"ĠbrÃ»n":11529,"Ġvooruit":11530,"arrest":11531,"Ġberger":11532,"ĠDÃªrfan":11533,"itee":11534,"Ġveren":11535,"Ġvervoer":11536,"Ġverzeker":11537,"Ġbetalen":11538,"Ġplysjeburo":11539,"sjitte":11540,"ĠOmt":11541,"ĠZand":11542,"Ġgebrek":11543,"Ġkunst":11544,"aiÃ¯n":11545,"Ġkearn":11546,"delgong":11547,"Ġhjirfoar":11548,"Ġminderheid":11549,"Ġdochters":11550,"ryt":11551,"Ġflugger":11552,"wiid":11553,"wicz":11554,"Ġkante":11555,"dielings":11556,"ĠMeier":11557,"Ġjildich":11558,"temar":11559,"planten":11560,"Ġkwijt":11561,"Ġnaartoe":11562,"kelijke":11563,"erein":11564,"ĠSchokker":11565,"ĠÃºtsjocht":11566,"ondag":11567,"Ġmeerdere":11568,"Ġdaarmee":11569,"Ġfeef":11570,"Ġdoelt":11571,"Ġgedoch":11572,"Ġhierd":11573,"Ġbelangrike":11574,"Ġdoorgaat":11575,"Ġgearst":11576,"moandei":11577,"Ġblom":11578,"ĠblÃªd":11579,"Ġperfe":11580,"ĠElk":11581,"Ġynfeksjesyk":11582,"looster":11583,"Ġbeprate":11584,"ĠFerkear":11585,"Ġregelen":11586,"Ġregeljen":11587,"Ġregelingen":11588,"holpen":11589,"jitwei":11590,"Ġpred":11591,"Ġkultuers":11592,"Ġspesjalisearre":11593,"Ġpolitisy":11594,"persoan":11595,"stanner":11596,"Ġlosse":11597,"Ġgezel":11598,"break":11599,"Ġfilmje":11600,"ĠRutger":11601,"Ġfergru":11602,"Ġpraktijk":11603,"Ġfjoerwapen":11604,"ĠOanlieding":11605,"Ġkregen":11606,"Ġtastel":11607,"Ġgebeure":11608,"Ġgeweldig":11609,"Ġ700":11610,"porter":11611,"Ġlikefolle":11612,"Ġsucces":11613,"ĠneedfÃ»ns":11614,"zigt":11615,"Ġferpleechkundige":11616,"Ġferpleechkundigen":11617,"Ġberoppen":11618,"Ġmiddelen":11619,"Ġferfiers":11620,"ĠÃ´fskie":11621,"Ġfertsjinnet":11622,"ĠWettersteat":11623,"kommende":11624,"Ġfiskerij":11625,"Ġspekt":11626,"Ġpleatslik":11627,"Ġartistyk":11628,"Ġhanthavenjen":11629,"niewicz":11630,"ĠAllinne":11631,"Ġmaand":11632,"Ġparkearplak":11633,"ĠWilde":11634,"ĠFrou":11635,"Ġsekonde":11636,"Ġpodde":11637,"orpsen":11638,"Ġopsmyt":11639,"Ġmuoi":11640,"Ġwraksel":11641,"Ġhantsje":11642,"joertoer":11643,"Ġgebruik":11644,"ĠpatiÃ«nt":11645,"ĠRoosje":11646,"ĠWylde":11647,"Ġsyld":11648,"ĠhÃºshÃ¢ldingen":11649,"ĠOosterman":11650,"Ġferkiezings":11651,"stasjons":11652,"Ġveiligheid":11653,"eksamen":11654,"ĠCentraal":11655,"ĠReitsma":11656,"Ġfierljeppen":11657,"Ġprotokollen":11658,"Ġplatfoarm":11659,"Ġsociale":11660,"ĠGaast":11661,"ĠAtlant":11662,"club":11663,"Ġympakt":11664,"ĠKoarnjum":11665,"ĠÃ¢ldjiersdei":11666,"ĠdÃºdlike":11667,"Ġtsjuster":11668,"ĠFreulepartij":11669,"Ġliefde":11670,"ĠSkÃ»tsjes":11671,"ĠSlachtemar":11672,"Ġsign":11673,"ĠSpeerstra":11674,"ĠWouter":11675,"Ġymm":11676,"ĠAkkerman":11677,"ĠKimswert":11678,"Ġquaranta":11679,"ĠIsrael":11680,"ĠVellinga":11681,"Ġkassa":11682,"ĠWenje":11683,"ĠWeijden":11684,"ĠsikehÃ»sopnamen":11685,"jamin":11686,"Ġ0900":11687,"erheide":11688,"Ġekskur":11689,"Ġbinnend":11690,"Ġwoning":11691,"Ġmobile":11692,"Ġevenementen":11693,"BrabÃ¢n":11694,"ĠAndrea":11695,"Ġrestaurearre":11696,"ĠIlse":11697,"Ġindivid":11698,"ĠReahÃ»s":11699,"ĠVitens":11700,"bestriding":11701,"ĠMiljeu":11702,"Ġpoppoadium":11703,"dfund":11704,"ĠÃ»ntbleating":11705,"Ġcrowdfund":11706,"PLUS":11707,"ĠKootstra":11708,"':":11709,"Jo":11710,"UP":11711,"Wall":11712,"bon":11713,"bach":11714,"bla":11715,"diversiteit":11716,"fit":11717,"film":11718,"frastruktuer":11719,"gy":11720,"haad":11721,"iaan":11722,"mard":11723,"mÃ»ne":11724,"ole":11725,"oos":11726,"pakke":11727,"som":11728,"the":11729,"titel":11730,"uri":11731,"wil":11732,"way":11733,"Ġ52":11734,"Ġuiter":11735,"tek":11736,"telier":11737,"Ġdoek":11738,"Ġduurt":11739,"Ġdysels":11740,"Ġfoet":11741,"Ġfiets":11742,"Ġsoft":11743,"Ġwand":11744,"Ġmens":11745,"Ġhang":11746,"Ġhouten":11747,"Ġhikke":11748,"Ġhonderd":11749,"eilÃ¢n":11750,"Ġgran":11751,"Ġtij":11752,"ĠDu":11753,"ĠDylan":11754,"Ġynfallen":11755,"oarme":11756,"Ġenkele":11757,"rim":11758,"Ġpleech":11759,"Ġplicht":11760,"Ġpinkster":11761,"resje":11762,"reven":11763,"Ġopsl":11764,"ĠophÃ¢ldt":11765,"Ġopliedingen":11766,"liel":11767,"kest":11768,"edei":11769,"asme":11770,"urken":11771,"urgen":11772,"Ãºdeast":11773,"ĠDeWall":11774,"ĠSoep":11775,"ĠSAR":11776,"Ġbestelle":11777,"ĠIM":11778,"Ġlam":11779,"Ġvallen":11780,"ĠderÃ»nder":11781,"Ġfergel":11782,"ĠferstÃ¢n":11783,"Ġferriden":11784,"ierders":11785,"earts":11786,"Ġstienen":11787,"Ġstoppen":11788,"illing":11789,"ĠBear":11790,"ĠBot":11791,"ĠBoch":11792,"ĠWitte":11793,"ĠNy":11794,"ĠNien":11795,"ĠNaut":11796,"zem":11797,"Ġoerble":11798,"ĠArum":11799,"ykl":11800,"Ġhavo":11801,"Ġweinen":11802,"Ġzaten":11803,"ĠÃºtlizze":11804,"ĠOaren":11805,"wek":11806,"undigen":11807,"Ġrepetysje":11808,"oper":11809,"opie":11810,"ĠKet":11811,"ĠKei":11812,"ĠKaap":11813,"ĠKPN":11814,"ĠTaal":11815,"ĠTrek":11816,"Ġsket":11817,"ĠGod":11818,"ĠGeffen":11819,"Ġerger":11820,"ikaat":11821,"ĠVis":11822,"ĠVelt":11823,"Ġliif":11824,"Ġlibbe":11825,"Ġprobe":11826,"oorden":11827,"Ġmeartal":11828,"umin":11829,"Ġwurdearring":11830,"Ġbespar":11831,"Ġsolid":11832,"agram":11833,"ĠMarco":11834,"Ġdiag":11835,"Ġdieder":11836,"spel":11837,"Ġwyke":11838,"Ġhelikopter":11839,"oging":11840,"Ġbrannen":11841,"igheid":11842,"vering":11843,"ĠInst":11844,"Ġhoegde":11845,"Ġaanwezig":11846,"bec":11847,"beammen":11848,"Ġtsjinoan":11849,"ĠtsjinhÃ¢lde":11850,"Ġbericht":11851,"Ġberikke":11852,"Ġneemt":11853,"Ġbeton":11854,"Ġkeal":11855,"boden":11856,"ĠZu":11857,"ĠZwarte":11858,"abik":11859,"Ġwantrouwen":11860,"ĠStalen":11861,"foarsitters":11862,"ĠweromfÃ»n":11863,"bless":11864,"Ġraakt":11865,"rane":11866,"Ġoarsom":11867,"tember":11868,"Ġnijjiers":11869,"Ġuitslag":11870,"ĠthÃºswedstriid":11871,"ĠAngel":11872,"ĠAnker":11873,"ĠSchuil":11874,"meijer":11875,"ĠÃºtsk":11876,"Ġdaarvan":11877,"Ġafval":11878,"ĠSpart":11879,"melo":11880,"amera":11881,"Ġboerep":11882,"Ġgedrag":11883,"eneer":11884,"Ġposters":11885,"Ġsoarchpersoniel":11886,"Ġdelkomme":11887,"Ġanalyze":11888,"Ġfleach":11889,"ĠwrÃ¢ldrekÃ´r":11890,"ĠArt":11891,"Ġbestjoerlike":11892,"havens":11893,"nsters":11894,"ĠtsientÃ»zen":11895,"Fryske":11896,"Ġsportklups":11897,"gadering":11898,"Ġparken":11899,"stjoering":11900,"Ġtelefoon":11901,"Ġfaaks":11902,"Ġkoarts":11903,"Ġrekkene":11904,"pelijk":11905,"kapkes":11906,"Ġgezin":11907,"Ġselde":11908,"Ġwurdich":11909,"ĠGerbrand":11910,"ĠGerald":11911,"winner":11912,"Ġhaadredakteur":11913,"ĠOeris":11914,"Ġtopskoar":11915,"Ġvolgens":11916,"Ġbeheiningen":11917,"Ġ2002":11918,"ĠAldehou":11919,"besite":11920,"ĠFreark":11921,"Ġkreatyf":11922,"Ġaksep":11923,"Ġrolstoel":11924,"kosten":11925,"Ġkompetysjewedstriid":11926,"iedenis":11927,"ĠSintrale":11928,"draaie":11929,"ĠÃ»ntwikkelje":11930,"ĠambulÃ¢nsen":11931,"ĠambulÃ¢nses":11932,"ĠFrans":11933,"Ġsubsydzjer":11934,"Ġbehoor":11935,"ĠÃºtsprutsen":11936,"Ġtermijn":11937,"Ġtrou":11938,"Ġfearboaten":11939,"ĠBenjamin":11940,"Ġtekenet":11941,"Ġcoronapasjint":11942,"Ġkwaliteiten":11943,"spectie":11944,"Ġhanthaveners":11945,"Ġmoeilijke":11946,"Ġeleminten":11947,"Ġlandelijk":11948,"ĠRengers":11949,"ĠBloem":11950,"Ġynvestearre":11951,"Ġblessuer":11952,"Ġchallen":11953,"Ġbeskermje":11954,"ĠOranjewÃ¢ld":11955,"ĠOranjewoud":11956,"Ġfiskjen":11957,"Ġynteress":11958,"Ġemot":11959,"Ġhanneljen":11960,"ship":11961,"ĠMetz":11962,"brÃ¢nsj":11963,"Ġpanyk":11964,"kante":11965,"Ġarbeidsmerk":11966,"Ġrjochtet":11967,"Ġljeppers":11968,"Ġtsjerketsjinsten":11969,"Ġdraaiende":11970,"Ġplaatsen":11971,"Ġskoareboerd":11972,"Ġneedsaaklike":11973,"probleem":11974,"Ġferstoarne":11975,"Ġdeistige":11976,"ĠÃºtnÃ»ging":11977,"ĠGaaster":11978,"ĠGelokkich":11979,"Ġbiblioteken":11980,"hops":11981,"Ġannulearre":11982,"Ġkontrolearje":11983,"Ġbewarje":11984,"Ġavond":11985,"ĠRianne":11986,"Ġlinker":11987,"ĠbefÃªstige":11988,"Ġsammeljen":11989,"Ġgesloten":11990,"ĠKampioen":11991,"ĠferwÃ»nings":11992,"kaarten":11993,"Ġolympysk":11994,"Ġkrapte":11995,"Ã¶peraasje":11996,"ĠHeida":11997,"rapport":11998,"ĠTotilas":11999,"ĠEisinga":12000,"ĠPaulissen":12001,"Ġvervolgens":12002,"klusyf":12003,"ĠSkarster":12004,"Ġnederlaach":12005,"ĠBlije":12006,"Ġfirtuele":12007,"ĠEelke":12008,"Earst":12009,"ĠIngelske":12010,"ĠJohanna":12011,"ĠpremjÃªre":12012,"Ġbehoefte":12013,"Ġamateurfuotbal":12014,"ĠRichard":12015,"azerne":12016,"Ġbemannings":12017,"ĠBerltsum":12018,"ĠFraksjefoarsitter":12019,"ĠWassink":12020,"Ġseptember":12021,"ĠRederij":12022,"ĠbrÃ»nzen":12023,"ĠOmtzigt":12024,"Ġfeefoer":12025,"ĠSoepboer":12026,"ĠBochniewicz":12027,"ĠNauta":12028,"ĠStalenburg":12029,"ED":12030,"Fer":12031,"Nei":12032,"PS":12033,"Sp":12034,"WV":12035,"bma":12036,"cels":12037,"doel":12038,"feiligens":12039,"grys":12040,"gingen":12041,"ggende":12042,"hn":12043,"hoop":12044,"iast":12045,"jinge":12046,"kade":12047,"kult":12048,"krije":12049,"ms":12050,"mend":12051,"oand":12052,"pad":12053,"rof":12054,"rÃ©":12055,"uig":12056,"vrij":12057,"wÃ»ne":12058,"Ġ95":12059,"Ġ64":12060,"Ġ69":12061,"Ġark":12062,"erpe":12063,"ino":12064,"inzen":12065,"ariteit":12066,"Ġfon":12067,"Ġfjocht":12068,"Ġfoss":12069,"Ġsmel":12070,"Ġsakke":12071,"Ġsertif":12072,"Ġdeed":12073,"Ġier":12074,"Ġijs":12075,"Ġwinsken":12076,"Ġwyks":12077,"Ġooit":12078,"Ġbuurt":12079,"Ġhin":12080,"Ġnear":12081,"Ġnad":12082,"Ġnekke":12083,"Ġgol":12084,"Ġtos":12085,"Ġtyp":12086,"Ġineens":12087,"Ġynrjocht":12088,"Ġenoarme":12089,"rigen":12090,"Ã»m":12091,"Ġpon":12092,"Ġpannen":12093,"Ġpret":12094,"repen":12095,"Ġopboud":12096,"Ġopgroeid":12097,"keur":12098,"ersteld":12099,"gesch":12100,"Ġfoarkaam":12101,"Ġfoararrest":12102,"ĠSjo":12103,"ĠSos":12104,"iskers":12105,"isolaasje":12106,"ĠIds":12107,"joersk":12108,"Ġvl":12109,"Ġveilige":12110,"Ġoanlizze":12111,"Ġgespeeld":12112,"Ġferrin":12113,"ĠstÃªf":12114,"Ġstikem":12115,"ĠHoll":12116,"Ġeksim":12117,"ĠMc":12118,"ĠMou":12119,"ĠMaai":12120,"ĠModder":12121,"gene":12122,"ĠBrits":12123,"ĠWes":12124,"ĠWilli":12125,"ĠWagt":12126,"ĠNyg":12127,"zema":12128,"Ġoerlein":12129,"ĠAN":12130,"ĠAg":12131,"ĠAukje":12132,"Ġneidiel":12133,"Ġzondag":12134,"ids":12135,"okaat":12136,"ĠOli":12137,"gelegd":12138,"westen":12139,"weging":12140,"Ġrealiteit":12141,"ĠKam":12142,"ĠKunst":12143,"dtitel":12144,"ĠTel":12145,"ĠTess":12146,"ĠdÃªrnjonken":12147,"ĠJess":12148,"Ġspreken":12149,"ĠrÃ´f":12150,"Ġrang":12151,"Ġjierlikse":12152,"Ġeenzaam":12153,"sket":12154,"ĠRin":12155,"ĠRoan":12156,"ĠRuurd":12157,"ĠRitsma":12158,"Ġmeters":12159,"Ġmezelf":12160,"Ġwaarvan":12161,"Ġbeset":12162,"Ġlesj":12163,"ĠYnwenners":12164,"ĠYnfrastruktuer":12165,"Ġsoer":12166,"ĠÃ»nderling":12167,"ippe":12168,"aalde":12169,"ĠCal":12170,"spons":12171,"ĠInstituut":12172,"Ġferske":12173,"fees":12174,"beurs":12175,"Ġkonsept":12176,"Ġtsjinstregeling":12177,"ferdigen":12178,"ferwurker":12179,"Ġeilanden":12180,"ĠOpfallend":12181,"Ġsneins":12182,"Ġbeljen":12183,"edstriid":12184,"Ġtrien":12185,"ĠZui":12186,"ĠZout":12187,"Ġgeande":12188,"ĠfinÃ¢nsjes":12189,"Ġferskine":12190,"ĠUl":12191,"Ġtalint":12192,"eiliging":12193,"Ġberntsje":12194,"Ġboarst":12195,"Ġraad":12196,"Ã«l":12197,"werper":12198,"geten":12199,"Ġuitdaging":12200,"Ġalsof":12201,"ĠthÃºswurkjen":12202,"ĠAnke":12203,"ĠJoaden":12204,"meitsjen":12205,"ĠSytze":12206,"ĠNoarder":12207,"anks":12208,"ĠSteenstra":12209,"Ġrjochtsjen":12210,"ijdagen":12211,"ĠfÃªststelde":12212,"Ġplante":12213,"ĠGebben":12214,"Ġkantoaren":12215,"having":12216,"Ġadvert":12217,"Ġgelden":12218,"Ġskeelt":12219,"fenis":12220,"Ġtoeriste":12221,"ringa":12222,"Ġmeldings":12223,"Ġmeldpunt":12224,"oppet":12225,"Ġregelmjittich":12226,"Ġfraachteken":12227,"Ġnachtopfang":12228,"Ġboekje":12229,"Ġprojektlieder":12230,"Ġgezeten":12231,"Ġstudint":12232,"Ġiensidich":12233,"ĠgrÃ»nwetter":12234,"Ġhaadfert":12235,"Ġoffic":12236,"ĠSportcast":12237,"Ġsneller":12238,"ĠFrÃ¢nske":12239,"aazjes":12240,"aterdag":12241,"erskynlik":12242,"Ġnauw":12243,"Ġopslein":12244,"Ġakute":12245,"Ġwynpark":12246,"ĠFierlje":12247,"Ġmaatwurk":12248,"Ġbiz":12249,"Ġnjoggende":12250,"Ġronden":12251,"ĠNationaal":12252,"Ġbuord":12253,"Ġbuorden":12254,"Ġbuorlju":12255,"Ġleveren":12256,"kundich":12257,"Ġprachtig":12258,"Ġnjoggentjin":12259,"Ġfeart":12260,"Ġtanimme":12261,"Ġhandhaven":12262,"Ġferpleechhuzen":12263,"Ġferrommingen":12264,"Ġeasket":12265,"Ġparkoers":12266,"Ġynstal":12267,"ĠHermans":12268,"Ġkrityske":12269,"Ġhistoarysk":12270,"ĠWereld":12271,"reitsje":12272,"Ġgrutskalige":12273,"Ġkaartsjes":12274,"ĠTsjerke":12275,"uchtelingen":12276,"Ġnoardeasten":12277,"Ġmaandag":12278,"Ġsechde":12279,"Ġredden":12280,"Ġreedrydster":12281,"Ġpapieren":12282,"stiennen":12283,"ĠSijbe":12284,"Ġferrassend":12285,"Ġharddrugs":12286,"Ġpsychyske":12287,"Ġoansletten":12288,"ĠPetersen":12289,"ĠÃºtstalling":12290,"Ġhoogte":12291,"ĠHylke":12292,"Ġvandaan":12293,"Ġwittenskiplike":12294,"ĠMelles":12295,"Ġkriminelen":12296,"lÃ»ker":12297,"Ġappartemint":12298,"houder":12299,"Ġadvisearre":12300,"ussie":12301,"ĠHendriks":12302,"Ġbroek":12303,"ĠWÃ¢ldsein":12304,"Ġziekenhuizen":12305,"Ġstabyl":12306,"Ġiishockey":12307,"Ġiishockeyers":12308,"swim":12309,"Ġeksperts":12310,"Ġopstappen":12311,"Ġspringt":12312,"Ġbehannelje":12313,"ĠBaukje":12314,"Ġoerienkomst":12315,"Ġhurdfytser":12316,"ĠsÃ¢ltwinning":12317,"ademie":12318,"Ġynspiraasje":12319,"Ġambysjes":12320,"Ġkringloopwinkel":12321,"Ġactiviteiten":12322,"Ġmentaal":12323,"Ġstudearre":12324,"Ġblauwe":12325,"Ġoanpassingen":12326,"Ġbosken":12327,"Ġacc":12328,"masine":12329,"ĠSeggeren":12330,"Ġgymn":12331,"ĠFriezinne":12332,"ĠHealwei":12333,"ĠBangma":12334,"ĠTrevor":12335,"Ġferskynde":12336,"Ġspesifyk":12337,"Ġgoedkeaper":12338,"Ġmonuminten":12339,"Ġfamyljeleden":12340,"ĠSociaal":12341,"Ġrealistysk":12342,"ĠTwizelerheide":12343,"ĠRadio":12344,"Ġwaarschijnlijk":12345,"ĠIND":12346,"Ġsportferslachjouwer":12347,"Ġyntsjinje":12348,"Ġmoksels":12349,"Ġbenadere":12350,"Ġsakekolleezje":12351,"ĠSweedske":12352,"Ġcoronastjer":12353,"ĠynstitÃºt":12354,"Ġnergens":12355,"Ġtadracht":12356,"ĠLearlingen":12357,"Ġsymptomen":12358,"ĠflearmÃ»zen":12359,"ĠHauler":12360,"ĠHayo":12361,"ikaasjetoernoai":12362,"Ġquarantaine":12363,"Ġbinnendoar":12364,"mardum":12365,"Ġeksimpl":12366,"ĠMaaike":12367,"ĠNygren":12368,"EF":12369,"Groep":12370,"Hier":12371,"Ien":12372,"Oars":12373,"SF":12374,"bÃ»ten":12375,"brÃ»k":12376,"bieders":12377,"camp":12378,"cif":12379,"far":12380,"grutte":12381,"hon":12382,"haal":12383,"horst":12384,"istraasje":12385,"jut":12386,"ku":12387,"ketten":12388,"ljocht":12389,"leiding":12390,"mus":12391,"nossen":12392,"ping":12393,"sing":12394,"son":12395,"sjerke":12396,"toernoai":12397,"yke":12398,"zili":12399,"Ġ86":12400,"Ġ85":12401,"Ġ81":12402,"Ġangst":12403,"techn":12404,"Ġdrige":12405,"inum":12406,"Ġfij":12407,"Ġfakt":12408,"Ġfingers":12409,"Ġsinten":12410,"Ġsongen":12411,"Ġsmaak":12412,"Ġwjer":12413,"Ġwind":12414,"Ġwerstel":12415,"ĠmÃ»zen":12416,"Ġogen":12417,"Ġbol":12418,"Ġbrekken":12419,"atlon":12420,"Ġhilli":12421,"Ġhinder":12422,"chap":12423,"eier":12424,"Ġni":12425,"Ġkok":12426,"Ġkort":12427,"yne":12428,"star":12429,"stutsen":12430,"Ġgraf":12431,"Ġfanat":12432,"Ġtrij":12433,"Ġinder":12434,"leaf":12435,"Ġpuz":12436,"rest":12437,"reinen":12438,"Ġopfallende":12439,"lige":12440,"keuring":12441,"Ġteory":12442,"itor":12443,"term":12444,"ĠDeenske":12445,"ĠDeinum":12446,"ges":12447,"orge":12448,"Ġfoarhinne":12449,"Ġfoarwerp":12450,"kena":12451,"ĠSc":12452,"ĠSi":12453,"Ġbestelling":12454,"ĠFK":12455,"ĠFed":12456,"ĠFaak":12457,"ĠFUMO":12458,"Ġlette":12459,"Ġlatte":12460,"Ġvij":12461,"Ġderde":12462,"earste":12463,"oege":12464,"oepen":12465,"ĠHuzum":12466,"Ġjas":12467,"illen":12468,"ĠMijn":12469,"ĠMem":12470,"uste":12471,"ietske":12472,"ĠWets":12473,"ĠWhats":12474,"ĠNV":12475,"Ġoerw":12476,"ĠÃºtjÃ»n":12477,"ĠÃºtriden":12478,"idaasje":12479,"ĠLive":12480,"ĠOd":12481,"weer":12482,"unysje":12483,"uniteit":12484,"Ġcultuur":12485,"ĠKru":12486,"ĠKla":12487,"ĠKick":12488,"ĠKatal":12489,"ĠKlimaat":12490,"ĠKlooster":12491,"ĠTr":12492,"ĠTÃ»m":12493,"Ġploeg":12494,"Ġsafol":12495,"Ġskaad":12496,"Ġskod":12497,"Ġskieden":12498,"Ġwiete":12499,"ĠJant":12500,"ĠJels":12501,"ĠJonk":12502,"ĠJopie":12503,"ĠGoud":12504,"ĠGiro":12505,"2020":12506,"2028":12507,"Ġhekt":12508,"Ġeruit":12509,"ĠVoort":12510,"Ġharkers":12511,"Ġret":12512,"ĠrÃ»ten":12513,"Ġjierliks":12514,"Ġjierwiksel":12515,"efd":12516,"efter":12517,"Ġlis":12518,"antinga":12519,"skomm":12520,"ĠRyp":12521,"ĠPen":12522,"ĠPers":12523,"ĠPiersma":12524,"ĠPrix":12525,"jouwert":12526,"umas":12527,"Ġbesiker":12528,"utend":12529,"intig":12530,"ĠÃ»nderfine":12531,"ĠMarkt":12532,"ĠMarinus":12533,"Ġtwilling":12534,"ĠCall":12535,"ĠCultuur":12536,"ĠCBS":12537,"ĠCnossen":12538,"spek":12539,"sprek":12540,"venem":12541,"Ġheld":12542,"Ġmindere":12543,"Ġministers":12544,"ogt":12545,"bbels":12546,"Ġsitting":12547,"Ġond":12548,"Ġfersl":12549,"romp":12550,"fectie":12551,"oallen":12552,"ĠslÃ»zen":12553,"Ġsteds":12554,"Ġberte":12555,"ferfier":12556,"Ġgemeentebestjoer":12557,"Ġbegroeven":12558,"ennisser":12559,"Ġverstandig":12560,"Ġbetrou":12561,"Ġkeep":12562,"sjite":12563,"boel":12564,"Ġtrijen":12565,"ĠWevers":12566,"ifel":12567,"Ġzeg":12568,"Ġprovinsj":12569,"Ġmoetingsp":12570,"skes":12571,"Ġhjirmei":12572,"Ġefte":12573,"oopt":12574,"Ġflot":12575,"Ġtalent":12576,"Ġtalitten":12577,"Ġboarter":12578,"Ġeinigje":12579,"klachten":12580,"ĠthÃºsisolaasje":12581,"ĠJongsma":12582,"Ġdaarvoor":12583,"Ġafsch":12584,"ĠSpesj":12585,"Ġtestlokaasjes":12586,"bringen":12587,"Ġprinc":12588,"Ġsoarchoan":12589,"Ġdoorgaan":12590,"Ġfleks":12591,"Ġplantsje":12592,"rieding":12593,"riedslid":12594,"Ġskeakel":12595,"Ġhoast":12596,"Ġoplosse":12597,"proef":12598,"Ġonderzoeken":12599,"Ġhopelijk":12600,"ĠThuis":12601,"Ġbepalen":12602,"ĠKNG":12603,"ppel":12604,"Ġballen":12605,"ĠBewenners":12606,"iesz":12607,"Ġaktiv":12608,"Ġknipe":12609,"Ã¤ter":12610,"Ġkleed":12611,"ĠOff":12612,"ĠHoreca":12613,"ĠkontrÃ´les":12614,"Ġpresidint":12615,"Ġvoldoen":12616,"Ġduiz":12617,"Ġdenkt":12618,"Ġsneltrein":12619,"ĠAldeholt":12620,"ĠAldemardum":12621,"Ġgehouden":12622,"ĠMinder":12623,"rekkene":12624,"Ġleafhawwers":12625,"Ġbuien":12626,"Ġbeskikbere":12627,"Ġfraksjes":12628,"Ġbelangrijke":12629,"Ġleverjen":12630,"alisme":12631,"goeding":12632,"ĠHolt":12633,"Ġtelefyzjeprogramma":12634,"Ġwinterstop":12635,"Ġoppakke":12636,"izzers":12637,"Ġsubsydzjes":12638,"Ġstoart":12639,"wegingen":12640,"wegings":12641,"Ġbelangrijkste":12642,"Ġeask":12643,"ĠSweden":12644,"Ġynstallaasje":12645,"Ġleauwe":12646,"Ġboskjes":12647,"Ġbewegen":12648,"ĠHahn":12649,"lÃªze":12650,"Ġatlet":12651,"Ġoerlizze":12652,"Ġpassend":12653,"Ġferdigening":12654,"ĠMankes":12655,"ĠBlack":12656,"Ġynvestearring":12657,"herne":12658,"Ġregearing":12659,"ĠHamar":12660,"ijff":12661,"Ġfrachtweinen":12662,"Ġoersetting":12663,"Ġparkearterrein":12664,"Ġdjipte":12665,"Ġoansprutsen":12666,"Ġpopulaasje":12667,"Ġoptie":12668,"Ġstrukturele":12669,"Ġgebruikt":12670,"ational":12671,"Ġopknappen":12672,"ĠHielke":12673,"Ġwittenskippers":12674,"Ġseksuele":12675,"lÃ»ke":12676,"Ġbelibbe":12677,"houders":12678,"Ġtwivel":12679,"Ġboargerynf":12680,"ĠPoiesz":12681,"Ġfermist":12682,"Ġmuzikale":12683,"Ġkerrels":12684,"ĠExcels":12685,"Ġkwalifikaasje":12686,"Ġsoarchynstelling":12687,"ĠKuiper":12688,"Ġfoarsjenningen":12689,"Ġyntinsive":12690,"ĠAntonia":12691,"ĠAntonius":12692,"Ġrichtlijnen":12693,"Ġkandidaten":12694,"ĠSterker":12695,"Ġkalinder":12696,"Ġautomobilisten":12697,"Ġferfanger":12698,"Ġsloopt":12699,"Ġhaadklassepartij":12700,"Ġuniversiteiten":12701,"ĠNieuwpoort":12702,"Ġkontrolearjen":12703,"ĠDoarpsbelang":12704,"ĠRixt":12705,"Ġfernijing":12706,"Ġkonfron":12707,"atista":12708,"ĠSuper":12709,"Ġferleegjen":12710,"Ġbasketballers":12711,"Ġtapast":12712,"Ġvoorbereid":12713,"Ġtoernoaien":12714,"ĠSkoallen":12715,"buorden":12716,"Ġkado":12717,"ĠTuinstra":12718,"ĠferdÃ»bel":12719,"Onze":12720,"ĠHimelf":12721,"Ġflaters":12722,"Ġaksjefierders":12723,"ĠStellingwerf":12724,"Ġoplevere":12725,"Ġvolledig":12726,"Ġfavorite":12727,"ĠTweede":12728,"Ġongeveer":12729,"fetamine":12730,"Ġoanwizingen":12731,"Ġkategory":12732,"ĠIJssel":12733,"ĠbeÃ¤n":12734,"Ġattraksje":12735,"Ġwetteroer":12736,"ĠFalkena":12737,"ĠheitelÃ¢n":12738,"ĠSigrid":12739,"ĠAqua":12740,"ĠEsther":12741,"ĠNienke":12742,"ĠInstagram":12743,"ĠSparta":12744,"ĠOerisel":12745,"gryslik":12746,"Ġnearne":12747,"Ġhaadfertochte":12748,"ĠHaulerwyk":12749,"Ġinderdaad":12750,"ĠTÃ»mba":12751,"Ġsafolste":12752,"ĠCallens":12753,"Ġprovinsjaal":12754,"ĠExcelsior":12755,"!'<|":12756,"2000":12757,"Do":12758,"Gjin":12759,"Kom":12760,"Kore":12761,"Normaal":12762,"Ook":12763,"Ver":12764,"Veel":12765,"Zoo":12766,"aakt":12767,"bol":12768,"bra":12769,"bant":12770,"bÃªden":12771,"brig":12772,"bureau":12773,"dan":12774,"fli":12775,"grij":12776,"hÃ»":12777,"hum":12778,"heker":12779,"iq":12780,"iat":12781,"iaanske":12782,"krisis":12783,"long":12784,"lÃªste":12785,"mi":12786,"mie":12787,"master":12788,"ouw":12789,"oun":12790,"oant":12791,"pma":12792,"pes":12793,"past":12794,"rakt":12795,"rÃ´le":12796,"sers":12797,"tinte":12798,"titen":12799,"visie":12800,"wap":12801,"water":12802,"wietske":12803,"yber":12804,"zy":12805,"zijn":12806,"Ġ74":12807,"Ġ99":12808,"Ġ53":12809,"Ġ63":12810,"ĠdÃºn":12811,"Ġdonder":12812,"erkt":12813,"iness":12814,"anim":12815,"antsjes":12816,"arjende":12817,"arbeid":12818,"Ġfoer":12819,"ĠfÃºzje":12820,"Ġfatsoen":12821,"Ġwc":12822,"Ġmunysje":12823,"Ġoerste":12824,"Ġoseaan":12825,"Ġhum":12826,"ĠhÃ»nen":12827,"cha":12828,"Ġkaai":12829,"Ġkorte":12830,"stranten":12831,"Ġgang":12832,"alys":12833,"Ġfand":12834,"ĠtÃº":12835,"Ġtrekken":12836,"Ġtennis":12837,"ĠDei":12838,"ĠDom":12839,"Ġindruk":12840,"Ġynfolle":12841,"Ġynhelle":12842,"Ġynstellings":12843,"roepen":12844,"rijen":12845,"Ġechter":12846,"Ġevak":12847,"lek":12848,"Ġpin":12849,"Ġpad":12850,"Ġpun":12851,"nee":12852,"Ġtein":12853,"Ġtegels":12854,"des":12855,"Ãªres":12856,"Ġmeikoarten":12857,"ieken":12858,"geast":12859,"geul":12860,"Ġfoarmen":12861,"ĠSel":12862,"ĠSleat":12863,"ĠbehÃ¢lde":12864,"ĠFoeke":12865,"ĠFeenstra":12866,"Ġluis":12867,"jout":12868,"Ġvoet":12869,"Ġvroeger":12870,"Ġderachter":12871,"Ġoanwiisd":12872,"ysjer":12873,"Ġferlo":12874,"Ġfergelyk":12875,"earch":12876,"Ġstront":12877,"ĠHaar":12878,"ĠHanne":12879,"iler":12880,"ildere":12881,"ĠMeld":12882,"ĠMans":12883,"ĠMoster":12884,"ĠBef":12885,"ĠBoarn":12886,"ĠBies":12887,"ĠBrit":12888,"ĠBatista":12889,"ĠWind":12890,"ĠWÃ¢ns":12891,"ĠNiger":12892,"ĠNoflik":12893,"ĠNEC":12894,"Ġoernacht":12895,"ĠAz":12896,"ĠArane":12897,"Ġsealen":12898,"ĠEva":12899,"ĠEise":12900,"Ġmarkt":12901,"aansk":12902,"ĠÃºtkomsten":12903,"okt":12904,"okio":12905,"ĠOns":12906,"gele":12907,"gelijke":12908,"uning":12909,"unter":12910,"Ġrechter":12911,"Ġreanim":12912,"Ġclaim":12913,"ĠKeij":12914,"ĠKinder":12915,"ĠKrante":12916,"Ġ140":12917,"ĠTV":12918,"ĠTokio":12919,"rongen":12920,"Ġskam":12921,"Ġskatten":12922,"Ġskynt":12923,"ĠÃ´fmakke":12924,"ĠÃ´fkundige":12925,"ĠÃ´ffierd":12926,"ĠJar":12927,"ĠJonker":12928,"ĠGor":12929,"ĠVand":12930,"ĠVoetbal":12931,"ĠVliel":12932,"Ġspier":12933,"Ġharkje":12934,"Ġrare":12935,"Ġikoan":12936,"andant":12937,"ĠPap":12938,"Ġkrim":12939,"meniÃ«":12940,"ĠYpe":12941,"Ġwaarnimmend":12942,"intra":12943,"intator":12944,"agina":12945,"ĠÃ»nderd":12946,"ĠÃ»nderwi":12947,"ĠMaria":12948,"oanje":12949,"oanfal":12950,"spile":12951,"spesj":12952,"osint":12953,"Ġmakkers":12954,"eidzje":12955,"bbers":12956,"sevic":12957,"ĠienfÃ¢ld":12958,"yld":12959,"beper":12960,"beurt":12961,"ĠAly":12962,"ĠAlteast":12963,"Ġatelier":12964,"ferwÃ»ne":12965,"Ġbegrepen":12966,"Ġneam":12967,"enny":12968,"Ġellinde":12969,"ĠOper":12970,"Ġverlen":12971,"Ġverstand":12972,"Ġbetra":12973,"istoris":12974,"Ġwelkom":12975,"Ġselsstann":12976,"ĠZoet":12977,"ĠZelden":12978,"Ġzes":12979,"Ġbood":12980,"Ġsjog":12981,"skipper":12982,"ĠUiteindelijk":12983,"ĠUWV":12984,"Ġwettersport":12985,"ĠbrÃ¢nbrief":12986,"Ġorganisator":12987,"ĠÃ»ntfang":12988,"Ġraam":12989,"fiere":12990,"werda":12991,"Ġzover":12992,"Ġeintsje":12993,"sitten":12994,"pluss":12995,"ĠgenÃª":12996,"kelijker":12997,"ĠAns":12998,"Ġswalk":12999,"Ġtaks":13000,"Ġtakend":13001,"Ġlytssk":13002,"ĠÃºtslaggen":13003,"Ġdaarin":13004,"usektor":13005,"icket":13006,"Ġrjochten":13007,"Ġwaskje":13008,"ssens":13009,"Ġroman":13010,"Ġkollektyf":13011,"Ġmomente":13012,"Ġblomme":13013,"ĠArbeid":13014,"Ġtiisdeitemiddei":13015,"ĠGeorge":13016,"ĠSnitswike":13017,"ĠRob":13018,"Ġgelukt":13019,"Ġskeel":13020,"Ġfuotbalferiening":13021,"Ġperman":13022,"Ġbetsjutting":13023,"ĠElly":13024,"ĠEltse":13025,"wurdfierder":13026,"ĠhÃºslik":13027,"Ġonderdeel":13028,"Ġhearlik":13029,"ĠKeunst":13030,"ĠGrinslanner":13031,"Ġprest":13032,"Ġpredat":13033,"Ġspesjalist":13034,"ĠswierferwÃ»ne":13035,"ĠferkÃ¢lden":13036,"undige":13037,"Ġteller":13038,"Ġsmoar":13039,"Ġjuni":13040,"erdyk":13041,"Ġstimden":13042,"freon":13043,"stryd":13044,"Ġfeilichheids":13045,"Ġhaadspons":13046,"Ġynsjoch":13047,"Ġferskillend":13048,"Ġproduc":13049,"ĠAldeh":13050,"Ġsokken":13051,"Ġgehaald":13052,"besl":13053,"Ġmogelijkheid":13054,"Ġcontrole":13055,"ĠrÃ»tes":13056,"aurant":13057,"uees":13058,"ĠÃ»ntwikkeljen":13059,"ĠÃ»ntwikkelings":13060,"Ġstekynsidint":13061,"Ġrisikogroep":13062,"ĠBruins":13063,"Ġmiddenyn":13064,"stappen":13065,"Ġstienm":13066,"Ġtelefoantsjes":13067,"Ġskoart":13068,"blÃªden":13069,"Ġferfierd":13070,"ĠferpleechhÃ»s":13071,"Ġkenink":13072,"Ġfoarsjoen":13073,"ĠstikstofÃºtstjit":13074,"Ġfertsjinjen":13075,"ĠGrikelÃ¢n":13076,"ĠstÃ¢nbyld":13077,"ĠRyksuniversiteit":13078,"Ġfisken":13079,"Ġspecif":13080,"Ġlastige":13081,"ĠHaitsma":13082,"ĠRott":13083,"Ġhuisarts":13084,"Ġkwetsbare":13085,"Ġoefenje":13086,"Ġoefeningen":13087,"Ġhannele":13088,"Ġgarnal":13089,"ovid":13090,"krigen":13091,"Ġbruts":13092,"ĠManagement":13093,"ĠTsjÃ»ke":13094,"ĠSurin":13095,"Ġchat":13096,"ĠÃ»ntsp":13097,"Ġkonstruksje":13098,"Ġteloarstellend":13099,"Ġbestjoersleden":13100,"Ġfeesten":13101,"Ġbekerfinale":13102,"ĠTaeke":13103,"Ġskilderijen":13104,"ĠGoaiÃ¯n":13105,"Ġstipep":13106,"kanker":13107,"ĠMerc":13108,"Ġverbonden":13109,"gemeente":13110,"Ġfermiste":13111,"Ġfermoarde":13112,"Ġskouboarch":13113,"Ġynskreaun":13114,"Ġboaiemdelgong":13115,"betoan":13116,"ĠLode":13117,"Ġcompetitie":13118,"Ġoardelmeterregel":13119,"Ġbeperkt":13120,"ĠJacobi":13121,"Ġferheging":13122,"Ġheftich":13123,"ĠstedhÃ»s":13124,"gelegenheden":13125,"ĠParys":13126,"ĠEdwin":13127,"ĠJannewietske":13128,"iktee":13129,"ĠOsinga":13130,"ĠSuder":13131,"ĠfakbÃ»nen":13132,"Ġvrienden":13133,"Ġprotesten":13134,"Ġsjongen":13135,"Ġeksploitaasje":13136,"wiesa":13137,"Ġrenov":13138,"ĠSegaar":13139,"Ġprofitearje":13140,"Ġstimulearjen":13141,"ĠBestjoer":13142,"potheker":13143,"betelje":13144,"ĠAlvestÃªdehal":13145,"ĠFrijwilligers":13146,"ĠBios":13147,"ĠDresevic":13148,"abriken":13149,"Ġmaxim":13150,"ĠKeninkryk":13151,"ĠRoosen":13152,"ĠbeÃ«in":13153,"ĠTechnysk":13154,"ĠLouise":13155,"Ġverspreiding":13156,"Ġmylde":13157,"Ġtafallich":13158,"Ġfietsen":13159,"ĠdistribÃºsje":13160,"Ġfinansiering":13161,"Ġdiscussie":13162,"Ġscoot":13163,"ĠFilip":13164,"Ġlikense":13165,"ĠRispens":13166,"Ġtribune":13167,"Ġfariant":13168,"ĠKwadrantGroep":13169,"Ġdonkere":13170,"ĠAaldering":13171,"ircul":13172,"ĠHasker":13173,"Ġunanym":13174,"lassemint":13175,"Ġmuoilik":13176,"ĠSlachtemaraton":13177,"ĠSkarsterbrÃªge":13178,"ĠJessica":13179,"ĠKloosterman":13180,"ĠwetteroerlÃªst":13181,"ĠAquaZoo":13182,"ĠMostert":13183,"ĠWÃ¢nswert":13184,"ĠKeijzer":13185,"ĠZeldenrust":13186,"Ġmomenteel":13187,"ĠTsjÃ»kemar":13188,"041":13189,"Ch":13190,"Dizze":13191,"Fly":13192,"Hiel":13193,"LM":13194,"Oost":13195,"Rail":13196,"Soms":13197,"aach":13198,"ban":13199,"bak":13200,"blok":13201,"holle":13202,"ifer":13203,"ioene":13204,"med":13205,"mende":13206,"nod":13207,"rende":13208,"sc":13209,"toer":13210,"volle":13211,"vlak":13212,"wim":13213,"yer":13214,"zine":13215,"Ġ77":13216,"Ġ49":13217,"Ġdj":13218,"Ġdunen":13219,"Ġdaalks":13220,"inx":13221,"anu":13222,"anaal":13223,"Ġdeaslach":13224,"Ġwalf":13225,"Ġwww":13226,"Ġoade":13227,"Ġbril":13228,"Ġbaalt":13229,"atuurlijk":13230,"Ġheide":13231,"ĠhÃ»d":13232,"etsje":13233,"Ġnamelijk":13234,"elingen":13235,"Ġklik":13236,"Ġketting":13237,"staal":13238,"struksje":13239,"jecten":13240,"Ġgig":13241,"Ġgienen":13242,"ĠfanÃ´f":13243,"Ġtrop":13244,"Ġtuin":13245,"ĠDol":13246,"Ġiniti":13247,"Ġporte":13248,"Ġopmakke":13249,"keat":13250,"edysje":13251,"Ġtefoaren":13252,"ita":13253,"dep":13254,"ompen":13255,"omtiden":13256,"gezet":13257,"Ġfoardielen":13258,"ĠSamb":13259,"ĠSÃºdeast":13260,"isip":13261,"Ġomloop":13262,"Ġlink":13263,"Ġlud":13264,"Ġljochte":13265,"Ġvis":13266,"Ġvlak":13267,"Ġvwo":13268,"Ġoankl":13269,"Ġoanmel":13270,"Ġoanfierder":13271,"Ġoanriden":13272,"Ġoanbesteging":13273,"Ġgesin":13274,"aarde":13275,"Ġmoeder":13276,"iere":13277,"ĠHui":13278,"ĠHokker":13279,"ĠjÃ»nt":13280,"dening":13281,"denburg":13282,"ĠMal":13283,"ĠMak":13284,"ĠMag":13285,"ĠMors":13286,"ĠMKB":13287,"ĠMoarre":13288,"ussel":13289,"ĠWep":13290,"ĠWichtich":13291,"Ġbydragen":13292,"adres":13293,"ienkomst":13294,"Ġoername":13295,"Ġoerdeis":13296,"ĠAus":13297,"ĠApotheker":13298,"imo":13299,"meenschap":13300,"Ġneijier":13301,"Ġneisjoen":13302,"Ġhaal":13303,"Ġsector":13304,"Ã´ne":13305,"Ã´ven":13306,"ĠÃ»ngel":13307,"ĠLam":13308,"unic":13309,"Ġreder":13310,"ĠKat":13311,"ĠKaren":13312,"ĠTil":13313,"ĠTek":13314,"Ġplaten":13315,"Ġskel":13316,"Ġskuor":13317,"Ġskoaren":13318,"Ġskroeven":13319,"ĠGoutum":13320,"Ġerf":13321,"Ġdoed":13322,"ĠtrochjÃ»n":13323,"Ġspont":13324,"Ġoarsprong":13325,"skundigen":13326,"ĠRien":13327,"ĠRub":13328,"ĠRekker":13329,"ĠPot":13330,"ĠPee":13331,"asting":13332,"Ġearmoed":13333,"Ġearbetoan":13334,"Ġlean":13335,"Ġwierskynlik":13336,"aff":13337,"affe":13338,"afond":13339,"Ġhieltiten":13340,"ĠYnlÃ¢nske":13341,"Ġgoedkard":13342,"teljen":13343,"ĠÃ»nderbrocht":13344,"ĠÃ»nderwerpen":13345,"oucher":13346,"ĠMartens":13347,"Ġtwatal":13348,"Ġtwintig":13349,"ĠCard":13350,"igh":13351,"igings":13352,"Ġkla":13353,"Ġkloppet":13354,"Ġhoech":13355,"Ġwurkwize":13356,"Ġavent":13357,"Ġeisen":13358,"Ġneamen":13359,"Ġ2023":13360,"Ġmetoade":13361,"ates":13362,"Ġvern":13363,"Ġverbe":13364,"istoal":13365,"ĠSeelÃ¢n":13366,"Ġkeas":13367,"innende":13368,"Ġgewone":13369,"Ġgewerkt":13370,"abyl":13371,"nimming":13372,"ift":13373,"metaal":13374,"Ġzeven":13375,"Ġboom":13376,"Ġgebracht":13377,"Ġgebieden":13378,"Ġfertelden":13379,"ĠUr":13380,"Ġskoalkoepel":13381,"keten":13382,"Ġkansen":13383,"ĠHarinx":13384,"werter":13385,"sloten":13386,"Ġdoarpke":13387,"ĠthÃºswurkje":13388,"ĠthÃºssoarch":13389,"ĠJoris":13390,"ĠSchot":13391,"meiwurker":13392,"ĠÃºtset":13393,"ĠÃºtsykje":13394,"Ġdaarbij":13395,"ftal":13396,"ĠNoarwegen":13397,"Ġteststrjitte":13398,"atieve":13399,"Ġgrinzen":13400,"ĠbÃ»tengebiet":13401,"enema":13402,"Ã©t":13403,"Ġterp":13404,"Ġmoandeis":13405,"Ġ5000":13406,"ĠfakÃ¢nsjes":13407,"Ġdoorge":13408,"ĠBovendien":13409,"assist":13410,"Ġgearf":13411,"Ġmomenten":13412,"Ġrou":13413,"Ġroer":13414,"ĠArchief":13415,"Ġleararen":13416,"Ġmedal":13417,"ĠGryn":13418,"ĠGrÃ»n":13419,"cties":13420,"ksyg":13421,"Ġfuotbalklups":13422,"Ġtoerist":13423,"Ġstille":13424,"Ġsportive":13425,"Ġsportferieningen":13426,"ĠEltsenien":13427,"Ġpublike":13428,"Ġpeallen":13429,"Ġ1970":13430,"ĠGroenL":13431,"ĠGroenLinks":13432,"Ġoanpasse":13433,"Ġopnamen":13434,"Ġopnieuw":13435,"Ġwyld":13436,"ĠbasisÃ»nderwiis":13437,"Ġtaffel":13438,"Ġdraaid":13439,"Ġteamlieder":13440,"minister":13441,"ĠLeo":13442,"Ġdrukke":13443,"bedrach":13444,"strjitwei":13445,"ident":13446,"ĠAmsterdammer":13447,"Ġsinnebl":13448,"Ġdupe":13449,"ĠMous":13450,"Ġontmo":13451,"ĠKeamerferkie":13452,"Ġarche":13453,"Ġsaneamd":13454,"Ġgehiel":13455,"insjele":13456,"Ġaksept":13457,"Ġakkommod":13458,"Ġpleksyg":13459,"ĠdÃ»k":13460,"ĠdÃ»kt":13461,"Ġunif":13462,"Ġtariede":13463,"Ġmeastal":13464,"Ġferliest":13465,"ĠUnderwiis":13466,"Ġklim":13467,"ĠwarskÃ´gje":13468,"Ġgasfjilden":13469,"ĠHollÃ¢n":13470,"ingstiden":13471,"Ġdemonstranten":13472,"Ġtroud":13473,"Ġsoantsje":13474,"Ġhandich":13475,"Ġ1944":13476,"Ġmerkt":13477,"Ġkenteken":13478,"Ġ750":13479,"ĠÃ©cht":13480,"ĠTerherne":13481,"ODC":13482,"ĠspitigernÃ´ch":13483,"Ġgeraakt":13484,"grid":13485,"ĠWaringa":13486,"Ġspeed":13487,"Ġslechte":13488,"joernalist":13489,"uldige":13490,"Ġmotorrider":13491,"ĠCaroline":13492,"aliÃ«n":13493,"Ġkuierjen":13494,"Ġkuiertocht":13495,"ĠBlau":13496,"Ġminsk":13497,"ĠKommende":13498,"Ġtrochsette":13499,"Ġrondes":13500,"rouwens":13501,"Ġskjinmakke":13502,"Ġbescherm":13503,"ĠWilkens":13504,"Ġritten":13505,"Ġstuts":13506,"ĠentÃ»sjasme":13507,"Ġkoff":13508,"Ġopskaald":13509,"ĠbÃ»se":13510,"ĠMichelle":13511,"Ġcontactonderzoek":13512,"ĠÃ»nderdÃ»kt":13513,"ĠSteatefraksje":13514,"ĠMids":13515,"ĠMiddel":13516,"ĠKnipe":13517,"ĠBrazili":13518,"ĠÃ´fwachting":13519,"Ġreserves":13520,"ĠNatuurlijk":13521,"barren":13522,"Ġpanielen":13523,"ĠkliÃ¯nte":13524,"ĠWijnia":13525,"Ġarbeids":13526,"Ġverbind":13527,"Ġferplichting":13528,"fiskerij":13529,"ĠStienstra":13530,"ĠfersoargingshÃ»zen":13531,"Ġophongen":13532,"Ġeksploazje":13533,"Ġabsoluut":13534,"Ġsjoernalisten":13535,"dukten":13536,"ĠFledder":13537,"Ġdramatysk":13538,"Ġontwikkelen":13539,"Ġfilme":13540,"ĠGelukkig":13541,"Ġsteateleden":13542,"hoeve":13543,"ĠPoalske":13544,"Ġfrjemde":13545,"Ġynfolje":13546,"ĠmilitÃªre":13547,"Ġliteratuer":13548,"Ġdirekte":13549,"ĠÃ»nferwachte":13550,"monuminten":13551,"Ġsulveren":13552,"rinnende":13553,"Ġbewarjen":13554,"ogerman":13555,"ĠBeekman":13556,"Ġdeadlike":13557,"ĠWeissens":13558,"ĠAcute":13559,"ĠGelderlÃ¢n":13560,"gewoane":13561,"Ġrentree":13562,"ĠOoststellingwerf":13563,"ĠJulian":13564,"Ġfokus":13565,"ĠferwÃ»ningen":13566,"Ġstimulearje":13567,"ĠcreÃ«":13568,"ĠferdÃ»bele":13569,"ĠÃ»nwissens":13570,"Ġfotograaf":13571,"Ġteleur":13572,"Ġkuorballers":13573,"iepening":13574,"Ġaudi":13575,"Ġfysioterapeut":13576,"Ġyngripe":13577,"Ġinteress":13578,"Ġwoartels":13579,"Ġskriftlike":13580,"Ġtillefoan":13581,"Ġhoarekasaken":13582,"ĠmelkfeehÃ¢lders":13583,"Ġkonsintraasje":13584,"Ġfergunningen":13585,"ĠNachtwacht":13586,"Ġplomfee":13587,"ĠSchuurman":13588,"ĠAndreae":13589,"blessuere":13590,"ĠGerbrandy":13591,"Ġtoske":13592,"Ġynstallearre":13593,"ĠWetsus":13594,"Ġmoetingsplak":13595,"Ġprincipe":13596,"ĠKNGU":13597,"Ġboargerynfiltrant":13598,"ĠZoetendal":13599,"plussers":13600,"ĠSambissa":13601,"ĠjÃ»ntiid":13602,"ĠWeperen":13603,"ĠGroenLeven":13604,"ĠpleksyglÃªs":13605,"ĠFledderus":13606,"ĠWeissensee":13607,"-,":13608,"EÃ©n":13609,"Guon":13610,"IJ":13611,"KN":13612,"Kin":13613,"NN":13614,"Nu":13615,"PC":13616,"Sne":13617,"Sjoch":13618,"bber":13619,"bork":13620,"cte":13621,"cro":13622,"cola":13623,"fÃº":13624,"fort":13625,"fynt":13626,"gal":13627,"gast":13628,"gjende":13629,"ka":13630,"kandid":13631,"lus":13632,"lopen":13633,"mannen":13634,"mbo":13635,"nsen":13636,"nijs":13637,"nota":13638,"oate":13639,"passen":13640,"sa":13641,"setten":13642,"ux":13643,"urig":13644,"vÃ©":13645,"wal":13646,"wearde":13647,"winkels":13648,"Ġ78":13649,"Ġ54":13650,"Ġ72":13651,"Ġ57":13652,"Ġ47":13653,"Ġrug":13654,"Ġ350":13655,"Ġ0800":13656,"enken":13657,"enario":13658,"iners":13659,"inyk":13660,"arium":13661,"Ġfinger":13662,"Ġsmer":13663,"Ġswurd":13664,"Ġdefinsje":13665,"Ġwijk":13666,"ĠwÃ³":13667,"ĠmbÃ»":13668,"ĠbÃªden":13669,"Ġhong":13670,"etarium":13671,"Ġnon":13672,"Ġnaden":13673,"Ġkol":13674,"stsjinst":13675,"studinten":13676,"Ġgre":13677,"Ġgram":13678,"Ġtbs":13679,"Ġtonger":13680,"ĠDissel":13681,"Ġynsl":13682,"Ġenoarm":13683,"Ġeam":13684,"Ġeink":13685,"Ã»p":13686,"Ġopvang":13687,"Ġoplichting":13688,"ligen":13689,"ness":13690,"Ġtee":13691,"olling":13692,"akers":13693,"Ġmeist":13694,"Ġmeimeitsje":13695,"gegevens":13696,"Ġfoarsk":13697,"Ġfoarfal":13698,"Ġfoardoar":13699,"Ġfoarljochting":13700,"Ġfoargonger":13701,"ĠSli":13702,"ĠSoe":13703,"ĠSik":13704,"ĠSomtiden":13705,"Ġbehelle":13706,"ĠFel":13707,"Ġomlizzende":13708,"ĠIerlÃ¢n":13709,"ĠlÃºster":13710,"Ġoankeap":13711,"Ġoangeande":13712,"Ġnetten":13713,"Ġalteast":13714,"Ġferzje":13715,"Ġnot":13716,"eare":13717,"earjende":13718,"Ġstij":13719,"Ġstrate":13720,"ĠHan":13721,"ĠHier":13722,"ĠHun":13723,"ĠHek":13724,"ĠHennie":13725,"Ġjuli":13726,"Ġjanu":13727,"ĠMolle":13728,"ĠMech":13729,"ĠMilieu":13730,"ĠBril":13731,"ĠBogerman":13732,"ĠWo":13733,"ĠNyk":13734,"Ġoerflak":13735,"ĠItal":13736,"ĠArie":13737,"ĠAtte":13738,"ĠAko":13739,"ĠAgri":13740,"ĠEg":13741,"ĠEartiids":13742,"Ġzon":13743,"ĠÃºtkaam":13744,"ĠÃºtfeart":13745,"rysk":13746,"ĠLeiden":13747,"ĠLucht":13748,"ĠLars":13749,"ĠOud":13750,"ĠOude":13751,"ĠFryslan":13752,"weagen":13753,"unsters":13754,"Ġredelijk":13755,"Ġcor":13756,"rene":13757,"renzen":13758,"ĠKir":13759,"ĠKabel":13760,"Ġ180":13761,"esje":13762,"ĠTrie":13763,"Ġsawiesa":13764,"Ġskuon":13765,"ĠÃ´flever":13766,"ĠÃ´fdielingen":13767,"ĠJit":13768,"ĠJun":13769,"ĠGu":13770,"ĠGaliÃ«n":13771,"aple":13772,"Ġerin":13773,"ikels":13774,"ikrobiolooch":13775,"ĠVak":13776,"ĠVerm":13777,"Ġspyt":13778,"efstra":13779,"Ġliever":13780,"antgum":13781,"skou":13782,"ĠRam":13783,"ĠRÃ»n":13784,"ĠRuss":13785,"ĠPan":13786,"ĠPod":13787,"ĠPraag":13788,"ĠPRO":13789,"irns":13790,"ump":13791,"Ġmeub":13792,"Ġbesef":13793,"otlÃ¢n":13794,"telaar":13795,"ĠÃ»nderhannel":13796,"oso":13797,"berne":13798,"olleezje":13799,"ederatie":13800,"Ġrivier":13801,"Ġferslein":13802,"feer":13803,"Ġwurkgelegenheid":13804,"Ġoantaast":13805,"ĠAlten":13806,"Ġberch":13807,"Ġberoep":13808,"ferg":13809,"Ġbegon":13810,"Ġeilanners":13811,"Ġ2010":13812,"Ġbedra":13813,"stell":13814,"uper":13815,"atelid":13816,"Ġverboden":13817,"Ġvergeten":13818,"Ġbellet":13819,"Ãºtstjoering":13820,"Ġtried":13821,"ĠWesten":13822,"Ġgroeide":13823,"abed":13824,"abon":13825,"Ġlykspul":13826,"Ġiepeningstiden":13827,"Ġmoetsje":13828,"Ġgebeld":13829,"Ġpersonen":13830,"Ġkeare":13831,"Ġbestim":13832,"landse":13833,"ĠStok":13834,"Ġorde":13835,"lijker":13836,"keting":13837,"entie":13838,"Ġweromkomme":13839,"wenning":13840,"ĠÃ»ntken":13841,"ĠferhÃ»":13842,"Ġjildende":13843,"Ġzowel":13844,"Ġbedriuweter":13845,"learring":13846,"sluit":13847,"Ġfuortfallen":13848,"ploegen":13849,"Ġcoronagefallen":13850,"Ġswom":13851,"ĠJanet":13852,"ĠSchip":13853,"Ġpassy":13854,"Ġfamili":13855,"ĠÃºtsocht":13856,"ĠSpaanske":13857,"ĠSkip":13858,"ĠSkotlÃ¢n":13859,"Ġgreiden":13860,"ĠwenhÃ»s":13861,"ĠpoÃ«":13862,"ĠBoom":13863,"ĠSnakker":13864,"Ġschoon":13865,"Ġsnie":13866,"Ġsykaksje":13867,"diken":13868,"Ġfytspaden":13869,"Ġnatuerlike":13870,"Ġdielname":13871,"Ġferoarsaak":13872,"ĠElgersma":13873,"ĠeftergrÃ»n":13874,"ĠAmir":13875,"loit":13876,"Ġparad":13877,"Ġparkearre":13878,"Ġ450":13879,"ĠrÃ»nte":13880,"Ġblijf":13881,"hous":13882,"hotel":13883,"Ġwinters":13884,"Ġideale":13885,"Ġbeppes":13886,"Ġwitst":13887,"fining":13888,"Ġpreem":13889,"Ġtafalt":13890,"Ġswierder":13891,"Ġboekingen":13892,"Ġmuziek":13893,"Ġreser":13894,"Ġbleek":13895,"Ġpersintaazje":13896,"ĠAlleen":13897,"ĠProRail":13898,"Ġtoege":13899,"Ġ2001":13900,"Ã¯teit":13901,"Ġpraktiken":13902,"Ġfernijd":13903,"uigen":13904,"Ġgehei":13905,"Ġdoarpsbewenners":13906,"Ġkompetysjes":13907,"wente":13908,"Ġbiologyske":13909,"Ġferlienen":13910,"Ġfarsk":13911,"ĠSmals":13912,"Ġsintsje":13913,"ĠkrystfakÃ¢nsje":13914,"Ġbrea":13915,"Ġboekt":13916,"Ġtanommen":13917,"ĠOnze":13918,"ĠOnno":13919,"Ġ1940":13920,"Ġsochten":13921,"Ġkapot":13922,"Ġ900":13923,"ĠKollumers":13924,"Ġkwytrekke":13925,"ĠAndrÃ©":13926,"Ġdynam":13927,"Ġynstrum":13928,"ĠstÃ¢npunt":13929,"Ġreizge":13930,"Ġstjerre":13931,"ĠRotte":13932,"Ġflechten":13933,"Ġtankjen":13934,"Ġhanthavene":13935,"valid":13936,"Ġtrochsocht":13937,"Ġfjoerwurkferbod":13938,"Ġoerset":13939,"Ġverdriet":13940,"Ġeksamens":13941,"ĠWesterbork":13942,"Ġferbettering":13943,"ĠJoadsk":13944,"ĠCohen":13945,"Ġkonserten":13946,"Ġadvokaten":13947,"Ġvrijwilligers":13948,"onkerak":13949,"ĠRoemeniÃ«":13950,"buske":13951,"Ġkommissarissen":13952,"ĠNoorden":13953,"Ġhouts":13954,"Ġlogisch":13955,"ĠAdri":13956,"Ġblykber":13957,"Ġdjoere":13958,"buien":13959,"Ġminstens":13960,"ĠynhÃ¢ldlike":13961,"ĠReizen":13962,"ĠreeÃ«n":13963,"Ġpromovearret":13964,"Ġaangegeven":13965,"ĠFinan":13966,"Ġwinnende":13967,"Ġfoldogge":13968,"nimmende":13969,"Ġcoaches":13970,"materi":13971,"Ġgeneraasjes":13972,"Ġfergoede":13973,"Ġspeler":13974,"clus":13975,"Omdat":13976,"Ġkursussen":13977,"ĠKultuer":13978,"Ġperspectief":13979,"ĠScheepvaart":13980,"cherming":13981,"ĠoertrÃªd":13982,"ĠÃ»ndersyksburo":13983,"Ġfinzenisstraf":13984,"Ġturnsters":13985,"Ġpykjes":13986,"Ġliefst":13987,"ĠSteenbergen":13988,"ĠDoarpswurk":13989,"rinnend":13990,"Ġoanskerpe":13991,"Ġboatsjeminsken":13992,"Ġbesoarge":13993,"waele":13994,"ĠTsientallen":13995,"ĠFolker":13996,"Ġsuske":13997,"ĠDÃªroer":13998,"Ġyngewikkel":13999,"Ġgevaarlijk":14000,"ĠWierda":14001,"ĠÃºtbrekken":14002,"ĠmÃ»lekapkes":14003,"Ġomskriuwt":14004,
[...]
