#version: 0.2
ï Ģ
Ã Ń
Ġ Ã
ïĢ ¥
Ġ n
Ġ t
Ã ¡
Ã ł
e n
t e
Ã ³
d o
te x
do f
tex t
< |
| >
en dof
endof text
Ã ©
Ġ o
. <|
Ġ a
g b
Ã ¨
Ã º
Ã ¬
Ġ s
Ġn i
Ã ²
Ġ l
Ġ w
á »
Ġ i
á» į
Ġ k
ĠÃ ł
ïĢ £
a n
u n
Ġ b
t i
á º
Ġ m
áº ¹
w o
Ġt i
ĠÃ ¬
r i
Ġ p
Ã ¹
Ġn ÃŃ
Ġ f
Ġ j
Ì Ģ
Ġt ÃŃ
Ġ y
r a
Ì ģ
Ġ d
Ġ gb
r ÃŃ
i n
Ġ e
Ãº n
l e
Ġ A
ĠÃ ³
Ġ O
ĠÃ ¨
ĠÃ ²
r e
o n
Ãł n
k o
Ã¬ ÃŃ
ĠÃł wo
Ġ 1
Ġs ÃŃ
b a
Å Ħ
l o
Ġj e
d e
Ġ ÅĦ
s e
Ġl o
Ġ (
Ã¡ Ãł
l Ã¨
wo n
Ġ r
b i
m o
Ġ I
ri n
á»į n
á ¹
Ġf i
Ġt o
l Ã©
ĠÃł ti
á¹ £
Ġs i
Ã¹ n
k an
o r
s i
Ġl Ã¡
Ġk an
p a
j o
â Ģ
l Ãº
Ġp Ã©
Ġw a
Ã¬ n
Ġy Ã¬ÃŃ
Ġn Ã¡Ãł
Ġl a
l a
Ġa won
Ġw o
t o
Ġl Ã³
gb a
Ġw Ã³
gb Ãł
r o
Ġs e
l u
Ġa ti
y e
d Ã¨
Ġt Ã³
n Ãº
Ġ g
k a
Ġ á»į
Ġk o
ïĢ ¨
Ġ1 9
n i
Ã Ģ
Ġb i
Ġf Ãºn
l Ã¡
n u
r Ã²
w á»įn
l Ã³
e r
Ġb ÃŃ
Ġs o
Ġb Ã¡
gb o
Ã¡ a
t a
m i
b Ã¡
y ÃŃ
Ġw on
d a
d i
Ġp e
Ġ N
p o
ĠÃ Į
j u
Ġs Ã¬
ïĢ ¤
g un
h un
Ġk Ã²
j Ãº
l áº¹
ĠlÃ¡ ti
Ġm Ã¡a
Ġm o
Ġ B
Ġj Ã©
Ġ 2
Ġ S
k Ã³
Ġd i
Ġ M
ĠÃ Ĵ
Ġa ra
Ġb a
Ġgb a
Ġr Ã¨
ïĢ ©
Ġ E
b ÃŃ
ĠnÃŃ nÃº
Ġw Ãł
Ġ re
Ġ Y
gb Ã³
Ġp a
ÃŃ n
w a
Ġ K
p e
ĠÃ¨ dÃ¨
Ġk ÃŃ
Ġl e
Ġf un
ïĢ¥ .<|
gb e
Ã Į
Ġ G
w Ã³
a r
o gbo
y Ãłn
r Ãº
p Ã²
j i
s o
Ġla ti
Ã¡ n
Ġy i
y Ã©
n ÃŃ
Ġw Ã¡
Ġ âĢ
ĠÃ¬ lÃº
N ÃŃ
Ġm i
Ġ J
ĠÃł wá»įn
j Ã¬
r an
k Ã²
n Ã¬
Ġgb ogbo
0 0
ĠY or
k i
r u
y Ã¨
Ġ D
Ġo ri
Ġk i
Ġj áº¹
j e
l Ãł
a a
l i
w Ã¡
w Ã²
d Ã¡
y i
Ġo hun
r Ã¨
Ġ á¹£
Ġni nu
Ġ áº¹
Ġo rÃŃ
e de
en i
Ã ĵ
b e
Ġm Ã©
m e
Ġi le
m á»į
Ġi s
nÃ¬ yÃłn
r Ã©
Ã¹ bÃ¡
Ġk Ã³
Ġl Ã¨
Ġ T
Ġt Ãł
Ġ C
Ġ L
ĠÃ¨ nÃ¬yÃłn
b o
g e
Ġ rÃŃ
f i
s ÃŃ
Ġt a
ĠÃ Ģ
d Ãºn
u s
gb Ã©
y a
k e
Ġi lÃ©
ĠYor Ã¹bÃ¡
d un
Ãł t
Ã Ī
Ã³ Ã²
ïĢ Ī
w Ãł
t ÃŃ
d Ã©
r un
n a
Ġt Ãºn
Ġi lÃ¨
t Ãłn
Ġw á»įn
k á»į
y Ã¬n
r Ãłn
Ã Ĵ
Ġp Ã¨
r Ã³
w e
ĠtÃł bÃŃ
m Ã²
y an
l Ã¹
Ġ F
w Ã©
r Ã¬
y in
ïĢ¥ ,
Ġ eni
ïĢ ı
d u
m u
Ġd a
k Ã¨
Ġgb Ã³
Ġori le
k Ã¬
Ġgb Ã©
Ġ P
á» Į
gb Ã¨
j áº¹
k un
Ġá¹£ e
r Ã¹n
ĠÃ¬ s
Ġl Ã©
t Ã³
m a
Ġo lo
Ġw á»į
gb Ã¡
Ġd Ã¡
b er
Ġj u
ïĢ ¬
Ġi bi
g a
p á»į
ÃĢ wo
s Ã¬
Ġo mo
n Ãł
i s
g o
j Ã³
Ġ h
Ġm Ãº
b u
b Ã¨
d ÃŃ
) .<|
b Ãº
ĠÃ¨ yÃŃ
se re
Ġk e
ĠÃłwo n
ĠÃ¬ gbÃł
á¹£ áº¹
t u
p in
ri a
p Ã¡
d Ãł
ri ka
k Ãł
j Ã¨
âĢ Ļ
j a
y Ãł
Ġ H
Ġ R
gb Ã²
in i
Ġb o
Ġta bi
Ġa lÃ¡
Ġb e
âĢ Ŀ
d Ãº
ïĢ §
b Ãł
Ġm e
r Ã¡
Ġd Ã©
c h
ĠÃ ¡
Ġk Ãº
j ÃŃ
h Ã¹n
k u
N i
j á»į
t Ã²
j Ãł
d Ã²
Ġw Ã²
Ġ2 00
d Ã¬
g i
g Ã©
Ġ un
Ġo lÃ³
t h
ĠnÃŃ gbÃł
f a
Ġ ÃŃ
k Ãº
Ġt un
to rÃŃ
ĠâĢ ľ
áº ¸
Ġw ÃŃ
Ġi gba
m ÃŃ
m Ã¬
l á»į
Ġi láº¹
d Ã¹
Ġ -
Ġm a
a i
Ġt e
t an
ĠnÃŃ pa
f in
Ġd e
k Ã¹n
Ã¹ gbÃ³
Ġ1 8
Ġb Ã©
g Ã¹n
Ġa ko
Ġ W
Ġo gun
Ġy Ã³Ã²
Ġa la
Ġgb Ãł
c e
Ġo nÃŃ
Ġr áº¹
ĠwÃ³ n
Ġ ri
b in
ĠI lÃ©
y o
ĠA me
ju lo
ĠÃ¬ tÃłn
Ġf a
g Ãºn
o m
a m
d Ã³
ĠlÃ³ rÃŃ
w á»į
Ġ á»Į
l an
r á»į
Ġn Ã¬
w u
Ġo ni
Ġy ÃŃ
ĠÃ² un
rÃº ko
Ã¨ dÃ¨
Ġm Ã³
bin rin
b Ã©
s a
Ġm u
s an
Ġo dun
m ber
gb on
m Ã³
t Ã¬
ĠÃ Ī
b un
Ġlo ri
or un
) ,
o o
on i
Ġá»į má»į
f Ã¨
Ġd ÃŃ
Ġn n
ĠnÃŃ torÃŃ
ĠM a
Ġi se
ÌĢ .<|
p ÃŃn
k Ã©
r Ãł
Ġf e
Ġn a
Ġp Ãłt
W Ã³
k ÃŃ
ĠâĢ ĺ
f e
f Ã¡
ïĢ£ .<|
Ġa wá»įn
Ġl á»į
Ġgb e
r áº¹
Ġ áº¸
Ãł Ã¬
Ġo rin
Ġw i
Ãł Ã¡
Ġj o
rÃŃ Ãł
m Ã¹
an i
y Ã¬ÃŃ
Ġg Ã©
j Ã©
Ġf Ã©
ĠE bun
Ġo sere
a l
p Ã³
Ġa gba
s Ã¨
b Ã²
l Ã²
Ġo jÃº
? <|
Ġk a
lÃ³ hÃ¹n
Ġeni yan
Ġ "
Ġi lu
da ra
ĠAme rika
s Ã³
y Ã¡
Ġm aa
Ġn aa
dÃº gbÃ²
s t
w Ã¹
Ġl Ã¡Ãł
Ġb Ã¨
ĠA f
Ġpe lu
ĠN o
s Ã¬n
Ãł kÃ¬
n yÃŃ
a re
f un
s u
t un
ĠÃ ©
Ġo jo
ĠmÃ© jÃ¬
Ġk Ã©
Ġe yi
A won
or o
ĠN i
u ba
Ġb Ãł
t Ãł
ĠÃł kÃ³
Ġm Ã¬ÃŃ
Ġ2 0
k Ãłn
Ġo rÃºko
Ġ19 9
ĠÃĮ jÃ¨
ĠgbÃ³ lÃ³hÃ¹n
ĠpÃłt ÃłkÃ¬
B ÃŃ
e ge
f o
jÃŃ rÃŃÃł
ar y
1 9
Ġd Ãº
to ri
Ġt Ã¨
h a
Ġo lu
j Ã²
Ġni pa
p i
t á»į
ĠÃł dÃºgbÃ²
Ġj Ã¹
ĠN ÃłÃ¬
us u
b Ã³
d á»į
s Ãł
Ġa yÃ©
ĠÃ¬ wÃ©
á¹£ e
gb á»į
Ġ U
Ġp o
ĠlÃ¡ ra
m Ãº
Ġi nÃº
ĠO rÃŃ
ĠsÃŃ lÃ¨
ĠmÃ¬ÃŃ rÃłn
ĠNÃłÃ¬ jÃŃrÃŃÃł
Ġo ko
b Ã¹
Ġk Ã¬
Ġe de
b áº¹
h e
i bi
o u
Ġi ye
Ġm á»į
ĠI n
ïĢ¥ -
jo ba
ĠB a
k in
á¹£ Ãł
Ġ19 7
k Ã¡
s Ã¹
ĠO lo
Ġg i
ĠbÃŃ i
ĠK e
ĠD e
Ġwi pe
r Ã¹
Ã² rÃ¹n
Ġ19 6
Ġm Ã²
d Ã¬ÃŃ
k Ã¹
Ġm ÃŃ
ĠÃ¬ dÃŃ
ĠorÃŃ lÃ¨
u ro
Ã¬ s
Ġg ege
dÃ¹ du
Ġl Ã²
ĠA ka
ĠO lÃ³
NÃŃ gbÃł
O hun
ÃĢ wá»įn
ĠâĢ ĵ
Ġo wÃ³
Ġt áº¹
Ġk á»į
de mi
kÃ¹n rin
p Ã¨
Ġ 3
Ġj Ã¡
r Ãºn
Ġa ye
Ġf ÃŃ
Ġj a
ĠtÃŃ tÃŃ
ĠO binrin
Ġyi i
i l
f u
Ġa wo
Ġs Ã¡
Ġp áº¹
wÃ¡ jÃº
Ġo mi
Ġa pa
p Ã©
ĠÃ¬ wÃ¡
se lu
ĠAka demi
v e
an u
dÃ¹du wÃł
l y
Ġs a
Ġni gba
- -
L Ã¡
j Ã¹
m Ã³Ã²
o jo
ĠO sere
mÃ³Ã² gÃ¹n
g ÃŃ
l ÃŃ
s in
dara julo
M o
Ġy e
jo ko
Ġyi o
T ÃŃ
f Ã²
Ġo lÃ¹
ĠÃ¬ jo
ĠA lÃ¡
ÃĪ yÃŃ
Ġh Ãłn
b Ã¬n
m Ã¬n
Ġs á»į
Ġb áº¹
Ġp Ã²
ĠO n
ji ria
e s
an a
ĠI le
Ãłt Ã²
ai jiria
Ġ20 1
ĠOrÃŃ mÃ³Ã²gÃ¹n
f Ãł
rÃ¬ s
pin le
Ġako ko
O rÃŃ
g Ã³
Ġ ra
te r
a ra
n Ã¡
Ġgb o
Ġ19 8
ru ko
a ti
Ġa gbe
Ġi di
ĠÃ¬ yÃŃ
Ġba ba
yÃ¨ sÃŃ
Ġni tori
Ġi rÃº
Ġm Ã¡
Ġg an
er Ã©
bu joko
j Ã¡
v i
Ġ )
Ġi nu
ĠbÃł bÃ¡
h o
Ġp ÃŃn
ĠA are
Ġ1 7
Ġ19 5
sÃ¬ kÃ²
b ogbo
e l
Ġs u
Ġk Ã¡
ĠÃł á¹£áº¹
rÃŃ n
ĠYor uba
bÃ¬n rin
Ġp Ãł
Ġy o
ĠN aijiria
lÃł yÃ©
Ġte le
h i
Ġs Ã©
ĠÃł s
B Ã¡
r Ã¡n
Ġe le
ĠÃ² kÃ¨
Ġ19 4
Ġpa dÃł
ĠT o
t Ã©
t Ã¨
u r
ÌĢ ,
! <|
Ġn kan
Ġa s
Ġs Ã³
Ġm áº¹
ĠO lÃº
t Ãº
ĠÃł Ãł
Ġko ko
ce mber
ĠO dÃ¹duwÃł
ojo ibi
c a
Ġo ju
Ġi da
Ġi bÃ¨
ÌĢ -
Ġe gbe
ĠÃ¨ tÃ²
ÃĢ mÃ¬
d áº¹
in u
kÃŃ yÃ¨sÃŃ
Ġi po
us t
G bogbo
f áº¹
Ġr o
Ġmi ran
ĠolÃ³ rÃŃ
r Ã¬n
Ġti ti
rÃŃ kÃł
ĠÃ² nÃŃ
ĠkÃº rÃ²
ĠdÃº rÃ³
Ġs Ã²
ĠÃĮ jáº¹
gbÃ¡ ra
yÃł wÃ³
B a
I bujoko
Ġy a
in a
I fÃ¨
Ġa rÃ¡
Ã¨ rÃ¨
Ġi be
on go
Ġá»į dÃºn
ĠM o
ÃĪ dÃ¨
ïĢ£ ,
Ġd Ãł
ĠA la
Ġo wo
ĠÃ¬ pÃŃn
Ġlo wo
ÃĮ tÃłn
NÃŃ nÃº
ĠjÃ¡ de
d an
y áº¹
Ġo po
ĠK a
Ġolo selu
Ġme ji
e si
m ini
Ġk Ã¬ÃŃ
Ġp Ãº
f Ã©
t Ãºn
Ġk u
Ġy in
Ġe lÃ©
Ġe rÃ©
Ġpa ta
Ġgi di
g u
p u
en u
ĠÃł wÃ¹
ĠÃ¬ yÃ¡
ÃĢ won
wa ju
mÃ¬n Ãł
k Ãºn
v er
Ġd Ã³
ĠO ba
Ġr Ã²
ĠÃĴ kÃ¨
ĠAf rika
Ġl i
ĠÃł gbÃł
Ġb y
K Ã²
Ġ V
Ã¬ mÃ¹
ĠÃ² rÃ¬s
ge ria
ĠKe ji
ĠDe cember
anu ary
m ar
t y
Ġi ru
ri s
ĠnÃŃ nu
ĠA gba
Ġ19 3
sÃ³ dÃ¬
c o
Ġa n
Ġi gi
ĠÃł kÃŃyÃ¨sÃŃ
ĠD i
ĠÃ¬wÃ¡ dÃ¬ÃŃ
b Ã¹n
h an
Ġo ruko
Ġb Ã³
ĠA l
gbÃ¨ gbÃ¨
âĢĿ .<|
Ġtun tun
L Ã©
a ye
t Ã¡
Ġt Ãº
Ġa ya
ri le
on a
Ġke jÃ¬
mini ra
c i
d in
o s
p Ãł
p ÃłÃ¡
Ġo kun
gb áº¹
Ã² Ã³
Ġi pa
Ġi joba
ri wa
ĠI fÃ¨
Ġkan kan
h Ã¬n
te d
Ġl Ãł
Ġi gbe
ÃĮ dÃŃ
Ġi wo
ĠÃł pÃ³
ĠO gun
Ġ1 6
ĠM ar
ĠdÃŃ Ã¨
Ã¬s Ãłn
e re
s un
t áº¹
u usu
Ġo f
ĠÃ¬ wÃ²
ĠÃ¬ mÃ²
ĠÃ² rÃ²
om ba
ĠNi geria
g an
o gun
y á»į
Ġ 4
Ġo yÃ¨
Ġy ÃłtÃ²
si le
ĠÃĮ pÃŃn
Ġle yin
ĠJ anuary
dÃ¡ ra
ĠÃ¬yÃŃ sÃ³dÃ¬
b Ã¬
Ġo un
Ġa pÃ¡
ĠÃł sÃ¬kÃ²
ĠÃ¬ bÃ¡
Ġsi le
Ġla rin
ĠJ u
f á»į
k áº¹
n Ã¹
Ġo ro
Ġo run
Ġi fÃ¡
ĠÃ¬ yÃłwÃ³
Ġf o
ĠbÃ¡ yÃ¬ÃŃ
d Ã¹n
d ÃŃn
f ÃŃ
n e
ĠÃ º
Ġt Ã©
ti on
ĠÃ¬ wÃł
Ġgb i
ĠO c
Ãłn Ãł
ki ri
Ġbe re
Ġ200 7
Ġpata ki
s Ã©
Ġ 5
Ġ ;
Ġi á¹£áº¹
Ġj ÃŃ
Ġy an
rÃŃ s
ĠÅĦ lÃ¡
Ġg ÃŃ
ĠS e
ĠÃ¬s Ã²
ĠpÃº pÃ²
c k
g áº¹
m an
ĠlÃ¡Ãł rin
a s
ĠÃł gbÃ©
Ġr Ã¡
si a
00 0
Ġda ra
ĠR e
Ġagbe gbe
o l
Ġb u
Ã¹ gbá»į
ĠDi darajulo
e b
s áº¹
Ġt an
Ġt Ã¡n
ĠÃł Ã¡
ĠnÃŃ bÃ¨
Ġe mi
Ġ19 2
kÃ¬ tÃ¬
is an
d y
s Ã²
u g
u po
w Ã¬
Ġ 9
Ġo bÃ¬nrin
ko so
Ġ1 1
ĠI s
ĠB o
kÃ² Ã³
ke jÃ¬
Ġolo ri
ĠnÃ¬ kan
jÃ¹ lá»į
Ġsu gbon
a ma
r on
y en
Ġn omba
Ġo binrin
ĠÃł fi
ĠA n
Ġ1 0
to ber
di a
ĠL Ã¡
ÃĴ un
ĠfÃŃ Ã¬mÃ¹
ve mber
ĠÃĮpÃŃn láº¹
m Ã©
s on
Ã¡ jÃº
Ġs ini
Ìģ .<|
ĠS a
ĠOrÃŃmÃ³Ã²gÃ¹n jÃ©
) :
o lo
t s
y Ã¡n
Ġ c
Ġ do
Ã³ mÃ¬nÃł
Ġo do
Ġa gbÃ¨gbÃ¨
Ġi bÃ¹
ĠA kin
Ġsi se
ĠwÃ¡ yÃ©
ĠorÃŃ s
be l
ĠmÃ© jÃ¨
s s
Ġo s
Ġo su
Ġni bi
Ġi we
ĠÃł gbÃ¡
Ġb Ã²
Ġy en
Ġr an
Ġla to
ju mo
ĠnÃ¬ yÃŃ
ĠÃłwÃ¹ jo
ĠÃłpÃ³ lÃł
W on
h in
i se
l Ã¬
m Ãł
Ġa bo
Ġa na
Ġs Ã¨
ĠÃł gbÃ¨
un i
ĠnÃŃ bi
Ġ19 1
NÃŃ torÃŃ
ĠÃº n
G Ã©
b á»į
n Ã¬ÃŃ
p ÃŃ
y Ã³
Ġt u
Ġt Ã¬
Ġo lÃº
Ã¨ jÃ¬
Ġi mo
ĠÃł pe
ĠÃł Ã¬sÃłn
ĠÃ¬ bÃŃ
Ġ1 5
lo wo
la si
ĠG Ã³mÃ¬nÃł
ĠL a
dÃŃn lÃ³
a rin
g er
p Ã¬
Ġo n
Ġo Ã²rÃ¹n
Ġa se
Ġa si
Ġi n
Ġk Ã¹
ĠÃ¬ lÃł
Ġy oo
Ġe to
ĠO rile
Ġ1 4
ĠI pinle
ĠB en
ĠM i
ĠalÃ¡ wÃ²
Ġfa ra
ÃłÃ¡ pÃłÃ¡
ĠNo vember
ĠOc tober
B i
m áº¹
w Ãº
Ġo na
Ġa riwa
Ġs un
Ġi kan
Ġi tan
ĠÃ¬ gbÃ©
Ġg a
ĠJ o
ĠorÃŃ láº¹
bÃº rÃ²
Ġkoko ro
g á»į
h Ã¡
j in
l l
p h
Ġi wa
Ġi pÃ²
Ġf áº¹
Ġj i
Ġy Ã©
rÃŃ wÃ¡
Ġe ro
Ã¬ÃŃ rÃŃs
lo po
kan na
Ġg un
Ġg áº¹
ĠS pe
Ġfun fun
Ġju lo
ĠTo darajulo
ĠJu ly
a k
a mi
d Ãłn
g Ã¬
Ġ 6
Ġa i
Ġa da
Ġi ya
Ġp ÃłÃ¡pÃłÃ¡
Ġgb á»į
Ġe re
ĠO kÃ¹nrin
Ġba yi
ĠF eb
Ġagba ra
BÃ¡ kan
ĠÃ¬pÃŃn lÃ¨
mar Ã¨
a yÃ¨
l ÃłnÃł
q u
Ġa to
Ġi pinle
ĠÃł lÃłyÃ©
ĠlÃ¡ Ã¬
ĠlÃ¡ yÃ©
âĢ ĵ
la orun
Ġá»į já»į
ĠÃĴ á¹£
ran ko
tÃ³ tÃ³
kÃł rÃ©
ĠR o
dÃ¹ marÃ¨
A wá»įn
T i
k erÃ©
m en
Ġa so
Ġl ÃŃ
Ġl áº¹
ïĢ£ -
ĠÃ¬ dÃ¡
Ġj Ãł
Ġy Ã¡
Ġd Ã¬
ĠÃ² n
á¹£ i
Ġdi e
ĠD ÃŃ
ĠdÃ¡ ra
LÃ¡ ti
Ġ201 0
ĠOrÃŃmÃ³Ã²gÃ¹n jáº¹
dÃ¡ra jÃ¹lá»į
L e
M a
h am
n g
s Ãłn
Ġ á»įn
Ã¬ wÃ©
Ġs an
Ġs in
Ġi ba
Ìģ ,
ĠO jÃº
Ġ1 2
Ġr Ã¡n
bi a
ÃŃn Ãł
ĠJ a
ĠJ e
tu mÃ²
lan d
ĠNo bel
Ġlato wo
o Ã²rÃ¹n
p Ã¹
Ġn fa
Ġti lÃ¨
Ġp Ã¡
Ġg uusu
ÃŃn tÃ³tÃ³
ÃĮ lÃº
ÃĮ gbÃł
ĠG Ã¨
me ji
yÃ¬n bÃ³
gi di
kÃ¡ dáº¹
ug ust
ĠÃĴá¹£ erÃ©
ĠDÃŃ dÃ¡rajÃ¹lá»į
t Ã¹
Ġn Ã¡
en e
Ġl oni
Ġi fe
ĠÃł Ã¬
ĠÃł wÃ²
ti c
ri c
in e
ĠA kÃ¡dáº¹
ĠO su
or Ãº
âĢ ľ
ĠF ran
Ġh an
ĠU ni
ĠOlo run
A lÃ¡
F Ãºn
J o
J Ã¨
e t
j Ã¬n
t on
ĠÃ ĵ
do n
Ġa o
Ġp i
ko we
Ġwa ye
ĠB ra
pe le
ĠJ Ã¨
ru ary
ke re
mÃ¬ lÃł
ĠkÃ© kerÃ©
fu ru
-- --
g h
h Ãłn
m Ã¡
p Ãº
Ġ 7
Ġni kan
Ġi rin
an gba
ri si
Ġp in
Ġd an
Ġgb Ã¡
Ġse le
ĠN e
Ġáº¹ ni
ĠL e
fi lasi
Ġnigba ti
ĠAla koso
Ġli lo
ĠÃłgbÃ¡ yÃ©
1 8
g Ã²
s h
Ġo ba
Ġw u
Ġk Ãł
Ġla i
gba ra
ro yin
ĠÃĮ kÃłrÃ©
Ġgba jumo
ĠY ou
ĠG e
rÃº ká»į
Ġis Ã©
ĠC a
bÃł dÃłn
Ġ200 9
ĠlÃ¡Ãł Ã¡
pi le
ĠmÃ©jÃ¨ Ã¨jÃ¬
Ġá»įn a
I lÃ©
e ti
f Ã¹
u m
y Ã²
Ãł lÃłyÃ©
Ġa sa
Ġa gbÃ¡ra
Ã¨ lÃº
Ġk áº¹
Ġk Ã¡Ãł
Ġk uro
ĠÃ¬ hun
ri l
ĠA ugust
ĠÃ¨ rÃ²
ĠÃ² wÃ²
Ãłn ÃŃ
ĠlÃ¡ bÃ©
pa dÃł
to bi
gba ye
ĠN a
san mÃŃ
ĠdÃº dÃº
ĠkÃ¬ÃŃ nÃŃ
filasi si
E yi
f Ã¬n
Ġt Ã²
Ġo di
Ġa bi
gb i
Ġs áº¹
Ġi bÃ¡
Ġk Ãºn
Ġti rÃ¨
ĠÃ¬ lÃłnÃł
Ġd aa
ĠÃ¨ Ã¨
Ġ1 3
ĠI fÃ¡
Ġá»į ba
ĠÃĴ gÃºn
ar un
WÃ³ n
h n
k ÃŃn
p m
r y
Ġ Z
ÃŃ s
Ġo pin
Ġp á»į
Ġe wÃ¬
le s
ĠÃ² s
ĠkÃ³ kÃ³
ĠC h
ĠP a
Ġme ta
tan i
ĠÃłkÃ³ kÃ²
Ġpáº¹ lu
ĠÃ¬bÃŃ lÃ¨
ĠSpe ak
d en
i r
m in
te le
Ġo kan
Ġa ba
Ãº sÃ¹
ĠÃł ko
ĠÃ¬ jÃł
Ġj á»į
Ġy Ã³
Ġd uro
ĠA r
ĠÃ² fin
Ġpa ra
ĠG u
ar an
ki ti
ĠD o
ĠT a
bo dy
ĠP o
OrÃŃ s
dÃŃnlÃ³ gÃºn
ĠFeb ruary
2 00
I bi
S e
e le
f or
p áº¹
t or
Ġo dÃºn
Ã¨ fÃ¹
Ġi gbÃ³
ri ca
Ġp upo
Ġj Ã³
Ġe wu
ĠA won
ko ko
Ġ2 5
Ġpa da
ĠL i
ĠH a
já»į ba
lá»į pá»į
bÃ© Ã¨rÃ¨
ĠsÃ© Ã¨fÃ¹
I s
m m
m Ã¨
w i
y Ã¬
Ġo de
Ġa isan
Ã¬ yÃłn
Ġni p
ĠÃł rÃ¹n
ra l
Ġgb angba
in g
ĠA p
ĠA ra
la m
Ġ2 9
sÃŃ lÃ¨
rÃ¡ mÃł
Ã¹gbÃ³ n
Ġoni mo
ĠMa y
19 9
uro pe
rÃºn mÃ¬lÃł
ric an
S u
d Ã¡a
i lu
p te
Ġ 0
Ġo hÃ¹n
Ġa pe
Ġni be
Ġl u
Ġk Ãłn
ĠÃł n
Ġj Ã¬n
Ġe e
Ġe ru
ĠA ust
ĠO lu
pa po
Ġla ra
Ġla arin
Ġbi i
ÃĮ wÃ©
Ġmi mo
wÃł Ã¡
jÃŃ bÃ³
Ni gba
ĠmÃŃ rÃłn
ĠBen in
jÃŃbÃ³ gun
I rÃº
O R
R e
d Ã¡n
k si
o lu
o ju
s á»į
Ġa fi
Ġi ko
un e
ĠÃ¬ rÃ³
Ġf Ãł
Ġy Ã²Ã³
ĠA P
ĠlÃ³ nÃ¬ÃŃ
Ã¡n dÃ©
Ġki ri
bÃł lÃ¹
Ġme je
gbon a
ĠIn dia
yáº¹ wo
Y or
i m
i wo
i ye
t Ã¡n
Ġ 8
Ġn u
Ġo o
Ġo dÃ²
á»į fun
ti ki
ĠÃ¬ rÃ²
ĠÃ¬ lÃ¹
Ġp ÃŃ
Ġf Ã³
Ġy Ãł
Ġd Ã¡a
ĠsÃŃ wÃ¡jÃº
Ġá»į gá»į
ĠB Ã¡
ĠM e
bo yan
âĢĻ .<|
mÃŃ rÃłn
ĠonÃŃ mÃ²
wu jo
ĠmÃ¡ rÃ¹n
ver y
ĠrÃ¡ rÃ¡
Le yin
" .<|
A ra
C ongo
E very
L ati
N inu
O mo
O lÃ³
W o
e ko
m bÃł
o ba
p er
Ġo ke
Ġa gbo
gb á»įn
Ġi ku
ĠÃł bÃ²
an de
ĠsÃŃ bÃ¨
Ġla san
ĠM u
Ġre re
ĠD a
ĠÃĢ jÃł
Ġ18 8
lan a
lan di
Ġnn kan
ĠIn vi
il li
gÃŃ gÃŃ
Ġorun dun
pile se
pte mber
Every body
ĠInvi ted
K o
a t
i i
s si
ĠÃ ģ
Ġo rÃºká»į
Ġa b
Ġa tÃ³
Ġa bÃ©
Ġa kÃ©
Ġw e
Ġi re
Ġi si
ĠÃł tÃºn
ĠÃł bÃºrÃ²
ĠÃ¬ dÃł
Ġf Ã¬
Ġy áº¹
ĠO mo
ĠÃ² de
rin i
ĠlÃ³ jÃº
er un
ĠS o
ĠE urope
ĠmÃ© je
Ãłt Ã¡
Ãłt á»į
âĢĿ <|
kÃº ta
ĠIlÃ© sanmÃŃ
om ina
Ġ196 6
Ġja de
ĠelÃ© yÃ¬ÃŃ
Ġan d
ĠdÃ¡a dÃ¡a
A l
B o
d ro
g y
u l
v a
Ä Ļ
Ġn dun
Ġo ye
Ġa wa
Ã¬ kÃ¬
Ġi pele
ĠÃł te
Ġr Ã©
Ġla be
ĠB an
ĠB ri
Ġpa rÃŃ
ĠK o
eni s
ĠÃĢ kÃłn
ĠF a
Ġbe e
LÃ¡ ra
Ġidi je
ĠtÃº mÃ²
Ġiwo orun
ĠgÃŃ ga
ĠSe ptember
ĠFran si
N A
b an
g Ã¡
k Ã¡n
k usu
r d
s ti
z il
Ã¡ Ã¡jÃº
Ġa bu
gb erun
Ġi kÃº
an o
Ġm Ã¡Ãł
ĠÃ¬ gb
ĠÃ¬ ran
ĠÃ¬ bÃ¨
rÃŃ si
ĠA ye
ĠA so
on u
si ti
ju to
ĠS ch
Ġá¹£ áº¹
ke ji
Ġke re
ĠR i
Ġbo de
ĠwÃŃ pÃ©
Ġ18 9
ĠIlÃ© s
Ġá»Į ba
ĠÃĪ kÃ³
ĠNi ger
ĠpÃł dÃ©
Ġlowo lowo
Ġana filasisi
Ġato mu
pÃº pá»į
Ġdan dan
ĠyÃ²Ã³ kÃ¹
L a
i d
w Ã¨
Ġ *
Ġo oo
Ġa rin
Ġi te
Ġi ji
Ġi so
Ġb á»į
ĠA jÃŃbÃ³gun
ĠÃ¨ lÃ²
ĠsÃŃ nÃº
á¹ ¢
ĠÃĮ bÃłdÃłn
me d
ÃĪ kÃ¬tÃ¬
tÃŃ rÃ©
kun rin
Ġke ji
ja de
th e
ĠbÃ¨ rÃ¨
ĠOlo minira
Ġaya ba
Ġdaa da
illi am
J áº¹
K ÃŃ
L Ã³
O rÃºko
b le
f ÃŃn
i ra
Ġ rin
Ġt enis
Ġo fin
Ã¬ rÃ¬
Ġs oro
Ġs inu
Ġi jo
Ġi pin
ĠÃł ká»į
ĠÃł rÃŃwÃ¡
Ġm arun
Ġp lan
Ġe yin
Ġr Ã¬n
ĠI royin
Ġfi l
Ġla gbaye
ĠY uni
Ġmi i
Ġki i
wÃ¡ dÃ¬ÃŃ
sÃŃ Ãł
ĠÃ¬s Ãł
ga l
Ġ200 6
Ġ199 5
rÃ¹ pÃ¹
ĠAlÃ¡ yÃ©
ĠkÃ¡Ãł kiri
ĠÃ¨Ã¨ yÃłn
ĠAp ril
Su gbon
Yor Ã¹bÃ¡
I fÃ¡
o la
s Ã¡
Ġa be
Ġa ga
Ġa wujo
Ġi lo
Ġi ran
Ġi mu
ĠÃ¬ tumÃ²
ĠÃ¬ jÃ¬n
Ġe ko
Ġe ka
Ġe ya
si l
pa pÃ²
la h
ĠJ une
nÃ¬ kan
ĠT i
fi a
ĠpÃ¨ lÃº
Ġolo gun
âĢĻ ,
ĠNo v
19 8
ĠÃ¬dÃŃ lÃ©
Ġele yi
din lo
gbi mo
iwo orun
1 0
4 0
D ÃŃ
I le
a d
o to
Ãł bÃ¡
Ġo Ãºn
Ġo orun
Ġi nÃ¡
Ġk in
ĠÃ¬ pÃ¬
ĠÃ¬ bÃ©Ã¨rÃ¨
Ġgb Ã²
ĠA pa
Ã¡Ãł fin
ĠI jÃ¨
ĠlÃ¡ wÃ¹
ĠtÃ³ bi
ka lÃ¨
er man
ĠN ÃŃ
ïĢ¤ ,
ĠS u
Ġpa to
ĠK i
ĠK en
ĠG ran
ĠG ama
ĠJ áº¹
li a
Ġeni kan
bÃº lÃ©
Ni tori
Ġ200 8
kÃº rÃ©
ĠgbÃł gbÃ³
ĠÃĪ kÃ¬tÃ¬
oo l
ĠAf ÃŃ
Ġojo ibi
Ġ3 0
Ġ3 1
ati on
Ġasi ko
tobi julo
Ġodi di
Ġplan eti
Ġmii ran
b on
e se
i re
i laorun
s te
Ġ '
Ġ en
Ġn pe
Ġt Ã¡
Ġt he
Ã© gÃºn
Ġa run
Ãº ÃºsÃ¹
Ġs Ã¹gbá»į
Ġs Ã¹gbÃ³n
Ġi ja
ĠÃł mÃº
Ġb Ãº
ti le
ĠÃ¬ pÃł
Ġp ro
Ġy á»į
Ġd u
Ġgb ÃŃ
Ġgb Ã¨
Ġe se
Ġe sin
le r
Ġr Ã³
Ġto bi
si rÃŃsi
pa da
Ġá»į wá»į
ĠB u
ĠS an
kÃ³ kÃ³
ĠÃĴ gbÃ³
ĠÃĴ jÃ³
Ġpa ri
us a
ch a
ch e
ĠW a
ĠAme rican
ĠpÃłt Ã³
Ġ197 6
Ġibe re
Ġopo lopo
ĠMar ch
ĠgÃŃ rÃ¡mÃł
yen si
pÃ¬ tÃłn
orÃº ko
ĠBra zil
furu fu
ĠAP OR
ĠBri tani
ĠÃĢkÃłn gbÃ©
2 1
3 0
A wo
K i
L o
b ra
e ye
f Ãºn
g Ãł
h Ãºn
n ÃŃn
o mi
z a
Ã ī
Ì £
Ġt á»į
Ã¡ lÃ¨
Ġo ogun
Ġa á¹£
Ġa dÃ©
Ġa yáº¹wo
Ġa pilese
Ã¬ á¹£áº¹
Ġs Ãºn
ĠÃł jo
an g
ĠÃ¬ kÃ³
ĠÃ¬ já»įba
Ã¹ sÃ¹
Ġf á»į
Ġd un
Ġd in
Ġe jo
le y
ĠA da
ĠÃ¨ kejÃ¬
si ty
ïĢ¤ .<|
Ġ2 4
ĠS t
ĠS lam
li c
sÃŃ wÃ¡jÃº
ĠÃĢ kÃºrÃ©
lÃ¹ mÃŃ
ĠF aran
fa ra
ĠW e
kÃŃ kan
Ġolu kowe
ĠjÃ¹ lo
lÃŃ Ã²
ĠolÃ¹ kÃ³
tÃ© rÃ¬
ĠÃłwÃ¹ já»į
Ġokun fa
fÃŃ rÃŃkÃł
Ġgbi gba
Ġtu mo
ĠGe esi
gÃŃgÃŃ rÃ¬
tÃŃrÃ© s
ĠGran d
1 5
A n
D e
E ni
S i
W á»į
f Ãº
o mo
o jÃº
s Ã¹n
z e
z i
Ġn á»į
en t
Ġa a
Ġa le
Ġa báº¹
Ġa ami
Ãº rÃ³
Ãº pÃŃ
Ã¬ se
Ã² ro
Ã² gÃ¹n
Ġi á¹£
Ġi wÃ¡jÃº
Ġi laorun
ĠÃ¬ tÃ³
ĠÃ¬ wá»į
ĠnÃŃ lÃ¨
Ġy or
Ġd Ã²
Ġe yo
ĠA dÃ©
Ġr á»į
ĠI ta
ĠÃłti jÃ³
pa ti
pa dÃ¡
Ġ19 0
ĠB e
Ġ2 3
Ġ2 6
Ġba kanna
gbÃ³ mÃ¬nÃł
Ġpa pa
ĠG i
Ġori si
lÃł Ã³
Ġáº¹ láº¹
Ġáº¹ gbáº¹
ĠT he
yÃ¬n nÃŃn
Ġh e
ja gun
Ġbo ya
Ġme rin
Ġ200 3
Ġ18 7
ĠonÃŃ rÃº
Ġá»Į wÃ¡
ĠkÃ© rÃ©
ĠOlÃ³ fÃ¬n
mÃ¬n ira
Ġgidi gidi
ĠbÃ³ yÃ¡
ĠNe w
ĠlÃ¡ÃłÃ¡ rÃŃn
ĠSch ool
ÃºpÃŃ tÃ©rÃ¬
yÃ¬nnÃŃn bÃŃ
T Ã³
a lu
f ÃłnÃŃ
m gbÃ³
m ani
n rÃ¡n
o kan
r g
s Ã¡n
x i
Ã ģ
Ġa l
Ġa mo
Ġa fe
gb ana
Ã² kÃ¨
Ġi ke
Ġk m
Ġk un
ĠÃł bÃ¹
ti n
ĠÃ¬ se
ĠÃ¬ pa
ĠtÃŃ Ã³
Ġy Ã¨
Ġy Ãłtá»į
le jÃ²
ĠA s
ĠO lÃ¹
ĠÃ² bÃŃ
ĠÃ² yÃ¬nbÃ³
on e
ĠsÃŃ láº¹
ÅĦ lÃ¡
de r
ĠlÃ³ wÃ³
Ġwon yi
jÃº we
ĠB ÃŃ
ĠB ur
Ġ2 2
Ġdi da
ĠE ko
ĠK ho
ĠG uusu
ĠorÃŃ kÃ¬
ĠL u
ĠL on
jÃ³ kÃ²Ã³
ch i
th er
fa siti
ĠW illiam
ĠdÃŃ dÃ¡
ou r
Ġ201 1
ris ti
ĠÃłfi kÃºn
ĠJo hn
ham med
AlÃ¡ ayÃ¨
kiti yan
" ,
E lÃ©
I gbÃ³
O gun
S ÃŃ
a le
a yÃ©
i si
l en
r en
t ro
Ġn se
Ġo bi
Ġo gÃºn
Ġa dÃ¡
Ġa du
Ġa yo
Ġa bÃºlÃ©
Ã¬ lÃº
Ġi la
Ġi bo
ĠÃł pÃŃ
ti s
Ġm Ãł
ĠÃ¬ lÃ©
ĠÃ² rÃ¬
ĠÃ² pÃ¬tÃłn
re e
Ãłn gÃ³
ĠI bi
ĠI joba
Ġsi i
gbÃł gÃ¬
ro to
ïĢ¨ .<|
yÃŃ padÃł
ĠS er
Ġdi di
ĠÃĴ yÃ¬nbÃ³
ĠG erman
ĠJ ÃºpÃŃtÃ©rÃ¬
Ġáº¹ jáº¹
Ġwá»į pá»į
ĠÃ¬gbÃł gbÃ³
ĠkÃº rÃ¹pÃ¹
ĠolÃ³ yÃ¨
san yÃ¬nnÃŃnbÃŃ
Ġeyi ti
Ġolu ilu
pi lÃ¨
tá»į ju
ĠOlo hun
ĠOlÃ³ dÃ¹marÃ¨
lÃŃ máº¹
Ġnitori pe
ĠsÃ³ dÃ¬
ĠOlÃº s
Ba ba
Ba kanna
ver sity
Ġiwa di
ĠjÃ¬n nÃł
ĠÃ¬dÃł gbÃł
Ġfil mu
ĠÃ¬jÃ¬n lÃ¨
ĠoÃºn je
ĠlÃ¡wÃ¹ jo
ĠAfÃŃ rÃŃkÃł
1 6
i le
n tÃ¬
s Ãº
u t
Ç ¹
Ġ :
Ġ u
ÃŃ rÃł
Ġn lo
Ġo selu
Ġa m
Ġa tá»į
Ã¬ jÃ¬
Ġs Ãł
Ġs ÃłlÃłyÃ©
Ã² kÃºta
Ġi gbÃ¡
Ġi tu
Ġi báº¹
ĠÃł dÃ¡
ti re
ĠÃ¬ fi
ĠÃ¬ yÃł
ĠÃ¬ jÃ²
ri ko
Ġp Ã³
ĠnÃŃ lÃ©
Ġe bi
Ġe da
ĠA d
ĠA máº¹
ĠO r
ĠÃ² kÃº
ĠI f
ĠI gba
ĠI gbÃ³
or u
or tu
ĠlÃ¡ sÃ¬kÃ²
ĠpÃ© rÃ©
ĠlÃ³ ri
Ġg Ãºn
Ġá»į lá»į
ta la
yÃŃ n
di e
ĠÃĮ lÃº
ĠM Ã©
ĠÃĴ un
Ġgba jÃº
ĠG omina
je pe
Ġá¹£ Ã¹gbá»į
ĠÃ¬s Ã¨
Ġh a
Ġke kere
ĠH e
ĠwÃ² nyÃŃ
th i
ĠbÃ© Ã¨
ĠdÃŃ áº¹
Ġáº¸ I
Ġagba ye
dara ya
ĠtÃ¨ tÃ¨
Ġ197 5
Ġra ra
ĠÃłÃł rin
ĠdÃł gbÃł
ĠdÃł bÃŃ
ĠAl Ã¡Ãłfin
hÃ¡ lÃł
Ġere kusu
qu e
ĠJe mani
tile jepe
Ã¹sÃ¹ lÃ¹mÃŃ
" <|
O po
Q u
T o
a fi
c t
c al
h u
i á¹£áº¹
i gh
l li
o re
o mu
p an
u ra
u gbá»įn
Ġ ).<|
Ġn o
Ġn la
Ġt Ãłn
Ã¡ tÃł
Ãł rÃł
Ġo sÃ¹
Ġa do
Ġa lo
Ġa yi
Ġw Ãº
Ġi lÃº
Ġi fi
ĠÃł bÃ¡
ĠÃł yÃ¨
Ġti n
ĠÃ¬ á¹£
ri o
Ġe we
le on
ĠÃ³ Ã²
Ġr Ãº
ĠI wo
lÃ© lÃ³
Ġko ja
ïĢ¨ ,
ĠbÃ¡ kan
ĠÃĮ yÃ¡
ĠB i
ĠB ro
Ġ2 1
ĠÃĴ mÃ¹
Ġpa pÃ²
ĠK wa
gbe gbe
ar d
rÃº bÃ¡
me s
lÃ¹ Ãº
bÃł Ã¡
ĠkÃº kÃº
Ġala wo
sÃ³ kÃ¨
Ġojo gbon
Ġ199 9
Ġgege bi
pÃ¨ jÃºwe
lÃŃ sÃŃÃł
es ter
ĠÃłÃł yÃ¨
ĠAla gba
pu po
ĠnÃ¡ ÃŃrÃł
ĠÃłwÃ² rÃ¡n
orÃº ká»į
ĠUni versity
199 0
ĠBÃ¡ mi
ĠÃĢjÃł padÃ¡
ĠAso fin
Ġyor uba
ĠKho isan
ĠÃłpÃŃ Ã¬rÃ¬
ĠGerman y
B Ã©
F un
G ege
H e
I S
I n
J u
K Ã³
O lo
O lu
P roto
S a
a o
a u
a bi
b ÃłtÃ¡
f f
g Ã¨
g Ã¹
i ki
m Ã¡n
n lÃ©
p ti
s tan
t t
w Ã¡ndÃ©
Ãł ba
Ãł jÃ²
en s
Ã³ tÃ³
Ġo go
Ġa ro
Ġa mi
Ġa di
Ġa jÃ©
Ġa kÃŃkan
Ã¨ gÃ¹n
Ġi yi
Ġi na
Ġi lana
ĠÃł lejÃ²
Ġti wo
ĠÃ¬ y
ĠÃ¬ le
ĠÃ¬ so
ĠÃ¬ á¹£áº¹
ĠnÃŃ ÃŃ
Ġy Ãłn
ra po
Ġe po
ĠA kÃŃn
ĠÃ² sÃ¨
on g
á¹£ Ã¹
á¹£ Ã¬ÃŃ
si se
ĠlÃ³ de
Ġg e
Ġg o
Ġso so
po leon
ĠS i
ĠM or
Ġle wu
ĠG ra
Ġis upo
ĠT e
ĠC o
Ġta ko
Ġda gba
ĠP ortu
Ġolo pa
ga gun
is t
âĢĿ ,
ku ta
Ġ200 5
th o
Ġ18 6
ĠyÃŃ Ã²
sa ra
Ġise le
Ġfe yin
ĠlÃ¡Ãł yÃ¨
Ġ199 0
ĠAlÃ¡ ayÃ¨
BÃ¡ yÃ¬ÃŃ
tÃº mÃ²
ĠV i
Ġoun jáº¹
ĠLÃ¡ rÃºbÃ¡
hÃ¡ má»į
ĠlÃŃ tÃŃrÃ©s
Ġmeje ji
Al lah
ĠÃłbÃ¹ dÃ¡
) ;
2 3
I fáº¹
J a
a dÃ©
f ini
g ede
l d
l ongo
s c
w ÃŃ
w ana
Ġ enu
Ġn Ã¡a
Ġo ti
Ġa lu
Ġa ká»į
Ġa jáº¹
Ġa dÃº
gb Ã¹n
Ġs Ã¹n
Ã² n
Ġi to
Ġi tá»įju
ĠÃł lÃł
ĠÃł mÃ¬
wo lowo
Ġti tun
ĠÃ¬ ká»į
ĠÃ¬ rÃłn
ĠÃ¬ lÃ²
ĠÃ¬ rÃ¬n
ri ra
Ġf Ã¡
Ġf Ã¨
Ġj Ã¨
Ġgb in
ĠA t
ĠO kun
ĠÃ² kun
Ãłn Ã¹
se ph
ĠI t
ĠI gbo
Ġfi han
Ã¬n ÃŃ
ka ti
er u
ĠS he
ĠÃĴ gÃ¹n
wa ri
wa rd
ĠK Ã³
ĠG a
so ke
ĠJ Ã¬jÃ¬
ĠD NA
Ġki ko
Ġá¹£ ugbá»įn
ĠC ongo
ĠL ati
ge esi
du du
á»Į má»į
ma tiki
ĠmÃº lÃ¨
Ġbo ri
dÃ¬ yÃłn
Ġun je
ĠolÃ³ gun
ani a
ĠlÃ¡Ãł rÃŃn
19 7
Ġgi ga
Ġ196 0
ĠmÃŃ lÃŃÃ²
Ġja gun
ĠIle geesi
ur tala
gu a
ĠÃłfi hÃłn
ĠibÃ¹ jÃ³kÃ²Ã³
Ġiya wo
Ġpi pe
bÃłlÃ¹ fÃ²
bÃłlÃ¹ fá»į
ĠYuni fasiti
ĠÃ¬pÃ¬ lÃ¨
ĠKen ya
ĠÃ¬pÃł dÃ©
De cember
ElÃ© yÃ¬ÃŃ
tire so
C V
G e
M i
O lÃº
P e
e e
i á¹£e
k le
p en
w áº¹
Ġn á¹£e
en a
Ã³ pÃ³
Ġo re
Ġo kÃ¹nrin
Ġo bÃ¬
Ġa ni
Ġa táº¹
gb Ã¬n
Ã¬ mÃ²
Ġs Ãº
Ġs Ã¬n
Ã² rÃ²
Ġw Ã©
Ġi bujoko
Ġi waju
Ġi gbona
ĠÃł páº¹
ĠÃ¬ ta
ĠÃ¬ nÃ¡
ri e
ri an
ri ri
ĠtÃŃ Ã¬
Ġd ÃŃn
Ġd Ã¡n
Ġgb Ã¹n
Ġe ye
Ġe Ã©gÃºn
ĠO sun
ĠÃ¨ sÃ¬n
ĠÃ² nÃł
ĠsÃŃ lÃ©
Ġlo di
ĠI ba
ĠI jáº¹
á¹£ ÃŃnÃł
Ġsi be
Ġsi ste
si ro
Ġwa kati
la s
ye si
ka ra
ni lÃ©
ÃĢ kÃ³
ĠÃĮ rÃ¨
ĠB el
ĠM ande
ĠwÃł hÃ¡lÃł
wa ye
Ġle e
ki a
ĠD ÃºrÃ³
dÃ¡ lÃ¨
ĠorÃŃ run
ĠorÃŃ sirÃŃsi
ĠC an
ĠC om
ĠÃĢ wá»įn
ÃĴ de
go s
Ġke je
ĠH o
gbÃ² dÃ¬yÃłn
Ġ200 4
Ġ18 0
ĠAme rica
am bi
bÃ© lÃ¬
Ġá»įmá»į de
Ġagba la
ĠAf rica
Ġ199 1
Ġolu gbe
kin a
Ġ197 0
fu u
Ġ198 0
ĠirÃº fÃ©
ĠsÃ³ kÃ¨
ĠMo z
ĠOgun lo
ĠÃłgbÃ© yÃ¨
ts wana
Ġabo juto
ĠyÃ¡ lÃł
Jo hn
koko ro
iye pÃºpá»į
ĠÃ¬sÃł lÃ¨
Ġkin ni
pati tis
Ġafe fe
ĠWilliam s
ĠÃĴmÃ¹ Ã²
ĠPortu gal
Ġsiste mu
' s
. "<|
1 3
1 7
4 3
5 0
B Ã³
G B
I di
P a
Y ÃłtÃ²
c on
d ani
g en
g in
j ÃłnÃł
l in
m s
m y
m er
m oni
w n
Ġ ),
Ġ Qu
Ġn wo
en tu
Ã© wÃ¡ndÃ©
Ġo to
Ġo furufu
Ġa ta
Ġa dÃ¬
Ġa are
Ġl ona
Ġw Ãºn
Ġi do
Ġi ro
Ġk aa
Ġk ede
Ġk ini
ĠÃł se
ĠÃł jÃ²
Ġti le
ĠÃ¬ nÃŃ
ĠÃ¬ fo
Ġf er
Ġj Ãº
Ġy Ã¬
Ġd Ãºn
Ġgb Ã¬yÃłn
rÃŃ sÃŃ
Ġe gbo
Ġe so
ĠA gÃŃgÃŃrÃ¬
ĠO ogun
ĠÃ² gbÃ³
ĠÃ² pÃ²
ĠÃ² tÃŃ
ĠÃ² mÃŃrÃłn
Ġr Ãł
bi se
ĠI lÃ¨
ĠI láº¹
ĠI fe
á¹£ in
á¹£ Ã¨lÃº
si s
Ġkan na
pa ta
jo un
lu mi
ĠfÃºn ra
da d
ju we
ĠkÃ² kÃ³
ĠB ar
ĠS ta
ïĢ© .<|
ĠE gbe
ĠE gy
ĠY A
gbe po
ÃĮ wÃ¡dÃ¬ÃŃ
Ġmi mu
kÃ² rÃ²
Ġis áº¹
ĠC hi
ĠC ol
ĠÃĢ lÃłÃ³
rÃłn mÃŃ
du a
Ġibi le
Ġke mi
ĠalÃ¡ gbÃ¨
ĠalÃ¡ gbÃ¡ra
ĠÃ¡ n
Ġako jo
Ġala ye
ĠIlÃ© á¹£Ãł
ĠgÃ© gÃ©
al k
Ġoko wo
Ġapa po
Ġyio ku
Ġ201 2
Ġ195 8
ĠOlÃº á¹£ÃŃnÃł
enu e
ĠrÃ¡ rÃł
ĠÃłÃ¡ rÃŃn
ĠÃºn jáº¹
men t
ĠdÃ¬ de
ĠpÃ¡ tÃ¡
Ġpin nu
Ġape re
ĠAust ria
ĠÃ¬rÃ² yÃ¬n
Ġtumo si
Ġorisi risi
ĠÃ¬dÃłgbÃł sÃ³kÃ¨
ĠakÃŃkan jÃº
Ġfeyin ti
ĠLÃ¡rÃºbÃ¡ wÃ¡
fuu fu
rÃłnmÃŃ yÃłn
1 4
2 0
A P
B ÃłbÃ¡
C h
C om
D P
E mi
K Ã¬
O un
O jÃº
U N
a ka
f Ã³
g Ãłn
m pi
n o
n Ã¡Ãł
s y
w in
Ġ v
Ġ x
Ġn ko
Ġo r
Ġo se
Ġo jÃł
Ġa ri
Ġa je
Ġa rÃ³
Ã¨ rÃ©
Ã¬ gbÃł
Ġni ra
Ġi ni
Ġi bu
á»į lÃ¡
Ìģ -
Ġd Ã¹n
ĠA de
ĠA yÃ©
ĠO A
ĠO ni
ĠÃ¨ kÃ³
ĠÃ² ye
re re
lo ri
se r
se po
Ġlo ju
Ġr u
ĠI jo
ĠI lu
or ge
si be
la wo
ÃĢ ko
ÃĢ pe
lÃ¡ n
lÃ³ dÃ©
ĠN Ãł
Ġ2 7
Ġ2 8
ĠE de
ĠK am
NÃŃ pa
Ġáº¹ ranko
Ġis u
ĠkÃ³ pa
ĠT alk
ĠL Ãº
ĠÃĢ rÃŃwÃ¡
ĠÃĢ kÃ³kÃ³
wÃł rÃł
ÃĴ kÃ¨
ĠF Ã¡
ĠgbÃ³ dÃ²
ĠP e
ĠP ar
Ġolo rin
Ġomo de
Ġh ai
pin pin
ĠH ere
ĠR a
ini bi
ĠÃ¡ tá»į
Ġun pe
Ġigba gbo
Ġ- ----
ai ra
Ġte mi
Ġte li
ĠgbÃł gbÃ©
Ġá»Į lá»į
Ġá»Į bÃłlÃ¹fá»į
ĠyÃŃ Ã¬
Ġka kiri
Ġolu da
ĠjÃ¹ lá»į
usu lumi
ĠOrÃŃ láº¹
ĠBa ba
Ġ196 2
ĠÃ¬wÃ¡ s
Ġ198 6
BÃ¡ mgbÃ³
Ġ194 3
tÃº rÃ¬
Ġida sile
Ġya to
ĠpÃº pá»į
ĠAgba ye
os ted
táº¹ nu
dÃ¹n nÃŃ
Ġiá¹£áº¹ láº¹
ĠÃłgbÃ© kalÃ¨
ĠibÃ¹ dÃ³
Ġtu tu
ĠlÃ¡Ã¬ sÃŃ
ĠdÃ¡ra dÃ¡ra
ĠlÃ¡ÃłÃ¡ rin
ĠNa poleon
ĠHa usa
mm y
Ã¡ndÃ© lÃ©
ĠFa so
ĠAlÃ¡yÃ© mo
dinlo gun
Ġdu du
ĠFaran se
ĠWe st
ĠBur kina
ĠÃ¬jÃ² yÃ¨
ĠÃ¬nÃ¡ wÃ³
ĠgbÃ¹n gbÃ¹n
1 2
4 6
E jo
G áº¹
I nÃº
L áº¹
N je
O ba
O nÃŃ
O dÃ²
c tion
c tor
i da
l Ã¡Ãł
m bia
n yÃ¬ÃŃ
o d
u pa
y un
Ġ hun
ïĢ¥ ïĢ¥
Ã© sÃ¹
Ġo ru
Ġo kÃ¹n
Ã¬ sÃ¬
Ġi gb
Ġi won
Ġi ta
Ġi yo
Ġk ar
ĠÃł wa
ĠÃł dÃł
ĠÃł sÃł
ĠÃł hÃ¡má»į
un is
ĠÃ¬ lÃ¨
ĠÃ¬ gbÃ¡
ĠÃ¬ dÃ¬
ĠÃ¬ tÃł
ĠÃ¬ á¹£e
ĠÃ¬ wÃº
ĠÃ¬ dÃ¡n
Ġp on
Ġj Ã¬
Ġe rin
ĠA bi
ĠA ber
ĠA mÃ©
ĠO ro
ĠO mi
ĠÃ¨ Ã©
ĠÃ¨ ka
ĠÃ² pin
ĠÃ² jÃ²
ĠÃ² mÃ¬nira
on Ãº
ko wo
lo pÃ²
Ġr Ãłn
á¹ ħ
Ġto tobijulo
Ġsi waju
si waju
ĠlÃ¡ gbÃ¡ra
Ġla ye
la i
la ti
Ġse da
Ġá»į jÃł
ïĢ¨ ïĢ¨
ÃĢ dÃºgbÃ²
lÃ¡ s
lÃ¡ wÃ²
nu mÃ³
bÃ¡ kin
di o
ĠB enue
ĠB Ã¡ndÃ©lÃ©
ĠE le
gbÃ³ n
ĠK an
ĠK ano
ÃĮ wÃł
ĠG ri
lÃł dÃ©
li men
eni a
má»į ráº¹
ĠL o
ĠÃĢ wo
us in
tÃŃ Ã¬kÃ¬
we ll
yan ju
ĠÃ¬gbÃł gbá»į
ĠH CV
ĠR Ã³
Ġtabi li
Ġme lo
ĠolÃ³ wÃ³
tan nÃ¡
ĠMa li
Ġjo ba
Ġka le
ĠAf ro
Ġ197 8
ĠDe c
ĠOlÃ³ rÃŃ
sin a
ĠolÃ¹ wÃł
gÃ³ jÃ¬
Ġgbo do
Ġ198 2
ĠpÃł s
ĠÃłÃ¡ dÃ³
Ġc om
Ġ191 4
ĠLa gbaye
Ġada po
ĠBra sil
ĠTa wa
for d
ĠjÃ³ kÃ²Ã³
Ġá»įgá»į run
Ġabu le
Ġilo minira
Ġiá¹£ an
ĠonÃŃrÃº iyepÃºpá»į
ĠÃ¬pa rÃŃ
ĠLon don
ĠÃ²rÃ¬ sÃł
Ġdidi boyan
ester n
bÃłtÃ¡ lÃ¡
ĠÃ¬le tÃ²
ĠAkÃŃn lÃłdÃ©
ĠÃ²sÃ¨ lÃº
Ġajáº¹ sara
ĠMande la
ĠOA U
Ġhai dro
Ġ----- ----
limen ti
- <|
2 4
A L
A ti
A na
A pÃ¡
I se
I gi
O ruko
T he
a to
a st
b l
e mi
f Ã¬
h ana
i ba
i lÃ©
i wÃ¡jÃº
i joun
m on
o de
p ha
u ri
y s
Ġ X
ĠÃ į
Ġn gbe
te s
Ġo gb
Ġo pa
Ġo ji
Ġo ga
Ġo jÃ³
Ġa r
Ġa Ã¡
Ġa po
Ġs Ã¡n
Ġi gbo
Ġi fo
Ġi riri
Ġk rÃ³
un g
áº¹ li
Ġti i
Ġti tobijulo
ĠÃ¬ kan
ĠÃ¬ pÃ¨
ĠÃ¬ tÃº
Ġf on
ĠtÃŃ Ã¡tÃł
ra ma
in t
Ġe ti
Ġe bun
Ġe fuufu
Ġe limenti
le ge
ĠA Ã¡
ĠA riwa
ĠA sia
ĠA afi
ĠO yÃ¨
ĠÃ² gb
ĠÃ² we
on ÃŃ
ko to
Ġlo po
ĠI se
ĠI mo
ĠI pa
lÃ© wÃ²
á¹£ Ã©
Ġsi so
ĠlÃ¡ papÃ²
ĠlÃ¡ sÃ¡n
pa pá»į
âĢ ĺ
ro on
Ġse yin
Ġg ÃºÃºsÃ¹
Ġá»į kan
Ġá»į dun
ÃĢ s
lÃ¡ wo
mi ran
di de
di je
Ġpe se
ĠÃĮ lÃł
Ġmo kan
ĠE re
ĠE mi
bÃŃ ni
ĠK Ã©
Ġle Ã¨
Ġle gbe
gbe rin
ki ki
ki yesi
ru s
Ġki a
rÃ© kÃ¹
ĠT an
ĠT ur
ĠT rini
ĠtÃł bÃºrÃ²
ĠC on
ĠC our
ĠL an
ĠÃĢ Ãł
du ro
Ġda rÃŃ
ĠP ro
ĠlÃ© yÃ¬n
ïĢ¬ .<|
bu rg
Ġke rin
ĠÃ¬gbÃł lÃ³dÃ©
tu mo
ĠH in
ĠR us
ĠalÃ¡ te
Ġ200 1
ĠolÃ³ dÃ¹marÃ¨
ĠnÃŃgbÃł tÃŃ
mÃŃ kÃł
Ġma thi
ĠÃĪ dÃ¨
Ġgbe yin
ĠÃłkÃ³ kÃ³
Ġ199 2
Ġ199 6
Ġ199 7
Ġ199 8
ha ri
ou th
ĠIn di
Ġ197 9
il l
ĠsÃ¡ bÃł
Ġsa yensi
ĠAlÃ¡ rÃ¨
jÃ¡ de
ĠÃłÃł fin
esi a
ĠrÃ² gbÃ²dÃ¬yÃłn
Ã²Ã³ tÃ³
Ġigbe se
fÃŃ Ã¬mÃ¹
Ġgbi gbe
ĠOc t
ĠÃ¬sÃ² ro
ĠBo tswana
ama i
ĠÃ¬gbÃ© sÃŃ
ĠJa pan
ine a
Ġnu kle
Ġab bl
Ġisi se
Ġdaada a
ĠAlÃ¡yÃ© má»įráº¹
DÃŃ Ã¨
ĠgbÃ² Ã²rÃ²
ĠÃłmÃº lÃ²
ĠSer bia
mÃ¡n Ã¬
ĠÃ¬y ÃłtÃ²
ĠIba dan
ambi que
Ġfer an
ĠgbÃ¬yÃłn jÃº
ĠÃ²tÃŃ tÃ³
ĠCol lege
Ġhaidro jin
ĠAafi rika
% )
. .<|
1 1
5 8
A S
A la
I wo
I lÃ¨
I be
L Ã³Ã²
N o
O rin
O jo
O rile
R a
R o
W á»įn
a jo
a la
c ra
d s
e f
e ri
f t
h y
i rÃŃs
j oni
k en
k eni
m Ãºn
m ba
o g
o do
o dun
p or
r bá»į
t ÃŃn
u p
v o
v al
y n
z er
Â °
Ã ļ
à ¤
ïĢ¥ âĢĻ
Ġn je
Ġn á¹£i
Ġn waye
Ġn aira
Ãł kÃ©
Ġo wa
Ġo minira
Ġo Ã²gÃ¹n
Ġa te
Ġa fo
Ġa káº¹
Ġni le
Ã² wÃ²
Ġl Ã¹
Ġk Ã¡n
ĠÃł rÃŃ
ĠÃł ro
ĠÃł bá»į
un a
un da
un je
Ġb inu
Ġm on
áº¹ ráº¹
ĠÃ¬ h
ĠÃ¬ má»į
ĠÃ¬ gbÃ¨
Ġp upa
ĠnÃŃ báº¹
Ġj in
Ġy ara
rÃŃ rÃŃ
Ġe lo
Ġe ku
Ãºn dÃ©
le lo
ĠA kÃ©
ĠA báº¹
ĠO ju
ĠO dÃ²
ĠO bÃ¬nrin
ĠÃ² kan
ĠÃ² sÃ¬
re si
ba ba
ba lÃ³
ÅĦ tÃºrÃ¬
de l
se pÃ²
mo ra
Ġfi hÃłn
á¹£ á»į
Ġsi mi
Ġla gbara
la r
Ġwo le
gba soke
ro ss
Ġg usu
ka r
Ġá»į pá»į
Ġko rira
ni sÃ²
lÃ³ wÃ³
ta in
di pupo
ĠÃĮ gbÃ³mÃ¬nÃł
ĠM is
ĠM Ã¹sÃ¹lÃ¹mÃŃ
ĠM urtala
ĠÃĴ rÃ¬s
ïĢ© ,
ĠE d
ĠE ng
Ġpa mÃ³
ĠK u
ĠK Ã¡
ĠG ÃŃ
ĠG bogbo
ĠG hana
Ġmi mi
yi po
me roon
ĠtÃł ÃłrÃł
ĠL Ã©
fi rini
ĠÃĢ s
dun a
ÃĪ tÃ²
yin bo
ĠgbÃ³ gun
ĠP en
ma wa
ĠdÃ¡ jÃº
ber g
Ġju lá»į
ga ri
go la
tu re
ria ye
ĠH u
ĠR u
ĠalÃ¡ táº¹nu
dÃº rÃ³
Ġme jo
ĠolÃ³ Ã²
ai ti
Ġ18 3
ĠW im
Ġá»Į má»į
lan do
sa ba
mÃ³ sÃ³
bÃ² kun
dara po
ha mo
Ġnipa sáº¹
ĠBa Ã¡lÃ¨
rÃºn dÃºn
ĠsÃ¡ yÃ©
lÃŃ Ãł
TÃŃ Ã³
ĠolÃ¹ ká»į
ana da
fÃł ÃłnÃŃ
Ġ198 3
Ġ17 9
Ġ195 4
hi a
hi m
Ġ194 0
Ġ194 2
Ġ194 9
Ġegbe gberun
Ġya pa
ĠMo hammed
Ġpata pata
Ġ193 9
Ġokun rin
ĠlÃł ti
ĠÃłgbÃ© lÃ©wÃ²
Ġgbá»į dá»į
ĠrÃ¡n tÃŃ
furu fÃº
ĠgbÃ¡ dÃ¹n
Ġsáº¹ áº¹li
ĠGu inea
ĠpÃŃ pÃ©
ĠÃłtÃºn s
ĠfÃ¬ lÃŃsÃŃÃł
Bo tilejepe
ĠBan tu
ble don
len tele
ĠOr lando
ĠgbajÃº mÃ²
lli on
ĠGra mmy
fini firini
gede meji
ĠAt lan
gua ge
Ġatáº¹ gun
ĠMoz ambique
mpi ki
ĠNÃł ÃŃ
ĠPar ty
ĠAber de
ĠkrÃ³ mÃ³sÃ³
ĠRus sia
Ġmathi matiki
ĠalÃ¡táº¹nu má»į
ĠkrÃ³mÃ³sÃ³ mÃ¹
. âĢĿ<|
2 7
2 8
4 8
7 7
C O
E kiti
G bÃ³
I nu
I bÃ¨
I joba
N a
O dÃ¹duwÃł
P Ã¨
P osted
S Ã¹gbÃ³n
T a
a pa
a li
a bo
a Ã¡jÃº
e jo
f re
f rÃŃkÃł
g n
i k
i t
j an
m bu
m pÃº
o rÃŃ
o rin
o orun
r n
t re
v an
v is
w an
z u
Ġ ch
en ni
te ria
Ġo lÃ¨
Ġo rÃ²
Ġo tÃŃ
Ġa de
Ġa jo
Ġa mu
Ġa go
Ġa tun
Ġni to
Ġni ni
Ġl enu
Ġi fa
Ġk Ã¨
ĠÃł so
ĠÃł nÃŃ
ĠÃł wá»į
ĠÃł kÃłn
ĠÃł á¹£Ãł
ĠÃł fÃ²
ĠÃł gÃ³
un d
Ġm usulumi
Ġti re
Ġti láº¹
ĠÃ¬ yÃłn
ĠÃ¬ kÃ²
ĠÃ¬ já»į
ĠÃ¬ fÃ©
Ã¹ wÃł
Ġf in
Ġgb on
rÃŃ ko
in o
Ġe won
Ġe si
Ġe tÃŃ
Ġe wÃ©
Ġe jÃ²
Ġe ranko
Ġe finifirini
ĠA koko
ĠO jo
ĠO la
ĠO nÃŃ
ĠO li
ĠÃ¨ ro
ĠÃ² Ã³
ĠÃ² Ã²
ĠÃ² dÃ²
ĠÃ² pÃ³
ĠsÃŃ i
ĠsÃŃ ÃŃ
ĠsÃŃ se
lo go
bi ri
ĠI po
ĠI fáº¹
Ġsi r
Ġsi ta
or n
si ko
ĠlÃ¡ báº¹
ĠlÃ³ gÃºn
gbÃł Ã¡
Ġg Ã¨
Ġá»į ká»į
Ġko jÃº
ÃĢ sÃ¬
ÃĢ Ã¬sÃłn
nu dÃ©
lÃ³ mÃŃ
ĠbÃŃ bÃŃ
ta l
di pÃºpá»į
ĠÃĮ jo
ĠÃĮ gbÃł
ĠÃĮ dÃŃ
ĠB Ãłba
ĠS pa
ĠS ha
ĠM on
ĠÃĴ wu
Ġgba gbo
ĠE rÃ©kÃ¹
ĠY u
ÃĮ y
ĠG o
ĠG ÃºÃºsÃ¹
lÃł gbÃł
li sh
Ġáº¹ nu
Ġis in
Ġis oro
Ġeni keni
du ra
Ġda ri
Ġda bi
ĠgbÃ© ra
ĠP ri
á»Į na
Ġá¹£e e
tÃ³ bi
ma d
ma s
gbÃ¡ dÃ²
bu gbe
dÃŃ Ã²
pin nu
ĠH un
ĠH aiti
Ġbo olu
Ni pa
th an
ĠW Ã³
Ġala i
Ġala fia
ĠonÃŃ gbÃł
rá»į si
Ġjo wo
lÃ² mÃŃrÃłn
sÃ³ n
st ri
ĠmÃ©jÃ¬ lÃ¡
ĠmÃ¬ÃŃ ran
ĠU S
Ġ197 1
ĠDe mo
Ġ196 1
Ġ196 3
Ġ196 7
ĠsÃ¡ rÃ©
ĠolÃ¹ gbÃ©
Ġ198 9
Ġidi boyan
Ġbaba lÃ¡wo
ho mas
Ġ195 0
Ġ195 1
Ġ195 9
Ġsu ga
ĠkÃ¡ rbá»į
ĠpÃł Ãł
Ġ194 5
Ġ194 6
ĠTo go
Ba yi
ĠÃ¬pÃŃn láº¹
ĠKa t
ĠelÃ© dÃ¹marÃ¨
gu usu
ĠOba ma
ĠÃłgbÃł do
ĠÃ¬bÃ¡ gbÃ©
ĠÃ¬bÃ¡ nisÃ²
Ġfo jÃº
fÃŃ Ãł
Ġgbi gbona
Ġdara dara
Ġ192 0
ron u
mÃ© jÃ¬
ĠSa ina
Ġosu pa
Ġasi waju
jin le
ĠSpe in
Ġaso fin
ĠUni ted
Jo seph
Ġwu ra
Ġaba la
Ġpara pá»į
ĠÃłn fÃłnÃŃ
Nigba ti
Ġafi kun
ĠyÃł rÃ¡
ĠÃģ fÃŃrÃŃkÃł
ĠÃģ frÃŃkÃł
Ġab inibi
Ġisi ro
ĠÃ¬gb Ã¬mÃ²
á¹¢ Ã¹gbá»į
ĠNÃŃ gbÃł
ĠSu dan
ĠÃĴgbÃ³ ni
ĠIta ly
ĠJohn son
Ġadu gbo
Ġayi ka
ĠwÃº lÃ²
Ġalawo dudu
ĠBÃ¡mi jÃŃ
ĠLati n
ĠEgy pti
Ġakojo po
ĠpÃ¡tÃ¡ pÃ¡
ĠAÃ¡ fÃŃrÃŃkÃł
ĠCour t
ĠWim bledon
mpÃº tÃł
ÃĢsÃ¬ Ã¡
lÃ³mÃŃ tÃł
0 4
2 6
3 8
5 4
5 5
6 3
8 0
A o
A me
B ra
D a
E gbe
I lu
I ye
I ru
I ya
I fe
K a
K Ã¡
L u
L Ã¡Ãł
O na
T ele
a lÃ¡
c u
c y
e d
e Ã©
e gbe
e pÃ²
f er
g Ãº
j ini
m b
o ti
p le
p on
p ani
r r
s Ãºn
s pa
s ter
u rÃº
w er
Ġ ci
Ġn so
Ġn saba
Ġt aa
Ãł bÃŃ
en ce
Ġo kÃ²
Ġo we
Ġa k
Ġa kÃ²
Ġa wÃ©
Ġa kitiyan
Ġs aa
Ġni waju
Ġni gbana
Ġw Ã¹
Ġw ere
Ġi run
Ġi wu
Ġi bÃ¬
Ġi yÃ¡n
Ġi daraya
Ġk J
Ġk Ã¬n
ĠÃł lÃ¨
ĠÃł papÃ²
Ġb ÃłtÃ¡
Ġm enu
ĠÃ¬ p
ĠÃ¬ je
ĠÃ¬ bÃł
ĠÃ¬ kÃłn
ĠÃ¬ tá»į
ĠÃ¬ báº¹
ĠÃ¬ rÃ¡n
ĠÃ¬ tÃ¨
Ġf Ã²
Ġf ÃŃn
Ġf ai
Ġd Ã¨
rÃŃ Ã¬sÃ¬
Ġe wa
Ġe me
Ġe gbÃ©
ĠA ri
ĠA le
ĠA gbegbe
ĠO do
ĠO rin
ĠÃ¨ mÃŃ
ĠÃ² wÃº
Ã¬ÃŃ n
Ġ1 00
ba je
ÅĦ sÃ³n
de s
Ġlo do
Ġr Ã¬
ĠI S
ĠI ran
Ġfi i
lÃ© kÃ¨
or ld
âĢ ¦
Ġla aye
lu aye
ka le
Ġko m
Ġko pa
Ġko okan
Ġ19 19
ÃĢ kÃŃyÃ¨sÃŃ
lÃ¡ ra
lÃ³ gun
er s
ta bi
Ġpe re
ĠÃĮ s
ĠÃĮ tÃłn
ĠkÃ² kÃ²rÃ²
ĠB al
ĠB ÃłbÃ¡
Ġdi po
ĠM Ã³
ĠÃĴ de
ĠÃĴ kun
Ġba a
Ġba wo
Ġba ki
Ġba alu
Ġgba le
ĠE n
ĠY Ã©wÃ¡ndÃ©
ÃŃn Ã¬
wa di
ĠK á»į
ĠK ar
ĠK ongo
ĠkÃŃ ko
ĠkÃŃ kÃ³
Ġfun ra
ÃĮ mÃ²
ÃĮ yÃ¡
ĠJ an
ĠJ amai
Ġjáº¹ dá»į
wÃ² n
wÃ² rÃ¡n
be t
be th
ĠmÃ© jÃ©
ĠT se
ĠL ou
ĠÃĢ jÃłnÃł
na m
du ma
Ġda ju
ĠP la
jáº¹ dá»į
ma ti
Ġolo minira
ber t
Ġibi ti
Ġomo we
bu rÃº
Ġke ta
âĢĻ <|
ĠH ar
ĠR Ã©
ĠalÃ¡ Ã¬
ĠalÃ¡ kÃ²
Ġbe es
ïĢ§ .<|
rÃ¡ rÃł
kÃº rÃº
Ġte te
tan na
Ġde ede
Ġala ko
ce l
ĠonÃŃ s
yo si
lan i
ĠdÃŃ pÃ²
Ġgbe ra
ÃłÃ¬ sÃłn
ani el
jÃ© lÃ¨
Ġka lÃ¨
Ġ199 4
Ġolu ko
he l
Ġ197 2
Ġgi rama
Ġ196 8
Ġaye ijoun
ĠsÃ¡ Ã¡
ĠÃ¬wÃ¡ á¹£áº¹
LÃ¡ Ã¬
Ġ198 4
Ġ198 8
Ġ195 5
Ġ195 7
Ġsu l
hi li
ĠsÃ³ rÃŃ
ĠOlÃº bÃ¡kin
Ġli le
ris to
Ġ193 2
Ġ193 8
han n
Ġaya fi
Ġigbe riko
ĠÃĮpÃŃn lÃ¨
ĠtÃ© lÃ¨
ĠAn gola
Ġdo ni
ĠibÃ¹ gbÃ©
Ġato kun
ĠlÃŃ lÃ²
ng Ã¡n
Ġguusu ilaorun
Ġlai si
Ġpara pÃ²
tor y
Ġode oni
ksi jini
Ġmeje e
ĠpÃŃ pa
OlÃ³ rÃŃ
Ġite lentele
fÃŃn nÃŃ
Ġija la
ĠbÃº burÃº
Lo wolowo
ĠFaran sÃ©
ĠdÃ² nÃŃ
Ġáº¹láº¹ mi
Ġhe patitis
Ġamo ye
Olo hun
sc ar
Ġjagun jagun
Ġigbona si
Ġagbala gba
ĠÃ¬tÃł gÃ©
Ġ--------- -<|
Ana filasisi
bÃŃni bÃŃ
ĠHin du
ĠKat sina
ĠpÃ¡tÃ¡pÃ¡ tÃ¡
Tele tele
Ġbaki teria
Ġjáº¹dá»į jáº¹dá»į
Ġbees ini
2 2
2 9
5 6
5 00
: -
A de
A bi
A dÃ©
A are
A kin
A gÃŃgÃŃrÃ¬
B e
E rÃ©
F o
F ran
I I
I da
J an
J anuary
M Ã©
O L
P Ãº
S o
a so
c er
c om
d ge
e ro
e yin
i c
i ta
i daraya
k t
k y
k sÃŃ
n y
n yi
o le
o po
o kun
s sa
t ra
t oni
t land
v en
y Ãºn
z z
Ã į
Ã Ļ
Ġ cha
Ġn e
Ġn Ãł
Ġn fi
Ġt Ã¹
Ã¡ lÃ©
Ãł yÃ¨
Ãł mÃº
Ġo bo
Ġo wu
Ġa re
Ġa bÃł
Ġa yÃŃpadÃł
Ġa hamo
Ã¬ á¹£e
Ġs Ãłn
Ġs ha
Ġni lo
Ġni iá¹£e
Ġl ÃłÃ¡
Ġi de
Ġi kun
Ġi jÃ³
Ġi bÃł
Ġi royin
Ġi mm
Ġi yÃ¬
Ġi gbimo
Ġi fara
Ġk en
Ġk oro
ĠÃł rÃ²
ĠÃł wÃ¡
ĠÃł tÃ¬
ĠÃł jÃ¹
ĠÃł tÃ©
ĠÃł tÃ¨
ĠÃł yÃŃpadÃł
ĠÃł pÃ¨jÃºwe
ïĢ£ ïĢ£
Ġti ta
ĠÃ¬ si
ĠÃ¬ di
ĠÃ¬ jÃ¡
ĠÃ¬ gÃ²
ĠnÃŃ bÃŃ
ĠnÃŃ lÃ²
ĠnÃŃ lÃ¹Ãº
Ġj are
ra wo
ra ka
ra lia
Ġgb Ã¬n
Ġe sun
Ġe wÃº
ĠA k
ĠA re
ĠA li
ĠA be
ĠA bu
ĠA bÃ©
ĠA jÃ©
ĠO ko
ĠO lÃ¡
ĠO wÃ³
ĠÃ¨ de
ĠÃ¨ tÃ¹
ĠÃ² hun
re ss
ĠsÃŃ báº¹
ba i
lo r
lo v
lo ke
Ã¡Ãł bÃ²
Ġr onÃº
mo le
ĠI gbimo
Ġto ri
Ġto rÃŃ
á¹£ an
á¹£ adÃ©
Ġsi láº¹
si on
pa ra
pa lÃ¨
lÃº kÃ©
ĠlÃ³ rÃºko
Ġse e
Ġse Ã©
Ġse lÃ¨
lu ra
lu kÃº
Ġg Ã¹n
Ġg omina
ÃĢ jÃł
lÃ¡ yÃ©
rÃ² yÃ¬n
ĠbÃŃ nÃº
Ġso ki
ta kÃ²
yÃŃ tÃ³
da ran
ĠN u
ĠN ation
ĠÃĮ gbÃ©
ĠÃĮ mÃ¨
ĠkÃ² rÃŃ
ĠB er
ĠS Ãł
ĠS Ã¨
ĠS wa
ĠS outh
kÃ³ so
ĠM Ã²
ĠM an
ĠM us
ĠM oro
ĠÃĴ n
ĠÃĴ kÃ²
ĠE ni
ĠE li
bÃŃ Ãł
Ġpa po
ÃŃn ÃŃ
ĠK ÃŃ
ĠK Ã²
ĠK risti
ÃĮ pÃŃn
ÃĮ gbÃ³mÃ¬nÃł
ĠG bÃ¡
ĠG ene
wÃ³ n
so kan
ĠwÃ¡ lÃ©
NÃŃ bi
Ġmi li
Ġmi llion
ĠD en
Ġori láº¹
Ġori á¹£i
Ġki kan
li e
li an
yi ka
Ġá¹£ iá¹£áº¹
Ġáº¹ dá»į
be ria
be sibe
ĠmÃ© ta
ĠT ÃŃ
ĠT Ã¡
ĠT un
ĠC ha
ĠL ÃŃ
ĠL Ã³
fi san
ĠÃĢ mÃ©
Ãłt Ãł
Ã³Ã² lÃ¹
ÃĴ rÃ²
ĠF i
ĠF o
Ġeni meji
Ġda da
Ġda kun
ĠP Ã³pÃ³
ĠP DP
ĠÃ¬s Ã¡
ĠÃ¬s á»į
ĠÃ¬s Ã¬n
Ġolo ro
ĠdÃ¡ hÃ¹n
Ġibi se
Ġh Ã¡
Ġbo rÃŃ
ku ro
Ġ200 0
Ġun lo
Ġun se
Ġako sile
ĠW i
Ġala gba
Ġala gbara
ĠonÃŃ má»į
Ġri biri
Ġoni de
Ġoni bise
ĠyÃŃ i
ĠÃĪ s
ĠMa la
kÃŃ bi
ani an
ĠgÃ© dÃ©
st ron
fun fun
tÃł lÃ¡
ĠÃłkÃ³ jo
kÃłn lÃ¡
Ġ199 3
fo jÃº
ĠIn don
á¹£Ãł káº¹
Ġ197 3
ĠOlo gun
Ġgi gun
Ġ196 5
Ġ196 9
ĠmÃŃ Ã¬
ĠOlÃ³ de
Ġawo ran
ĠsÃ¡ Ã¡jÃº
Ġapa kokoro
sin o
ĠIle oba
Ġ201 6
Ġidi le
ĠÃ¬yÃŃ padÃł
Ġgan gan
vi d
Ġ195 3
hi re
Ġ194 1
Ġ194 7
ĠTo yosi
Ġas un
Ġmáº¹ ta
Ġida jo
ĠKa bi
esi an
ĠelÃ© dÃ¨
pu ta
ĠV ol
Ġ193 1
Ġ193 7
ĠtÃº má»į
ona than
Ġipa ri
Ġigbe si
Ġ5 0
ĠjÃŃ je
Ġ192 2
Ġ192 8
olo gy
hin g
ĠsÃ¨ tÃ²
Ġ191 3
Ġimo le
Ġasi se
Ġariwa iwoorun
Ã¬ÃŃrÃŃs Ã¬ÃŃ
Ġai á¹£an
ĠJe su
gh t
Ġlai lai
Ġabi so
ĠLi tireso
mÃ¨ yÃŃtÃ³
ĠAust ralia
ksi jin
gÃŃgÃŃ rÃŃ
ĠfÃ¬ dÃŃ
sti tu
Ġá¹£áº¹ láº¹
ĠRi ch
sil ini
ĠÃ¬pÃ¬ láº¹
Nitori pe
ĠgbÃŃ gbÃ©
ĠBu hari
za beth
ĠonÃŃrÃº urÃº
Ġdida sile
ĠKwa ra
ĠadÃº lÃ¡wÃ²
ĠÃ¬rÃłn lÃ³
Ge orge
ĠÃłpáº¹ ráº¹
gos la
entu ry
Ġoto oto
Ġkede re
rÃŃsÃŃ tÃ¬
ĠÃ²pÃ² lopÃ²
Ġkemi ka
Ġari wo
unis ti
Ġkia kia
ĠTrini dad
Ġná¹£i á¹£áº¹
ĠAtlan tiki
GbÃ³ lÃ³hÃ¹n
ĠÃ¬kÃ² kÃ²
ĠOli mpiki
ĠYu gosla
ĠDemo cra
ĠpÃłÃł lÃł
ĠÃ¬kÃłn Ã¬yÃłn
Ġfai rá»įsi
Ġewa dun
ĠTse ki
ĠRÃ© dÃŃÃ²
Ġmejee ji
PÃº pÃ²
ĠabÃł mÃ¬
ĠÃ¨tÃ¹ tÃ¹
Ġribiri bi
" ;
. )
. ,
/ /
2 5
3 2
3 9
5 2
6 9
A D
A M
A s
A ko
A pa
A gbe
B E
E d
F i
H a
I gba
I láº¹
I tan
L ÃŃ
L ai
M ar
N Ã¬gbÃł
O c
O ri
O mi
O rÃºká»į
P Ã³pÃ³
R S
R ÃŃ
T homas
W estern
a wo
a tÃ³
b lic
c le
d h
e m
e wu
f on
f aa
g ro
g ini
i la
i kun
l ta
m uni
n an
n ba
n er
n sÃ¬
o k
o ke
p t
p ri
v in
w is
z ania
Ã ´
Ã ¶
Ġ Ð
ïĢ¥ :
Ġn Ãº
Ġn gba
Ġt oni
Ã© dÃ©
Ġo si
Ġo ku
Ġo tun
Ġo gidi
Ġo kuta
Ġo val
Ġo yinbo
Ġa f
Ġa t
Ġa bÃ¡
Ġa kÃ³
Ġa rÃ©
Ġa ma
Ġa ja
Ġa sÃł
Ġa jÃ¡
Ġa aye
Ã¨ mi
Ã¬ dÃ¡
Ġs on
Ġni yi
Ġni yanju
Ã² fin
Ġw un
Ġi rÃ¨
Ġi bÃ²
Ġi yen
Ġi tobi
á»į ba
ĠÃł re
ĠÃł Ã¬s
an s
an ti
ti na
Ġm Ã¬
Ġm Ã¹sÃ¹lÃ¹mÃŃ
Ġti wa
Ġti ráº¹
ĠÃ¬ lo
ĠÃ¬ ro
ĠÃ¬ ye
ĠÃ¬ tu
ĠÃ¬ bÃ²
ĠÃ¬ fÃ²
ĠÃ¬ tÃ©
ri st
Ġf u
Ġf or
Ġy Ã¡n
ra tion
Ġgb Ã²Ã³
rÃŃ á¹£i
in ni
Ġe ri
Ġe ba
Ġe kun
Ġe lÃ²mÃŃrÃłn
ĠA b
ĠA h
ĠA ba
ĠA to
ĠA ke
ĠA tÃ²
ĠA gbÃ¨gbÃ¨
ĠA wolowo
ĠA joni
ĠO k
ĠO dun
ĠO dÃ¹du
ĠÃ¨ so
ĠÃ¨ rÃ¨
ĠÃ² kÃ²
ĠÃ² furufÃº
re a
re s
re en
re ti
on y
on es
ko ro
Ġ1 000
lo t
lo se
lo lÃ¡
ĠÅĦ pe
se t
se gun
mo o
ĠI je
ĠI dije
Ġfi si
Ġfi fi
Ġto ju
á¹£ a
á¹£ u
or dof
ĠlÃ¡ lÃ©
pa ri
Ġwa a
la de
to oro
Ġse re
ye wo
Ġg u
Ġg aa
ka sÃŃ
Ġá»į rá»į
Ġá»į gbá»į
Ġá»į dáº¹
ni a
ni silini
ÃĢ ti
ÃĢ lÃłÃ³
Ġbi bi
Ġso ke
ĠbÃ¡ ra
ta kun
bÃ¡ yÃ©
da rÃłn
ĠN or
ĠÃĮ J
ĠÃĮ la
ĠB C
ĠS te
ĠS co
ĠS ene
Ġdi ami
ĠM c
ĠÃĴ Ã²rÃ¹n
ĠwÃł jÃł
ĠY e
Ġpa de
wa y
wa dÃ¬ÃŃ
ĠK anada
ĠK inni
ĠkÃŃ ká»į
Ġle ti
ÃĮ s
ÃĮ wÃ²
ÃĮ lÃ¹
ÃĮ yÃłwÃ³
ĠG ar
ĠG bÃ²
ĠG rÃŃÃ¬sÃ¬
ar les
yÃłn ji
rÃº du
ji dide
so wo
so so
Ġyi po
Ġyi yo
nÃŃ sÃł
ĠJ Ã©sÃ¹
ĠYor k
ki kan
ĠD u
Ġori sun
Ġki ki
lÃł jÃº
li sti
Ġá¹£ ÃŃ
Ġáº¹ yá»į
ĠorÃŃ á¹£i
ĠorÃŃ á¹£Ã¬ÃŃ
be li
ĠT h
ĠC i
ĠC ar
ĠC ross
bo olu
ge rian
ĠÃĢ gbÃł
ĠÃĢ pilÃ¨
ĠÃĢ dÃ¹nnÃŃ
ĠilÃ© e
dÃ© lÃ©
ÃĴ fin
ĠF on
á»Į ba
tÃ³ nilÃ©
ĠdÃ¡ yÃ©
Ġomo kunrin
go ye
ĠmÃº láº¹
dÃŃ Ã¨
tu tu
dÃł gbÃł
ĠH am
ĠH ara
ĠR NA
Ġbo tilejepe
ĠalÃ¡ dÃ©
ĠalÃ¡ wá»į
ch u
Ġun gbe
kÃº rÃ²
Ġ18 21
Ġako rin
Ġako we
Ġala kitiyan
am bia
wá»į lÃ©
sa yensi
Ġmu le
san jo
oni a
Ġá»įmá»į dÃ©
ĠnÃŃtorÃŃ pÃ©
ĠMa da
Ġlá»į wá»į
Ġwi wari
al d
st áº¹
ĠbÃ¨ Ã¨rÃ¨
sÃ¬n i
tÃł dÃŃnlÃ³gÃºn
ĠÃłkÃ³ so
kÃłn dÃŃnlÃ³gÃºn
ĠtÃ¨ dÃ³
ha ma
ĠkÃ¬ lÃ³mÃŃtÃł
Ġ197 7
kÃ¹ Ãº
ĠmÃŃ má»į
Ġpáº¹ nisilini
gÃŃ rÃŃÃł
TÃŃ tÃŃ
ĠOn do
gÃ³ rÃ³
Ġ198 1
Ġidi ye
vi c
ho sis
Ġ195 2
ĠÃłÃł re
Ġoju orun
Ġipo si
rÃ¬n dÃŃnlÃ³gÃºn
ĠsÃ² ro
ĠsÃ² rÃ²
dan wo
Ġku ku
pu pa
Ġli tireso
ĠKeji la
ĠtÃº bÃ²
pÃł dÃ©
ĠÃ¬bÃ¡ ra
ĠÃ¬sÃ² rÃŃ
Ġbu ru
Ġ192 5
sÃ² rÃŃ
ĠBo ko
ĠSa int
olo mbia
Ġc on
Ġdo jÃº
Ġodo do
Ġlato do
yÃ³ kÃ¹
Ġ14 9
men ts
ham mad
ng Ãłn
Ġiba je
Ġiba mu
ÃĮgbÃł gbÃ³
mÃ¡ ÃłnÃ¹
Ġkáº¹ ta
den t
Ġaba jade
ĠAr m
Ġee wo
ĠAust ron
ĠÃ¬rÃ³ kÃ²
Ġnu mber
ĠBÃ¡ mgbÃ³
ĠÃłtÃºn pÃŃn
Ġawa ko
ĠÃ¬gb ÃŃn
La papo
Ġeleyi i
Ġen Ã¬
Ġtobi julo
ĠÃĴgbÃ³ mÃ²
bra him
ĠAda mawa
Si besibe
Ġabáº¹ ráº¹
xi co
SÃŃ wÃ¡jÃº
ĠIbi le
Ġam Ãºn
Ġitu mo
ĠÃ¬fi tÃ³nilÃ©
lÃ©lÃ³ gÃºn
ĠBÃ¡mi jÃ¬
gÃ¹ rÃ¡
Ġiyi pada
Ġalu moni
ĠdÃ¡n ÃŃ
ĠadÃ¬ ye
ĠwÃºn rÃ¨
Ġegbo gi
á¹£in á¹£in
Ġteli fisan
Ġkar Ã¹n
ĠRÃ³ mÃ¡ÃłnÃ¹
ato mu
iba gbepo
ung ary
ĠÃ²gb u
Ġlegbe gberun
ĠTan zania
ĠÃłfÃ² mÃ³
ĠonÃŃgbÃł gbÃ³
rr hosis
Ġci rrhosis
ÅĦsÃ³n Ã¡n
duma re
Ġcha mo
ĠIndon esia
Ġasun rÃ¡rÃł
ĠVol ta
ĠDemocra tic
ĠgbÃ²Ã³ gÃ¬
Ġdiami ta
yÃłnji yÃłn
ĠHara m
ĠÃ¬fitÃ³nilÃ© tÃŃ
0 5
1 00
4 7
7 0
9 9
; ;
A N
A f
A le
A gba
A gbo
A jÃŃbÃ³gun
D i
E ko
E de
G i
H ungary
I D
I ba
I rin
I jo
I we
I ja
I vo
K ini
L AM
M u
N aijiria
O ro
O ju
O wÃ³
O dun
O lÃ¹
P P
S ir
T S
T emi
W illiam
a b
a lÃ©
a ro
a da
a gbe
a riwa
b y
c s
c ist
e gun
e yi
e we
g E
g Ã¡n
h Ã²
i gba
i fáº¹
i gbimo
j oro
k er
l Ã¹bÃ¡
m Ã¬ÃŃ
m Ã¨rÃ¨
n Ã©
n la
o ri
o si
s ki
t ri
t oro
u th
Â ²
Ã §
Ä ģ
á ¸
Ġ Ø
Ġ ÃŃn
Ġn ba
Ġn lÃ¡
Ġn mu
Ġn faa
Ġt Ã²Ã³tÃ³
Ã¡ lÃ¡
Ã¡ mÃ³
Ã¡ fÃŃÃł
Ãł rÃ²
Ã³ n
do r
do gba
Ã© sÃ¬
Ġo rÃº
Ġo kere
Ġo gÃ³jÃ¬
Ġa lÃ©
Ġa mÃ²
Ġa gbÃ¡
Ġa já»į
Ġa wá»į
Ġa tÃ¨
Ġa fÃ©
Ġa sia
Ġa páº¹
Ġa tÃºmÃ²
gb Ã¬
gb Ã¬ÃŃn
Ãº bÃł
Ġni t
Ã² kan
Ġl Ãº
Ġl on
á» ĭ
Ġi b
Ġi ka
Ġi gun
Ġi bÃŃ
Ġi pe
Ġi ká»į
Ġi oni
Ġi fáº¹
Ġi lopo
Ġi pile
Ġi gbana
Ġi ronu
Ġk ro
ĠÃł lÃ¹
ĠÃł ga
ĠÃł bÃº
ĠÃł yÃł
ĠÃł já»į
ĠÃł pÃ¨
ĠÃł gbáº¹
an ge
Ġb an
Ġb Ã¹
Ġb lo
Ġm an
Ġm Ã¹
Ġm ÃłÃ¡
Ġti pati
ĠÃ¬ wo
ĠÃ¬ po
ĠÃ¬ rÃº
ĠÃ¬ dÃ²
ĠÃ¬ mÃº
ĠÃ¬ fÃł
ĠÃ¬ táº¹
ĠÃ¬ fara
ĠÃ¬ rÃŃrÃŃ
ĠÃ¬ pinnu
ĠÃ¬ yÃ³kÃ¹
Ġp ani
Ã¹ dÃ¹
Ġy ÃŃn
ra m
ra fi
Ġd Ã¡ÃłbÃ²
Ġgb u
Ġgb áº¹
rÃŃ á¹£Ã¬ÃŃ
Ġe x
Ġe je
Ġe ke
Ġe meji
Ġe yun
le ko
le bu
ĠA u
ĠA rin
ĠA jo
ĠA gbo
ĠA fi
ĠA pÃ¡
ĠA rÃ¡
ĠA kowe
ĠA papo
ĠO de
ĠO ke
ĠO run
ĠO na
ĠO dÃ¹
ĠO yo
ĠO orun
ĠO Ã²rÃ¹n
ĠO ff
ĠO pen
ĠÃ¨ mi
ĠÃ¨ yÃł
ĠÃ² dÃ¬
ĠÃ² rÃ¹
ĠÃ² Ã³tÃ³
Ãłn Ã¬
ko le
ko pu
ĠsÃŃ so
ba s
ÅĦ je
ĠÅĦ s
Ġlo jo
Ġlo dun
Ġlo ruko
Ã¡Ãł lÃº
bi c
ĠI do
ĠI lo
ĠI gi
ĠI siro
rin gberin
Ġfi fa
Ġsi sÃ©
kan kan
kan la
or g
si an
si si
ĠlÃ¡ mÃ¨yÃŃtÃ³
Ġkan nÃ¡Ãł
pa r
pa gba
Ã¬n Ã¡
Ġla papo
la gbÃł
la ck
Ġwo lÃ©
to un
ĠlÃ³ kÃ¨
gba jÃł
Ġati jo
Ġg Ãłba
ka li
Ġá»į pa
Ġá»į tÃŃ
Ġko le
Ġko ju
ÃĢ Ãł
ÃĢ pÃ³
ÃĢ dÃ¹nnÃŃ
lÃ³ rÃŃ
ĠbÃŃ mo
ta tion
mi tic
da ju
Ġpe le
ĠÃĮ wÃ²
ĠÃĮ já»į
ïĢ¤ -
Ġmo le
ĠS Ã©
ĠS tan
ĠÃĴ s
ĠÃĴ Ã²
ĠÃĴ rÃ³
ĠÃĴ rÃ¬
Ġba mi
Ġgba gbe
ĠE do
ĠE ast
Ġre e
Ġpa pá»į
Ġpa apa
ĠK on
ĠK Ã¡n
pe re
ĠkÃŃ lÃŃ
ÃĮ yen
ĠG áº¹
ĠG ÃºsÃ¹
wÃ³ pa
so uri
nÃŃ Ãł
ĠwÃ¡ Ã¡
ĠJ Ã¡
ĠJ onathan
ĠJ ones
kÃ² yÃŃ
ru ge
ru ce
ĠD r
ĠD ou
ĠD AL
Ġori s
Ġki lo
rÃ¨ gÃºn
Ġá¹£ Ã¨
Ġá¹£ á»į
be re
ĠmÃ© wÃłÃ¡
ĠkÃ³ lÃ©
ĠT Ã³
ĠC en
ĠC han
ĠL ar
bo dia
ĠrÃŃ n
Ġta ra
Ãłt ÃłkÃ¬
ÃĪ rÃ²
ĠpÃ¨ sÃ¨
lÃ¹ kÃ¹
ĠF u
mu le
mu el
Ġda le
Ġorile ede
á»Į já»į
ĠlÃ© tÃŃ
Ġolo mi
Ġwá»į á¹ħ
Ġibi tooro
Ġomo lu
is Ã¬n
Ġh u
Ġh ÃŃ
ĠmÃº Ã¹dÃ¹
bu do
Ġke fa
ĠÃ¬gbÃł lÃ¨
jÃ¨ jÃ¬
ja lÃ¨
ĠH ol
ĠH igh
dÃº rÃł
Ġme fa
ch y
ch er
já»į pá»į
já»į wá»į
tÃ² pÃ¹
dÃ¬ mÃº
gi ri
gi le
ĠolÃ³ nÃ¬ÃŃ
ĠolÃ³ á¹£Ã¨lÃº
Ġma siti
kÃ¹n rÃ©
Ġako ran
Ġogun logo
ĠonÃŃ lÃ©
Ġoni s
Ġoni se
ĠdÃŃ dÃ¹n
Ġise lu
Ġise ju
Ġgbe ringberin
Ġagba boolu
Ġka riaye
wÃ¹ jalÃ¨
ĠAf rican
ĠkÃ© je
ĠNi gerian
tÃł rÃŃ
ĠÃłkÃ³ bÃ¡
á¹£e tÃ¡n
Ġpo longo
bÃ¹ dÃ³
Ġ197 4
ĠOlo ri
Ġ196 4
ĠmÃŃ mÃ³
ĠOlÃ³ run
ĠOlÃ³ mÃ¬nira
Ġaye ye
il la
Ġapa guusu
anu el
Ġsa ba
LÃ¡ kÃ²Ã³
TÃŃ Ã¡tÃł
ĠAlÃ¡ rÃ³
OrÃŃ lÃ¨
ara ilu
Ġ198 7
Ġinu ikun
Ġ195 6
ĠkÃ¡ rÃŃ
ĠkÃ¡ lÃ¨
Ġyo ri
Ġele min
ĠÃ²kÃ¨ Ã¨rÃ¨
ĠÃłÃł bÃ²
Ġida mo
ĠKa meroon
ĠKa duna
Ġmeji la
ĠAgba la
Ġ193 0
Ġ193 4
ĠAl fre
bÃ¬ lÃ¬
ĠÃ¬bÃ¡ sepÃ²
tion al
ĠÅĦlÃ¡ ÅĦlÃ¡
ĠÃłgbÃ© yáº¹
Ġbu do
Ġbu rÃº
ĠÃłÃ¡ dá»į
Ġ192 9
ĠorÃŃs Ã¬ÃŃ
ss ss
ĠsÃ¨ dÃ¡
Ġ191 0
Ġ191 8
ĠÃłpe ere
Ġon ina
Ġariwa ilaorun
Ġitan na
ĠJo seph
Ġji jáº¹
Ġada lu
Ġiya to
qu es
Ġláº¹ yin
Ġiba sepo
ĠJa mes
ĠÃłÃ¬ rÃŃ
ĠFran ce
et Ã¡n
Ġwu lo
ĠCa u
ĠÃ¨rÃ² jÃł
kÃŃn ÃŃ
ĠZ u
ĠZ ambia
ĠCh risti
ĠyÃ³ Ã³
ĠPo to
OrÃŃs Ã¬ÃŃ
for u
for nia
ĠjÃ¬n Ãł
ĠOlu wa
IrÃº fÃ©
dÃ¡n wÃ²
oju orun
sá»į dipÃºpá»į
ĠAP IS
Ġoo re
ande r
ĠÃĢjÃł kÃ¡
ii ii
Ġwe e
ĠSo koto
Ġawa ri
ban gi
Ġooo o
Ġijo sin
ĠYuni fÃ¡
Ġabe le
Ġiran lose
Ġpro te
ĠSan kara
cha el
gÃł dÃ¡
Ġdin ku
ĠAda ms
Ġaa go
ĠIta lia
ĠBÃŃ bÃ©lÃ¬
SÃŃ bÃ¨
ĠÃ¬lÃ© rÃŃ
ĠÃ²rÃ¬ á¹£Ãł
Opo lopo
Ġno w
ĠÃłbÃ¡ lÃ¡yÃ©
ĠBro wn
Gege bi
Ġge esi
ĠMor Ã¨mi
Ġaká»į ká»į
ĠÃ¬rÃ¬n ÃłjÃ²
Pe lu
ĠÃłpáº¹ áº¹ráº¹
ĠÃĮrÃ¨ lÃ¨
ĠBel gi
ĠHo ward
Pa ul
dani lo
ĠQu e
ĠÃłjÃ² jÃ¬
Ġv on
ĠLÃº wÃł
ĠÃ¬wÃº lÃ²
ĠÃ¬dÃ¡n wÃ²
Ġoji se
Ġfon Ã³
ĠEre kusu
LÃ³Ã² Ã³tÃ³
por t
Ġelo miran
lelo gbon
ĠMis souri
ĠolÃ³Ã² tÃº
ĠNÃłÃŃ gÃŃrÃŃÃł
ĠAberde en
ĠSpa in
LÃ¡Ãł rin
Ġtaa ra
ĠJamai ka
ĠmÃ©jÃ© Ã¨jÃ¬
ĠsÃ¡Ã¡ bÃł
Ġimm un
ĠÃłtÃ¬ pÃ³
ĠewÃº rÃ©
ĠEli zabeth
ĠGbÃ¡ gÃ¹rÃ¡
ĠYugosla fia
ordof anian
ĠSene gal
ĠAustron esian
ĠÃ²gbu fÃ²
Ġchamo tex
Ivo ire
Ġtipati pa
ĠkÃŃlÃŃ Ã¬kÃ¬
ĠDAL L
" )
' .<|
. âĢĻ<|
3 3
4 9
5 9
7 2
A R
A b
A r
A ye
A da
A yÃ©
A rÃ¡
A jÃ¡
A gbÃ¡ra
A gbegbe
B S
C la
D Ã©
D on
E to
I bÃ¡
I ji
I pinle
J e
J une
K Ãº
K á»į
K wa
L oo
M Ã¡
M urtala
O hÃ¹n
P Ã¡
R i
S O
S Ã¹gbá»į
S CO
T P
T ÃºndÃ©
Y Ã³Ã²
Y Ã©wÃ¡ndÃ©
Z an
Z ik
a je
a yo
b ble
b orn
c co
c ent
c ture
d ra
d da
e li
e wi
f ani
g re
i a
i z
j ani
k lÃ©
k li
k sÃ¬
l f
l t
l ly
m bo
m ph
n á»į
n gbÃł
n mÃ¬
o b
o Ã²
o di
o wÃ³
o yÃ¨
o ple
p x
p he
p per
r Ã¬ÃŃ
s ho
s kopu
t te
u ka
u li
w s
w w
Ä «
Ä ĩ
Å Ł
Î ±
Ï Ĥ
Ð ¸
Ð ¾
Ù Ī
à ¸
Ġ $
Ġ ca
ÃŃ lÃŃÃ²
ĠÃ ī
ïĢ¥ ;
Ġn ka
Ġn ni
Ġn mi
Ġn tan
Ġn ÃłÃ¡
Ġn gbá»įn
Ġt h
Ġt ra
Ã¡ lÃł
en to
en da
en us
te mu
Ã© rÃ©
Ġo won
Ġo gba
Ġo gbÃł
Ġo ma
Ġo dÃ¹
Ġo sÃ³
Ġo gÃ³
Ġo á¹£Ã¹
Ġo sise
Ġo á¹£u
Ġa gb
Ġa gbÃ³
Ġa gbÃ©
Ġa gbÃ¨
Ġa á¹£áº¹
Ġa yÃ²
Ġa kiyesi
Ã¨ jo
Ã¨ kÃ³
Ã¨ tÃ¬
Ã¨ bÃ©Ã¨rÃ¨
Ã¬ dÃ¬
Ġs Ã¹
Ġs Ã¡Ãł
Ġni po
Ġni pe
Ġni bo
Ġni nla
Ã² rÃ¨
Ġl an
Ġw Ã¨
Ġi wá»įn
Ġi yÃ¨
Ġi má»į
Ġi fun
Ġi ban
Ġk ÃŃn
Ġk arun
ĠÃł pa
ĠÃł yÃŃ
ĠÃł wÃ³
ĠÃł rÃ¬
ĠÃł kÃ¡
ĠÃł pilÃ¨
ïĢ£ ;
un la
Ġm Ãºn
áº¹ ta
wo od
Ġti e
Ġti wá»įn
ĠÃ¬ ba
ĠÃ¬ lu
ĠÃ¬ da
ĠÃ¬ yÃ¨
ĠÃ¬ jÃŃ
ĠÃ¬ lá»į
ĠÃ¬ kÃ©
ĠÃ¬ kara
ri ba
ri ki
Ġp inu
ĠnÃŃ gbÃ¨
ĠnÃŃ wÃ¡jÃº
Ġf aa
Ġj Ã²
ĠtÃŃ n
ĠtÃŃ ÃŃ
ra h
ra t
Ġd ede
rÃŃ ka
in Ãº
Ġe wo
Ġe gba
Ġe gun
Ġe rÃº
Ġe yan
Ġe ja
Ġe gberun
le ra
ĠA do
ĠA se
ĠA mo
ĠA ja
ĠA dÃº
ĠA dÃ³
ĠA tá»į
ĠA che
ĠA zer
ĠA gÃŃgÃŃrÃŃ
ĠO R
ĠO hun
ĠO ga
ĠO furufu
ĠO bÃ²kun
ĠÃ¨ yÃ¡n
ĠÃ² ru
ĠÃ² tÃºn
ĠÃ² kÃºta
ĠÃ² á¹£Ã¨lÃº
ĠÃ² fÃ¬
re t
Ãłn Ã¡mÃ³
ko ja
ba ye
ba ll
lo s
Ġje yo
Ġje og
ĠÅĦ jÃ©
ĠÅĦ pÃ¨
Ġlo o
Ġlo hun
Ã¡Ãł rÃŃwÃ¡
ĠI re
ĠI la
ĠI da
ĠI gbe
ĠI ja
ĠI fa
ĠI sokan
Ġfi fe
Ġfi lÃŃsÃŃÃł
Ġto o
Ġto un
Ġto gba
Ġto oto
ĠÃłti já»į
á¹£ Ã¨
Ġsi wa
ĠlÃ¡ ÃŃ
ĠlÃ¡ yÃ¨
ĠlÃ¡ pÃ¡
pa mo
lÃº káº¹
la ra
Ġwo po
to ko
ro s
ro ti
ro ati
ro up
Ġse se
lu ku
ĠtÃ³ Ã³
ĠtÃ³ jÃº
ĠtÃ³ kÃ¹
Ġg Ãº
Ġko o
Ġko se
Ġko rin
Ġko rÃŃko
ni dÃ¡
ni kÃ©
ÃĢ gbÃ¡
Ġbi g
lÃ¡ ÅĦ
er ra
ĠbÃŃ bÃ©lÃ¬
Ġso wo
Ġso ri
Ġso di
Ġso kÃ¹n
Ġso fo
ĠbÃ¡ n
gbo do
gbo wo
ta i
ta pha
mi a
mi ta
mi cal
mi stri
ĠÃĮ lÃ¡
ĠÃĮ je
ĠÃĮ má»į
ĠÃĮ wÃ©
ĠÃĮ jÃł
ĠÃĮ pÃ³
ĠÃĮ kÃ¡
ĠÃĮ jÃ©lÃ¨
gun wa
ĠB Ãł
ĠB lack
ĠS O
ĠS h
ĠS Ã¡
ĠS Ã²
ĠS we
ĠS ir
ĠS wi
ĠM Ã¡
ĠÃĴ ke
ĠÃĴ dÃ¹duwÃł
Ġara alu
Ġba le
Ġba je
Ġgba dun
ĠE nu
ĠE we
ĠE sin
gbÃ³ nÃ¡
Ġpa ja
ĠK uba
pe te
ĠkÃŃ kan
ÃĮ lÃ©
ÃĮ jÃł
ÃĮ wá»į
ĠG an
ĠG be
ĠG bÃ³
ĠG ur
ĠG bá»į
wÃ³ gbÃł
ar t
so dipupo
Ã¡n Ãł
Ġyi yan
ĠwÃ¡ dÃ¬ÃŃ
ran i
ran s
ki stan
ĠD Ã©
Ġjáº¹ jáº¹
li o
li ki
li ty
li fornia
yi ki
Ġá¹£ iá¹£e
Ġáº¹ pa
Ġáº¹ yin
Ġáº¹ fá»į
Ġáº¹ sáº¹
Ġáº¹ nÃ¬kan
me Ã¨
Ġile ra
Ġis ale
ĠkÃ³ Ã²
ĠT ut
ĠT ÃºndÃ©
ĠC olu
ĠL ai
ĠrÃŃ i
ĠrÃŃ ran
fi ki
fi han
Ġta kun
ĠÃĢ j
ĠÃĢ lÃł
ĠÃĢ gÃłdÃ¡
us ti
us se
ya pa
ya to
ya me
ÃĴ pÃ²
ÃĴ pÃ³
yan a
ĠF Ã³
ĠF or
ĠF aye
ĠF RS
Ġeni ko
ĠP i
ĠP Ã³
ĠP ara
rÃ¹n mÃ¬lÃł
ĠÃ¬s Ã¨lÃº
ĠlÃ© nu
Ġolo di
Ġolo run
Ġolo rÃ¬
ĠdÃ¡ rÃºko
ïĢ¬ ,
ga julo
ga scar
is oro
is temu
Ġh y
bu ru
dÃł Ã¡
ĠH el
Ġbo bo
Ġbo mbu
ĠalÃ¡ bÃłÃ¡
Ġme wa
ĠdÃ© Ã©dÃ©
ku so
ku ru
Ni to
tÃ² rÃ²
Ġ200 2
kÃº lÃ¹kÃ¹
Ġigba dun
Ġigba die
mÃŃ st
Ġako ewi
ĠW o
ĠW olo
ĠW estern
ĠW orld
Ġala se
Ġala mo
Ġala koso
ĠonÃŃ lÃ¹
Ġri ru
bin u
yo de
Ġfa gile
dÃ³ gÃºn
wu wo
Ġoni bugbe
Ġoni tanna
ĠmÃ³ wÃ³
sa s
sa y
ĠÃĪ yÃŃ
ĠÃĪ gbÃ¡
ĠÃĪ gÃ¹n
ĠMa c
ĠMa x
ĠMa ria
Ġgbe se
al l
Ġagba jo
bÃ² yÃłn
ĠojÃº bo
ĠojÃº lÃ³wÃ³
sÃ³ tÃ²pÃ¹
st ria
ĠNo k
sÃ¬n yÃŃ
ĠmÃ©jÃ¬ dÃŃnlÃ³gÃºn
kÃłn bÃŃ
ĠtÃ¨ lÃ©
bÃ³ yÃ¨
á¹£e pá»į
ĠIn ter
ĠIn stitu
ĠBa ji
ĠBa lÃ³gun
kÃ¡ lukÃº
ĠKe san
ĠKe mistri
ĠmÃŃ mÃ²
ĠÃ¬dÃŃ je
ĠOlÃ³ fin
Ġká»į jÃ¡
Ġja zz
Ġomi ran
lÃŃ á»į
Ġyio wu
ĠolÃ¹ so
Ġbáº¹ áº¹
Ġ201 3
Ġ201 5
OrÃŃ sirÃŃsi
ter n
Ġ198 5
Ġbaba lawo
ĠpÃŃn yÃł
el d
BÃ¡ mi
Ġele mi
Ġele sin
Ġmáº¹ fa
ĠOlÃº wa
ĠÃłÃł lÃł
ĠÃłÃł rÃŃn
Ġida gbasoke
Ġro po
Ġro ck
Ġibe ere
ĠÃłgbÃł lagbÃł
Ġ193 3
ĠlÃł Ãł
ĠMar x
ĠÃ¬wÃ² sÃłn
ĠÃ¬bÃ¡ s
Ġfo wo
ne dy
ĠÃ¬wÃł rÃ¨
Ġyan jÃº
ck son
as tern
sia listi
Ġdara po
ĠÃłÃ¡ rÃ²
ĠIs lam
ĠBo bo
ĠAn g
ĠorÃŃs Ã¬ÃŃrÃŃsÃ¬ÃŃ
ss y
Ġran ti
Ġana bi
Ġ191 1
Ġ191 7
Ġimo ye
ĠLa gos
Ġon je
Ġga ju
Ġiwa ri
Ġero ja
gÃ¬ rÃ¬
Ġai ye
BÃ¡kan nÃ¡Ãł
ĠRo sia
Ġaso pá»į
Ġdie die
ĠrÃ¡n s
ĠpÃ¡ pÃ¡
Ġguusu iwoorun
tÃ¹ Ãº
Ġloni bise
ĠUni on
ĠgbÃ¡ ra
ĠLe one
ĠtÃ² un
ĠÃĴgÃºn lolÃ¡
ĠÃĴgÃºn dÃ©lÃ©
ĠGu ang
ĠPo landi
200 3
200 7
wi ri
ĠAp Ã¡ÃłrÃŃwÃ¡
Ġee yan
Ġ8 0
ĠMe xico
Lati n
ĠDa vid
ssi on
ĠatÃ³ ka
Ġire lura
ĠFa gunwa
kÃ¡n ÃŃ
Ġabu da
ĠAso ju
ĠRi ver
Ġaga ga
198 2
dinlo gbon
ĠApa rapo
ĠKen nedy
Ġaá¹£ á»į
Ġrá»į rÃ¹n
ĠOlÃ¹ wÃł
der n
chi gan
ren ce
Ġobi rin
ĠadÃ¡ wÃł
Ġila oorun
ĠAmáº¹ rika
ĠIgba keji
oru ko
Ġifi han
ĠÃłbÃ¡ jÃ¡de
rio ti
Ju ly
Ġami oro
Ġ186 4
Ġoti to
dudu wa
con omi
gen tina
gin jÃ¹
moni yan
ĠadÃ¬ e
ĠwÃºn ráº¹
Ġkaa kiri
ĠSta tes
Com ments
á»įlÃ¡ á¹£adÃ©
ĠKam bodia
Ġigb oro
ĠAbi ola
Ġogb eni
Ġopa gun
ĠKÃ© tu
rus sia
ĠLan guage
ĠIndi an
Ġnukle u
Ġnukle oti
No vember
Ra dio
ĠÃłro kÃ²
ĠÃ¬h Ãł
resi dent
ĠEng lish
darapo mora
enni s
Ġago go
Ġatun se
Ġnito si
ĠErÃ©kÃ¹ sÃ¹
ĠGo won
ĠHun gari
spa ce
Ġak oni
ĠÃ¬bÃł jÃ©
ĠAle x
aso fin
ĠÃłjÃ¹ mÃ²
ĠNation al
ĠSwa hili
ĠMus so
ĠTun tun
ĠKabi la
hing ton
Oc tober
atÃ³ ka
ĠnÃº klÃ©
Ġaf ÃłnÃ¡mÃ³
ĠasÃł pÃ¨jÃºwe
ĠibÃ² mÃŃrÃłn
ĠÃ¬tu má»į
ĠCi ty
ĠMada gascar
pagba joba
Ġpaapa a
ĠDou g
ĠAlfre d
nmÃ¬ rÃ¨gÃºn
Ġiban isoro
ĠÃ¬kara hun
ĠAzer bai
Ġjeog rafi
ĠÃĮpÃ³ lÃ©
Ġjáº¹jáº¹ ráº¹
ĠTut si
mÃŃst rÃ¬
ĠWolo f
ĠInstitu te
ĠafÃłnÃ¡mÃ³ nÃ¬ÃŃ
% ),
. âĢĻ,
0 2
0 7
3 7
4 5
5 7
6 0
6 5
6 7
7 3
: //
A a
A h
A p
A kÃ©
A báº¹
A gbÃ¨gbÃ¨
A ugust
A gbara
B C
B an
B Ãļ
C a
C o
C on
D E
D Ã¡
E le
E re
E yin
E ku
E urope
E SCO
F A
F C
F eb
G o
G ba
G bÃŃ
G ene
G UN
I gbÃł
I bo
I sÃ©
I tÃ¡n
I FA
J Ã²
J enni
L Ãº
L á»į
L oni
M L
M ande
N U
N e
N n
N kan
O T
O ko
O si
P o
P ÃłtÃłkÃ¬
S A
S y
V i
W Ãł
Y Ãłtá»į
a won
a wá»įn
a yika
b be
b go
c an
c lo
c ques
d le
d re
d anu
e Ã¨
e lo
e da
e sÃŃ
e wÃ©
f an
f fi
g le
g on
g orun
g han
h ar
h mer
i rÃ²
i di
i ru
i je
i we
i yan
i gi
j on
j or
k ra
k ede
l s
l le
l ini
l enu
l ÄĻ
n Ãłn
n ing
o ye
o ja
p les
p hia
r s
r ÄĻ
s en
s se
s ÃŃn
s ha
s co
t z
t rÃ³
x o
x x
y aa
y ne
z o
Î ²
Î ½
Ð ²
á ¼
Ġ /
Ġ @
Ġ `
Ġ vi
Ġ co
Ġ á¹¢
ĠÃ ħ
ĠÃ Ļ
ïĢ¥ âĢĿ
ïĢ¥ ?<|
Ġn s
Ġn ri
Ġn Ã¹
Ġn da
Ġn jáº¹
Ġn Ç¹
Ġn sise
Ġt Ã²Ã³
Ã¡ ju
Ã¡ sÃ¹
Ãł lÃ¡
Ãł wá»įn
Ãł rÃ¹n
do ko
Ġo w
Ġo le
Ġo Ã¹n
Ġo ran
Ġo rÃ³
Ġo san
Ġo dÃ¹duwÃł
Ġo oru
Ġo ksijini
Ġo moniyan
Ġa p
Ġa ka
Ġa rÃº
Ġa á¹£e
Ġa mÃº
Ġa kÃ¡
Ġa dÃ¹n
Ġa gedemeji
gb ÃŃ
gb angba
Ã¨ de
Ã¨ yÃŃ
Ã¨ yÃłn
Ã¨ ji
Ã¨ dÃ¬
Ãº re
Ãº gbÃ²
Ã¬ lÃł
Ã¬ wá»į
Ã¬ tÃ¬
Ã¬ lÃ¬
Ġs á»įn
Ġs eni
Ġs ch
Ġs he
Ġs yn
Ġs tre
Ġni i
Ġni o
Ã² de
Ã² nÃŃ
Ġw or
Ġi rÃ³
Ġi yan
Ġi pÃ¡
Ġi jin
Ġi yÃ²
Ġi den
Ġi pilese
á»į má»į
á»į dun
Ġk Ã¹n
ĠÃł to
ĠÃł bÃŃ
ĠÃł gbÃ³
ĠÃł pÃ²
ĠÃł kÃ²
ĠÃł je
ĠÃł rÃ³
ĠÃł kÃł
ĠÃł jÃł
ĠÃł gÃ©
ĠÃł kÃŃ
ĠÃł sÃ¨
ĠÃł ÃłtÃ²
ĠÃł tÃº
ĠÃł gbÃ¨gbÃ¨
ĠÃł ayÃ¨
ĠÃł papá»į
ĠÃł takÃ²
ïĢ£ ?<|
an t
un tain
Ġb Ã¬
Ġb Ã³Ã²lÃ¹
ti l
ti si
Ġm Ã¨
wo ran
Ġti mo
Ġti tele
ĠÃ¬ b
ĠÃ¬ ko
ĠÃ¬ to
ĠÃ¬ lÃ¡
ĠÃ¬ rÃ¨
ĠÃ¬ ke
ĠÃ¬ we
ĠÃ¬ kÃł
ĠÃ¬ rÃ¡
ĠÃ¬ rá»į
ĠÃ¬ mÃ³
ĠÃ¬ joba
ĠÃ¬ bÃ¬
ĠÃ¬ fá»į
ĠÃ¬ kejÃ¬
ĠÃ¬ bÃłdÃłn
ĠÃ¬ tannÃ¡
ri be
ri es
ri ty
ri ck
ri tic
ri bbe
ĠnÃŃ i
ĠnÃŃ láº¹
Ġf oo
Ġy Ã²
ra jo
ra wÃ²
Ġd á»į
Ġd ar
rÃŃ ba
rÃŃ ta
rÃŃ sÃ¬
in d
Ġe Ã©
Ġe bÃŃ
Ġe rÃ¨
Ġe rÃ¹
le jo
ĠA m
ĠA z
ĠA wo
ĠA je
ĠA dÃ¡
ĠA ge
ĠA jÃŃ
ĠA gu
ĠA bra
ĠA gÃ³rÃ³
ĠA wÃ¹jalÃ¨
ĠA TP
ĠÃ³ kan
ĠÃ³ unje
ĠO un
ĠO wo
ĠO ri
ĠO yin
ĠO rÃºko
ĠO kunrin
ĠO gagun
ĠÃ¨ ni
ĠÃ¨ dÃ¡
ĠÃ¨ yi
ĠÃ¨ yÃ¬n
ĠÃ² do
ĠÃ² Ãºn
ĠÃ² go
ĠÃ² jÃŃ
ĠÃ² tÃ²
ĠÃ² Ã²gÃ¹n
re te
Ãłn Ãº
ĠsÃŃ n
ba r
ba ra
ba ÅĦ
lo la
lo ruko
lo va
Ġje un
ĠÅĦ lo
se s
Ġlo un
Ġlo de
Ġlo ye
Ġ( "
Ã¡Ãł sÃ¬
Ġr un
mo ru
ĠI ra
ĠI we
ĠI fo
ĠI rÃºn
ĠI sÃ©
ĠI brahim
ĠI gE
rin a
á»įn u
Ġfi di
or Ã²
si láº¹
si ki
si ssi
si fiki
jo yÃ¨
âĢ Ķ
lÃº fÃ¡
lÃº ÃłbÃŃ
ĠpÃ© Ã©
Ġwa ra
Ġla fi
la ye
la yÃ©
la ja
la vic
Ġwo o
to id
to moru
ro le
lu be
lu es
Ġg ÃºsÃ¹
ka láº¹
Ġko lu
ÃĢ gbÃł
ÃĢ rÃ²
ÃĢ yÃ¨
ÃĢ lÃł
ÃĢ gbÃ¨
ÃĢ sÃ¬kÃ²
ÃĢ lÃłyÃ©
ÃĢ kÃ³kÃ³
ÃĢ wÃ²rÃ¡n
lÃ¡ ÃŃ
lÃ¡ ti
lÃ¡ dÃł
Ġso ju
mi i
mi tÃ¡n
da rÃŃ
di c
di an
di po
di st
di son
Ġpe julo
Ġpe tro
ĠN L
ĠN Ã¡
ĠN á»į
ĠN AS
ĠÃĮ lÃ³
ĠÃĮ bÃŃ
ĠÃĮ wÃł
ĠÃĮ rÃ¹n
ĠÃĮ jÃ¬n
jÃº tÃ³
Ġmo o
ĠB us
ĠB is
ĠB Ã¬nÃŃ
ĠS áº¹
ĠS ci
kÃ³ hun
Ġdi p
Ġdi ph
ĠM áº¹
ĠM in
ĠÃĴ wÃ²
ĠÃĴ gbÃ²
Ġba i
Ġba t
Ġgba yÃ¬
ĠE s
ĠE lÃ©
ĠE to
ĠE ku
ĠE astern
bÃŃ mitÃ¡n
ĠY o
ĠY un
ĠY aka
gbÃ³ lÃ³hÃ¹n
Ġpa re
Ġpa lÃ¨
Ġpa má»į
wa i
ĠK ur
ĠK roati
pe dia
ĠkÃŃ rÃŃsÃŃtÃ¬
Ġle ra
Ġle se
Ġle ro
Ġle hin
gbe to
ÃĮ jo
ÃĮ kÃ³
ÃĮ jÃ¨
ÃĮ sÃ²
ÃĮ tumÃ²
ÃĮ já»įba
ji ji
so po
Ã¡n Ã¹
Ã¡n yÃ¡n
Ġyi pada
NÃŃ bÃ¨
ĠJ Ã©
ĠJ usti
kÃ² tÃ²
kÃ² sÃ¹n
ki lo
ru cture
li le
li um
Ġohun kÃ³hun
Ġáº¹ ká»į
ĠorÃŃ sun
ede ral
me y
me ta
Ġis a
ĠT Ã²
ĠT ai
ĠT om
ĠtÃł bi
ĠtÃł pÃ¡
ĠC or
ĠC ru
ĠC uba
ĠC entury
ĠC Ã´
ĠL ÃłÃ¬
bo si
bo mi
fi eti
sÃŃ láº¹
sÃŃ bÃ¨
sÃŃ lá»į
sÃŃ tÃ¬
ĠÃĢ gbo
ĠÃĢ gbÃ¡
ĠÃĢ mÃ¬
ĠÃĢ tÃ¬
ĠÃĢ gÃ¹
ĠÃĢ á¹£Ãłkáº¹
gbÃ© rin
ya l
Ãłt ÃŃ
ÃĪ kejÃ¬
na tional
ÃĴ hun
ĠF un
ĠF er
ĠF il
ĠF isi
yin din
Ġeni a
mu rÃºdu
Ġda yo
kÃ¨ Ã¨
kÃ¨ rÃ¨
kÃ¬ kÃŃ
ĠP an
ĠP russia
ĠÃ¬s in
ĠlÃ© dÃ¨
Ġolo ye
ĠdÃ¡ ko
ĠdÃ¡ jÃ³
ber u
Ġju t
ga ret
is h
is Ãłn
is tan
go tra
Ġh tt
Ġh Ã¹wÃł
dÃŃ áº¹
Ġke te
ĠÃ¬gbÃł jÃ¡
tu wo
tu ral
pin i
ĠH er
ĠH ou
ĠH as
ĠR ÃŃ
ĠR om
ĠR ama
gbÃ² n
Ġbo mi
ĠalÃ¡ ká»į
Ġbe lube
ch el
Ni bi
tÃ² sÃŃ
ĠwÃ² n
gÃ© dÃ©
Ġun da
ĠolÃ³ rÃ³
ĠolÃ³ pÃłÃ¡
ĠwÃŃ wÃ¡
Ġigba ti
Ġigba keji
mÃŃ tÃŃÃ¬kÃ¬
Ġte do
Ġde le
Ġ18 00
Ġ18 40
Ġ18 30
Ġako so
ĠW oo
ĠW il
ĠW ura
Ġala a
Ġala ra
Ġala da
Ġala gedemeji
Ġala bugbe
om ini
am usin
Ġá»Į gbá»į
Ġoni ru
Ġoni sowo
ĠyÃŃ padÃł
bÃ© rÃŃÃł
ĠMa ri
kÃ© kÃºrÃº
rÃł Ã¡
ĠpÃłt Ãł
fe mi
Ġgbe re
Ġwi wa
Ġwi wu
Ġjo ko
ĠfÃ© rÃłn
sÃ¨ gÃ¹n
ĠojÃº s
ĠojÃº á¹£e
Ġka sino
wÃ¹ mÃŃ
ĠlÃ¡Ãł yÃ²
ĠNo body
su la
Ġojo ojÃº
ĠkÃ© Ã©
ĠkÃ© de
ĠÃĮjÃ¨ bÃº
fo wo
ĠtÃ¨ mi
ha ra
Ġolu wa
pi a
pi láº¹
pi ens
tá»į wá»į
ĠU N
Ġpo si
Ġpo ju
Ġpo st
mÃº lÃ©
bÃ¹ gbÃ©
ĠIn do
ĠBa k
kÃ¡ tÃł
ĠOlo kiki
ĠKe ta
ĠDe lta
kÃ¹ sÃ¹
ĠmÃŃ mo
ĠmÃŃ mu
ĠOlÃ³ Ã²
ĠOlÃ³ wÃ³
ĠOlÃ³ wu
ĠOlÃ³ gbÃ¬ÃŃn
pÃ¨ sÃ¨
Ġ3 2
Ġ3 5
Ġ3 6
rÃºn bÃ¨
Ġaye wo
ĠfÃŃ fi
Ġja ke
ĠsÃ¡ ra
ĠsÃ¡ yáº¹
Ġapa se
ĠÃ¬wÃ¡ sÃ¨
selu arailu
ly n
Ġsa lo
Ġsa piens
LÃ¡ bÃ©
gÃŃ dÃŃ
Mo hammed
ĠolÃ¹ gbÃ³
ĠAlÃ¡ kÃ©
ter s
Ġagbe joro
Ġagbe lebu
Ġidi bo
Ġidi wá»į
vi a
vi sion
ho va
ĠpÃŃn pÃŃn
Ġ17 7
el son
ĠkÃ¡ rÃ¹n
Ġele de
Ġele ro
Ġ194 4
Ġ194 8
tÃ© lÃ¨
Ġas á»į
tÃº tÃ¹
Ġoju de
Ġoju ojo
Ġida hun
Ġya la
ĠMo untain
ĠAla ga
Ġopo lo
ĠkÃ¬ÃŃ ni
ĠelÃ© rÃ©
ĠerÃ© kÃ¹sÃ¹
pu ter
pu blic
ĠOba sanjo
ĠÃĴkÃ¨ wÃ¹
ĠÃłgbÃł rÃ¡
mar k
co l
ĠAl b
ci a
ci d
Ġ4 0
ĠJu dge
ne t
ne y
ne ka
as cist
as hington
Ġ192 1
Ġ192 4
ug h
Ġ9 2
ĠLÃ¡ s
ĠLÃ¡ murÃºdu
ĠSa yensi
olo mi
ĠibÃ¹ sÃ²
GÃ© gÃ©
ĠolÃº wa
ĠolÃº kÃºlÃ¹kÃ¹
Ġon kowe
Ġsun mo
ĠJo hann
Ġji je
Ġgun le
Ġ6 0
Ġbayi i
ĠRo ck
ĠRo yal
á¹£i rÃŃá¹£i
ĠJe an
ĠÃłÃ¬ lÃ¨
et nam
ton u
Ġpi pa
Ġirin ajo
gÃ² gÃ³
Ġoba luaye
ĠCa meroon
ĠCa lifornia
ĠCa ribbe
Ġá»įna fun
Ġasa le
ry p
ĠCh arles
ĠPa ris
ĠPa sifiki
Ġjá»į ba
ĠAr gentina
200 5
Se mitic
ele se
ĠLi beria
mm anuel
ĠAra bu
Ġonimo sayensi
Ġ0 4
Ġape juwe
ĠkÃłn n
Ġeru ku
IrÃº fáº¹
Ġiko lu
iwo san
Ara bic
ĠMu hammed
ĠDa y
Ġ188 0
Ġ188 4
ssi ve
ĠakÃ© wÃ¬
Ġyáº¹ ra
ĠSo fieti
ĠBan toid
ĠKo gÃŃ
ĠKo rea
gÃ¡ gun
kÃ¡n nÃ¡
Ġá»Įba lá»į
Ġarin ajo
Ġiso dipupo
the matiki
Ġfil ms
Ġimu lo
ĠÃ¬jÃ¬n láº¹
ĠTi bet
dinlo go
ĠApa iwoorun
Ġen ÃŃ
ĠtÃ¡ bÃ¬lÃ¬
ĠgbÃŃ gbe
ĠgbÃ¨ sÃ¨
Ġese ese
Ãī e
ĠsÃºn mÃ³
ĠSt re
Ġaa la
Ġale jo
Ġ190 1
ĠGi wa
Ġ187 0
rg ani
Ġamo juto
ĠBÃŃ eÃ¨
ĠLu iz
ther ford
ĠadÃ¡ jÃ³
ĠmÃł a
ree k
ĠSer ena
sÃº sÃº
ĠigbÃ¡ kejÃ¬
ĠpÃ©rÃ© te
ĠgbajÃº gbajÃł
To go
Ġalo hÃ¹n
Ġalo minira
Ġayi pada
ĠIwo orun
ĠBro ad
Olo run
pti st
ens hire
Ġadi po
ĠÃ¬so pá»į
Ġgo ri
tho dist
ĠVi etnam
Ġaká»į rin
ĠÃłlÃł Ã¡fÃŃÃł
ĠGa bon
197 7
rie d
Ġ180 9
John son
Ġata yo
Ġido ju
ĠÃ¬fo jÃº
ĠyÃ¬ i
ĠÃ²gbÃ³ ni
ĠSta te
ĠEgy pt
ĠarÃ³ pÃ²
Ġibu do
ĠAyÃ© tÃ²rÃ²
Ġisu jo
ĠPe ter
ĠPe ople
BÃ¡mgbÃ³ s
BÃ¡mgbÃ³ á¹£Ã©
ida mo
ĠokÃ¹n fÃł
Ġita ge
Ġkar b
ĠÃłdÃł pá»į
ĠGri iki
ĠTawa Temi
ode oni
Ġogb in
ĠaÃ¡ yan
ĠIpa wo
Ġmokan lelogbon
ĠTur ki
ĠÃĢÃł ráº¹
ĠPro gre
ĠIndi es
tÃŃn rÃŃn
ĠÃłrÃŃ yÃłnjiyÃłn
una doko
unda tion
lelo gun
ĠEd ward
ĠEng land
ĠGÃŃ rÃ¡mÃł
ĠHu bble
ĠRu therford
Ġ183 1
ĠAberde enshire
ĠÃłkÃłn lÃ²
ĠÃ²Ã³ gÃ¹n
ĠÃ²Ã² jÃ³
ĠMon t
ĠErÃ©kÃ¹ á¹£Ã¹
ÃĮy ÃłtÃ²
ĠPri ze
tÃ³bi jÃ¹lá»į
ĠÃ¬bÃ¡gbÃ© pÃ²
ster s
ĠkÃ¬n nÃŃ
ĠÃ¬rÃ¡n tÃŃ
ĠfÃŃn nÃŃ
Ġeme ta
ĠIS LAM
Ġkom puta
ĠKar l
ĠLou ise
mati iki
hel m
risto ph
Ġifara ko
ĠÃłwÃ¡ rÃŃ
ĠÃłtÃ© wÃ³gbÃł
ĠÃ¬si rÃ²
lov enia
ĠMÃ² sÃ¨
ĠMoro cco
ĠGene ral
Ġmili á»įnu
ĠDen mark
ĠTÃ¡ pÃł
ĠÃ¬sÃ¬n kÃº
ĠgÃ©dÃ© gÃ©dÃ©
stron g
Ġson so
ĠÃ¬ro ra
reen berg
moo ka
lade sh
ĠÃĮJ ÃĪ
ĠÃĮla yÃ¨
ĠBC E
ĠSco tland
ĠorÃŃá¹£Ã¬ÃŃ rÃŃá¹£Ã¬ÃŃ
ĠHam burg
ĠamÃºn isÃ¬n
William s
ÃłrÃ² so
Ġapáº¹ áº¹ráº¹
ĠÃ¬po longo
Ġgbu do
ĠAfi rika
Ã¬nÃ¡ dÃ¹
ĠÃĴrÃ¬ sÃł
ĠKÃ¡n sÃŃlá»į
wÃ³pa mÃ³
Ġomolu abi
ĠhÃŃ hun
ĠkÃ¡rÃŃ ayÃ©
ĠCau chy
ĠYunifÃ¡ sÃŃtÃ¬
ĠBelgi um
KÃº rÃ¹pÃ¹
Loo oto
Zan gbeto
kli di
ĠIgbe riko
Ġtogba jumo
ĠlÃ¡ÃŃ lÃ¡ÃŃ
ĠsokÃ¹n fÃł
ĠÃĮje rÃ²
ĠSwe den
ĠEnu gu
Ġpaja wiri
yame ya
ĠFaye Zik
Ġeniko okan
ĠGuang xi
Ġnukleoti di
ĠDoug las
Ap ril
Feb ruary
Jenni fer
ĠnÇ¹ kan
Ġsá»įn Ã¹
Ġiden a
ĠÃłgÃ© kÃºrÃº
ĠÃłkÃŃ yÃ¨
ĠIfo loke
ĠNAS A
ĠSci ence
Ġdiph the
ĠJusti ce
ĠCÃ´ te
ĠLÃłÃ¬ bÃ©rÃŃÃł
gotra ki
Ġhtt p
ĠHas san
Ġbelube lu
hova h
ĠCaribbe an
ĠProgre ssive
" ),
' d
, âĢĿ
0 6
0 8
1 40
2 50
3 1
3 4
3 6
4 1
4 2
5 3
6 4
6 6
6 00
9 0
9 7
9 8
A B
A J
A T
A t
A jo
A ni
A mi
A wa
A li
A gbÃ©
A gbÃ¨
A jÃŃ
A bÃ©
A yáº¹wo
B u
B Ãł
B Ã¨
B áº¹
B ar
B ara
B ee
C ross
D ÃĴ
D ÃºrÃ³
D aniel
E wu
E sin
F ÃŃ
F Ã³
F Ã¬lÃł
H E
H u
H igh
I V
I kan
I gbo
I po
I á¹£áº¹
I bÃ¬
I tumo
J Ã©
J Ã¬nÃ¡dÃ¹
K Ãł
K áº¹
K Ã¬ÃŃ
K ar
K at
K ordofanian
L i
L on
L ou
M Ã¡Ãł
M us
M ary
O rÃ²
O yÃ¨
O dÃºn
O we
O kÃ¹nrin
O ogun
P E
P h
P ÃŃ
P Ã³
P at
R Ã²
R Ãī
S t
S te
S Ã©
S Ã²
S hi
S outh
S TS
T A
T Ã¡
T aa
W i
W al
a de
a si
a bu
a gbegbe
c or
c ro
c li
e la
e jÃ¬
e dÃ©
e ty
e gberun
g Ã¨dÃ¨
g ha
h Ãł
h en
h ÃŃn
h oro
h aran
h Ã¡nÃ¹
i ri
i lÃ¨
i gbe
i ya
i mu
i ma
i pin
i ce
j anu
j ona
j ÄĻ
k s
k we
k ini
k tÃ©
k tro
l v
l Ãłn
l lo
l de
l oni
l ina
l uni
l ine
l furu
l ing
m bi
m ÃłÃ¡
m bÃ³
n rÃ²
n mi
n dÃ¬
n ou
o ko
o me
o kuta
p y
p re
p Ã¡Ãł
p Ã¬n
p pi
r k
r oni
r gh
s hi
s ky
t c
t ti
t Ã¬n
t to
t ta
t ÃłÃ¡
u gbo
u ru
u bÃº
v ar
v il
w rence
x y
x er
y w
y on
¿ e
Ã «
Ã ±
Ã ¼
Å «
Ë Ī
Î ¿
Ð °
Ð º
Ð ½
Ø §
Ø ¯
Ù ħ
Ù Ĩ
á ½
Ġ Ï
Ġ ïĢ¨
Ġ á¼
ÃŃ Ãł
ÃŃ lÃ¨
ÃŃ sÃłn
ïĢ¥ âĢĿ.<|
ïĢ¥ .âĢĿ<|
Ġn wa
Ġn bo
Ġn na
Ġn fe
Ġn já»įwá»į
Ġn jani
Ġt Ã¡a
Ġt ennis
Ã¡ Ã²
Ã¡ má»į
Ã¡ rÃ¡
Ã¡ mÃº
Ãł lÃ¨
Ãł won
Ãł gbÃł
Ãł kÃ³
Ãł fin
Ãł kÃŃyÃ¨sÃŃ
Ãł hÃ¡má»į
en Ã©
en ga
Ã³ nÃº
Ã³ tá»į
Ã© jÃ¬
Ġo h
Ġo Ã²
Ġo la
Ġo lÃ¡
Ġo ta
Ġo gbe
Ġo so
Ġo nÃ¬
Ġo je
Ġo yi
Ġo ge
Ġo du
Ġo gbÃ¨
Ġo dÃ³
Ġo fo
Ġo jÃ¹
Ġo hu
Ġo ksijin
Ġa rÃŃ
Ġa gbÃł
Ġa lÃł
Ġa ke
Ġa ini
Ġa gÃ©
Ġa tÃ©
Ġa fáº¹
Ġa yáº¹
Ġa fá»į
Ġa arin
Ġa lopo
Ġa mÃ¡
Ġa min
Ġa tannÃ¡
Ġa bÃŃnibÃŃ
Ġa tÃŃnrÃŃn
gb un
gb Ãłn
gb Ã¹wÃł
Ãº bÃ¡
Ãº bÃŃÃł
Ã¬ t
Ã¬ bÃŃ
Ã¬ so
Ã¬ wÃ²
Ã¬ sÃŃ
Ã¬ tÃłn
Ã¬ dÃŃ
Ã¬ pÃ©
Ã¬ rÃ²yÃ¬n
Ġs Ã¬ÃŃ
Ġs ÃłÃ¬
Ġni ye
Ġni yen
Ã² kÃº
Ġw an
Ġw orld
Ġi ra
Ġi je
Ġi mÃ²
Ġi wÃ©
Ġi jÃł
Ġi kÃ¹n
Ġi tori
Ġi ha
Ġi á¹£e
Ġi kin
Ġi ho
Ġi kowe
Ġi win
Ġi danwo
á»į kan
Ġk oni
ĠÃł lÃ³
ĠÃł ki
ĠÃł bÃł
ĠÃł rÃ¡
ĠÃł tÃ²
ĠÃł dÃ¬
ĠÃł dÃ¹
ĠÃł tÃł
ĠÃł pÃ©
ĠÃł nÃ¡
ĠÃł yáº¹
ĠÃł fÃ©
ĠÃł Ã¬nÃŃ
ĠÃł jÃłnÃł
ĠÃł jÃ¨jÃ¬
ĠÃł isÃłn
un ty
Ġb in
Ġb ro
Ġb ÃłÃ¡
Ġb ÃłtÃł
ti a
ti ni
ti láº¹
ti pÃ¡
ti ve
ti sh
áº¹ ni
áº¹ kun
wo le
Ġti ko
Ġti won
Ġti to
Ġti pe
Ġti tani
ĠÃ¬ rin
ĠÃ¬ gba
ĠÃ¬ ni
ĠÃ¬ gbÃ³
ĠÃ¬ jÃ¬
ĠÃ¬ bo
ĠÃ¬ yan
ĠÃ¬ jÃ³
ĠÃ¬ jÃ¨
ĠÃ¬ rÃł
ĠÃ¬ pÃ©
ĠÃ¬ dÃ¹n
ĠÃ¬ pele
ĠÃ¬ gÃłn
ĠÃ¬ wadÃ¬ÃŃ
ri k
ri m
ri en
ri dge
Ġp er
Ġp oo
Ġp ana
Ġp lÃ¡n
Ã¹ gbo
Ã¹ pÃ¡
ĠnÃŃ gbÃ³
ĠnÃŃ wÃ²
ĠnÃŃ tori
ĠnÃŃ lÃ¡ti
Ġf an
Ġf lu
Ġf ura
Ġj oo
Ġj ina
ÌĢ ;
ĠtÃŃ tÃł
ĠtÃŃ tÃ¨
Ġy ou
ra d
ra y
ra in
ra de
ra já»į
Ìģ :
Ġd Ã¹
Ġd áº¹kun
Ġgb ani
Ġgb ona
Ġgb Ã¡jÃº
Ġgb Ã¬mÃ²
rÃŃ gbÃł
in f
in ga
in land
Ġe yÃŃ
Ġe bo
Ġe fi
Ġe bu
Ġe gbÃ²
Ġe fun
Ġe wi
Ġe yÃŃn
Ġe uka
Ġe tc
Ãºn je
le e
le Ã¨
le omu
ĠA F
ĠA S
ĠA ti
ĠA ko
ĠA kan
ĠA po
ĠA bÃŃ
ĠA wa
ĠA gbe
ĠA wÃ³
ĠA rÃ©
ĠA tÃ³
ĠA ma
ĠA go
ĠA th
ĠA pÃ¨
ĠA ir
ĠA jagun
ĠA risto
ĠÃ³ nÃŃ
ĠO h
ĠO Ã²
ĠO lÃ¨
ĠO ye
ĠO so
ĠO ya
ĠO mÃ³
ĠO ruko
ĠO á¹£Ã¹
ĠO kuta
ĠO bÃłtÃ¡lÃ¡
ĠO lÃ¹bÃ¡
ĠO duduwa
ĠO GUN
ĠÃ¨ rÃŃ
ĠÃ¨ wÃł
ĠÃ² rÃ©
ĠÃ² rÃłn
ĠÃ² dÃ³
ĠÃ² hÃºn
ĠÃ² tÃºtÃ¹
re r
ko mi
ĠsÃŃ bi
ĠsÃŃ nu
ĠsÃŃ ta
ĠsÃŃ sun
ĠsÃŃ lÃ¹Ãº
ba le
ba lÃ¨
ba kar
ÅĦ dÃŃ
lo di
lo ck
ĠÅĦ ki
se ye
se jÃ¹
se ball
Ġlo l
Ġlo mo
won Ã¬dÃ¡
bi o
bi ti
bi bi
bi rin
bi tu
mo ri
mo so
mo ran
mo juto
ĠI L
ĠI di
ĠI sa
ĠI tÃ¡
ĠI ll
ĠI bÃłdÃłn
ĠI dÃ¡n
ĠI jidide
rin g
á»įn i
á»įn Ãł
Ġfi b
Ġfi fun
Ġto gun
Ġto kere
Ġto tobi
Ġto gajulo
á¹£ o
Ġsi mu
kan i
kan u
or Ã¹n
si rÃ²
si po
si tÃ¬
si ca
ĠlÃ¡ n
ĠlÃ¡ w
ĠlÃ¡ ruge
ĠlÃ¡ tá»įwá»į
ĠlÃ¡ tÃłÃ¡
Ġkan soso
pa l
pa la
ĠpÃ© ye
Ġwa s
Ġwa ju
Ġla ba
la tion
la aka
to s
to ria
ĠlÃ³ ko
ĠlÃ³ nÃ¬
ĠlÃ³ kun
ĠlÃ³ nÃł
ĠlÃ³ jÃ³
ĠlÃ³ Ã²Ã³
Ġse gun
Ġse rÃ©
Ġse ku
Ġse ese
Ġse yato
lu te
dÃ¨ ra
ĠtÃ³ tÃ³bijÃ¹lá»į
Ġg Ã¬
Ġg rÃ¡
Ġg oo
Ġg Ã²kÃ¨
ka y
ka si
ka kiri
Ġá»į bÃł
Ġá»į dá»į
Ġá»į kÃ¹nrin
Ġá»į gbáº¹
Ġá»į sáº¹
Ġko jÃ¡
ïĢ¨ -
ïĢ¨ âĢĻ
ÃĢ jo
ÃĢ wa
ÃĢ mÃ³
ÃĢ sÃł
ÃĢ pÃ¨
ÃĢ bÃºrÃ²
ÃĢ á¹£Ãłkáº¹
Ġbi beli
lÃ¡ Ã¡
lÃ³ fÃ²
er c
Ġso rÃŃ
Ġso pá»į
Ġso koto
ĠbÃ¡ a
ĠbÃ¡ wo
ĠbÃ¡ ÅĦ
ĠbÃ¡ ni
ĠbÃ¡ jÃ©
gbo ko
ta mini
ta yÃ²
mi c
mi th
mi ted
bÃ¡ n
bÃ¡ dÃ²
da e
da r
da ri
di s
di rin
ĠN Ã¬
ĠN ye
ĠN ai
ĠN ÃºbÃŃÃł
po li
ĠÃĮ lo
ĠÃĮ ta
ĠÃĮ kÃ³
ĠÃĮ bÃł
ĠÃĮ dÃ³
ĠÃĮ yÃłwÃ³
ĠÃĮ sá»į
ĠÃĮ wÃłrÃł
ĠÃĮ fojÃº
gun so
Ġmo ti
Ġmo se
ĠB Ã¹
ĠB re
ĠB or
ĠB oo
ĠB ill
ĠS K
ĠS ÃŃ
ĠS Ã³
ĠS am
ĠS il
ĠS ara
ĠS istemu
ĠS mith
kÃ³ Ã²
Ġdi lÃ©
ĠM Ãł
ĠM il
ĠM usulumi
ĠÃĴ S
ĠÃĴ rÃ²
Ġara binrin
Ġba lÃ¨
Ġba won
ĠE l
ĠE x
ĠE bi
ĠE jo
ĠE gba
ĠE ye
ĠE yin
ĠE mÃ¨rÃ¨
ĠE conomi
bÃŃ i
Ġre tÃŃ
Ġre pete
ĠY Ã³Ã²
ĠY ara
gbÃ³ dirin
Ġpa mo
Ġpa rÃ©
Ġpa danu
wa l
wa r
ĠK Ãł
ĠK aa
ĠK om
ĠK al
ĠK olombia
ĠK ÃºbÃł
pe s
pe rÃŃ
ĠkÃŃ kÃłn
Ġle waju
gbe rÃŃ
gbe je
ÃĮ ta
ÃĮ hun
ÃĮ lÃł
ÃĮ dÃ¡
ÃĮ rÃ¨
ÃĮ gbÃ©
ÃĮ rÃ³
ÃĮ jáº¹
ÃĮ dÃ¬
ÃĮ rÃ¬n
ÃĮ lÃłnÃł
ÃĮ bÃ©Ã¨rÃ¨
ĠG bo
ĠG ol
ĠG roup
ĠG reek
ar s
yÃłn mÃ³
so to
so wÃ³
Ġlati nu
Ã¡n Ã¬
Ġyi ya
NÃŃ gba
NÃŃ nu
Ġmi ta
ĠJ ÃŃ
ĠJ en
ĠJ as
jÃ¬ lÃ¡
ran e
ran se
kÃ² kÃ³
Ġgbogbo gbo
ki we
ĠD an
ĠD ana
ĠD aniel
Ġori opo
aa ju
aa pu
li kani
wÃ¡ rÃł
wÃ¡ nilÃ©
wÃ² ran
dÃ¡ jÃº
Ġá¹£ i
Ġá¹£ ÃłlÃłyÃ©
Ġá¹£ Ã¡Ã¡jÃº
Ġáº¹ bÃŃ
Ġáº¹ ja
ĠorÃŃ si
ede s
be le
Ġile oba
ĠkÃ³ rÃ³
ĠkÃ³ ÅĦsÃ³nÃ¡n
ĠlÃ¨ e
ĠlÃ¨ Ã¨
ĠT ar
ĠT rans
ĠC u
ĠC y
ĠC he
ĠC ho
ĠC ham
ĠC ent
ĠC anada
bo to
fi kÃºn
fi ci
Ġta bÃŃ
ĠÃĢ rin
ĠÃĢ rÃ¡
ĠÃĢ gá»į
gbÃ© ra
ke y
ĠilÃ© sanmÃŃ
ÃĪ RÃī
tÃŃ kÃ¹
na ji
rÃłn lÃ³
rÃłn gÃºn
ÃĴ n
ÃĴ mÃ¹
ÃĴ jÃ²
rÃ³ nÃ¬
rÃ³ á¹£iná¹£in
we re
ĠF Ãº
ĠF lo
ĠF ara
ĠF rÃ¡n
ĠF IFA
ĠF ascist
du l
du gbo
du pe
mu ye
Ġda jo
Ġda sile
Ġda ys
kÃ¨ n
ĠgbÃ³ nÃ¡
ĠP h
ĠP u
ĠP eru
ĠP osted
ĠP ress
á»Į dÃºn
á»Į jÃł
á»Į lá»į
gbÃ¨ Ã©
gbÃ¨ rÃºn
kun le
ĠlÃ© Ã¨
ĠlÃ© rÃ²
ĠlÃ© hÃ¬n
ma le
ma du
Ġolo o
Ġolo wo
Ġolo mo
Ġolo kiki
Ġolo ksijini
Ġolo ksijin
ber ts
Ġju we
Ġibi mo
Ġomo omo
is Ã©
Ġh Ã³
Ġh is
Ġh al
Ġh oro
ĠmÃº lÃ©
bu rn
bu rgh
ĠÃ¬gbÃł gbÃ²
tu m
tu ru
kÃł Ã¡
kÃł kÃł
ĠH y
ĠR Ã³Ã²
ĠR oo
ĠR os
ĠalÃ¡ gbÃ¡
ĠalÃ¡ dÃ¹
ĠalÃ¡ gbáº¹
ĠalÃ¡ Ã¬gbÃł
dÃº dÃº
ïĢ§ -
bÃł lÃº
ĠdÃ© bi
ĠÃ¡ stáº¹
ĠÃ¡ lÃºfÃ¡
ĠÃ¡ tÃŃkÃ¹
Ni gbÃł
Ni co
dÃ² go
ĠwÃ² Ã³
dÃ¬ ye
Ġun gba
Ġun fe
ĠolÃ³ lÃ¹
ĠolÃ³ hÃ¹n
ĠolÃ³ sÃ¨
ĠolÃ³ kÃ¬kÃŃ
th a
th y
th ro
th ur
fa ka
fa ct
ĠÃŃ sÃ³tÃ²pÃ¹
kÃº wÃ¬
áº¸ ni
ĠwÃŃ wo
ĠwÃŃ wÃł
lá»į wá»į
lá»į gá»į
dÃ¹ dÃ¹
Ġma inland
ai r
ai la
Ġ18 15
Ġ18 48
ĠW Ãł
ĠW in
ĠW el
ĠW um
ĠW at
ĠW ashington
Ġala wujo
Ġala isi
Ġala dani
ĠgbÃł gbá»į
ĠgbÃł dÃºrÃł
ĠonÃŃ dÃł
ĠonÃŃ tÃ²
ĠonÃŃ á¹£e
ĠonÃŃ kÃ¡lukÃº
ĠonÃŃ ÃłhÃ¡má»į
ĠÃ¬tÃłn kÃ¡
Ġfa roti
om er
ĠnÃ¬ ye
Ġoni toun
ĠyÃŃ ÃŃ
sa lasi
Ġmu lo
ĠÃĪ kÃºwÃ¬
fÃ¨ Ã©
ĠdÃŃ dÃºn
ĠdÃŃ dÃ¬
ĠMa l
ĠMa lÃ²
kÃ© Ã©
rÃł kÃ¡tÃł
Ġfe e
kÃŃ ni
kÃŃ kÃ©kÃºrÃº
fe ri
fe fe
fÃ¡ Ã¬t
ráº¹ landi
Ġáº¸ láº¹
Ġáº¸ ráº¹
Ġjo sin
Ġjo bÃ¬
mÃ¹ wÃł
mÃ¹ tÃŃ
ani c
pÃ³ lÃł
Ġagba gba
lÃ² Ã³
ĠojÃº ewÃ©
Ġmaa lu
st on
wÃ¹ Ãº
wÃ¹ rÃł
ĠlÃ¡Ãł ti
tun se
ĠNi lo
ĠNi co
uba wa
tÃł lÃ©lÃ³
BÃŃ bÃ©lÃ¬
ĠdÃº ro
ĠdÃº pÃ©
ha d
Ġolu se
Ġolu laja
ĠU r
ĠU mu
ĠU gbÃ²
ĠU gan
Ġpo rÃŃ
Ġpo ta
Ġpo po
Ġpo fo
bÃ¹ dÃ¡
ou gh
Ġiye ara
ĠBa hia
ĠBa hama
á¹£Ãł lÃłyÃ©
ĠOlo dumare
Ġgi landi
ĠDe faka
rÃ¹ Ãºn
rÃ¹ kÃº
Ã¬s Ã²
ĠOlÃ³ yÃ¨
ĠâĢĵ <|
ĠjÃ¡ sÃŃ
ĠjÃ¡ kÃ¨
ĠfÃŃ fÃºn
Ġja lÃ¨
Ġja si
Ġapa iwoorun
Ġsa lÃ¡
Ġsa Ã¡jÃº
gÃŃ rÃŃ
lÃŃ s
fÃ² n
ĠolÃ¹ sá»įdipÃºpá»į
ĠolÃ¹ darÃŃ
ĠAlÃ¡ fÃł
bÃ¬n rÃŃn
mÃ¬n Ã¬
ĠOn dÃ³
OrÃŃ á¹£Ã¬ÃŃ
Ġra dio
Ġgbo wÃ³
Ġgbo bgo
vi Äĩ
ho mey
el le
ĠkÃ¡ rÃłkÃ¡tÃł
ĠpÃł á¹£áº¹
ĠpÃł dÃł
ĠpÃł bÃ³
hi o
ĠsÃ© gun
rÃ¡n Ã¬
Ġele kt
Ġele ktro
ĠTo seluarailu
ur ch
Ġas Ã²
ĠsÃ³ kÃŃ
ca te
ca go
Ġida siko
rÃ¬n wÃ¡
ĠsÃ² fÃ²
ĠsÃ² kÃ²tÃ²
Ba wo
Ba kan
Ba yÃ¬ÃŃ
Ġya tá»į
ĠarÃ¡ kÃ¹nrin
ĠMo dÃ¡
ĠMo dern
ĠdÃł ÃłmÃº
ĠKa ribe
Ġmeji din
esi s
tÃºn á¹£e
gu e
ĠOba femi
ĠÃłgbÃł lÃ¡
ĠV o
ĠV ir
Ġ193 6
co de
Ġan ti
bÃ¹n mi
ĠbÃ³ fin
ĠAl geria
ĠAl lah
ci ation
os ta
Ġipa se
Ġigbe ra
Ġigbe le
Ġiwo san
ĠMar k
gan gan
Ġoun je
ĠÃ¬bÃ¡ mu
ĠÃ¬bÃ¡ á¹£epá»į
káº¹ ta
Ġfo ju
dÃŃn kÃ¹
Ġgbi yanju
Ġiá¹£áº¹ ju
ĠjÃŃ ire
ĠrÃ¡ yÃ¨
ĠRe mii
ol in
Ġbu t
Ġ192 6
Ġ11 8
ĠIs land
ĠBo w
ĠBo go
ĠBo ys
ĠAn n
ĠAn toni
ĠLÃ¡ ti
ĠLÃ¡ mo
ĠSa da
ĠSa muel
Ġc entury
Ġdo gba
ĠibÃ¹ do
Ġnibi ti
Ġabo de
ĠnÃŃbi kÃŃbi
Ġ191 5
ĠolÃº Ã¬lÃº
Ġin ter
ĠBen del
ĠMi mo
ĠMi chael
ĠMi chigan
ĠÃ¬gbÃ© sÃ¨
hÃ¡ mÃ³
ph y
ph en
Ġji jo
Ġji gi
Ġgáº¹ gáº¹
ak h
gÃ¬ dÃ¬
Ġiya ra
Ġagbara jo
ĠlÃ¡Ã¬ wo
ĠlÃ¡Ã¬ pÃ©
ĠRo mu
Ti ti
Ġaso ju
Ġaso jÃº
ĠlÃŃ tÃŃrÃ©
ĠÃ¬dÃ¡ ni
ĠÃ¬dÃ¡ já»į
ĠÃ¬dÃ¡ nilÃ©
ĠdÃ¬ bÃ²
Ma y
Ma rie
Ġá»įn Ãł
Ġiba di
Ġiba tan
ĠJa gun
ĠJa ckson
ĠJe hovah
ĠGÃ¨ Ã©sÃ¬
ĠÃłÃ¬ á¹£etÃ¡n
ĠÃłwÃ² ká»į
ĠÃłwÃ² rÃłn
ric t
AlÃ¡ kÃ¹nrÃ©
Ġpi po
Ġirin kankan
Ġpin pin
ĠLe a
18 3
18 8
ĠGe orge
ĠCa p
IlÃ© sanmÃŃ
ĠkÃ¡Ãł Ã¡
ĠNa ples
Ġsáº¹ láº¹
kÃŃn nÃŃ
ĠCh ris
ĠCh urch
ĠPa kistan
ĠyÃ³ kÃ¹
Ġpara ku
ĠGu yana
ĠPo pu
ĠPo land
ĠPo well
200 1
200 2
200 4
ele ct
ĠHa d
Ã¬yÃłn dÃ¡
199 8
Ġ0 7
Ġlu lÃ¨
Ġafi da
Ġafi juwe
Ġiko rira
ĠMe thodist
OlÃ³ dÃ¹marÃ¨
mbÃł ga
per s
ĠMu hammad
Ġ188 1
Ġ188 3
ĠÃģ rÃ¡
Ġab ÄĻ
ĠatÃ³ kÃ¹n
ĠOmo oba
ĠSo ci
Al Ã¡Ãłfin
dro me
ĠrÃ© gÃ©
ĠBan g
ĠKo mo
ĠÃĢkÃłn dÃ©
kÃ¡n kÃ¡n
Ġabu ro
ĠAso kan
Ġ189 0
Ġ189 5
Ġ189 8
Ġ189 9
Ġiji ya
Ġiji yan
Ġiso kuso
LÃ³ nÃ¬ÃŃ
ĠYuni fa
ĠÃ¬sÃł kÃ³so
Ġilo siwaju
198 1
198 6
198 8
DÃŃ áº¹
ĠlÃ¡wÃ¹ já»į
ĠSu per
ĠKi ri
ĠAfÃŃ rÃŃka
bon gan
ĠgbÃŃ gba
ler k
ĠSan ta
Ãī Ã¨
Ì£ ÌĢ
ĠÃ¬kÃ³ já»į
ĠolÃ¹kÃ³ pa
An ti
Ġ190 2
Ġ190 6
ĠThe mbu
Ġhe lium
Ġ187 6
Ġ187 9
Ġkun na
ĠyÃ¨ wÃ²
ĠLu ther
Ogun lo
ĠadÃ¡ nidÃ¡
Ġadu ra
ĠOlÃºs ÃŃnÃł
Ġiwadi i
Ġam usin
ĠÃłdÃ¡ bÃ¡yÃ©
ĠÃ¬fi pÃ¡
ĠgÃºn lÃ¨
ĠÃ¬sÃ¨ jo
Ġha lo
Qu e
To rÃŃ
igh t
Ġado gba
Ġado ta
Ġayi po
Ġifi pagbajoba
ĠÃ¬á¹£ Ã¨
ĠÃ¬á¹£ á»į
ĠÃ¬á¹£ Ã²ro
ĠrÃº bo
ĠBi beli
ĠBro ok
He patitis
KÃ³ dÃł
Sa haran
abi so
Ġaro po
ĠÃ¬le ra
ĠSi erra
ĠMor ris
ist rict
Ġ186 3
Ja cques
Ġalu jon
ĠadÃº rÃ³á¹£iná¹£in
Ġito ju
ĠfÃ¡ wÃ¨
ĠLati ni
Pe ter
Ġani gun
ĠÃ¬ta ra
Ġsibe sibe
ÃĢkÃ³ kÃ²
ÃĢkÃ³ já»į
ĠBel l
ĠBel lo
ĠMoz art
Ġafefe ojuorun
GB Ãģ
Ġata re
Ġido gba
Ġiro ko
Ġkini un
ĠjÃº we
ĠÃ²gbÃ³ jÃº
ĠfÃºnra rÃ¨
ĠChi ef
ĠChi cago
AP OR
Com puter
no tai
Ġibu gbe
ÃĢpe ere
ĠLÃº mÃ²
Ġteli skopu
BÃ¡mgbÃ³ sÃ©
Ejo wo
Ejo or
OnÃŃ rÃº
lÃ¡Ãł Ã¡
ĠÃ¬dÃ¬ pá»į
ĠÃ¬dÃ¬ bÃ²
ĠÃ¬wÃº re
ĠÃ¬dÃ¡n rawÃ²
ĠjÃ¬ jo
ĠAbi mbo
ĠKan sas
ApÃ¡ Ã¬wá»į
Ġar Ã¡ÃłlÃº
Ġigbo gun
Ġifo wo
ĠÃ¬tÃº palÃ¨
Ġmokan la
ĠTur key
ĠÃĢÃł bÃ²
Ġkerin la
Ala ye
LÃ³Ã² Ã³tá»į
No bel
hy si
ken d
mÃºn i
Ġnaira land
ĠÃłrÃŃ yÃ¡
ĠÃłro je
ĠÃ¬gbÃ¨ rÃŃko
Ġjin na
balÃ³ rÃ¬s
Ġá»įpá»į lá»įpá»į
ĠMis sissi
ĠKÃ¡ bÃŃ
duna dura
ĠPen n
Ġ179 2
Ta wa
ĠÃłnÃŃ yÃłn
Ġtire di
ĠÃ¬yÃłn jÃº
ino is
ĠOla gunso
ĠÃĮdÃŃ je
Ġalai gbara
ĠÃ¬bÃ¡gbÃ© pá»į
Bra zil
cu lar
mb us
Ġiwu wo
ĠÃ¬p Ã¬n
Ġkom unisti
ĠLou is
Ġsul furu
kt rÃ³nÃ¬
ksÃŃ kÃ²
Ġowu ro
ĠAbe le
ĠAbu bakar
ÃĢjÃł padÃ¡
ĠNu pe
ĠBer nou
ĠKÃŃ rÃŃsÃŃtÃ¬
ÃĮpÃŃn lÃ¨
ĠPÃ³pÃ³ á»įlÃ¡
ĠmÃŃÃ¬ ran
ĠmÃŃÃ¬ rÃłn
AD R
LÃŃ tÃŃrÃ©s
PÃ³pÃ³ o
PÃ³pÃ³ á»įlÃ¡
gini a
vin ce
ĠOdÃ¹du wa
Ġfisi yiki
á¹£a yáº¹wo
ĠbÃ¡ra kÃº
Ġá¹£ÃŃ á¹£e
dÃłgbÃł sÃ³kÃ¨
ĠArm enia
ĠBÃ¡mgbÃ³ s
ĠBÃ¡mgbÃ³ á¹£Ã©
ID S
mÃ¬ÃŃ rÃłn
ĠamÃ² ye
Ġilopo meji
ĠÃłbÃº ro
ĠÃłyÃł fi
Ġban ki
ĠmÃ¹ tÃº
ĠÃ¬dÃ² tÃŃ
Ġex cel
ĠÃ²rÃ¹ lÃ©
Ġlojo waju
ĠLar ubawa
Ġhu run
ĠZu lu
Ġwee kend
danilo ro
ĠQue en
Ada mawa
Je an
phe re
Ð¸ Ñ
ĠÃłrÃ¬ mo
ĠÃ¬da jÃ¬
ĠAche be
Ġkose sile
Ġsodi omu
ĠSO V
ĠSwi din
rani om
ĠColu mbus
Ġtakun takun
ĠÃĢlÃł mÃº
ĠdÃ©Ã©dÃ© Ã©
ĠMax well
bÃ³yÃ¨ dÃ©
ĠInter national
ĠBaji mo
BÃ¡mi jÃŃ
ĠgbÃ¡ra dÃ¬
ĠAzerbai jan
Aa go
Ele yi
WÃł hÃ¡lÃł
Ġoran yan
ĠarÃº gbÃ³
ĠÃłtÃº palÃ¨
Ġdar u
ĠOyin lola
ĠÃ¨ni yÃłn
baÅĦ ta
lova kia
ĠIrÃºn mo
Ġlafi we
Ġpetro leomu
ĠNÃ¡ ÃŃ
ĠÃĮbÃŃ lÃ¨
ĠÃĴgbÃ² rÃ²
ĠKroati a
ĠÃĢtÃ¬ lÃ¡ÅĦ
ĠÃĢgÃ¹ dÃł
ĠFil mu
ĠRama t
omini ra
ĠojoojÃº mÃ³
Ġoluwa kiri
mÃºlÃ© rÃ³
ĠOlÃ³wÃ³ lÃłgbÃł
ĠÃłkÃŃyÃ¨ si
Ġdiphthe ria
Bara ck
Mus tapha
Wal ter
ktÃ© rÃŃÃł
mÃłÃ¡ lÃ³
Ġnjani jáº¹
ĠagÃ© rÃŃ
Ġiá¹£e gun
ĠÃ¬ni ra
ĠplÃ¡n áº¹
Ġeuka rioti
ĠAth ens
ÅĦdÃŃ rÃ¬
wonÃ¬dÃ¡ hÃ¹n
ĠItÃ¡ lÃŃÃł
ĠIll inois
Ġtokere julo
ĠgrÃ¡ fÃ¡Ã¬t
ĠYara dua
ĠkÃ³rÃ³ onÃº
ĠFrÃ¡n sÃ¬
ĠolÃ³sÃ¨ lÃº
dÃ¹dÃ¹ joyÃ¨
Ġaladani da
Ġfaroti ka
ĠMalÃ² kun
ĠUgan da
Ġiyeara budo
ĠKaribe ani
ĠVir ginia
elect ron
ĠabÄĻ rÄĻ
notai pu
ĠMississi ppi
ĠOlagunso ye
ĠBernou lli
! ,
" ).<|
% .<|
) ).<|
0 1
6 1
6 8
7 6
7 9
8 2
9 3
? ,
A A
A O
A Y
A i
A do
A ba
A to
A ro
A ka
A wÃ³
A ya
A ke
A sa
A ust
A ng
A kÃŃn
A bÃºlÃ©
A dua
A siko
A gÃŃgÃŃrÃŃ
A fefe
B N
B en
B is
B al
C an
C al
C hi
C olin
D u
D ÃĪ
D og
E ro
E rÃ²
E po
E li
E wÃ¬
E ll
E ng
F e
F Ã¡
F á»įlÃ¡á¹£adÃ©
G E
G ÃŃ
G an
G ri
G omina
G reenberg
H in
H ar
I N
I O
I pa
I la
I ro
I ta
I pÃ²
I rÃ³
I gbÃ¡
I dÃŃ
I pin
I kÃº
I lana
I gbimo
I reti
I brahim
J Ã¬jÃ¬
J Ã©sÃ¹
K I
K O
K Ã©
K in
L an
L ÃĴ
L ara
M A
M e
M or
M ÃŃlÃŃÃ²
N G
N or
O n
O lÃ¨
O Ã¹n
O kan
O kun
O fin
O kÃ¹n
O binrin
O su
O bÃ¬nrin
O risi
O Ãºnje
P A
P D
P ÃłÃ¡pÃłÃ¡
P et
R C
R u
R ÃĴ
R ara
R enÃ©
S R
S an
S ai
S ly
S Ã¡Ã¡jÃº
S lavic
T V
T áº¹
T ÃłbÃŃ
U ni
U PA
V o
V er
W il
Y a
Y i
Z os
a f
a y
a lo
a pe
a be
a me
a th
a joba
a kiyesi
a gle
b b
b or
b bÃł
c re
c la
c ta
c ar
c is
c ce
c ci
c toria
d dy
e a
e yo
e ve
f Ã¬wÃ©
f klidi
g de
g ar
g na
g ine
g onu
g ong
h Ã³
h oo
h ÃłÃ¡
i b
i p
i Ã³
i mo
i ka
i ji
i yi
i wÃ©
i tan
i fÃ¨
i joba
i mar
i rÃŃsi
i tis
i riri
i gn
i jinle
i á¹£ayáº¹wo
j en
j un
j ÃŃn
j ar
k wo
k wu
l tÃł
l ÃłnÃŃ
l ler
m un
m bÃ¡
m ina
m enu
m ona
m ÃŃnÃł
m ine
m per
m onu
m usin
m ÃŃnÃŃ
n m
n n
n le
n lÃ¡
n aa
n yin
n th
n kÃ¡
n rÃŃn
n inu
n tÃŃn
o t
o wo
o lÃ©
o pa
o hun
o is
o go
o binrin
o rile
o as
o les
o kowo
o pia
o á¹£o
p Ã¬ÃŃ
p á»įn
p si
p ro
p sy
r ba
r orun
r oro
r ne
r ley
s pe
s ini
s am
s oro
s he
s man
s hire
s foru
s phere
t en
t le
t se
t ch
t enu
t zer
t Ã¡ÃłsÃ¬
u te
u an
u ris
v y
v Ã¡
v on
w y
w en
w ÃŃn
w Ã¨rÃ¨
y na
z on
z ar
z ine
z ation
£ o
Ã ¢
Ã ¿e
Ã £o
Ä ħ
Å ¡
Å ĥ
Å Ľ
Ë ļ
Î ¯
Ï Į
Ð µ
Ġ â
Ġ ce
Ġ ÄĻ
Ġ Ç¹
Ġ ÅŁ
Ġ Î²
ÃŃ rÃŃ
ÃŃ sÃŃ
ÃŃ rÃłn
ÃŃ pÃł
ïĢ¥ /
ïĢ¥ âĢĿ,
Ġn Ã³
Ġn le
Ġn lu
Ġn be
Ġn lá»į
Ġn et
Ġn lÃ¡n
Ġt ani
Ġt ryp
Ã¡ láº¹
Ã¡ wÃ¡
Ã¡ Ã¡ju
Ãł s
Ãł ti
Ãł rin
Ãł lÃº
Ãł gbÃ©
Ãł mÃ¬
Ãł ÃłrÃł
Ãł pÃ¨jÃºwe
Ãł kÃ¡nÃŃ
en o
en de
en na
te si
te ef
Ã³ rÃŃ
Ã³ gun
Ã³ tÃŃ
Ã³ rÃ¬
Ã³ kÃŃ
do ni
do nu
Ã© ji
Ã© nÃŃ
Ã© li
Ã© kÃł
Ã© bÃ©
Ã© sin
Ġo pe
Ġo be
Ġo fi
Ġo rÃ¬
Ġo ja
Ġo gbon
Ġo fe
Ġo sun
Ġo min
Ġo gagun
Ġo gbÃ³n
Ġo daran
Ġo tutu
Ġo lÃ¹bÃ¡
Ġo ÅĦje
Ġo gorun
Ġo rgani
Ġo xy
Ġa h
Ġa on
Ġa lÃ¨
Ġa nu
Ġa láº¹
Ġa dÃŃ
Ġa tu
Ġa yÃł
Ġa gbÃ²
Ġa jÃŃ
Ġa wu
Ġa bÃ³
Ġa pÃ©
Ġa fÃ²
Ġa jumo
Ġa yÃ³
Ġa tele
Ġa ginjÃ¹
Ġa á¹£ÃłlÃłyÃ©
gb Ãºn
Ã¨ lÃ¨
Ã¨ sÃŃ
Ã¨ sÃ¬
Ã¨ lÃ²
Ã¨ wÃ¡dÃ¬ÃŃ
Ãº ÅĦ
Ãº mo
Ãº kan
Ãº pá»į
Ãº dÃº
Ãº fÃ²
Ã¬ rÃŃ
Ã¬ lÃ¹
Ã¬ jÃł
Ã¬ sÃ¨
Ã¬ wÃ¡dÃ¬ÃŃ
Ã¬ dÃ¨ra
Ã¬ tayÃ²
Ã¬ gÃ¬dÃ¬
Ġs ti
Ġs hun
Ġs Ã¹gbÃ³
Ġs are
Ġs ho
Ġs ina
Ġni se
Ġni lÃ¨
Ġni mo
Ġni lÃ©
Ġni gbo
Ġni má»į
Ġni bÃ¨
Ġni torÃŃ
Ġni tro
Ġni role
Ã² bÃ¡
Ã² kÃ¹n
Ã² pÃ³
Ġi f
Ġi ri
Ġi kÃ²
Ġi dÃ¡
Ġi yin
Ġi bÃº
Ġi bÃ©
Ġi gbon
Ġi kÃ©
Ġi pi
Ġi mÃº
Ġi rÃ¹
Ġi rÃŃn
Ġi dáº¹
Ġi dan
Ġi tÃºn
Ġi kÃºn
Ġi jinle
Ġi hÃ²
á»į si
á»į já»į
á»į wá»į
á»į rá»į
Ġk g
Ġk lo
Ġk wa
Ġk al
ĠÃł b
ĠÃł k
ĠÃł rin
ĠÃł lÃ©
ĠÃł dÃ¨
ĠÃł bo
ĠÃł sÃŃ
ĠÃł tÃŃ
ĠÃł dÃ©
ĠÃł na
ĠÃł sÃ¬
ĠÃł bÃ¨
ĠÃł dÃº
ĠÃł fin
ĠÃł gÃ¹n
ĠÃł mÃ³
ĠÃł kÃ©
ĠÃł rÃł
ĠÃł jÃ©
ĠÃł pÃł
ĠÃł táº¹nu
ĠÃł á¹£etÃ¡n
ĠÃł piláº¹
ïĢ£ :
ïĢ£ âĢĿ
an Ã¡
an Ã¬
an go
un gbun
un ciation
Ġb Ã¬n
Ġb orn
Ġb lues
ti ro
ti wa
ti st
ti ne
ti uri
ti matiiki
áº ģ
Ġm un
Ġm ang
Ġm unadoko
áº¹ kan
áº¹ gbáº¹
wo po
wo bo
wo san
Ġti lÃ©
ĠÃ¬ rÃŃ
ĠÃ¬ re
ĠÃ¬ dÃ¨
ĠÃ¬ láº¹
ĠÃ¬ wÃ³
ĠÃ¬ pÃ²
ĠÃ¬ yi
ĠÃ¬ kÃ¬
ĠÃ¬ jáº¹
ĠÃ¬ gbÃ²
ĠÃ¬ tÃ²
ĠÃ¬ yo
ĠÃ¬ ráº¹
ĠÃ¬ dá»į
ĠÃ¬ kÃ¡
ĠÃ¬ yáº¹
ĠÃ¬ kÃºn
ĠÃ¬ gbáº¹
ĠÃ¬ yá»į
ĠÃ¬ káº¹
ĠÃ¬ jÃ³kÃ²Ã³
ĠÃ¬ pilÃ¨
ĠÃ¬ tÃºmÃ²
ĠÃ¬ rÃŃsÃŃ
ĠÃ¬ bÃ¹gbÃ©
ri ch
ri th
ri ght
ri dae
Ã¹ tÃº
ĠnÃŃ gba
ĠnÃŃ ye
ĠnÃŃ nÃŃ
ĠnÃŃ yÃł
ĠnÃŃ nÃ¹
Ġf Ã¡Ãł
Ġf ÃłÃ¡
Ġf os
Ġf aran
Ġj Ã¹n
Ġj or
ÌĢ ÌĢ
ĠtÃŃ s
ĠtÃŃ ta
ĠtÃŃ tÃ³bi
Ġy Ã¬n
ra s
ra ti
ra mi
ra di
ra ck
Ìģ âĢĿ
Ġd ani
Ġd anu
Ġd ÃłnÃ¹
Ġgb Ãłn
Ġgb Ã¡n
Ġgb eru
Ġgb ungbun
rÃŃ á»į
rÃŃ jo
rÃŃ kÃ¬
rÃŃ yÃłnjiyÃłn
rÃŃ lÃŃá»į
in Ã¡
in te
in de
in sula
in col
Ġe ma
Ġe jÃ³
Ġe gÃºn
Ġe gbon
Ġe su
Ġe fo
Ġe keji
Ġe á¹£iná¹£in
Ġe yon
Ġe wÃ¹rÃł
Ġe mper
Ãºn bÃ¡
le m
le mo
le ke
le yin
le ft
ĠA N
ĠA i
ĠA lÃ©
ĠA á¹£
ĠA ya
ĠA na
ĠA mÃ²
ĠA ga
ĠA dÃ¬
ĠA gÃŃ
ĠA zi
ĠA ction
ĠA á¹£á»į
ĠA nam
ĠÃ³ n
ĠÃ³ Ã³
ĠÃ³ sÃ¬
ĠO L
ĠO b
ĠO o
ĠO s
ĠO re
ĠO gbo
ĠO gbÃ³
ĠO ru
ĠO san
ĠO tun
ĠO ly
ĠO gÃ³
ĠO kere
ĠO scar
ĠO hio
ĠÃ¨ s
ĠÃ¨ gbo
ĠÃ¨ nÃ¬
ĠÃ¨ we
ĠÃ¨ yÃ¬
ĠÃ¨ gÃº
ĠÃ² rÃŃ
ĠÃ² ko
ĠÃ² ro
ĠÃ² run
ĠÃ² lÃ¹
ĠÃ² rÃ¹n
ĠÃ² gi
ĠÃ² gÃºn
ĠÃ² Ã²rÃ¹n
ĠÃ² gÃ³
ĠÃ² tÃ©
ĠÃ² rÃºnmÃ¬lÃł
re le
re de
re di
re st
re ctor
on o
on ai
Ãłn i
ko m
ko t
ko la
ko hun
ko du
ĠsÃŃ sÃ©
ĠsÃŃ sá»į
ĠsÃŃ stáº¹
ba go
ba vi
ba sepo
ÅĦ gbÃ©
ÅĦ dÃł
lo ju
lo gun
lo hun
lo so
lo run
lo pin
lo ver
Ġje wo
Ġje di
Ġje pe
de a
de my
ĠÅĦ á¹£e
ĠÅĦ mÃº
se a
se e
se f
se p
se ve
Ġlo r
Ġlo rÃŃ
Ġlo ko
Ġlo kan
Ġlo jÃº
Ġlo wa
Ġlo be
Ġlo ke
Ġlo pin
Ġlo jumo
Ġr Ãºn
Ġr oo
bi si
bi ki
mo go
mo yÃł
mo sho
ĠI I
ĠI ka
ĠI rÃº
ĠI bo
ĠI tu
ĠI kÃº
ĠI wu
ĠI joko
ĠI hi
ĠI II
rin o
rin rin
rin dÃ²
rin ce
á»įn a
Ġfi d
Ġfi g
Ġfi t
Ġfi eld
Ġto ka
Ġto po
Ġto pe
Ġto duro
Ġto unje
lÃ© gbÃ©
lÃ© gÃ¹n
lÃ© lÃ¡ÃłÃ¡
Ġsi s
Ġsi t
Ġsi lÃ¨
Ġsi po
Ġsi sa
Ġsi táº¹
kan jÃº
or y
or re
or gi
si lo
si pa
si mi
si ati
ĠlÃ¡ gbo
ĠlÃ¡ kÃ²Ã³
ĠlÃ¡ rinrin
Ġkan ga
pa rÃŃ
pa se
pa láº¹
pa rapo
jo po
âĢ ²
lÃº u
lÃº bi
lÃº wÃł
lÃº dÃ¹n
Ġwa le
Ġla wo
Ġla pa
Ġla tÃŃ
Ġla ruge
la te
la ba
la rin
la mi
la bÃŃ
la ya
la ry
la ksi
Ġwo kÃ²
to la
to ck
to wuwo
ĠlÃ³ jo
ĠlÃ³ dÃ²
ĠlÃ³ mÃº
ĠlÃ³ Ã²Ã³tÃ³
gba ti
gba ja
gbÃł lÃł
gbÃł gbá»į
ro u
ro v
ro w
ro lina
Ġse ba
Ġse gbe
Ġse tan
Ġse goye
lu s
lu v
lu en
ye dÃ¨
ye má»į
ye wu
ĠtÃ³ jÃ¹
Ġg Ã¡
Ġg Ã²
Ġg Ã¡n
Ġg ran
Ġg ede
Ġg Ã³mÃ¬nÃł
Ġg ÃłÃłrÃł
ka l
ka ta
Ġá»į ra
Ġá»į wÃ¡
Ġá»į rÃ¹n
Ġá»į fun
Ġko ba
Ġko so
Ġko riko
Ġ19 00
ni bi
ni ya
ni gbati
ÃĢ bÃ¡
ÃĢ wÃ²
ÃĢ rÃ¹n
ÃĢ jÃ¨jÃ¬
Ġbi llion
Ġbi ology
lÃ¡ jo
lÃ¡ wá»į
lÃ¡ á¹£adÃ©
nu wÃ²
nu bÃł
nu cle
rÃ² Ã³
rÃ² ko
rÃ² rÃ²
lÃ³ rÃ²
lÃ³ jÃº
lÃ³ rÃ¹n
er Ã¨
er sian
ĠbÃŃ ÃŃ
ĠbÃŃ má»į
ĠbÃŃ bo
Ġso ra
Ġso to
Ġso mi
Ġso pin
Ġso sialisti
gbo gi
ta ri
ta ko
ta ma
ta gonu
mi t
yÃŃ po
da jo
da rd
di i
di gbo
di boyan
Ġpe a
ĠN ri
ĠN as
ĠN ama
ĠN ami
ĠN SA
ĠN elson
ĠN neka
po lo
ĠÃĮ dÃ¨
ĠÃĮ bÃ¡
ĠÃĮ gbÃ³
ĠÃĮ kÃ²
ĠÃĮ be
ĠÃĮ rÃ³
ĠÃĮ kÃ¬
ĠÃĮ rÃ¡
ĠÃĮ lá»į
ĠÃĮ fÃ©
ĠÃĮ sÃ²
ĠÃĮ tumÃ²
ĠÃĮ wÃ¡dÃ¬ÃŃ
ĠÃĮ kÃ²yÃŃ
ĠÃĮ pÃ¨sÃ¨
ju le
hun ma
ĠkÃ² Ã²
ĠkÃ² sÃ¹n
ĠkÃ² mpÃºtÃł
ĠkÃ² Ã²kan
Ġmo ra
ĠB Ã²
ĠB aa
ĠB ona
ĠB ruce
ĠS un
ĠS on
ĠS Ã¡n
ĠS al
ĠS ho
ĠS ur
ĠS hin
ĠS im
ĠS ul
ĠS unda
ĠS pani
ĠS TS
ĠS lovenia
ĠS ADR
ĠS lovakia
ĠS kot
kÃ³ Ã³
kÃ³ kÃ²
Ġdi áº¹
Ġdi lÃ¨
Ġdi pe
Ġdi din
Ġdi boyan
Ġdi dda
ĠM aa
ĠM ai
ĠM ary
ĠM ÃŃlÃŃÃ²
ĠÃĴ ye
ĠÃĴ we
ĠÃĴ pÃ³
ĠÃĴ dÃ¹du
ĠÃĴ gbÃłgÃ¬
ĠÃĴ gÃ¨
ĠÃĴ furufÃº
ĠÃĴ gÃ¬rÃ¬
ĠÃĴ gÃ²gÃ³
Ġba Ãł
Ġba kan
Ġba láº¹
Ġba so
Ġba Ã¡lÃ¨
Ġba seball
ĠrÃ¨ Ã©
ĠE ti
ĠE ba
ĠE rin
ĠE gbo
ĠE so
ĠE nÃŃ
ĠE gbÃ©
ĠE ya
ĠE uba
ĠE uro
ĠE kiti
ĠE thi
ĠE tho
ĠE rn
ĠE dison
ĠE fklidi
bÃŃ ye
ĠwÃł rÃł
Ġre lÃ©
Ġre wa
Ġre ge
Ġre ali
Ġre kodu
ĠY a
ĠY ar
ĠY ÃłtÃ²
gbÃ³ jÃº
Ġpa se
Ġpa run
wa le
wa re
wa lu
wa da
ĠK Ã¨
ĠK Ãº
ĠK áº¹
ĠK ol
ĠK arun
ĠK olu
ĠK im
ĠK ong
ĠK hama
ĠK ordofanian
ĠK áº¹ta
ĠK wÃ¡rÃł
ĠK osta
ĠkÃŃ kÃł
ĠkÃŃ yÃ¨sÃŃ
ĠkÃŃ káº¹
Ġle a
Ġle won
Ġle ta
Ġle kun
Ġfun mi
Ġfun po
Ġfun wa
Ġfun lover
gbe de
gbe yin
ÃĮ yÃŃ
ÃĮ ya
ÃĮ ká»į
ÃĮ já»į
ÃĮ tan
ÃĮ dÃ³
ÃĮ sÃ¨
ÃĮ á¹£e
ÃĮ jÃ©lÃ¨
ÃĮ pÃłdÃ©
ÃĮ dÃłgbÃłsÃ³kÃ¨
ĠG Ã©
ĠG Ãº
ĠG re
ĠG or
ĠG aa
ĠG us
ĠG ban
ĠG ang
ĠG las
ĠG DP
ĠG bongan
ar Ã³
yÃłn jÃº
yÃłn dÃ¡
rÃº kÃº
pÃ² mÃ¹
ji d
so u
yÃ© de
yÃ© fÃ¬
nÃŃ s
nÃŃ jÃł
nÃŃ Ã¬mÃ¹
NÃŃ gbÃ¨
Ġmi má»į
Ġmi ss
ĠJ r
kÃ² wÃ²
nÃ¬ s
ĠYor ÃºbÃł
ĠYor ÃºbÃ¡
ki bi
ki ta
ki riaye
ĠD Ã¡
ĠD Ãł
ĠD áº¹
ĠD on
ĠD istrict
Ġori sa
Ġki risi
Ġki ÃŃnÃŃ
Ġjáº¹ risi
Ġjáº¹ notaipu
je mu
je bra
aa do
li ti
li ka
li fa
li fÃŃ
li pini
wÃ¡ ju
wÃ² ká»į
dÃ¡ Ã¬
dÃ¡ ni
dÃ¡ jÃ³
yi wa
Ġohun kohun
Ġá¹£ Ã²ro
Ġá¹£ oá¹£o
Ġáº¹ ri
Ġáº¹ já»į
ĠorÃŃ i
ĠorÃŃ mÃ³Ã²gÃ¹n
ede rer
ĠmÃ© Ã¨
ĠmÃ© rin
ĠmÃ© jo
me ra
me le
me bi
me si
me wa
Ġile e
Ġis an
ĠkÃ³ n
ĠkÃ³ ra
ĠkÃ³ hun
ĠkÃ³ wÃ³
ĠkÃ³ kÃ²
ĠkÃ³ go
ĠkÃ³ dÃł
ĠT ria
ĠT our
ĠT homas
ĠT ony
ĠT inÃº
ĠT rain
ĠtÃł gbÃł
ĠtÃł ku
ĠC un
ĠC la
ĠC al
ĠC as
ĠL K
ĠL en
ĠL or
ĠL is
ĠL ang
ĠL Ãģ
ĠL incol
bo y
bo ri
bo rÃŃ
bo dÃ¨
bo ard
ge s
ge ge
ĠrÃŃ nÃº
fi si
fi di
fi li
fi hÃłn
fi eld
sÃŃ i
sÃŃ Ã²
sÃŃ pa
sÃŃ rÃ©
Ġta tÃŃ
Ġta sere
Ġta yo
ĠÃĢ dÃ¡
ĠÃĢ kÃł
ĠÃĢ rÃł
ĠÃĢ sÃł
ĠÃĢ gÃ³
ĠÃĢ sÃ¬kÃ²
ĠÃĢ rÃ¡n
ĠÃĢ bÃ¹dÃ¡
dÃºn rÃºn
us s
us un
gbÃ© nlÃ©
ya wo
ya ra
ke s
ke yi
ke yin
ĠilÃ© sÃł
Ãłt Ãºn
ÃĪ te
ÃĪ ro
ÃĪ ka
ÃĪ kÃ³
ÃĪ nÃ¬yÃłn
ÃĪ kÃŃnÃŃ
ÃĪ Ã¨yÃłn
ĠtÃºn ÃºnbÃ¡
tÃłn Ã¬
ká»į ká»į
yÃ¬n wÃ¡
yÃ¬n bÃ²
ÃĴ s
ÃĴ yÃ¨
ÃĴ rÃ¬
ÃĴ gÃºn
ÃĴ rÃ¬s
rÃ³ gbÃ³
ĠF Ãºn
ĠF ar
ĠF om
ĠF ul
ĠF ree
ĠF lori
ĠF á»įlÃ¡á¹£adÃ©
ĠF ried
rÃ¬ wÃ²
ïĢı ïĢı
du wa
du gu
mu si
mu yiwa
Ġda hun
kÃ¨ Ã©
kÃ¨ rindÃ²
ĠgbÃ³ gÃ¬
Ġorile ijoba
ĠP lan
ĠP al
ĠP hi
ĠP as
ĠP roto
ĠP resident
á»Į rá»į
á»Į gbá»į
á»Į bÃłlÃ¹fá»į
kun bÃ²
ĠÃ¬s Ã©
ĠÃ¬s áº¹
ĠÃ¬s Ãºn
ĠÃ¬s oro
ĠÃ¬s aÃ¡jÃº
ĠlÃ© Ã¨rÃ¨
tÃ³ lÃ¬
ma h
ma to
ma ic
Ġolo kan
Ġolo fin
Ġwá»į lÃ©
ĠdÃ¡ lÃ©
ĠdÃ¡ bÃłÃ¡
ber to
Ġibi tÃŃ
Ġibi kÃŃbi
ga e
ga zine
pá»į lá»įpá»į
sÃ¬ yÃŃ
Ġomo dÃ©
Ġomo binrin
nÃł gbÃ©
is ka
is ter
go w
go go
go rith
Ġh o
ĠmÃº ra
bu lu
dÃŃ je
dÃŃ dÃ¡
Ġke jo
Ġke wa
Ġke ke
ĠÃ¬gbÃł gbÃ©
tu ka
kÃł rÃ¨
kÃł wÃ©
jÃ¨ ji
ja do
ja ra
ja yÃ©
ja gan
yÃł mÃ¨
ĠH on
ĠH is
ĠH um
ĠH omo
ĠH it
ĠH usse
ĠH all
ĠH IV
ĠR as
ĠR ale
gbÃ² Ã²
Ġbo dÃ¨
Ġbo ju
Ġbo tile
Ġbo seye
ĠalÃ¡ mÃ²
ĠalÃ¡ ga
ĠalÃ¡ fe
ĠalÃ¡ fo
ĠalÃ¡ Ã¬sÃłn
ĠalÃ¡ Ã¬nÃŃ
ĠalÃ¡ takÃ²
ĠalÃ¡ sÃŃn
ĠalÃ¡ ÃŃsÃłn
Ġbe be
Ġbe yen
ïĢ§ ,
bÃł bÃ¡
Ġme san
rÃ¡ lÃŃÃł
ĠdÃ© lÃ¨
ĠdÃ© láº¹
ĠdÃ© Ã¨tÃ¬
ch o
ch ar
ch ele
ĠkÃº rÃº
ĠkÃº rÃ³
jÃŃ ire
hÃ¹n Ãºn
ku ko
ku lÃ¨
ku luku
já»į luni
jÃł gan
ĠwÃ² ye
Ġun i
Ġun ko
Ġun so
Ġun jade
ĠolÃ³ s
ĠolÃ³ rin
ĠolÃ³ run
th s
th wai
fa siki
áº¸ ran
áº¸ ká»į
mÃŃ lÃ©
Ġma fi
ai re
Ġte ju
Ġte siwaju
Ġte riba
tan g
ĠnÃŃpa sÃ¨
Ġ18 17
Ġ18 43
Ġ18 28
Ġako pa
Ġako wa
Ġako tan
Ġako onu
Ġako ole
Ġako rajo
ĠW an
ĠW on
ĠW es
ĠW ald
Ġala pa
Ġala ja
Ġala ini
Ġala aye
Ġala isan
ce d
ĠonÃŃ kÃ³
ĠonÃŃ tÃ¨
ĠonÃŃ kÃ²kÃ³
Ġri ro
Ġri bavi
bin a
bin son
ĠIlÃ© kÃ©
Ġfa mi
om in
am b
dÃ³ nÃŃÃł
ĠlÃ³rÃŃ s
ĠlÃ³rÃŃ láº¹
wá»į ra
Ġá»Į á»į
Ġá»Į dÃºn
Ġá»Į já»į
ĠnÃ¬ pa
ĠnÃ¬ yi
Ġoni po
Ġoni yo
Ġoni siro
Ġoni gbowo
ĠyÃŃ kÃ¡
sa u
sa me
san d
gbon gbo
mÃ³ n
ĠÃĪ sÃ¹
ĠÃĪ LÃĴ
orun tomoru
oo o
oni ca
fÃ¨ rÃŃ
ĠdÃŃ de
ĠdÃŃ jÃº
ĠdÃŃ je
ĠdÃŃ fÃ¡
ĠMa ra
ĠMa ke
ĠMa ssa
Ġise mi
Ġise ku
Ġise ele
rÃł pÃ¡
rÃł kÃ²yÃŃ
Ġna wÃ³
kÃŃ Ã¡
Ġgbe gbe
ráº¹ ráº¹
Ġáº¸ dÃ³
Ġáº¸ gbáº¹
Ġwi won
Ġwi th
ani da
al ley
Ġagba yo
ĠojÃº se
ĠojÃº lÃ¹
ĠojÃº tÃ¹Ãº
ĠojÃº ÃłmÃ¬
ĠojÃº Ã¹tÃº
Ġka kiriaye
yÃ¡ ra
st en
st ra
st le
wÃ¹ já»į
ĠlÃ¡Ãł rÃ¬n
ĠAf o
ĠAf ghan
ĠNo lly
tun ji
ĠÃ© jÃ¬
ĠmÃ©jÃ¬ dÃŃnlÃ³
ĠkÃ© ta
ĠkÃ© kÃ©
ĠkÃ© tÃ©
Ġeyi keyi
ĠNi j
ĠbÃł bÃł
tÃł dÃŃnlÃ³
ĠÃłkÃ³ rÃłn
ĠÃłkÃ³ tÃ¡n
ĠÃłkÃ³ já»įpá»į
ĠÃłkÃ³ Ã³nÃº
kÃłn dÃŃnlÃ³
kÃłn gÃ¡
kÃłn lÃ©lÃ³
kÃłn lÃ©lÃ³gÃºn
kÃłn balÃ¨
fo kan
fo sforu
19 21
19 63
ĠdÃº kÃ¬
ĠtÃ¨ lÃ¨
ha t
ha ji
ha mu
ha ha
Ġolu s
Ġolu jidide
Ġolu sodipupo
Ġolu tuwo
Ġolu daniloro
Ġolu kuluku
jÃ² fi
Ġnipa se
pi ter
ĠU n
ĠU bangi
ĠU pper
ĠU sman
Ġpo liti
mÃº Ã¹
mÃº láº¹
mÃº rÃºdu
he ad
he ed
Ġiye bÃŃye
ĠIn d
ĠBa y
ĠBa wo
ĠBa in
ĠBa th
ĠBa sse
ĠBa ptist
kin s
kin ni
kÃ¡ rÃł
kÃ¡ rÃŃá»į
sÃ¹ pÃ¡
ĠKe wa
ĠKe je
ĠKe fa
ĠmÃŃ mÃº
ĠlÃ² pÃ²
ĠOlÃ³ gun
ĠOlÃ³ bÃŃmitÃ¡n
NÃŃgbÃł tÃŃ
pÃ¨ re
pÃ¨ lÃ©
Ġ3 4
ĠfÃŃ fáº¹
Ġja gidi
fu r
ĠsÃ¡ jÃº
ĠsÃ¡ bÃ©
ĠsÃ¡ fáº¹
Ġapa r
Ġapa ta
Ġapa pá»į
Ġapa ariwa
ve s
ve re
ve ment
Ġsa ra
Ġsa le
Ġsa ko
Ġsa ka
Ġsa fihan
Ġsa mojuto
-- <|
LÃ¡ sÃ¬kÃ²
LÃ¡ tÃłrÃŃ
lÃŃ le
lÃŃ var
Ġye ke
Ġye ars
ĠolÃ¹ sÃ¬n
ĠolÃ¹ rÃłnlÃ³
ĠAlÃ¡ dÃ©
ĠAlÃ¡ keji
ĠAlÃ¡ kÃ³so
ĠAlÃ¡ kÃ¹nrÃ©
ĠAlÃ¡ dÃ¬ye
es burg
OrÃŃ á¹£irÃŃá¹£i
Ġra a
Ġra di
ter tain
Ġgbo yÃ¨
Ġagbe ro
Ġagbe bon
Ġidi mule
ĠÃ¬yÃŃ dÃł
ĠirÃº fáº¹
jÃ¡ dÃ²
vi ch
vi eve
Ġinu arin
Ġinu atomu
ho e
Ġ17 8
Ġ17 69
Ġsu bÃº
ĠkÃ¡ sÃ¨
ĠpÃł pÃł
ĠpÃł rÃłkÃ²yÃŃ
Ġyo ku
ĠsÃ© ÅĦtÃºrÃ¬
ĠÃłs Ã¡lÃł
rÃ¡n yÃłn
Ġele re
Ġele bun
Ġele yameya
ĠTo pe
ĠTo me
ĠTo wer
ĠTo bago
Ġnkan kan
Ġas Ã²n
ĠsÃ³ n
ĠsÃ³ fo
ĠOlÃº gbÃ²
ĠOlÃº kÃłrÃ©
ĠÃłÃł ye
ĠÃłÃł yÃ²
Ġoju ami
Ġida ri
Ġegbe egberun
ust on
Ġro jÃ³
rÃ¬n lÃ¡
Ba Ã¡lÃ¨
ĠMo vement
ĠdÃł Ãł
ĠdÃł rÃº
ĠAla fia
ĠÃ¬pÃŃn sÃŃ
Ġlowo ro
ĠKa z
ĠKa th
ĠelÃ© wÃ²n
gu y
gu da
ĠdÃ³ rÃŃ
ĠÃĴkÃ¨ Ã¨
ĠV a
ĠV an
ĠV in
ĠV er
ĠV ene
ĠV II
ĠV illa
ĠV enus
ĠV alley
mar u
mar an
Ġiru fáº¹
ris un
ris Ã¬ÃŃ
co b
Ġan fani
ĠDi rector
ĠbÃ³ jÃº
LÃ© yÃ¬n
LÃ© hÃ¬n
tÃ¡ fo
ĠtÃº bá»į
Ġaya mu
ci an
ci ali
din e
Ġipa run
hÃ¬n rere
ĠlÃł wo
Ġigbe rin
ĠÃłpÃ³ nlÃ©
ĠOgun de
Ġ16 55
ĠMar ku
ĠMar sh
ĠMar tin
ĠMar garet
ere s
sun mo
sun kan
táº¹ láº¹
ĠÃ¬wÃ² n
Ġ4 2
Ġ4 5
Ġ4 6
dÃ¡ra yÃ¡
ĠÃ¬bÃ¡ wÃŃ
Ġlarin gotraki
Ġfo re
Ġfo dio
ne se
ĠÃ¬wÃł Ã¡sÃ¹
Ġgbi gbo
Ġgbi gbá»įn
Ġ5 1
Ġ5 4
Ġ5 6
Ġ5 8
Ġ5 9
Ġ5 00
Ġyan ju
Ġyan rÃ¬n
Ġyan turu
ĠgÃŃ gÃºn
ĠSe gun
man n
Ġdara pÃ²
ĠRe public
Ġtan nÃ¡
ĠÃłÃ¡ rin
kÃ¬tÃ¬ pupa
Ġ9 5
Ġ9 7
ĠIs le
ĠBo is
ĠBo lÃŃvar
ron Ãº
ron unciation
ĠÃłfi wÃ©
ĠAn d
ĠAn ge
Ġ10 1
ĠLÃ¡ tÃ¬n
ĠLÃ¡ mÃºrÃºdu
mÃ© nÃŃÃł
ĠSa o
olo gun
olo hun
olo ji
Ġdo ju
Ġodo mo
Ġodo dun
Ġodo odun
ĠibÃ¹ sá»į
ĠmÃ©jÃ¨ Ã¨
ĠmÃ©jÃ¨ ejÃ¬
ĠmÃ©jÃ¨ Ã©ji
ĠbÃ² kun
Ġran se
hin de
mÃł le
Ġabo ri
Ġabo ki
ĠnÃŃbi tÃŃ
Ġ191 6
ĠÃºn sÃ¡
Ġimo jÃ¬
ĠÃ¬bÃŃ láº¹
lowo ro
ĠLa do
ĠLa wal
ger s
ger boy
Ġon mo
Ġase yo
Ġase oro
Ġin f
ĠkÃ¹ tÃ¹
Ġyoo ba
Ġyoo ku
ĠOrile ominira
ĠBen gal
ĠMi d
ĠMi chel
Ġfara mÃ³
Ġfara hÃłn
Ġsun wÃ²
Ġitan ran
ĠÃ¬gbÃ© yÃłwÃ³
ĠJo e
hÃ¡ mÃł
Ġiwa si
Ġji ja
Ġji jin
Ġji já»įwá»į
Ġai ba
Ġada ri
Ġada rÃŃ
Ġada gun
Ġada baye
ĠRo me
ĠRo usse
ĠRo boto
ĠRo binson
Ġaso yipo
ĠlÃŃ lo
ĠÃ¬dÃ¡ lÃ¨
ĠÃ¬dÃ¡ jÃ³
ĠÃ¬dÃ¡ dÃºrÃ³
ĠdÃ¬ Ã¨
Le yi
Le hin
Ma ri
Ma jid
Ġ12 7
ĠrÃ¡n á¹£áº¹
ĠJa gin
ĠnÃ¡ wÃ³
Ġife si
ĠÃłÃ¬ gbÃł
ĠÃłÃ¬ má»į
ĠÃłÃ¬ yedÃ¨
ĠÃłwÃ² rÃ²
tic s
tic al
ĠFran co
ĠUni fasiti
ĠUni code
Jo an
Jo wo
et te
mÃ¡ Ã¬kÃ¬
mÃ¡ wÃ²rÃ¡n
Ġ7 0
Ġ7 1
ĠgbÃ¡ mÃº
ĠNe vis
ĠNe pal
Ġáº¹ni káº¹
ĠkÃł Ãł
ĠkÃł wÃ©
ĠGe ology
ĠCa y
ĠlÃ¡ÃłÃ¡ nÃº
yÃ² dÃ©
Ġkáº¹ rin
ril lic
ril liki
ĠÃ¨rÃ² ngbÃł
ĠtÃ² nÃŃ
ĠÃ¨Ã¨ wÃ²
ĠÃ¨Ã¨ rÃ¹n
ÃŃs tÃ¬
ĠCh ina
ĠCh ristoph
ĠPa la
ĠPa ul
Ġmeta li
den ce
den tal
ĠAr ts
ĠAr my
ĠAr Ã¡ÃłlÃº
ĠAr mÃ©nÃŃÃł
Ġpara mita
ĠGu i
ĠTa ino
ĠPo li
OrÃŃs Ã¬ÃŃrÃŃsÃ¬ÃŃ
ele ment
for m
páº¹ ráº¹
ĠjÃ³ nÃ¡
ĠLi b
ĠLi mited
yÃ¬ i
Ã¬yÃłn jÃº
ĠAra biki
ĠAra maic
Ġonimo ye
199 6
Su lfuru
pte ra
Ġ0 3
Ġ0 5
Ġlu le
Ġee e
ĠAust rÃ¡lÃŃÃł
ĠOlu segun
ksi ko
olu tion
Ġiko pa
Yor uba
Ġoo kan
ĠÃ¬rÃ² nÃº
ĠpÃŃ nÃº
Ġá»įgá»į rÃ¹n
ĠBÃ¡ kÃłrÃ¨
ĠMe sopo
ĠMe ksiko
ĠmÃ¡rÃ¹n dÃŃnlÃ³
Omo de
OlÃ³ de
OlÃ³ yÃ¨
per text
ĠMu ir
ĠDa da
ĠDa yo
ĠDa vis
Ġ188 2
Ġ188 5
Ġ188 6
Ġ188 9
ssi cal
ĠakÃ© kÃ²Ã³
ĠÃłtÃºn se
ĠÃ¬dÃł kejÃ¬
Ġyáº¹ n
ul tural
ĠBan k
ĠKo kanla
sti ng
ano so
ĠÃ¬gb Ã¬
ĠÃ¬gb Ã¬yÃłnjÃº
Ġkere julo
ĠRi ka
Ġ189 2
Ġ189 3
Ġ189 4
La wrence
wÃ¨ Ã©
Ġite mo
Ġiji dide
Ġiji roro
Ġiso wo
á¹¢ iá¹£ayáº¹wo
LÃ³ de
Ġipin pa
Ġipin ya
Ġmarun dinlogun
ola ju
sÃ¡ ra
Ġimu se
ĠTi g
198 0
198 9
ad anida
ĠoÃºn jáº¹
ĠgbÃ² rÃ²
ĠApa guusu
ĠApa ariwa
ĠSu ku
ĠKi risti
Nitori e
Ġen Ã¬yÃłn
ĠtÃ¡ lÃ¡
Ġthe ir
Ġija mba
ĠÃłmÃº ye
ĠbÃº ra
Ġpro toni
Ġdu pe
ĠgbÃŃ gbÃł
ĠgbÃŃ gbÃ³nÃ¡
ĠgbÃ¨ rÃ²
ĠgbÃ¨ yÃ¬n
ĠgbÃ¨ jÃł
Ġesin sin
ĠBu d
ĠSan ni
Awo ran
Lo ri
gÃł jÃŃ
hÃºn rÃ¬nwÃ¡
Ì£ Ìģ
Ġaá¹£ Ã¡Ã¡jÃº
Ġaá¹£ odi
Ġaá¹£ Ã¨bÃ©Ã¨rÃ¨
Ġfá»į lÃ¡á¹£adÃ©
Ġdun dun
Ġejo wo
ĠSt ra
lic an
lic in
ĠWe imar
kÃŃkan jÃº
An na
An ne
ze d
zi a
ent le
Ġiá¹£ a
Ġeyo kan
Ġ190 5
Ġ190 8
ĠGi o
ĠGi riki
Ġorisi i
ĠThe odo
ĠThe Sly
Ġ187 1
ĠNew ton
ĠNew spa
Ġal Ã¡Ãł
Ġal pha
Ġal kali
Ġal jebra
Ġamo hunma
Ġike ko
Ġike fa
ĠÃłbÃ¹ rÃ²
tin ni
tin tinni
ĠOlÃ¹ gbÃ©
ĠBÃŃ Ã²bÃ¡
ĠLon donu
ther n
ĠdÃŃdÃ¡ má»į
ren ch
Ġnse le
Ġadu lawo
Ġayo ri
pilÃ¨ sÃ¨
Baba lawo
16 7
ut en
ut ch
ut ron
Ç¹ kÃłn
Ġam unis
ĠsÃł rÃ³
Ġitu sile
Ġitu jade
Ġibáº¹ ráº¹
ĠÃłdÃ¡ bÃ¡
ĠÃłdÃ¡ mÃ²
ĠÃ¬yÃł wo
ĠÃ¬yÃł lÃ©
ĠAd rian
ĠIf Ã³n
ĠHe i
ĠHe patitis
ĠHe beru
ĠtÃ¨tÃ¨ dÃ©
ore s
Ġado di
Ġtin rin
ĠIwo san
ĠBi ya
ĠpapÃ² dÃł
Ġgegebi i
ester s
In ter
In fact
Olu ko
Sa muel
Sa mogo
iki pedia
stan tine
Ġogo ji
Ġaro ko
ĠakÃŃkan ju
Ġiyi po
ĠÃ¬so mÃ³
Ġge ere
ĠCo le
ĠCo unty
tho lic
tho rity
ĠVi ctoria
ĠLÃ¡rÃºbÃ¡ Ã¡wÃ¡
Ja ck
Ja mes
ĠÃłlÃł fo
ĠÃ¬rÃłn lá»į
ĠfÃ¡ wÃ©
ĠAt ta
ĠShe hu
ĠShe ik
197 5
197 8
197 9
ĠmÃŃlÃŃÃ² nÃ¹
gua y
Ġpipe julo
Mi ke
Mi chael
OlÃº bÃ¡kin
kle u
ĠsÃº re
ĠdÃŃn kÃ¹
ÃĢkÃ³ jo
Ġlee kan
Ġagbala aye
Ġolugbe wo
GB Ãĵ
lin es
ĠQu in
entu ri
Ġido pin
Ġiro jinle
ĠÃłse yo
ĠÃ¬fo wo
ĠÃ¬fo wÃ³pamÃ³
ĠyÃ¬ Ã³
ĠfÃºnra ráº¹
Ġisáº¹ láº¹
ĠChi le
Ġkemi stri
AP IS
Ch arles
UN O
UN ESCO
sy nth
Ġv ol
Ġaje mÃ³
Ġaje monu
ser t
ÃĴkÃ¨ nÃŃsÃł
ĠFÃ¡ wo
ĠFÃ¡ wá»įlÃ©
ĠRa in
ĠRa ba
Ġoluda ri
Ġoluda joba
Ġoluda sile
12 9
OnÃŃ s
lÃ¡Ãł yÃ¨
Ġoru ka
Ġigb in
ĠÃłdÃł lÃº
ĠÃ¬á¹£e dá»į
ĠÃ¬wÃº rÃŃ
ĠAmÃ© rÃŃkÃł
ĠÃ¨Ã© mÃŃ
ĠÃ¨Ã© kÃ¡nnÃ¡
ĠÃ²jÃ² wÃº
Ġseda sile
ĠEle duwa
ĠKan t
ĠGri isi
ĠGri mes
ĠRÃ³ sÃŃÃł
Ġcom po
Ġcom muni
Ġ--------- --<|
ĠX V
Ġar rest
Ġifo loke
ĠÃ¬pÃ¨ sÃ¨
ĠÃ²gb ÃºfÃ²
onÃŃ tÃłn
ĠIpa rapo
gberin gberin
ĠTur ner
ĠTrini ty
ĠCon cer
ĠPro vince
mÃºn ÃŃstÃ¬
Ãļ N
à¤ ¾
Ġná¹£i á¹£e
Ġafo ju
Ġmon ths
Ġjin lÃ¨
ĠKu di
ĠKÃ¡ tÃ³lÃ¬
ĠLÃ© jÃ²fi
ĠPen insula
ĠPen tagonu
Ġ179 1
ĠNÃłÃŃ jÃŃrÃŃÃł
Na poleon
tre s
wan da
Ġade hun
Ġajo dun
Ġnito to
ĠÃłso ye
Ġgbon gbo
Ġgbon gan
ĠOjo gbon
ĠSpa ce
ĠSha gari
Ġisin mi
Ġisin ku
ĠPri de
ĠonÃŃgbÃł gbá»į
ĠUS D
Ame rica
Ame rican
Da vid
cy clo
eÃ© kÃł
ĠakÃ² wÃ©
Ġiwu wa
ĠÃ²wÃº rÃ²
Ġlodo odun
âĢ¦ .<|
ĠBal to
wadi i
Ġalako bere
cel lor
hel sea
LÃ¡Ã¬ pÃ©
hili p
Jan e
ita rist
ksÃŃ dÃ¬
ny luv
Ġne utron
Ġifara kan
Ġkoro koro
ĠÃłrÃ² gÃºn
Ġtita pa
ĠAbe okuta
ĠOlÃ¡ dÃŃ
ĠOwÃ³ dÃ©
ĠgÃ¹n gÃ¹n
ĠSÃł rÃ³
ĠSÃł lÃ³rÃ²
ĠMoro ko
ĠÃĴn dÃ³
ĠEni kan
Ġmili onu
Ġoriá¹£i risi
ĠTun de
ĠCha dic
ĠFi lipini
ĠFo undation
ĠPÃ³pÃ³ o
Ġunse le
Ġalagbara meji
ĠMala wi
stron omer
Ġgigun julo
Ed win
Lai pe
nan do
pri set
ĠÐ ľ
Ġaja ese
Ã¬dÃ¡ má»į
ĠÃ¬fÃ² rÃ²
ĠAba cha
ĠOk on
ĠOdÃ¹du Ãł
Ġfisi ksi
Ġgaa ri
Ġgaa ra
ĠNor way
ĠSte phen
ĠMc C
ĠGar den
kikan ju
Ġburu ku
ĠArm strong
ĠÃĴgbÃ³mÃ² sÃ³
Ġlegbegberun keji
;; ;;
Af rika
Ija la
Mu hammad
agbe yewo
eyi ti
Ã§ ois
Äģ n
á¸ ±
Ã¡lÃ¡ ksÃ¬
ĠagbÃ¡ te
Ġib usun
Ġipe se
Ġiká»į lu
Ġkro moso
ĠÃłlÃ¹ mÃ²
ĠbÃ¹ s
ĠAu thority
par te
kali tu
Ġpele be
ĠStan ley
ĠÃĴrÃ³ dÃ¹dÃ¹joyÃ¨
ĠJÃ¡ mÃ¡nÃ¬
ĠTÃ³ gÃ²
ĠCen ter
ĠCen tiuri
ĠChan cellor
ĠFu lani
ĠHol landi
Ġonis ona
Ġonise ero
LÃ¡kÃ²Ã³ kÃ³
ssss ssss
ĠZu ma
iiii iiii
Ġprote ini
Ġprote ÃŃnÃ¬
danilo ju
Ġimmun ob
AR A
Ab dul
Cla ssical
Don ald
mph ony
oÃ² run
ww w
Î± Î
Ð¾ Ð²
ĠogÃ³ je
Ġlan guage
ĠkÃŃn nÃŃ
ĠÃłyÃŃ kÃ¡
ĠÃłkÃ¡ mÃ³
ĠÃ¬jÃŃ mÃ¨rÃ¨
ĠÃ¬lá»į sÃŃwÃ¡jÃº
Ġfaa ji
ĠAmo baba
ĠAdÃº lÃ¡wÃ²
ĠIre landi
Ġbig gerboy
ĠÃĮkÃ¡ lÃ¨
ĠSÃ² Ãºn
ÃĮlÃ© dÃ¨
ĠLai beria
ÃĴpÃ² lopÃ²
ĠHel ena
ĠalÃ¡bÃłÃ¡ pÃłdÃ©
Nito rina
ĠWo yo
Ġgbese le
ĠlÃłÃł mi
ĠMusso lini
Ah med
Ban tu
Gene ral
JÃ² hÃ¡nÃ¹
Ne w
Vi ctor
lenu kleu
sco w
trÃ³ jÃ¬n
yaa fin
yne guy
Î½ Î
ĠtÃ²Ã³ tá»į
Ġow un
ĠorÃ³ ke
Ġap oro
gbÃŃ gbÃ³
Ġsyn drome
Ġstre p
ĠkÃ¹n Ãł
ĠÃłkÃł rÃł
ĠÃ¬b ÃłnÃº
ĠerÃ¹ pÃ¨
ĠAm pÃ¨re
ĠAgu iyi
ĠAbra hamu
ĠÃ²tÃ² sÃ¬
ĠIra gbeje
lÃ¡dÃł pÃ²
ĠÃĮjÃ¬n lÃ¨
ĠMin ister
ĠElÃ© tÃ²
ĠEku le
ĠYo be
ĠYun us
ĠJÃ© Ã©sÃ¹
ĠTai wan
ĠCru z
kÃ¨Ã¨ kÃ©Ã©
ĠPan yan
ĠHer bert
ĠHou se
ĠRÃŃ sÃł
ĠwÃŃwÃ¡ rÃŃ
ĠWil helm
Ġalaa fia
Ġalada wa
Ġoniru ru
ĠpÃłtÃł ki
fowo da
Ġjake jado
gÃŃdÃŃ jÃłgan
ĠAlb ania
ĠJohann esburg
dinlogo ji
ĠStre et
ĠBroad ca
Ġkarb oni
ĠTurki c
Ġifarako ra
BÃł yÃ¬ÃŃ
FÃŃ Ã¬mÃ¹
Kar l
Lon don
Lou is
RÃ² gbÃ²dÃ¬yÃłn
Shi rley
Wi wu
gÃ¨dÃ¨ n
lv ania
oko mooka
yw hy
Î¿ ÏĤ
á½ ¸
Ġoyi bo
Ġayáº¹ yáº¹
ĠamÃ¡ yÃ©de
Ã¬so pá»į
ĠÃłdÃ¹ gbÃ²
ĠÃ¬jÃ¬ yÃł
ĠÃ¬yan u
ĠÃ¬jÃ¨ sÃł
ĠÃ¬dÃ¹n nÃº
ĠegbÃ² gi
ĠApÃ¨ bÃŃ
ĠAristo tle
ĠOh Ãºmo
Ġtogun julo
ÃĢpÃ¨ jÃ¡
erc edes
ĠNye ri
ĠBor no
ĠBill board
ĠSÃŃ rÃŃÃł
ĠSara h
Ġbawon i
ĠEbi ra
ĠKÃł bbÃł
ĠKom unisti
ÃĮrÃ¨ lÃ¨
ĠorÃŃsi irÃŃsi
ĠCy rillic
ĠCent ral
ĠÃĢrÃ¡ pa
ĠFÃº lÃłnÃŃ
Ġhal te
ĠRÃ³Ã² mÃ¹
ĠRoo seve
ĠRos s
ĠalÃ¡gbÃ¡ dÃ¡
ĠalÃ¡dÃ¹ ÃºgbÃ²
ĠÃ¡lÃºfÃ¡ bÃ©
ĠWÃł dÃ¡Ã¬
ĠonÃŃá¹£e áº¹
ĠjÃ¡kÃ¨ jÃ¡dÃ²
ĠsalÃ¡ mÃ²
Ġmejidin la
ĠAntoni o
ĠlÃŃtÃŃrÃ© sÃ²
ĠÃ¬dÃ¡nilÃ© kÃ²Ã³
ĠÃģrÃ¡ mÃ¡Ã¬kÃ¬
ĠSoci ety
ĠBang ladesh
ĠKomo ro
Ġalujon nu
ĠKÃ¡bÃŃ Ã¨sÃŃ
ĠmÃ¹tÃº mÃ¹wÃł
Ð¸Ñ Ľ
ĠNÃ¡ÃŃ jÃŃrÃŃÃł
ĠÃĴgbÃ²rÃ² gÃ¡n
ĠÃĢtÃ¬lÃ¡ÅĦ tÃŃÃ¬kÃ¬
Ato mu
Dog on
GÃŃ rÃ¡mÃł
Zos so
hoo g
oas say
rne st
uris m
ĠnlÃ¡n lÃ¡
Ã©sin kin
Ġomin Ãº
Ġajumo lo
ÃºÅĦ jáº¹
Ġsti ll
Ġnigbo gbo
Ġnimá»į ran
ĠÃłdÃº gbÃ³
ĠÃłpÃł lÃł
ĠÃłtáº¹nu dáº¹
ĠbÃ¬n rin
ĠÃ¬rÃŃ jÃº
ĠÃ¬yi sÃ³dÃ¬
Ġfos foru
Ġfaran sÃ©
ĠgbÃ¡n gba
Ġeyon omba
Ġemper or
ĠAmÃ² ye
ĠAdÃ¬ kÃºta
ĠAzi kiwe
ĠAnam bra
ĠOgbo mosho
ĠOly mpiki
ĠÃ¨gÃº sÃŃ
ĠÃ²gi dÃ¬
ĠItu ra
ĠIjoko papo
lÃ©gÃ¹n Ãºn
ĠtÃ³jÃ¹ u
Ġgran uli
Ġgede gbe
ĠNami bia
ĠBona parte
ĠSunda y
Ġdidda sile
ĠÃĴgÃ¬rÃ¬ Ã¬yÃłndÃ¡
Ġbaso fili
ĠEthi opia
ĠErn st
ĠKolu mbia
ĠKong resi
ĠGang lani
ĠGlas gow
ĠTrain ing
ĠLÃģ K
ĠLincol n
ĠFom bina
ĠFlori da
gorith m
ĠHusse in
ĠRale igh
ĠalÃ¡sÃŃn pÃ²
já»įluni pa
thwai te
ĠWes ley
Ġribavi rin
ĠAfghan istan
ĠNolly wood
ĠBasse y
Ġjagidi jagan
ĠÃºnsÃ¡ bÃł
ĠRousse au
ĠJagin rÃ¬n
Ġaá¹£odi kokoro
Ġamohunma woran
ĠBÃŃÃ²bÃ¡ kÃº
ĠSheik h
ĠKÃ¡tÃ³lÃ¬ kÃ¬
Ġkromoso mu
Ġimmunob lot
Ð¾Ð² Ð¸ÑĽ
ĠÃ¬bÃłnÃº jÃ©
ĠRooseve lt
% ).<|
' ,
' m
) )
) .
+ +
, "
, ..<|
0 3
0 9
2 000
2 40
3 5
4 4
5 1
8 6
8 8
9 1
9 5
9 00
9 63
? âĢĿ<|
A m
A ri
A lo
A se
A gbÃł
A lu
A bÃ¡
A so
A kÃ²
A be
A bo
A rÃ³
A mÃ²
A tÃ³
A gbÃ¡
A bu
A jÃ¨
A wá»į
A fÃł
A aye
A mÃ©
A arin
A ll
A min
A koko
A iye
A tÃºmÃ²
A kiyesi
A pere
A Ã©rÃ©
A ssy
B A
B Ã¬
B ri
B us
B ere
B ang
B Ãģ
B enue
B ruce
B elle
B Ãºkan
C M
C N
C or
C uba
C han
C os
C olo
C ong
C ee
C ast
D A
D U
D an
D ani
D es
D ama
D et
D ad
E C
E L
E R
E W
E m
E lo
E lÃ¨
E bi
E yÃŃ
E ji
E so
E nÃŃ
E ru
E fi
E gbÃ©
E ma
E bun
E fun
E rÃ¹
E qu
E gy
E keji
E Ã©gÃºn
E rÃ©kÃ¹
E mmanuel
E hen
E von
E Ã©sinkin
F D
F an
F lo
F oni
F aye
F BS
F FC
F rien
F ederer
G a
G bi
G bÃł
G bÃ²
G ol
G ÃºsÃ¹
G erman
G len
G ree
G ab
G ram
G rade
G IO
G ÃļN
H T
H o
H an
H or
H CV
H UN
H ima
I B
I M
I re
I to
I ran
I rÃ¨
I bu
I fa
I yo
I oni
I yÃ¡
I ha
I á¹£e
I wÃ¡jÃº
I nÃ¡
I fÃ©
I tÃºn
I yen
I yÃ¡n
I royin
I tobi
I já»įba
I va
I bra
I tá»įju
I sis
I fÃ³
I wadi
I gE
I bÃ¹dÃ³
I HE
I moran
I ráº¹landi
I KI
I yaafin
J E
J i
J ÃŃ
J Ãł
J áº¸
J es
J ÃºpÃŃtÃ©rÃ¬
J amai
J onathan
K E
K W
K an
K Ã¡Ãł
K Ãĵ
K ur
K aye
K im
K Ã¬kÃ¬
K olombia
K hmer
K ant
L U
L Ã¨
L aa
L ojo
L aye
L arin
L ami
L Ãļ
L Ã²de
M áº¹
M Ã¡a
M as
M ir
M id
M ÃłlÃ¡
M PE
M aapu
M onica
M ercedes
N Ãł
N áº¹
N du
N omba
N nam
N elson
N neka
N naji
N TV
O C
O O
O s
O do
O gb
O se
O la
O ni
O lÃ¡
O gbo
O ki
O ya
O yo
O gÃºn
O gbon
O tun
O rÃ¬s
O sun
O ore
O sise
O gagun
O kowo
O AO
P C
P Ã©
P áº¹
P ar
P ara
P upo
P oto
P ortu
P DP
P RC
P hilip
R as
R ys
R uth
R Ã¡rÃ¡
S T
S Ã¡
S Ãł
S Ã¨
S er
S tan
S am
S al
S ere
S uni
S ak
S im
S ÃłngÃ³
S OL
S istemu
S ÃłlÃ¡
S tock
T e
T h
T un
T oni
T ani
T ano
T abi
U A
U bangi
U SA
U DA
V an
V olu
V enus
W e
W en
W an
W ÃĢ
W AS
W ikipedia
W NTV
Y O
Y ÃŃ
Y an
a ko
a ba
a se
a wa
a tu
a pÃ¡
a fin
a kÃŃ
a jÃ©
a táº¹
a sia
a koko
a dÃ¡a
a wari
a con
a tannÃ¡
a hia
a siko
a duma
a wy
a yÃ¡ra
b á»įn
b ro
b us
b we
b rÃł
b oro
b ha
b ana
b ene
b ral
b onu
b lish
b Ã³Ã²lÃ¹
b lock
c c
c l
c en
c ti
c ki
c ke
c ca
c ron
c ts
c ation
c anic
d g
d Ã¬n
d ha
d ly
d ana
d hi
d ina
d ral
d usa
d berg
e i
e u
e x
e y
e bi
e mo
e rin
e ya
e kun
e ma
e ga
e kÃ¹n
e gbon
e min
e kÃ³kÃ³
e fÃŃnnÃŃ
e Cee
f y
f ka
f fa
f sa
f oo
f ford
f onia
f ried
g s
g us
g oni
g oro
g ana
g Ã¨rÃ¨
g ne
g ry
g ÃºÃºsÃ¹
g ist
g ram
g gae
h h
h t
h Ã¹
h is
h lah
h nese
i do
i won
i rin
i er
i po
i fi
i ch
i fe
i dáº¹
i tÃºn
i pele
i gbona
i fowo
i keyin
i thwaite
j Ãłn
j aa
j ana
k h
k ko
k ro
k ta
k po
k pe
k us
k ongo
k Ã¶
k Äģn
l m
l un
l on
l la
l jáº¹
l mÃº
l ene
l ton
l baye
l hÃłÃ¡
m l
m p
m á»įn
m ne
m bá»į
m und
m unadoko
m aapu
n d
n rin
n Ã¹n
n kan
n da
n hun
n jÃº
n ar
n bo
n ya
n ma
n dÃł
n tá»į
n nÃ¡
n el
n táº¹
n sÃ¡
n fÃ¨rÃŃ
o un
o lÃº
o pe
o tÃ³
o pin
o fa
o fin
o sa
o su
o sÃł
o sÃ¹
o furufu
o yinbo
o apa
o bitu
p p
p Ã
p lo
p ta
p eni
p ho
p ona
p rah
p resident
p burn
p ras
r te
r Ã¹bÃ¡
r Ã³Ã²
r gÃŃ
r sirÃŃsi
r mÃ¡n
r bÃŃÃł
s or
s ta
s po
s wa
s ch
s orun
s qu
s fÃ³
t d
t ko
t Ã¹n
t Ã³Ã²
t ona
t ts
t ry
t lam
u i
u wo
u le
u re
u de
u rin
u kan
u bÃ¡
u mu
u kun
u bÃł
u ble
u xi
u chi
u ania
u kar
u res
u cli
u lation
v u
v ati
v ine
v ing
v ard
v entu
v olution
w Ã¬ÃŃ
w ani
x re
y m
y u
y re
y Ã¹n
y Ãłtá»į
z ra
z ona
z ler
z ard
z ambi
z burg
z enga
± n
± Ø
² à¸
¹ n
¹ ÏĤ
» Î±Î
¾ Î
Â º
Ã ¤
Ã ª
Ã ½
Ã ĺ
Ä į
É ¾
É Ķ
Ê ĥ
Î µ
Î »Î±Î
Ï ĥ
Ï Ħ
Ï į
Ð »
Ù Ħ
Ù ĩ
Ù Ĭ
Û Į
à ¥
Ġ &
Ġ +
Ġ Q
Ġ z
Ġ á»
Ġ á¸
Ġ ques
Ġ Ùħ
Ġ Åĥ
Ģ Î½Î
Ĩ Ïį
ÃŃ á»į
ÃŃ mÃ²
ÃŃ kÃł
ÃŃ gbÃ²
ÃŃ mÃ¹
ÃŃ yÃ¡
ĠÃ §
ĠÃ ±n
ĠÃ ¹n
ïĢ¥ )
ïĢ¥ ).<|
Ġn te
Ġn Ã©
Ġn on
Ġn to
Ġn ro
Ġn nu
Ġn gbo
Ġn kÃ³
Ġn má»į
Ġn lÃ¹
Ġn ma
Ġn pá»į
Ġn tu
Ġn wá»į
Ġn ani
Ġn dara
Ġn pÃ¨
Ġn aijiria
Ġn din
Ġn ano
Ġn reti
Ġn yara
Ġt s
Ġt on
Ġt Ã¬ÃŃ
Ġt to
Ġt ran
Ġt Ãĵ
Ġt uba
Ġt ha
Ġt enu
Ġt hin
Ġt ham
Ġt rans
Ã¡ dÃ©
Ã¡ rÃ¬
Ã¡ rÃł
Ã¡ lÃŃ
Ã¡ rÃŃn
Ã¡ ÃŃnÃł
Ã¡ lÃ¡s
Ã¡ layÃ©
Ã¡ kÃŃÃ¡
Ãł rÃŃ
Ãł jo
Ãł gbo
Ãł yÃłn
Ãł rÃ¨
Ãł pá»į
Ãł yÃł
Ãł jÃŃ
Ãł wá»į
Ãł rá»į
Ãł pÃ³
Ãł rÃ¡n
Ãł pÃł
Ãł kÃ³so
Ãł yÃŃpo
Ãł wÃ²ká»į
en zi
en tation
en dental
te do
te li
te we
te esi
te au
te llo
Ã³ de
Ã³ ni
Ã³ lÃ³
Ã³ kÃ²
Ã³ yÃ¨
Ã³ lÃ¹
Ã³ rÃ¹n
Ã³ nÃ¬ÃŃ
Ã³ mÃłÃ¡lÃ³
Ã³ mÃŃnÃł
Ã³ simi
do m
do ro
do so
do gbon
do mÃł
do uble
Ã© lÃ¡
Ã© gun
Ã© bÃ¹
Ã© rÃ¹
Ġo d
Ġo k
Ġo te
Ġo Ã³
Ġo lÃ©
Ġo gbo
Ġo da
Ġo kÃ³
Ġo gbÃ³
Ġo wÃ¡
Ġo dÃŃ
Ġo gÃ¹n
Ġo sa
Ġo pÃ³
Ġo rÃ¹
Ġo il
Ġo bÃ¬n
Ġo fÃł
Ġo rÃ¬s
Ġo din
Ġo dÃ¹n
Ġo ne
Ġo kÃºta
Ġo rd
Ġo yun
Ġo lati
Ġo bÃ²kun
Ġo pon
Ġo bÃŃnibÃŃ
Ġo yÃºn
Ġo giri
Ġo jona
Ġo mele
Ġo ÃºÅĦjáº¹
Ġa d
Ġa lÃ³
Ġa gun
Ġa wÃ³
Ġa ji
Ġa ran
Ġa ki
Ġa me
Ġa ge
Ġa dun
Ġa wÃł
Ġa yan
Ġa bÃº
Ġa tÃ²
Ġa lá»į
Ġa tan
Ġa dÃ³
Ġa lan
Ġa san
Ġa mÃ³
Ġa fÃ¨
Ġa sÃ¨
Ġa bÃ²
Ġa dÃºgbÃ²
Ġa anu
Ġa rÃ¡n
Ġa gan
Ġa wÃº
Ġa ll
Ġa kÃŃn
Ġa den
Ġa sÃŃwÃ¡jÃº
Ġa fara
Ġa jagun
Ġa rg
Ġa gbana
Ġa ct
Ġa wáº¹
Ġa kara
Ġa gin
Ġa ctor
Ġa darapo
Ġa lÃłgbÃł
Ġa tanna
Ġa cce
Ġa rÃ²ko
Ġa stronomer
Ġa kikanju
gb an
gb in
gb Ã¡Ãł
gb oro
Ã¨ rÃŃ
Ã¨ re
Ã¨ kan
Ã¨ wÃ²
Ã¨ nÃ¬yÃłn
Ãº ko
Ãº lÃ¹
Ãº oyÃ¨
Ã¬ kan
Ã¬ bÃ¡
Ã¬ kÃ²
Ã¬ yÃł
Ã¬ kÃ©
Ã¬ rÃł
Ã¬ fo
Ã¬ tumÃ²
Ã¬ jÃ¬n
Ã¬ lÃŃsÃŃÃł
Ã¬ fÃ¬wÃ©
Ġs q
Ġs en
Ġs ta
Ġs Ã³Ã²
Ġs ai
Ġs hi
Ġs co
Ġs ÃłngÃ³
Ġs por
Ġs ÃłÃ¬sÃłn
Ġs lovenia
Ġs enturi
Ġni jo
Ġni wá»įn
Ġni di
Ġni na
Ġni mu
Ġni yÃ¬ÃŃ
Ġni sisi
Ġni gbeyin
Ġni yawo
Ã² s
Ã² kÃ¬
Ã² kun
Ã² tÃ³
Ã² bÃł
Ã² dÃ²
Ã² jÃ©
Ã² yÃ¬
Ã² hÃ²
Ã² mÃŃnÃŃ
Ġl bi
Ġl ana
Ġl angba
Ġl ÃłtÃŃ
Ġw Ã¬
Ġw oro
Ġw Ã¨rÃ¨
Ġw esi
á» £
Ġi i
Ġi p
Ġi ti
Ġi lÃ¡
Ġi rÃ²
Ġi ga
Ġi go
Ġi dÃł
Ġi rá»į
Ġi ráº¹
Ġi rÃºn
Ġi jÃ¹
Ġi rÃ¬n
Ġi gbáº¹
Ġi yá»į
Ġi gbi
Ġi tele
Ġi já»įba
Ġi bÃ©Ã¨rÃ¨
Ġi wÃ¨
Ġi kÃ³kÃ³
Ġi hu
Ġi fini
Ġi dani
Ġi duro
Ġi toro
Ġi binu
Ġi tÃ²sÃŃ
Ġi dupe
Ġi kÃ¨n
Ġi dunadura
Ġi rorun
á»į gun
á»į dÃºn
á»į lá»į
Ġk on
Ġk er
Ġk li
Ġk ing
Ġk Ã¨rÃ©
Ġk orÃ²
ĠÃł i
ĠÃł t
ĠÃł w
ĠÃł gba
ĠÃł lÃ¡
ĠÃł da
ĠÃł yÃłn
ĠÃł jÃ¬
ĠÃł nÃł
ĠÃł dÃŃ
ĠÃł gbÃ²
ĠÃł yo
ĠÃł wu
ĠÃł lÃ²
ĠÃł sÃ³
ĠÃł fo
ĠÃł tá»į
ĠÃł mÃ¬n
ĠÃł fáº¹
ĠÃł kÃºn
ĠÃł yá»į
ĠÃł fÃŃ
ĠÃł gá»į
ĠÃł tÃ¹
ĠÃł hÃºn
ĠÃł fara
ĠÃł tÃºmÃ²
ĠÃł fÃ¬
ĠÃł bÃŃnibÃŃ
ĠÃł wÃ³n
ĠÃł fojÃº
ĠÃł gbÃ¬
ĠÃł tÃłrÃŃ
ĠÃł hÃ¡mÃ³
ĠÃł afin
ïĢ£ ).<|
an e
an ÃŃ
an to
an na
an ga
an ce
an fani
un u
un ta
un rÃłn
Ġb Ãłn
Ġb oro
Ġb ruce
Ġb ridge
ti ba
ti se
ti er
ti me
ti fi
ti tan
ti fon
Ġm T
Ġm en
Ġm in
Ġm bo
Ġm us
Ġm bÃł
Ġm Ã¹sÃ¹
áº¹ si
áº¹ nu
wo gba
wo je
wo lori
wo rk
Ġti a
Ġti p
Ġti t
Ġti ka
Ġti tan
Ġti ise
Ġti tobi
Ġti raka
Ġti á¹£u
Ġti tutu
ĠÃ¬ g
ĠÃ¬ w
ĠÃ¬ te
ĠÃ¬ bi
ĠÃ¬ nÃº
ĠÃ¬ lÃ³
ĠÃ¬ gbo
ĠÃ¬ jÃº
ĠÃ¬ gbe
ĠÃ¬ yÃ©
ĠÃ¬ be
ĠÃ¬ sÃŃ
ĠÃ¬ rÃ¬
ĠÃ¬ tan
ĠÃ¬ wÃ¹
ĠÃ¬ ha
ĠÃ¬ á¹£Ãł
ĠÃ¬ rÃ¹
ĠÃ¬ fu
ĠÃ¬ fáº¹
ĠÃ¬ yen
ĠÃ¬ bá»į
ĠÃ¬ jÃºwe
ĠÃ¬ bÃ¹dÃ³
ĠÃ¬ yapa
ĠÃ¬ kÃ¨n
ĠÃ¬ tÃºná¹£e
ĠÃ¬ hÃ¡mÃ³
ĠÃ¬ mÃºni
ĠÃ¬ hÃ¬nrere
ĠÃ¬ mÃłle
ĠÃ¬ jÃłn
ri d
ri p
ri ke
ri ku
ri ce
ri fÃº
ri tory
ri gbÃ©rin
ri ges
Ġp p
Ġp en
Ġp Ãłn
Ġp Ã¡Ãł
Ġp á»įn
Ġp la
Ġp Ã¡n
Ġp rÃ³
Ġp anu
Ġp ÄĻ
Ġp ento
Ġp rim
Ġp hysi
Ġp anÃ¡
Ġp ronunciation
Ã¹ gbÃł
Ã¹ jÃº
Ã¹ wÃ²
Ã¹ kÃ¹
Ã¹ fÃ¹
Ã¹ fÃº
Ã¹ sÃº
Ã¹ kÃ¡rÃŃá»į
ĠnÃŃ s
ĠnÃŃ lu
ĠnÃŃ po
ĠnÃŃ be
ĠnÃŃ ke
ĠnÃŃ pÃ¡
ĠnÃŃ fÃ¨
ĠnÃŃ jÃ²
ĠnÃŃ sÃł
ĠnÃŃ dÃ¬ÃŃ
ĠnÃŃ sin
ĠnÃŃ pÃł
ĠnÃŃ tor
ĠnÃŃ tÃ²sÃŃ
ĠnÃŃ nlÃ¡
Ġf ra
Ġf lo
Ġf Ã¹n
Ġf ran
Ġf ani
Ġf Ã¨rÃ¨
Ġf oru
Ġf yneguy
Ġf Ã¹fÃº
Ġj an
Ġj Ã¡nÃł
Ġj unu
ĠtÃŃ ti
ĠtÃŃ tÃłn
ĠtÃŃ tÃ¬
ĠtÃŃ tun
ĠtÃŃ tÃºn
ĠtÃŃ táº¹
Ġy un
Ġy aa
Ġy ÃłÃ¡
Ġy ani
ra te
ra ye
ra wa
ra li
ra ga
ra pÃ¡
ra pi
ra dan
ra ft
ra tory
Ìģ "
Ìģ ).<|
Ìģ ?<|
Ġd aran
Ġd ena
Ġd yna
Ġgb Ã¬
Ġgb Ãºn
Ġgb Ã¡Ãł
Ġgb gbo
Ġgb enu
rÃŃ ra
rÃŃ láº¹
rÃŃ nÃŃ
rÃŃ ki
rÃŃ dÃŃ
rÃŃ já»į
rÃŃ dÃ¬
rÃŃ mÃ³Ã²gÃ¹n
in s
in ta
in rÃº
in gi
in fe
in ho
in ger
in form
Ġe Ã¨
Ġe mo
Ġe rÃ²
Ġe ran
Ġe san
Ġe pÃ³
Ġe vi
Ġe mar
Ġe mÃ¨
Ġe bon
Ġe sÃº
Ġe pon
Ġe fon
Ġe tutu
Ġe kÃ¹Ãº
Ġe horo
Ġe gbÃ¨rÃºn
Ġe ukar
Ãºn de
Ãºn jáº¹
Ãºn lÃ©kÃ¨
le ri
le de
le se
le kan
le ru
le lori
le ast
le ration
ĠA O
ĠA U
ĠA w
ĠA gb
ĠA in
ĠA lÃ¨
ĠA lu
ĠA rÃ²
ĠA ta
ĠA bÃ¡
ĠA di
ĠA jÃº
ĠA pe
ĠA ji
ĠA nÃŃ
ĠA bo
ĠA rÃ³
ĠA kun
ĠA gbÃ¡
ĠA jÃ¨
ĠA ch
ĠA sa
ĠA san
ĠA mÃ³
ĠA st
ĠA bÃ¹
ĠA rÃ¹
ĠA jÃ¡
ĠA gbÃ¡ra
ĠA gbáº¹
ĠA ug
ĠA ami
ĠA min
ĠA iye
ĠA Ã¡lÃ¨
ĠA ward
ĠA rere
ĠA siwaju
ĠA ila
ĠA pere
ĠA stria
ĠA ssy
ĠA dipo
ĠA Ãłfin
ĠA IDS
ĠA AA
ĠA GE
ĠA rÃºkÃº
ĠA pÃ²mÃ¹
ĠA gbongbo
ĠÃ³ un
ĠÃ³ yÃ¨
ĠÃ³ fi
ĠO won
ĠO kan
ĠO si
ĠO rÃ²
ĠO di
ĠO nÃ¬
ĠO wÃ¡
ĠO du
ĠO kÃ¨
ĠO fin
ĠO gbon
ĠO bÃ³
ĠO selu
ĠO gidi
ĠO kowo
ĠO yinbo
ĠO stria
ĠO walu
ĠO HUN
ĠO SOL
ĠO YO
ĠÃ¨ to
ĠÃ¨ bÃ¡
ĠÃ¨ rÃº
ĠÃ¨ gbÃ©
ĠÃ¨ ká»į
ĠÃ¨ tÃ³
ĠÃ¨ sÃ¬
ĠÃ¨ dÃł
ĠÃ¨ kÃ©
ĠÃ¨ rÃ¹
ĠÃ¨ pÃ¨
ĠÃ¨ tÃ¨
ĠÃ¨ sÃ©
ĠÃ¨ keji
ĠÃ¨ sÃº
ĠÃ¨ gÃ¨
ĠÃ¨ yun
ĠÃ¨ gbÃ³n
ĠÃ¨ kÃŃnÃŃ
ĠÃ¨ kuru
ĠÃ¨ wonÃ¬dÃ¡hÃ¹n
ĠÃ² á¹£
ĠÃ² la
ĠÃ² ni
ĠÃ² di
ĠÃ² gun
ĠÃ² pe
ĠÃ² jÃ¬
ĠÃ² yÃ¨
ĠÃ² be
ĠÃ² yÃ¬n
ĠÃ² dÃł
ĠÃ² gÃ¹n
ĠÃ² tÃ¬
ĠÃ² kÃ©
ĠÃ² jÃ©
ĠÃ² wÃ¹
ĠÃ² fo
ĠÃ² fÃł
ĠÃ² nÃ¡
ĠÃ² rÃŃn
ĠÃ² kÃºn
ĠÃ² tÃ¡
ĠÃ² fÃº
ĠÃ² gÃ¹
ĠÃ² gbÃ¬n
ĠÃ² daran
ĠÃ² darÃłn
ĠÃ² giri
ĠÃ² gÃ¬rÃ¬
ĠÃ² gÃ²gÃ³
ĠÃ² mÃ¬nÃ¬
re z
re rin
re ge
re sile
re ad
re lia
re au
on se
on el
on ina
Ãłn tÃ¬
Ãłn yÃ¡n
Ãłn Ã¬yÃłn
ko u
ko si
ko ore
ko ssa
Ã¬ÃŃ rÃ¬s
ĠsÃŃ s
ĠsÃŃ Ã¬
ĠsÃŃ ra
ĠsÃŃ bÃŃ
ĠsÃŃ wÃ¡ju
ba ta
ba lÃ¹
ba jáº¹
ba ma
ba yo
ba rÃł
ba kanna
ba sti
ba gbepo
ba Ã¡lÃ¡
ba bwe
ÅĦ jo
ÅĦ dÃ©
ÅĦ tÃł
ÅĦ gÃ²
ÅĦ ski
ÅĦ tÃ¡ÃłsÃ¬
lo e
lo o
lo p
lo u
lo w
lo le
lo de
lo kun
lo bu
lo hÃ¹n
lo selu
lo rile
lo furufu
Ġje ki
Ġje ome
de en
de kun
de ci
de lia
de sand
ĠÅĦ i
ĠÅĦ la
ĠÅĦ lu
ĠÅĦ kÃ³
ĠÅĦ nÃŃ
ĠÅĦ fi
ĠÅĦ lÃ¹
ĠÅĦ pÃ©
ĠÅĦ fÃ©
se k
se x
se se
se gbÃ¡
se pá»į
se sc
se mb
se ven
Ġlo ti
Ġlo re
Ġlo se
Ġlo si
Ġlo to
Ġlo ro
Ġlo so
Ġlo ve
Ġlo Ã²Ã³
Ġlo ore
Ġlo jiji
Ã¡Ãł rÃ²
Ã¡Ãł fÃŃn
Ġr Ã¹
Ġr orun
Ġr Ã¬rÃ¬
Ġr orÃ²
Ġr orÃ¹n
bi e
bi an
bi le
bi á¹£áº¹
bi lity
mo r
mo do
mo re
mo ye
mo di
mo ur
mo tion
mo lov
mo uth
mo laya
ĠI V
ĠI rin
ĠI si
ĠI nu
ĠI ju
ĠI pe
ĠI pÃ²
ĠI dÃ¡
ĠI be
ĠI ya
ĠI ke
ĠI na
ĠI gbÃ¡
ĠI á¹£áº¹
ĠI ku
ĠI tan
ĠI su
ĠI tun
ĠI fÃ©
ĠI ron
ĠI mÃ¨
ĠI gbona
ĠI gbÃ³mÃ¬nÃł
ĠI sise
ĠI sis
ĠI bÃ²kun
ĠI pinnu
ĠI gbÃ¬
ĠI bÃ¹dÃ³
ĠI HE
ĠI komi
ĠI ráº¹landi
ĠI dunadura
ĠI UPA
ĠI zon
rin do
Ġfi m
Ġfi ti
Ġfi ta
Ġfi lÃł
Ġfi ga
Ġfi dÃŃ
Ġfi pÃ¡
Ġfi á¹£e
Ġfi fáº¹
Ġfi lasi
Ġfi fara
Ġfi fowoda
Ġto se
Ġto mo
Ġto ro
Ġto jÃº
Ġto je
Ġto pari
Ġto pete
Ġto sunmo
lÃ© yÃ¬n
lÃ© bÃ©
lÃ© Ã³simi
á¹£ un
Ġsi l
Ġsi bi
Ġsi ro
Ġsi su
Ġsi sun
Ġsi tos
Ã¹n dÃ¡
Ã¹n jÃ¹
kan de
kan lÃ¨
kan dinlo
kan zler
or d
or m
or Ã©
or an
or fi
or dan
si e
si p
si us
si mu
si tu
si risi
si omu
si relia
ĠlÃ¡ a
ĠlÃ¡ s
ĠlÃ¡ tÃŃ
ĠlÃ¡ yÃł
ĠlÃ¡ mÃ¬
ĠlÃ¡ Ã¬nÃŃ
ĠlÃ¡ papá»į
ĠlÃ¡ tÃłrÃŃ
ĠlÃ¡ Ã©lÃ¡
Ġkan ra
Ġkan ka
Ġkan sa
Ġkan nan
pa de
pa pa
pa ya
pa sáº¹
pa tÃ¡n
pa ul
pa gboko
jo wo
jo rÃŃ
jo se
jo li
jo gbÃ©
lÃº Ãł
lÃº ye
lÃº sÃ¬
lÃº kÃº
lÃº dÃ³
ĠpÃ© jÃº
ĠpÃ© lÃ©bÃ©
Ġwa o
Ġwa ri
Ġwa ja
Ã¬n dÃŃnlÃ³gÃºn
Ġla lÃ¨
Ġla la
Ġla yÃ©
Ġla st
Ġla aka
Ġla yika
Ġla aro
Ġla ayo
Ġla ela
Ġla gbaja
Ġla tari
la ka
la ju
la ji
la ki
la ru
la us
la ke
la ria
la ai
la rd
la del
la tory
la gong
la urin
Ġwo li
to k
to ye
to pu
to ine
to synth
to urism
ĠlÃ³ ti
ĠlÃ³ ni
ĠlÃ³ lÃ¡
ĠlÃ³ rÃ²
ĠlÃ³ gun
ĠlÃ³ hun
ĠlÃ³ nÃŃ
ĠlÃ³ ru
ĠlÃ³ yÃ¨
ĠlÃ³ rÃ³
ĠlÃ³ we
ĠlÃ³ rÃ¬
ĠlÃ³ hÃ¹n
ĠlÃ³ tÃ²
ĠlÃ³ dÃ¬
ĠlÃ³ mÃ¬
ĠlÃ³ kÃ¹nrin
ĠlÃ³ bÃ¬nrin
ĠlÃ³ ore
ĠlÃ³ fÃ¨Ã©
ĠlÃ³ Ã³gun
gba jo
gba la
gba gbo
gba mi
gba mu
gba dura
ĠwÃ³ pÃ²
gbÃł wÃŃ
ro o
ro ko
ro wÃ³
ro je
ro ld
ro it
ro phy
Ġse to
Ġse po
Ġse ju
Ġse so
Ġse hin
Ġse lana
Ġse siro
Ġse con
Ġse pinpin
Ġse kede
lu b
lu e
lu le
lu ka
lu wa
lu dÃ©
lu mu
lu ma
lu tifon
Ġati láº¹
Ġati já»į
Ġati nrin
ye mo
ye ye
ye ke
ye ama
ye lÃ³fÃ²
dÃ¨ rÃº
dÃ¨ jÃ¬
dÃ¨ rÃ©
dÃ¨ gbÃ©
ĠtÃ³ rÃŃ
ĠtÃ³ rÃ³
ĠtÃ³ jáº¹
ĠtÃ³ sÃ²
ĠtÃ³ wÃ¹Ãº
nÃº sÃ¬
nÃº arÃ³
Ġg Ãłn
Ġg ar
Ġg ene
Ġg et
Ġg Ã¬rÃ¬
Ġg Ã¡lÃ¡ksÃ¬
ka s
ka ba
ka ki
ka ya
ka ia
ka luku
ka rioti
ka laki
Ġá»į lÃ¡
Ġá»į yÃłn
Ġá»į kÃ²
Ġá»į jÃ³
Ġá»į á¹£áº¹
Ġá»į á»įfun
Ġá»į kunrin
Ġko ra
Ġko in
Ġko re
Ġko kan
Ġko si
Ġko mi
Ġko po
Ġko wa
Ġko je
Ġko ma
Ġko kanla
ni e
ni z
ni ti
ni fÃº
ni gbÃ¹wÃł
ni pasáº¹
ÃĢ Ã¡
ÃĢ bÃŃ
ÃĢ gbe
ÃĢ wÃ³
ÃĢ ki
ÃĢ dÃ¡
ÃĢ má»į
ÃĢ gbÃ©
ÃĢ ká»į
ÃĢ jÃ¨
ÃĢ já»į
ÃĢ bÃ©
ÃĢ tÃł
ÃĢ kÃłn
ÃĢ tÃº
ÃĢ tÃºn
ÃĢ gbáº¹
ÃĢ ayÃ¨
ÃĢ pilÃ¨
ÃĢ fojÃº
ÃĢ dÃ¬mÃº
ÃĢ yÃłnmÃ³
ÃĢ fikÃºn
ÃĢ Ã¬rÃŃ
ÃĢ rÃŃyÃłnjiyÃłn
ÃĢ patÃ¡n
lÃ¡ rÃłn
lÃ¡ pÃ¡
lÃ¡ dÃº
lÃ¡ mÃ¹
lÃ¡ tÃº
lÃ¡ gbÃ¡ra
lÃ¡ ayÃ©
nu t
nu so
nu kÃ²
nu me
nu lÃ©kÃ¨
rÃ² jin
lÃ³ Ã²
lÃ³ jÃ¬
lÃ³ bÃ¬nrin
lÃ³ fÃ¬n
lÃ³ gÃ³jÃ¬
lÃ³ trÃ³
er on
er ry
er tifi
er ritory
ĠbÃŃ u
ĠbÃŃ Ãł
ĠbÃŃ Ã¬
ĠbÃŃ bi
ĠbÃŃ kÃ²
ĠbÃŃ rÃŃki
Ġso o
Ġso do
Ġso won
Ġso mo
Ġso hun
Ġso pe
Ġso ja
Ġso lori
Ġso goye
ĠbÃ¡ s
ĠbÃ¡ bÃ¡
ĠbÃ¡ tan
ĠbÃ¡ tÃłnÃ¬
gbo m
Ã¡a yÃ¨
ta ra
ta se
ta rÃ©
ta ge
ta gi
ta lie
mi r
mi le
mi mo
mi mi
mi be
mi rÃłn
mi kÃ¡
mi lÃ©kÃ¨
mi toro
mi ento
mi ssion
bÃ¡ dÃ¡
bÃ¡ yÃ¬ÃŃ
bÃ¡ kÃŃn
da y
da re
da gba
da po
da we
da landi
da ms
da gry
di ÃŃ
di jo
di ro
di ch
di omu
Ġpe e
Ġpe rÃŃ
Ġpe pe
Ġpe tiro
ĠN O
ĠN de
ĠN je
ĠN ya
ĠN yan
ĠN ati
ĠN gu
ĠN aira
ĠN naji
po re
po ssi
po rini
po int
po ds
po mÃ©jÃ¬
po tenu
ĠÃĮ re
ĠÃĮ se
ĠÃĮ lÃ©
ĠÃĮ ye
ĠÃĮ rÃ²
ĠÃĮ lÃ¹
ĠÃĮ gbÃ¨
ĠÃĮ ja
ĠÃĮ yÃł
ĠÃĮ gbÃ²
ĠÃĮ wá»į
ĠÃĮ fÃ¡
ĠÃĮ jÃ©
ĠÃĮ sÃ¨
ĠÃĮ báº¹
ĠÃĮ rÃ¬n
ĠÃĮ sÃ¡n
ĠÃĮ gÃ¨
ĠÃĮ gÃłn
ĠÃĮ rÃ²yÃ¬n
ĠÃĮ sÃ²rÃŃ
ĠÃĮ dÃ¡nwÃ²
ĠÃĮ á¹£Ã¨
ĠÃĮ sirÃ²
ĠÃĮ perÃŃ
ĠÃĮ rÃ¡nÃ¬
ĠÃĮ domÃł
ju wa
ju wÃ³
ïĢ¤ ïĢ¤
gun gun
gun tÃł
hun run
ĠkÃ² kÃ²
ĠkÃ² sÃ¬
jÃº u
jÃº wo
jÃº bÃł
Ġmo wo
Ġmo rÃŃ
Ġmo ka
Ġmo hun
Ġmo bo
Ġmo fe
Ġmo juto
Ġmo salasi
Ġmo laai
ĠB Ã³
ĠB áº¹
ĠB ÃŃn
ĠB run
ĠB ai
ĠB uba
ĠB es
ĠB et
ĠB im
ĠB ÃłtÃ¡
ĠB lues
ĠB ÃºoyÃ¨
Ġ2 15
ĠS y
ĠS ti
ĠS Ã¹
ĠS in
ĠS Ãłn
ĠS lo
ĠS or
ĠS ar
ĠS ve
ĠS ter
ĠS hi
ĠS os
ĠS ol
ĠS ham
ĠS ton
ĠS pan
ĠS wÃŃ
ĠS wis
ĠS ander
ĠS lavic
ĠS inga
ĠS Ã£o
kÃ³ pÃ¹
Ġdi ye
Ġdi dun
Ġdi vision
ĠM ÃŃ
ĠM Ãº
ĠM á»į
ĠM ba
ĠM es
ĠM ur
ĠM ongo
ĠM um
ĠM ano
ĠM usa
ĠM ill
ĠM BE
ĠM rs
ĠM Ã¹sÃº
ĠÃĴ do
ĠÃĴ yÃ¬n
ĠÃĴ jÃ¨
ĠÃĴ wÃº
ĠÃĴ rÃºnmÃ¬lÃł
ĠÃĴ dÃ²go
ĠÃĴ gÃ¨dÃ¨n
ĠÃĴ GÃļN
Ġara lu
Ġara birin
Ġba Ã¡
Ġba lÃ©
Ġba bÃ¡
Ġba wa
Ġba fi
Ġba uxi
Ġgba lÃ¨
Ġgba jo
Ġgba mi
Ġgba ju
Ġgba láº¹
Ġgba yi
Ġgba ya
Ġgba yo
Ġgba dura
ĠE Ã¨
ĠE ka
ĠE di
ĠE ji
ĠE ru
ĠE du
ĠE jÃŃ
ĠE st
ĠE su
ĠE rÃŃn
ĠE din
ĠE ug
ĠE iye
ĠE ssi
ĠE Ã©gÃºn
ĠE zi
ĠE Ã¬nÃŃ
ĠE mmy
ĠE CO
ĠE dumare
ĠE mmanuel
ĠE gha
ĠE fÃ²n
ĠE agle
ĠE vere
ĠE rnest
ĠE FFC
ĠE bene
bÃŃ rÃŃ
bÃŃ lÃ©
ĠwÃł yÃ©
ĠwÃł Ã¡sÃ¹
Ġre p
Ġre ti
Ġre le
Ġre rin
Ġre wÃ¡jÃº
Ġre ser
Ġre com
Ġre char
ĠY an
ĠY aa
ĠY am
ĠY OR
ĠY ÃºrÃ³
ĠY ong
ĠY ÃłgbÃł
gbÃ³ Ã²gÃ¹n
Ġpa a
Ġpa p
Ġpa r
Ġpa s
Ġpa ko
Ġpa wÃ³
Ġpa tÃł
Ġpa sipa
ÃŃn Ã¡
wa si
wa ki
wa ii
ĠK or
ĠK Ã¬n
ĠK ru
ĠK ede
ĠK ini
ĠK oni
ĠK are
ĠK anu
ĠK ir
ĠK ing
ĠK rio
ĠK hmer
ĠK were
ĠK lerk
pe i
pe tu
pe al
pe juwe
ĠÃ¨dÃ¨ e
ĠkÃŃ Ã¬
ĠkÃŃ ka
ĠkÃŃ ki
ĠkÃŃ kÃºn
ĠkÃŃ lÃ¡Ãł
ĠkÃŃ Ã¡kÃŃÃ¡
Ġle ba
Ġle de
Ġle kan
Ġle to
Ġle ke
gbe e
gbe wo
gbe kun
ÃĮ h
ÃĮ wo
ÃĮ dÃ¨
ÃĮ lÃ¡
ÃĮ di
ÃĮ gbÃ³
ÃĮ má»į
ÃĮ ke
ÃĮ fÃ¨
ÃĮ jÃ²
ÃĮ pÃ©
ÃĮ nÃ¡
ÃĮ kejÃ¬
ÃĮ wÃº
ÃĮ yÃŃpadÃł
ÃĮ rÃŃsÃŃ
ÃĮ rÃŃrÃŃ
ÃĮ sÃ²rÃŃ
ÃĮ yapa
ÃĮ tipÃ¡
ÃĮ perÃŃ
ÃĮ yÃłndÃ¡
ÃĮ WÃĢ
ĠG B
ĠG un
ĠG rÃŃ
ĠG on
ĠG ba
ĠG bÃł
ĠG oo
ĠG ren
ĠG wari
ĠG od
ĠG NU
ĠG reenberg
ĠG ough
ĠG CM
ar Ã¡
ar Ã¨
ar th
ar ca
ar ry
ar dian
yÃłn jÃ¬
rÃº dÃ²
pÃ² Ã²yÃ¬
ji bo
ji kÃ¬
so re
so ju
so bu
so wá»į
so vo
so lar
so uth
so sialisti
Ġlati gba
Ġyi ri
Ġyi ka
yÃ© kÃ©
yÃ© jayÃ©
nÃŃ gbÃł
nÃŃ ta
ĠwÃ¡ bi
ĠâĢ ¡
ĠâĢ ¦
ĠâĢ Ķ
NÃŃ lÃ©
NÃŃ jÃ³
NÃŃ dÃł
NÃŃ wÃ²n
NÃŃ trÃ³jÃ¬n
Ġmi o
ĠJ Ã¬
ĠJ er
ĠJ am
ĠJ iba
ĠJ Ã¹jÃº
ran d
ran si
ran gbe
kÃ² dÃ³
Ġgbogbo gbÃ²Ã²
ki rÃŃ
ki páº¹
ru k
ru p
ru ba
ru st
yÃ¨ wÃ²
ĠD Ã³
ĠD un
ĠD ar
ĠD al
ĠD anu
ĠD ama
ĠD ennis
ĠD jen
ĠD ÃºdÃº
ĠD utch
ĠD ARA
ĠD jibo
Ġori re
Ġori lÃ¨
Ġori gun
Ġori son
Ġki ye
Ġki kun
Ġki fÃ¡
Ġki ise
je le
lÃł bÃ¹
aa c
li d
li ge
li us
li ca
li onu
li tt
li ght
li sisi
li skopu
li tz
li fonia
li hlah
wÃ¡ lÃ©
wÃ¡ sÃŃ
wÃ¡ lÃłgbÃł
wÃ² ye
dÃ¡ Ã¡
dÃ¡ já»įpá»į
yi i
yi rapo
Ġá¹£ erÃ©
Ġá¹£ ÃłÃ¬sÃłn
Ġá¹£ Ãºre
Ġá¹£ aaju
Ġáº¹ rin
Ġáº¹ ta
Ġáº¹ mi
Ġáº¹ rÃº
Ġáº¹ ran
Ġáº¹ nÃ¬
Ġáº¹ mu
Ġáº¹ ráº¹
Ġáº¹ rÃ¹
Ġáº¹ yáº¹
Ġáº¹ gbÃłÃ¡
ĠorÃŃ le
ĠorÃŃ ki
ĠorÃŃ kin
ĠorÃŃ lÄĻ
ĠorÃŃ rsirÃŃsi
ĠorÃŃ Ã¬kÃ©
eni o
eni an
eni or
eni sula
be s
be lo
be ji
ĠmÃ© ji
me rin
me sÃ¬
me tres
Ġile se
Ġile pa
Ġile wa
Ġile ru
Ġile asofin
Ġis Ãł
Ġis un
Ġis are
rÃ© Ãł
rÃ© Ã¨
rÃ© lÃŃÃł
ĠkÃ³ ko
ĠkÃ³ jo
ĠkÃ³ Ã³kÃ²
ĠT s
ĠT y
ĠT ara
ĠT ris
ĠT omba
ĠT uni
ĠT ele
ĠT enis
ĠT ryp
ĠT rÃŃnÃŃ
ĠT Ãºnde
ĠT erritory
ĠC D
ĠC E
ĠC ra
ĠC ola
ĠC omo
ĠC hamo
ĠC olombia
ĠC rete
ĠC lerk
ĠC eres
ĠC ultural
ĠC helsea
ĠC lub
ĠL áº¹
ĠL uba
ĠL es
ĠL os
ĠL olo
ĠL EW
ĠL Ã¡ayÃ¨
bo h
bo ko
bo gun
bo bo
ge l
ge mo
ge lu
ge al
ĠrÃŃ rÃ¡n
fi mo
fi ed
sÃŃ lÃ©
sÃŃ báº¹
sÃŃ tÃ©
sÃŃ Ã¬lÃ¬
Ġta ba
Ġta ta
Ġta kÃ²
Ġta yÃ²
Ġta lika
ĠÃĢ ti
ĠÃĢ ko
ĠÃĢ won
ĠÃĢ lÃ¡
ĠÃĢ bÃ¡
ĠÃĢ kÃ³
ĠÃĢ gbÃ²
ĠÃĢ dÃ¹
ĠÃĢ jÃ©
ĠÃĢ kin
ĠÃĢ á¹£Ãł
ĠÃĢ pÃ¨
ĠÃĢ Ã¬sÃłn
ĠÃĢ gan
ĠÃĢ papá»į
ĠÃĢ Ã¬pÃ©
ĠÃĢ fikÃºn
ĠÃĢ pÃ³lÃł
ĠÃĢ mÃºÃ¹
ĠÃĢ KÃĵ
ĠÃĢ lhÃłÃ¡
ĠÃĢ ÃŃyÃ¡
us si
us to
us hi
us sian
gbÃ© pÃ²
gbÃ© nulÃ©kÃ¨
gbÃ© milÃ©kÃ¨
ya ji
ya dar
ke i
ke le
ke mi
ke kere
Ãłt Ã³
Ãłt Ã¬
ÃĪ re
ÃĪ mi
ÃĪ yi
ÃĪ gbÃ³n
wÃł dÃł
wÃł gÃºn
tÃŃ ÃŃ
tÃŃ tÃłn
tÃŃ kÃ¬
dÃ© gbÃł
dÃ© gbÃ¨
dÃ© kÃ¹nrin
dÃ© Ã©dÃ©
ĠtÃºn mÃ²
ĠilÃ¨ e
ĠilÃ¨ kÃ¹n
Ġwá»įn Ãº
rÃłn wÃ³
ÃĴ kan
ÃĴ bÃŃ
ÃĴ wÃ²
ÃĴ kun
ÃĴ jÃŃ
ÃĴ kÃº
ÃĴ mÃŃrÃłn
ÃĴ dÃ²go
ÃĴ kÃ²wÃ²
ÃĴ Ã³rÃ¹n
ĠpÃ¨ rÃ²
ĠpÃ¨ run
ĠpÃ¨ tÃ©
rÃ³ wÃ³
rÃ³ yÃ¨
we e
we ight
mÃ² rÃ¨
mÃ² sÃ³
lÃ¹ fá»į
lÃ¹ mÃ¡
ĠF Ã©
ĠF ede
ĠF is
ĠF usu
ĠF ou
ĠF ore
ĠF unda
ĠF eli
ĠF ederal
ĠF Ã¬dÃŃ
ĠF lute
ĠF rede
ĠF rench
ĠF Ã¬lÃŃsÃŃÃł
wÃ© rÃ©
rÃ¬ lÃ¬
yin ka
Ġeni ti
Ġeni yÃłn
ïĢı ïĢ¬
du Ãł
du gbÃ³
du ctor
mu lo
mu se
mu da
mu du
mu mbi
Ġda ko
Ġda ba
Ġda to
Ġda ke
Ġda ku
Ġda siláº¹
Ġda lute
kÃ¨ nÃŃsÃł
kÃ¨ rÃºdÃ²
ĠgbÃ³ lÃ³
ĠgbÃ³ dÃ³
ĠgbÃ³ dá»į
ĠgbÃ³ lohÃ¹n
Ġorile de
kÃ¬ yÃ¨sÃŃ
ĠgbÃ© lÃ¨
ĠgbÃ© pÃ²
ĠP Ã¡
ĠP Ã¨
ĠP un
ĠP rÃ©
ĠP ana
ĠP ere
ĠP ol
ĠP upa
ĠP AL
ĠP ers
ĠP uli
ĠP hysi
ĠP rince
ĠP ersian
ĠP ÃłnyÃ¡n
ĠP orfi
ĠP enisula
á»Į wÃ¡
á»Į ká»į
á»Į dáº¹
gbÃ¨ de
gbÃ¨ je
gbÃ¨ rÃ¬
jáº¹ r
jáº¹ ri
kun a
kun nu
Ġá¹£e Ã©
rÃ¹n dÃºn
ĠÃ¬s Ã³
ĠlÃ© lÃ¨
ĠlÃ© bi
ĠlÃ© rÃ¨
ĠlÃ© rÃ©
ĠlÃ© gbÃ²
ĠlÃ© tÃ²
ĠlÃ© wu
ĠlÃ© bÃłÃ¡
tÃ³ ri
ma l
ma se
ma is
ma il
ma tÃŃn
ma gne
Ġolo rÃŃ
Ġolo lu
Ġolo hun
Ġolo ru
Ġolo tu
Ġolo san
Ġolo oru
gbÃ¡ jÃł
ĠdÃ¡ Ã¡
ĠdÃ¡ lÃ¨
ĠdÃ¡ rin
ĠdÃ¡ gbÃ³
ĠdÃ¡ wÃ³
ĠdÃ¡ dÃ©
ĠdÃ¡ mÃ²
ĠdÃ¡ fÃ¡
ĠdÃ¡ lÃ¹Ãº
ĠdÃ¡ dÃºrÃ³
ber s
ber ta
Ġju belo
Ġibi kan
ga ra
ga la
ga tion
ga rian
ga sy
ga yika
sÃ¬ lÃ¨
sÃ¬ gbÃ²
sÃ¬ wÃ¡jÃº
sÃ¬ mesÃ¬
nÃł a
nÃł má»į
is m
is en
is ation
go i
go l
Ġh i
Ġh Ã¹
Ġh in
Ġh ÃłÃ¬
Ġh isi
ĠmÃº mÃº
bu l
bu ra
bu ko
bu si
bu lary
bÃ¨ rÃ¨
bÃ¨ bÃ¨
dÃŃ Ãł
dÃŃ ran
bÃº tÃ©
ĠÃ¨yÃŃ kÃ©
Ġke yin
Ġke san
Ġke fÃł
Ġke feri
ĠÃ¬gbÃł lÃł
ĠÃ¬gbÃł tÃŃ
ĠÃ¬gbÃł dÃ©gbÃł
tu a
tu rn
tu rba
pin pÃ¬n
ria l
ria m
ria ti
kÃł yÃ¨
kÃł kiri
jÃ¨ mÃº
ja la
ja ve
ja bele
yÃł yÃł
ĠH an
ĠH al
ĠH aye
ĠH eb
ĠH ami
ĠH erman
ĠH ill
ĠH ans
ĠH Ã©bÃ©
ĠH uston
ĠR en
ĠR ai
ĠR ol
ĠR FC
ĠR ingi
ĠR orÃ©
Ġbo ra
Ġbo und
Ġbo ot
ĠalÃ¡ se
ĠalÃ¡ lÃ¨
ĠalÃ¡ yÃ©
ĠalÃ¡ lÃł
ĠalÃ¡ rÃ³
ĠalÃ¡ bÃ²
ĠalÃ¡ kÃłn
ĠalÃ¡ fÃ©
ĠalÃ¡ koso
ĠalÃ¡ kÃ²Ã³
ĠalÃ¡ Ã¬á¹£áº¹
ĠalÃ¡ sejÃ¹
ĠalÃ¡ pÃ¬ÃŃ
ĠalÃ¡ dÃ¡ni
ĠalÃ¡ wÃ¬ÃŃ
ĠalÃ¡ jogbÃ©
ĠalÃ¡ gbÃłwÃŃ
Ġbe ta
Ġbe yo
Ġbe sini
bÃł kÃ¨
bÃł jáº¹
Ġme te
Ġme eti
Ġme jÃ¨ji
Ġme erin
Ġme rerin
rÃ¡ yÃ©
rÃ¡ tÃ¬
ĠdÃ© Ã©
ĠdÃ© lÃ©
ĠdÃ© dÃ©
ch te
ch an
ch ard
ch dad
ch ange
ĠÃ¡ Ãł
ĠÃ¡ ti
ĠÃ¡ rÃ©
ĠÃ¡ gbÃ¡
ĠÃ¡ afi
ĠÃ¡ lÃ³trÃ³
ĠkÃº de
ĠkÃº bÃł
jÃŃ rÃ¬
jÃŃ rÃł
jÃŃ sÃŃrÃ©
hÃ¹n pÃ¨
hÃ¹n mÃ¡wÃ²rÃ¡n
ku pa
ku lu
ku je
ku bu
Ni be
Ni bo
Ni ke
Ni torÃŃ
Ni gbana
jÃł Ç¹kÃłn
jÃł gÃŃdÃŃjÃłgan
jÃł ludÃ©
ĠwÃ² lÃŃ
ĠwÃ² fÃºn
gi c
gi e
gi da
gi je
gi ga
gi miento
Ġun la
Ġun fa
Ġun sise
Ġun waye
ĠolÃ³ ri
ĠolÃ³ rÃ²
ĠolÃ³ jÃº
ĠolÃ³ rÃ¬
ĠolÃ³ kun
ĠolÃ³ gbÃ²
ĠolÃ³ dÃ¬
ĠolÃ³ Ã²Ã³
ĠolÃ³ Ã²Ã³tÃ³
ĠolÃ³ tÃ¹Ãº
th Ã©
th on
th ai
th ani
th al
th el
th au
th aniel
th ony
th uania
fa wa
fa ani
fa gbÃ¡ra
fa los
kÃº ro
kÃº Ã¹gbÃł
torÃŃ pÃ©
ĠâĢľ (
áº¸ nu
áº¸ gbáº¹
ĠwÃŃ wÃ²
Ġigba ja
Ġigba eyin
mÃŃ rÃł
mÃŃ rÃ¡tÃ¬
lá»į á¹£e
dÃ¹ wÃł
dÃ¹ ÃŃgbÃ²
dÃ¹ ÃłrÃ¨
Ġma the
Ġma jor
Ġma thematiki
Ġma timatiiki
Ġma laria
Ġte yin
fin ro
Ġde l
Ġde ar
Ġde pen
kÃ¹n rÃ¹n
kÃ¹n yÃ¹n
Ġ18 19
Ġ18 50
Ġ18 46
Ġ18 24
Ġ18 26
Ġ18 56
Ġ18 47
Ġ18 49
Ġ18 59
Ġ18 45
Ġ18 57
gÃ¹n rÃ²
Ġako po
Ġako ayo
ĠW ar
ĠW al
ĠW hi
ĠW ama
ĠW ande
ĠW ola
ĠW TA
ĠW right
ĠW uwo
Ġogun lo
Ġogun lá»į
Ġala de
Ġala je
Ġala fo
Ġala ayÃ¨
Ġala pilese
Ġala ile
Ġala tuwo
Ġala dugbo
Ġala tako
Ġala diboyan
Ġala roko
Ġala gemo
ĠgbÃł Ã¡
ĠonÃŃ Ã¡
ĠonÃŃ lÃ¨
ĠonÃŃ á¹£
ĠonÃŃ tÃłn
ĠonÃŃ fÃ¡
ĠonÃŃ gbá»į
ĠonÃŃ gÃŃ
ĠonÃŃ sÃ²
ĠonÃŃ sÃłn
ĠonÃŃ kÃŃkan
ĠonÃŃ bÃłtÃ¡
ĠonÃŃ rÃ¡rÃł
ĠonÃŃ rÃ²yÃ¬n
ĠonÃŃ sÃ¨gÃ¹n
ĠonÃŃ dÃ¡jÃ³
ĠonÃŃ biá¹£áº¹
ĠonÃŃ nÃºarÃ³
ĠonÃŃ tÃŃtÃłn
ĠonÃŃ dÃ©Ã©dÃ©
Ġri bosi
Ġri rele
Ġri chdad
ĠIlÃ© dÃ¨
ĠIlÃ© san
ĠIlÃ© sÃł
yo le
yo bo
yo tte
ĠAme ri
ĠAme rin
Ġfa lÃ¨
Ġfa lasi
Ġfa ll
om en
om Ãºn
om ar
om bo
om sky
am Ã¨
am bo
am arca
dÃ³ rÃŃ
ĠlÃ³rÃŃ i
ĠlÃ³rÃŃ lÃ¨
ĠlÃ³rÃŃ á¹£irÃŃá¹£i
Ġá»Į ya
Ġá»Į ká»į
Ġá»Į st
Ġá»Į dáº¹
Ġá»Į lÃ¡dÃł
Ġá»Į sirelia
lan tic
rá»į mu
ĠnÃ¬ bi
ĠnÃ¬ gbÃł
ĠnÃ¬ yÃ¬ÃŃ
wu ro
wu mi
Ġoni ti
Ġoni ri
Ġoni le
Ġoni we
Ġoni ma
Ġoni tan
Ġoni royin
Ġoni rawo
Ġoni koro
Ġoni kikan
Ġoni sayensi
Ġoni atomu
Ġoni gbagbo
Ġoni yeye
ĠyÃŃ Ã³
ĠyÃŃ gbÃł
ĠyÃŃ kÃ¨
ĠyÃŃ yapa
ĠmÃ³ ra
ĠmÃ³ lÃ©
ĠmÃ³ fÃŃÃ¬mÃ¹
sa fáº¹
sa tion
sa enia
Ġmu ra
Ġmu si
Ġmu ch
san ya
san na
san dro
Ġodun run
mÃ³ lÃ¨
tÃ¬ jÃº
tÃ¬ Ã¬kÃ¬
ĠÃĪ rÃ²
ĠÃĪ yÃ©
ĠÃĪ sÃ³
ĠÃĪ kejÃ¬
ĠÃĪ wonÃ¬dÃ¡hÃ¹n
ĠÃĪ DÃĪ
bun mi
Ġlori sirisi
oni fo
Ġá»įmá»į ge
ĠdÃŃ po
ĠdÃŃ dáº¹
ĠdÃŃ dÃºrÃ³
ĠdÃŃ Ã¡má»į
ĠMa e
ĠMa t
ĠMa ma
ĠMa bu
ĠMa ha
ĠMa ur
ĠMa ris
ĠMa ss
ĠMa ham
ĠMa uri
ĠMa lta
ĠMa jor
ĠMa sters
ĠMa gde
ĠMa jemu
ĠMa gazine
ĠMa ures
ĠMa lokun
ĠMa joli
ĠMa gic
ĠMa yotte
Ġise se
Ġise po
Ġise siro
pÃŃn lÃ¨
kÃ© kerÃ©
kÃ© Ã¨dÃ¬
kÃ© yÃ©kÃ©
rÃł m
rÃł wÃ²
rÃł sÃŃÃ¬lÃ¬
Ġfe se
Ġfe li
Ġfe ma
Ġna du
fe le
fe rino
fÃ¡ rÃ¡
fÃ¡ fÃ¡
Ġlá»į pá»į
Ġgbe ko
Ġgbe yewo
Ġáº¸ nÃ¬kan
ÃłÃ¬ s
Ġwi wopo
Ġjo jo
Ġjo yÃ¨
Ġjo yin
Ġjo gÃºn
jÃ© rÃŃÃł
ĠfÃ© ran
al in
al fa
al ler
al len
Ġagba ese
sÃ¨ gbÃ¡
bÃ² bÃ²
lÃ² pÃ²
lÃ² mÃ¬ÃŃrÃłn
ĠojÃº lÃ©
Ġka bi
Ġka la
Ġka ta
Ġka láº¹
Ġka kakiri
Ġ" "
dara da
dara má»į
sÃ³ rÃŃ
sÃ³ dÃŃ
sÃ³ mÃłÃ¡lÃ³
Ġmaa pu
st ru
st one
st ructure
wÃ¹ jo
wÃ¹ rÃ¹
ĠlÃ¡Ãł rÃ²
ĠbÃ¨ bÃ¨
ĠAf ri
ĠNo am
ĠNo vi
nyÃŃ n
are s
fun jowo
su gbon
tun tun
ĠÃ© e
ĠÃ© Ã©
ĠÃ© Ã¨
ĠÃ© Ã¨dÃ¬
Ġojo kandinlo
Ġojo gbom
ĠmÃ©jÃ¬ lÃ©lÃ³
ĠkÃ© jÃ¬
ĠkÃ© kere
ĠkÃ© jÃ¬lÃ¡
ĠNi g
ĠNi desand
ĠNi jáº¹r
ĠbÃł a
tÃł bÃŃ
tÃł pÃ¡
tÃł dÃŃn
tÃł lÃ¬
ĠÃłkÃ³ já»į
ĠÃłkÃ³ sÃ³rÃŃ
kÃłn lÃ©
fo mo
fo ju
fo und
fo rami
19 13
19 43
19 27
19 56
19 39
19 52
19 69
19 59
19 64
ĠdÃº kÃ¹Ãº
ĠdÃº kÃłÃ¡
tori pe
ha bi
Ġolu gba
Ġolu segun
Ġolu darapomora
Ġolu musin
pi g
pi ri
pi on
pi ce
pi rini
pi ano
pi cal
ĠNÃłÃ¬ jÃ©rÃŃÃł
dá»į ta
sÃł bÃŃ
sÃł Ã¡n
sÃł gÃ¡
ĠayÃ© Ã¨
ĠayÃ© bÃ¡yÃ©
á¹£e fÃŃnnÃŃ
ĠU K
ĠU gbo
ĠU kra
ĠU maru
ĠU forami
Ġpo julo
Ġpo ly
Ġpo et
Ġpo lÃ³wÃ³
mÃº bá»į
mÃº wÃłgÃºn
ĠOrÃŃ s
ĠOrÃŃ lÃ©
ĠOrÃŃ kin
bÃ¹ rÃ¹
ĠkÃ¬ jikÃ¬
Ġede ma
báº¹ ráº¹
he s
he im
he at
ou t
ou se
ou Ã«
Ġiye meji
ĠBa le
ĠBa ki
ĠBa ha
ĠBa den
ĠBa Ã¡lÃ©
ĠBa raka
ĠBa bangi
ĠBa rack
ĠBa uchi
ĠBa ÃłjÃŃ
ĠBa dagry
ĠBa yaji
kin g
kin dÃ©
ĠOlo pa
ĠOlo fin
Ġgi ri
ĠKe jÃ¬
ĠKe shi
ĠDe e
ĠDe l
ĠDe sert
rÃ¹ u
rÃ¹ lÃ©
rÃ¹ kÃ³Ã³
ĠmÃ² Ã²kÃ¹n
kÃ¹ rÃ³
kÃ¹ tÃ©
ĠmÃŃ lÃŃá»į
ĠmÃŃ ÃŃrÃłn
ĠÃ¬dÃŃ wÃ³
ĠlÃ² dÃ¬
ĠAka la
ĠAka dáº¹
ĠAka demy
ĠOlÃ³ ye
ĠOlÃ³ wÃ¡lÃłgbÃł
Ġtáº¹ le
Ġká»į rin
Ġká»į á»įkan
pÃ¨ lÃº
Ġ3 3
Ġ3 7
Ġ3 8
Ġ3 9
Ġ3 00
Ġ3 000
ĠjÃ¡ ko
ĠjÃ¡ lÃ¨
ĠjÃ¡ bÃ²
rÃºn tÃ³
Ġaye joun
Ġaye odeoni
Ġaye raye
ĠfÃŃ fÃ²
ĠfÃŃ fÃ©
ĠfÃŃ fá»į
ĠfÃŃ dÃŃÃ²
Ġja do
Ġja po
fu fu
fu lde
Ġawo Ã²n
ĠsÃ¡ lo
ĠsÃ¡ fÃ©
ĠsÃ¡ bÃłÃ¡
Ġpáº¹ kipáº¹
Ġapa kan
Ġapa ipin
pÃ© Ã¨
ĠÃ¬wÃ¡ rÃŃ
ĠÃ¬wÃ¡ sáº¹
ve d
anu atu
ly mph
Ġsa fi
Ġsa tan
Ġsa sa
Ġsa kitiyan
Ġsa tunse
Ġnigba to
LÃ¡ yÃ©
LÃ¡ báº¹
jÃ¹ mÃº
gÃŃ yÃł
lÃŃ fÃŃÃł
sin g
sin ki
Mo dern
Ġye wo
Ġye ye
joko vic
ĠolÃ¹ s
ĠolÃ¹ tÃ¨
ĠolÃ¹ sÃ²
ĠolÃ¹ dÃŃje
ĠolÃ¹ pilÃ¨sÃ¨
ĠAlÃ¡ kÃ²
ĠAlÃ¡ rÃ©
ĠAlÃ¡ pÃł
Ġsá»į kun
ĠpÃ² we
ĠOn oja
es z
ana filasisi
ana landi
ĠIle asofin
Ġ201 4
OrÃŃ láº¹
OrÃŃ kin
Ġra da
Ġra darada
ter loo
ara lu
nÃ¡ ÃłnÃ¬
Ġgbo ko
Ġgbo mo
Ġgbo ye
Ġgbo gun
Ġgbo julo
Ġgbo kiki
Ġgbo lohun
Ġgbo jule
ati si
Ġagbe re
Ġagbe de
Ġagbe kale
Ġagbe hinde
Ġidi e
Ġidi l
Ġidi po
ĠÃ¬yÃŃ n
ĠÃ¬yÃŃ pÃł
ĠÃ¬yÃŃ sÃ³dÃŃ
Ġbaba ÅĦlÃ¡
Ġnitori e
ĠirÃº gbÃ¬n
ĠmÃ¡ jáº¹
jÃ¡ wÃ¹rÃ¹
vi ce
vi ridae
Ġ) âĢĿ
Ġinu re
ho p
ho sa
ho ong
Ġ17 5
Ġ17 16
Ġ17 17
Ġ17 63
Ġ17 56
Ġ17 05
Ġ17 35
Ġsu b
Ġsu re
Ġsu ta
Ġsu bu
Ġsu uru
ĠkÃ¡ láº¹
ĠkÃ¡ dÃ¬ÃŃ
ĠkÃ¡ mÃ©
ĠkÃ¡ wÃŃ
ĠkÃ¡ lukÃº
ĠkÃ¡ lÃ¡mÃ¹
ĠkÃ¡ kÃłkiri
rÃŃn wÃ³
ĠpÃł se
ĠpÃł ro
ĠpÃł mÃ²
ĠpÃł gÃ³
ĠpÃł sÃ¡n
ĠpÃł jÃ¡wÃ¹rÃ¹
Ġyo jÃº
Ġtele tele
hi gbe
ĠsÃ© yÃ¬n
ĠÃłs á»į
ĠÃłs áº¹
ĠÃłs Ã²n
ĠÃłs Ã¡lÃ©
ĠÃłs Ã¹njÃ¹
ĠÃłs kÃ¬yÃ¨sÃŃ
BÃ¡ wo
rÃ¡n s
rÃ¡n tÃŃ
rÃ¡n kÃº
Ġele gbe
Ġele yo
Ġele ct
Ġele ment
Ġele egun
Ġele sese
ĠÃ²kÃ¨ rÃ¨
ĠTo yin
Ġas Ã¡lÃ¨
Ġas semb
ĠsÃ³ de
ĠsÃ³ jÃº
ĠsÃ³ pin
ĠsÃ³ tÃ²
ĠsÃ³ dÃ²
Ġmáº¹ rin
ĠOlÃº bo
ĠOlÃº wÃł
ĠOlÃº mÃ²
ĠOlÃº bÃłdÃłn
ĠOlÃº bÃ¡kÃŃn
tÃº má»į
tÃº sÃ¬n
tÃº kÃ¡
ĠÃłÃł bo
ĠÃłÃł ráº¹
ca s
ca bulary
Ġoju se
Ġoju tu
Ġoju ibi
Ġoju onai
Ġida ji
Ġida ran
Ġida duro
Ġida abo
Ġida loruko
dáº¹ káº¹
inu a
Ġipo longo
Ġipo mÃ©jÃ¬
Ġro le
Ġro lu
Ġro yin
rÃ¬n lÃ©lÃ³
rÃ¬n ÃłjÃ²
rÃ¬n lÃ©lÃ¡ÃłÃ¡
ĠsÃ² rÃŃ
Ba by
Ba ptist
Ba ktÃ©rÃŃÃł
Ġya gbe
ĠarÃ¡ yÃ©
Ã¨rÃ¨ kÃ¨rÃ¨
ĠMo st
ĠMo ssi
ĠMo dupe
ĠMo salasi
ĠMo scow
ĠMo jave
ĠdÃł adÃ¡a
ĠAla de
ĠAla bama
ĠÃ¬pÃŃn lÃ©
ĠÃ¬pÃŃn yÃł
ĠKa te
ĠKa mo
ĠKa kan
ĠKa lu
ĠKa yo
ĠKa pu
ĠKa sh
ĠKa yode
ĠKa lifonia
mini omu
tÃºn jÃŃ
tÃºn pÃ¨
Ġku le
Ġyin yin
ĠelÃ© de
ĠelÃ© gbÃ¨
ĠelÃ© sÃ¨
ĠelÃ© mÃ²sÃ³
ĠerÃ© e
gu ai
gu ese
gu eri
gu illa
pu la
enu ko
ĠÃ¬yÃ¡ ra
kÃºn rin
kÃºn rÃ©
kÃºn nÃ¹
kÃºn dÃ¹n
ver se
ĠdÃ³ ri
ĠdÃ³ ko
ĠdÃ³ jÃº
ĠOba luaye
ĠÃĴkÃ¨ s
ĠÃĴkÃ¨ ba
ĠÃĴkÃ¨ nÃŃs
ĠÃĴkÃ¨ kÃłngÃ¡
Ġli ri
Ġli ana
ĠÃłgbÃł lÃłgbÃł
KÃ² kÃ²rÃ²
ĠV es
Ġiru ipele
ris ter
Ġ193 5
co me
co unta
Ġan gbadura
Ġan faani
han ti
ĠbÃ³ rá»į
ĠbÃ³ tiláº¹
ĠAl bert
ĠAl lian
ĠAl haji
ĠAl licin
tÃ¡ Ã¡
tÃ¡ zar
ĠtÃº tÃ¹
Ġaya maapu
ĠkejÃ¬ lÃ¡
ĠkejÃ¬ dÃŃnlÃ³gÃºn
ĠkejÃ¬ lÃ©lÃ³gÃºn
ci Ã³
ci pe
ci al
ci os
ci um
ci ÅĦski
din g
din ku
din lá»įgá»į
din amarca
Ġipa mo
Ġipa lara
Ġipa lemo
ĠlÃł bÃł
Ġigbe ka
Ġigbe yin
Ġigbe ga
Ġigbe kale
Ġigbe yewo
ÃĮdÃŃ lÃ©
ĠÃłpÃ³ tÃŃ
Ġ16 46
Ġ16 38
ĠMar si
ĠMar wa
ĠMar tina
ĠMar gueri
Ġof fi
gan ran
gan isation
Ġ4 8
Ġ4 9
Ġleyin ju
bÃ¬ tÃ¬
Ġoun koko
ĠÃ¬bÃ¡ tan
ĠJu tland
káº¹ rin
káº¹ hÃ¬n
Ġoro bo
Ġoro ise
Ġorun ko
Ġfo ri
Ġfo rÃŃ
Ġfo Ãºn
Ġfo be
Ġfo hÃ¹n
Ġfo riko
Ġfo lÃºkÃ©
Ġfo undation
fÃŃ Ã¬sÃ¬
ne tt
Ġgbi lÃ¨
Ġgbi láº¹
Ġ5 000
ĠjÃŃ jáº¹
ĠjÃŃ jÃ³
ĠjÃŃ jÃł
ĠjÃŃ juwÃ³
Ġyan rin
Ġyan gÃłn
ĠgÃŃ gÃ¹n
ĠSe les
ĠSe mitic
ĠSe basti
ck en
man do
as kalaki
ĠÃłgbÃ© yÃ©
ĠÃłgbÃ© kÃł
ĠÃłgbÃ© jÃ¡de
ĠÃłgbÃ© kaláº¹
ĠRe ese
ĠRe ggae
ĠRe ich
Ġbu yÃ¬
ĠÃłÃ¡ do
ĠÃłÃ¡ rÃŃ
ĠÃłÃ¡ ráº¹
Ġ192 7
sÃ² kÃ¨
Ġ9 0
Ġ9 3
Ġ9 9
Ġ9 43
Ġ11 7
ĠIs la
ĠIs aac
ĠBo kan
ĠBo xer
ĠBo jÃºwo
kÃ²Ã³ so
ron ka
Ġnomba mewa
ĠÃłfi bÃ²
ĠÃłfi yÃ¨sÃŃ
ĠAn ti
ĠAn til
ĠAn dea
ĠAn toine
ĠAn nie
dia c
ĠLÃ¡ ÃŃ
ĠLÃ¡ pÃ¡
ĠLÃ¡ oyÃ¨
ĠLÃ¡ rÃ¹bÃ¡
son u
ĠSa bin
ĠSa bon
ĠSa hara
ĠSa turn
olo ro
yÃ¡n rin
Ġc y
Ġc ar
Ġc ard
Ġc entu
Ġc redi
Ġc orre
Ġdo ko
Ġdo pin
Ġdo tun
Ġdo kita
Ġdo lÃ³Ã²
ĠAkin gbe
ĠAkin tola
ĠmÃ©jÃ¨ Ã¨ji
Ġos Ã¹n
Ġos oni
Ġosu won
Ġosu po
Ġnibi i
Ġnibi kibi
ĠÃłgbÃ¡ te
ĠÃłgbÃ¡ kÃ²
ĠÃłgbÃ¡ jÃ©
ĠÃłgbÃ¡ lÃ¡ayÃ©
Ġran jÃº
hin e
ise ala
mÃł wÃ©
mÃł kin
Ġabo ju
ĠsÃ¨ kejÃ¬
uni or
NÃŃtorÃŃ pÃ©
ĠÃºn lo
ĠÃºn dÃ¡
pÃŃ Ã¬
Ġtu má»į
ĠtÃ¬ e
ĠtÃ¬ re
ĠolÃº kÃ¡lukÃº
Ġ15 3
Ġ15 00
Ġ15 40
Ġ15 54
Ġ15 02
Ġ15 07
lasi ka
ĠLa un
ĠLa ur
Ġon ka
Ġon ÃŃnÃ¡
Ġase ye
Ġase po
Ġase ku
Ġase odeoni
Ġase fisi
Ġasi pirini
Ġin kan
Ġin si
ĠkÃ¹ rÃ²
ĠkÃ¹ kÃ¹tÃ©
ĠÃ¬lÃł kÃłkÃł
ĠOrile e
ĠBen e
ĠBen g
ĠBen nett
ĠMi k
ĠMi má»į
ĠMi rÃ³
ĠMi lan
ĠMi ff
ĠMi chele
ĠMi cron
ĠMi lionu
ĠalÃ¡wÃ² mÃ³
Ġfara o
Ġfara mo
Ġfara sin
wÃº rÃł
Ġsun ki
Ġsun kÃºn
Ġikan ni
ĠÃ¬gbÃ© sáº¹
ĠÃ¬gbÃ© kaláº¹
ĠÃ¬gbÃ© wá»įra
Ġga an
Ġga laksi
Ġga uss
ĠJo an
ĠJo wo
ĠJo sef
jin ÃŃÃł
ph ouÃ«
Ġji yan
Ġji yÃ¡n
ĠyÃ© ni
ĠyÃ© wÃ¡ndÃ©
ĠyÃ© kÃ©yÃ©kÃ©
Ġero okan
Ġ6 00
Ġ6 39
Ġai mo
Ġai si
Ġai pe
Ġai ku
Ġai á¹£e
Ġada ba
Ġada se
Ġada jo
Ġada wa
Ġiya tá»į
qu is
qu id
qu ire
qu anti
Ġato jo
Ġato rawo
ĠlÃ¡Ã¬ bÃ¡
ĠlÃ¡yÃ© lÃ¡yÃ©
ĠRo se
ĠRo berts
Ti ra
men d
men to
Ġaso po
ĠlÃŃ tÃŃ
ĠlÃŃ lÃ¹
ĠlÃŃ ifi
Ġláº¹ áº¹kan
ĠÃ¬dÃ¡ jÃŃ
ĠÃ¬dÃ¡ hÃ¹n
ĠÃ¬dÃ¡ sÃ¬kÃ²
ĠyÃ¡ ra
ĠdÃ¬ rÃ²
ĠdÃ¬ mÃº
ĠdÃ¬ tÃ¨
Le e
Le wis
Ma x
Ma li
Ġsan ra
Ġsin mi
Ġsin yi
Ġsin gle
Ġiba le
Ġiba lo
Ġ12 00
ĠrÃ¡n mÃº
ĠJa zz
ĠJa gbÃ³jÃº
ĠJa cob
ĠJa kande
ĠJa yÃ©jayÃ©
ĠJe mibe
ĠpÃ¡ ÃłnÃ¹
ene gro
ĠÃłÃ¬ ko
ĠÃłÃ¬ lera
ĠÃłwÃ² mÃ³
tic les
tic ulation
ric al
ĠFran k
AlÃ¡ rÃ¨
AlÃ¡ pÃł
AlÃ¡ dÃ¹ÃŃgbÃ²
Jo e
Jo hann
Ġpi le
Ġpi pin
Ġpi pá»įn
Ġpi lus
ĠBra ithwaite
ĠkÃ©kerÃ© owÃ³
gh ts
mÃ¡ wÃ¡
mÃ¡ á¹£e
mÃ¡ ÃŃkÃł
Ġ7 7
Ġ7 9
Ġnikan soso
Ġirin s
Ġirin se
Ġpin ya
Ġdan to
ĠNe ander
ĠNe dalandi
Ġáº¹ni tÃŃ
ĠLe e
ĠLe g
ĠLe o
ĠLe yin
ĠLe Ro
ĠLe opo
ĠLe wis
ĠLe ib
ĠLe kta
ĠLe vine
18 4
18 6
18 40
18 30
18 17
18 52
Ġwu wo
Ġwu yÃ¬
ĠkÃł we
ĠkÃł kÃł
ĠkÃł kÃºn
Ġlai pe
Ġgbajumo julo
ĠYou th
ĠGe ra
ĠGe eCee
ĠCa pe
ĠCa the
ĠCa rolina
ĠCa stle
ĠlÃ¡ÃłÃ¡ rÃ¬n
pile ko
Ġkáº¹ fin
Ġkáº¹ tÃłdÃŃnlÃ³gÃºn
ĠkÃ¡Ãł dÃ¬
ril ler
ĠNa Ã¬
ĠNa si
ĠNa ro
ĠNa hu
ĠtÃ² lÃ³
ĠtÃ² sá»į
Ġodi wá»įn
Ġabi kun
Ġsáº¹ falos
Ġsáº¹ rá»įmu
ĠZ im
ĠZ aka
ĠZ ea
ĠCh u
ĠCh loe
ĠCh omsky
ĠCh allen
ĠPa pa
ĠPa ta
ĠPa tri
tani a
tani an
min Ãł
ĠÃ¬jÃł gbara
Ġjá»į já»į
ĠAr yan
ĠAr thur
ĠAr delia
Ġpara de
Ġpara po
ĠGu ru
ĠGu ardian
ĠDo c
ĠDo go
ĠDo wn
ĠDo gon
ĠTa y
ĠTa ÃŃn
ĠTa li
ĠTa ku
ĠTa ine
ĠPo st
200 6
Ibi kÃŃbi
Se gun
Se ptember
Se goye
for mati
tor s
Ġpupo julo
Ġewu ra
ĠLi bra
ĠLi thuania
ĠHa waii
Is lam
ral s
ing ton
ĠAp peal
ĠAra b
ĠAra p
ĠAra wa
ĠAra bia
ĠAra alu
ĠAra bic
Ġonimo okomooka
199 1
199 2
199 3
199 4
199 5
Ġ0 2
Ġape ere
Ġlu u
ĠkÃłn Ã¹n
ĠkÃłn ga
ĠÃłn fÃłÃłnÃŃ
ĠjÃ¬n nÃ¡
Ġee rin
ĠOlu rin
ĠOlu ki
ĠOlu muyiwa
ĠOlu fokan
Re y
dÃ¡n Ã¹
ksi sti
olu gbe
oju ri
oju omi
Ġafi pagboko
Ġiko okan
Ġiko ole
Ġiko kanla
Ġiko woje
ĠfÃł bÃ²
ĠyÃ²Ã³ wÃ¹
Yor u
Ġ8 4
Ġ8 5
ĠÃ¬rÃ² yÃłn
ĠpÃŃ pÃ¨
ĠpÃŃ pÃ²Ã²yÃ¬
ĠfÃ³ lÃºkÃ©
ĠfÃ³ nÃŃÃ¬mÃ¹
ĠyÃł lÃł
Ġá»įgá»į rin
ĠMe da
ĠMe di
ĠMe dic
ĠMe inho
ĠmÃ¡rÃ¹n Ãºn
Ara bia
Ara kunrin
Lati gba
OlÃ³ oru
OlÃ³ gbÃ¬ÃŃn
per c
per anto
per mission
Ġoke te
Ġagbo lÃ©
Ġagbo wÃ³
Ġagbo olÃ©
Ġagbo finro
ĠMu ta
ĠMu muye
ĠMu iska
ĠDa ura
ĠDa ven
ĠDa homey
Ġ188 7
Ġ188 8
illi e
Ko si
at rist
at rice
ii i
ii be
ssi c
ssi s
Ġwe we
Ġire ti
Ġire le
Ġire landi
Ġisi paya
ĠÃłtÃºn yÃ¨
ĠÃłtÃºn wÃ¡
ĠÃłtÃºn á¹£e
ĠÃ¬dÃł rÃ²
ĠfÃ¬ rÃŃ
Ġyáº¹ wo
Ġyáº¹ páº¹ráº¹
ĠOmo we
ĠSo de
ĠSo ma
ĠSo ja
ĠSo sa
ĠEurope an
Al Ã¡ÃłfÃŃn
Bo un
Bo bo
Bo ston
dro ss
dro gen
va tory
Ġawa on
ĠrÃ© Ã¨yÃłn
ĠBri tain
ĠBri tish
ĠKo gi
ĠKo sovo
ĠFa y
ĠFa bunmi
Ġbee be
ban k
ban jo
sti n
Ġabu ku
ĠÃ¬gb anÃ¬
ĠÃ¬bÃ¨ Ã¨rÃ¨
ĠAye re
ĠSch oo
Ġá¹£áº¹ da
Ġkere si
Ġkere ju
ĠRi o
ĠRi ks
Ġ189 1
Ġ189 6
La gos
La teef
La gelu
Ġiji se
Ġiso kan
Ġiso topu
á¹¢ Ã©
á¹¢ ÃłngÃ³
á¹¢ ugbá»įn
á¹¢ iá¹£e
Ġkeji la
the a
the id
LÃ³ rÃŃ
LÃ³ jÃº
fÃŃn fÃŃn
Ġrin ÃłjÃ²
Ġijo si
Ġijo ye
Ġipin u
Ġipin nu
ĠÃłká»į lÃ©
Ġmarun dinlogbon
ĠrÃ¬n rÃ¬nÃłjÃ²
Ġfil m
Ġmii rÃłn
ĠÃ¬sÃł láº¹
ĠÃ¬sÃł kÃ²
ola po
sÃ¡ rÃ©
sÃ¡ gbÃ©
sÃ¡ rÃ¡
Ġabe atomu
Ġilo Ã©
Ġiran se
Ġiran lowo
ĠTi mes
198 5
10 1
10 4
10 10
DÃŃ pÃ²
DÃŃ rÃ©
DÃŃ ráº¹
DÃŃ Ã¡má»į
ad r
Ġoorun titan
ĠgbÃ² n
ĠApa ilaorun
ĠApa rapÃ¡
ĠtÃ³bi i
ĠNÃŃ torÃŃpÃ©
ĠSu cre
ĠKi kongo
ĠKi tts
ĠtÃ¡ ti
ĠtÃ¡ bÃŃ
ĠtÃ¡ bÃł
ĠtÃ¡ bÃ¬
ĠtÃ¡ bÃºrÃ²
Ġija gun
ĠÃłmÃº s
ĠÃłmÃº yáº¹
ĠÃłmÃº lÃ¹mÃ¡
ĠbÃº rÃº
ĠbÃº rÃ©
ĠÃ¬pÃł kÃ³
ĠÃ¬pÃł Ãłrá»į
Ġpro toko
Ġpro tonu
Ġpro karioti
Ġyá»į rÃŃ
ĠrÃ³ ye
ĠrÃ³ dÃ³
ĠrÃ³ jÃ¹
ĠBu kar
ĠBu dda
ĠBu oapa
ĠÃĴgbÃ³ jÃº
ĠÃĴgbÃ³ gbÃ³dirin
Ġpari wo
usa ri
che z
che lor
che mical
ĠWa terloo
21 7
Ki ko
Ki rilliki
Lo dun
Lo kossa
Ãī Ã©
Ġaá¹£ a
Ġaá¹£ ojÃº
Ġaá¹£ Ã²n
ĠÃ¬kÃ³ ni
ĠÃ¬kÃ³ sÃŃ
ĠÃ¬kÃ³ rÃŃta
ĠÃ¬kÃ³ rajá»į
Ġfá»į to
Ġdin wo
ĠAda m
ĠAda ma
ĠSt en
ĠWe ir
Ġgbigba lo
An d
An n
An gola
An dre
De an
Eni yan
Si waju
Si erra
Si mÃ³n
fÃº Ã¹fÃ¹
ze e
Ġaa ro
Ġale kun
Ġale min
Ġale gbogi
Ġiá¹£ u
Ġiá¹£ Ã©
ĠÃ¬tÃ³ bi
ĠÃ¬tÃ³ jÃº
Ġyor u
Ġyor Ã¹bÃ¡
ĠdÃ² kÃº
ĠAdÃ© s
ĠAdÃ© nlÃ©
ĠAdÃ© bÃ³yÃ¨
ĠAdÃ© pÃ¨lÃ©
ĠAdÃ© dÃ¨jÃ¬
ĠIta li
ĠIta lian
Ġ190 7
Ġ190 9
ĠBe au
ĠBe ring
ĠBe acon
Ġ23 00
ĠGi u
ĠGi risi
ĠGi zenga
Ġáº¹gbáº¹ gbáº¹
Ġmerin dinlogun
Ġmerin dinlogoji
Ġ187 2
Ġ187 5
Ġ187 7
ĠkÃ©rÃ© je
ĠNew port
TÃ³ gÃ²
rg Ã¡nÃ¬
sÃ¡n yÃ¬nnÃŃnbÃŃ
xi a
Ãģ AY
Ġal gorithm
Ġamo ju
Ġike rin
Ġike wa
Ġike hin
Ġkun a
Ġkun rin
tin y
ĠÃ¬pa mÃ³
ĠÃ¬pa lÃ¡ra
ĠtÃŃÃ³ rÃ¬
ĠyÃ¨ pÃ¨
ĠAs am
ĠAs same
ĠOlÃ¹ ko
ĠOlÃ¹ kÃ³
ĠBÃŃ bÃ©
ĠBur ji
Ġdida mo
ĠGuusu ilaorun
ĠLu cid
ĠLu mumbi
ĠLon ge
chi atrist
ther spo
our s
Ogun logo
Ġobi riki
ĠadÃ¡ rÃŃ
Ġayo sere
Ġayo komi
ĠabÃºlÃ© ko
ĠmÃł lÃ¡
ĠmÃł pÃ³
ĠmÃł ÃłlÃº
ĠIbi bio
ĠSer vice
16 8
Ç¹ báº¹
Ġ: -
Ġu se
Ġu raniom
Ġoselu arailu
ĠsÃł mÃ¬
ĠsÃł kÃ¡nÃŃ
Ġitu ra
Ġitu ka
Ġitu má»į
ĠÃłdÃ¡ yÃ©
tire re
ĠÃ¬fi yÃ¨sÃŃ
ĠpÃ³ pÃ³
ĠAd min
ĠAd ler
ĠAd vo
ĠAd van
ĠAd dison
ĠAd dams
ĠOr tho
ĠOr biti
ĠOr ganisation
ĠgbajÃº gbÃ¡jÃł
ĠÃ¬sÃ¨ lÃ¨
Ġha lÃ¨
Ġha ywhy
ĠHe pburn
ĠdÃłbÃŃ i
To pe
afi han
hu analandi
pan y
pan zee
ura sia
Ġno ti
Ġno des
Ġnla la
ĠtÃłn mÃ³
Ġalo di
Ġalo hun
Ġifi we
ĠÃłyÃ¨ wÃ²
ĠÃ¬á¹£ Ã²wÃ²
rio ts
rio rity
ĠrÃº sÃºsÃº
ĠBi u
ĠBi ba
ĠBi af
ĠBro z
ard t
ĠkÃºkÃº rÃº
Ġalawo funfun
ester man
BÃ© Ã¨
He beru
He esters
IS LAM
IS BN
In do
In di
In don
In formati
Ju lie
Ju piter
KÃ³ kÃ³
Olo ri
Olo gun
Olu da
Olu ilu
au tama
ff er
ff man
tt ento
tt fried
Ġaro ye
Ġaro so
Ġadi jo
Ġadi ye
Ġadi boyan
Ġina wolori
ĠÃ¬y Ã¡Ãł
ĠÃ¬so pÃ²
Ġgo go
ĠSi sokan
ĠGra f
ĠTe a
ĠTe tu
ĠTe liskopu
ĠCo te
ĠCo burn
ĠPortu gi
Ġ186 0
Ġ186 5
ĠVi enna
Ja ckson
sc endental
Ġalu fa
Ġaká»į já»į
Ã²n Ã©
Ġito wobo
ĠÃłlÃł ye
ĠÃłmÃ¬ á»į
ĠÃ¬rÃ¬n kÃ¨rindÃ²
ĠfÃ¡ yÃ©
ĠfÃ¨ sÃ¬
ĠjÃ¨ Ã¨jÃ¬
ĠAt lÃ¡n
ĠShe u
ĠShe ba
ĠShe ka
ĠKÃ³ ÅĦsÃ³nÃ¡n
ĠGa lile
197 6
Ġgiga julo
Ge esi
Mi chigan
OlÃº moyÃł
Pe te
pen dent
ĠobÃ¬ rin
ĠsÃº Ãº
ĠsÃº wÃ©
ĠsÃº yo
ĠsÃº yá»į
ĠsÃº wáº¹
ĠwÃ© rÃ©
ĠsÃŃlÃ© bÃ¹
ĠCom mon
ĠCom ple
ĠCom muni
ĠCom inform
ĠCom pany
Ġ180 4
Ġ180 5
Ġ180 6
Ġ180 7
ĠÃłgbÃ©yÃ¨ wÃ²
Ġafefe ayika
13 1
13 00
17 0
BÃ³ rá»į
GB A
GB ÃĴ
Idi ye
Pa pa
Ġoto si
Ġata a
Ġata are
ĠwÃºn i
Ġido kuta
Ġiro ra
Ġkaa ro
ĠdÃºn kÃ¹
ĠgbÃ¬yÃłn ju
ĠÃ²gbÃ³ nÃŃ
ĠrÃł rÃ¡
ĠIlÃ¨ s
ĠSta tion
Ġmimu daju
kÃ²rÃ² dÃº
dua lity
ĠalÃ¡gbÃ¨ de
14 4
Ch risti
Ch rist
Ch ristoph
Com po
fÃ³ sfÃ³
sy lvania
Ġx vi
Ġari so
Ġaje ji
Ġibu ra
ĠAde hun
ĠAde sina
ĠAde oye
ĠOni mo
ĠOni daraya
ĠOni dajo
ser burgh
ser vatory
Ġloju kokoro
Ġru ru
Ġru mÃ²
ĠIjo se
lÃ¡n dÃ¬
Ġisu le
ĠLÃº má»į
ĠLÃº kÃ¹
ĠFÃ¡ bÃ¹nmi
ĠPe dro
Ġomode binrin
ĠRa ji
ĠBaba lÃ¡wo
ĠAlÃ¡yÃ©mo re
Oba ma
Ġoru ká»į
Ġigb ÃŃn
Ġita ja
Ġiyo ku
ĠÃłdÃł ko
ĠÃ¬gbÃ¡ dÃ¹n
ĠÃ¬gbÃ¡ kejÃ¬
ĠÃ¬dÃ¬ bÃ²yÃłn
ĠÃ¬dÃ¬ mÃºláº¹
ĠÃ¬dÃ¡n Ã¡
ĠjÃ¬ jÃł
ĠAbi demi
ĠOmi okun
ĠOmi mah
ĠÃ¨Ã© bÃº
lati nu
ïĢ¨ïĢ¨ ïĢ¨ïĢ¨
ĠEle dua
ĠKan silo
ĠGri ffi
ĠLo bo
ĠLo koja
Ġcom ment
Ġcom mon
ĠTawa kalitu
AL E
Ana to
ato mic
ato rial
iba di
ĠÃį tÃ¡
Ġogb un
Ġoji ji
Ġoji ire
ĠojÃ³ un
Ġar ticulation
ĠaÃ¡ wÃ²
Ġapo ti
ĠsÃ¡n mÃ²
ĠÃ¬pÃ¨ nÃŃjÃł
ĠÃ¬tÃº sÃŃlÃ¨
ĠÃ¬tÃº paláº¹
ĠOyÃ¨ nÃºsÃ¬
Ġlopo lopo
ĠImo le
ĠImo ye
ĠIpa ri
ĠIpa de
ĠÃĮlÃł je
Ġmokan dinlogun
ĠKÃ© mÃŃ
ĠKÃ© nÃ¡ÃłnÃ¬
ĠTan gayika
ĠCon stantine
ĠCour se
ĠLan gbodo
ĠÃĢÃł rin
ĠPro spe
Ġkerin dinlogun
Ġgbigbe ka
Ġisise onina
58 6
AS H
Orile e
Orile ede
Ra ji
Ro berts
Ro berto
ef fici
odo r
à¤ ®
Ġnaira landi
Ġate we
Ġate piano
Ġafo baje
Ġafo yemo
ĠÃłrÃŃ fÃł
ĠÃłro jáº¹
una way
ĠÃ¬h Ã³
ĠÃ¬h Ã²hÃ²
ĠÃ¬gbÃ¨ rÃ©
ĠÃ¬gbÃ¨ kÃ¹n
Ġjin le
ĠOju oruntomoru
ĠÃ²sÃ¬ sÃ©
del berg
Ġlagbara julo
Ġgusu ilaorun
Ġá»įpá»į lá»į
ĠEd ger
ĠEd win
ĠKu omin
ĠGÃŃ ga
ĠGÃŃ rÃŃÃ¬sÃ¬
ĠGÃŃ rÃŃkÃ¬
ĠHu tu
ĠHu ll
ĠolÃ³Ã² tu
Ġ183 5
Ġ183 6
ĠsÃ¡yÃ© n
ĠNÃłÃŃ jÃŃrÃł
CO N
Na thaniel
fre y
gn er
jan tirere
van ni
vis or
zu ela
Ġch ange
ĠkÃ¨ nfÃ¨rÃŃ
ĠÃłso pÃ²
ĠÃłwá»į á¹ħ
ĠÃłkÃłn pÃ²
ĠÃłkÃłn pá»į
ĠÃłfÃ² yemá»į
ĠÃ¬yÃłn je
Ã¹wÃł sÃŃ
Ġfin Ã¡
ĠewÃ© ko
ĠOla sore
ĠOnÃŃ s
ĠOli ver
ĠÃ²Ã³ rÃ²
ĠÃ²Ã³ tá»į
ĠÃ²Ã² s
ĠÃ²dÃ² dÃ³
ĠÃ²pÃ³ pÃ³
orn ton
gbÃłÃ¡ rÃ¹n
ĠÃĮdÃŃ lÃ©
ĠÃĮdÃŃ Ãłgbo
ĠSha w
ĠSha ina
ĠYu guda
ÃĮy aa
ĠGo i
Ġisin yi
dura s
ĠPri yadar
ĠHun t
ĠHun ter
ĠWÃ³ n
ĠUS SR
ĠDemo kra
ĠNÃŃgbÃł tÃŃ
26 7
38 3
38 7
Ao ma
Ame rika
Bra sh
Bra sil
Da homey
Iya wo
Iya to
Ka sino
Ka yode
KÃ¡ yÃ²dÃ©
LÃ¡Ãł ti
alÃ¡ Ã¬
alÃ¡ rÃ¹n
ed kaia
fer on
gÃº dÃ¡
gÃº dÃº
pon le
Ġtaa ri
Ġak á»įni
Ġsaa ju
Ġiwu lo
ĠibÃ¬ kan
ĠbÃłtÃ¡ koto
ĠÃ¬je un
ĠÃ¬je rÃ²
ĠÃ¬je lÃ²Ã³
ĠÃ¬tá»į jÃº
ĠÃ¬rÃ¡n lá»įá¹£e
ĠÃ¬tÃ¨ sÃŃwÃ¡jÃº
ĠfÃŃn ra
ĠfÃŃn fÃŃn
Ġeme le
Ġeme fa
ĠAri el
ĠAri gidi
ĠAri gÃŃyÃł
ÅĦsÃ³n ÃłntÃ¬
ĠIran ti
Ġfii mu
âĢ¦ ,
ĠBal tic
ĠBÃłbÃ¡ n
Ġgbale jo
Ġgbale julo
ĠEn tertain
ĠEn cyclo
ĠEn nyluv
ĠEn yeama
ĠKar tesi
Ġfunra are
ĠJamai ca
ĠmÃ©jÃ© Ã¨ji
ĠÃĢjÃłnÃł kÃº
ĠPla th
ĠPla teau
ĠHar vard
ĠalÃ¡Ã¬ jáº¹
ĠalÃ¡kÃ² so
Ġdeede e
Ġalako ran
ĠsÃ¡Ã¡ bÃ³
Ġsul feri
Ġsul fur
Ġlile ro
hann on
ĠtÃ©lÃ¨ tÃ©lÃ¨
Ade kunle
Abi ya
AdÃ© wo
AdÃ© wá»įlÃ©
AdÃ© toun
Fo lÃºkÃ©
Fo lÃºkáº¹
Fran ce
Fran cis
Fran Ã§ois
Ida gbasoke
OL ÃĻ
eyin menu
eyin funjowo
ita ge
ksÃŃ jÃ¬n
ÃĻ BÃģ
ĠtÃ¹ s
ĠtÃ¹ bÃł
ĠlÃłÃ¡ sÃ¬gbÃ²
Ġide ra
Ġikun a
Ġimm une
ĠÃłrÃ² so
ĠÃłwÃ¡ mÃ¡
ĠÃłjÃ¹ má»į
ĠÃłtÃ© rÃŃgbÃł
ĠÃłtÃ¨ tÃ©
ĠÃ¬si mi
ĠÃ¬si sÃ¬yÃŃ
ĠÃ¬jÃ¡ sÃŃÃ²
ĠÃ¬jÃ¡ kulÃ¨
ĠAk Ã¬n
ĠAk higbe
ĠAjÃ© nifÃº
ĠAjÃ© gbÃ©milÃ©kÃ¨
ĠOwÃ³ labÃŃ
ÃĢjÃł gbÃ©
ĠNu pen
ĠkÃ²rÃŃ kÃ²sÃ¹n
ĠMus tapha
ĠÃĴkÃ² nÃŃsÃł
ĠKÃ² rÃ©Ãł
ĠKristi ani
ĠGbÃ¡ n
ĠGene vieve
Ġoriá¹£i ri
Ġkikan kikan
ĠTÃŃ Ã³rÃ¬
ĠTÃ¡ dÃ©
ĠLÃŃ tÃŃrÃ©s
ĠLÃŃ sÃłbÃŃ
ĠFi g
ĠFi chte
ĠÃ¬sÃ¡ kÃ³
ĠÃ¬sÃ¡ lá»į
ĠÃ¬sÃ¡ layÃ©
ĠWi therspo
ĠWi gner
Ġalagba se
Ġalagba ta
Ġonide ede
ĠMala yo
ĠMala gasy
ĠgÃ©dÃ© n
ĠÃłkÃ³jo pÃ²
ĠOlogun leko
ĠIleoba luaye
ĠKabi ru
stitu tion
ĠRich ard
ĠRich dad
ĠRich Dad
Ako jo
Ako wa
Agbe de
Ha ba
Ha usa
Igba ti
Lai se
Mar ch
Mar tin
Mar garet
Ori á¹£i
RÃŃ rÃ²
gro up
wis sesc
Ġtoni daju
Ġogidi gbo
Ġoval s
Ġat ona
ĠakÃ³ rajá»į
ĠasÃł mÃ¬
Ġson Ã¹
Ġwun ni
ĠÃ¬tu ra
ĠÃ¬tÃ© rÃŃgbÃł
Ġekun rere
ĠAb dusa
ĠAto ka
ĠAtÃ² pinpin
ĠOk ene
ĠÃ²kÃ² wÃ²
rea te
set ts
ĠIje bu
ĠIje sa
Ġtoju orun
Ġgu dugu
Ġgu itarist
ĠNor th
ĠÃĮJ áº¸
ĠÃĮla rÃ²Ã³
ĠYe kini
ĠDu ke
ĠorÃŃá¹£i rÃŃá¹£i
ĠTh is
ĠTh riller
ĠCar doso
ĠFon Ã³
ĠFon á»į
chu maran
chu setts
Ġojuorun tomoru
Ġcon ductor
Ġ149 4
Ġnumber s
ĠenÃ¬ yan
AN PP
Af ro
Di e
Gi ga
Iba gbepo
Iba sepo
Ijo id
ab stra
egun áº¹
á¸ ·
ĠØ Ń
ĠorÃº kÃ²
ĠamÃ² fin
ĠlÃº gbÃ³
Ġlon Ã¬ÃŃ
Ġib ani
Ġika pa
Ġika run
Ġkro matÃŃn
ĠÃłlÃ¹ mÃ³
ĠÃłbÃº dÃ¡
ĠÃłjá»į á¹£e
ĠÃłjá»į fagbÃ¡ra
ĠÃłpÃ¨ tÃºnpÃ¨
ĠbÃ¹ lÃłbÃ¹
Ġblo od
ĠÃ¬po lÃ³wÃ³
ĠÃ¬rÃº jÃº
ĠÃ¬rÃº bo
ĠÃ¬mÃº s
ĠÃ¬fÃł sÃ©
ĠÃ¬fara jo
Ġeke rin
ĠApÃ¡ gÃºÃºsÃ¹
ĠArÃ¡ rÃ²
ĠOde gbami
ĠOna ssis
ĠOna banjo
ĠOna olapo
ĠOdÃ¹ dÃ¹wÃł
ĠsÃŃso pá»į
ĠIdo ma
ĠIlo ko
Ġfifa ya
ÃĢÃł rin
ÃĢÃł fin
ÃĢpÃ³ n
ÃĢpÃ³ lÃł
ÃĢpÃ³ tÃŃ
ĠSÃ© rbÃŃÃł
ĠStan ford
ĠStan dard
ĠÃĴÃ² yÃ¨
ĠÃĴÃ² rÃ©
ĠÃĴÃ² run
ĠÃĴrÃ¬ á¹£Ãł
Ġree pu
ĠKon rad
ĠGáº¹ áº¹si
wÃ³pa má»į
Ġkilo mita
Ġá¹£Ã¨ gbÃ©ra
Ġá¹£á»į dáº¹
ĠChan dra
ĠFu ransi
LÃ¡kÃ²Ã³ kÃ²
LÃ¡kÃ²Ã³ tÃ¡n
Ġelemin tintinni
ĠAgbala aye
ĠÃłÃ¡dá»į ta
Ġjijáº¹ ni
ĠPoto u
ĠPoto gi
ĠPoto gÃŃ
ĠÃĢjÃłkÃ¡ lÃ³
Ġwee k
ĠYunifÃ¡ sitÃ¬
Ġimmun oassay
Ab eni
Ar yan
Ar thur
Cla ude
DÃ© lÃ©
Iji se
Iji yan
PÃ¡ kÃŃ
Ri ver
Ri chard
ob ronka
rÃ¬ÃŃ rÃŃ
sho p
ws ka
ÙĪ ÙĨ
à¸ ²à¸
Ġth ro
Ġtra che
Ġagb eni
Ġagb inrÃº
ĠagbÃ¨ ná»į
ĠsÃ¡Ãł bÃł
Ġlan tu
Ġimá»į ran
Ġifun pa
ĠÃłpa rÃ²
ĠÃłpa run
ĠÃłyÃŃ sÃ³dÃ¬
ĠÃłrÃ¬ má»į
ĠÃłkÃ¡ lÃł
ĠmÃºn Ã¡
ĠÃ¬ba mu
ĠÃ¬jÃŃ rÃ²rÃ²
ĠÃ¬kÃ© de
ĠjÃ² kÃ³
Ġegun gun
Ġegberun dun
ĠAdÃº dÃº
ĠIre land
ĠIda gbasoke
ĠIja mba
Ġfife sunkan
toko kal
ĠgÃº lÃ¨
ĠgÃº su
ÃĢgbÃ¡ lo
ĠbÃ¡n kÃ¬
mia sis
ĠÃĮjÃł yÃ¨
ĠÃĮkÃ¡ láº¹
ĠBÃł hÃ¡mÃł
ĠSh omar
ĠSÃ¡ kÃ¡rÃł
ĠMÃ¡ kindÃ©
ĠÃĴke lÃł
ĠÃĴke gbÃ¨Ã©
ĠEwe ka
ĠGan dhi
ĠGbÃ³ rowÃ³
Ġyiyan sipo
ĠDÃ© lÃ©
ĠDÃ© gbÃ©nlÃ©
ĠkÃ³Ã² dÃ¹
ĠkÃ³Ã² tÃ¹
ĠkÃ³Ã² rÃŃra
ĠColu mbia
ĠÃĢj Ãłn
ĠÃĢj á»įni
ĠFÃ³ lÃºkÃ©
ĠFÃ³ lÃºkáº¹
ĠPÃ³ pÃŃ
ĠPara guay
ĠPara guai
Ġhy potenu
Ġhy drogen
buru ku
ĠHel sinki
ĠWo fford
ĠMac laurin
BÃ¡mi jÃ¬
ĠAng likani
ĠLanguage s
ĠAlex an
ĠAlex ander
ĠMusso line
ĠnÃºklÃ© Ã¬
ĠnÃºklÃ© Ã¹
ĠnÃºklÃ© Ã³tÃŃ
ĠAzerbai jani
Ah Ã©rÃ©
AkÃ© wÃ¬
Abáº¹ ráº¹
Ca tholic
Con stitution
Ere kusu
Go won
Go ttfried
Gba jÃº
Gba jÃŃ
GbÃŃ gba
GbÃŃ gbÃ©
OT K
Sy mphony
dre y
sha pes
xo e
Ġvi rus
Ġá¹¢ ÃłngÃ³
Ġá¹¢ Ã¡ÃŃnÃł
Ġaá¹£e Ã©kÃł
Ġaá¹£e mÃ¡á¹£e
ĠamÃº lÃºdÃ¹n
ĠakÃ¡ pÃ²
gbÃŃ gbÃ³nÃ¡
Ġsch oles
Ġstre ss
Ġwor an
Ġiyan rÃ¬n
Ġijin láº¹
ĠÃłbÃŃ má»į
ĠÃłkÃ² rÃŃ
ĠÃłrÃ³ tÃ¬
ĠÃ¬kÃł wÃ©
ĠÃ¬rÃ¡ yÃ¨
ĠÃ¬rÃ¡ gberÃŃ
ĠÃ¬fá»į wá»į
ind say
ĠeÃ© rÃº
ĠerÃ¨ Ã©
ĠAz ores
ĠAwo ri
ĠAdÃ¡ mÃ¡wÃ¡
ĠÃ²do do
ĠÃ²jÃŃ gÃŃrÃŃ
ĠIwe ala
role um
ÃĢgbÃł lÃ¡
ÃĢrÃ² so
ÃĢrÃ² sá»į
ÃĢlÃł Ã¡
ĠÃĮwÃł rÃ¨
ĠÃĮjÃ¬n láº¹
ĠBus hoog
ĠBus hoong
ĠSáº¹ ntá»į
ĠMin ne
Ġbai fasiki
ĠEs peranto
ĠYo ung
ĠYun usari
ĠKur di
ĠKur ds
Ġisa koso
ĠTÃ² kunbÃ²
ĠTai pei
ĠTom Ã©
ĠCor sica
ĠCor tÃ¡zar
ĠCru ise
ĠFer nando
ĠFisi ksi
Ġdayo kanu
ĠÃ¬sin yÃ¬ÃŃ
ĠHou phouÃ«
ĠRom ani
ĠolÃ³rÃ³ gun
ĠWoo d
ĠWoo li
Ġalaa mori
ĠMari ana
ĠkÃ©Ã© kÃ¨Ã¨kÃ©Ã©
ĠUN ESCO
Ġposi julo
ĠBak wai
ĠOlÃ³Ã² gbÃ©
ĠOlÃ³Ã² tÃº
Ġasá»į táº¹láº¹
ĠMountain s
ĠkÃłnn ÃłngÃ³
ĠStre psi
rgani zation
Ġidoju ko
ĠPeter head
Ġkarb onu
ĠEdward s
ĠMont enegro
ĠfÃŃnnÃŃ fÃŃnnÃŃ
AB UDA
At lantic
Ajo gun
Ali ce
AgbÃ© inÃ¡
BÃ¨ bÃ¨
FÃ³ lÃºkáº¹
Iá¹£áº¹ láº¹
JÃ© lÃ©Ã³simi
KÃł kÃł
KÃł yÃ©fÃ¬
Kat la
Kat sina
OyÃ¨ lÃ¡rÃłn
Ph D
PÃŃ pe
PÃ³ pÃ¹
Pat rick
St ructure
TÃ¡ bÃ¬lÃ¬
abu ro
cor d
cro ft
lÃłn Ãłn
lÃłn dÃ¬
loni an
mbi an
ome try
py left
vil le
Ã¼ ller
Ð° Ð½
Ùħ Ø¯
ĠÏ Ģ
ĠÏ ĨÏį
Ġá¼ ĢÎ½Î
ĠtÃ¡a bÃ¡
ÃłkÃ³ s
ĠonÃ¬ gbÃłgbá»į
ĠalÃł ÃłyÃ¨
Ġake wi
Ġafá»į mÃºbá»į
Ġalopo meji
Ã²kÃº tÃł
Ġira ja
Ġije kuje
ĠÃłki yÃ¨
ĠÃłki yÃ¨sÃŃ
ĠÃłdÃ¬ ráº¹
ĠÃłtÃł ri
ĠÃłpÃ© rÃ²
ĠÃłjÃłnÃł kÃº
ĠÃłjÃłnÃł kÃ¹
Ġbin tin
ĠbÃłÃ¡ lÃ¹
ĠÃ¬rÃł wá»į
Ġper cent
Ġpoo lo
inf lation
Ġebu te
lee v
ĠAF CON
ĠAS E
ĠAti jo
ĠApo ste
ĠAbÃŃ mbÃ³
ĠAgbe lebu
ĠAwÃ³ tÃºsÃ¬n
ĠAir lines
ĠOÃ² duÃł
ĠOso ba
ĠOlÃ¹bÃ¡ tan
ĠOlÃ¹bÃ¡ kin
Ġlomo de
ĠIL Ãī
Ġtotobi ju
ĠlÃ¡n gba
ĠlÃ¡w ÃłnÃ¬
ĠlÃ¡tÃłÃ¡ rÃ²
laaka ye
ĠlÃ³Ã²Ã³ tÃ²
ĠgÃ¬ tÃ¡
Ġgoo lu
ÃĢsÃł mÃº
lÃ³fÃ² Ã²
Ġsopá»į má»į
ĠbÃ¡ÅĦ jÃ²
ĠNÃ¬ geria
ĠNai paul
poli tan
ĠÃĮbÃł rÃłpÃ¡
ĠBÃ¹ rÃłsÃŃÃ¬lÃ¬
ĠBre ton
ĠBoo ker
ĠSÃ³ dáº¹káº¹
ĠSam pras
ĠEconomi cs
ĠYÃ³Ã² ba
ĠYÃ³Ã² bÃ¡
ĠKaa ba
ĠKal ku
ÃĮta yo
ÃĮgbÃ© sÃ¨
ĠJen kins
ĠJas pers
rane ani
wÃ¡nilÃ© nuwÃ²
Ġá¹£i á¹£Ã©
ĠTar fa
ĠTrans kei
ĠCu rie
ĠChe mical
ĠCho kwe
ĠCham pion
ÃĴmÃ¹ Ã²
ÃĴmÃ¹ wÃ²
ĠFara o
ĠPu blic
ĠPu blish
Ġoloo gbe
Ġoloo tu
Ġolomo we
Ġoloksijini meji
Ġoloksijin meji
ĠhÃ³ rÃ³
ĠHy pertext
ĠalÃ¡Ã¬gbÃł bÃ²
Nico lÃ¡s
thro polo
ĠWin frey
ĠWat ch
ĠÃ¬tÃłnkÃ¡ lÃ¨
ĠdÃŃdÃ¬ bÃ²yÃłn
kÃŃni wÃŃn
mÃ¹tÃŃ para
tÃłlÃ©lÃ³ gÃ³
Ġoluse iriri
Ġoluse laakaye
Ġpota siomu
lÃŃs kÃ³pÃ¹
OrÃŃá¹£Ã¬ÃŃ rÃŃá¹£Ã¬ÃŃ
Ġelekt ronu
Ġelekt roni
Ġelektro lisisi
ĠModÃ¡ kÃ©
ĠModÃ¡ káº¹
Ġanti gini
ĠBow dich
ĠBogo tÃ¡
ĠBogo molov
ĠSada m
ĠJagun jagun
ĠLea gue
ĠCap riati
ĠkÃ¡ÃłÃ¡ rÃ²
ĠHad za
ĠYunifa sity
ĠYunifa situ
ĠKiri yÃ³
Ġhalo jin
Ġhalo jÃŃn
Que en
Que chumaran
ĠBrook s
ĠMorris on
Ġanigun meta
Computer wissesc
OnÃŃrÃº iyepÃºpá»į
Ġifowo pamo
Nobel priset
ĠPenn sylvania
Ġiwuwo si
ĠÃ¬pÃ¬n lÃ¨
ĠIrÃºnmo lÃ¨
Aba la
Aka demi
Aust ria
Ang lican
AkÃŃn mÃºwÃłgÃºn
Bis sau
Cal my
Chi ef
Eli zabeth
Ell en
Eng lish
FÃ¡ bÃ¹nmi
Gri isi
Hin du
Iro jinle
IgbÃ¡ kejÃ¬
KÃ© kerÃ©
Lan guage
Orisi risi
Sai du
Vo cabulary
Wil helm
Yi o
alo bo
cta tor
car diac
jun cts
ntÃŃn Ã¡rÃ¬
psy chiatrist
Å¡ o
ÅĽ ciÅĦski
Ëļ Ëļ
Ðµ Ñ
ĠÄĻ jÄĻ
ÃŃpÃł rÃ²
Ġnet work
Ġtryp tase
doni an
Ã©li x
ĠolÃ¹bÃ¡ tan
Ġoxy gen
Ġatu pa
ĠajÃŃ bogun
Ġawu re
Ġshun ukun
Ġif oro
Ġiri ran
Ġigbon wo
Ġipi lenukleu
Ġkal enda
ĠÃłb ÃłtÃł
ĠÃłk Ã¡ndÃ©
ĠÃłsÃŃ rÃŃ
ĠÃłdÃ© hÃ¹n
ĠÃłsÃ¬ se
ĠÃłgÃ¹n tÃłn
áºģ á»į
ĠÃ¬dÃ¨ nÃł
ĠÃ¬kÃ¬ lÃ²
ĠÃ¬ráº¹ sÃ¬
ĠÃ¬yáº¹ n
ĠjÃ¹n Ã¹
ĠgbÃłn gÃłn
ĠegÃºn gÃºn
Ġesu ke
ĠAN PP
ĠAlÃ© egunáº¹
ĠAá¹£ Ã²kan
ĠAya ba
ĠAgÃŃ rgÃŃ
ĠOL ÃĻ
ĠOb servatory
ĠOre sanya
ĠOgbÃ³ gbÃ³dirin
ĠOgÃ³ je
ĠÃ²lÃ¹ wÃł
ĠÃ²gÃ³ gÃ³rÃ³
kom puta
lorun diro
sep hine
ĠrÃºn pÃ¡
Ġroo k
ĠIka mudu
ĠIhi the
Ġtope julo
orgi a
siati c
ĠlÃ¡kÃ²Ã³ kÃ³
larin gotraki
ĠlÃ³jo ojÃº
row ther
luen za
ĠgÃ¡n gan
ĠgÃłÃłrÃł gÃł
Ġkoba si
ÃĢwÃ² rÃ²
nucle ar
mit ted
ĠNSA ID
ĠÃĮdÃ¨ rÃ¨
ĠÃĮkÃ¬ jÃł
ĠÃĮrÃ¡ gberÃŃ
ĠkÃ²Ã² sÃŃ
ĠBÃ² lÃŃfÃŃÃł
ĠBaa le
ĠSÃ¡n chez
ĠSho w
ĠSim one
ĠSul tani
ĠSkot landi
ĠMaa thai
ĠMai a
ĠÃĴpÃ³ mÃºlÃ©rÃ³
ĠÃĴgÃ¨ yÃ¬nbÃ³
Ġbakan a
ĠEti omi
ĠErin mi
ĠEnÃŃ kÃ²
ĠEtho pia
ĠYa kubu
ĠKÃ¨ sÃ¡gbÃ©
Ġlea der
Ġlekun rere
ÃĮyÃŃ sÃ³dÃ¬
ĠGor don
ĠDÃł da
Ġkirisi te
aado run
ĠorÃŃmÃ³Ã²gÃ¹n jáº¹
mera se
ĠkÃ³n kÃ³
ĠtÃłku rÃ²
ĠCun dinamarca
ĠCla y
ĠCas sius
ĠLis abi
ĠÃĢkÃł ÅĦgbÃ©
ĠÃĢsÃł yÃłn
ĠÃĢrÃ¡n Ã²
ÃĴrÃ¬ sÃł
ĠFried rich
ĠPhi ladel
ĠÃ¬sÃºn kÃ¬
ĠHon duras
ĠHum ph
ĠHit ler
Ġboju mu
ĠalÃ¡fe sÃ¨gbÃ¡
ĠalÃ¡fo hÃ¹npÃ¨
ĠWald heim
Ġalapa osi
ĠonÃŃkÃ³ ro
ĠIlÃ©kÃ© te
amb ridge
Ġoniyo fosforu
ĠÃĪsÃ¹ mÃ²rÃ¨
ĠMassa chusetts
Ġiseele min
ĠojÃºlÃ¹ mÃ²
ĠNij er
ĠdÃºkÃ¬ Ã¡
Ġolus ÃŃnÃł
Ġpoliti cian
ĠInd us
Ġapar theid
Ġyeke yeke
Ġradi ation
ĠsÃ³n sÃ³
ĠKaz akh
ĠÃĴkÃ¨Ã¨ wÃ¹
ĠVan dross
ĠVin cent
ĠVene zuela
tÃ¡fo rÃŃjo
ciali st
Ġigberin ojuorun
ĠMarku p
ĠMarsh all
Ġlaringotraki obronka
ronÃº wÃ²ye
ĠLÃ¡tÃ¬n Ã¬
Ġabori gine
ĠLado ke
Ġaseyo ri
Ġinf luenza
ĠMid dle
Ġaiba láº¹
ĠÃłÃ¬gbÃł bÃ²
ĠgbÃ¡mÃº sÃ©
ĠChristoph er
ĠPala cios
ĠGui ana
ĠLib ya
anoso ma
ĠtÃ¡lÃ¡ kÃł
ĠgbÃŃgbÃł ÃłyÃ¨
ĠBud dh
ĠStra it
entle man
Ġiá¹£a koso
ĠGio vanni
Ġorisii risi
ĠTheodo re
ĠNewspa per
Ġalpha bet
uten ant
Ġamunis in
ĠHei delberg
Inter net
ĠQuin cy
Ġvol canic
ĠRain er
ĠRaba hin
Ġcompo ser
Ġcommuni on
ĠXV I
ĠConcer t
ĠKudi rat
ĠOlÃ¡dÃŃ pÃ²
ĠÃ¬fÃ²rÃ² wÃ¡nilÃ©nuwÃ²
ĠOkon kwo
á¸± u
ĠkÃŃnnÃŃ kÃŃnnÃŃ
New found
Ġstrep tokokal
ĠRÃŃsÃł wÃ©
ĠorÃŃsiirÃŃsi i
ĠÃĢrÃ¡pa tÃ©
Ġhalte res
Ġmejidinla aadorun
ĠÃĴgbÃ²rÃ²gÃ¡n ÅĦdÃł
ĠÃ²gidÃ¬ i
ĠLÃģK ÃģAY
AkÃ² leÃ¨
AfÃł gÃ²
AmÃ© lie
Bri tish
Bang ladesh
Cos tello
Cast le
Det roit
ER E
ElÃ¨ yÃ¬ÃŃ
Equ atorial
Ehen n
Evon ne
Foni imu
Frien d
GbÃ² ngÃ¡n
Gree ce
Gram mar
HT ML
Ibra hin
IfÃ³ n
JÃł para
Jes sica
KW A
Kur t
Laa rin
Mas turba
Mir ko
Mid dle
MPE G
Nnam di
Ogb eni
Rys zard
Suni ta
Sak ya
SÃłlÃ¡ wÃ¹
Stock well
Volu me
Wan gari
Yan gÃŃ
atáº¹ gun
aduma radan
cki e
fsa t
ht ml
ifowo pamo
nma kin
nsÃ¡ ÃŃmÃ¹
pho tosynth
squ are
ubÃł s
ucli d
xre al
¾Î ¹ÏĤ
Î»Î±Î ¾Î¹ÏĤ
ÏĦ ÏĮ
Ġques tion
ĠnÃ© Ã¨
Ġtran scendental
Ġtenu mo
Ġthin ker
Ġtham strong
Ġtrans mitted
ÃłrÃŃ mÃ¡
Ġolati dijo
Ġaji leko
ĠabÃº lÃ¨
ĠadÃ³ pin
Ġalan takun
Ġarg onu
Ġact ress
Ġagin ju
Ġacce leration
gbÃ¡Ãł gÃºdÃ¡
Ã¬fo wÃ³pamÃ³
Ġspor ts
Ġnisisi yi
Ã²mÃŃnÃŃ kÃł
Ġiga soke
ĠirÃ¬n ra
Ġihu wasi
Ġifini mona
Ġker Ã¬ndÃŃnlÃ³gÃºn
Ġkli k
Ġking dom
ĠÃłwu já»į
ĠÃłkÃºn lÃ¨
ĠÃłfara he
ĠÃłgbÃ¬ gbÃ²
Ġboro kÃ©Ã¨dÃ¬
Ġbruce i
ĠÃ¬jÃº ba
ĠÃ¬gbe yÃłwÃ³
ĠÃ¬wÃ¹ wÃł
ĠÃ¬fu ra
ĠÃ¬kÃ¨n nÃ©
ĠÃ¬jÃłn bÃ¡
ĠprÃ³ tá»į
Ġpento si
Ġprim ary
ĠnÃŃsin sÃ¬nyÃŃ
ĠnÃŃtor Ã¬
Ġfra serburgh
Ġflo wer
Ġforu mu
ĠtÃŃtÃºn dÃ¡
rÃŃdÃŃ Ã¡nÃł
infe riority
Ġemar un
Ġebon y
Ġeukar yo
ĠAdi sa
ĠArÃ³ jÃ²
ĠAkun gba
ĠAsan te
ĠAjÃ¡ gbÃ©nulÃ©kÃ¨
ĠAgbáº¹ já»į
ĠAward s
ĠAila ju
ĠOdi iibe
ĠObÃ³ lÃ³gun
ĠOSOL E
ĠÃ¨sÃº rÃº
ĠÃ²rÃŃn kÃŃniwÃŃn
ĠÃ²fÃº rifÃº
ĠÃ²gÃ¹ rÃ²
ĠÃ²mÃ¬nÃ¬ ra
balÃ¹ fÃ²
Ġjeome tri
seven th
Ġloore koore
ĠIUPA C
Ġtopete adr
Ġsitos ÃŃnÃ¬
Ġlaela e
Ġatiláº¹ yin
ĠtÃ³sÃ² ro
ĠgÃ¬rÃ¬ pÃ¡
Ġkomi sanna
ÃĢki yÃ¨sÃŃ
ÃĢjÃ¨ jÃ©
ÃĢjá»į á¹£e
ÃĢbÃ© Ã²kÃºta
ÃĢtÃł dÃ¡
ÃĢkÃłn gbÃ©
ertifi cate
possi bility
ĠÃĮrÃ¬n kÃ¡nkÃ¡n
ĠÃĮgÃłn gÃłn
guntÃł rÃ¹n
Ġmobo lorundiro
Ġmolaai ka
ĠBÃŃn pÃ©
ĠBai yewu
ĠBes huanalandi
ĠSve riges
ĠSter k
ĠSol ferino
ĠSpan ish
ĠSwis s
ĠSinga pore
ĠMongo lian
ĠMill s
ĠMÃ¹sÃº lÃ¹mÃŃ
ĠÃĴyÃ¬n gbÃ²
Ġbauxi te
ĠEji gbo
ĠEst onia
ĠErÃŃn je
ĠEdin burgh
ĠEssi en
ĠECO WAS
ĠEgha gha
ĠEvere tt
ĠEbene zer
Ġrecom mend
Ġrechar gi
ĠYOR ÃĻBÃģ
ĠYÃºrÃ³ pÃ¹
ĠpatÃł ki
Ġpasipa ro
ĠkÃŃlÃ¡Ãł sÃ¬
ÃĮpÃ© já»įlunipa
ÃĮnÃ¡ wÃ³
ÃĮwÃº re
ĠGoo lagong
ĠGren ada
ĠGCM G
yÃłnjÃ¬ yÃłn
ĠJiba laru
ĠDanu bi
litt le
lihlah la
ĠTomba lbaye
ĠTuni sia
ĠTryp anosoma
ĠCola ussi
ĠCultural ly
ĠLEW U
ĠÃĢmÃºÃ¹ gbÃłn
ĠÃĢlhÃłÃ¡ jÃ¬
ĠpÃ¨tÃ© Ã¨sÃ¬
ĠFis cher
ĠFusu i
ĠFunda ciÃ³
ĠFeli x
ĠFÃ¬dÃŃ tÃ¬
ĠFrede rick
ĠPana ma
ĠPAL U
ĠPuli tzer
ĠPorfi rio
magne tic
Ġolosan yin
ĠdÃ¡lÃ¹Ãº gbÃ©
Ġhisi tamini
ĠÃ¨yÃŃkÃ© yÃ¬ÃŃ
ĠHami lton
ĠHerman n
ĠRai k
ĠRol l
ĠRingi m
ĠalÃ¡bÃ² jÃºtÃ³
ĠalÃ¡kÃ²Ã³ bÃ¨rÃ¨
ĠalÃ¡pÃ¬ÃŃ Ã¬rÃ¬
ĠalÃ¡wÃ¬ÃŃ yÃ©
ĠÃ¡afi dÃł
ĠÃ¡lÃ³trÃ³ pÃ¹
jÃŃsÃŃrÃ© Ã¨tÃ¬
ĠwÃ²lÃŃ Ã¬
Ġdepen dence
Ġakoayo ka
ĠWhi tlam
ĠWuwo towuwo
ĠonÃŃgbá»į á»įrá»į
ĠonÃŃgÃŃ rÃ¡mÃł
ĠonÃŃsÃ² wÃ²
ĠonÃŃsÃłn gÃ³
ĠonÃŃtÃŃtÃłn yindin
ĠIlÃ©san mÃº
Ġá»Įst rÃ©lÃŃÃł
Ġá»ĮlÃ¡dÃł pá»į
Ġonikoro mebi
onifo ji
ĠMaur ya
ĠMaris cha
ĠMauri tania
ĠMagde burg
ĠMaures mo
Ġojokandinlo gbÃ²n
ĠUkra ine
ĠkÃ¬jikÃ¬ ji
ĠBabangi da
Ġpáº¹kipáº¹ ki
ĠolÃ¹tÃ¨ lÃ©
Ġgbokiki julo
ĠÃ¬yÃŃpÃł dÃł
ĠkÃ¡wÃŃ pe
Ġelect rical
Ġassemb ly
Ġojuonai yipo
rÃ¬nlÃ©lÃ³ gÃ³jÃ¬
ĠKapu ÅĽciÅĦski
ĠKash mir
counta ble
ĠAllian ce
ĠMargueri te
Ġoroise ona
ĠSebasti Ã¡n
ĠAntil les
ĠLÃ¡rÃ¹bÃ¡ wÃ¡
Ġcentu ries
Ġcredi t
Ġcorre gimiento
iseala gbewo
Ġasefisi ksi
ĠMiff lin
ĠMichele tti
ĠMicron esia
quanti ty
ĠJemibe won
ĠNeander thal
ĠLeRo i
ĠLeopo ld
ĠLeib niz
ĠLekta y
ĠCathe dral
ĠNahu at
Ġsáº¹falos porini
ĠZim babwe
ĠZaka ri
ĠZea land
ĠLibra ry
ĠMedic ine
ĠMeinho f
ĠDaven port
ĠRiks bank
ĠAparapÃ¡ ra
ĠÃłmÃºlÃ¹mÃ¡ lÃł
Ġprotoko lu
ĠBukar ti
ĠBuoapa rte
Andre w
ĠAssame se
ĠmÃłÃłlÃº Ã¹
ĠAdvo cate
ĠAdvan ced
ĠOrbiti ng
ĠrÃºsÃºsÃº sÃº
ĠBiaf ra
Informati k
ttento t
ĠComple x
fÃ³sfÃ³ rÃ¹
ĠGriffi th
ĠProspe ct
effici ent
ĠKuomin tang
ĠDemokra tiki
ĠEntertain ment
ĠEncyclo pedia
eyinmenu gun
ĠAjÃ©nifÃº jÃł
ĠWitherspo on
ĠAbdusa lami
Ġgudugu du
abstra ction
ĠkromatÃŃn Ã¬
ĠÃłjá»įfagbÃ¡ra dÃ¬mÃº
ĠbÃ¹lÃłbÃ¹ lÃł
ĠagbinrÃº gbÃ¬n
Ġhypotenu si
ĠnÃºklÃ©Ã³tÃŃ dÃ¬
ĠHouphouÃ« t
ĠStrepsi ptera
Ð°Ð½ Ð¾Ð²Ð¸ÑĽ
ĠÏĨÏį Î»Î±Î¾Î¹ÏĤ
Ġá¼ĢÎ½Î ¬
ĠPublish ers
Computerwissesc raft
ĠAgÃŃrgÃŃ rÃ¬
ĠPhiladel phia
Newfound land
ĠLÃģKÃģAY Ãī
Masturba tion
photosynth esis
