{"<|endoftext|>":0,"!":1,"\"":2,"#":3,"$":4,"%":5,"&":6,"'":7,"(":8,")":9,"*":10,"+":11,",":12,"-":13,".":14,"/":15,"0":16,"1":17,"2":18,"3":19,"4":20,"5":21,"6":22,"7":23,"8":24,"9":25,":":26,";":27,"<":28,"=":29,">":30,"?":31,"@":32,"A":33,"B":34,"C":35,"D":36,"E":37,"F":38,"G":39,"H":40,"I":41,"J":42,"K":43,"L":44,"M":45,"N":46,"O":47,"P":48,"Q":49,"R":50,"S":51,"T":52,"U":53,"V":54,"W":55,"X":56,"Y":57,"Z":58,"[":59,"\\":60,"]":61,"^":62,"_":63,"`":64,"a":65,"b":66,"c":67,"d":68,"e":69,"f":70,"g":71,"h":72,"i":73,"j":74,"k":75,"l":76,"m":77,"n":78,"o":79,"p":80,"q":81,"r":82,"s":83,"t":84,"u":85,"v":86,"w":87,"x":88,"y":89,"z":90,"{":91,"|":92,"}":93,"~":94,"¡":95,"¢":96,"£":97,"¤":98,"¥":99,"¦":100,"§":101,"¨":102,"©":103,"ª":104,"«":105,"¬":106,"®":107,"¯":108,"°":109,"±":110,"²":111,"³":112,"´":113,"µ":114,"¶":115,"·":116,"¸":117,"¹":118,"º":119,"»":120,"¼":121,"½":122,"¾":123,"¿":124,"À":125,"Á":126,"Â":127,"Ã":128,"Ä":129,"Å":130,"Æ":131,"Ç":132,"È":133,"É":134,"Ê":135,"Ë":136,"Ì":137,"Í":138,"Î":139,"Ï":140,"Ð":141,"Ñ":142,"Ò":143,"Ó":144,"Ô":145,"Õ":146,"Ö":147,"×":148,"Ø":149,"Ù":150,"Ú":151,"Û":152,"Ü":153,"Ý":154,"Þ":155,"ß":156,"à":157,"á":158,"â":159,"ã":160,"ä":161,"å":162,"æ":163,"ç":164,"è":165,"é":166,"ê":167,"ë":168,"ì":169,"í":170,"î":171,"ï":172,"ð":173,"ñ":174,"ò":175,"ó":176,"ô":177,"õ":178,"ö":179,"÷":180,"ø":181,"ù":182,"ú":183,"û":184,"ü":185,"ý":186,"þ":187,"ÿ":188,"Ā":189,"ā":190,"Ă":191,"ă":192,"Ą":193,"ą":194,"Ć":195,"ć":196,"Ĉ":197,"ĉ":198,"Ċ":199,"ċ":200,"Č":201,"č":202,"Ď":203,"ď":204,"Đ":205,"đ":206,"Ē":207,"ē":208,"Ĕ":209,"ĕ":210,"Ė":211,"ė":212,"Ę":213,"ę":214,"Ě":215,"ě":216,"Ĝ":217,"ĝ":218,"Ğ":219,"ğ":220,"Ġ":221,"ġ":222,"Ģ":223,"ģ":224,"Ĥ":225,"ĥ":226,"Ħ":227,"ħ":228,"Ĩ":229,"ĩ":230,"Ī":231,"ī":232,"Ĭ":233,"ĭ":234,"Į":235,"į":236,"İ":237,"ı":238,"Ĳ":239,"ĳ":240,"Ĵ":241,"ĵ":242,"Ķ":243,"ķ":244,"ĸ":245,"Ĺ":246,"ĺ":247,"Ļ":248,"ļ":249,"Ľ":250,"ľ":251,"Ŀ":252,"ŀ":253,"Ł":254,"ł":255,"Ń":256,"ïĢ":257,"ÃŃ":258,"ĠÃ":259,"ïĢ¥":260,"Ġn":261,"Ġt":262,"Ã¡":263,"Ãł":264,"en":265,"te":266,"Ã³":267,"do":268,"tex":269,"dof":270,"text":271,"<|":272,"|>":273,"endof":274,"endoftext":275,"Ã©":276,"Ġo":277,".<|":278,"Ġa":279,"gb":280,"Ã¨":281,"Ãº":282,"Ã¬":283,"Ġs":284,"Ġni":285,"Ã²":286,"Ġl":287,"Ġw":288,"á»":289,"Ġi":290,"á»į":291,"Ġk":292,"ĠÃł":293,"ïĢ£":294,"an":295,"un":296,"Ġb":297,"ti":298,"áº":299,"Ġm":300,"áº¹":301,"wo":302,"Ġti":303,"ĠÃ¬":304,"ri":305,"Ġp":306,"Ã¹":307,"ĠnÃŃ":308,"Ġf":309,"Ġj":310,"ÌĢ":311,"ĠtÃŃ":312,"Ġy":313,"ra":314,"Ìģ":315,"Ġd":316,"Ġgb":317,"rÃŃ":318,"in":319,"Ġe":320,"Ãºn":321,"le":322,"ĠA":323,"ĠÃ³":324,"ĠO":325,"ĠÃ¨":326,"ĠÃ²":327,"re":328,"on":329,"Ãłn":330,"ko":331,"Ã¬ÃŃ":332,"ĠÃłwo":333,"Ġ1":334,"ĠsÃŃ":335,"ba":336,"ÅĦ":337,"lo":338,"Ġje":339,"de":340,"ĠÅĦ":341,"se":342,"Ġlo":343,"Ġ(":344,"Ã¡Ãł":345,"lÃ¨":346,"won":347,"Ġr":348,"bi":349,"mo":350,"ĠI":351,"rin":352,"á»įn":353,"á¹":354,"Ġfi":355,"Ġto":356,"lÃ©":357,"ĠÃłti":358,"á¹£":359,"Ġsi":360,"Ã¹n":361,"kan":362,"or":363,"si":364,"ĠlÃ¡":365,"Ġkan":366,"pa":367,"jo":368,"âĢ":369,"lÃº":370,"ĠpÃ©":371,"Ġwa":372,"Ã¬n":373,"ĠyÃ¬ÃŃ":374,"ĠnÃ¡Ãł":375,"Ġla":376,"la":377,"Ġawon":378,"Ġwo":379,"to":380,"ĠlÃ³":381,"gba":382,"ĠwÃ³":383,"gbÃł":384,"ro":385,"Ġse":386,"lu":387,"Ġati":388,"ye":389,"dÃ¨":390,"ĠtÃ³":391,"nÃº":392,"Ġg":393,"ka":394,"Ġá»į":395,"Ġko":396,"ïĢ¨":397,"Ġ19":398,"ni":399,"ÃĢ":400,"Ġbi":401,"ĠfÃºn":402,"lÃ¡":403,"nu":404,"rÃ²":405,"wá»įn":406,"lÃ³":407,"er":408,"ĠbÃŃ":409,"Ġso":410,"ĠbÃ¡":411,"gbo":412,"Ã¡a":413,"ta":414,"mi":415,"bÃ¡":416,"yÃŃ":417,"Ġwon":418,"da":419,"di":420,"Ġpe":421,"ĠN":422,"po":423,"ĠÃĮ":424,"ju":425,"ĠsÃ¬":426,"ïĢ¤":427,"gun":428,"hun":429,"ĠkÃ²":430,"jÃº":431,"láº¹":432,"ĠlÃ¡ti":433,"ĠmÃ¡a":434,"Ġmo":435,"ĠB":436,"ĠjÃ©":437,"Ġ2":438,"ĠS":439,"kÃ³":440,"Ġdi":441,"ĠM":442,"ĠÃĴ":443,"Ġara":444,"Ġba":445,"Ġgba":446,"ĠrÃ¨":447,"ïĢ©":448,"ĠE":449,"bÃŃ":450,"ĠnÃŃnÃº":451,"ĠwÃł":452,"Ġre":453,"ĠY":454,"gbÃ³":455,"Ġpa":456,"ÃŃn":457,"wa":458,"ĠK":459,"pe":460,"ĠÃ¨dÃ¨":461,"ĠkÃŃ":462,"Ġle":463,"Ġfun":464,"ïĢ¥.<|":465,"gbe":466,"ÃĮ":467,"ĠG":468,"wÃ³":469,"ar":470,"ogbo":471,"yÃłn":472,"rÃº":473,"pÃ²":474,"ji":475,"so":476,"Ġlati":477,"Ã¡n":478,"Ġyi":479,"yÃ©":480,"nÃŃ":481,"ĠwÃ¡":482,"ĠâĢ":483,"ĠÃ¬lÃº":484,"NÃŃ":485,"Ġmi":486,"ĠJ":487,"ĠÃłwá»įn":488,"jÃ¬":489,"ran":490,"kÃ²":491,"nÃ¬":492,"Ġgbogbo":493,"00":494,"ĠYor":495,"ki":496,"ru":497,"yÃ¨":498,"ĠD":499,"Ġori":500,"Ġki":501,"Ġjáº¹":502,"je":503,"lÃł":504,"aa":505,"li":506,"wÃ¡":507,"wÃ²":508,"dÃ¡":509,"yi":510,"Ġohun":511,"rÃ¨":512,"Ġá¹£":513,"Ġninu":514,"Ġáº¹":515,"ĠorÃŃ":516,"ede":517,"eni":518,"Ãĵ":519,"be":520,"ĠmÃ©":521,"me":522,"Ġile":523,"má»į":524,"Ġis":525,"nÃ¬yÃłn":526,"rÃ©":527,"Ã¹bÃ¡":528,"ĠkÃ³":529,"ĠlÃ¨":530,"ĠT":531,"ĠtÃł":532,"ĠC":533,"ĠL":534,"ĠÃ¨nÃ¬yÃłn":535,"bo":536,"ge":537,"ĠrÃŃ":538,"fi":539,"sÃŃ":540,"Ġta":541,"ĠÃĢ":542,"dÃºn":543,"us":544,"gbÃ©":545,"ya":546,"ke":547,"ĠilÃ©":548,"ĠYorÃ¹bÃ¡":549,"dun":550,"Ãłt":551,"ÃĪ":552,"Ã³Ã²":553,"ïĢĪ":554,"wÃł":555,"tÃŃ":556,"dÃ©":557,"run":558,"na":559,"ĠtÃºn":560,"ĠilÃ¨":561,"tÃłn":562,"Ġwá»įn":563,"ká»į":564,"yÃ¬n":565,"rÃłn":566,"ÃĴ":567,"ĠpÃ¨":568,"rÃ³":569,"we":570,"ĠtÃłbÃŃ":571,"mÃ²":572,"yan":573,"lÃ¹":574,"ĠF":575,"wÃ©":576,"rÃ¬":577,"yin":578,"ïĢ¥,":579,"Ġeni":580,"ïĢı":581,"du":582,"mu":583,"Ġda":584,"kÃ¨":585,"ĠgbÃ³":586,"Ġorile":587,"kÃ¬":588,"ĠgbÃ©":589,"ĠP":590,"á»Į":591,"gbÃ¨":592,"jáº¹":593,"kun":594,"Ġá¹£e":595,"rÃ¹n":596,"ĠÃ¬s":597,"ĠlÃ©":598,"tÃ³":599,"ma":600,"Ġolo":601,"Ġwá»į":602,"gbÃ¡":603,"ĠdÃ¡":604,"ber":605,"Ġju":606,"ïĢ¬":607,"Ġibi":608,"ga":609,"pá»į":610,"ÃĢwo":611,"sÃ¬":612,"Ġomo":613,"nÃł":614,"is":615,"go":616,"jÃ³":617,"Ġh":618,"ĠmÃº":619,"bu":620,"bÃ¨":621,"dÃŃ":622,").<|":623,"bÃº":624,"ĠÃ¨yÃŃ":625,"sere":626,"Ġke":627,"ĠÃłwon":628,"ĠÃ¬gbÃł":629,"á¹£áº¹":630,"tu":631,"pin":632,"ria":633,"pÃ¡":634,"dÃł":635,"rika":636,"kÃł":637,"jÃ¨":638,"âĢĻ":639,"ja":640,"yÃł":641,"ĠH":642,"ĠR":643,"gbÃ²":644,"ini":645,"Ġbo":646,"Ġtabi":647,"ĠalÃ¡":648,"Ġbe":649,"âĢĿ":650,"dÃº":651,"ïĢ§":652,"bÃł":653,"Ġme":654,"rÃ¡":655,"ĠdÃ©":656,"ch":657,"ĠÃ¡":658,"ĠkÃº":659,"jÃŃ":660,"hÃ¹n":661,"ku":662,"Ni":663,"já»į":664,"tÃ²":665,"jÃł":666,"dÃ²":667,"ĠwÃ²":668,"Ġ200":669,"dÃ¬":670,"gi":671,"gÃ©":672,"Ġun":673,"ĠolÃ³":674,"th":675,"ĠnÃŃgbÃł":676,"fa":677,"ĠÃŃ":678,"kÃº":679,"Ġtun":680,"torÃŃ":681,"ĠâĢľ":682,"áº¸":683,"ĠwÃŃ":684,"Ġigba":685,"mÃŃ":686,"mÃ¬":687,"lá»į":688,"Ġiláº¹":689,"dÃ¹":690,"Ġ-":691,"Ġma":692,"ai":693,"Ġte":694,"tan":695,"ĠnÃŃpa":696,"fin":697,"Ġde":698,"kÃ¹n":699,"Ã¹gbÃ³":700,"Ġ18":701,"ĠbÃ©":702,"gÃ¹n":703,"Ġako":704,"ĠW":705,"Ġogun":706,"ĠyÃ³Ã²":707,"Ġala":708,"ĠgbÃł":709,"ce":710,"ĠonÃŃ":711,"Ġráº¹":712,"ĠwÃ³n":713,"Ġri":714,"bin":715,"ĠIlÃ©":716,"yo":717,"ĠAme":718,"julo":719,"ĠÃ¬tÃłn":720,"Ġfa":721,"gÃºn":722,"om":723,"am":724,"dÃ³":725,"ĠlÃ³rÃŃ":726,"wá»į":727,"Ġá»Į":728,"lan":729,"rá»į":730,"ĠnÃ¬":731,"wu":732,"Ġoni":733,"ĠyÃŃ":734,"ĠÃ²un":735,"rÃºko":736,"Ã¨dÃ¨":737,"ĠmÃ³":738,"binrin":739,"bÃ©":740,"sa":741,"Ġmu":742,"san":743,"Ġodun":744,"mber":745,"gbon":746,"mÃ³":747,"tÃ¬":748,"ĠÃĪ":749,"bun":750,"Ġlori":751,"orun":752,"),":753,"oo":754,"oni":755,"Ġá»įmá»į":756,"fÃ¨":757,"ĠdÃŃ":758,"Ġnn":759,"ĠnÃŃtorÃŃ":760,"ĠMa":761,"Ġise":762,"ÌĢ.<|":763,"pÃŃn":764,"kÃ©":765,"rÃł":766,"Ġfe":767,"Ġna":768,"ĠpÃłt":769,"WÃ³":770,"kÃŃ":771,"ĠâĢĺ":772,"fe":773,"fÃ¡":774,"ïĢ£.<|":775,"Ġawá»įn":776,"Ġlá»į":777,"Ġgbe":778,"ráº¹":779,"Ġáº¸":780,"ÃłÃ¬":781,"Ġorin":782,"Ġwi":783,"ÃłÃ¡":784,"Ġjo":785,"rÃŃÃł":786,"mÃ¹":787,"ani":788,"yÃ¬ÃŃ":789,"ĠgÃ©":790,"jÃ©":791,"ĠfÃ©":792,"ĠEbun":793,"Ġosere":794,"al":795,"pÃ³":796,"Ġagba":797,"sÃ¨":798,"bÃ²":799,"lÃ²":800,"ĠojÃº":801,"?<|":802,"Ġka":803,"lÃ³hÃ¹n":804,"Ġeniyan":805,"Ġ\"":806,"Ġilu":807,"dara":808,"ĠAmerika":809,"sÃ³":810,"yÃ¡":811,"Ġmaa":812,"Ġnaa":813,"dÃºgbÃ²":814,"st":815,"wÃ¹":816,"ĠlÃ¡Ãł":817,"ĠbÃ¨":818,"ĠAf":819,"Ġpelu":820,"ĠNo":821,"sÃ¬n":822,"ÃłkÃ¬":823,"nyÃŃ":824,"are":825,"fun":826,"su":827,"tun":828,"ĠÃ©":829,"Ġojo":830,"ĠmÃ©jÃ¬":831,"ĠkÃ©":832,"Ġeyi":833,"Awon":834,"oro":835,"ĠNi":836,"uba":837,"ĠbÃł":838,"tÃł":839,"ĠÃłkÃ³":840,"ĠmÃ¬ÃŃ":841,"Ġ20":842,"kÃłn":843,"ĠorÃºko":844,"Ġ199":845,"ĠÃĮjÃ¨":846,"ĠgbÃ³lÃ³hÃ¹n":847,"ĠpÃłtÃłkÃ¬":848,"BÃŃ":849,"ege":850,"fo":851,"jÃŃrÃŃÃł":852,"ary":853,"19":854,"ĠdÃº":855,"tori":856,"ĠtÃ¨":857,"ha":858,"Ġolu":859,"jÃ²":860,"Ġnipa":861,"pi":862,"tá»į":863,"ĠÃłdÃºgbÃ²":864,"ĠjÃ¹":865,"ĠNÃłÃ¬":866,"usu":867,"bÃ³":868,"dá»į":869,"sÃł":870,"ĠayÃ©":871,"ĠÃ¬wÃ©":872,"á¹£e":873,"gbá»į":874,"ĠU":875,"Ġpo":876,"ĠlÃ¡ra":877,"mÃº":878,"ĠinÃº":879,"ĠOrÃŃ":880,"ĠsÃŃlÃ¨":881,"ĠmÃ¬ÃŃrÃłn":882,"ĠNÃłÃ¬jÃŃrÃŃÃł":883,"Ġoko":884,"bÃ¹":885,"ĠkÃ¬":886,"Ġede":887,"báº¹":888,"he":889,"ibi":890,"ou":891,"Ġiye":892,"Ġmá»į":893,"ĠIn":894,"ïĢ¥-":895,"joba":896,"ĠBa":897,"kin":898,"á¹£Ãł":899,"Ġ197":900,"kÃ¡":901,"sÃ¹":902,"ĠOlo":903,"Ġgi":904,"ĠbÃŃi":905,"ĠKe":906,"ĠDe":907,"Ġwipe":908,"rÃ¹":909,"Ã²rÃ¹n":910,"Ġ196":911,"ĠmÃ²":912,"dÃ¬ÃŃ":913,"kÃ¹":914,"ĠmÃŃ":915,"ĠÃ¬dÃŃ":916,"ĠorÃŃlÃ¨":917,"uro":918,"Ã¬s":919,"Ġgege":920,"dÃ¹du":921,"ĠlÃ²":922,"ĠAka":923,"ĠOlÃ³":924,"NÃŃgbÃł":925,"Ohun":926,"ÃĢwá»įn":927,"ĠâĢĵ":928,"ĠowÃ³":929,"Ġtáº¹":930,"Ġká»į":931,"demi":932,"kÃ¹nrin":933,"pÃ¨":934,"Ġ3":935,"ĠjÃ¡":936,"rÃºn":937,"Ġaye":938,"ĠfÃŃ":939,"Ġja":940,"ĠtÃŃtÃŃ":941,"ĠObinrin":942,"Ġyii":943,"il":944,"fu":945,"Ġawo":946,"ĠsÃ¡":947,"Ġpáº¹":948,"wÃ¡jÃº":949,"Ġomi":950,"Ġapa":951,"pÃ©":952,"ĠÃ¬wÃ¡":953,"selu":954,"ĠAkademi":955,"ve":956,"anu":957,"dÃ¹duwÃł":958,"ly":959,"Ġsa":960,"Ġnigba":961,"--":962,"LÃ¡":963,"jÃ¹":964,"mÃ³Ã²":965,"ojo":966,"ĠOsere":967,"mÃ³Ã²gÃ¹n":968,"gÃŃ":969,"lÃŃ":970,"sin":971,"darajulo":972,"Mo":973,"Ġye":974,"joko":975,"Ġyio":976,"TÃŃ":977,"fÃ²":978,"ĠolÃ¹":979,"ĠÃ¬jo":980,"ĠAlÃ¡":981,"ÃĪyÃŃ":982,"ĠhÃłn":983,"bÃ¬n":984,"mÃ¬n":985,"Ġsá»į":986,"Ġbáº¹":987,"ĠpÃ²":988,"ĠOn":989,"jiria":990,"es":991,"ana":992,"ĠIle":993,"ÃłtÃ²":994,"aijiria":995,"Ġ201":996,"ĠOrÃŃmÃ³Ã²gÃ¹n":997,"fÃł":998,"rÃ¬s":999,"pinle":1000,"Ġakoko":1001,"OrÃŃ":1002,"gÃ³":1003,"Ġra":1004,"ter":1005,"ara":1006,"nÃ¡":1007,"Ġgbo":1008,"Ġ198":1009,"ruko":1010,"ati":1011,"Ġagbe":1012,"Ġidi":1013,"ĠÃ¬yÃŃ":1014,"Ġbaba":1015,"yÃ¨sÃŃ":1016,"Ġnitori":1017,"ĠirÃº":1018,"ĠmÃ¡":1019,"Ġgan":1020,"erÃ©":1021,"bujoko":1022,"jÃ¡":1023,"vi":1024,"Ġ)":1025,"Ġinu":1026,"ĠbÃłbÃ¡":1027,"ho":1028,"ĠpÃŃn":1029,"ĠAare":1030,"Ġ17":1031,"Ġ195":1032,"sÃ¬kÃ²":1033,"bogbo":1034,"el":1035,"Ġsu":1036,"ĠkÃ¡":1037,"ĠÃłá¹£áº¹":1038,"rÃŃn":1039,"ĠYoruba":1040,"bÃ¬nrin":1041,"ĠpÃł":1042,"Ġyo":1043,"ĠNaijiria":1044,"lÃłyÃ©":1045,"Ġtele":1046,"hi":1047,"ĠsÃ©":1048,"ĠÃłs":1049,"BÃ¡":1050,"rÃ¡n":1051,"Ġele":1052,"ĠÃ²kÃ¨":1053,"Ġ194":1054,"ĠpadÃł":1055,"ĠTo":1056,"tÃ©":1057,"tÃ¨":1058,"ur":1059,"ÌĢ,":1060,"!<|":1061,"Ġnkan":1062,"Ġas":1063,"ĠsÃ³":1064,"Ġmáº¹":1065,"ĠOlÃº":1066,"tÃº":1067,"ĠÃłÃł":1068,"Ġkoko":1069,"cember":1070,"ĠOdÃ¹duwÃł":1071,"ojoibi":1072,"ca":1073,"Ġoju":1074,"Ġida":1075,"ĠibÃ¨":1076,"ÌĢ-":1077,"Ġegbe":1078,"ĠÃ¨tÃ²":1079,"ÃĢmÃ¬":1080,"dáº¹":1081,"inu":1082,"kÃŃyÃ¨sÃŃ":1083,"Ġipo":1084,"ust":1085,"Gbogbo":1086,"fáº¹":1087,"Ġro":1088,"Ġmiran":1089,"ĠolÃ³rÃŃ":1090,"rÃ¬n":1091,"Ġtiti":1092,"rÃŃkÃł":1093,"ĠÃ²nÃŃ":1094,"ĠkÃºrÃ²":1095,"ĠdÃºrÃ³":1096,"ĠsÃ²":1097,"ĠÃĮjáº¹":1098,"gbÃ¡ra":1099,"yÃłwÃ³":1100,"Ba":1101,"Ibujoko":1102,"Ġya":1103,"ina":1104,"IfÃ¨":1105,"ĠarÃ¡":1106,"Ã¨rÃ¨":1107,"Ġibe":1108,"ongo":1109,"Ġá»įdÃºn":1110,"ĠMo":1111,"ÃĪdÃ¨":1112,"ïĢ£,":1113,"ĠdÃł":1114,"ĠAla":1115,"Ġowo":1116,"ĠÃ¬pÃŃn":1117,"Ġlowo":1118,"ÃĮtÃłn":1119,"NÃŃnÃº":1120,"ĠjÃ¡de":1121,"dan":1122,"yáº¹":1123,"Ġopo":1124,"ĠKa":1125,"Ġoloselu":1126,"Ġmeji":1127,"esi":1128,"mini":1129,"ĠkÃ¬ÃŃ":1130,"ĠpÃº":1131,"fÃ©":1132,"tÃºn":1133,"Ġku":1134,"Ġyin":1135,"ĠelÃ©":1136,"ĠerÃ©":1137,"Ġpata":1138,"Ġgidi":1139,"gu":1140,"pu":1141,"enu":1142,"ĠÃłwÃ¹":1143,"ĠÃ¬yÃ¡":1144,"ÃĢwon":1145,"waju":1146,"mÃ¬nÃł":1147,"kÃºn":1148,"ver":1149,"ĠdÃ³":1150,"ĠOba":1151,"ĠrÃ²":1152,"ĠÃĴkÃ¨":1153,"ĠAfrika":1154,"Ġli":1155,"ĠÃłgbÃł":1156,"Ġby":1157,"KÃ²":1158,"ĠV":1159,"Ã¬mÃ¹":1160,"ĠÃ²rÃ¬s":1161,"geria":1162,"ĠKeji":1163,"ĠDecember":1164,"anuary":1165,"mar":1166,"ty":1167,"Ġiru":1168,"ris":1169,"ĠnÃŃnu":1170,"ĠAgba":1171,"Ġ193":1172,"sÃ³dÃ¬":1173,"co":1174,"Ġan":1175,"Ġigi":1176,"ĠÃłkÃŃyÃ¨sÃŃ":1177,"ĠDi":1178,"ĠÃ¬wÃ¡dÃ¬ÃŃ":1179,"bÃ¹n":1180,"han":1181,"Ġoruko":1182,"ĠbÃ³":1183,"ĠAl":1184,"gbÃ¨gbÃ¨":1185,"âĢĿ.<|":1186,"Ġtuntun":1187,"LÃ©":1188,"aye":1189,"tÃ¡":1190,"ĠtÃº":1191,"Ġaya":1192,"rile":1193,"ona":1194,"ĠkejÃ¬":1195,"minira":1196,"ci":1197,"din":1198,"os":1199,"pÃł":1200,"pÃłÃ¡":1201,"Ġokun":1202,"gbáº¹":1203,"Ã²Ã³":1204,"Ġipa":1205,"Ġijoba":1206,"riwa":1207,"ĠIfÃ¨":1208,"Ġkankan":1209,"hÃ¬n":1210,"ted":1211,"ĠlÃł":1212,"Ġigbe":1213,"ÃĮdÃŃ":1214,"Ġiwo":1215,"ĠÃłpÃ³":1216,"ĠOgun":1217,"Ġ16":1218,"ĠMar":1219,"ĠdÃŃÃ¨":1220,"Ã¬sÃłn":1221,"ere":1222,"sun":1223,"táº¹":1224,"uusu":1225,"Ġof":1226,"ĠÃ¬wÃ²":1227,"ĠÃ¬mÃ²":1228,"ĠÃ²rÃ²":1229,"omba":1230,"ĠNigeria":1231,"gan":1232,"ogun":1233,"yá»į":1234,"Ġ4":1235,"ĠoyÃ¨":1236,"ĠyÃłtÃ²":1237,"sile":1238,"ĠÃĮpÃŃn":1239,"Ġleyin":1240,"ĠJanuary":1241,"dÃ¡ra":1242,"ĠÃ¬yÃŃsÃ³dÃ¬":1243,"bÃ¬":1244,"Ġoun":1245,"ĠapÃ¡":1246,"ĠÃłsÃ¬kÃ²":1247,"ĠÃ¬bÃ¡":1248,"Ġsile":1249,"Ġlarin":1250,"ĠJu":1251,"fá»į":1252,"káº¹":1253,"nÃ¹":1254,"Ġoro":1255,"Ġorun":1256,"ĠifÃ¡":1257,"ĠÃ¬yÃłwÃ³":1258,"Ġfo":1259,"ĠbÃ¡yÃ¬ÃŃ":1260,"dÃ¹n":1261,"dÃŃn":1262,"fÃŃ":1263,"ne":1264,"ĠÃº":1265,"ĠtÃ©":1266,"tion":1267,"ĠÃ¬wÃł":1268,"Ġgbi":1269,"ĠOc":1270,"ÃłnÃł":1271,"kiri":1272,"Ġbere":1273,"Ġ2007":1274,"Ġpataki":1275,"sÃ©":1276,"Ġ5":1277,"Ġ;":1278,"Ġiá¹£áº¹":1279,"ĠjÃŃ":1280,"Ġyan":1281,"rÃŃs":1282,"ĠÅĦlÃ¡":1283,"ĠgÃŃ":1284,"ĠSe":1285,"ĠÃ¬sÃ²":1286,"ĠpÃºpÃ²":1287,"ck":1288,"gáº¹":1289,"man":1290,"ĠlÃ¡Ãłrin":1291,"as":1292,"ĠÃłgbÃ©":1293,"ĠrÃ¡":1294,"sia":1295,"000":1296,"Ġdara":1297,"ĠRe":1298,"Ġagbegbe":1299,"ol":1300,"Ġbu":1301,"Ã¹gbá»į":1302,"ĠDidarajulo":1303,"eb":1304,"sáº¹":1305,"Ġtan":1306,"ĠtÃ¡n":1307,"ĠÃłÃ¡":1308,"ĠnÃŃbÃ¨":1309,"Ġemi":1310,"Ġ192":1311,"kÃ¬tÃ¬":1312,"isan":1313,"dy":1314,"sÃ²":1315,"ug":1316,"upo":1317,"wÃ¬":1318,"Ġ9":1319,"ĠobÃ¬nrin":1320,"koso":1321,"Ġ11":1322,"ĠIs":1323,"ĠBo":1324,"kÃ²Ã³":1325,"kejÃ¬":1326,"Ġolori":1327,"ĠnÃ¬kan":1328,"jÃ¹lá»į":1329,"Ġsugbon":1330,"ama":1331,"ron":1332,"yen":1333,"Ġnomba":1334,"Ġobinrin":1335,"ĠÃłfi":1336,"ĠAn":1337,"Ġ10":1338,"tober":1339,"dia":1340,"ĠLÃ¡":1341,"ÃĴun":1342,"ĠfÃŃÃ¬mÃ¹":1343,"vember":1344,"ĠÃĮpÃŃnláº¹":1345,"mÃ©":1346,"son":1347,"Ã¡jÃº":1348,"Ġsini":1349,"Ìģ.<|":1350,"ĠSa":1351,"ĠOrÃŃmÃ³Ã²gÃ¹njÃ©":1352,"):":1353,"olo":1354,"ts":1355,"yÃ¡n":1356,"Ġc":1357,"Ġdo":1358,"Ã³mÃ¬nÃł":1359,"Ġodo":1360,"ĠagbÃ¨gbÃ¨":1361,"ĠibÃ¹":1362,"ĠAkin":1363,"Ġsise":1364,"ĠwÃ¡yÃ©":1365,"ĠorÃŃs":1366,"bel":1367,"ĠmÃ©jÃ¨":1368,"ss":1369,"Ġos":1370,"Ġosu":1371,"Ġnibi":1372,"Ġiwe":1373,"ĠÃłgbÃ¡":1374,"ĠbÃ²":1375,"Ġyen":1376,"Ġran":1377,"Ġlato":1378,"jumo":1379,"ĠnÃ¬yÃŃ":1380,"ĠÃłwÃ¹jo":1381,"ĠÃłpÃ³lÃł":1382,"Won":1383,"hin":1384,"ise":1385,"lÃ¬":1386,"mÃł":1387,"Ġabo":1388,"Ġana":1389,"ĠsÃ¨":1390,"ĠÃłgbÃ¨":1391,"uni":1392,"ĠnÃŃbi":1393,"Ġ191":1394,"NÃŃtorÃŃ":1395,"ĠÃºn":1396,"GÃ©":1397,"bá»į":1398,"nÃ¬ÃŃ":1399,"pÃŃ":1400,"yÃ³":1401,"Ġtu":1402,"ĠtÃ¬":1403,"ĠolÃº":1404,"Ã¨jÃ¬":1405,"Ġimo":1406,"ĠÃłpe":1407,"ĠÃłÃ¬sÃłn":1408,"ĠÃ¬bÃŃ":1409,"Ġ15":1410,"lowo":1411,"lasi":1412,"ĠGÃ³mÃ¬nÃł":1413,"ĠLa":1414,"dÃŃnlÃ³":1415,"arin":1416,"ger":1417,"pÃ¬":1418,"Ġon":1419,"ĠoÃ²rÃ¹n":1420,"Ġase":1421,"Ġasi":1422,"Ġin":1423,"ĠkÃ¹":1424,"ĠÃ¬lÃł":1425,"Ġyoo":1426,"Ġeto":1427,"ĠOrile":1428,"Ġ14":1429,"ĠIpinle":1430,"ĠBen":1431,"ĠMi":1432,"ĠalÃ¡wÃ²":1433,"Ġfara":1434,"ÃłÃ¡pÃłÃ¡":1435,"ĠNovember":1436,"ĠOctober":1437,"Bi":1438,"máº¹":1439,"wÃº":1440,"Ġona":1441,"Ġariwa":1442,"Ġsun":1443,"Ġikan":1444,"Ġitan":1445,"ĠÃ¬gbÃ©":1446,"Ġga":1447,"ĠJo":1448,"ĠorÃŃláº¹":1449,"bÃºrÃ²":1450,"Ġkokoro":1451,"gá»į":1452,"hÃ¡":1453,"jin":1454,"ll":1455,"ph":1456,"Ġiwa":1457,"ĠipÃ²":1458,"Ġfáº¹":1459,"Ġji":1460,"ĠyÃ©":1461,"rÃŃwÃ¡":1462,"Ġero":1463,"Ã¬ÃŃrÃŃs":1464,"lopo":1465,"kanna":1466,"Ġgun":1467,"Ġgáº¹":1468,"ĠSpe":1469,"Ġfunfun":1470,"Ġjulo":1471,"ĠTodarajulo":1472,"ĠJuly":1473,"ak":1474,"ami":1475,"dÃłn":1476,"gÃ¬":1477,"Ġ6":1478,"Ġai":1479,"Ġada":1480,"Ġiya":1481,"ĠpÃłÃ¡pÃłÃ¡":1482,"Ġgbá»į":1483,"Ġere":1484,"ĠOkÃ¹nrin":1485,"Ġbayi":1486,"ĠFeb":1487,"Ġagbara":1488,"BÃ¡kan":1489,"ĠÃ¬pÃŃnlÃ¨":1490,"marÃ¨":1491,"ayÃ¨":1492,"lÃłnÃł":1493,"qu":1494,"Ġato":1495,"Ġipinle":1496,"ĠÃłlÃłyÃ©":1497,"ĠlÃ¡Ã¬":1498,"ĠlÃ¡yÃ©":1499,"âĢĵ":1500,"laorun":1501,"Ġá»įjá»į":1502,"ĠÃĴá¹£":1503,"ranko":1504,"tÃ³tÃ³":1505,"kÃłrÃ©":1506,"ĠRo":1507,"dÃ¹marÃ¨":1508,"Awá»įn":1509,"Ti":1510,"kerÃ©":1511,"men":1512,"Ġaso":1513,"ĠlÃŃ":1514,"Ġláº¹":1515,"ïĢ£-":1516,"ĠÃ¬dÃ¡":1517,"ĠjÃł":1518,"ĠyÃ¡":1519,"ĠdÃ¬":1520,"ĠÃ²n":1521,"á¹£i":1522,"Ġdie":1523,"ĠDÃŃ":1524,"ĠdÃ¡ra":1525,"LÃ¡ti":1526,"Ġ2010":1527,"ĠOrÃŃmÃ³Ã²gÃ¹njáº¹":1528,"dÃ¡rajÃ¹lá»į":1529,"Le":1530,"Ma":1531,"ham":1532,"ng":1533,"sÃłn":1534,"Ġá»įn":1535,"Ã¬wÃ©":1536,"Ġsan":1537,"Ġsin":1538,"Ġiba":1539,"Ìģ,":1540,"ĠOjÃº":1541,"Ġ12":1542,"ĠrÃ¡n":1543,"bia":1544,"ÃŃnÃł":1545,"ĠJa":1546,"ĠJe":1547,"tumÃ²":1548,"land":1549,"ĠNobel":1550,"Ġlatowo":1551,"oÃ²rÃ¹n":1552,"pÃ¹":1553,"Ġnfa":1554,"ĠtilÃ¨":1555,"ĠpÃ¡":1556,"Ġguusu":1557,"ÃŃntÃ³tÃ³":1558,"ÃĮlÃº":1559,"ÃĮgbÃł":1560,"ĠGÃ¨":1561,"meji":1562,"yÃ¬nbÃ³":1563,"gidi":1564,"kÃ¡dáº¹":1565,"ugust":1566,"ĠÃĴá¹£erÃ©":1567,"ĠDÃŃdÃ¡rajÃ¹lá»į":1568,"tÃ¹":1569,"ĠnÃ¡":1570,"ene":1571,"Ġloni":1572,"Ġife":1573,"ĠÃłÃ¬":1574,"ĠÃłwÃ²":1575,"tic":1576,"ric":1577,"ine":1578,"ĠAkÃ¡dáº¹":1579,"ĠOsu":1580,"orÃº":1581,"âĢľ":1582,"ĠFran":1583,"Ġhan":1584,"ĠUni":1585,"ĠOlorun":1586,"AlÃ¡":1587,"FÃºn":1588,"Jo":1589,"JÃ¨":1590,"et":1591,"jÃ¬n":1592,"ton":1593,"ĠÃĵ":1594,"don":1595,"Ġao":1596,"Ġpi":1597,"kowe":1598,"Ġwaye":1599,"ĠBra":1600,"pele":1601,"ĠJÃ¨":1602,"ruary":1603,"kere":1604,"mÃ¬lÃł":1605,"ĠkÃ©kerÃ©":1606,"furu":1607,"----":1608,"gh":1609,"hÃłn":1610,"mÃ¡":1611,"pÃº":1612,"Ġ7":1613,"Ġnikan":1614,"Ġirin":1615,"angba":1616,"risi":1617,"Ġpin":1618,"Ġdan":1619,"ĠgbÃ¡":1620,"Ġsele":1621,"ĠNe":1622,"Ġáº¹ni":1623,"ĠLe":1624,"filasi":1625,"Ġnigbati":1626,"ĠAlakoso":1627,"Ġlilo":1628,"ĠÃłgbÃ¡yÃ©":1629,"18":1630,"gÃ²":1631,"sh":1632,"Ġoba":1633,"Ġwu":1634,"ĠkÃł":1635,"Ġlai":1636,"gbara":1637,"royin":1638,"ĠÃĮkÃłrÃ©":1639,"Ġgbajumo":1640,"ĠYou":1641,"ĠGe":1642,"rÃºká»į":1643,"ĠisÃ©":1644,"ĠCa":1645,"bÃłdÃłn":1646,"Ġ2009":1647,"ĠlÃ¡ÃłÃ¡":1648,"pile":1649,"ĠmÃ©jÃ¨Ã¨jÃ¬":1650,"Ġá»įna":1651,"IlÃ©":1652,"eti":1653,"fÃ¹":1654,"um":1655,"yÃ²":1656,"ÃłlÃłyÃ©":1657,"Ġasa":1658,"ĠagbÃ¡ra":1659,"Ã¨lÃº":1660,"Ġkáº¹":1661,"ĠkÃ¡Ãł":1662,"Ġkuro":1663,"ĠÃ¬hun":1664,"ril":1665,"ĠAugust":1666,"ĠÃ¨rÃ²":1667,"ĠÃ²wÃ²":1668,"ÃłnÃŃ":1669,"ĠlÃ¡bÃ©":1670,"padÃł":1671,"tobi":1672,"gbaye":1673,"ĠNa":1674,"sanmÃŃ":1675,"ĠdÃºdÃº":1676,"ĠkÃ¬ÃŃnÃŃ":1677,"filasisi":1678,"Eyi":1679,"fÃ¬n":1680,"ĠtÃ²":1681,"Ġodi":1682,"Ġabi":1683,"gbi":1684,"Ġsáº¹":1685,"ĠibÃ¡":1686,"ĠkÃºn":1687,"ĠtirÃ¨":1688,"ĠÃ¬lÃłnÃł":1689,"Ġdaa":1690,"ĠÃ¨Ã¨":1691,"Ġ13":1692,"ĠIfÃ¡":1693,"Ġá»įba":1694,"ĠÃĴgÃºn":1695,"arun":1696,"WÃ³n":1697,"hn":1698,"kÃŃn":1699,"pm":1700,"ry":1701,"ĠZ":1702,"ÃŃs":1703,"Ġopin":1704,"Ġpá»į":1705,"ĠewÃ¬":1706,"les":1707,"ĠÃ²s":1708,"ĠkÃ³kÃ³":1709,"ĠCh":1710,"ĠPa":1711,"Ġmeta":1712,"tani":1713,"ĠÃłkÃ³kÃ²":1714,"Ġpáº¹lu":1715,"ĠÃ¬bÃŃlÃ¨":1716,"ĠSpeak":1717,"den":1718,"ir":1719,"min":1720,"tele":1721,"Ġokan":1722,"Ġaba":1723,"ÃºsÃ¹":1724,"ĠÃłko":1725,"ĠÃ¬jÃł":1726,"Ġjá»į":1727,"ĠyÃ³":1728,"Ġduro":1729,"ĠAr":1730,"ĠÃ²fin":1731,"Ġpara":1732,"ĠGu":1733,"aran":1734,"kiti":1735,"ĠDo":1736,"ĠTa":1737,"body":1738,"ĠPo":1739,"OrÃŃs":1740,"dÃŃnlÃ³gÃºn":1741,"ĠFebruary":1742,"200":1743,"Ibi":1744,"Se":1745,"ele":1746,"for":1747,"páº¹":1748,"tor":1749,"ĠodÃºn":1750,"Ã¨fÃ¹":1751,"ĠigbÃ³":1752,"rica":1753,"Ġpupo":1754,"ĠjÃ³":1755,"Ġewu":1756,"ĠAwon":1757,"koko":1758,"Ġ25":1759,"Ġpada":1760,"ĠLi":1761,"ĠHa":1762,"já»įba":1763,"lá»įpá»į":1764,"bÃ©Ã¨rÃ¨":1765,"ĠsÃ©Ã¨fÃ¹":1766,"Is":1767,"mm":1768,"mÃ¨":1769,"wi":1770,"yÃ¬":1771,"Ġode":1772,"Ġaisan":1773,"Ã¬yÃłn":1774,"Ġnip":1775,"ĠÃłrÃ¹n":1776,"ral":1777,"Ġgbangba":1778,"ing":1779,"ĠAp":1780,"ĠAra":1781,"lam":1782,"Ġ29":1783,"sÃŃlÃ¨":1784,"rÃ¡mÃł":1785,"Ã¹gbÃ³n":1786,"Ġonimo":1787,"ĠMay":1788,"199":1789,"urope":1790,"rÃºnmÃ¬lÃł":1791,"rican":1792,"Su":1793,"dÃ¡a":1794,"ilu":1795,"pte":1796,"Ġ0":1797,"ĠohÃ¹n":1798,"Ġape":1799,"Ġnibe":1800,"Ġlu":1801,"ĠkÃłn":1802,"ĠÃłn":1803,"ĠjÃ¬n":1804,"Ġee":1805,"Ġeru":1806,"ĠAust":1807,"ĠOlu":1808,"papo":1809,"Ġlara":1810,"Ġlaarin":1811,"Ġbii":1812,"ÃĮwÃ©":1813,"Ġmimo":1814,"wÃłÃ¡":1815,"jÃŃbÃ³":1816,"Nigba":1817,"ĠmÃŃrÃłn":1818,"ĠBenin":1819,"jÃŃbÃ³gun":1820,"IrÃº":1821,"OR":1822,"Re":1823,"dÃ¡n":1824,"ksi":1825,"olu":1826,"oju":1827,"sá»į":1828,"Ġafi":1829,"Ġiko":1830,"une":1831,"ĠÃ¬rÃ³":1832,"ĠfÃł":1833,"ĠyÃ²Ã³":1834,"ĠAP":1835,"ĠlÃ³nÃ¬ÃŃ":1836,"Ã¡ndÃ©":1837,"Ġkiri":1838,"bÃłlÃ¹":1839,"Ġmeje":1840,"gbona":1841,"ĠIndia":1842,"yáº¹wo":1843,"Yor":1844,"im":1845,"iwo":1846,"iye":1847,"tÃ¡n":1848,"Ġ8":1849,"Ġnu":1850,"Ġoo":1851,"ĠodÃ²":1852,"á»įfun":1853,"tiki":1854,"ĠÃ¬rÃ²":1855,"ĠÃ¬lÃ¹":1856,"ĠpÃŃ":1857,"ĠfÃ³":1858,"ĠyÃł":1859,"ĠdÃ¡a":1860,"ĠsÃŃwÃ¡jÃº":1861,"Ġá»įgá»į":1862,"ĠBÃ¡":1863,"ĠMe":1864,"boyan":1865,"âĢĻ.<|":1866,"mÃŃrÃłn":1867,"ĠonÃŃmÃ²":1868,"wujo":1869,"ĠmÃ¡rÃ¹n":1870,"very":1871,"ĠrÃ¡rÃ¡":1872,"Leyin":1873,"\".<|":1874,"Ara":1875,"Congo":1876,"Every":1877,"Lati":1878,"Ninu":1879,"Omo":1880,"OlÃ³":1881,"Wo":1882,"eko":1883,"mbÃł":1884,"oba":1885,"per":1886,"Ġoke":1887,"Ġagbo":1888,"gbá»įn":1889,"Ġiku":1890,"ĠÃłbÃ²":1891,"ande":1892,"ĠsÃŃbÃ¨":1893,"Ġlasan":1894,"ĠMu":1895,"Ġrere":1896,"ĠDa":1897,"ĠÃĢjÃł":1898,"Ġ188":1899,"lana":1900,"landi":1901,"Ġnnkan":1902,"ĠInvi":1903,"illi":1904,"gÃŃgÃŃ":1905,"Ġorundun":1906,"pilese":1907,"ptember":1908,"Everybody":1909,"ĠInvited":1910,"Ko":1911,"at":1912,"ii":1913,"ssi":1914,"ĠÃģ":1915,"ĠorÃºká»į":1916,"Ġab":1917,"ĠatÃ³":1918,"ĠabÃ©":1919,"ĠakÃ©":1920,"Ġwe":1921,"Ġire":1922,"Ġisi":1923,"ĠÃłtÃºn":1924,"ĠÃłbÃºrÃ²":1925,"ĠÃ¬dÃł":1926,"ĠfÃ¬":1927,"Ġyáº¹":1928,"ĠOmo":1929,"ĠÃ²de":1930,"rini":1931,"ĠlÃ³jÃº":1932,"erun":1933,"ĠSo":1934,"ĠEurope":1935,"ĠmÃ©je":1936,"ÃłtÃ¡":1937,"Ãłtá»į":1938,"âĢĿ<|":1939,"kÃºta":1940,"ĠIlÃ©sanmÃŃ":1941,"omina":1942,"Ġ1966":1943,"Ġjade":1944,"ĠelÃ©yÃ¬ÃŃ":1945,"Ġand":1946,"ĠdÃ¡adÃ¡a":1947,"Al":1948,"Bo":1949,"dro":1950,"gy":1951,"ul":1952,"va":1953,"ÄĻ":1954,"Ġndun":1955,"Ġoye":1956,"Ġawa":1957,"Ã¬kÃ¬":1958,"Ġipele":1959,"ĠÃłte":1960,"ĠrÃ©":1961,"Ġlabe":1962,"ĠBan":1963,"ĠBri":1964,"ĠparÃŃ":1965,"ĠKo":1966,"enis":1967,"ĠÃĢkÃłn":1968,"ĠFa":1969,"Ġbee":1970,"LÃ¡ra":1971,"Ġidije":1972,"ĠtÃºmÃ²":1973,"Ġiwoorun":1974,"ĠgÃŃga":1975,"ĠSeptember":1976,"ĠFransi":1977,"NA":1978,"ban":1979,"gÃ¡":1980,"kÃ¡n":1981,"kusu":1982,"rd":1983,"sti":1984,"zil":1985,"Ã¡Ã¡jÃº":1986,"Ġabu":1987,"gberun":1988,"ĠikÃº":1989,"ano":1990,"ĠmÃ¡Ãł":1991,"ĠÃ¬gb":1992,"ĠÃ¬ran":1993,"ĠÃ¬bÃ¨":1994,"rÃŃsi":1995,"ĠAye":1996,"ĠAso":1997,"onu":1998,"siti":1999,"juto":2000,"ĠSch":2001,"Ġá¹£áº¹":2002,"keji":2003,"Ġkere":2004,"ĠRi":2005,"Ġbode":2006,"ĠwÃŃpÃ©":2007,"Ġ189":2008,"ĠIlÃ©s":2009,"Ġá»Įba":2010,"ĠÃĪkÃ³":2011,"ĠNiger":2012,"ĠpÃłdÃ©":2013,"Ġlowolowo":2014,"Ġanafilasisi":2015,"Ġatomu":2016,"pÃºpá»į":2017,"Ġdandan":2018,"ĠyÃ²Ã³kÃ¹":2019,"La":2020,"id":2021,"wÃ¨":2022,"Ġ*":2023,"Ġooo":2024,"Ġarin":2025,"Ġite":2026,"Ġiji":2027,"Ġiso":2028,"Ġbá»į":2029,"ĠAjÃŃbÃ³gun":2030,"ĠÃ¨lÃ²":2031,"ĠsÃŃnÃº":2032,"á¹¢":2033,"ĠÃĮbÃłdÃłn":2034,"med":2035,"ÃĪkÃ¬tÃ¬":2036,"tÃŃrÃ©":2037,"kunrin":2038,"Ġkeji":2039,"jade":2040,"the":2041,"ĠbÃ¨rÃ¨":2042,"ĠOlominira":2043,"Ġayaba":2044,"Ġdaada":2045,"illiam":2046,"Jáº¹":2047,"KÃŃ":2048,"LÃ³":2049,"OrÃºko":2050,"ble":2051,"fÃŃn":2052,"ira":2053,"Ġrin":2054,"Ġtenis":2055,"Ġofin":2056,"Ã¬rÃ¬":2057,"Ġsoro":2058,"Ġsinu":2059,"Ġijo":2060,"Ġipin":2061,"ĠÃłká»į":2062,"ĠÃłrÃŃwÃ¡":2063,"Ġmarun":2064,"Ġplan":2065,"Ġeyin":2066,"ĠrÃ¬n":2067,"ĠIroyin":2068,"Ġfil":2069,"Ġlagbaye":2070,"ĠYuni":2071,"Ġmii":2072,"Ġkii":2073,"wÃ¡dÃ¬ÃŃ":2074,"sÃŃÃł":2075,"ĠÃ¬sÃł":2076,"gal":2077,"Ġ2006":2078,"Ġ1995":2079,"rÃ¹pÃ¹":2080,"ĠAlÃ¡yÃ©":2081,"ĠkÃ¡Ãłkiri":2082,"ĠÃ¨Ã¨yÃłn":2083,"ĠApril":2084,"Sugbon":2085,"YorÃ¹bÃ¡":2086,"IfÃ¡":2087,"ola":2088,"sÃ¡":2089,"Ġabe":2090,"Ġaga":2091,"Ġawujo":2092,"Ġilo":2093,"Ġiran":2094,"Ġimu":2095,"ĠÃ¬tumÃ²":2096,"ĠÃ¬jÃ¬n":2097,"Ġeko":2098,"Ġeka":2099,"Ġeya":2100,"sil":2101,"papÃ²":2102,"lah":2103,"ĠJune":2104,"nÃ¬kan":2105,"ĠTi":2106,"fia":2107,"ĠpÃ¨lÃº":2108,"Ġologun":2109,"âĢĻ,":2110,"ĠNov":2111,"198":2112,"ĠÃ¬dÃŃlÃ©":2113,"Ġeleyi":2114,"dinlo":2115,"gbimo":2116,"iwoorun":2117,"10":2118,"40":2119,"DÃŃ":2120,"Ile":2121,"ad":2122,"oto":2123,"ÃłbÃ¡":2124,"ĠoÃºn":2125,"Ġoorun":2126,"ĠinÃ¡":2127,"Ġkin":2128,"ĠÃ¬pÃ¬":2129,"ĠÃ¬bÃ©Ã¨rÃ¨":2130,"ĠgbÃ²":2131,"ĠApa":2132,"Ã¡Ãłfin":2133,"ĠIjÃ¨":2134,"ĠlÃ¡wÃ¹":2135,"ĠtÃ³bi":2136,"kalÃ¨":2137,"erman":2138,"ĠNÃŃ":2139,"ïĢ¤,":2140,"ĠSu":2141,"Ġpato":2142,"ĠKi":2143,"ĠKen":2144,"ĠGran":2145,"ĠGama":2146,"ĠJáº¹":2147,"lia":2148,"Ġenikan":2149,"bÃºlÃ©":2150,"Nitori":2151,"Ġ2008":2152,"kÃºrÃ©":2153,"ĠgbÃłgbÃ³":2154,"ĠÃĪkÃ¬tÃ¬":2155,"ool":2156,"ĠAfÃŃ":2157,"Ġojoibi":2158,"Ġ30":2159,"Ġ31":2160,"ation":2161,"Ġasiko":2162,"tobijulo":2163,"Ġodidi":2164,"Ġplaneti":2165,"Ġmiiran":2166,"bon":2167,"ese":2168,"ire":2169,"ilaorun":2170,"ste":2171,"Ġ'":2172,"Ġen":2173,"Ġnpe":2174,"ĠtÃ¡":2175,"Ġthe":2176,"Ã©gÃºn":2177,"Ġarun":2178,"ÃºÃºsÃ¹":2179,"ĠsÃ¹gbá»į":2180,"ĠsÃ¹gbÃ³n":2181,"Ġija":2182,"ĠÃłmÃº":2183,"ĠbÃº":2184,"tile":2185,"ĠÃ¬pÃł":2186,"Ġpro":2187,"Ġyá»į":2188,"Ġdu":2189,"ĠgbÃŃ":2190,"ĠgbÃ¨":2191,"Ġese":2192,"Ġesin":2193,"ler":2194,"ĠrÃ³":2195,"Ġtobi":2196,"sirÃŃsi":2197,"pada":2198,"Ġá»įwá»į":2199,"ĠBu":2200,"ĠSan":2201,"kÃ³kÃ³":2202,"ĠÃĴgbÃ³":2203,"ĠÃĴjÃ³":2204,"Ġpari":2205,"usa":2206,"cha":2207,"che":2208,"ĠWa":2209,"ĠAmerican":2210,"ĠpÃłtÃ³":2211,"Ġ1976":2212,"Ġibere":2213,"Ġopolopo":2214,"ĠMarch":2215,"ĠgÃŃrÃ¡mÃł":2216,"yensi":2217,"pÃ¬tÃłn":2218,"orÃºko":2219,"ĠBrazil":2220,"furufu":2221,"ĠAPOR":2222,"ĠBritani":2223,"ĠÃĢkÃłngbÃ©":2224,"21":2225,"30":2226,"Awo":2227,"Ki":2228,"Lo":2229,"bra":2230,"eye":2231,"fÃºn":2232,"gÃł":2233,"hÃºn":2234,"nÃŃn":2235,"omi":2236,"za":2237,"Ãī":2238,"Ì£":2239,"Ġtá»į":2240,"Ã¡lÃ¨":2241,"Ġoogun":2242,"Ġaá¹£":2243,"ĠadÃ©":2244,"Ġayáº¹wo":2245,"Ġapilese":2246,"Ã¬á¹£áº¹":2247,"ĠsÃºn":2248,"ĠÃłjo":2249,"ang":2250,"ĠÃ¬kÃ³":2251,"ĠÃ¬já»įba":2252,"Ã¹sÃ¹":2253,"Ġfá»į":2254,"Ġdun":2255,"Ġdin":2256,"Ġejo":2257,"ley":2258,"ĠAda":2259,"ĠÃ¨kejÃ¬":2260,"sity":2261,"ïĢ¤.<|":2262,"Ġ24":2263,"ĠSt":2264,"ĠSlam":2265,"lic":2266,"sÃŃwÃ¡jÃº":2267,"ĠÃĢkÃºrÃ©":2268,"lÃ¹mÃŃ":2269,"ĠFaran":2270,"fara":2271,"ĠWe":2272,"kÃŃkan":2273,"Ġolukowe":2274,"ĠjÃ¹lo":2275,"lÃŃÃ²":2276,"ĠolÃ¹kÃ³":2277,"tÃ©rÃ¬":2278,"ĠÃłwÃ¹já»į":2279,"Ġokunfa":2280,"fÃŃrÃŃkÃł":2281,"Ġgbigba":2282,"Ġtumo":2283,"ĠGeesi":2284,"gÃŃgÃŃrÃ¬":2285,"tÃŃrÃ©s":2286,"ĠGrand":2287,"15":2288,"An":2289,"De":2290,"Eni":2291,"Si":2292,"Wá»į":2293,"fÃº":2294,"omo":2295,"ojÃº":2296,"sÃ¹n":2297,"ze":2298,"zi":2299,"Ġná»į":2300,"ent":2301,"Ġaa":2302,"Ġale":2303,"Ġabáº¹":2304,"Ġaami":2305,"ÃºrÃ³":2306,"ÃºpÃŃ":2307,"Ã¬se":2308,"Ã²ro":2309,"Ã²gÃ¹n":2310,"Ġiá¹£":2311,"ĠiwÃ¡jÃº":2312,"Ġilaorun":2313,"ĠÃ¬tÃ³":2314,"ĠÃ¬wá»į":2315,"ĠnÃŃlÃ¨":2316,"Ġyor":2317,"ĠdÃ²":2318,"Ġeyo":2319,"ĠAdÃ©":2320,"Ġrá»į":2321,"ĠIta":2322,"ĠÃłtijÃ³":2323,"pati":2324,"padÃ¡":2325,"Ġ190":2326,"ĠBe":2327,"Ġ23":2328,"Ġ26":2329,"Ġbakanna":2330,"gbÃ³mÃ¬nÃł":2331,"Ġpapa":2332,"ĠGi":2333,"Ġorisi":2334,"lÃłÃ³":2335,"Ġáº¹láº¹":2336,"Ġáº¹gbáº¹":2337,"ĠThe":2338,"yÃ¬nnÃŃn":2339,"Ġhe":2340,"jagun":2341,"Ġboya":2342,"Ġmerin":2343,"Ġ2003":2344,"Ġ187":2345,"ĠonÃŃrÃº":2346,"Ġá»ĮwÃ¡":2347,"ĠkÃ©rÃ©":2348,"ĠOlÃ³fÃ¬n":2349,"mÃ¬nira":2350,"Ġgidigidi":2351,"ĠbÃ³yÃ¡":2352,"ĠNew":2353,"ĠlÃ¡ÃłÃ¡rÃŃn":2354,"ĠSchool":2355,"ÃºpÃŃtÃ©rÃ¬":2356,"yÃ¬nnÃŃnbÃŃ":2357,"TÃ³":2358,"alu":2359,"fÃłnÃŃ":2360,"mgbÃ³":2361,"mani":2362,"nrÃ¡n":2363,"okan":2364,"rg":2365,"sÃ¡n":2366,"xi":2367,"Ãģ":2368,"Ġal":2369,"Ġamo":2370,"Ġafe":2371,"gbana":2372,"Ã²kÃ¨":2373,"Ġike":2374,"Ġkm":2375,"Ġkun":2376,"ĠÃłbÃ¹":2377,"tin":2378,"ĠÃ¬se":2379,"ĠÃ¬pa":2380,"ĠtÃŃÃ³":2381,"ĠyÃ¨":2382,"ĠyÃłtá»į":2383,"lejÃ²":2384,"ĠAs":2385,"ĠOlÃ¹":2386,"ĠÃ²bÃŃ":2387,"ĠÃ²yÃ¬nbÃ³":2388,"one":2389,"ĠsÃŃláº¹":2390,"ÅĦlÃ¡":2391,"der":2392,"ĠlÃ³wÃ³":2393,"Ġwonyi":2394,"jÃºwe":2395,"ĠBÃŃ":2396,"ĠBur":2397,"Ġ22":2398,"Ġdida":2399,"ĠEko":2400,"ĠKho":2401,"ĠGuusu":2402,"ĠorÃŃkÃ¬":2403,"ĠLu":2404,"ĠLon":2405,"jÃ³kÃ²Ã³":2406,"chi":2407,"ther":2408,"fasiti":2409,"ĠWilliam":2410,"ĠdÃŃdÃ¡":2411,"our":2412,"Ġ2011":2413,"risti":2414,"ĠÃłfikÃºn":2415,"ĠJohn":2416,"hammed":2417,"AlÃ¡ayÃ¨":2418,"kitiyan":2419,"\",":2420,"ElÃ©":2421,"IgbÃ³":2422,"Ogun":2423,"SÃŃ":2424,"ale":2425,"ayÃ©":2426,"isi":2427,"len":2428,"ren":2429,"tro":2430,"Ġnse":2431,"Ġobi":2432,"ĠogÃºn":2433,"ĠadÃ¡":2434,"Ġadu":2435,"Ġayo":2436,"ĠabÃºlÃ©":2437,"Ã¬lÃº":2438,"Ġila":2439,"Ġibo":2440,"ĠÃłpÃŃ":2441,"tis":2442,"ĠmÃł":2443,"ĠÃ¬lÃ©":2444,"ĠÃ²rÃ¬":2445,"ĠÃ²pÃ¬tÃłn":2446,"ree":2447,"ÃłngÃ³":2448,"ĠIbi":2449,"ĠIjoba":2450,"Ġsii":2451,"gbÃłgÃ¬":2452,"roto":2453,"ïĢ¨.<|":2454,"yÃŃpadÃł":2455,"ĠSer":2456,"Ġdidi":2457,"ĠÃĴyÃ¬nbÃ³":2458,"ĠGerman":2459,"ĠJÃºpÃŃtÃ©rÃ¬":2460,"Ġáº¹jáº¹":2461,"Ġwá»įpá»į":2462,"ĠÃ¬gbÃłgbÃ³":2463,"ĠkÃºrÃ¹pÃ¹":2464,"ĠolÃ³yÃ¨":2465,"sanyÃ¬nnÃŃnbÃŃ":2466,"Ġeyiti":2467,"Ġoluilu":2468,"pilÃ¨":2469,"tá»įju":2470,"ĠOlohun":2471,"ĠOlÃ³dÃ¹marÃ¨":2472,"lÃŃmáº¹":2473,"Ġnitoripe":2474,"ĠsÃ³dÃ¬":2475,"ĠOlÃºs":2476,"Baba":2477,"Bakanna":2478,"versity":2479,"Ġiwadi":2480,"ĠjÃ¬nnÃł":2481,"ĠÃ¬dÃłgbÃł":2482,"Ġfilmu":2483,"ĠÃ¬jÃ¬nlÃ¨":2484,"ĠoÃºnje":2485,"ĠlÃ¡wÃ¹jo":2486,"ĠAfÃŃrÃŃkÃł":2487,"16":2488,"ile":2489,"ntÃ¬":2490,"sÃº":2491,"ut":2492,"Ç¹":2493,"Ġ:":2494,"Ġu":2495,"ÃŃrÃł":2496,"Ġnlo":2497,"Ġoselu":2498,"Ġam":2499,"Ġatá»į":2500,"Ã¬jÃ¬":2501,"ĠsÃł":2502,"ĠsÃłlÃłyÃ©":2503,"Ã²kÃºta":2504,"ĠigbÃ¡":2505,"Ġitu":2506,"Ġibáº¹":2507,"ĠÃłdÃ¡":2508,"tire":2509,"ĠÃ¬fi":2510,"ĠÃ¬yÃł":2511,"ĠÃ¬jÃ²":2512,"riko":2513,"ĠpÃ³":2514,"ĠnÃŃlÃ©":2515,"Ġebi":2516,"Ġeda":2517,"ĠAd":2518,"ĠAmáº¹":2519,"ĠOr":2520,"ĠÃ²kÃº":2521,"ĠIf":2522,"ĠIgba":2523,"ĠIgbÃ³":2524,"oru":2525,"ortu":2526,"ĠlÃ¡sÃ¬kÃ²":2527,"ĠpÃ©rÃ©":2528,"ĠlÃ³ri":2529,"ĠgÃºn":2530,"Ġá»įlá»į":2531,"tala":2532,"yÃŃn":2533,"die":2534,"ĠÃĮlÃº":2535,"ĠMÃ©":2536,"ĠÃĴun":2537,"ĠgbajÃº":2538,"ĠGomina":2539,"jepe":2540,"Ġá¹£Ã¹gbá»į":2541,"ĠÃ¬sÃ¨":2542,"Ġha":2543,"Ġkekere":2544,"ĠHe":2545,"ĠwÃ²nyÃŃ":2546,"thi":2547,"ĠbÃ©Ã¨":2548,"ĠdÃŃáº¹":2549,"Ġáº¸I":2550,"Ġagbaye":2551,"daraya":2552,"ĠtÃ¨tÃ¨":2553,"Ġ1975":2554,"Ġrara":2555,"ĠÃłÃłrin":2556,"ĠdÃłgbÃł":2557,"ĠdÃłbÃŃ":2558,"ĠAlÃ¡Ãłfin":2559,"hÃ¡lÃł":2560,"Ġerekusu":2561,"que":2562,"ĠJemani":2563,"tilejepe":2564,"Ã¹sÃ¹lÃ¹mÃŃ":2565,"\"<|":2566,"Opo":2567,"Qu":2568,"To":2569,"afi":2570,"ct":2571,"cal":2572,"hu":2573,"iá¹£áº¹":2574,"igh":2575,"lli":2576,"ore":2577,"omu":2578,"pan":2579,"ura":2580,"ugbá»įn":2581,"Ġ).<|":2582,"Ġno":2583,"Ġnla":2584,"ĠtÃłn":2585,"Ã¡tÃł":2586,"ÃłrÃł":2587,"ĠosÃ¹":2588,"Ġado":2589,"Ġalo":2590,"Ġayi":2591,"ĠwÃº":2592,"ĠilÃº":2593,"Ġifi":2594,"ĠÃłbÃ¡":2595,"ĠÃłyÃ¨":2596,"Ġtin":2597,"ĠÃ¬á¹£":2598,"rio":2599,"Ġewe":2600,"leon":2601,"ĠÃ³Ã²":2602,"ĠrÃº":2603,"ĠIwo":2604,"lÃ©lÃ³":2605,"Ġkoja":2606,"ïĢ¨,":2607,"ĠbÃ¡kan":2608,"ĠÃĮyÃ¡":2609,"ĠBi":2610,"ĠBro":2611,"Ġ21":2612,"ĠÃĴmÃ¹":2613,"ĠpapÃ²":2614,"ĠKwa":2615,"gbegbe":2616,"ard":2617,"rÃºbÃ¡":2618,"mes":2619,"lÃ¹Ãº":2620,"bÃłÃ¡":2621,"ĠkÃºkÃº":2622,"Ġalawo":2623,"sÃ³kÃ¨":2624,"Ġojogbon":2625,"Ġ1999":2626,"Ġgegebi":2627,"pÃ¨jÃºwe":2628,"lÃŃsÃŃÃł":2629,"ester":2630,"ĠÃłÃłyÃ¨":2631,"ĠAlagba":2632,"pupo":2633,"ĠnÃ¡ÃŃrÃł":2634,"ĠÃłwÃ²rÃ¡n":2635,"orÃºká»į":2636,"ĠUniversity":2637,"1990":2638,"ĠBÃ¡mi":2639,"ĠÃĢjÃłpadÃ¡":2640,"ĠAsofin":2641,"Ġyoruba":2642,"ĠKhoisan":2643,"ĠÃłpÃŃÃ¬rÃ¬":2644,"ĠGermany":2645,"BÃ©":2646,"Fun":2647,"Gege":2648,"He":2649,"IS":2650,"In":2651,"Ju":2652,"KÃ³":2653,"Olo":2654,"Olu":2655,"Proto":2656,"Sa":2657,"ao":2658,"au":2659,"abi":2660,"bÃłtÃ¡":2661,"ff":2662,"gÃ¨":2663,"gÃ¹":2664,"iki":2665,"mÃ¡n":2666,"nlÃ©":2667,"pti":2668,"stan":2669,"tt":2670,"wÃ¡ndÃ©":2671,"Ãłba":2672,"ÃłjÃ²":2673,"ens":2674,"Ã³tÃ³":2675,"Ġogo":2676,"Ġaro":2677,"Ġami":2678,"Ġadi":2679,"ĠajÃ©":2680,"ĠakÃŃkan":2681,"Ã¨gÃ¹n":2682,"Ġiyi":2683,"Ġina":2684,"Ġilana":2685,"ĠÃłlejÃ²":2686,"Ġtiwo":2687,"ĠÃ¬y":2688,"ĠÃ¬le":2689,"ĠÃ¬so":2690,"ĠÃ¬á¹£áº¹":2691,"ĠnÃŃÃŃ":2692,"ĠyÃłn":2693,"rapo":2694,"Ġepo":2695,"ĠAkÃŃn":2696,"ĠÃ²sÃ¨":2697,"ong":2698,"á¹£Ã¹":2699,"á¹£Ã¬ÃŃ":2700,"sise":2701,"ĠlÃ³de":2702,"Ġge":2703,"Ġgo":2704,"Ġsoso":2705,"poleon":2706,"ĠSi":2707,"ĠMor":2708,"Ġlewu":2709,"ĠGra":2710,"Ġisupo":2711,"ĠTe":2712,"ĠCo":2713,"Ġtako":2714,"Ġdagba":2715,"ĠPortu":2716,"Ġolopa":2717,"gagun":2718,"ist":2719,"âĢĿ,":2720,"kuta":2721,"Ġ2005":2722,"tho":2723,"Ġ186":2724,"ĠyÃŃÃ²":2725,"sara":2726,"Ġisele":2727,"Ġfeyin":2728,"ĠlÃ¡ÃłyÃ¨":2729,"Ġ1990":2730,"ĠAlÃ¡ayÃ¨":2731,"BÃ¡yÃ¬ÃŃ":2732,"tÃºmÃ²":2733,"ĠVi":2734,"Ġounjáº¹":2735,"ĠLÃ¡rÃºbÃ¡":2736,"hÃ¡má»į":2737,"ĠlÃŃtÃŃrÃ©s":2738,"Ġmejeji":2739,"Allah":2740,"ĠÃłbÃ¹dÃ¡":2741,");":2742,"23":2743,"Ifáº¹":2744,"Ja":2745,"adÃ©":2746,"fini":2747,"gede":2748,"ld":2749,"longo":2750,"sc":2751,"wÃŃ":2752,"wana":2753,"Ġenu":2754,"ĠnÃ¡a":2755,"Ġoti":2756,"Ġalu":2757,"Ġaká»į":2758,"Ġajáº¹":2759,"ĠadÃº":2760,"gbÃ¹n":2761,"ĠsÃ¹n":2762,"Ã²n":2763,"Ġito":2764,"Ġitá»įju":2765,"ĠÃłlÃł":2766,"ĠÃłmÃ¬":2767,"wolowo":2768,"Ġtitun":2769,"ĠÃ¬ká»į":2770,"ĠÃ¬rÃłn":2771,"ĠÃ¬lÃ²":2772,"ĠÃ¬rÃ¬n":2773,"rira":2774,"ĠfÃ¡":2775,"ĠfÃ¨":2776,"ĠjÃ¨":2777,"Ġgbin":2778,"ĠAt":2779,"ĠOkun":2780,"ĠÃ²kun":2781,"ÃłnÃ¹":2782,"seph":2783,"ĠIt":2784,"ĠIgbo":2785,"Ġfihan":2786,"Ã¬nÃŃ":2787,"kati":2788,"eru":2789,"ĠShe":2790,"ĠÃĴgÃ¹n":2791,"wari":2792,"ward":2793,"ĠKÃ³":2794,"ĠGa":2795,"soke":2796,"ĠJÃ¬jÃ¬":2797,"ĠDNA":2798,"Ġkiko":2799,"Ġá¹£ugbá»įn":2800,"ĠCongo":2801,"ĠLati":2802,"geesi":2803,"dudu":2804,"á»Įmá»į":2805,"matiki":2806,"ĠmÃºlÃ¨":2807,"Ġbori":2808,"dÃ¬yÃłn":2809,"Ġunje":2810,"ĠolÃ³gun":2811,"ania":2812,"ĠlÃ¡ÃłrÃŃn":2813,"197":2814,"Ġgiga":2815,"Ġ1960":2816,"ĠmÃŃlÃŃÃ²":2817,"Ġjagun":2818,"ĠIlegeesi":2819,"urtala":2820,"gua":2821,"ĠÃłfihÃłn":2822,"ĠibÃ¹jÃ³kÃ²Ã³":2823,"Ġiyawo":2824,"Ġpipe":2825,"bÃłlÃ¹fÃ²":2826,"bÃłlÃ¹fá»į":2827,"ĠYunifasiti":2828,"ĠÃ¬pÃ¬lÃ¨":2829,"ĠKenya":2830,"ĠÃ¬pÃłdÃ©":2831,"December":2832,"ElÃ©yÃ¬ÃŃ":2833,"tireso":2834,"CV":2835,"Ge":2836,"Mi":2837,"OlÃº":2838,"Pe":2839,"ee":2840,"iá¹£e":2841,"kle":2842,"pen":2843,"wáº¹":2844,"Ġná¹£e":2845,"ena":2846,"Ã³pÃ³":2847,"Ġore":2848,"ĠokÃ¹nrin":2849,"ĠobÃ¬":2850,"Ġani":2851,"Ġatáº¹":2852,"gbÃ¬n":2853,"Ã¬mÃ²":2854,"ĠsÃº":2855,"ĠsÃ¬n":2856,"Ã²rÃ²":2857,"ĠwÃ©":2858,"Ġibujoko":2859,"Ġiwaju":2860,"Ġigbona":2861,"ĠÃłpáº¹":2862,"ĠÃ¬ta":2863,"ĠÃ¬nÃ¡":2864,"rie":2865,"rian":2866,"riri":2867,"ĠtÃŃÃ¬":2868,"ĠdÃŃn":2869,"ĠdÃ¡n":2870,"ĠgbÃ¹n":2871,"Ġeye":2872,"ĠeÃ©gÃºn":2873,"ĠOsun":2874,"ĠÃ¨sÃ¬n":2875,"ĠÃ²nÃł":2876,"ĠsÃŃlÃ©":2877,"Ġlodi":2878,"ĠIba":2879,"ĠIjáº¹":2880,"á¹£ÃŃnÃł":2881,"Ġsibe":2882,"Ġsiste":2883,"siro":2884,"Ġwakati":2885,"las":2886,"yesi":2887,"kara":2888,"nilÃ©":2889,"ÃĢkÃ³":2890,"ĠÃĮrÃ¨":2891,"ĠBel":2892,"ĠMande":2893,"ĠwÃłhÃ¡lÃł":2894,"waye":2895,"Ġlee":2896,"kia":2897,"ĠDÃºrÃ³":2898,"dÃ¡lÃ¨":2899,"ĠorÃŃrun":2900,"ĠorÃŃsirÃŃsi":2901,"ĠCan":2902,"ĠCom":2903,"ĠÃĢwá»įn":2904,"ÃĴde":2905,"gos":2906,"Ġkeje":2907,"ĠHo":2908,"gbÃ²dÃ¬yÃłn":2909,"Ġ2004":2910,"Ġ180":2911,"ĠAmerica":2912,"ambi":2913,"bÃ©lÃ¬":2914,"Ġá»įmá»įde":2915,"Ġagbala":2916,"ĠAfrica":2917,"Ġ1991":2918,"Ġolugbe":2919,"kina":2920,"Ġ1970":2921,"fuu":2922,"Ġ1980":2923,"ĠirÃºfÃ©":2924,"ĠsÃ³kÃ¨":2925,"ĠMoz":2926,"ĠOgunlo":2927,"ĠÃłgbÃ©yÃ¨":2928,"tswana":2929,"Ġabojuto":2930,"ĠyÃ¡lÃł":2931,"John":2932,"kokoro":2933,"iyepÃºpá»į":2934,"ĠÃ¬sÃłlÃ¨":2935,"Ġkinni":2936,"patitis":2937,"Ġafefe":2938,"ĠWilliams":2939,"ĠÃĴmÃ¹Ã²":2940,"ĠPortugal":2941,"Ġsistemu":2942,"'s":2943,".\"<|":2944,"13":2945,"17":2946,"43":2947,"50":2948,"BÃ³":2949,"GB":2950,"Idi":2951,"Pa":2952,"YÃłtÃ²":2953,"con":2954,"dani":2955,"gen":2956,"gin":2957,"jÃłnÃł":2958,"lin":2959,"ms":2960,"my":2961,"mer":2962,"moni":2963,"wn":2964,"Ġ),":2965,"ĠQu":2966,"Ġnwo":2967,"entu":2968,"Ã©wÃ¡ndÃ©":2969,"Ġoto":2970,"Ġofurufu":2971,"Ġata":2972,"ĠadÃ¬":2973,"Ġaare":2974,"Ġlona":2975,"ĠwÃºn":2976,"Ġido":2977,"Ġiro":2978,"Ġkaa":2979,"Ġkede":2980,"Ġkini":2981,"ĠÃłse":2982,"ĠÃłjÃ²":2983,"Ġtile":2984,"ĠÃ¬nÃŃ":2985,"ĠÃ¬fo":2986,"Ġfer":2987,"ĠjÃº":2988,"ĠyÃ¬":2989,"ĠdÃºn":2990,"ĠgbÃ¬yÃłn":2991,"rÃŃsÃŃ":2992,"Ġegbo":2993,"Ġeso":2994,"ĠAgÃŃgÃŃrÃ¬":2995,"ĠOogun":2996,"ĠÃ²gbÃ³":2997,"ĠÃ²pÃ²":2998,"ĠÃ²tÃŃ":2999,"ĠÃ²mÃŃrÃłn":3000,"ĠrÃł":3001,"bise":3002,"ĠIlÃ¨":3003,"ĠIláº¹":3004,"ĠIfe":3005,"á¹£in":3006,"á¹£Ã¨lÃº":3007,"sis":3008,"Ġkanna":3009,"pata":3010,"joun":3011,"lumi":3012,"ĠfÃºnra":3013,"dad":3014,"juwe":3015,"ĠkÃ²kÃ³":3016,"ĠBar":3017,"ĠSta":3018,"ïĢ©.<|":3019,"ĠEgbe":3020,"ĠEgy":3021,"ĠYA":3022,"gbepo":3023,"ÃĮwÃ¡dÃ¬ÃŃ":3024,"Ġmimu":3025,"kÃ²rÃ²":3026,"Ġisáº¹":3027,"ĠChi":3028,"ĠCol":3029,"ĠÃĢlÃłÃ³":3030,"rÃłnmÃŃ":3031,"dua":3032,"Ġibile":3033,"Ġkemi":3034,"ĠalÃ¡gbÃ¨":3035,"ĠalÃ¡gbÃ¡ra":3036,"ĠÃ¡n":3037,"Ġakojo":3038,"Ġalaye":3039,"ĠIlÃ©á¹£Ãł":3040,"ĠgÃ©gÃ©":3041,"alk":3042,"Ġokowo":3043,"Ġapapo":3044,"Ġyioku":3045,"Ġ2012":3046,"Ġ1958":3047,"ĠOlÃºá¹£ÃŃnÃł":3048,"enue":3049,"ĠrÃ¡rÃł":3050,"ĠÃłÃ¡rÃŃn":3051,"ĠÃºnjáº¹":3052,"ment":3053,"ĠdÃ¬de":3054,"ĠpÃ¡tÃ¡":3055,"Ġpinnu":3056,"Ġapere":3057,"ĠAustria":3058,"ĠÃ¬rÃ²yÃ¬n":3059,"Ġtumosi":3060,"Ġorisirisi":3061,"ĠÃ¬dÃłgbÃłsÃ³kÃ¨":3062,"ĠakÃŃkanjÃº":3063,"Ġfeyinti":3064,"ĠLÃ¡rÃºbÃ¡wÃ¡":3065,"fuufu":3066,"rÃłnmÃŃyÃłn":3067,"14":3068,"20":3069,"AP":3070,"BÃłbÃ¡":3071,"Ch":3072,"Com":3073,"DP":3074,"Emi":3075,"KÃ¬":3076,"Oun":3077,"OjÃº":3078,"UN":3079,"aka":3080,"fÃ³":3081,"gÃłn":3082,"mpi":3083,"no":3084,"nÃ¡Ãł":3085,"sy":3086,"win":3087,"Ġv":3088,"Ġx":3089,"Ġnko":3090,"Ġor":3091,"Ġose":3092,"ĠojÃł":3093,"Ġari":3094,"Ġaje":3095,"ĠarÃ³":3096,"Ã¨rÃ©":3097,"Ã¬gbÃł":3098,"Ġnira":3099,"Ġini":3100,"Ġibu":3101,"á»įlÃ¡":3102,"Ìģ-":3103,"ĠdÃ¹n":3104,"ĠAde":3105,"ĠAyÃ©":3106,"ĠOA":3107,"ĠOni":3108,"ĠÃ¨kÃ³":3109,"ĠÃ²ye":3110,"rere":3111,"lori":3112,"ser":3113,"sepo":3114,"Ġloju":3115,"Ġru":3116,"ĠIjo":3117,"ĠIlu":3118,"orge":3119,"sibe":3120,"lawo":3121,"ÃĢko":3122,"ÃĢpe":3123,"lÃ¡n":3124,"lÃ³dÃ©":3125,"ĠNÃł":3126,"Ġ27":3127,"Ġ28":3128,"ĠEde":3129,"ĠKam":3130,"NÃŃpa":3131,"Ġáº¹ranko":3132,"Ġisu":3133,"ĠkÃ³pa":3134,"ĠTalk":3135,"ĠLÃº":3136,"ĠÃĢrÃŃwÃ¡":3137,"ĠÃĢkÃ³kÃ³":3138,"wÃłrÃł":3139,"ÃĴkÃ¨":3140,"ĠFÃ¡":3141,"ĠgbÃ³dÃ²":3142,"ĠPe":3143,"ĠPar":3144,"Ġolorin":3145,"Ġomode":3146,"Ġhai":3147,"pinpin":3148,"ĠHere":3149,"ĠRa":3150,"inibi":3151,"ĠÃ¡tá»į":3152,"Ġunpe":3153,"Ġigbagbo":3154,"Ġ-----":3155,"aira":3156,"Ġtemi":3157,"Ġteli":3158,"ĠgbÃłgbÃ©":3159,"Ġá»Įlá»į":3160,"Ġá»ĮbÃłlÃ¹fá»į":3161,"ĠyÃŃÃ¬":3162,"Ġkakiri":3163,"Ġoluda":3164,"ĠjÃ¹lá»į":3165,"usulumi":3166,"ĠOrÃŃláº¹":3167,"ĠBaba":3168,"Ġ1962":3169,"ĠÃ¬wÃ¡s":3170,"Ġ1986":3171,"BÃ¡mgbÃ³":3172,"Ġ1943":3173,"tÃºrÃ¬":3174,"Ġidasile":3175,"Ġyato":3176,"ĠpÃºpá»į":3177,"ĠAgbaye":3178,"osted":3179,"táº¹nu":3180,"dÃ¹nnÃŃ":3181,"Ġiá¹£áº¹láº¹":3182,"ĠÃłgbÃ©kalÃ¨":3183,"ĠibÃ¹dÃ³":3184,"Ġtutu":3185,"ĠlÃ¡Ã¬sÃŃ":3186,"ĠdÃ¡radÃ¡ra":3187,"ĠlÃ¡ÃłÃ¡rin":3188,"ĠNapoleon":3189,"ĠHausa":3190,"mmy":3191,"Ã¡ndÃ©lÃ©":3192,"ĠFaso":3193,"ĠAlÃ¡yÃ©mo":3194,"dinlogun":3195,"Ġdudu":3196,"ĠFaranse":3197,"ĠWest":3198,"ĠBurkina":3199,"ĠÃ¬jÃ²yÃ¨":3200,"ĠÃ¬nÃ¡wÃ³":3201,"ĠgbÃ¹ngbÃ¹n":3202,"12":3203,"46":3204,"Ejo":3205,"Gáº¹":3206,"InÃº":3207,"Láº¹":3208,"Nje":3209,"Oba":3210,"OnÃŃ":3211,"OdÃ²":3212,"ction":3213,"ctor":3214,"ida":3215,"lÃ¡Ãł":3216,"mbia":3217,"nyÃ¬ÃŃ":3218,"od":3219,"upa":3220,"yun":3221,"Ġhun":3222,"ïĢ¥ïĢ¥":3223,"Ã©sÃ¹":3224,"Ġoru":3225,"ĠokÃ¹n":3226,"Ã¬sÃ¬":3227,"Ġigb":3228,"Ġiwon":3229,"Ġita":3230,"Ġiyo":3231,"Ġkar":3232,"ĠÃłwa":3233,"ĠÃłdÃł":3234,"ĠÃłsÃł":3235,"ĠÃłhÃ¡má»į":3236,"unis":3237,"ĠÃ¬lÃ¨":3238,"ĠÃ¬gbÃ¡":3239,"ĠÃ¬dÃ¬":3240,"ĠÃ¬tÃł":3241,"ĠÃ¬á¹£e":3242,"ĠÃ¬wÃº":3243,"ĠÃ¬dÃ¡n":3244,"Ġpon":3245,"ĠjÃ¬":3246,"Ġerin":3247,"ĠAbi":3248,"ĠAber":3249,"ĠAmÃ©":3250,"ĠOro":3251,"ĠOmi":3252,"ĠÃ¨Ã©":3253,"ĠÃ¨ka":3254,"ĠÃ²pin":3255,"ĠÃ²jÃ²":3256,"ĠÃ²mÃ¬nira":3257,"onÃº":3258,"kowo":3259,"lopÃ²":3260,"ĠrÃłn":3261,"á¹ħ":3262,"Ġtotobijulo":3263,"Ġsiwaju":3264,"siwaju":3265,"ĠlÃ¡gbÃ¡ra":3266,"Ġlaye":3267,"lai":3268,"lati":3269,"Ġseda":3270,"Ġá»įjÃł":3271,"ïĢ¨ïĢ¨":3272,"ÃĢdÃºgbÃ²":3273,"lÃ¡s":3274,"lÃ¡wÃ²":3275,"numÃ³":3276,"bÃ¡kin":3277,"dio":3278,"ĠBenue":3279,"ĠBÃ¡ndÃ©lÃ©":3280,"ĠEle":3281,"gbÃ³n":3282,"ĠKan":3283,"ĠKano":3284,"ÃĮwÃł":3285,"ĠGri":3286,"lÃłdÃ©":3287,"limen":3288,"enia":3289,"má»įráº¹":3290,"ĠLo":3291,"ĠÃĢwo":3292,"usin":3293,"tÃŃÃ¬kÃ¬":3294,"well":3295,"yanju":3296,"ĠÃ¬gbÃłgbá»į":3297,"ĠHCV":3298,"ĠRÃ³":3299,"Ġtabili":3300,"Ġmelo":3301,"ĠolÃ³wÃ³":3302,"tannÃ¡":3303,"ĠMali":3304,"Ġjoba":3305,"Ġkale":3306,"ĠAfro":3307,"Ġ1978":3308,"ĠDec":3309,"ĠOlÃ³rÃŃ":3310,"sina":3311,"ĠolÃ¹wÃł":3312,"gÃ³jÃ¬":3313,"Ġgbodo":3314,"Ġ1982":3315,"ĠpÃłs":3316,"ĠÃłÃ¡dÃ³":3317,"Ġcom":3318,"Ġ1914":3319,"ĠLagbaye":3320,"Ġadapo":3321,"ĠBrasil":3322,"ĠTawa":3323,"ford":3324,"ĠjÃ³kÃ²Ã³":3325,"Ġá»įgá»įrun":3326,"Ġabule":3327,"Ġilominira":3328,"Ġiá¹£an":3329,"ĠonÃŃrÃºiyepÃºpá»į":3330,"ĠÃ¬parÃŃ":3331,"ĠLondon":3332,"ĠÃ²rÃ¬sÃł":3333,"Ġdidiboyan":3334,"estern":3335,"bÃłtÃ¡lÃ¡":3336,"ĠÃ¬letÃ²":3337,"ĠAkÃŃnlÃłdÃ©":3338,"ĠÃ²sÃ¨lÃº":3339,"Ġajáº¹sara":3340,"ĠMandela":3341,"ĠOAU":3342,"Ġhaidro":3343,"Ġ---------":3344,"limenti":3345,"-<|":3346,"24":3347,"AL":3348,"Ati":3349,"Ana":3350,"ApÃ¡":3351,"Ise":3352,"Igi":3353,"Oruko":3354,"The":3355,"ato":3356,"ast":3357,"bl":3358,"emi":3359,"fÃ¬":3360,"hana":3361,"iba":3362,"ilÃ©":3363,"iwÃ¡jÃº":3364,"ijoun":3365,"mon":3366,"ode":3367,"pha":3368,"uri":3369,"ys":3370,"ĠX":3371,"ĠÃį":3372,"Ġngbe":3373,"tes":3374,"Ġogb":3375,"Ġopa":3376,"Ġoji":3377,"Ġoga":3378,"ĠojÃ³":3379,"Ġar":3380,"ĠaÃ¡":3381,"Ġapo":3382,"ĠsÃ¡n":3383,"Ġigbo":3384,"Ġifo":3385,"Ġiriri":3386,"ĠkrÃ³":3387,"ung":3388,"áº¹li":3389,"Ġtii":3390,"Ġtitobijulo":3391,"ĠÃ¬kan":3392,"ĠÃ¬pÃ¨":3393,"ĠÃ¬tÃº":3394,"Ġfon":3395,"ĠtÃŃÃ¡tÃł":3396,"rama":3397,"int":3398,"Ġeti":3399,"Ġebun":3400,"Ġefuufu":3401,"Ġelimenti":3402,"lege":3403,"ĠAÃ¡":3404,"ĠAriwa":3405,"ĠAsia":3406,"ĠAafi":3407,"ĠOyÃ¨":3408,"ĠÃ²gb":3409,"ĠÃ²we":3410,"onÃŃ":3411,"koto":3412,"Ġlopo":3413,"ĠIse":3414,"ĠImo":3415,"ĠIpa":3416,"lÃ©wÃ²":3417,"á¹£Ã©":3418,"Ġsiso":3419,"ĠlÃ¡papÃ²":3420,"ĠlÃ¡sÃ¡n":3421,"papá»į":3422,"âĢĺ":3423,"roon":3424,"Ġseyin":3425,"ĠgÃºÃºsÃ¹":3426,"Ġá»įkan":3427,"Ġá»įdun":3428,"ÃĢs":3429,"lÃ¡wo":3430,"miran":3431,"dide":3432,"dije":3433,"Ġpese":3434,"ĠÃĮlÃł":3435,"Ġmokan":3436,"ĠEre":3437,"ĠEmi":3438,"bÃŃni":3439,"ĠKÃ©":3440,"ĠleÃ¨":3441,"Ġlegbe":3442,"gberin":3443,"kiki":3444,"kiyesi":3445,"rus":3446,"Ġkia":3447,"rÃ©kÃ¹":3448,"ĠTan":3449,"ĠTur":3450,"ĠTrini":3451,"ĠtÃłbÃºrÃ²":3452,"ĠCon":3453,"ĠCour":3454,"ĠLan":3455,"ĠÃĢÃł":3456,"duro":3457,"ĠdarÃŃ":3458,"ĠPro":3459,"ĠlÃ©yÃ¬n":3460,"ïĢ¬.<|":3461,"burg":3462,"Ġkerin":3463,"ĠÃ¬gbÃłlÃ³dÃ©":3464,"tumo":3465,"ĠHin":3466,"ĠRus":3467,"ĠalÃ¡te":3468,"Ġ2001":3469,"ĠolÃ³dÃ¹marÃ¨":3470,"ĠnÃŃgbÃłtÃŃ":3471,"mÃŃkÃł":3472,"Ġmathi":3473,"ĠÃĪdÃ¨":3474,"Ġgbeyin":3475,"ĠÃłkÃ³kÃ³":3476,"Ġ1992":3477,"Ġ1996":3478,"Ġ1997":3479,"Ġ1998":3480,"hari":3481,"outh":3482,"ĠIndi":3483,"Ġ1979":3484,"ill":3485,"ĠsÃ¡bÃł":3486,"Ġsayensi":3487,"ĠAlÃ¡rÃ¨":3488,"jÃ¡de":3489,"ĠÃłÃłfin":3490,"esia":3491,"ĠrÃ²gbÃ²dÃ¬yÃłn":3492,"Ã²Ã³tÃ³":3493,"Ġigbese":3494,"fÃŃÃ¬mÃ¹":3495,"Ġgbigbe":3496,"ĠOct":3497,"ĠÃ¬sÃ²ro":3498,"ĠBotswana":3499,"amai":3500,"ĠÃ¬gbÃ©sÃŃ":3501,"ĠJapan":3502,"inea":3503,"Ġnukle":3504,"Ġabbl":3505,"Ġisise":3506,"Ġdaadaa":3507,"ĠAlÃ¡yÃ©má»įráº¹":3508,"DÃŃÃ¨":3509,"ĠgbÃ²Ã²rÃ²":3510,"ĠÃłmÃºlÃ²":3511,"ĠSerbia":3512,"mÃ¡nÃ¬":3513,"ĠÃ¬yÃłtÃ²":3514,"ĠIbadan":3515,"ambique":3516,"Ġferan":3517,"ĠgbÃ¬yÃłnjÃº":3518,"ĠÃ²tÃŃtÃ³":3519,"ĠCollege":3520,"Ġhaidrojin":3521,"ĠAafirika":3522,"%)":3523,"..<|":3524,"11":3525,"58":3526,"AS":3527,"Ala":3528,"Iwo":3529,"IlÃ¨":3530,"Ibe":3531,"LÃ³Ã²":3532,"No":3533,"Orin":3534,"Ojo":3535,"Orile":3536,"Ra":3537,"Ro":3538,"Wá»įn":3539,"ajo":3540,"ala":3541,"cra":3542,"ds":3543,"ef":3544,"eri":3545,"ft":3546,"hy":3547,"irÃŃs":3548,"joni":3549,"ken":3550,"keni":3551,"mÃºn":3552,"mba":3553,"og":3554,"odo":3555,"odun":3556,"por":3557,"rbá»į":3558,"tÃŃn":3559,"up":3560,"vo":3561,"val":3562,"yn":3563,"zer":3564,"Â°":3565,"Ãļ":3566,"à¤":3567,"ïĢ¥âĢĻ":3568,"Ġnje":3569,"Ġná¹£i":3570,"Ġnwaye":3571,"Ġnaira":3572,"ÃłkÃ©":3573,"Ġowa":3574,"Ġominira":3575,"ĠoÃ²gÃ¹n":3576,"Ġate":3577,"Ġafo":3578,"Ġakáº¹":3579,"Ġnile":3580,"Ã²wÃ²":3581,"ĠlÃ¹":3582,"ĠkÃ¡n":3583,"ĠÃłrÃŃ":3584,"ĠÃłro":3585,"ĠÃłbá»į":3586,"una":3587,"unda":3588,"unje":3589,"Ġbinu":3590,"Ġmon":3591,"áº¹ráº¹":3592,"ĠÃ¬h":3593,"ĠÃ¬má»į":3594,"ĠÃ¬gbÃ¨":3595,"Ġpupa":3596,"ĠnÃŃbáº¹":3597,"Ġjin":3598,"Ġyara":3599,"rÃŃrÃŃ":3600,"Ġelo":3601,"Ġeku":3602,"ÃºndÃ©":3603,"lelo":3604,"ĠAkÃ©":3605,"ĠAbáº¹":3606,"ĠOju":3607,"ĠOdÃ²":3608,"ĠObÃ¬nrin":3609,"ĠÃ²kan":3610,"ĠÃ²sÃ¬":3611,"resi":3612,"baba":3613,"balÃ³":3614,"ÅĦtÃºrÃ¬":3615,"del":3616,"sepÃ²":3617,"mora":3618,"ĠfihÃłn":3619,"á¹£á»į":3620,"Ġsimi":3621,"Ġlagbara":3622,"lar":3623,"Ġwole":3624,"gbasoke":3625,"ross":3626,"Ġgusu":3627,"kar":3628,"Ġá»įpá»į":3629,"Ġkorira":3630,"nisÃ²":3631,"lÃ³wÃ³":3632,"tain":3633,"dipupo":3634,"ĠÃĮgbÃ³mÃ¬nÃł":3635,"ĠMis":3636,"ĠMÃ¹sÃ¹lÃ¹mÃŃ":3637,"ĠMurtala":3638,"ĠÃĴrÃ¬s":3639,"ïĢ©,":3640,"ĠEd":3641,"ĠEng":3642,"ĠpamÃ³":3643,"ĠKu":3644,"ĠKÃ¡":3645,"ĠGÃŃ":3646,"ĠGbogbo":3647,"ĠGhana":3648,"Ġmimi":3649,"yipo":3650,"meroon":3651,"ĠtÃłÃłrÃł":3652,"ĠLÃ©":3653,"firini":3654,"ĠÃĢs":3655,"duna":3656,"ÃĪtÃ²":3657,"yinbo":3658,"ĠgbÃ³gun":3659,"ĠPen":3660,"mawa":3661,"ĠdÃ¡jÃº":3662,"berg":3663,"Ġjulá»į":3664,"gari":3665,"gola":3666,"ture":3667,"riaye":3668,"ĠHu":3669,"ĠRu":3670,"ĠalÃ¡táº¹nu":3671,"dÃºrÃ³":3672,"Ġmejo":3673,"ĠolÃ³Ã²":3674,"aiti":3675,"Ġ183":3676,"ĠWim":3677,"Ġá»Įmá»į":3678,"lando":3679,"saba":3680,"mÃ³sÃ³":3681,"bÃ²kun":3682,"darapo":3683,"hamo":3684,"Ġnipasáº¹":3685,"ĠBaÃ¡lÃ¨":3686,"rÃºndÃºn":3687,"ĠsÃ¡yÃ©":3688,"lÃŃÃł":3689,"TÃŃÃ³":3690,"ĠolÃ¹ká»į":3691,"anada":3692,"fÃłÃłnÃŃ":3693,"Ġ1983":3694,"Ġ179":3695,"Ġ1954":3696,"hia":3697,"him":3698,"Ġ1940":3699,"Ġ1942":3700,"Ġ1949":3701,"Ġegbegberun":3702,"Ġyapa":3703,"ĠMohammed":3704,"Ġpatapata":3705,"Ġ1939":3706,"Ġokunrin":3707,"ĠlÃłti":3708,"ĠÃłgbÃ©lÃ©wÃ²":3709,"Ġgbá»įdá»į":3710,"ĠrÃ¡ntÃŃ":3711,"furufÃº":3712,"ĠgbÃ¡dÃ¹n":3713,"Ġsáº¹áº¹li":3714,"ĠGuinea":3715,"ĠpÃŃpÃ©":3716,"ĠÃłtÃºns":3717,"ĠfÃ¬lÃŃsÃŃÃł":3718,"Botilejepe":3719,"ĠBantu":3720,"bledon":3721,"lentele":3722,"ĠOrlando":3723,"ĠgbajÃºmÃ²":3724,"llion":3725,"ĠGrammy":3726,"finifirini":3727,"gedemeji":3728,"ĠAtlan":3729,"guage":3730,"Ġatáº¹gun":3731,"ĠMozambique":3732,"mpiki":3733,"ĠNÃłÃŃ":3734,"ĠParty":3735,"ĠAberde":3736,"ĠkrÃ³mÃ³sÃ³":3737,"ĠRussia":3738,"Ġmathimatiki":3739,"ĠalÃ¡táº¹numá»į":3740,"ĠkrÃ³mÃ³sÃ³mÃ¹":3741,".âĢĿ<|":3742,"27":3743,"28":3744,"48":3745,"77":3746,"CO":3747,"Ekiti":3748,"GbÃ³":3749,"Inu":3750,"IbÃ¨":3751,"Ijoba":3752,"Na":3753,"OdÃ¹duwÃł":3754,"PÃ¨":3755,"Posted":3756,"SÃ¹gbÃ³n":3757,"Ta":3758,"apa":3759,"ali":3760,"abo":3761,"aÃ¡jÃº":3762,"ejo":3763,"fre":3764,"frÃŃkÃł":3765,"gn":3766,"ik":3767,"it":3768,"jan":3769,"mbu":3770,"mpÃº":3771,"orÃŃ":3772,"orin":3773,"oorun":3774,"rn":3775,"tre":3776,"van":3777,"vis":3778,"wan":3779,"zu":3780,"Ġch":3781,"enni":3782,"teria":3783,"ĠolÃ¨":3784,"ĠorÃ²":3785,"ĠotÃŃ":3786,"Ġade":3787,"Ġajo":3788,"Ġamu":3789,"Ġago":3790,"Ġatun":3791,"Ġnito":3792,"Ġnini":3793,"Ġlenu":3794,"Ġifa":3795,"ĠkÃ¨":3796,"ĠÃłso":3797,"ĠÃłnÃŃ":3798,"ĠÃłwá»į":3799,"ĠÃłkÃłn":3800,"ĠÃłá¹£Ãł":3801,"ĠÃłfÃ²":3802,"ĠÃłgÃ³":3803,"und":3804,"Ġmusulumi":3805,"Ġtire":3806,"Ġtiláº¹":3807,"ĠÃ¬yÃłn":3808,"ĠÃ¬kÃ²":3809,"ĠÃ¬já»į":3810,"ĠÃ¬fÃ©":3811,"Ã¹wÃł":3812,"Ġfin":3813,"Ġgbon":3814,"rÃŃko":3815,"ino":3816,"Ġewon":3817,"Ġesi":3818,"ĠetÃŃ":3819,"ĠewÃ©":3820,"ĠejÃ²":3821,"Ġeranko":3822,"Ġefinifirini":3823,"ĠAkoko":3824,"ĠOjo":3825,"ĠOla":3826,"ĠOnÃŃ":3827,"ĠOli":3828,"ĠÃ¨ro":3829,"ĠÃ²Ã³":3830,"ĠÃ²Ã²":3831,"ĠÃ²dÃ²":3832,"ĠÃ²pÃ³":3833,"ĠsÃŃi":3834,"ĠsÃŃÃŃ":3835,"ĠsÃŃse":3836,"logo":3837,"biri":3838,"ĠIpo":3839,"ĠIfáº¹":3840,"Ġsir":3841,"Ġsita":3842,"orn":3843,"siko":3844,"ĠlÃ¡báº¹":3845,"ĠlÃ³gÃºn":3846,"gbÃłÃ¡":3847,"ĠgÃ¨":3848,"Ġá»įká»į":3849,"ĠkojÃº":3850,"ÃĢsÃ¬":3851,"ÃĢÃ¬sÃłn":3852,"nudÃ©":3853,"lÃ³mÃŃ":3854,"ĠbÃŃbÃŃ":3855,"tal":3856,"dipÃºpá»į":3857,"ĠÃĮjo":3858,"ĠÃĮgbÃł":3859,"ĠÃĮdÃŃ":3860,"ĠBÃłba":3861,"ĠSpa":3862,"ĠSha":3863,"ĠMon":3864,"ĠÃĴwu":3865,"Ġgbagbo":3866,"ĠErÃ©kÃ¹":3867,"ĠYu":3868,"ÃĮy":3869,"ĠGo":3870,"ĠGÃºÃºsÃ¹":3871,"lÃłgbÃł":3872,"lish":3873,"Ġáº¹nu":3874,"Ġisin":3875,"Ġisoro":3876,"Ġenikeni":3877,"dura":3878,"Ġdari":3879,"Ġdabi":3880,"ĠgbÃ©ra":3881,"ĠPri":3882,"á»Įna":3883,"Ġá¹£ee":3884,"tÃ³bi":3885,"mad":3886,"mas":3887,"gbÃ¡dÃ²":3888,"bugbe":3889,"dÃŃÃ²":3890,"pinnu":3891,"ĠHun":3892,"ĠHaiti":3893,"Ġboolu":3894,"Nipa":3895,"than":3896,"ĠWÃ³":3897,"Ġalai":3898,"Ġalafia":3899,"ĠonÃŃgbÃł":3900,"rá»įsi":3901,"Ġjowo":3902,"lÃ²mÃŃrÃłn":3903,"sÃ³n":3904,"stri":3905,"ĠmÃ©jÃ¬lÃ¡":3906,"ĠmÃ¬ÃŃran":3907,"ĠUS":3908,"Ġ1971":3909,"ĠDemo":3910,"Ġ1961":3911,"Ġ1963":3912,"Ġ1967":3913,"ĠsÃ¡rÃ©":3914,"ĠolÃ¹gbÃ©":3915,"Ġ1989":3916,"Ġidiboyan":3917,"ĠbabalÃ¡wo":3918,"homas":3919,"Ġ1950":3920,"Ġ1951":3921,"Ġ1959":3922,"Ġsuga":3923,"ĠkÃ¡rbá»į":3924,"ĠpÃłÃł":3925,"Ġ1945":3926,"Ġ1946":3927,"ĠTogo":3928,"Bayi":3929,"ĠÃ¬pÃŃnláº¹":3930,"ĠKat":3931,"ĠelÃ©dÃ¹marÃ¨":3932,"guusu":3933,"ĠObama":3934,"ĠÃłgbÃłdo":3935,"ĠÃ¬bÃ¡gbÃ©":3936,"ĠÃ¬bÃ¡nisÃ²":3937,"ĠfojÃº":3938,"fÃŃÃł":3939,"Ġgbigbona":3940,"Ġdaradara":3941,"Ġ1920":3942,"ronu":3943,"mÃ©jÃ¬":3944,"ĠSaina":3945,"Ġosupa":3946,"Ġasiwaju":3947,"jinle":3948,"ĠSpein":3949,"Ġasofin":3950,"ĠUnited":3951,"Joseph":3952,"Ġwura":3953,"Ġabala":3954,"Ġparapá»į":3955,"ĠÃłnfÃłnÃŃ":3956,"Nigbati":3957,"Ġafikun":3958,"ĠyÃłrÃ¡":3959,"ĠÃģfÃŃrÃŃkÃł":3960,"ĠÃģfrÃŃkÃł":3961,"Ġabinibi":3962,"Ġisiro":3963,"ĠÃ¬gbÃ¬mÃ²":3964,"á¹¢Ã¹gbá»į":3965,"ĠNÃŃgbÃł":3966,"ĠSudan":3967,"ĠÃĴgbÃ³ni":3968,"ĠItaly":3969,"ĠJohnson":3970,"Ġadugbo":3971,"Ġayika":3972,"ĠwÃºlÃ²":3973,"Ġalawodudu":3974,"ĠBÃ¡mijÃŃ":3975,"ĠLatin":3976,"ĠEgypti":3977,"Ġakojopo":3978,"ĠpÃ¡tÃ¡pÃ¡":3979,"ĠAÃ¡fÃŃrÃŃkÃł":3980,"ĠCourt":3981,"ĠWimbledon":3982,"mpÃºtÃł":3983,"ÃĢsÃ¬Ã¡":3984,"lÃ³mÃŃtÃł":3985,"04":3986,"26":3987,"38":3988,"54":3989,"55":3990,"63":3991,"80":3992,"Ao":3993,"Ame":3994,"Bra":3995,"Da":3996,"Egbe":3997,"Ilu":3998,"Iye":3999,"Iru":4000,"Iya":4001,"Ife":4002,"Ka":4003,"KÃ¡":4004,"Lu":4005,"LÃ¡Ãł":4006,"Ona":4007,"Tele":4008,"alÃ¡":4009,"cu":4010,"cy":4011,"ed":4012,"eÃ©":4013,"egbe":4014,"epÃ²":4015,"fer":4016,"gÃº":4017,"jini":4018,"mb":4019,"oti":4020,"ple":4021,"pon":4022,"pani":4023,"rr":4024,"sÃºn":4025,"spa":4026,"ster":4027,"urÃº":4028,"wer":4029,"Ġci":4030,"Ġnso":4031,"Ġnsaba":4032,"Ġtaa":4033,"ÃłbÃŃ":4034,"ence":4035,"ĠokÃ²":4036,"Ġowe":4037,"Ġak":4038,"ĠakÃ²":4039,"ĠawÃ©":4040,"Ġakitiyan":4041,"Ġsaa":4042,"Ġniwaju":4043,"Ġnigbana":4044,"ĠwÃ¹":4045,"Ġwere":4046,"Ġirun":4047,"Ġiwu":4048,"ĠibÃ¬":4049,"ĠiyÃ¡n":4050,"Ġidaraya":4051,"ĠkJ":4052,"ĠkÃ¬n":4053,"ĠÃłlÃ¨":4054,"ĠÃłpapÃ²":4055,"ĠbÃłtÃ¡":4056,"Ġmenu":4057,"ĠÃ¬p":4058,"ĠÃ¬je":4059,"ĠÃ¬bÃł":4060,"ĠÃ¬kÃłn":4061,"ĠÃ¬tá»į":4062,"ĠÃ¬báº¹":4063,"ĠÃ¬rÃ¡n":4064,"ĠÃ¬tÃ¨":4065,"ĠfÃ²":4066,"ĠfÃŃn":4067,"Ġfai":4068,"ĠdÃ¨":4069,"rÃŃÃ¬sÃ¬":4070,"Ġewa":4071,"Ġeme":4072,"ĠegbÃ©":4073,"ĠAri":4074,"ĠAle":4075,"ĠAgbegbe":4076,"ĠOdo":4077,"ĠOrin":4078,"ĠÃ¨mÃŃ":4079,"ĠÃ²wÃº":4080,"Ã¬ÃŃn":4081,"Ġ100":4082,"baje":4083,"ÅĦsÃ³n":4084,"des":4085,"Ġlodo":4086,"ĠrÃ¬":4087,"ĠIS":4088,"ĠIran":4089,"Ġfii":4090,"lÃ©kÃ¨":4091,"orld":4092,"âĢ¦":4093,"Ġlaaye":4094,"luaye":4095,"kale":4096,"Ġkom":4097,"Ġkopa":4098,"Ġkookan":4099,"Ġ1919":4100,"ÃĢkÃŃyÃ¨sÃŃ":4101,"lÃ¡ra":4102,"lÃ³gun":4103,"ers":4104,"tabi":4105,"Ġpere":4106,"ĠÃĮs":4107,"ĠÃĮtÃłn":4108,"ĠkÃ²kÃ²rÃ²":4109,"ĠBal":4110,"ĠBÃłbÃ¡":4111,"Ġdipo":4112,"ĠMÃ³":4113,"ĠÃĴde":4114,"ĠÃĴkun":4115,"Ġbaa":4116,"Ġbawo":4117,"Ġbaki":4118,"Ġbaalu":4119,"Ġgbale":4120,"ĠEn":4121,"ĠYÃ©wÃ¡ndÃ©":4122,"ÃŃnÃ¬":4123,"wadi":4124,"ĠKá»į":4125,"ĠKar":4126,"ĠKongo":4127,"ĠkÃŃko":4128,"ĠkÃŃkÃ³":4129,"Ġfunra":4130,"ÃĮmÃ²":4131,"ÃĮyÃ¡":4132,"ĠJan":4133,"ĠJamai":4134,"Ġjáº¹dá»į":4135,"wÃ²n":4136,"wÃ²rÃ¡n":4137,"bet":4138,"beth":4139,"ĠmÃ©jÃ©":4140,"ĠTse":4141,"ĠLou":4142,"ĠÃĢjÃłnÃł":4143,"nam":4144,"duma":4145,"Ġdaju":4146,"ĠPla":4147,"jáº¹dá»į":4148,"mati":4149,"Ġolominira":4150,"bert":4151,"Ġibiti":4152,"Ġomowe":4153,"burÃº":4154,"Ġketa":4155,"âĢĻ<|":4156,"ĠHar":4157,"ĠRÃ©":4158,"ĠalÃ¡Ã¬":4159,"ĠalÃ¡kÃ²":4160,"Ġbees":4161,"ïĢ§.<|":4162,"rÃ¡rÃł":4163,"kÃºrÃº":4164,"Ġtete":4165,"tanna":4166,"Ġdeede":4167,"Ġalako":4168,"cel":4169,"ĠonÃŃs":4170,"yosi":4171,"lani":4172,"ĠdÃŃpÃ²":4173,"Ġgbera":4174,"ÃłÃ¬sÃłn":4175,"aniel":4176,"jÃ©lÃ¨":4177,"ĠkalÃ¨":4178,"Ġ1994":4179,"Ġoluko":4180,"hel":4181,"Ġ1972":4182,"Ġgirama":4183,"Ġ1968":4184,"Ġayeijoun":4185,"ĠsÃ¡Ã¡":4186,"ĠÃ¬wÃ¡á¹£áº¹":4187,"LÃ¡Ã¬":4188,"Ġ1984":4189,"Ġ1988":4190,"Ġ1955":4191,"Ġ1957":4192,"Ġsul":4193,"hili":4194,"ĠsÃ³rÃŃ":4195,"ĠOlÃºbÃ¡kin":4196,"Ġlile":4197,"risto":4198,"Ġ1932":4199,"Ġ1938":4200,"hann":4201,"Ġayafi":4202,"Ġigberiko":4203,"ĠÃĮpÃŃnlÃ¨":4204,"ĠtÃ©lÃ¨":4205,"ĠAngola":4206,"Ġdoni":4207,"ĠibÃ¹gbÃ©":4208,"Ġatokun":4209,"ĠlÃŃlÃ²":4210,"ngÃ¡n":4211,"Ġguusuilaorun":4212,"Ġlaisi":4213,"ĠparapÃ²":4214,"tory":4215,"Ġodeoni":4216,"ksijini":4217,"Ġmejee":4218,"ĠpÃŃpa":4219,"OlÃ³rÃŃ":4220,"Ġitelentele":4221,"fÃŃnnÃŃ":4222,"Ġijala":4223,"ĠbÃºburÃº":4224,"Lowolowo":4225,"ĠFaransÃ©":4226,"ĠdÃ²nÃŃ":4227,"Ġáº¹láº¹mi":4228,"Ġhepatitis":4229,"Ġamoye":4230,"Olohun":4231,"scar":4232,"Ġjagunjagun":4233,"Ġigbonasi":4234,"Ġagbalagba":4235,"ĠÃ¬tÃłgÃ©":4236,"Ġ----------<|":4237,"Anafilasisi":4238,"bÃŃnibÃŃ":4239,"ĠHindu":4240,"ĠKatsina":4241,"ĠpÃ¡tÃ¡pÃ¡tÃ¡":4242,"Teletele":4243,"Ġbakiteria":4244,"Ġjáº¹dá»įjáº¹dá»į":4245,"Ġbeesini":4246,"22":4247,"29":4248,"56":4249,"500":4250,":-":4251,"Ade":4252,"Abi":4253,"AdÃ©":4254,"Aare":4255,"Akin":4256,"AgÃŃgÃŃrÃ¬":4257,"Be":4258,"ErÃ©":4259,"Fo":4260,"Fran":4261,"II":4262,"Ida":4263,"Jan":4264,"January":4265,"MÃ©":4266,"OL":4267,"PÃº":4268,"So":4269,"aso":4270,"cer":4271,"com":4272,"dge":4273,"ero":4274,"eyin":4275,"ic":4276,"ita":4277,"idaraya":4278,"kt":4279,"ky":4280,"ksÃŃ":4281,"ny":4282,"nyi":4283,"ole":4284,"opo":4285,"okun":4286,"ssa":4287,"tra":4288,"toni":4289,"tland":4290,"ven":4291,"yÃºn":4292,"zz":4293,"Ãį":4294,"ÃĻ":4295,"Ġcha":4296,"Ġne":4297,"ĠnÃł":4298,"Ġnfi":4299,"ĠtÃ¹":4300,"Ã¡lÃ©":4301,"ÃłyÃ¨":4302,"ÃłmÃº":4303,"Ġobo":4304,"Ġowu":4305,"Ġare":4306,"ĠabÃł":4307,"ĠayÃŃpadÃł":4308,"Ġahamo":4309,"Ã¬á¹£e":4310,"ĠsÃłn":4311,"Ġsha":4312,"Ġnilo":4313,"Ġniiá¹£e":4314,"ĠlÃłÃ¡":4315,"Ġide":4316,"Ġikun":4317,"ĠijÃ³":4318,"ĠibÃł":4319,"Ġiroyin":4320,"Ġimm":4321,"ĠiyÃ¬":4322,"Ġigbimo":4323,"Ġifara":4324,"Ġken":4325,"Ġkoro":4326,"ĠÃłrÃ²":4327,"ĠÃłwÃ¡":4328,"ĠÃłtÃ¬":4329,"ĠÃłjÃ¹":4330,"ĠÃłtÃ©":4331,"ĠÃłtÃ¨":4332,"ĠÃłyÃŃpadÃł":4333,"ĠÃłpÃ¨jÃºwe":4334,"ïĢ£ïĢ£":4335,"Ġtita":4336,"ĠÃ¬si":4337,"ĠÃ¬di":4338,"ĠÃ¬jÃ¡":4339,"ĠÃ¬gÃ²":4340,"ĠnÃŃbÃŃ":4341,"ĠnÃŃlÃ²":4342,"ĠnÃŃlÃ¹Ãº":4343,"Ġjare":4344,"rawo":4345,"raka":4346,"ralia":4347,"ĠgbÃ¬n":4348,"Ġesun":4349,"ĠewÃº":4350,"ĠAk":4351,"ĠAre":4352,"ĠAli":4353,"ĠAbe":4354,"ĠAbu":4355,"ĠAbÃ©":4356,"ĠAjÃ©":4357,"ĠOko":4358,"ĠOlÃ¡":4359,"ĠOwÃ³":4360,"ĠÃ¨de":4361,"ĠÃ¨tÃ¹":4362,"ĠÃ²hun":4363,"ress":4364,"ĠsÃŃbáº¹":4365,"bai":4366,"lor":4367,"lov":4368,"loke":4369,"Ã¡ÃłbÃ²":4370,"ĠronÃº":4371,"mole":4372,"ĠIgbimo":4373,"Ġtori":4374,"ĠtorÃŃ":4375,"á¹£an":4376,"á¹£adÃ©":4377,"Ġsiláº¹":4378,"sion":4379,"para":4380,"palÃ¨":4381,"lÃºkÃ©":4382,"ĠlÃ³rÃºko":4383,"Ġsee":4384,"ĠseÃ©":4385,"ĠselÃ¨":4386,"lura":4387,"lukÃº":4388,"ĠgÃ¹n":4389,"Ġgomina":4390,"ÃĢjÃł":4391,"lÃ¡yÃ©":4392,"rÃ²yÃ¬n":4393,"ĠbÃŃnÃº":4394,"Ġsoki":4395,"takÃ²":4396,"yÃŃtÃ³":4397,"daran":4398,"ĠNu":4399,"ĠNation":4400,"ĠÃĮgbÃ©":4401,"ĠÃĮmÃ¨":4402,"ĠkÃ²rÃŃ":4403,"ĠBer":4404,"ĠSÃł":4405,"ĠSÃ¨":4406,"ĠSwa":4407,"ĠSouth":4408,"kÃ³so":4409,"ĠMÃ²":4410,"ĠMan":4411,"ĠMus":4412,"ĠMoro":4413,"ĠÃĴn":4414,"ĠÃĴkÃ²":4415,"ĠEni":4416,"ĠEli":4417,"bÃŃÃł":4418,"Ġpapo":4419,"ÃŃnÃŃ":4420,"ĠKÃŃ":4421,"ĠKÃ²":4422,"ĠKristi":4423,"ÃĮpÃŃn":4424,"ÃĮgbÃ³mÃ¬nÃł":4425,"ĠGbÃ¡":4426,"ĠGene":4427,"wÃ³n":4428,"sokan":4429,"ĠwÃ¡lÃ©":4430,"NÃŃbi":4431,"Ġmili":4432,"Ġmillion":4433,"ĠDen":4434,"Ġoriláº¹":4435,"Ġoriá¹£i":4436,"Ġkikan":4437,"lie":4438,"lian":4439,"yika":4440,"Ġá¹£iá¹£áº¹":4441,"Ġáº¹dá»į":4442,"beria":4443,"besibe":4444,"ĠmÃ©ta":4445,"ĠTÃŃ":4446,"ĠTÃ¡":4447,"ĠTun":4448,"ĠCha":4449,"ĠLÃŃ":4450,"ĠLÃ³":4451,"fisan":4452,"ĠÃĢmÃ©":4453,"ÃłtÃł":4454,"Ã³Ã²lÃ¹":4455,"ÃĴrÃ²":4456,"ĠFi":4457,"ĠFo":4458,"Ġenimeji":4459,"Ġdada":4460,"Ġdakun":4461,"ĠPÃ³pÃ³":4462,"ĠPDP":4463,"ĠÃ¬sÃ¡":4464,"ĠÃ¬sá»į":4465,"ĠÃ¬sÃ¬n":4466,"Ġoloro":4467,"ĠdÃ¡hÃ¹n":4468,"Ġibise":4469,"ĠhÃ¡":4470,"ĠborÃŃ":4471,"kuro":4472,"Ġ2000":4473,"Ġunlo":4474,"Ġunse":4475,"Ġakosile":4476,"ĠWi":4477,"Ġalagba":4478,"Ġalagbara":4479,"ĠonÃŃmá»į":4480,"Ġribiri":4481,"Ġonide":4482,"Ġonibise":4483,"ĠyÃŃi":4484,"ĠÃĪs":4485,"ĠMala":4486,"kÃŃbi":4487,"anian":4488,"ĠgÃ©dÃ©":4489,"stron":4490,"funfun":4491,"tÃłlÃ¡":4492,"ĠÃłkÃ³jo":4493,"kÃłnlÃ¡":4494,"Ġ1993":4495,"fojÃº":4496,"ĠIndon":4497,"á¹£Ãłkáº¹":4498,"Ġ1973":4499,"ĠOlogun":4500,"Ġgigun":4501,"Ġ1965":4502,"Ġ1969":4503,"ĠmÃŃÃ¬":4504,"ĠOlÃ³de":4505,"Ġaworan":4506,"ĠsÃ¡Ã¡jÃº":4507,"Ġapakokoro":4508,"sino":4509,"ĠIleoba":4510,"Ġ2016":4511,"Ġidile":4512,"ĠÃ¬yÃŃpadÃł":4513,"Ġgangan":4514,"vid":4515,"Ġ1953":4516,"hire":4517,"Ġ1941":4518,"Ġ1947":4519,"ĠToyosi":4520,"Ġasun":4521,"Ġmáº¹ta":4522,"Ġidajo":4523,"ĠKabi":4524,"esian":4525,"ĠelÃ©dÃ¨":4526,"puta":4527,"ĠVol":4528,"Ġ1931":4529,"Ġ1937":4530,"ĠtÃºmá»į":4531,"onathan":4532,"Ġipari":4533,"Ġigbesi":4534,"Ġ50":4535,"ĠjÃŃje":4536,"Ġ1922":4537,"Ġ1928":4538,"ology":4539,"hing":4540,"ĠsÃ¨tÃ²":4541,"Ġ1913":4542,"Ġimole":4543,"Ġasise":4544,"Ġariwaiwoorun":4545,"Ã¬ÃŃrÃŃsÃ¬ÃŃ":4546,"Ġaiá¹£an":4547,"ĠJesu":4548,"ght":4549,"Ġlailai":4550,"Ġabiso":4551,"ĠLitireso":4552,"mÃ¨yÃŃtÃ³":4553,"ĠAustralia":4554,"ksijin":4555,"gÃŃgÃŃrÃŃ":4556,"ĠfÃ¬dÃŃ":4557,"stitu":4558,"Ġá¹£áº¹láº¹":4559,"ĠRich":4560,"silini":4561,"ĠÃ¬pÃ¬láº¹":4562,"Nitoripe":4563,"ĠgbÃŃgbÃ©":4564,"ĠBuhari":4565,"zabeth":4566,"ĠonÃŃrÃºurÃº":4567,"Ġdidasile":4568,"ĠKwara":4569,"ĠadÃºlÃ¡wÃ²":4570,"ĠÃ¬rÃłnlÃ³":4571,"George":4572,"ĠÃłpáº¹ráº¹":4573,"gosla":4574,"entury":4575,"Ġotooto":4576,"Ġkedere":4577,"rÃŃsÃŃtÃ¬":4578,"ĠÃ²pÃ²lopÃ²":4579,"Ġkemika":4580,"Ġariwo":4581,"unisti":4582,"Ġkiakia":4583,"ĠTrinidad":4584,"Ġná¹£iá¹£áº¹":4585,"ĠAtlantiki":4586,"GbÃ³lÃ³hÃ¹n":4587,"ĠÃ¬kÃ²kÃ²":4588,"ĠOlimpiki":4589,"ĠYugosla":4590,"ĠDemocra":4591,"ĠpÃłÃłlÃł":4592,"ĠÃ¬kÃłnÃ¬yÃłn":4593,"Ġfairá»įsi":4594,"Ġewadun":4595,"ĠTseki":4596,"ĠRÃ©dÃŃÃ²":4597,"Ġmejeeji":4598,"PÃºpÃ²":4599,"ĠabÃłmÃ¬":4600,"ĠÃ¨tÃ¹tÃ¹":4601,"Ġribiribi":4602,"\";":4603,".)":4604,".,":4605,"//":4606,"25":4607,"32":4608,"39":4609,"52":4610,"69":4611,"AD":4612,"AM":4613,"As":4614,"Ako":4615,"Apa":4616,"Agbe":4617,"BE":4618,"Ed":4619,"Fi":4620,"Ha":4621,"Igba":4622,"Iláº¹":4623,"Itan":4624,"LÃŃ":4625,"Lai":4626,"Mar":4627,"NÃ¬gbÃł":4628,"Oc":4629,"Ori":4630,"Omi":4631,"OrÃºká»į":4632,"PÃ³pÃ³":4633,"RS":4634,"RÃŃ":4635,"Thomas":4636,"Western":4637,"awo":4638,"atÃ³":4639,"blic":4640,"cle":4641,"dh":4642,"em":4643,"ewu":4644,"fon":4645,"faa":4646,"gro":4647,"gini":4648,"ila":4649,"ikun":4650,"lta":4651,"muni":4652,"nan":4653,"nba":4654,"ner":4655,"nsÃ¬":4656,"ok":4657,"oke":4658,"pt":4659,"pri":4660,"vin":4661,"wis":4662,"zania":4663,"Ã´":4664,"Ã¶":4665,"ĠÐ":4666,"ïĢ¥:":4667,"ĠnÃº":4668,"Ġngba":4669,"Ġtoni":4670,"Ã©dÃ©":4671,"Ġosi":4672,"Ġoku":4673,"Ġotun":4674,"Ġogidi":4675,"Ġokuta":4676,"Ġoval":4677,"Ġoyinbo":4678,"Ġaf":4679,"Ġat":4680,"ĠabÃ¡":4681,"ĠakÃ³":4682,"ĠarÃ©":4683,"Ġama":4684,"Ġaja":4685,"ĠasÃł":4686,"ĠajÃ¡":4687,"Ġaaye":4688,"Ã¨mi":4689,"Ã¬dÃ¡":4690,"Ġson":4691,"Ġniyi":4692,"Ġniyanju":4693,"Ã²fin":4694,"Ġwun":4695,"ĠirÃ¨":4696,"ĠibÃ²":4697,"Ġiyen":4698,"Ġitobi":4699,"á»įba":4700,"ĠÃłre":4701,"ĠÃłÃ¬s":4702,"ans":4703,"anti":4704,"tina":4705,"ĠmÃ¬":4706,"ĠmÃ¹sÃ¹lÃ¹mÃŃ":4707,"Ġtiwa":4708,"Ġtiráº¹":4709,"ĠÃ¬lo":4710,"ĠÃ¬ro":4711,"ĠÃ¬ye":4712,"ĠÃ¬tu":4713,"ĠÃ¬bÃ²":4714,"ĠÃ¬fÃ²":4715,"ĠÃ¬tÃ©":4716,"rist":4717,"Ġfu":4718,"Ġfor":4719,"ĠyÃ¡n":4720,"ration":4721,"ĠgbÃ²Ã³":4722,"rÃŃá¹£i":4723,"inni":4724,"Ġeri":4725,"Ġeba":4726,"Ġekun":4727,"ĠelÃ²mÃŃrÃłn":4728,"ĠAb":4729,"ĠAh":4730,"ĠAba":4731,"ĠAto":4732,"ĠAke":4733,"ĠAtÃ²":4734,"ĠAgbÃ¨gbÃ¨":4735,"ĠAwolowo":4736,"ĠAjoni":4737,"ĠOk":4738,"ĠOdun":4739,"ĠOdÃ¹du":4740,"ĠÃ¨so":4741,"ĠÃ¨rÃ¨":4742,"ĠÃ²kÃ²":4743,"ĠÃ²furufÃº":4744,"rea":4745,"res":4746,"reen":4747,"reti":4748,"ony":4749,"ones":4750,"koro":4751,"Ġ1000":4752,"lot":4753,"lose":4754,"lolÃ¡":4755,"ĠÅĦpe":4756,"set":4757,"segun":4758,"moo":4759,"ĠIje":4760,"ĠIdije":4761,"Ġfisi":4762,"Ġfifi":4763,"Ġtoju":4764,"á¹£a":4765,"á¹£u":4766,"ordof":4767,"ĠlÃ¡lÃ©":4768,"pari":4769,"Ġwaa":4770,"lade":4771,"tooro":4772,"Ġsere":4773,"yewo":4774,"Ġgu":4775,"Ġgaa":4776,"kasÃŃ":4777,"Ġá»įrá»į":4778,"Ġá»įgbá»į":4779,"Ġá»įdáº¹":4780,"nia":4781,"nisilini":4782,"ÃĢti":4783,"ÃĢlÃłÃ³":4784,"Ġbibi":4785,"Ġsoke":4786,"ĠbÃ¡ra":4787,"takun":4788,"bÃ¡yÃ©":4789,"darÃłn":4790,"ĠNor":4791,"ĠÃĮJ":4792,"ĠÃĮla":4793,"ĠBC":4794,"ĠSte":4795,"ĠSco":4796,"ĠSene":4797,"Ġdiami":4798,"ĠMc":4799,"ĠÃĴÃ²rÃ¹n":4800,"ĠwÃłjÃł":4801,"ĠYe":4802,"Ġpade":4803,"way":4804,"wadÃ¬ÃŃ":4805,"ĠKanada":4806,"ĠKinni":4807,"ĠkÃŃká»į":4808,"Ġleti":4809,"ÃĮs":4810,"ÃĮwÃ²":4811,"ÃĮlÃ¹":4812,"ÃĮyÃłwÃ³":4813,"ĠGar":4814,"ĠGbÃ²":4815,"ĠGrÃŃÃ¬sÃ¬":4816,"arles":4817,"yÃłnji":4818,"rÃºdu":4819,"jidide":4820,"sowo":4821,"soso":4822,"Ġyipo":4823,"Ġyiyo":4824,"nÃŃsÃł":4825,"ĠJÃ©sÃ¹":4826,"ĠYork":4827,"kikan":4828,"ĠDu":4829,"Ġorisun":4830,"Ġkiki":4831,"lÃłjÃº":4832,"listi":4833,"Ġá¹£ÃŃ":4834,"Ġáº¹yá»į":4835,"ĠorÃŃá¹£i":4836,"ĠorÃŃá¹£Ã¬ÃŃ":4837,"beli":4838,"ĠTh":4839,"ĠCi":4840,"ĠCar":4841,"ĠCross":4842,"boolu":4843,"gerian":4844,"ĠÃĢgbÃł":4845,"ĠÃĢpilÃ¨":4846,"ĠÃĢdÃ¹nnÃŃ":4847,"ĠilÃ©e":4848,"dÃ©lÃ©":4849,"ÃĴfin":4850,"ĠFon":4851,"á»Įba":4852,"tÃ³nilÃ©":4853,"ĠdÃ¡yÃ©":4854,"Ġomokunrin":4855,"goye":4856,"ĠmÃºláº¹":4857,"dÃŃÃ¨":4858,"tutu":4859,"dÃłgbÃł":4860,"ĠHam":4861,"ĠHara":4862,"ĠRNA":4863,"Ġbotilejepe":4864,"ĠalÃ¡dÃ©":4865,"ĠalÃ¡wá»į":4866,"chu":4867,"Ġungbe":4868,"kÃºrÃ²":4869,"Ġ1821":4870,"Ġakorin":4871,"Ġakowe":4872,"Ġalakitiyan":4873,"ambia":4874,"wá»įlÃ©":4875,"sayensi":4876,"Ġmule":4877,"sanjo":4878,"onia":4879,"Ġá»įmá»įdÃ©":4880,"ĠnÃŃtorÃŃpÃ©":4881,"ĠMada":4882,"Ġlá»įwá»į":4883,"Ġwiwari":4884,"ald":4885,"stáº¹":4886,"ĠbÃ¨Ã¨rÃ¨":4887,"sÃ¬ni":4888,"tÃłdÃŃnlÃ³gÃºn":4889,"ĠÃłkÃ³so":4890,"kÃłndÃŃnlÃ³gÃºn":4891,"ĠtÃ¨dÃ³":4892,"hama":4893,"ĠkÃ¬lÃ³mÃŃtÃł":4894,"Ġ1977":4895,"kÃ¹Ãº":4896,"ĠmÃŃmá»į":4897,"Ġpáº¹nisilini":4898,"gÃŃrÃŃÃł":4899,"TÃŃtÃŃ":4900,"ĠOndo":4901,"gÃ³rÃ³":4902,"Ġ1981":4903,"Ġidiye":4904,"vic":4905,"hosis":4906,"Ġ1952":4907,"ĠÃłÃłre":4908,"Ġojuorun":4909,"Ġiposi":4910,"rÃ¬ndÃŃnlÃ³gÃºn":4911,"ĠsÃ²ro":4912,"ĠsÃ²rÃ²":4913,"danwo":4914,"Ġkuku":4915,"pupa":4916,"Ġlitireso":4917,"ĠKejila":4918,"ĠtÃºbÃ²":4919,"pÃłdÃ©":4920,"ĠÃ¬bÃ¡ra":4921,"ĠÃ¬sÃ²rÃŃ":4922,"Ġburu":4923,"Ġ1925":4924,"sÃ²rÃŃ":4925,"ĠBoko":4926,"ĠSaint":4927,"olombia":4928,"Ġcon":4929,"ĠdojÃº":4930,"Ġododo":4931,"Ġlatodo":4932,"yÃ³kÃ¹":4933,"Ġ149":4934,"ments":4935,"hammad":4936,"ngÃłn":4937,"Ġibaje":4938,"Ġibamu":4939,"ÃĮgbÃłgbÃ³":4940,"mÃ¡ÃłnÃ¹":4941,"Ġkáº¹ta":4942,"dent":4943,"Ġabajade":4944,"ĠArm":4945,"Ġeewo":4946,"ĠAustron":4947,"ĠÃ¬rÃ³kÃ²":4948,"Ġnumber":4949,"ĠBÃ¡mgbÃ³":4950,"ĠÃłtÃºnpÃŃn":4951,"Ġawako":4952,"ĠÃ¬gbÃŃn":4953,"Lapapo":4954,"Ġeleyii":4955,"ĠenÃ¬":4956,"Ġtobijulo":4957,"ĠÃĴgbÃ³mÃ²":4958,"brahim":4959,"ĠAdamawa":4960,"Sibesibe":4961,"Ġabáº¹ráº¹":4962,"xico":4963,"SÃŃwÃ¡jÃº":4964,"ĠIbile":4965,"ĠamÃºn":4966,"Ġitumo":4967,"ĠÃ¬fitÃ³nilÃ©":4968,"lÃ©lÃ³gÃºn":4969,"ĠBÃ¡mijÃ¬":4970,"gÃ¹rÃ¡":4971,"Ġiyipada":4972,"Ġalumoni":4973,"ĠdÃ¡nÃŃ":4974,"ĠadÃ¬ye":4975,"ĠwÃºnrÃ¨":4976,"Ġegbogi":4977,"á¹£iná¹£in":4978,"Ġtelifisan":4979,"ĠkarÃ¹n":4980,"ĠRÃ³mÃ¡ÃłnÃ¹":4981,"atomu":4982,"ibagbepo":4983,"ungary":4984,"ĠÃ²gbu":4985,"Ġlegbegberun":4986,"ĠTanzania":4987,"ĠÃłfÃ²mÃ³":4988,"ĠonÃŃgbÃłgbÃ³":4989,"rrhosis":4990,"Ġcirrhosis":4991,"ÅĦsÃ³nÃ¡n":4992,"dumare":4993,"Ġchamo":4994,"ĠIndonesia":4995,"ĠasunrÃ¡rÃł":4996,"ĠVolta":4997,"ĠDemocratic":4998,"ĠgbÃ²Ã³gÃ¬":4999,"Ġdiamita":5000,"yÃłnjiyÃłn":5001,"ĠHaram":5002,"ĠÃ¬fitÃ³nilÃ©tÃŃ":5003,"05":5004,"100":5005,"47":5006,"70":5007,"99":5008,";;":5009,"AN":5010,"Af":5011,"Ale":5012,"Agba":5013,"Agbo":5014,"AjÃŃbÃ³gun":5015,"Di":5016,"Eko":5017,"Ede":5018,"Gi":5019,"Hungary":5020,"ID":5021,"Iba":5022,"Irin":5023,"Ijo":5024,"Iwe":5025,"Ija":5026,"Ivo":5027,"Kini":5028,"LAM":5029,"Mu":5030,"Naijiria":5031,"Oro":5032,"Oju":5033,"OwÃ³":5034,"Odun":5035,"OlÃ¹":5036,"PP":5037,"Sir":5038,"TS":5039,"Temi":5040,"William":5041,"ab":5042,"alÃ©":5043,"aro":5044,"ada":5045,"agbe":5046,"ariwa":5047,"by":5048,"cs":5049,"cist":5050,"egun":5051,"eyi":5052,"ewe":5053,"gE":5054,"gÃ¡n":5055,"hÃ²":5056,"igba":5057,"ifáº¹":5058,"igbimo":5059,"joro":5060,"ker":5061,"lÃ¹bÃ¡":5062,"mÃ¬ÃŃ":5063,"mÃ¨rÃ¨":5064,"nÃ©":5065,"nla":5066,"ori":5067,"osi":5068,"ski":5069,"tri":5070,"toro":5071,"uth":5072,"Â²":5073,"Ã§":5074,"Äģ":5075,"á¸":5076,"ĠØ":5077,"ĠÃŃn":5078,"Ġnba":5079,"ĠnlÃ¡":5080,"Ġnmu":5081,"Ġnfaa":5082,"ĠtÃ²Ã³tÃ³":5083,"Ã¡lÃ¡":5084,"Ã¡mÃ³":5085,"Ã¡fÃŃÃł":5086,"ÃłrÃ²":5087,"Ã³n":5088,"dor":5089,"dogba":5090,"Ã©sÃ¬":5091,"ĠorÃº":5092,"Ġokere":5093,"ĠogÃ³jÃ¬":5094,"ĠalÃ©":5095,"ĠamÃ²":5096,"ĠagbÃ¡":5097,"Ġajá»į":5098,"Ġawá»į":5099,"ĠatÃ¨":5100,"ĠafÃ©":5101,"Ġasia":5102,"Ġapáº¹":5103,"ĠatÃºmÃ²":5104,"gbÃ¬":5105,"gbÃ¬ÃŃn":5106,"ÃºbÃł":5107,"Ġnit":5108,"Ã²kan":5109,"ĠlÃº":5110,"Ġlon":5111,"á»ĭ":5112,"Ġib":5113,"Ġika":5114,"Ġigun":5115,"ĠibÃŃ":5116,"Ġipe":5117,"Ġiká»į":5118,"Ġioni":5119,"Ġifáº¹":5120,"Ġilopo":5121,"Ġipile":5122,"Ġigbana":5123,"Ġironu":5124,"Ġkro":5125,"ĠÃłlÃ¹":5126,"ĠÃłga":5127,"ĠÃłbÃº":5128,"ĠÃłyÃł":5129,"ĠÃłjá»į":5130,"ĠÃłpÃ¨":5131,"ĠÃłgbáº¹":5132,"ange":5133,"Ġban":5134,"ĠbÃ¹":5135,"Ġblo":5136,"Ġman":5137,"ĠmÃ¹":5138,"ĠmÃłÃ¡":5139,"Ġtipati":5140,"ĠÃ¬wo":5141,"ĠÃ¬po":5142,"ĠÃ¬rÃº":5143,"ĠÃ¬dÃ²":5144,"ĠÃ¬mÃº":5145,"ĠÃ¬fÃł":5146,"ĠÃ¬táº¹":5147,"ĠÃ¬fara":5148,"ĠÃ¬rÃŃrÃŃ":5149,"ĠÃ¬pinnu":5150,"ĠÃ¬yÃ³kÃ¹":5151,"Ġpani":5152,"Ã¹dÃ¹":5153,"ĠyÃŃn":5154,"ram":5155,"rafi":5156,"ĠdÃ¡ÃłbÃ²":5157,"Ġgbu":5158,"Ġgbáº¹":5159,"rÃŃá¹£Ã¬ÃŃ":5160,"Ġex":5161,"Ġeje":5162,"Ġeke":5163,"Ġemeji":5164,"Ġeyun":5165,"leko":5166,"lebu":5167,"ĠAu":5168,"ĠArin":5169,"ĠAjo":5170,"ĠAgbo":5171,"ĠAfi":5172,"ĠApÃ¡":5173,"ĠArÃ¡":5174,"ĠAkowe":5175,"ĠApapo":5176,"ĠOde":5177,"ĠOke":5178,"ĠOrun":5179,"ĠOna":5180,"ĠOdÃ¹":5181,"ĠOyo":5182,"ĠOorun":5183,"ĠOÃ²rÃ¹n":5184,"ĠOff":5185,"ĠOpen":5186,"ĠÃ¨mi":5187,"ĠÃ¨yÃł":5188,"ĠÃ²dÃ¬":5189,"ĠÃ²rÃ¹":5190,"ĠÃ²Ã³tÃ³":5191,"ÃłnÃ¬":5192,"kole":5193,"kopu":5194,"ĠsÃŃso":5195,"bas":5196,"ÅĦje":5197,"ĠÅĦs":5198,"Ġlojo":5199,"Ġlodun":5200,"Ġloruko":5201,"Ã¡ÃłlÃº":5202,"bic":5203,"ĠIdo":5204,"ĠIlo":5205,"ĠIgi":5206,"ĠIsiro":5207,"ringberin":5208,"Ġfifa":5209,"ĠsisÃ©":5210,"kankan":5211,"kanla":5212,"org":5213,"sian":5214,"sisi":5215,"ĠlÃ¡mÃ¨yÃŃtÃ³":5216,"ĠkannÃ¡Ãł":5217,"par":5218,"pagba":5219,"Ã¬nÃ¡":5220,"Ġlapapo":5221,"lagbÃł":5222,"lack":5223,"ĠwolÃ©":5224,"toun":5225,"ĠlÃ³kÃ¨":5226,"gbajÃł":5227,"Ġatijo":5228,"ĠgÃłba":5229,"kali":5230,"Ġá»įpa":5231,"Ġá»įtÃŃ":5232,"Ġkole":5233,"Ġkoju":5234,"ÃĢÃł":5235,"ÃĢpÃ³":5236,"ÃĢdÃ¹nnÃŃ":5237,"lÃ³rÃŃ":5238,"ĠbÃŃmo":5239,"tation":5240,"mitic":5241,"daju":5242,"Ġpele":5243,"ĠÃĮwÃ²":5244,"ĠÃĮjá»į":5245,"ïĢ¤-":5246,"Ġmole":5247,"ĠSÃ©":5248,"ĠStan":5249,"ĠÃĴs":5250,"ĠÃĴÃ²":5251,"ĠÃĴrÃ³":5252,"ĠÃĴrÃ¬":5253,"Ġbami":5254,"Ġgbagbe":5255,"ĠEdo":5256,"ĠEast":5257,"Ġree":5258,"Ġpapá»į":5259,"Ġpaapa":5260,"ĠKon":5261,"ĠKÃ¡n":5262,"pere":5263,"ĠkÃŃlÃŃ":5264,"ÃĮyen":5265,"ĠGáº¹":5266,"ĠGÃºsÃ¹":5267,"wÃ³pa":5268,"souri":5269,"nÃŃÃł":5270,"ĠwÃ¡Ã¡":5271,"ĠJÃ¡":5272,"ĠJonathan":5273,"ĠJones":5274,"kÃ²yÃŃ":5275,"ruge":5276,"ruce":5277,"ĠDr":5278,"ĠDou":5279,"ĠDAL":5280,"Ġoris":5281,"Ġkilo":5282,"rÃ¨gÃºn":5283,"Ġá¹£Ã¨":5284,"Ġá¹£á»į":5285,"bere":5286,"ĠmÃ©wÃłÃ¡":5287,"ĠkÃ³lÃ©":5288,"ĠTÃ³":5289,"ĠCen":5290,"ĠChan":5291,"ĠLar":5292,"bodia":5293,"ĠrÃŃn":5294,"Ġtara":5295,"ÃłtÃłkÃ¬":5296,"ÃĪrÃ²":5297,"ĠpÃ¨sÃ¨":5298,"lÃ¹kÃ¹":5299,"ĠFu":5300,"mule":5301,"muel":5302,"Ġdale":5303,"Ġorileede":5304,"á»Įjá»į":5305,"ĠlÃ©tÃŃ":5306,"Ġolomi":5307,"Ġwá»įá¹ħ":5308,"Ġibitooro":5309,"Ġomolu":5310,"isÃ¬n":5311,"Ġhu":5312,"ĠhÃŃ":5313,"ĠmÃºÃ¹dÃ¹":5314,"budo":5315,"Ġkefa":5316,"ĠÃ¬gbÃłlÃ¨":5317,"jÃ¨jÃ¬":5318,"jalÃ¨":5319,"ĠHol":5320,"ĠHigh":5321,"dÃºrÃł":5322,"Ġmefa":5323,"chy":5324,"cher":5325,"já»įpá»į":5326,"já»įwá»į":5327,"tÃ²pÃ¹":5328,"dÃ¬mÃº":5329,"giri":5330,"gile":5331,"ĠolÃ³nÃ¬ÃŃ":5332,"ĠolÃ³á¹£Ã¨lÃº":5333,"Ġmasiti":5334,"kÃ¹nrÃ©":5335,"Ġakoran":5336,"Ġogunlogo":5337,"ĠonÃŃlÃ©":5338,"Ġonis":5339,"Ġonise":5340,"ĠdÃŃdÃ¹n":5341,"Ġiselu":5342,"Ġiseju":5343,"Ġgberingberin":5344,"Ġagbaboolu":5345,"Ġkariaye":5346,"wÃ¹jalÃ¨":5347,"ĠAfrican":5348,"ĠkÃ©je":5349,"ĠNigerian":5350,"tÃłrÃŃ":5351,"ĠÃłkÃ³bÃ¡":5352,"á¹£etÃ¡n":5353,"Ġpolongo":5354,"bÃ¹dÃ³":5355,"Ġ1974":5356,"ĠOlori":5357,"Ġ1964":5358,"ĠmÃŃmÃ³":5359,"ĠOlÃ³run":5360,"ĠOlÃ³mÃ¬nira":5361,"Ġayeye":5362,"illa":5363,"Ġapaguusu":5364,"anuel":5365,"Ġsaba":5366,"LÃ¡kÃ²Ã³":5367,"TÃŃÃ¡tÃł":5368,"ĠAlÃ¡rÃ³":5369,"OrÃŃlÃ¨":5370,"arailu":5371,"Ġ1987":5372,"Ġinuikun":5373,"Ġ1956":5374,"ĠkÃ¡rÃŃ":5375,"ĠkÃ¡lÃ¨":5376,"Ġyori":5377,"Ġelemin":5378,"ĠÃ²kÃ¨Ã¨rÃ¨":5379,"ĠÃłÃłbÃ²":5380,"Ġidamo":5381,"ĠKameroon":5382,"ĠKaduna":5383,"Ġmejila":5384,"ĠAgbala":5385,"Ġ1930":5386,"Ġ1934":5387,"ĠAlfre":5388,"bÃ¬lÃ¬":5389,"ĠÃ¬bÃ¡sepÃ²":5390,"tional":5391,"ĠÅĦlÃ¡ÅĦlÃ¡":5392,"ĠÃłgbÃ©yáº¹":5393,"Ġbudo":5394,"ĠburÃº":5395,"ĠÃłÃ¡dá»į":5396,"Ġ1929":5397,"ĠorÃŃsÃ¬ÃŃ":5398,"ssss":5399,"ĠsÃ¨dÃ¡":5400,"Ġ1910":5401,"Ġ1918":5402,"ĠÃłpeere":5403,"Ġonina":5404,"Ġariwailaorun":5405,"Ġitanna":5406,"ĠJoseph":5407,"Ġjijáº¹":5408,"Ġadalu":5409,"Ġiyato":5410,"ques":5411,"Ġláº¹yin":5412,"Ġibasepo":5413,"ĠJames":5414,"ĠÃłÃ¬rÃŃ":5415,"ĠFrance":5416,"etÃ¡n":5417,"Ġwulo":5418,"ĠCau":5419,"ĠÃ¨rÃ²jÃł":5420,"kÃŃnÃŃ":5421,"ĠZu":5422,"ĠZambia":5423,"ĠChristi":5424,"ĠyÃ³Ã³":5425,"ĠPoto":5426,"OrÃŃsÃ¬ÃŃ":5427,"foru":5428,"fornia":5429,"ĠjÃ¬nÃł":5430,"ĠOluwa":5431,"IrÃºfÃ©":5432,"dÃ¡nwÃ²":5433,"ojuorun":5434,"sá»įdipÃºpá»į":5435,"ĠAPIS":5436,"Ġoore":5437,"ander":5438,"ĠÃĢjÃłkÃ¡":5439,"iiii":5440,"Ġwee":5441,"ĠSokoto":5442,"Ġawari":5443,"bangi":5444,"Ġoooo":5445,"Ġijosin":5446,"ĠYunifÃ¡":5447,"Ġabele":5448,"Ġiranlose":5449,"Ġprote":5450,"ĠSankara":5451,"chael":5452,"gÃłdÃ¡":5453,"Ġdinku":5454,"ĠAdams":5455,"Ġaago":5456,"ĠItalia":5457,"ĠBÃŃbÃ©lÃ¬":5458,"SÃŃbÃ¨":5459,"ĠÃ¬lÃ©rÃŃ":5460,"ĠÃ²rÃ¬á¹£Ãł":5461,"Opolopo":5462,"Ġnow":5463,"ĠÃłbÃ¡lÃ¡yÃ©":5464,"ĠBrown":5465,"Gegebi":5466,"Ġgeesi":5467,"ĠMorÃ¨mi":5468,"Ġaká»įká»į":5469,"ĠÃ¬rÃ¬nÃłjÃ²":5470,"Pelu":5471,"ĠÃłpáº¹áº¹ráº¹":5472,"ĠÃĮrÃ¨lÃ¨":5473,"ĠBelgi":5474,"ĠHoward":5475,"Paul":5476,"danilo":5477,"ĠQue":5478,"ĠÃłjÃ²jÃ¬":5479,"Ġvon":5480,"ĠLÃºwÃł":5481,"ĠÃ¬wÃºlÃ²":5482,"ĠÃ¬dÃ¡nwÃ²":5483,"Ġojise":5484,"ĠfonÃ³":5485,"ĠErekusu":5486,"LÃ³Ã²Ã³tÃ³":5487,"port":5488,"Ġelomiran":5489,"lelogbon":5490,"ĠMissouri":5491,"ĠolÃ³Ã²tÃº":5492,"ĠNÃłÃŃgÃŃrÃŃÃł":5493,"ĠAberdeen":5494,"ĠSpain":5495,"LÃ¡Ãłrin":5496,"Ġtaara":5497,"ĠJamaika":5498,"ĠmÃ©jÃ©Ã¨jÃ¬":5499,"ĠsÃ¡Ã¡bÃł":5500,"Ġimmun":5501,"ĠÃłtÃ¬pÃ³":5502,"ĠewÃºrÃ©":5503,"ĠElizabeth":5504,"ĠGbÃ¡gÃ¹rÃ¡":5505,"ĠYugoslafia":5506,"ordofanian":5507,"ĠSenegal":5508,"ĠAustronesian":5509,"ĠÃ²gbufÃ²":5510,"Ġchamotex":5511,"Ivoire":5512,"Ġtipatipa":5513,"ĠkÃŃlÃŃÃ¬kÃ¬":5514,"ĠDALL":5515,"\")":5516,"'.<|":5517,".âĢĻ<|":5518,"33":5519,"49":5520,"59":5521,"72":5522,"AR":5523,"Ab":5524,"Ar":5525,"Aye":5526,"Ada":5527,"AyÃ©":5528,"ArÃ¡":5529,"AjÃ¡":5530,"AgbÃ¡ra":5531,"Agbegbe":5532,"BS":5533,"Cla":5534,"DÃ©":5535,"Don":5536,"Eto":5537,"IbÃ¡":5538,"Iji":5539,"Ipinle":5540,"Je":5541,"June":5542,"KÃº":5543,"Ká»į":5544,"Kwa":5545,"Loo":5546,"MÃ¡":5547,"Murtala":5548,"OhÃ¹n":5549,"PÃ¡":5550,"Ri":5551,"SO":5552,"SÃ¹gbá»į":5553,"SCO":5554,"TP":5555,"TÃºndÃ©":5556,"YÃ³Ã²":5557,"YÃ©wÃ¡ndÃ©":5558,"Zan":5559,"Zik":5560,"aje":5561,"ayo":5562,"bble":5563,"born":5564,"cco":5565,"cent":5566,"cture":5567,"dra":5568,"dda":5569,"eli":5570,"ewi":5571,"fani":5572,"gre":5573,"ia":5574,"iz":5575,"jani":5576,"klÃ©":5577,"kli":5578,"ksÃ¬":5579,"lf":5580,"lt":5581,"lly":5582,"mbo":5583,"mph":5584,"ná»į":5585,"ngbÃł":5586,"nmÃ¬":5587,"ob":5588,"oÃ²":5589,"odi":5590,"owÃ³":5591,"oyÃ¨":5592,"ople":5593,"px":5594,"phe":5595,"pper":5596,"rÃ¬ÃŃ":5597,"sho":5598,"skopu":5599,"tte":5600,"uka":5601,"uli":5602,"ws":5603,"ww":5604,"Ä«":5605,"Äĩ":5606,"ÅŁ":5607,"Î±":5608,"ÏĤ":5609,"Ð¸":5610,"Ð¾":5611,"ÙĪ":5612,"à¸":5613,"Ġ$":5614,"Ġca":5615,"ÃŃlÃŃÃ²":5616,"ĠÃī":5617,"ïĢ¥;":5618,"Ġnka":5619,"Ġnni":5620,"Ġnmi":5621,"Ġntan":5622,"ĠnÃłÃ¡":5623,"Ġngbá»įn":5624,"Ġth":5625,"Ġtra":5626,"Ã¡lÃł":5627,"ento":5628,"enda":5629,"enus":5630,"temu":5631,"Ã©rÃ©":5632,"Ġowon":5633,"Ġogba":5634,"ĠogbÃł":5635,"Ġoma":5636,"ĠodÃ¹":5637,"ĠosÃ³":5638,"ĠogÃ³":5639,"Ġoá¹£Ã¹":5640,"Ġosise":5641,"Ġoá¹£u":5642,"Ġagb":5643,"ĠagbÃ³":5644,"ĠagbÃ©":5645,"ĠagbÃ¨":5646,"Ġaá¹£áº¹":5647,"ĠayÃ²":5648,"Ġakiyesi":5649,"Ã¨jo":5650,"Ã¨kÃ³":5651,"Ã¨tÃ¬":5652,"Ã¨bÃ©Ã¨rÃ¨":5653,"Ã¬dÃ¬":5654,"ĠsÃ¹":5655,"ĠsÃ¡Ãł":5656,"Ġnipo":5657,"Ġnipe":5658,"Ġnibo":5659,"Ġninla":5660,"Ã²rÃ¨":5661,"Ġlan":5662,"ĠwÃ¨":5663,"Ġiwá»įn":5664,"ĠiyÃ¨":5665,"Ġimá»į":5666,"Ġifun":5667,"Ġiban":5668,"ĠkÃŃn":5669,"Ġkarun":5670,"ĠÃłpa":5671,"ĠÃłyÃŃ":5672,"ĠÃłwÃ³":5673,"ĠÃłrÃ¬":5674,"ĠÃłkÃ¡":5675,"ĠÃłpilÃ¨":5676,"ïĢ£;":5677,"unla":5678,"ĠmÃºn":5679,"áº¹ta":5680,"wood":5681,"Ġtie":5682,"Ġtiwá»įn":5683,"ĠÃ¬ba":5684,"ĠÃ¬lu":5685,"ĠÃ¬da":5686,"ĠÃ¬yÃ¨":5687,"ĠÃ¬jÃŃ":5688,"ĠÃ¬lá»į":5689,"ĠÃ¬kÃ©":5690,"ĠÃ¬kara":5691,"riba":5692,"riki":5693,"Ġpinu":5694,"ĠnÃŃgbÃ¨":5695,"ĠnÃŃwÃ¡jÃº":5696,"Ġfaa":5697,"ĠjÃ²":5698,"ĠtÃŃn":5699,"ĠtÃŃÃŃ":5700,"rah":5701,"rat":5702,"Ġdede":5703,"rÃŃka":5704,"inÃº":5705,"Ġewo":5706,"Ġegba":5707,"Ġegun":5708,"ĠerÃº":5709,"Ġeyan":5710,"Ġeja":5711,"Ġegberun":5712,"lera":5713,"ĠAdo":5714,"ĠAse":5715,"ĠAmo":5716,"ĠAja":5717,"ĠAdÃº":5718,"ĠAdÃ³":5719,"ĠAtá»į":5720,"ĠAche":5721,"ĠAzer":5722,"ĠAgÃŃgÃŃrÃŃ":5723,"ĠOR":5724,"ĠOhun":5725,"ĠOga":5726,"ĠOfurufu":5727,"ĠObÃ²kun":5728,"ĠÃ¨yÃ¡n":5729,"ĠÃ²ru":5730,"ĠÃ²tÃºn":5731,"ĠÃ²kÃºta":5732,"ĠÃ²á¹£Ã¨lÃº":5733,"ĠÃ²fÃ¬":5734,"ret":5735,"ÃłnÃ¡mÃ³":5736,"koja":5737,"baye":5738,"ball":5739,"los":5740,"Ġjeyo":5741,"Ġjeog":5742,"ĠÅĦjÃ©":5743,"ĠÅĦpÃ¨":5744,"Ġloo":5745,"Ġlohun":5746,"Ã¡ÃłrÃŃwÃ¡":5747,"ĠIre":5748,"ĠIla":5749,"ĠIda":5750,"ĠIgbe":5751,"ĠIja":5752,"ĠIfa":5753,"ĠIsokan":5754,"Ġfife":5755,"ĠfilÃŃsÃŃÃł":5756,"Ġtoo":5757,"Ġtoun":5758,"Ġtogba":5759,"Ġtooto":5760,"ĠÃłtijá»į":5761,"á¹£Ã¨":5762,"Ġsiwa":5763,"ĠlÃ¡ÃŃ":5764,"ĠlÃ¡yÃ¨":5765,"ĠlÃ¡pÃ¡":5766,"pamo":5767,"lÃºkáº¹":5768,"lara":5769,"Ġwopo":5770,"toko":5771,"ros":5772,"roti":5773,"roati":5774,"roup":5775,"Ġsese":5776,"luku":5777,"ĠtÃ³Ã³":5778,"ĠtÃ³jÃº":5779,"ĠtÃ³kÃ¹":5780,"ĠgÃº":5781,"Ġkoo":5782,"Ġkose":5783,"Ġkorin":5784,"ĠkorÃŃko":5785,"nidÃ¡":5786,"nikÃ©":5787,"ÃĢgbÃ¡":5788,"Ġbig":5789,"lÃ¡ÅĦ":5790,"erra":5791,"ĠbÃŃbÃ©lÃ¬":5792,"Ġsowo":5793,"Ġsori":5794,"Ġsodi":5795,"ĠsokÃ¹n":5796,"Ġsofo":5797,"ĠbÃ¡n":5798,"gbodo":5799,"gbowo":5800,"tai":5801,"tapha":5802,"mia":5803,"mita":5804,"mical":5805,"mistri":5806,"ĠÃĮlÃ¡":5807,"ĠÃĮje":5808,"ĠÃĮmá»į":5809,"ĠÃĮwÃ©":5810,"ĠÃĮjÃł":5811,"ĠÃĮpÃ³":5812,"ĠÃĮkÃ¡":5813,"ĠÃĮjÃ©lÃ¨":5814,"gunwa":5815,"ĠBÃł":5816,"ĠBlack":5817,"ĠSO":5818,"ĠSh":5819,"ĠSÃ¡":5820,"ĠSÃ²":5821,"ĠSwe":5822,"ĠSir":5823,"ĠSwi":5824,"ĠMÃ¡":5825,"ĠÃĴke":5826,"ĠÃĴdÃ¹duwÃł":5827,"Ġaraalu":5828,"Ġbale":5829,"Ġbaje":5830,"Ġgbadun":5831,"ĠEnu":5832,"ĠEwe":5833,"ĠEsin":5834,"gbÃ³nÃ¡":5835,"Ġpaja":5836,"ĠKuba":5837,"pete":5838,"ĠkÃŃkan":5839,"ÃĮlÃ©":5840,"ÃĮjÃł":5841,"ÃĮwá»į":5842,"ĠGan":5843,"ĠGbe":5844,"ĠGbÃ³":5845,"ĠGur":5846,"ĠGbá»į":5847,"wÃ³gbÃł":5848,"art":5849,"sodipupo":5850,"Ã¡nÃł":5851,"Ġyiyan":5852,"ĠwÃ¡dÃ¬ÃŃ":5853,"rani":5854,"rans":5855,"kistan":5856,"ĠDÃ©":5857,"Ġjáº¹jáº¹":5858,"lio":5859,"liki":5860,"lity":5861,"lifornia":5862,"yiki":5863,"Ġá¹£iá¹£e":5864,"Ġáº¹pa":5865,"Ġáº¹yin":5866,"Ġáº¹fá»į":5867,"Ġáº¹sáº¹":5868,"Ġáº¹nÃ¬kan":5869,"meÃ¨":5870,"Ġilera":5871,"Ġisale":5872,"ĠkÃ³Ã²":5873,"ĠTut":5874,"ĠTÃºndÃ©":5875,"ĠColu":5876,"ĠLai":5877,"ĠrÃŃi":5878,"ĠrÃŃran":5879,"fiki":5880,"fihan":5881,"Ġtakun":5882,"ĠÃĢj":5883,"ĠÃĢlÃł":5884,"ĠÃĢgÃłdÃ¡":5885,"usti":5886,"usse":5887,"yapa":5888,"yato":5889,"yame":5890,"ÃĴpÃ²":5891,"ÃĴpÃ³":5892,"yana":5893,"ĠFÃ³":5894,"ĠFor":5895,"ĠFaye":5896,"ĠFRS":5897,"Ġeniko":5898,"ĠPi":5899,"ĠPÃ³":5900,"ĠPara":5901,"rÃ¹nmÃ¬lÃł":5902,"ĠÃ¬sÃ¨lÃº":5903,"ĠlÃ©nu":5904,"Ġolodi":5905,"Ġolorun":5906,"ĠolorÃ¬":5907,"ĠdÃ¡rÃºko":5908,"ïĢ¬,":5909,"gajulo":5910,"gascar":5911,"isoro":5912,"istemu":5913,"Ġhy":5914,"buru":5915,"dÃłÃ¡":5916,"ĠHel":5917,"Ġbobo":5918,"Ġbombu":5919,"ĠalÃ¡bÃłÃ¡":5920,"Ġmewa":5921,"ĠdÃ©Ã©dÃ©":5922,"kuso":5923,"kuru":5924,"Nito":5925,"tÃ²rÃ²":5926,"Ġ2002":5927,"kÃºlÃ¹kÃ¹":5928,"Ġigbadun":5929,"Ġigbadie":5930,"mÃŃst":5931,"Ġakoewi":5932,"ĠWo":5933,"ĠWolo":5934,"ĠWestern":5935,"ĠWorld":5936,"Ġalase":5937,"Ġalamo":5938,"Ġalakoso":5939,"ĠonÃŃlÃ¹":5940,"Ġriru":5941,"binu":5942,"yode":5943,"Ġfagile":5944,"dÃ³gÃºn":5945,"wuwo":5946,"Ġonibugbe":5947,"Ġonitanna":5948,"ĠmÃ³wÃ³":5949,"sas":5950,"say":5951,"ĠÃĪyÃŃ":5952,"ĠÃĪgbÃ¡":5953,"ĠÃĪgÃ¹n":5954,"ĠMac":5955,"ĠMax":5956,"ĠMaria":5957,"Ġgbese":5958,"all":5959,"Ġagbajo":5960,"bÃ²yÃłn":5961,"ĠojÃºbo":5962,"ĠojÃºlÃ³wÃ³":5963,"sÃ³tÃ²pÃ¹":5964,"stria":5965,"ĠNok":5966,"sÃ¬nyÃŃ":5967,"ĠmÃ©jÃ¬dÃŃnlÃ³gÃºn":5968,"kÃłnbÃŃ":5969,"ĠtÃ¨lÃ©":5970,"bÃ³yÃ¨":5971,"á¹£epá»į":5972,"ĠInter":5973,"ĠInstitu":5974,"ĠBaji":5975,"ĠBalÃ³gun":5976,"kÃ¡lukÃº":5977,"ĠKesan":5978,"ĠKemistri":5979,"ĠmÃŃmÃ²":5980,"ĠÃ¬dÃŃje":5981,"ĠOlÃ³fin":5982,"Ġká»įjÃ¡":5983,"Ġjazz":5984,"Ġomiran":5985,"lÃŃá»į":5986,"Ġyiowu":5987,"ĠolÃ¹so":5988,"Ġbáº¹áº¹":5989,"Ġ2013":5990,"Ġ2015":5991,"OrÃŃsirÃŃsi":5992,"tern":5993,"Ġ1985":5994,"Ġbabalawo":5995,"ĠpÃŃnyÃł":5996,"eld":5997,"BÃ¡mi":5998,"Ġelemi":5999,"Ġelesin":6000,"Ġmáº¹fa":6001,"ĠOlÃºwa":6002,"ĠÃłÃłlÃł":6003,"ĠÃłÃłrÃŃn":6004,"Ġidagbasoke":6005,"Ġropo":6006,"Ġrock":6007,"Ġibeere":6008,"ĠÃłgbÃłlagbÃł":6009,"Ġ1933":6010,"ĠlÃłÃł":6011,"ĠMarx":6012,"ĠÃ¬wÃ²sÃłn":6013,"ĠÃ¬bÃ¡s":6014,"Ġfowo":6015,"nedy":6016,"ĠÃ¬wÃłrÃ¨":6017,"ĠyanjÃº":6018,"ckson":6019,"astern":6020,"sialisti":6021,"Ġdarapo":6022,"ĠÃłÃ¡rÃ²":6023,"ĠIslam":6024,"ĠBobo":6025,"ĠAng":6026,"ĠorÃŃsÃ¬ÃŃrÃŃsÃ¬ÃŃ":6027,"ssy":6028,"Ġranti":6029,"Ġanabi":6030,"Ġ1911":6031,"Ġ1917":6032,"Ġimoye":6033,"ĠLagos":6034,"Ġonje":6035,"Ġgaju":6036,"Ġiwari":6037,"Ġeroja":6038,"gÃ¬rÃ¬":6039,"Ġaiye":6040,"BÃ¡kannÃ¡Ãł":6041,"ĠRosia":6042,"Ġasopá»į":6043,"Ġdiedie":6044,"ĠrÃ¡ns":6045,"ĠpÃ¡pÃ¡":6046,"Ġguusuiwoorun":6047,"tÃ¹Ãº":6048,"Ġlonibise":6049,"ĠUnion":6050,"ĠgbÃ¡ra":6051,"ĠLeone":6052,"ĠtÃ²un":6053,"ĠÃĴgÃºnlolÃ¡":6054,"ĠÃĴgÃºndÃ©lÃ©":6055,"ĠGuang":6056,"ĠPolandi":6057,"2003":6058,"2007":6059,"wiri":6060,"ĠApÃ¡ÃłrÃŃwÃ¡":6061,"Ġeeyan":6062,"Ġ80":6063,"ĠMexico":6064,"Latin":6065,"ĠDavid":6066,"ssion":6067,"ĠatÃ³ka":6068,"Ġirelura":6069,"ĠFagunwa":6070,"kÃ¡nÃŃ":6071,"Ġabuda":6072,"ĠAsoju":6073,"ĠRiver":6074,"Ġagaga":6075,"1982":6076,"dinlogbon":6077,"ĠAparapo":6078,"ĠKennedy":6079,"Ġaá¹£á»į":6080,"Ġrá»įrÃ¹n":6081,"ĠOlÃ¹wÃł":6082,"dern":6083,"chigan":6084,"rence":6085,"Ġobirin":6086,"ĠadÃ¡wÃł":6087,"Ġilaoorun":6088,"ĠAmáº¹rika":6089,"ĠIgbakeji":6090,"oruko":6091,"Ġifihan":6092,"ĠÃłbÃ¡jÃ¡de":6093,"rioti":6094,"July":6095,"Ġamioro":6096,"Ġ1864":6097,"Ġotito":6098,"duduwa":6099,"conomi":6100,"gentina":6101,"ginjÃ¹":6102,"moniyan":6103,"ĠadÃ¬e":6104,"ĠwÃºnráº¹":6105,"Ġkaakiri":6106,"ĠStates":6107,"Comments":6108,"á»įlÃ¡á¹£adÃ©":6109,"ĠKambodia":6110,"Ġigboro":6111,"ĠAbiola":6112,"Ġogbeni":6113,"Ġopagun":6114,"ĠKÃ©tu":6115,"russia":6116,"ĠLanguage":6117,"ĠIndian":6118,"Ġnukleu":6119,"Ġnukleoti":6120,"November":6121,"Radio":6122,"ĠÃłrokÃ²":6123,"ĠÃ¬hÃł":6124,"resident":6125,"ĠEnglish":6126,"darapomora":6127,"ennis":6128,"Ġagogo":6129,"Ġatunse":6130,"Ġnitosi":6131,"ĠErÃ©kÃ¹sÃ¹":6132,"ĠGowon":6133,"ĠHungari":6134,"space":6135,"Ġakoni":6136,"ĠÃ¬bÃłjÃ©":6137,"ĠAlex":6138,"asofin":6139,"ĠÃłjÃ¹mÃ²":6140,"ĠNational":6141,"ĠSwahili":6142,"ĠMusso":6143,"ĠTuntun":6144,"ĠKabila":6145,"hington":6146,"October":6147,"atÃ³ka":6148,"ĠnÃºklÃ©":6149,"ĠafÃłnÃ¡mÃ³":6150,"ĠasÃłpÃ¨jÃºwe":6151,"ĠibÃ²mÃŃrÃłn":6152,"ĠÃ¬tumá»į":6153,"ĠCity":6154,"ĠMadagascar":6155,"pagbajoba":6156,"Ġpaapaa":6157,"ĠDoug":6158,"ĠAlfred":6159,"nmÃ¬rÃ¨gÃºn":6160,"Ġibanisoro":6161,"ĠÃ¬karahun":6162,"ĠAzerbai":6163,"Ġjeografi":6164,"ĠÃĮpÃ³lÃ©":6165,"Ġjáº¹jáº¹ráº¹":6166,"ĠTutsi":6167,"mÃŃstrÃ¬":6168,"ĠWolof":6169,"ĠInstitute":6170,"ĠafÃłnÃ¡mÃ³nÃ¬ÃŃ":6171,"%),":6172,".âĢĻ,":6173,"02":6174,"07":6175,"37":6176,"45":6177,"57":6178,"60":6179,"65":6180,"67":6181,"73":6182,"://":6183,"Aa":6184,"Ah":6185,"Ap":6186,"AkÃ©":6187,"Abáº¹":6188,"AgbÃ¨gbÃ¨":6189,"August":6190,"Agbara":6191,"BC":6192,"Ban":6193,"BÃļ":6194,"Ca":6195,"Co":6196,"Con":6197,"DE":6198,"DÃ¡":6199,"Ele":6200,"Ere":6201,"Eyin":6202,"Eku":6203,"Europe":6204,"ESCO":6205,"FA":6206,"FC":6207,"Feb":6208,"Go":6209,"Gba":6210,"GbÃŃ":6211,"Gene":6212,"GUN":6213,"IgbÃł":6214,"Ibo":6215,"IsÃ©":6216,"ItÃ¡n":6217,"IFA":6218,"JÃ²":6219,"Jenni":6220,"LÃº":6221,"Lá»į":6222,"Loni":6223,"ML":6224,"Mande":6225,"NU":6226,"Ne":6227,"Nn":6228,"Nkan":6229,"OT":6230,"Oko":6231,"Osi":6232,"Po":6233,"PÃłtÃłkÃ¬":6234,"SA":6235,"Sy":6236,"Vi":6237,"WÃł":6238,"YÃłtá»į":6239,"awon":6240,"awá»įn":6241,"ayika":6242,"bbe":6243,"bgo":6244,"can":6245,"clo":6246,"cques":6247,"dle":6248,"dre":6249,"danu":6250,"eÃ¨":6251,"elo":6252,"eda":6253,"esÃŃ":6254,"ewÃ©":6255,"fan":6256,"ffi":6257,"gle":6258,"gon":6259,"gorun":6260,"ghan":6261,"har":6262,"hmer":6263,"irÃ²":6264,"idi":6265,"iru":6266,"ije":6267,"iwe":6268,"iyan":6269,"igi":6270,"jon":6271,"jor":6272,"kra":6273,"kede":6274,"ls":6275,"lle":6276,"lini":6277,"lenu":6278,"lÄĻ":6279,"nÃłn":6280,"ning":6281,"oye":6282,"oja":6283,"ples":6284,"phia":6285,"rs":6286,"rÄĻ":6287,"sen":6288,"sse":6289,"sÃŃn":6290,"sha":6291,"sco":6292,"tz":6293,"trÃ³":6294,"xo":6295,"xx":6296,"yaa":6297,"yne":6298,"zo":6299,"Î²":6300,"Î½":6301,"Ð²":6302,"á¼":6303,"Ġ/":6304,"Ġ@":6305,"Ġ`":6306,"Ġvi":6307,"Ġco":6308,"Ġá¹¢":6309,"ĠÃħ":6310,"ĠÃĻ":6311,"ïĢ¥âĢĿ":6312,"ïĢ¥?<|":6313,"Ġns":6314,"Ġnri":6315,"ĠnÃ¹":6316,"Ġnda":6317,"Ġnjáº¹":6318,"ĠnÇ¹":6319,"Ġnsise":6320,"ĠtÃ²Ã³":6321,"Ã¡ju":6322,"Ã¡sÃ¹":6323,"ÃłlÃ¡":6324,"Ãłwá»įn":6325,"ÃłrÃ¹n":6326,"doko":6327,"Ġow":6328,"Ġole":6329,"ĠoÃ¹n":6330,"Ġoran":6331,"ĠorÃ³":6332,"Ġosan":6333,"ĠodÃ¹duwÃł":6334,"Ġooru":6335,"Ġoksijini":6336,"Ġomoniyan":6337,"Ġap":6338,"Ġaka":6339,"ĠarÃº":6340,"Ġaá¹£e":6341,"ĠamÃº":6342,"ĠakÃ¡":6343,"ĠadÃ¹n":6344,"Ġagedemeji":6345,"gbÃŃ":6346,"gbangba":6347,"Ã¨de":6348,"Ã¨yÃŃ":6349,"Ã¨yÃłn":6350,"Ã¨ji":6351,"Ã¨dÃ¬":6352,"Ãºre":6353,"ÃºgbÃ²":6354,"Ã¬lÃł":6355,"Ã¬wá»į":6356,"Ã¬tÃ¬":6357,"Ã¬lÃ¬":6358,"Ġsá»įn":6359,"Ġseni":6360,"Ġsch":6361,"Ġshe":6362,"Ġsyn":6363,"Ġstre":6364,"Ġnii":6365,"Ġnio":6366,"Ã²de":6367,"Ã²nÃŃ":6368,"Ġwor":6369,"ĠirÃ³":6370,"Ġiyan":6371,"ĠipÃ¡":6372,"Ġijin":6373,"ĠiyÃ²":6374,"Ġiden":6375,"Ġipilese":6376,"á»įmá»į":6377,"á»įdun":6378,"ĠkÃ¹n":6379,"ĠÃłto":6380,"ĠÃłbÃŃ":6381,"ĠÃłgbÃ³":6382,"ĠÃłpÃ²":6383,"ĠÃłkÃ²":6384,"ĠÃłje":6385,"ĠÃłrÃ³":6386,"ĠÃłkÃł":6387,"ĠÃłjÃł":6388,"ĠÃłgÃ©":6389,"ĠÃłkÃŃ":6390,"ĠÃłsÃ¨":6391,"ĠÃłÃłtÃ²":6392,"ĠÃłtÃº":6393,"ĠÃłgbÃ¨gbÃ¨":6394,"ĠÃłayÃ¨":6395,"ĠÃłpapá»į":6396,"ĠÃłtakÃ²":6397,"ïĢ£?<|":6398,"ant":6399,"untain":6400,"ĠbÃ¬":6401,"ĠbÃ³Ã²lÃ¹":6402,"til":6403,"tisi":6404,"ĠmÃ¨":6405,"woran":6406,"Ġtimo":6407,"Ġtitele":6408,"ĠÃ¬b":6409,"ĠÃ¬ko":6410,"ĠÃ¬to":6411,"ĠÃ¬lÃ¡":6412,"ĠÃ¬rÃ¨":6413,"ĠÃ¬ke":6414,"ĠÃ¬we":6415,"ĠÃ¬kÃł":6416,"ĠÃ¬rÃ¡":6417,"ĠÃ¬rá»į":6418,"ĠÃ¬mÃ³":6419,"ĠÃ¬joba":6420,"ĠÃ¬bÃ¬":6421,"ĠÃ¬fá»į":6422,"ĠÃ¬kejÃ¬":6423,"ĠÃ¬bÃłdÃłn":6424,"ĠÃ¬tannÃ¡":6425,"ribe":6426,"ries":6427,"rity":6428,"rick":6429,"ritic":6430,"ribbe":6431,"ĠnÃŃi":6432,"ĠnÃŃláº¹":6433,"Ġfoo":6434,"ĠyÃ²":6435,"rajo":6436,"rawÃ²":6437,"Ġdá»į":6438,"Ġdar":6439,"rÃŃba":6440,"rÃŃta":6441,"rÃŃsÃ¬":6442,"ind":6443,"ĠeÃ©":6444,"ĠebÃŃ":6445,"ĠerÃ¨":6446,"ĠerÃ¹":6447,"lejo":6448,"ĠAm":6449,"ĠAz":6450,"ĠAwo":6451,"ĠAje":6452,"ĠAdÃ¡":6453,"ĠAge":6454,"ĠAjÃŃ":6455,"ĠAgu":6456,"ĠAbra":6457,"ĠAgÃ³rÃ³":6458,"ĠAwÃ¹jalÃ¨":6459,"ĠATP":6460,"ĠÃ³kan":6461,"ĠÃ³unje":6462,"ĠOun":6463,"ĠOwo":6464,"ĠOri":6465,"ĠOyin":6466,"ĠOrÃºko":6467,"ĠOkunrin":6468,"ĠOgagun":6469,"ĠÃ¨ni":6470,"ĠÃ¨dÃ¡":6471,"ĠÃ¨yi":6472,"ĠÃ¨yÃ¬n":6473,"ĠÃ²do":6474,"ĠÃ²Ãºn":6475,"ĠÃ²go":6476,"ĠÃ²jÃŃ":6477,"ĠÃ²tÃ²":6478,"ĠÃ²Ã²gÃ¹n":6479,"rete":6480,"ÃłnÃº":6481,"ĠsÃŃn":6482,"bar":6483,"bara":6484,"baÅĦ":6485,"lola":6486,"loruko":6487,"lova":6488,"Ġjeun":6489,"ĠÅĦlo":6490,"ses":6491,"Ġloun":6492,"Ġlode":6493,"Ġloye":6494,"Ġ(\"":6495,"Ã¡ÃłsÃ¬":6496,"Ġrun":6497,"moru":6498,"ĠIra":6499,"ĠIwe":6500,"ĠIfo":6501,"ĠIrÃºn":6502,"ĠIsÃ©":6503,"ĠIbrahim":6504,"ĠIgE":6505,"rina":6506,"á»įnu":6507,"Ġfidi":6508,"orÃ²":6509,"siláº¹":6510,"siki":6511,"sissi":6512,"sifiki":6513,"joyÃ¨":6514,"âĢĶ":6515,"lÃºfÃ¡":6516,"lÃºÃłbÃŃ":6517,"ĠpÃ©Ã©":6518,"Ġwara":6519,"Ġlafi":6520,"laye":6521,"layÃ©":6522,"laja":6523,"lavic":6524,"Ġwoo":6525,"toid":6526,"tomoru":6527,"role":6528,"lube":6529,"lues":6530,"ĠgÃºsÃ¹":6531,"kaláº¹":6532,"Ġkolu":6533,"ÃĢgbÃł":6534,"ÃĢrÃ²":6535,"ÃĢyÃ¨":6536,"ÃĢlÃł":6537,"ÃĢgbÃ¨":6538,"ÃĢsÃ¬kÃ²":6539,"ÃĢlÃłyÃ©":6540,"ÃĢkÃ³kÃ³":6541,"ÃĢwÃ²rÃ¡n":6542,"lÃ¡ÃŃ":6543,"lÃ¡ti":6544,"lÃ¡dÃł":6545,"Ġsoju":6546,"mii":6547,"mitÃ¡n":6548,"darÃŃ":6549,"dic":6550,"dian":6551,"dipo":6552,"dist":6553,"dison":6554,"Ġpejulo":6555,"Ġpetro":6556,"ĠNL":6557,"ĠNÃ¡":6558,"ĠNá»į":6559,"ĠNAS":6560,"ĠÃĮlÃ³":6561,"ĠÃĮbÃŃ":6562,"ĠÃĮwÃł":6563,"ĠÃĮrÃ¹n":6564,"ĠÃĮjÃ¬n":6565,"jÃºtÃ³":6566,"Ġmoo":6567,"ĠBus":6568,"ĠBis":6569,"ĠBÃ¬nÃŃ":6570,"ĠSáº¹":6571,"ĠSci":6572,"kÃ³hun":6573,"Ġdip":6574,"Ġdiph":6575,"ĠMáº¹":6576,"ĠMin":6577,"ĠÃĴwÃ²":6578,"ĠÃĴgbÃ²":6579,"Ġbai":6580,"Ġbat":6581,"ĠgbayÃ¬":6582,"ĠEs":6583,"ĠElÃ©":6584,"ĠEto":6585,"ĠEku":6586,"ĠEastern":6587,"bÃŃmitÃ¡n":6588,"ĠYo":6589,"ĠYun":6590,"ĠYaka":6591,"gbÃ³lÃ³hÃ¹n":6592,"Ġpare":6593,"ĠpalÃ¨":6594,"Ġpamá»į":6595,"wai":6596,"ĠKur":6597,"ĠKroati":6598,"pedia":6599,"ĠkÃŃrÃŃsÃŃtÃ¬":6600,"Ġlera":6601,"Ġlese":6602,"Ġlero":6603,"Ġlehin":6604,"gbeto":6605,"ÃĮjo":6606,"ÃĮkÃ³":6607,"ÃĮjÃ¨":6608,"ÃĮsÃ²":6609,"ÃĮtumÃ²":6610,"ÃĮjá»įba":6611,"jiji":6612,"sopo":6613,"Ã¡nÃ¹":6614,"Ã¡nyÃ¡n":6615,"Ġyipada":6616,"NÃŃbÃ¨":6617,"ĠJÃ©":6618,"ĠJusti":6619,"kÃ²tÃ²":6620,"kÃ²sÃ¹n":6621,"kilo":6622,"ructure":6623,"lile":6624,"lium":6625,"ĠohunkÃ³hun":6626,"Ġáº¹ká»į":6627,"ĠorÃŃsun":6628,"ederal":6629,"mey":6630,"meta":6631,"Ġisa":6632,"ĠTÃ²":6633,"ĠTai":6634,"ĠTom":6635,"ĠtÃłbi":6636,"ĠtÃłpÃ¡":6637,"ĠCor":6638,"ĠCru":6639,"ĠCuba":6640,"ĠCentury":6641,"ĠCÃ´":6642,"ĠLÃłÃ¬":6643,"bosi":6644,"bomi":6645,"fieti":6646,"sÃŃláº¹":6647,"sÃŃbÃ¨":6648,"sÃŃlá»į":6649,"sÃŃtÃ¬":6650,"ĠÃĢgbo":6651,"ĠÃĢgbÃ¡":6652,"ĠÃĢmÃ¬":6653,"ĠÃĢtÃ¬":6654,"ĠÃĢgÃ¹":6655,"ĠÃĢá¹£Ãłkáº¹":6656,"gbÃ©rin":6657,"yal":6658,"ÃłtÃŃ":6659,"ÃĪkejÃ¬":6660,"national":6661,"ÃĴhun":6662,"ĠFun":6663,"ĠFer":6664,"ĠFil":6665,"ĠFisi":6666,"yindin":6667,"Ġenia":6668,"murÃºdu":6669,"Ġdayo":6670,"kÃ¨Ã¨":6671,"kÃ¨rÃ¨":6672,"kÃ¬kÃŃ":6673,"ĠPan":6674,"ĠPrussia":6675,"ĠÃ¬sin":6676,"ĠlÃ©dÃ¨":6677,"Ġoloye":6678,"ĠdÃ¡ko":6679,"ĠdÃ¡jÃ³":6680,"beru":6681,"Ġjut":6682,"garet":6683,"ish":6684,"isÃłn":6685,"istan":6686,"gotra":6687,"Ġhtt":6688,"ĠhÃ¹wÃł":6689,"dÃŃáº¹":6690,"Ġkete":6691,"ĠÃ¬gbÃłjÃ¡":6692,"tuwo":6693,"tural":6694,"pini":6695,"ĠHer":6696,"ĠHou":6697,"ĠHas":6698,"ĠRÃŃ":6699,"ĠRom":6700,"ĠRama":6701,"gbÃ²n":6702,"Ġbomi":6703,"ĠalÃ¡ká»į":6704,"Ġbelube":6705,"chel":6706,"Nibi":6707,"tÃ²sÃŃ":6708,"ĠwÃ²n":6709,"gÃ©dÃ©":6710,"Ġunda":6711,"ĠolÃ³rÃ³":6712,"ĠolÃ³pÃłÃ¡":6713,"ĠwÃŃwÃ¡":6714,"Ġigbati":6715,"Ġigbakeji":6716,"mÃŃtÃŃÃ¬kÃ¬":6717,"Ġtedo":6718,"Ġdele":6719,"Ġ1800":6720,"Ġ1840":6721,"Ġ1830":6722,"Ġakoso":6723,"ĠWoo":6724,"ĠWil":6725,"ĠWura":6726,"Ġalaa":6727,"Ġalara":6728,"Ġalada":6729,"Ġalagedemeji":6730,"Ġalabugbe":6731,"omini":6732,"amusin":6733,"Ġá»Įgbá»į":6734,"Ġoniru":6735,"Ġonisowo":6736,"ĠyÃŃpadÃł":6737,"bÃ©rÃŃÃł":6738,"ĠMari":6739,"kÃ©kÃºrÃº":6740,"rÃłÃ¡":6741,"ĠpÃłtÃł":6742,"femi":6743,"Ġgbere":6744,"Ġwiwa":6745,"Ġwiwu":6746,"Ġjoko":6747,"ĠfÃ©rÃłn":6748,"sÃ¨gÃ¹n":6749,"ĠojÃºs":6750,"ĠojÃºá¹£e":6751,"Ġkasino":6752,"wÃ¹mÃŃ":6753,"ĠlÃ¡ÃłyÃ²":6754,"ĠNobody":6755,"sula":6756,"ĠojoojÃº":6757,"ĠkÃ©Ã©":6758,"ĠkÃ©de":6759,"ĠÃĮjÃ¨bÃº":6760,"fowo":6761,"ĠtÃ¨mi":6762,"hara":6763,"Ġoluwa":6764,"pia":6765,"piláº¹":6766,"piens":6767,"tá»įwá»į":6768,"ĠUN":6769,"Ġposi":6770,"Ġpoju":6771,"Ġpost":6772,"mÃºlÃ©":6773,"bÃ¹gbÃ©":6774,"ĠIndo":6775,"ĠBak":6776,"kÃ¡tÃł":6777,"ĠOlokiki":6778,"ĠKeta":6779,"ĠDelta":6780,"kÃ¹sÃ¹":6781,"ĠmÃŃmo":6782,"ĠmÃŃmu":6783,"ĠOlÃ³Ã²":6784,"ĠOlÃ³wÃ³":6785,"ĠOlÃ³wu":6786,"ĠOlÃ³gbÃ¬ÃŃn":6787,"pÃ¨sÃ¨":6788,"Ġ32":6789,"Ġ35":6790,"Ġ36":6791,"rÃºnbÃ¨":6792,"Ġayewo":6793,"ĠfÃŃfi":6794,"Ġjake":6795,"ĠsÃ¡ra":6796,"ĠsÃ¡yáº¹":6797,"Ġapase":6798,"ĠÃ¬wÃ¡sÃ¨":6799,"seluarailu":6800,"lyn":6801,"Ġsalo":6802,"Ġsapiens":6803,"LÃ¡bÃ©":6804,"gÃŃdÃŃ":6805,"Mohammed":6806,"ĠolÃ¹gbÃ³":6807,"ĠAlÃ¡kÃ©":6808,"ters":6809,"Ġagbejoro":6810,"Ġagbelebu":6811,"Ġidibo":6812,"Ġidiwá»į":6813,"via":6814,"vision":6815,"hova":6816,"ĠpÃŃnpÃŃn":6817,"Ġ177":6818,"elson":6819,"ĠkÃ¡rÃ¹n":6820,"Ġelede":6821,"Ġelero":6822,"Ġ1944":6823,"Ġ1948":6824,"tÃ©lÃ¨":6825,"Ġasá»į":6826,"tÃºtÃ¹":6827,"Ġojude":6828,"Ġojuojo":6829,"Ġidahun":6830,"Ġyala":6831,"ĠMountain":6832,"ĠAlaga":6833,"Ġopolo":6834,"ĠkÃ¬ÃŃni":6835,"ĠelÃ©rÃ©":6836,"ĠerÃ©kÃ¹sÃ¹":6837,"puter":6838,"public":6839,"ĠObasanjo":6840,"ĠÃĴkÃ¨wÃ¹":6841,"ĠÃłgbÃłrÃ¡":6842,"mark":6843,"col":6844,"ĠAlb":6845,"cia":6846,"cid":6847,"Ġ40":6848,"ĠJudge":6849,"net":6850,"ney":6851,"neka":6852,"ascist":6853,"ashington":6854,"Ġ1921":6855,"Ġ1924":6856,"ugh":6857,"Ġ92":6858,"ĠLÃ¡s":6859,"ĠLÃ¡murÃºdu":6860,"ĠSayensi":6861,"olomi":6862,"ĠibÃ¹sÃ²":6863,"GÃ©gÃ©":6864,"ĠolÃºwa":6865,"ĠolÃºkÃºlÃ¹kÃ¹":6866,"Ġonkowe":6867,"Ġsunmo":6868,"ĠJohann":6869,"Ġjije":6870,"Ġgunle":6871,"Ġ60":6872,"Ġbayii":6873,"ĠRock":6874,"ĠRoyal":6875,"á¹£irÃŃá¹£i":6876,"ĠJean":6877,"ĠÃłÃ¬lÃ¨":6878,"etnam":6879,"tonu":6880,"Ġpipa":6881,"Ġirinajo":6882,"gÃ²gÃ³":6883,"Ġobaluaye":6884,"ĠCameroon":6885,"ĠCalifornia":6886,"ĠCaribbe":6887,"Ġá»įnafun":6888,"Ġasale":6889,"ryp":6890,"ĠCharles":6891,"ĠParis":6892,"ĠPasifiki":6893,"Ġjá»įba":6894,"ĠArgentina":6895,"2005":6896,"Semitic":6897,"elese":6898,"ĠLiberia":6899,"mmanuel":6900,"ĠArabu":6901,"Ġonimosayensi":6902,"Ġ04":6903,"Ġapejuwe":6904,"ĠkÃłnn":6905,"Ġeruku":6906,"IrÃºfáº¹":6907,"Ġikolu":6908,"iwosan":6909,"Arabic":6910,"ĠMuhammed":6911,"ĠDay":6912,"Ġ1880":6913,"Ġ1884":6914,"ssive":6915,"ĠakÃ©wÃ¬":6916,"Ġyáº¹ra":6917,"ĠSofieti":6918,"ĠBantoid":6919,"ĠKogÃŃ":6920,"ĠKorea":6921,"gÃ¡gun":6922,"kÃ¡nnÃ¡":6923,"Ġá»Įbalá»į":6924,"Ġarinajo":6925,"Ġisodipupo":6926,"thematiki":6927,"Ġfilms":6928,"Ġimulo":6929,"ĠÃ¬jÃ¬nláº¹":6930,"ĠTibet":6931,"dinlogo":6932,"ĠApaiwoorun":6933,"ĠenÃŃ":6934,"ĠtÃ¡bÃ¬lÃ¬":6935,"ĠgbÃŃgbe":6936,"ĠgbÃ¨sÃ¨":6937,"Ġeseese":6938,"Ãīe":6939,"ĠsÃºnmÃ³":6940,"ĠStre":6941,"Ġaala":6942,"Ġalejo":6943,"Ġ1901":6944,"ĠGiwa":6945,"Ġ1870":6946,"rgani":6947,"Ġamojuto":6948,"ĠBÃŃeÃ¨":6949,"ĠLuiz":6950,"therford":6951,"ĠadÃ¡jÃ³":6952,"ĠmÃła":6953,"reek":6954,"ĠSerena":6955,"sÃºsÃº":6956,"ĠigbÃ¡kejÃ¬":6957,"ĠpÃ©rÃ©te":6958,"ĠgbajÃºgbajÃł":6959,"Togo":6960,"ĠalohÃ¹n":6961,"Ġalominira":6962,"Ġayipada":6963,"ĠIwoorun":6964,"ĠBroad":6965,"Olorun":6966,"ptist":6967,"enshire":6968,"Ġadipo":6969,"ĠÃ¬sopá»į":6970,"Ġgori":6971,"thodist":6972,"ĠVietnam":6973,"Ġaká»įrin":6974,"ĠÃłlÃłÃ¡fÃŃÃł":6975,"ĠGabon":6976,"1977":6977,"ried":6978,"Ġ1809":6979,"Johnson":6980,"Ġatayo":6981,"Ġidoju":6982,"ĠÃ¬fojÃº":6983,"ĠyÃ¬i":6984,"ĠÃ²gbÃ³ni":6985,"ĠState":6986,"ĠEgypt":6987,"ĠarÃ³pÃ²":6988,"Ġibudo":6989,"ĠAyÃ©tÃ²rÃ²":6990,"Ġisujo":6991,"ĠPeter":6992,"ĠPeople":6993,"BÃ¡mgbÃ³s":6994,"BÃ¡mgbÃ³á¹£Ã©":6995,"idamo":6996,"ĠokÃ¹nfÃł":6997,"Ġitage":6998,"Ġkarb":6999,"ĠÃłdÃłpá»į":7000,"ĠGriiki":7001,"ĠTawaTemi":7002,"odeoni":7003,"Ġogbin":7004,"ĠaÃ¡yan":7005,"ĠIpawo":7006,"Ġmokanlelogbon":7007,"ĠTurki":7008,"ĠÃĢÃłráº¹":7009,"ĠProgre":7010,"ĠIndies":7011,"tÃŃnrÃŃn":7012,"ĠÃłrÃŃyÃłnjiyÃłn":7013,"unadoko":7014,"undation":7015,"lelogun":7016,"ĠEdward":7017,"ĠEngland":7018,"ĠGÃŃrÃ¡mÃł":7019,"ĠHubble":7020,"ĠRutherford":7021,"Ġ1831":7022,"ĠAberdeenshire":7023,"ĠÃłkÃłnlÃ²":7024,"ĠÃ²Ã³gÃ¹n":7025,"ĠÃ²Ã²jÃ³":7026,"ĠMont":7027,"ĠErÃ©kÃ¹á¹£Ã¹":7028,"ÃĮyÃłtÃ²":7029,"ĠPrize":7030,"tÃ³bijÃ¹lá»į":7031,"ĠÃ¬bÃ¡gbÃ©pÃ²":7032,"sters":7033,"ĠkÃ¬nnÃŃ":7034,"ĠÃ¬rÃ¡ntÃŃ":7035,"ĠfÃŃnnÃŃ":7036,"Ġemeta":7037,"ĠISLAM":7038,"Ġkomputa":7039,"ĠKarl":7040,"ĠLouise":7041,"matiiki":7042,"helm":7043,"ristoph":7044,"Ġifarako":7045,"ĠÃłwÃ¡rÃŃ":7046,"ĠÃłtÃ©wÃ³gbÃł":7047,"ĠÃ¬sirÃ²":7048,"lovenia":7049,"ĠMÃ²sÃ¨":7050,"ĠMorocco":7051,"ĠGeneral":7052,"Ġmiliá»įnu":7053,"ĠDenmark":7054,"ĠTÃ¡pÃł":7055,"ĠÃ¬sÃ¬nkÃº":7056,"ĠgÃ©dÃ©gÃ©dÃ©":7057,"strong":7058,"Ġsonso":7059,"ĠÃ¬rora":7060,"reenberg":7061,"mooka":7062,"ladesh":7063,"ĠÃĮJÃĪ":7064,"ĠÃĮlayÃ¨":7065,"ĠBCE":7066,"ĠScotland":7067,"ĠorÃŃá¹£Ã¬ÃŃrÃŃá¹£Ã¬ÃŃ":7068,"ĠHamburg":7069,"ĠamÃºnisÃ¬n":7070,"Williams":7071,"ÃłrÃ²so":7072,"Ġapáº¹áº¹ráº¹":7073,"ĠÃ¬polongo":7074,"Ġgbudo":7075,"ĠAfirika":7076,"Ã¬nÃ¡dÃ¹":7077,"ĠÃĴrÃ¬sÃł":7078,"ĠKÃ¡nsÃŃlá»į":7079,"wÃ³pamÃ³":7080,"Ġomoluabi":7081,"ĠhÃŃhun":7082,"ĠkÃ¡rÃŃayÃ©":7083,"ĠCauchy":7084,"ĠYunifÃ¡sÃŃtÃ¬":7085,"ĠBelgium":7086,"KÃºrÃ¹pÃ¹":7087,"Loooto":7088,"Zangbeto":7089,"klidi":7090,"ĠIgberiko":7091,"Ġtogbajumo":7092,"ĠlÃ¡ÃŃlÃ¡ÃŃ":7093,"ĠsokÃ¹nfÃł":7094,"ĠÃĮjerÃ²":7095,"ĠSweden":7096,"ĠEnugu":7097,"Ġpajawiri":7098,"yameya":7099,"ĠFayeZik":7100,"Ġenikookan":7101,"ĠGuangxi":7102,"Ġnukleotidi":7103,"ĠDouglas":7104,"April":7105,"February":7106,"Jennifer":7107,"ĠnÇ¹kan":7108,"Ġsá»įnÃ¹":7109,"Ġidena":7110,"ĠÃłgÃ©kÃºrÃº":7111,"ĠÃłkÃŃyÃ¨":7112,"ĠIfoloke":7113,"ĠNASA":7114,"ĠScience":7115,"Ġdiphthe":7116,"ĠJustice":7117,"ĠCÃ´te":7118,"ĠLÃłÃ¬bÃ©rÃŃÃł":7119,"gotraki":7120,"Ġhttp":7121,"ĠHassan":7122,"Ġbelubelu":7123,"hovah":7124,"ĠCaribbean":7125,"ĠProgressive":7126,"\"),":7127,"'d":7128,",âĢĿ":7129,"06":7130,"08":7131,"140":7132,"250":7133,"31":7134,"34":7135,"36":7136,"41":7137,"42":7138,"53":7139,"64":7140,"66":7141,"600":7142,"90":7143,"97":7144,"98":7145,"AB":7146,"AJ":7147,"AT":7148,"At":7149,"Ajo":7150,"Ani":7151,"Ami":7152,"Awa":7153,"Ali":7154,"AgbÃ©":7155,"AgbÃ¨":7156,"AjÃŃ":7157,"AbÃ©":7158,"Ayáº¹wo":7159,"Bu":7160,"BÃł":7161,"BÃ¨":7162,"Báº¹":7163,"Bar":7164,"Bara":7165,"Bee":7166,"Cross":7167,"DÃĴ":7168,"DÃºrÃ³":7169,"Daniel":7170,"Ewu":7171,"Esin":7172,"FÃŃ":7173,"FÃ³":7174,"FÃ¬lÃł":7175,"HE":7176,"Hu":7177,"High":7178,"IV":7179,"Ikan":7180,"Igbo":7181,"Ipo":7182,"Iá¹£áº¹":7183,"IbÃ¬":7184,"Itumo":7185,"JÃ©":7186,"JÃ¬nÃ¡dÃ¹":7187,"KÃł":7188,"Káº¹":7189,"KÃ¬ÃŃ":7190,"Kar":7191,"Kat":7192,"Kordofanian":7193,"Li":7194,"Lon":7195,"Lou":7196,"MÃ¡Ãł":7197,"Mus":7198,"Mary":7199,"OrÃ²":7200,"OyÃ¨":7201,"OdÃºn":7202,"Owe":7203,"OkÃ¹nrin":7204,"Oogun":7205,"PE":7206,"Ph":7207,"PÃŃ":7208,"PÃ³":7209,"Pat":7210,"RÃ²":7211,"RÃī":7212,"St":7213,"Ste":7214,"SÃ©":7215,"SÃ²":7216,"Shi":7217,"South":7218,"STS":7219,"TA":7220,"TÃ¡":7221,"Taa":7222,"Wi":7223,"Wal":7224,"ade":7225,"asi":7226,"abu":7227,"agbegbe":7228,"cor":7229,"cro":7230,"cli":7231,"ela":7232,"ejÃ¬":7233,"edÃ©":7234,"ety":7235,"egberun":7236,"gÃ¨dÃ¨":7237,"gha":7238,"hÃł":7239,"hen":7240,"hÃŃn":7241,"horo":7242,"haran":7243,"hÃ¡nÃ¹":7244,"iri":7245,"ilÃ¨":7246,"igbe":7247,"iya":7248,"imu":7249,"ima":7250,"ipin":7251,"ice":7252,"janu":7253,"jona":7254,"jÄĻ":7255,"ks":7256,"kwe":7257,"kini":7258,"ktÃ©":7259,"ktro":7260,"lv":7261,"lÃłn":7262,"llo":7263,"lde":7264,"loni":7265,"lina":7266,"luni":7267,"line":7268,"lfuru":7269,"ling":7270,"mbi":7271,"mÃłÃ¡":7272,"mbÃ³":7273,"nrÃ²":7274,"nmi":7275,"ndÃ¬":7276,"nou":7277,"oko":7278,"ome":7279,"okuta":7280,"py":7281,"pre":7282,"pÃ¡Ãł":7283,"pÃ¬n":7284,"ppi":7285,"rk":7286,"roni":7287,"rgh":7288,"shi":7289,"sky":7290,"tc":7291,"tti":7292,"tÃ¬n":7293,"tto":7294,"tta":7295,"tÃłÃ¡":7296,"ugbo":7297,"uru":7298,"ubÃº":7299,"var":7300,"vil":7301,"wrence":7302,"xy":7303,"xer":7304,"yw":7305,"yon":7306,"¿e":7307,"Ã«":7308,"Ã±":7309,"Ã¼":7310,"Å«":7311,"ËĪ":7312,"Î¿":7313,"Ð°":7314,"Ðº":7315,"Ð½":7316,"Ø§":7317,"Ø¯":7318,"Ùħ":7319,"ÙĨ":7320,"á½":7321,"ĠÏ":7322,"ĠïĢ¨":7323,"Ġá¼":7324,"ÃŃÃł":7325,"ÃŃlÃ¨":7326,"ÃŃsÃłn":7327,"ïĢ¥âĢĿ.<|":7328,"ïĢ¥.âĢĿ<|":7329,"Ġnwa":7330,"Ġnbo":7331,"Ġnna":7332,"Ġnfe":7333,"Ġnjá»įwá»į":7334,"Ġnjani":7335,"ĠtÃ¡a":7336,"Ġtennis":7337,"Ã¡Ã²":7338,"Ã¡má»į":7339,"Ã¡rÃ¡":7340,"Ã¡mÃº":7341,"ÃłlÃ¨":7342,"Ãłwon":7343,"ÃłgbÃł":7344,"ÃłkÃ³":7345,"Ãłfin":7346,"ÃłkÃŃyÃ¨sÃŃ":7347,"ÃłhÃ¡má»į":7348,"enÃ©":7349,"enga":7350,"Ã³nÃº":7351,"Ã³tá»į":7352,"Ã©jÃ¬":7353,"Ġoh":7354,"ĠoÃ²":7355,"Ġola":7356,"ĠolÃ¡":7357,"Ġota":7358,"Ġogbe":7359,"Ġoso":7360,"ĠonÃ¬":7361,"Ġoje":7362,"Ġoyi":7363,"Ġoge":7364,"Ġodu":7365,"ĠogbÃ¨":7366,"ĠodÃ³":7367,"Ġofo":7368,"ĠojÃ¹":7369,"Ġohu":7370,"Ġoksijin":7371,"ĠarÃŃ":7372,"ĠagbÃł":7373,"ĠalÃł":7374,"Ġake":7375,"Ġaini":7376,"ĠagÃ©":7377,"ĠatÃ©":7378,"Ġafáº¹":7379,"Ġayáº¹":7380,"Ġafá»į":7381,"Ġaarin":7382,"Ġalopo":7383,"ĠamÃ¡":7384,"Ġamin":7385,"ĠatannÃ¡":7386,"ĠabÃŃnibÃŃ":7387,"ĠatÃŃnrÃŃn":7388,"gbun":7389,"gbÃłn":7390,"gbÃ¹wÃł":7391,"ÃºbÃ¡":7392,"ÃºbÃŃÃł":7393,"Ã¬t":7394,"Ã¬bÃŃ":7395,"Ã¬so":7396,"Ã¬wÃ²":7397,"Ã¬sÃŃ":7398,"Ã¬tÃłn":7399,"Ã¬dÃŃ":7400,"Ã¬pÃ©":7401,"Ã¬rÃ²yÃ¬n":7402,"ĠsÃ¬ÃŃ":7403,"ĠsÃłÃ¬":7404,"Ġniye":7405,"Ġniyen":7406,"Ã²kÃº":7407,"Ġwan":7408,"Ġworld":7409,"Ġira":7410,"Ġije":7411,"ĠimÃ²":7412,"ĠiwÃ©":7413,"ĠijÃł":7414,"ĠikÃ¹n":7415,"Ġitori":7416,"Ġiha":7417,"Ġiá¹£e":7418,"Ġikin":7419,"Ġiho":7420,"Ġikowe":7421,"Ġiwin":7422,"Ġidanwo":7423,"á»įkan":7424,"Ġkoni":7425,"ĠÃłlÃ³":7426,"ĠÃłki":7427,"ĠÃłbÃł":7428,"ĠÃłrÃ¡":7429,"ĠÃłtÃ²":7430,"ĠÃłdÃ¬":7431,"ĠÃłdÃ¹":7432,"ĠÃłtÃł":7433,"ĠÃłpÃ©":7434,"ĠÃłnÃ¡":7435,"ĠÃłyáº¹":7436,"ĠÃłfÃ©":7437,"ĠÃłÃ¬nÃŃ":7438,"ĠÃłjÃłnÃł":7439,"ĠÃłjÃ¨jÃ¬":7440,"ĠÃłisÃłn":7441,"unty":7442,"Ġbin":7443,"Ġbro":7444,"ĠbÃłÃ¡":7445,"ĠbÃłtÃł":7446,"tia":7447,"tini":7448,"tiláº¹":7449,"tipÃ¡":7450,"tive":7451,"tish":7452,"áº¹ni":7453,"áº¹kun":7454,"wole":7455,"Ġtiko":7456,"Ġtiwon":7457,"Ġtito":7458,"Ġtipe":7459,"Ġtitani":7460,"ĠÃ¬rin":7461,"ĠÃ¬gba":7462,"ĠÃ¬ni":7463,"ĠÃ¬gbÃ³":7464,"ĠÃ¬jÃ¬":7465,"ĠÃ¬bo":7466,"ĠÃ¬yan":7467,"ĠÃ¬jÃ³":7468,"ĠÃ¬jÃ¨":7469,"ĠÃ¬rÃł":7470,"ĠÃ¬pÃ©":7471,"ĠÃ¬dÃ¹n":7472,"ĠÃ¬pele":7473,"ĠÃ¬gÃłn":7474,"ĠÃ¬wadÃ¬ÃŃ":7475,"rik":7476,"rim":7477,"rien":7478,"ridge":7479,"Ġper":7480,"Ġpoo":7481,"Ġpana":7482,"ĠplÃ¡n":7483,"Ã¹gbo":7484,"Ã¹pÃ¡":7485,"ĠnÃŃgbÃ³":7486,"ĠnÃŃwÃ²":7487,"ĠnÃŃtori":7488,"ĠnÃŃlÃ¡ti":7489,"Ġfan":7490,"Ġflu":7491,"Ġfura":7492,"Ġjoo":7493,"Ġjina":7494,"ÌĢ;":7495,"ĠtÃŃtÃł":7496,"ĠtÃŃtÃ¨":7497,"Ġyou":7498,"rad":7499,"ray":7500,"rain":7501,"rade":7502,"rajá»į":7503,"Ìģ:":7504,"ĠdÃ¹":7505,"Ġdáº¹kun":7506,"Ġgbani":7507,"Ġgbona":7508,"ĠgbÃ¡jÃº":7509,"ĠgbÃ¬mÃ²":7510,"rÃŃgbÃł":7511,"inf":7512,"inga":7513,"inland":7514,"ĠeyÃŃ":7515,"Ġebo":7516,"Ġefi":7517,"Ġebu":7518,"ĠegbÃ²":7519,"Ġefun":7520,"Ġewi":7521,"ĠeyÃŃn":7522,"Ġeuka":7523,"Ġetc":7524,"Ãºnje":7525,"lee":7526,"leÃ¨":7527,"leomu":7528,"ĠAF":7529,"ĠAS":7530,"ĠAti":7531,"ĠAko":7532,"ĠAkan":7533,"ĠApo":7534,"ĠAbÃŃ":7535,"ĠAwa":7536,"ĠAgbe":7537,"ĠAwÃ³":7538,"ĠArÃ©":7539,"ĠAtÃ³":7540,"ĠAma":7541,"ĠAgo":7542,"ĠAth":7543,"ĠApÃ¨":7544,"ĠAir":7545,"ĠAjagun":7546,"ĠAristo":7547,"ĠÃ³nÃŃ":7548,"ĠOh":7549,"ĠOÃ²":7550,"ĠOlÃ¨":7551,"ĠOye":7552,"ĠOso":7553,"ĠOya":7554,"ĠOmÃ³":7555,"ĠOruko":7556,"ĠOá¹£Ã¹":7557,"ĠOkuta":7558,"ĠObÃłtÃ¡lÃ¡":7559,"ĠOlÃ¹bÃ¡":7560,"ĠOduduwa":7561,"ĠOGUN":7562,"ĠÃ¨rÃŃ":7563,"ĠÃ¨wÃł":7564,"ĠÃ²rÃ©":7565,"ĠÃ²rÃłn":7566,"ĠÃ²dÃ³":7567,"ĠÃ²hÃºn":7568,"ĠÃ²tÃºtÃ¹":7569,"rer":7570,"komi":7571,"ĠsÃŃbi":7572,"ĠsÃŃnu":7573,"ĠsÃŃta":7574,"ĠsÃŃsun":7575,"ĠsÃŃlÃ¹Ãº":7576,"bale":7577,"balÃ¨":7578,"bakar":7579,"ÅĦdÃŃ":7580,"lodi":7581,"lock":7582,"ĠÅĦki":7583,"seye":7584,"sejÃ¹":7585,"seball":7586,"Ġlol":7587,"Ġlomo":7588,"wonÃ¬dÃ¡":7589,"bio":7590,"biti":7591,"bibi":7592,"birin":7593,"bitu":7594,"mori":7595,"moso":7596,"moran":7597,"mojuto":7598,"ĠIL":7599,"ĠIdi":7600,"ĠIsa":7601,"ĠItÃ¡":7602,"ĠIll":7603,"ĠIbÃłdÃłn":7604,"ĠIdÃ¡n":7605,"ĠIjidide":7606,"ring":7607,"á»įni":7608,"á»įnÃł":7609,"Ġfib":7610,"Ġfifun":7611,"Ġtogun":7612,"Ġtokere":7613,"Ġtotobi":7614,"Ġtogajulo":7615,"á¹£o":7616,"Ġsimu":7617,"kani":7618,"kanu":7619,"orÃ¹n":7620,"sirÃ²":7621,"sipo":7622,"sitÃ¬":7623,"sica":7624,"ĠlÃ¡n":7625,"ĠlÃ¡w":7626,"ĠlÃ¡ruge":7627,"ĠlÃ¡tá»įwá»į":7628,"ĠlÃ¡tÃłÃ¡":7629,"Ġkansoso":7630,"pal":7631,"pala":7632,"ĠpÃ©ye":7633,"Ġwas":7634,"Ġwaju":7635,"Ġlaba":7636,"lation":7637,"laaka":7638,"tos":7639,"toria":7640,"ĠlÃ³ko":7641,"ĠlÃ³nÃ¬":7642,"ĠlÃ³kun":7643,"ĠlÃ³nÃł":7644,"ĠlÃ³jÃ³":7645,"ĠlÃ³Ã²Ã³":7646,"Ġsegun":7647,"ĠserÃ©":7648,"Ġseku":7649,"Ġseese":7650,"Ġseyato":7651,"lute":7652,"dÃ¨ra":7653,"ĠtÃ³tÃ³bijÃ¹lá»į":7654,"ĠgÃ¬":7655,"ĠgrÃ¡":7656,"Ġgoo":7657,"ĠgÃ²kÃ¨":7658,"kay":7659,"kasi":7660,"kakiri":7661,"Ġá»įbÃł":7662,"Ġá»įdá»į":7663,"Ġá»įkÃ¹nrin":7664,"Ġá»įgbáº¹":7665,"Ġá»įsáº¹":7666,"ĠkojÃ¡":7667,"ïĢ¨-":7668,"ïĢ¨âĢĻ":7669,"ÃĢjo":7670,"ÃĢwa":7671,"ÃĢmÃ³":7672,"ÃĢsÃł":7673,"ÃĢpÃ¨":7674,"ÃĢbÃºrÃ²":7675,"ÃĢá¹£Ãłkáº¹":7676,"Ġbibeli":7677,"lÃ¡Ã¡":7678,"lÃ³fÃ²":7679,"erc":7680,"ĠsorÃŃ":7681,"Ġsopá»į":7682,"Ġsokoto":7683,"ĠbÃ¡a":7684,"ĠbÃ¡wo":7685,"ĠbÃ¡ÅĦ":7686,"ĠbÃ¡ni":7687,"ĠbÃ¡jÃ©":7688,"gboko":7689,"tamini":7690,"tayÃ²":7691,"mic":7692,"mith":7693,"mited":7694,"bÃ¡n":7695,"bÃ¡dÃ²":7696,"dae":7697,"dar":7698,"dari":7699,"dis":7700,"dirin":7701,"ĠNÃ¬":7702,"ĠNye":7703,"ĠNai":7704,"ĠNÃºbÃŃÃł":7705,"poli":7706,"ĠÃĮlo":7707,"ĠÃĮta":7708,"ĠÃĮkÃ³":7709,"ĠÃĮbÃł":7710,"ĠÃĮdÃ³":7711,"ĠÃĮyÃłwÃ³":7712,"ĠÃĮsá»į":7713,"ĠÃĮwÃłrÃł":7714,"ĠÃĮfojÃº":7715,"gunso":7716,"Ġmoti":7717,"Ġmose":7718,"ĠBÃ¹":7719,"ĠBre":7720,"ĠBor":7721,"ĠBoo":7722,"ĠBill":7723,"ĠSK":7724,"ĠSÃŃ":7725,"ĠSÃ³":7726,"ĠSam":7727,"ĠSil":7728,"ĠSara":7729,"ĠSistemu":7730,"ĠSmith":7731,"kÃ³Ã²":7732,"ĠdilÃ©":7733,"ĠMÃł":7734,"ĠMil":7735,"ĠMusulumi":7736,"ĠÃĴS":7737,"ĠÃĴrÃ²":7738,"Ġarabinrin":7739,"ĠbalÃ¨":7740,"Ġbawon":7741,"ĠEl":7742,"ĠEx":7743,"ĠEbi":7744,"ĠEjo":7745,"ĠEgba":7746,"ĠEye":7747,"ĠEyin":7748,"ĠEmÃ¨rÃ¨":7749,"ĠEconomi":7750,"bÃŃi":7751,"ĠretÃŃ":7752,"Ġrepete":7753,"ĠYÃ³Ã²":7754,"ĠYara":7755,"gbÃ³dirin":7756,"Ġpamo":7757,"ĠparÃ©":7758,"Ġpadanu":7759,"wal":7760,"war":7761,"ĠKÃł":7762,"ĠKaa":7763,"ĠKom":7764,"ĠKal":7765,"ĠKolombia":7766,"ĠKÃºbÃł":7767,"pes":7768,"perÃŃ":7769,"ĠkÃŃkÃłn":7770,"Ġlewaju":7771,"gberÃŃ":7772,"gbeje":7773,"ÃĮta":7774,"ÃĮhun":7775,"ÃĮlÃł":7776,"ÃĮdÃ¡":7777,"ÃĮrÃ¨":7778,"ÃĮgbÃ©":7779,"ÃĮrÃ³":7780,"ÃĮjáº¹":7781,"ÃĮdÃ¬":7782,"ÃĮrÃ¬n":7783,"ÃĮlÃłnÃł":7784,"ÃĮbÃ©Ã¨rÃ¨":7785,"ĠGbo":7786,"ĠGol":7787,"ĠGroup":7788,"ĠGreek":7789,"ars":7790,"yÃłnmÃ³":7791,"soto":7792,"sowÃ³":7793,"Ġlatinu":7794,"Ã¡nÃ¬":7795,"Ġyiya":7796,"NÃŃgba":7797,"NÃŃnu":7798,"Ġmita":7799,"ĠJÃŃ":7800,"ĠJen":7801,"ĠJas":7802,"jÃ¬lÃ¡":7803,"rane":7804,"ranse":7805,"kÃ²kÃ³":7806,"Ġgbogbogbo":7807,"kiwe":7808,"ĠDan":7809,"ĠDana":7810,"ĠDaniel":7811,"Ġoriopo":7812,"aaju":7813,"aapu":7814,"likani":7815,"wÃ¡rÃł":7816,"wÃ¡nilÃ©":7817,"wÃ²ran":7818,"dÃ¡jÃº":7819,"Ġá¹£i":7820,"Ġá¹£ÃłlÃłyÃ©":7821,"Ġá¹£Ã¡Ã¡jÃº":7822,"Ġáº¹bÃŃ":7823,"Ġáº¹ja":7824,"ĠorÃŃsi":7825,"edes":7826,"bele":7827,"Ġileoba":7828,"ĠkÃ³rÃ³":7829,"ĠkÃ³ÅĦsÃ³nÃ¡n":7830,"ĠlÃ¨e":7831,"ĠlÃ¨Ã¨":7832,"ĠTar":7833,"ĠTrans":7834,"ĠCu":7835,"ĠCy":7836,"ĠChe":7837,"ĠCho":7838,"ĠCham":7839,"ĠCent":7840,"ĠCanada":7841,"boto":7842,"fikÃºn":7843,"fici":7844,"ĠtabÃŃ":7845,"ĠÃĢrin":7846,"ĠÃĢrÃ¡":7847,"ĠÃĢgá»į":7848,"gbÃ©ra":7849,"key":7850,"ĠilÃ©sanmÃŃ":7851,"ÃĪRÃī":7852,"tÃŃkÃ¹":7853,"naji":7854,"rÃłnlÃ³":7855,"rÃłngÃºn":7856,"ÃĴn":7857,"ÃĴmÃ¹":7858,"ÃĴjÃ²":7859,"rÃ³nÃ¬":7860,"rÃ³á¹£iná¹£in":7861,"were":7862,"ĠFÃº":7863,"ĠFlo":7864,"ĠFara":7865,"ĠFrÃ¡n":7866,"ĠFIFA":7867,"ĠFascist":7868,"dul":7869,"dugbo":7870,"dupe":7871,"muye":7872,"Ġdajo":7873,"Ġdasile":7874,"Ġdays":7875,"kÃ¨n":7876,"ĠgbÃ³nÃ¡":7877,"ĠPh":7878,"ĠPu":7879,"ĠPeru":7880,"ĠPosted":7881,"ĠPress":7882,"á»ĮdÃºn":7883,"á»ĮjÃł":7884,"á»Įlá»į":7885,"gbÃ¨Ã©":7886,"gbÃ¨rÃºn":7887,"kunle":7888,"ĠlÃ©Ã¨":7889,"ĠlÃ©rÃ²":7890,"ĠlÃ©hÃ¬n":7891,"male":7892,"madu":7893,"Ġoloo":7894,"Ġolowo":7895,"Ġolomo":7896,"Ġolokiki":7897,"Ġoloksijini":7898,"Ġoloksijin":7899,"berts":7900,"Ġjuwe":7901,"Ġibimo":7902,"Ġomoomo":7903,"isÃ©":7904,"ĠhÃ³":7905,"Ġhis":7906,"Ġhal":7907,"Ġhoro":7908,"ĠmÃºlÃ©":7909,"burn":7910,"burgh":7911,"ĠÃ¬gbÃłgbÃ²":7912,"tum":7913,"turu":7914,"kÃłÃ¡":7915,"kÃłkÃł":7916,"ĠHy":7917,"ĠRÃ³Ã²":7918,"ĠRoo":7919,"ĠRos":7920,"ĠalÃ¡gbÃ¡":7921,"ĠalÃ¡dÃ¹":7922,"ĠalÃ¡gbáº¹":7923,"ĠalÃ¡Ã¬gbÃł":7924,"dÃºdÃº":7925,"ïĢ§-":7926,"bÃłlÃº":7927,"ĠdÃ©bi":7928,"ĠÃ¡stáº¹":7929,"ĠÃ¡lÃºfÃ¡":7930,"ĠÃ¡tÃŃkÃ¹":7931,"NigbÃł":7932,"Nico":7933,"dÃ²go":7934,"ĠwÃ²Ã³":7935,"dÃ¬ye":7936,"Ġungba":7937,"Ġunfe":7938,"ĠolÃ³lÃ¹":7939,"ĠolÃ³hÃ¹n":7940,"ĠolÃ³sÃ¨":7941,"ĠolÃ³kÃ¬kÃŃ":7942,"tha":7943,"thy":7944,"thro":7945,"thur":7946,"faka":7947,"fact":7948,"ĠÃŃsÃ³tÃ²pÃ¹":7949,"kÃºwÃ¬":7950,"áº¸ni":7951,"ĠwÃŃwo":7952,"ĠwÃŃwÃł":7953,"lá»įwá»į":7954,"lá»įgá»į":7955,"dÃ¹dÃ¹":7956,"Ġmainland":7957,"air":7958,"aila":7959,"Ġ1815":7960,"Ġ1848":7961,"ĠWÃł":7962,"ĠWin":7963,"ĠWel":7964,"ĠWum":7965,"ĠWat":7966,"ĠWashington":7967,"Ġalawujo":7968,"Ġalaisi":7969,"Ġaladani":7970,"ĠgbÃłgbá»į":7971,"ĠgbÃłdÃºrÃł":7972,"ĠonÃŃdÃł":7973,"ĠonÃŃtÃ²":7974,"ĠonÃŃá¹£e":7975,"ĠonÃŃkÃ¡lukÃº":7976,"ĠonÃŃÃłhÃ¡má»į":7977,"ĠÃ¬tÃłnkÃ¡":7978,"Ġfaroti":7979,"omer":7980,"ĠnÃ¬ye":7981,"Ġonitoun":7982,"ĠyÃŃÃŃ":7983,"salasi":7984,"Ġmulo":7985,"ĠÃĪkÃºwÃ¬":7986,"fÃ¨Ã©":7987,"ĠdÃŃdÃºn":7988,"ĠdÃŃdÃ¬":7989,"ĠMal":7990,"ĠMalÃ²":7991,"kÃ©Ã©":7992,"rÃłkÃ¡tÃł":7993,"Ġfee":7994,"kÃŃni":7995,"kÃŃkÃ©kÃºrÃº":7996,"feri":7997,"fefe":7998,"fÃ¡Ã¬t":7999,"ráº¹landi":8000,"Ġáº¸láº¹":8001,"Ġáº¸ráº¹":8002,"Ġjosin":8003,"ĠjobÃ¬":8004,"mÃ¹wÃł":8005,"mÃ¹tÃŃ":8006,"anic":8007,"pÃ³lÃł":8008,"Ġagbagba":8009,"lÃ²Ã³":8010,"ĠojÃºewÃ©":8011,"Ġmaalu":8012,"ston":8013,"wÃ¹Ãº":8014,"wÃ¹rÃł":8015,"ĠlÃ¡Ãłti":8016,"tunse":8017,"ĠNilo":8018,"ĠNico":8019,"ubawa":8020,"tÃłlÃ©lÃ³":8021,"BÃŃbÃ©lÃ¬":8022,"ĠdÃºro":8023,"ĠdÃºpÃ©":8024,"had":8025,"Ġoluse":8026,"Ġolulaja":8027,"ĠUr":8028,"ĠUmu":8029,"ĠUgbÃ²":8030,"ĠUgan":8031,"ĠporÃŃ":8032,"Ġpota":8033,"Ġpopo":8034,"Ġpofo":8035,"bÃ¹dÃ¡":8036,"ough":8037,"Ġiyeara":8038,"ĠBahia":8039,"ĠBahama":8040,"á¹£ÃłlÃłyÃ©":8041,"ĠOlodumare":8042,"Ġgilandi":8043,"ĠDefaka":8044,"rÃ¹Ãºn":8045,"rÃ¹kÃº":8046,"Ã¬sÃ²":8047,"ĠOlÃ³yÃ¨":8048,"ĠâĢĵ<|":8049,"ĠjÃ¡sÃŃ":8050,"ĠjÃ¡kÃ¨":8051,"ĠfÃŃfÃºn":8052,"ĠjalÃ¨":8053,"Ġjasi":8054,"Ġapaiwoorun":8055,"ĠsalÃ¡":8056,"ĠsaÃ¡jÃº":8057,"gÃŃrÃŃ":8058,"lÃŃs":8059,"fÃ²n":8060,"ĠolÃ¹sá»įdipÃºpá»į":8061,"ĠolÃ¹darÃŃ":8062,"ĠAlÃ¡fÃł":8063,"bÃ¬nrÃŃn":8064,"mÃ¬nÃ¬":8065,"ĠOndÃ³":8066,"OrÃŃá¹£Ã¬ÃŃ":8067,"Ġradio":8068,"ĠgbowÃ³":8069,"Ġgbobgo":8070,"viÄĩ":8071,"homey":8072,"elle":8073,"ĠkÃ¡rÃłkÃ¡tÃł":8074,"ĠpÃłá¹£áº¹":8075,"ĠpÃłdÃł":8076,"ĠpÃłbÃ³":8077,"hio":8078,"ĠsÃ©gun":8079,"rÃ¡nÃ¬":8080,"Ġelekt":8081,"Ġelektro":8082,"ĠToseluarailu":8083,"urch":8084,"ĠasÃ²":8085,"ĠsÃ³kÃŃ":8086,"cate":8087,"cago":8088,"Ġidasiko":8089,"rÃ¬nwÃ¡":8090,"ĠsÃ²fÃ²":8091,"ĠsÃ²kÃ²tÃ²":8092,"Bawo":8093,"Bakan":8094,"BayÃ¬ÃŃ":8095,"Ġyatá»į":8096,"ĠarÃ¡kÃ¹nrin":8097,"ĠModÃ¡":8098,"ĠModern":8099,"ĠdÃłÃłmÃº":8100,"ĠKaribe":8101,"Ġmejidin":8102,"esis":8103,"tÃºná¹£e":8104,"gue":8105,"ĠObafemi":8106,"ĠÃłgbÃłlÃ¡":8107,"ĠVo":8108,"ĠVir":8109,"Ġ1936":8110,"code":8111,"Ġanti":8112,"bÃ¹nmi":8113,"ĠbÃ³fin":8114,"ĠAlgeria":8115,"ĠAllah":8116,"ciation":8117,"osta":8118,"Ġipase":8119,"Ġigbera":8120,"Ġigbele":8121,"Ġiwosan":8122,"ĠMark":8123,"gangan":8124,"Ġounje":8125,"ĠÃ¬bÃ¡mu":8126,"ĠÃ¬bÃ¡á¹£epá»į":8127,"káº¹ta":8128,"Ġfoju":8129,"dÃŃnkÃ¹":8130,"Ġgbiyanju":8131,"Ġiá¹£áº¹ju":8132,"ĠjÃŃire":8133,"ĠrÃ¡yÃ¨":8134,"ĠRemii":8135,"olin":8136,"Ġbut":8137,"Ġ1926":8138,"Ġ118":8139,"ĠIsland":8140,"ĠBow":8141,"ĠBogo":8142,"ĠBoys":8143,"ĠAnn":8144,"ĠAntoni":8145,"ĠLÃ¡ti":8146,"ĠLÃ¡mo":8147,"ĠSada":8148,"ĠSamuel":8149,"Ġcentury":8150,"Ġdogba":8151,"ĠibÃ¹do":8152,"Ġnibiti":8153,"Ġabode":8154,"ĠnÃŃbikÃŃbi":8155,"Ġ1915":8156,"ĠolÃºÃ¬lÃº":8157,"Ġinter":8158,"ĠBendel":8159,"ĠMimo":8160,"ĠMichael":8161,"ĠMichigan":8162,"ĠÃ¬gbÃ©sÃ¨":8163,"hÃ¡mÃ³":8164,"phy":8165,"phen":8166,"Ġjijo":8167,"Ġjigi":8168,"Ġgáº¹gáº¹":8169,"akh":8170,"gÃ¬dÃ¬":8171,"Ġiyara":8172,"Ġagbarajo":8173,"ĠlÃ¡Ã¬wo":8174,"ĠlÃ¡Ã¬pÃ©":8175,"ĠRomu":8176,"Titi":8177,"Ġasoju":8178,"ĠasojÃº":8179,"ĠlÃŃtÃŃrÃ©":8180,"ĠÃ¬dÃ¡ni":8181,"ĠÃ¬dÃ¡já»į":8182,"ĠÃ¬dÃ¡nilÃ©":8183,"ĠdÃ¬bÃ²":8184,"May":8185,"Marie":8186,"Ġá»įnÃł":8187,"Ġibadi":8188,"Ġibatan":8189,"ĠJagun":8190,"ĠJackson":8191,"ĠJehovah":8192,"ĠGÃ¨Ã©sÃ¬":8193,"ĠÃłÃ¬á¹£etÃ¡n":8194,"ĠÃłwÃ²ká»į":8195,"ĠÃłwÃ²rÃłn":8196,"rict":8197,"AlÃ¡kÃ¹nrÃ©":8198,"Ġpipo":8199,"Ġirinkankan":8200,"Ġpinpin":8201,"ĠLea":8202,"183":8203,"188":8204,"ĠGeorge":8205,"ĠCap":8206,"IlÃ©sanmÃŃ":8207,"ĠkÃ¡ÃłÃ¡":8208,"ĠNaples":8209,"Ġsáº¹láº¹":8210,"kÃŃnnÃŃ":8211,"ĠChris":8212,"ĠChurch":8213,"ĠPakistan":8214,"ĠyÃ³kÃ¹":8215,"Ġparaku":8216,"ĠGuyana":8217,"ĠPopu":8218,"ĠPoland":8219,"ĠPowell":8220,"2001":8221,"2002":8222,"2004":8223,"elect":8224,"ĠHad":8225,"Ã¬yÃłndÃ¡":8226,"1998":8227,"Ġ07":8228,"ĠlulÃ¨":8229,"Ġafida":8230,"Ġafijuwe":8231,"Ġikorira":8232,"ĠMethodist":8233,"OlÃ³dÃ¹marÃ¨":8234,"mbÃłga":8235,"pers":8236,"ĠMuhammad":8237,"Ġ1881":8238,"Ġ1883":8239,"ĠÃģrÃ¡":8240,"ĠabÄĻ":8241,"ĠatÃ³kÃ¹n":8242,"ĠOmooba":8243,"ĠSoci":8244,"AlÃ¡Ãłfin":8245,"drome":8246,"ĠrÃ©gÃ©":8247,"ĠBang":8248,"ĠKomo":8249,"ĠÃĢkÃłndÃ©":8250,"kÃ¡nkÃ¡n":8251,"Ġaburo":8252,"ĠAsokan":8253,"Ġ1890":8254,"Ġ1895":8255,"Ġ1898":8256,"Ġ1899":8257,"Ġijiya":8258,"Ġijiyan":8259,"Ġisokuso":8260,"LÃ³nÃ¬ÃŃ":8261,"ĠYunifa":8262,"ĠÃ¬sÃłkÃ³so":8263,"Ġilosiwaju":8264,"1981":8265,"1986":8266,"1988":8267,"DÃŃáº¹":8268,"ĠlÃ¡wÃ¹já»į":8269,"ĠSuper":8270,"ĠKiri":8271,"ĠAfÃŃrÃŃka":8272,"bongan":8273,"ĠgbÃŃgba":8274,"lerk":8275,"ĠSanta":8276,"ÃīÃ¨":8277,"Ì£ÌĢ":8278,"ĠÃ¬kÃ³já»į":8279,"ĠolÃ¹kÃ³pa":8280,"Anti":8281,"Ġ1902":8282,"Ġ1906":8283,"ĠThembu":8284,"Ġhelium":8285,"Ġ1876":8286,"Ġ1879":8287,"Ġkunna":8288,"ĠyÃ¨wÃ²":8289,"ĠLuther":8290,"Ogunlo":8291,"ĠadÃ¡nidÃ¡":8292,"Ġadura":8293,"ĠOlÃºsÃŃnÃł":8294,"Ġiwadii":8295,"Ġamusin":8296,"ĠÃłdÃ¡bÃ¡yÃ©":8297,"ĠÃ¬fipÃ¡":8298,"ĠgÃºnlÃ¨":8299,"ĠÃ¬sÃ¨jo":8300,"Ġhalo":8301,"Que":8302,"TorÃŃ":8303,"ight":8304,"Ġadogba":8305,"Ġadota":8306,"Ġayipo":8307,"Ġifipagbajoba":8308,"ĠÃ¬á¹£Ã¨":8309,"ĠÃ¬á¹£á»į":8310,"ĠÃ¬á¹£Ã²ro":8311,"ĠrÃºbo":8312,"ĠBibeli":8313,"ĠBrook":8314,"Hepatitis":8315,"KÃ³dÃł":8316,"Saharan":8317,"abiso":8318,"Ġaropo":8319,"ĠÃ¬lera":8320,"ĠSierra":8321,"ĠMorris":8322,"istrict":8323,"Ġ1863":8324,"Jacques":8325,"Ġalujon":8326,"ĠadÃºrÃ³á¹£iná¹£in":8327,"Ġitoju":8328,"ĠfÃ¡wÃ¨":8329,"ĠLatini":8330,"Peter":8331,"Ġanigun":8332,"ĠÃ¬tara":8333,"Ġsibesibe":8334,"ÃĢkÃ³kÃ²":8335,"ÃĢkÃ³já»į":8336,"ĠBell":8337,"ĠBello":8338,"ĠMozart":8339,"Ġafefeojuorun":8340,"GBÃģ":8341,"Ġatare":8342,"Ġidogba":8343,"Ġiroko":8344,"Ġkiniun":8345,"ĠjÃºwe":8346,"ĠÃ²gbÃ³jÃº":8347,"ĠfÃºnrarÃ¨":8348,"ĠChief":8349,"ĠChicago":8350,"APOR":8351,"Computer":8352,"notai":8353,"Ġibugbe":8354,"ÃĢpeere":8355,"ĠLÃºmÃ²":8356,"Ġteliskopu":8357,"BÃ¡mgbÃ³sÃ©":8358,"Ejowo":8359,"Ejoor":8360,"OnÃŃrÃº":8361,"lÃ¡ÃłÃ¡":8362,"ĠÃ¬dÃ¬pá»į":8363,"ĠÃ¬dÃ¬bÃ²":8364,"ĠÃ¬wÃºre":8365,"ĠÃ¬dÃ¡nrawÃ²":8366,"ĠjÃ¬jo":8367,"ĠAbimbo":8368,"ĠKansas":8369,"ApÃ¡Ã¬wá»į":8370,"ĠarÃ¡ÃłlÃº":8371,"Ġigbogun":8372,"Ġifowo":8373,"ĠÃ¬tÃºpalÃ¨":8374,"Ġmokanla":8375,"ĠTurkey":8376,"ĠÃĢÃłbÃ²":8377,"Ġkerinla":8378,"Alaye":8379,"LÃ³Ã²Ã³tá»į":8380,"Nobel":8381,"hysi":8382,"kend":8383,"mÃºni":8384,"Ġnairaland":8385,"ĠÃłrÃŃyÃ¡":8386,"ĠÃłroje":8387,"ĠÃ¬gbÃ¨rÃŃko":8388,"Ġjinna":8389,"balÃ³rÃ¬s":8390,"Ġá»įpá»įlá»įpá»į":8391,"ĠMississi":8392,"ĠKÃ¡bÃŃ":8393,"dunadura":8394,"ĠPenn":8395,"Ġ1792":8396,"Tawa":8397,"ĠÃłnÃŃyÃłn":8398,"Ġtiredi":8399,"ĠÃ¬yÃłnjÃº":8400,"inois":8401,"ĠOlagunso":8402,"ĠÃĮdÃŃje":8403,"Ġalaigbara":8404,"ĠÃ¬bÃ¡gbÃ©pá»į":8405,"Brazil":8406,"cular":8407,"mbus":8408,"Ġiwuwo":8409,"ĠÃ¬pÃ¬n":8410,"Ġkomunisti":8411,"ĠLouis":8412,"Ġsulfuru":8413,"ktrÃ³nÃ¬":8414,"ksÃŃkÃ²":8415,"Ġowuro":8416,"ĠAbele":8417,"ĠAbubakar":8418,"ÃĢjÃłpadÃ¡":8419,"ĠNupe":8420,"ĠBernou":8421,"ĠKÃŃrÃŃsÃŃtÃ¬":8422,"ÃĮpÃŃnlÃ¨":8423,"ĠPÃ³pÃ³á»įlÃ¡":8424,"ĠmÃŃÃ¬ran":8425,"ĠmÃŃÃ¬rÃłn":8426,"ADR":8427,"LÃŃtÃŃrÃ©s":8428,"PÃ³pÃ³o":8429,"PÃ³pÃ³á»įlÃ¡":8430,"ginia":8431,"vince":8432,"ĠOdÃ¹duwa":8433,"Ġfisiyiki":8434,"á¹£ayáº¹wo":8435,"ĠbÃ¡rakÃº":8436,"Ġá¹£ÃŃá¹£e":8437,"dÃłgbÃłsÃ³kÃ¨":8438,"ĠArmenia":8439,"ĠBÃ¡mgbÃ³s":8440,"ĠBÃ¡mgbÃ³á¹£Ã©":8441,"IDS":8442,"mÃ¬ÃŃrÃłn":8443,"ĠamÃ²ye":8444,"Ġilopomeji":8445,"ĠÃłbÃºro":8446,"ĠÃłyÃłfi":8447,"Ġbanki":8448,"ĠmÃ¹tÃº":8449,"ĠÃ¬dÃ²tÃŃ":8450,"Ġexcel":8451,"ĠÃ²rÃ¹lÃ©":8452,"Ġlojowaju":8453,"ĠLarubawa":8454,"Ġhurun":8455,"ĠZulu":8456,"Ġweekend":8457,"daniloro":8458,"ĠQueen":8459,"Adamawa":8460,"Jean":8461,"phere":8462,"Ð¸Ñ":8463,"ĠÃłrÃ¬mo":8464,"ĠÃ¬dajÃ¬":8465,"ĠAchebe":8466,"Ġkosesile":8467,"Ġsodiomu":8468,"ĠSOV":8469,"ĠSwidin":8470,"raniom":8471,"ĠColumbus":8472,"Ġtakuntakun":8473,"ĠÃĢlÃłmÃº":8474,"ĠdÃ©Ã©dÃ©Ã©":8475,"ĠMaxwell":8476,"bÃ³yÃ¨dÃ©":8477,"ĠInternational":8478,"ĠBajimo":8479,"BÃ¡mijÃŃ":8480,"ĠgbÃ¡radÃ¬":8481,"ĠAzerbaijan":8482,"Aago":8483,"Eleyi":8484,"WÃłhÃ¡lÃł":8485,"Ġoranyan":8486,"ĠarÃºgbÃ³":8487,"ĠÃłtÃºpalÃ¨":8488,"Ġdaru":8489,"ĠOyinlola":8490,"ĠÃ¨niyÃłn":8491,"baÅĦta":8492,"lovakia":8493,"ĠIrÃºnmo":8494,"Ġlafiwe":8495,"Ġpetroleomu":8496,"ĠNÃ¡ÃŃ":8497,"ĠÃĮbÃŃlÃ¨":8498,"ĠÃĴgbÃ²rÃ²":8499,"ĠKroatia":8500,"ĠÃĢtÃ¬lÃ¡ÅĦ":8501,"ĠÃĢgÃ¹dÃł":8502,"ĠFilmu":8503,"ĠRamat":8504,"ominira":8505,"ĠojoojÃºmÃ³":8506,"Ġoluwakiri":8507,"mÃºlÃ©rÃ³":8508,"ĠOlÃ³wÃ³lÃłgbÃł":8509,"ĠÃłkÃŃyÃ¨si":8510,"Ġdiphtheria":8511,"Barack":8512,"Mustapha":8513,"Walter":8514,"ktÃ©rÃŃÃł":8515,"mÃłÃ¡lÃ³":8516,"Ġnjanijáº¹":8517,"ĠagÃ©rÃŃ":8518,"Ġiá¹£egun":8519,"ĠÃ¬nira":8520,"ĠplÃ¡náº¹":8521,"Ġeukarioti":8522,"ĠAthens":8523,"ÅĦdÃŃrÃ¬":8524,"wonÃ¬dÃ¡hÃ¹n":8525,"ĠItÃ¡lÃŃÃł":8526,"ĠIllinois":8527,"Ġtokerejulo":8528,"ĠgrÃ¡fÃ¡Ã¬t":8529,"ĠYaradua":8530,"ĠkÃ³rÃ³onÃº":8531,"ĠFrÃ¡nsÃ¬":8532,"ĠolÃ³sÃ¨lÃº":8533,"dÃ¹dÃ¹joyÃ¨":8534,"Ġaladanida":8535,"Ġfarotika":8536,"ĠMalÃ²kun":8537,"ĠUganda":8538,"Ġiyearabudo":8539,"ĠKaribeani":8540,"ĠVirginia":8541,"electron":8542,"ĠabÄĻrÄĻ":8543,"notaipu":8544,"ĠMississippi":8545,"ĠOlagunsoye":8546,"ĠBernoulli":8547,"!,":8548,"\").<|":8549,"%.<|":8550,")).<|":8551,"01":8552,"61":8553,"68":8554,"76":8555,"79":8556,"82":8557,"93":8558,"?,":8559,"AA":8560,"AO":8561,"AY":8562,"Ai":8563,"Ado":8564,"Aba":8565,"Ato":8566,"Aro":8567,"Aka":8568,"AwÃ³":8569,"Aya":8570,"Ake":8571,"Asa":8572,"Aust":8573,"Ang":8574,"AkÃŃn":8575,"AbÃºlÃ©":8576,"Adua":8577,"Asiko":8578,"AgÃŃgÃŃrÃŃ":8579,"Afefe":8580,"BN":8581,"Ben":8582,"Bis":8583,"Bal":8584,"Can":8585,"Cal":8586,"Chi":8587,"Colin":8588,"Du":8589,"DÃĪ":8590,"Dog":8591,"Ero":8592,"ErÃ²":8593,"Epo":8594,"Eli":8595,"EwÃ¬":8596,"Ell":8597,"Eng":8598,"Fe":8599,"FÃ¡":8600,"Fá»įlÃ¡á¹£adÃ©":8601,"GE":8602,"GÃŃ":8603,"Gan":8604,"Gri":8605,"Gomina":8606,"Greenberg":8607,"Hin":8608,"Har":8609,"IN":8610,"IO":8611,"Ipa":8612,"Ila":8613,"Iro":8614,"Ita":8615,"IpÃ²":8616,"IrÃ³":8617,"IgbÃ¡":8618,"IdÃŃ":8619,"Ipin":8620,"IkÃº":8621,"Ilana":8622,"Igbimo":8623,"Ireti":8624,"Ibrahim":8625,"JÃ¬jÃ¬":8626,"JÃ©sÃ¹":8627,"KI":8628,"KO":8629,"KÃ©":8630,"Kin":8631,"Lan":8632,"LÃĴ":8633,"Lara":8634,"MA":8635,"Me":8636,"Mor":8637,"MÃŃlÃŃÃ²":8638,"NG":8639,"Nor":8640,"On":8641,"OlÃ¨":8642,"OÃ¹n":8643,"Okan":8644,"Okun":8645,"Ofin":8646,"OkÃ¹n":8647,"Obinrin":8648,"Osu":8649,"ObÃ¬nrin":8650,"Orisi":8651,"OÃºnje":8652,"PA":8653,"PD":8654,"PÃłÃ¡pÃłÃ¡":8655,"Pet":8656,"RC":8657,"Ru":8658,"RÃĴ":8659,"Rara":8660,"RenÃ©":8661,"SR":8662,"San":8663,"Sai":8664,"Sly":8665,"SÃ¡Ã¡jÃº":8666,"Slavic":8667,"TV":8668,"Táº¹":8669,"TÃłbÃŃ":8670,"Uni":8671,"UPA":8672,"Vo":8673,"Ver":8674,"Wil":8675,"Ya":8676,"Yi":8677,"Zos":8678,"af":8679,"ay":8680,"alo":8681,"ape":8682,"abe":8683,"ame":8684,"ath":8685,"ajoba":8686,"akiyesi":8687,"agle":8688,"bb":8689,"bor":8690,"bbÃł":8691,"cre":8692,"cla":8693,"cta":8694,"car":8695,"cis":8696,"cce":8697,"cci":8698,"ctoria":8699,"ddy":8700,"ea":8701,"eyo":8702,"eve":8703,"fÃ¬wÃ©":8704,"fklidi":8705,"gde":8706,"gar":8707,"gna":8708,"gine":8709,"gonu":8710,"gong":8711,"hÃ³":8712,"hoo":8713,"hÃłÃ¡":8714,"ib":8715,"ip":8716,"iÃ³":8717,"imo":8718,"ika":8719,"iji":8720,"iyi":8721,"iwÃ©":8722,"itan":8723,"ifÃ¨":8724,"ijoba":8725,"imar":8726,"irÃŃsi":8727,"itis":8728,"iriri":8729,"ign":8730,"ijinle":8731,"iá¹£ayáº¹wo":8732,"jen":8733,"jun":8734,"jÃŃn":8735,"jar":8736,"kwo":8737,"kwu":8738,"ltÃł":8739,"lÃłnÃŃ":8740,"ller":8741,"mun":8742,"mbÃ¡":8743,"mina":8744,"menu":8745,"mona":8746,"mÃŃnÃł":8747,"mine":8748,"mper":8749,"monu":8750,"musin":8751,"mÃŃnÃŃ":8752,"nm":8753,"nn":8754,"nle":8755,"nlÃ¡":8756,"naa":8757,"nyin":8758,"nth":8759,"nkÃ¡":8760,"nrÃŃn":8761,"ninu":8762,"ntÃŃn":8763,"ot":8764,"owo":8765,"olÃ©":8766,"opa":8767,"ohun":8768,"ois":8769,"ogo":8770,"obinrin":8771,"orile":8772,"oas":8773,"oles":8774,"okowo":8775,"opia":8776,"oá¹£o":8777,"pÃ¬ÃŃ":8778,"pá»įn":8779,"psi":8780,"pro":8781,"psy":8782,"rba":8783,"rorun":8784,"roro":8785,"rne":8786,"rley":8787,"spe":8788,"sini":8789,"sam":8790,"soro":8791,"she":8792,"sman":8793,"shire":8794,"sforu":8795,"sphere":8796,"ten":8797,"tle":8798,"tse":8799,"tch":8800,"tenu":8801,"tzer":8802,"tÃ¡ÃłsÃ¬":8803,"ute":8804,"uan":8805,"uris":8806,"vy":8807,"vÃ¡":8808,"von":8809,"wy":8810,"wen":8811,"wÃŃn":8812,"wÃ¨rÃ¨":8813,"yna":8814,"zon":8815,"zar":8816,"zine":8817,"zation":8818,"£o":8819,"Ã¢":8820,"Ã¿e":8821,"Ã£o":8822,"Äħ":8823,"Å¡":8824,"Åĥ":8825,"ÅĽ":8826,"Ëļ":8827,"Î¯":8828,"ÏĮ":8829,"Ðµ":8830,"Ġâ":8831,"Ġce":8832,"ĠÄĻ":8833,"ĠÇ¹":8834,"ĠÅŁ":8835,"ĠÎ²":8836,"ÃŃrÃŃ":8837,"ÃŃsÃŃ":8838,"ÃŃrÃłn":8839,"ÃŃpÃł":8840,"ïĢ¥/":8841,"ïĢ¥âĢĿ,":8842,"ĠnÃ³":8843,"Ġnle":8844,"Ġnlu":8845,"Ġnbe":8846,"Ġnlá»į":8847,"Ġnet":8848,"ĠnlÃ¡n":8849,"Ġtani":8850,"Ġtryp":8851,"Ã¡láº¹":8852,"Ã¡wÃ¡":8853,"Ã¡Ã¡ju":8854,"Ãłs":8855,"Ãłti":8856,"Ãłrin":8857,"ÃłlÃº":8858,"ÃłgbÃ©":8859,"ÃłmÃ¬":8860,"ÃłÃłrÃł":8861,"ÃłpÃ¨jÃºwe":8862,"ÃłkÃ¡nÃŃ":8863,"eno":8864,"ende":8865,"enna":8866,"tesi":8867,"teef":8868,"Ã³rÃŃ":8869,"Ã³gun":8870,"Ã³tÃŃ":8871,"Ã³rÃ¬":8872,"Ã³kÃŃ":8873,"doni":8874,"donu":8875,"Ã©ji":8876,"Ã©nÃŃ":8877,"Ã©li":8878,"Ã©kÃł":8879,"Ã©bÃ©":8880,"Ã©sin":8881,"Ġope":8882,"Ġobe":8883,"Ġofi":8884,"ĠorÃ¬":8885,"Ġoja":8886,"Ġogbon":8887,"Ġofe":8888,"Ġosun":8889,"Ġomin":8890,"Ġogagun":8891,"ĠogbÃ³n":8892,"Ġodaran":8893,"Ġotutu":8894,"ĠolÃ¹bÃ¡":8895,"ĠoÅĦje":8896,"Ġogorun":8897,"Ġorgani":8898,"Ġoxy":8899,"Ġah":8900,"Ġaon":8901,"ĠalÃ¨":8902,"Ġanu":8903,"Ġaláº¹":8904,"ĠadÃŃ":8905,"Ġatu":8906,"ĠayÃł":8907,"ĠagbÃ²":8908,"ĠajÃŃ":8909,"Ġawu":8910,"ĠabÃ³":8911,"ĠapÃ©":8912,"ĠafÃ²":8913,"Ġajumo":8914,"ĠayÃ³":8915,"Ġatele":8916,"ĠaginjÃ¹":8917,"Ġaá¹£ÃłlÃłyÃ©":8918,"gbÃºn":8919,"Ã¨lÃ¨":8920,"Ã¨sÃŃ":8921,"Ã¨sÃ¬":8922,"Ã¨lÃ²":8923,"Ã¨wÃ¡dÃ¬ÃŃ":8924,"ÃºÅĦ":8925,"Ãºmo":8926,"Ãºkan":8927,"Ãºpá»į":8928,"ÃºdÃº":8929,"ÃºfÃ²":8930,"Ã¬rÃŃ":8931,"Ã¬lÃ¹":8932,"Ã¬jÃł":8933,"Ã¬sÃ¨":8934,"Ã¬wÃ¡dÃ¬ÃŃ":8935,"Ã¬dÃ¨ra":8936,"Ã¬tayÃ²":8937,"Ã¬gÃ¬dÃ¬":8938,"Ġsti":8939,"Ġshun":8940,"ĠsÃ¹gbÃ³":8941,"Ġsare":8942,"Ġsho":8943,"Ġsina":8944,"Ġnise":8945,"ĠnilÃ¨":8946,"Ġnimo":8947,"ĠnilÃ©":8948,"Ġnigbo":8949,"Ġnimá»į":8950,"ĠnibÃ¨":8951,"ĠnitorÃŃ":8952,"Ġnitro":8953,"Ġnirole":8954,"Ã²bÃ¡":8955,"Ã²kÃ¹n":8956,"Ã²pÃ³":8957,"Ġif":8958,"Ġiri":8959,"ĠikÃ²":8960,"ĠidÃ¡":8961,"Ġiyin":8962,"ĠibÃº":8963,"ĠibÃ©":8964,"Ġigbon":8965,"ĠikÃ©":8966,"Ġipi":8967,"ĠimÃº":8968,"ĠirÃ¹":8969,"ĠirÃŃn":8970,"Ġidáº¹":8971,"Ġidan":8972,"ĠitÃºn":8973,"ĠikÃºn":8974,"Ġijinle":8975,"ĠihÃ²":8976,"á»įsi":8977,"á»įjá»į":8978,"á»įwá»į":8979,"á»įrá»į":8980,"Ġkg":8981,"Ġklo":8982,"Ġkwa":8983,"Ġkal":8984,"ĠÃłb":8985,"ĠÃłk":8986,"ĠÃłrin":8987,"ĠÃłlÃ©":8988,"ĠÃłdÃ¨":8989,"ĠÃłbo":8990,"ĠÃłsÃŃ":8991,"ĠÃłtÃŃ":8992,"ĠÃłdÃ©":8993,"ĠÃłna":8994,"ĠÃłsÃ¬":8995,"ĠÃłbÃ¨":8996,"ĠÃłdÃº":8997,"ĠÃłfin":8998,"ĠÃłgÃ¹n":8999,"ĠÃłmÃ³":9000,"ĠÃłkÃ©":9001,"ĠÃłrÃł":9002,"ĠÃłjÃ©":9003,"ĠÃłpÃł":9004,"ĠÃłtáº¹nu":9005,"ĠÃłá¹£etÃ¡n":9006,"ĠÃłpiláº¹":9007,"ïĢ£:":9008,"ïĢ£âĢĿ":9009,"anÃ¡":9010,"anÃ¬":9011,"ango":9012,"ungbun":9013,"unciation":9014,"ĠbÃ¬n":9015,"Ġborn":9016,"Ġblues":9017,"tiro":9018,"tiwa":9019,"tist":9020,"tine":9021,"tiuri":9022,"timatiiki":9023,"áºģ":9024,"Ġmun":9025,"Ġmang":9026,"Ġmunadoko":9027,"áº¹kan":9028,"áº¹gbáº¹":9029,"wopo":9030,"wobo":9031,"wosan":9032,"ĠtilÃ©":9033,"ĠÃ¬rÃŃ":9034,"ĠÃ¬re":9035,"ĠÃ¬dÃ¨":9036,"ĠÃ¬láº¹":9037,"ĠÃ¬wÃ³":9038,"ĠÃ¬pÃ²":9039,"ĠÃ¬yi":9040,"ĠÃ¬kÃ¬":9041,"ĠÃ¬jáº¹":9042,"ĠÃ¬gbÃ²":9043,"ĠÃ¬tÃ²":9044,"ĠÃ¬yo":9045,"ĠÃ¬ráº¹":9046,"ĠÃ¬dá»į":9047,"ĠÃ¬kÃ¡":9048,"ĠÃ¬yáº¹":9049,"ĠÃ¬kÃºn":9050,"ĠÃ¬gbáº¹":9051,"ĠÃ¬yá»į":9052,"ĠÃ¬káº¹":9053,"ĠÃ¬jÃ³kÃ²Ã³":9054,"ĠÃ¬pilÃ¨":9055,"ĠÃ¬tÃºmÃ²":9056,"ĠÃ¬rÃŃsÃŃ":9057,"ĠÃ¬bÃ¹gbÃ©":9058,"rich":9059,"rith":9060,"right":9061,"ridae":9062,"Ã¹tÃº":9063,"ĠnÃŃgba":9064,"ĠnÃŃye":9065,"ĠnÃŃnÃŃ":9066,"ĠnÃŃyÃł":9067,"ĠnÃŃnÃ¹":9068,"ĠfÃ¡Ãł":9069,"ĠfÃłÃ¡":9070,"Ġfos":9071,"Ġfaran":9072,"ĠjÃ¹n":9073,"Ġjor":9074,"ÌĢÌĢ":9075,"ĠtÃŃs":9076,"ĠtÃŃta":9077,"ĠtÃŃtÃ³bi":9078,"ĠyÃ¬n":9079,"ras":9080,"rati":9081,"rami":9082,"radi":9083,"rack":9084,"ÌģâĢĿ":9085,"Ġdani":9086,"Ġdanu":9087,"ĠdÃłnÃ¹":9088,"ĠgbÃłn":9089,"ĠgbÃ¡n":9090,"Ġgberu":9091,"Ġgbungbun":9092,"rÃŃá»į":9093,"rÃŃjo":9094,"rÃŃkÃ¬":9095,"rÃŃyÃłnjiyÃłn":9096,"rÃŃlÃŃá»į":9097,"inÃ¡":9098,"inte":9099,"inde":9100,"insula":9101,"incol":9102,"Ġema":9103,"ĠejÃ³":9104,"ĠegÃºn":9105,"Ġegbon":9106,"Ġesu":9107,"Ġefo":9108,"Ġekeji":9109,"Ġeá¹£iná¹£in":9110,"Ġeyon":9111,"ĠewÃ¹rÃł":9112,"Ġemper":9113,"ÃºnbÃ¡":9114,"lem":9115,"lemo":9116,"leke":9117,"leyin":9118,"left":9119,"ĠAN":9120,"ĠAi":9121,"ĠAlÃ©":9122,"ĠAá¹£":9123,"ĠAya":9124,"ĠAna":9125,"ĠAmÃ²":9126,"ĠAga":9127,"ĠAdÃ¬":9128,"ĠAgÃŃ":9129,"ĠAzi":9130,"ĠAction":9131,"ĠAá¹£á»į":9132,"ĠAnam":9133,"ĠÃ³n":9134,"ĠÃ³Ã³":9135,"ĠÃ³sÃ¬":9136,"ĠOL":9137,"ĠOb":9138,"ĠOo":9139,"ĠOs":9140,"ĠOre":9141,"ĠOgbo":9142,"ĠOgbÃ³":9143,"ĠOru":9144,"ĠOsan":9145,"ĠOtun":9146,"ĠOly":9147,"ĠOgÃ³":9148,"ĠOkere":9149,"ĠOscar":9150,"ĠOhio":9151,"ĠÃ¨s":9152,"ĠÃ¨gbo":9153,"ĠÃ¨nÃ¬":9154,"ĠÃ¨we":9155,"ĠÃ¨yÃ¬":9156,"ĠÃ¨gÃº":9157,"ĠÃ²rÃŃ":9158,"ĠÃ²ko":9159,"ĠÃ²ro":9160,"ĠÃ²run":9161,"ĠÃ²lÃ¹":9162,"ĠÃ²rÃ¹n":9163,"ĠÃ²gi":9164,"ĠÃ²gÃºn":9165,"ĠÃ²Ã²rÃ¹n":9166,"ĠÃ²gÃ³":9167,"ĠÃ²tÃ©":9168,"ĠÃ²rÃºnmÃ¬lÃł":9169,"rele":9170,"rede":9171,"redi":9172,"rest":9173,"rector":9174,"ono":9175,"onai":9176,"Ãłni":9177,"kom":9178,"kot":9179,"kola":9180,"kohun":9181,"kodu":9182,"ĠsÃŃsÃ©":9183,"ĠsÃŃsá»į":9184,"ĠsÃŃstáº¹":9185,"bago":9186,"bavi":9187,"basepo":9188,"ÅĦgbÃ©":9189,"ÅĦdÃł":9190,"loju":9191,"logun":9192,"lohun":9193,"loso":9194,"lorun":9195,"lopin":9196,"lover":9197,"Ġjewo":9198,"Ġjedi":9199,"Ġjepe":9200,"dea":9201,"demy":9202,"ĠÅĦá¹£e":9203,"ĠÅĦmÃº":9204,"sea":9205,"see":9206,"sef":9207,"sep":9208,"seve":9209,"Ġlor":9210,"ĠlorÃŃ":9211,"Ġloko":9212,"Ġlokan":9213,"ĠlojÃº":9214,"Ġlowa":9215,"Ġlobe":9216,"Ġloke":9217,"Ġlopin":9218,"Ġlojumo":9219,"ĠrÃºn":9220,"Ġroo":9221,"bisi":9222,"biki":9223,"mogo":9224,"moyÃł":9225,"mosho":9226,"ĠII":9227,"ĠIka":9228,"ĠIrÃº":9229,"ĠIbo":9230,"ĠItu":9231,"ĠIkÃº":9232,"ĠIwu":9233,"ĠIjoko":9234,"ĠIhi":9235,"ĠIII":9236,"rino":9237,"rinrin":9238,"rindÃ²":9239,"rince":9240,"á»įna":9241,"Ġfid":9242,"Ġfig":9243,"Ġfit":9244,"Ġfield":9245,"Ġtoka":9246,"Ġtopo":9247,"Ġtope":9248,"Ġtoduro":9249,"Ġtounje":9250,"lÃ©gbÃ©":9251,"lÃ©gÃ¹n":9252,"lÃ©lÃ¡ÃłÃ¡":9253,"Ġsis":9254,"Ġsit":9255,"ĠsilÃ¨":9256,"Ġsipo":9257,"Ġsisa":9258,"Ġsitáº¹":9259,"kanjÃº":9260,"ory":9261,"orre":9262,"orgi":9263,"silo":9264,"sipa":9265,"simi":9266,"siati":9267,"ĠlÃ¡gbo":9268,"ĠlÃ¡kÃ²Ã³":9269,"ĠlÃ¡rinrin":9270,"Ġkanga":9271,"parÃŃ":9272,"pase":9273,"paláº¹":9274,"parapo":9275,"jopo":9276,"âĢ²":9277,"lÃºu":9278,"lÃºbi":9279,"lÃºwÃł":9280,"lÃºdÃ¹n":9281,"Ġwale":9282,"Ġlawo":9283,"Ġlapa":9284,"ĠlatÃŃ":9285,"Ġlaruge":9286,"late":9287,"laba":9288,"larin":9289,"lami":9290,"labÃŃ":9291,"laya":9292,"lary":9293,"laksi":9294,"ĠwokÃ²":9295,"tola":9296,"tock":9297,"towuwo":9298,"ĠlÃ³jo":9299,"ĠlÃ³dÃ²":9300,"ĠlÃ³mÃº":9301,"ĠlÃ³Ã²Ã³tÃ³":9302,"gbati":9303,"gbaja":9304,"gbÃłlÃł":9305,"gbÃłgbá»į":9306,"rou":9307,"rov":9308,"row":9309,"rolina":9310,"Ġseba":9311,"Ġsegbe":9312,"Ġsetan":9313,"Ġsegoye":9314,"lus":9315,"luv":9316,"luen":9317,"yedÃ¨":9318,"yemá»į":9319,"yewu":9320,"ĠtÃ³jÃ¹":9321,"ĠgÃ¡":9322,"ĠgÃ²":9323,"ĠgÃ¡n":9324,"Ġgran":9325,"Ġgede":9326,"ĠgÃ³mÃ¬nÃł":9327,"ĠgÃłÃłrÃł":9328,"kal":9329,"kata":9330,"Ġá»įra":9331,"Ġá»įwÃ¡":9332,"Ġá»įrÃ¹n":9333,"Ġá»įfun":9334,"Ġkoba":9335,"Ġkoso":9336,"Ġkoriko":9337,"Ġ1900":9338,"nibi":9339,"niya":9340,"nigbati":9341,"ÃĢbÃ¡":9342,"ÃĢwÃ²":9343,"ÃĢrÃ¹n":9344,"ÃĢjÃ¨jÃ¬":9345,"Ġbillion":9346,"Ġbiology":9347,"lÃ¡jo":9348,"lÃ¡wá»į":9349,"lÃ¡á¹£adÃ©":9350,"nuwÃ²":9351,"nubÃł":9352,"nucle":9353,"rÃ²Ã³":9354,"rÃ²ko":9355,"rÃ²rÃ²":9356,"lÃ³rÃ²":9357,"lÃ³jÃº":9358,"lÃ³rÃ¹n":9359,"erÃ¨":9360,"ersian":9361,"ĠbÃŃÃŃ":9362,"ĠbÃŃmá»į":9363,"ĠbÃŃbo":9364,"Ġsora":9365,"Ġsoto":9366,"Ġsomi":9367,"Ġsopin":9368,"Ġsosialisti":9369,"gbogi":9370,"tari":9371,"tako":9372,"tama":9373,"tagonu":9374,"mit":9375,"yÃŃpo":9376,"dajo":9377,"dard":9378,"dii":9379,"digbo":9380,"diboyan":9381,"Ġpea":9382,"ĠNri":9383,"ĠNas":9384,"ĠNama":9385,"ĠNami":9386,"ĠNSA":9387,"ĠNelson":9388,"ĠNneka":9389,"polo":9390,"ĠÃĮdÃ¨":9391,"ĠÃĮbÃ¡":9392,"ĠÃĮgbÃ³":9393,"ĠÃĮkÃ²":9394,"ĠÃĮbe":9395,"ĠÃĮrÃ³":9396,"ĠÃĮkÃ¬":9397,"ĠÃĮrÃ¡":9398,"ĠÃĮlá»į":9399,"ĠÃĮfÃ©":9400,"ĠÃĮsÃ²":9401,"ĠÃĮtumÃ²":9402,"ĠÃĮwÃ¡dÃ¬ÃŃ":9403,"ĠÃĮkÃ²yÃŃ":9404,"ĠÃĮpÃ¨sÃ¨":9405,"jule":9406,"hunma":9407,"ĠkÃ²Ã²":9408,"ĠkÃ²sÃ¹n":9409,"ĠkÃ²mpÃºtÃł":9410,"ĠkÃ²Ã²kan":9411,"Ġmora":9412,"ĠBÃ²":9413,"ĠBaa":9414,"ĠBona":9415,"ĠBruce":9416,"ĠSun":9417,"ĠSon":9418,"ĠSÃ¡n":9419,"ĠSal":9420,"ĠSho":9421,"ĠSur":9422,"ĠShin":9423,"ĠSim":9424,"ĠSul":9425,"ĠSunda":9426,"ĠSpani":9427,"ĠSTS":9428,"ĠSlovenia":9429,"ĠSADR":9430,"ĠSlovakia":9431,"ĠSkot":9432,"kÃ³Ã³":9433,"kÃ³kÃ²":9434,"Ġdiáº¹":9435,"ĠdilÃ¨":9436,"Ġdipe":9437,"Ġdidin":9438,"Ġdiboyan":9439,"Ġdidda":9440,"ĠMaa":9441,"ĠMai":9442,"ĠMary":9443,"ĠMÃŃlÃŃÃ²":9444,"ĠÃĴye":9445,"ĠÃĴwe":9446,"ĠÃĴpÃ³":9447,"ĠÃĴdÃ¹du":9448,"ĠÃĴgbÃłgÃ¬":9449,"ĠÃĴgÃ¨":9450,"ĠÃĴfurufÃº":9451,"ĠÃĴgÃ¬rÃ¬":9452,"ĠÃĴgÃ²gÃ³":9453,"ĠbaÃł":9454,"Ġbakan":9455,"Ġbaláº¹":9456,"Ġbaso":9457,"ĠbaÃ¡lÃ¨":9458,"Ġbaseball":9459,"ĠrÃ¨Ã©":9460,"ĠEti":9461,"ĠEba":9462,"ĠErin":9463,"ĠEgbo":9464,"ĠEso":9465,"ĠEnÃŃ":9466,"ĠEgbÃ©":9467,"ĠEya":9468,"ĠEuba":9469,"ĠEuro":9470,"ĠEkiti":9471,"ĠEthi":9472,"ĠEtho":9473,"ĠErn":9474,"ĠEdison":9475,"ĠEfklidi":9476,"bÃŃye":9477,"ĠwÃłrÃł":9478,"ĠrelÃ©":9479,"Ġrewa":9480,"Ġrege":9481,"Ġreali":9482,"Ġrekodu":9483,"ĠYa":9484,"ĠYar":9485,"ĠYÃłtÃ²":9486,"gbÃ³jÃº":9487,"Ġpase":9488,"Ġparun":9489,"wale":9490,"ware":9491,"walu":9492,"wada":9493,"ĠKÃ¨":9494,"ĠKÃº":9495,"ĠKáº¹":9496,"ĠKol":9497,"ĠKarun":9498,"ĠKolu":9499,"ĠKim":9500,"ĠKong":9501,"ĠKhama":9502,"ĠKordofanian":9503,"ĠKáº¹ta":9504,"ĠKwÃ¡rÃł":9505,"ĠKosta":9506,"ĠkÃŃkÃł":9507,"ĠkÃŃyÃ¨sÃŃ":9508,"ĠkÃŃkáº¹":9509,"Ġlea":9510,"Ġlewon":9511,"Ġleta":9512,"Ġlekun":9513,"Ġfunmi":9514,"Ġfunpo":9515,"Ġfunwa":9516,"Ġfunlover":9517,"gbede":9518,"gbeyin":9519,"ÃĮyÃŃ":9520,"ÃĮya":9521,"ÃĮká»į":9522,"ÃĮjá»į":9523,"ÃĮtan":9524,"ÃĮdÃ³":9525,"ÃĮsÃ¨":9526,"ÃĮá¹£e":9527,"ÃĮjÃ©lÃ¨":9528,"ÃĮpÃłdÃ©":9529,"ÃĮdÃłgbÃłsÃ³kÃ¨":9530,"ĠGÃ©":9531,"ĠGÃº":9532,"ĠGre":9533,"ĠGor":9534,"ĠGaa":9535,"ĠGus":9536,"ĠGban":9537,"ĠGang":9538,"ĠGlas":9539,"ĠGDP":9540,"ĠGbongan":9541,"arÃ³":9542,"yÃłnjÃº":9543,"yÃłndÃ¡":9544,"rÃºkÃº":9545,"pÃ²mÃ¹":9546,"jid":9547,"sou":9548,"yÃ©de":9549,"yÃ©fÃ¬":9550,"nÃŃs":9551,"nÃŃjÃł":9552,"nÃŃÃ¬mÃ¹":9553,"NÃŃgbÃ¨":9554,"Ġmimá»į":9555,"Ġmiss":9556,"ĠJr":9557,"kÃ²wÃ²":9558,"nÃ¬s":9559,"ĠYorÃºbÃł":9560,"ĠYorÃºbÃ¡":9561,"kibi":9562,"kita":9563,"kiriaye":9564,"ĠDÃ¡":9565,"ĠDÃł":9566,"ĠDáº¹":9567,"ĠDon":9568,"ĠDistrict":9569,"Ġorisa":9570,"Ġkirisi":9571,"ĠkiÃŃnÃŃ":9572,"Ġjáº¹risi":9573,"Ġjáº¹notaipu":9574,"jemu":9575,"jebra":9576,"aado":9577,"liti":9578,"lika":9579,"lifa":9580,"lifÃŃ":9581,"lipini":9582,"wÃ¡ju":9583,"wÃ²ká»į":9584,"dÃ¡Ã¬":9585,"dÃ¡ni":9586,"dÃ¡jÃ³":9587,"yiwa":9588,"Ġohunkohun":9589,"Ġá¹£Ã²ro":9590,"Ġá¹£oá¹£o":9591,"Ġáº¹ri":9592,"Ġáº¹já»į":9593,"ĠorÃŃi":9594,"ĠorÃŃmÃ³Ã²gÃ¹n":9595,"ederer":9596,"ĠmÃ©Ã¨":9597,"ĠmÃ©rin":9598,"ĠmÃ©jo":9599,"mera":9600,"mele":9601,"mebi":9602,"mesi":9603,"mewa":9604,"Ġilee":9605,"Ġisan":9606,"ĠkÃ³n":9607,"ĠkÃ³ra":9608,"ĠkÃ³hun":9609,"ĠkÃ³wÃ³":9610,"ĠkÃ³kÃ²":9611,"ĠkÃ³go":9612,"ĠkÃ³dÃł":9613,"ĠTria":9614,"ĠTour":9615,"ĠThomas":9616,"ĠTony":9617,"ĠTinÃº":9618,"ĠTrain":9619,"ĠtÃłgbÃł":9620,"ĠtÃłku":9621,"ĠCun":9622,"ĠCla":9623,"ĠCal":9624,"ĠCas":9625,"ĠLK":9626,"ĠLen":9627,"ĠLor":9628,"ĠLis":9629,"ĠLang":9630,"ĠLÃģ":9631,"ĠLincol":9632,"boy":9633,"bori":9634,"borÃŃ":9635,"bodÃ¨":9636,"board":9637,"ges":9638,"gege":9639,"ĠrÃŃnÃº":9640,"fisi":9641,"fidi":9642,"fili":9643,"fihÃłn":9644,"field":9645,"sÃŃi":9646,"sÃŃÃ²":9647,"sÃŃpa":9648,"sÃŃrÃ©":9649,"ĠtatÃŃ":9650,"Ġtasere":9651,"Ġtayo":9652,"ĠÃĢdÃ¡":9653,"ĠÃĢkÃł":9654,"ĠÃĢrÃł":9655,"ĠÃĢsÃł":9656,"ĠÃĢgÃ³":9657,"ĠÃĢsÃ¬kÃ²":9658,"ĠÃĢrÃ¡n":9659,"ĠÃĢbÃ¹dÃ¡":9660,"dÃºnrÃºn":9661,"uss":9662,"usun":9663,"gbÃ©nlÃ©":9664,"yawo":9665,"yara":9666,"kes":9667,"keyi":9668,"keyin":9669,"ĠilÃ©sÃł":9670,"ÃłtÃºn":9671,"ÃĪte":9672,"ÃĪro":9673,"ÃĪka":9674,"ÃĪkÃ³":9675,"ÃĪnÃ¬yÃłn":9676,"ÃĪkÃŃnÃŃ":9677,"ÃĪÃ¨yÃłn":9678,"ĠtÃºnÃºnbÃ¡":9679,"tÃłnÃ¬":9680,"ká»įká»į":9681,"yÃ¬nwÃ¡":9682,"yÃ¬nbÃ²":9683,"ÃĴs":9684,"ÃĴyÃ¨":9685,"ÃĴrÃ¬":9686,"ÃĴgÃºn":9687,"ÃĴrÃ¬s":9688,"rÃ³gbÃ³":9689,"ĠFÃºn":9690,"ĠFar":9691,"ĠFom":9692,"ĠFul":9693,"ĠFree":9694,"ĠFlori":9695,"ĠFá»įlÃ¡á¹£adÃ©":9696,"ĠFried":9697,"rÃ¬wÃ²":9698,"ïĢıïĢı":9699,"duwa":9700,"dugu":9701,"musi":9702,"muyiwa":9703,"Ġdahun":9704,"kÃ¨Ã©":9705,"kÃ¨rindÃ²":9706,"ĠgbÃ³gÃ¬":9707,"Ġorileijoba":9708,"ĠPlan":9709,"ĠPal":9710,"ĠPhi":9711,"ĠPas":9712,"ĠProto":9713,"ĠPresident":9714,"á»Įrá»į":9715,"á»Įgbá»į":9716,"á»ĮbÃłlÃ¹fá»į":9717,"kunbÃ²":9718,"ĠÃ¬sÃ©":9719,"ĠÃ¬sáº¹":9720,"ĠÃ¬sÃºn":9721,"ĠÃ¬soro":9722,"ĠÃ¬saÃ¡jÃº":9723,"ĠlÃ©Ã¨rÃ¨":9724,"tÃ³lÃ¬":9725,"mah":9726,"mato":9727,"maic":9728,"Ġolokan":9729,"Ġolofin":9730,"Ġwá»įlÃ©":9731,"ĠdÃ¡lÃ©":9732,"ĠdÃ¡bÃłÃ¡":9733,"berto":9734,"ĠibitÃŃ":9735,"ĠibikÃŃbi":9736,"gae":9737,"gazine":9738,"pá»įlá»įpá»į":9739,"sÃ¬yÃŃ":9740,"ĠomodÃ©":9741,"Ġomobinrin":9742,"nÃłgbÃ©":9743,"iska":9744,"ister":9745,"gow":9746,"gogo":9747,"gorith":9748,"Ġho":9749,"ĠmÃºra":9750,"bulu":9751,"dÃŃje":9752,"dÃŃdÃ¡":9753,"Ġkejo":9754,"Ġkewa":9755,"Ġkeke":9756,"ĠÃ¬gbÃłgbÃ©":9757,"tuka":9758,"kÃłrÃ¨":9759,"kÃłwÃ©":9760,"jÃ¨ji":9761,"jado":9762,"jara":9763,"jayÃ©":9764,"jagan":9765,"yÃłmÃ¨":9766,"ĠHon":9767,"ĠHis":9768,"ĠHum":9769,"ĠHomo":9770,"ĠHit":9771,"ĠHusse":9772,"ĠHall":9773,"ĠHIV":9774,"ĠRas":9775,"ĠRale":9776,"gbÃ²Ã²":9777,"ĠbodÃ¨":9778,"Ġboju":9779,"Ġbotile":9780,"Ġboseye":9781,"ĠalÃ¡mÃ²":9782,"ĠalÃ¡ga":9783,"ĠalÃ¡fe":9784,"ĠalÃ¡fo":9785,"ĠalÃ¡Ã¬sÃłn":9786,"ĠalÃ¡Ã¬nÃŃ":9787,"ĠalÃ¡takÃ²":9788,"ĠalÃ¡sÃŃn":9789,"ĠalÃ¡ÃŃsÃłn":9790,"Ġbebe":9791,"Ġbeyen":9792,"ïĢ§,":9793,"bÃłbÃ¡":9794,"Ġmesan":9795,"rÃ¡lÃŃÃł":9796,"ĠdÃ©lÃ¨":9797,"ĠdÃ©láº¹":9798,"ĠdÃ©Ã¨tÃ¬":9799,"cho":9800,"char":9801,"chele":9802,"ĠkÃºrÃº":9803,"ĠkÃºrÃ³":9804,"jÃŃire":9805,"hÃ¹nÃºn":9806,"kuko":9807,"kulÃ¨":9808,"kuluku":9809,"já»įluni":9810,"jÃłgan":9811,"ĠwÃ²ye":9812,"Ġuni":9813,"Ġunko":9814,"Ġunso":9815,"Ġunjade":9816,"ĠolÃ³s":9817,"ĠolÃ³rin":9818,"ĠolÃ³run":9819,"ths":9820,"thwai":9821,"fasiki":9822,"áº¸ran":9823,"áº¸ká»į":9824,"mÃŃlÃ©":9825,"Ġmafi":9826,"aire":9827,"Ġteju":9828,"Ġtesiwaju":9829,"Ġteriba":9830,"tang":9831,"ĠnÃŃpasÃ¨":9832,"Ġ1817":9833,"Ġ1843":9834,"Ġ1828":9835,"Ġakopa":9836,"Ġakowa":9837,"Ġakotan":9838,"Ġakoonu":9839,"Ġakoole":9840,"Ġakorajo":9841,"ĠWan":9842,"ĠWon":9843,"ĠWes":9844,"ĠWald":9845,"Ġalapa":9846,"Ġalaja":9847,"Ġalaini":9848,"Ġalaaye":9849,"Ġalaisan":9850,"ced":9851,"ĠonÃŃkÃ³":9852,"ĠonÃŃtÃ¨":9853,"ĠonÃŃkÃ²kÃ³":9854,"Ġriro":9855,"Ġribavi":9856,"bina":9857,"binson":9858,"ĠIlÃ©kÃ©":9859,"Ġfami":9860,"omin":9861,"amb":9862,"dÃ³nÃŃÃł":9863,"ĠlÃ³rÃŃs":9864,"ĠlÃ³rÃŃláº¹":9865,"wá»įra":9866,"Ġá»Įá»į":9867,"Ġá»ĮdÃºn":9868,"Ġá»Įjá»į":9869,"ĠnÃ¬pa":9870,"ĠnÃ¬yi":9871,"Ġonipo":9872,"Ġoniyo":9873,"Ġonisiro":9874,"Ġonigbowo":9875,"ĠyÃŃkÃ¡":9876,"sau":9877,"same":9878,"sand":9879,"gbongbo":9880,"mÃ³n":9881,"ĠÃĪsÃ¹":9882,"ĠÃĪLÃĴ":9883,"oruntomoru":9884,"ooo":9885,"onica":9886,"fÃ¨rÃŃ":9887,"ĠdÃŃde":9888,"ĠdÃŃjÃº":9889,"ĠdÃŃje":9890,"ĠdÃŃfÃ¡":9891,"ĠMara":9892,"ĠMake":9893,"ĠMassa":9894,"Ġisemi":9895,"Ġiseku":9896,"Ġiseele":9897,"rÃłpÃ¡":9898,"rÃłkÃ²yÃŃ":9899,"ĠnawÃ³":9900,"kÃŃÃ¡":9901,"Ġgbegbe":9902,"ráº¹ráº¹":9903,"Ġáº¸dÃ³":9904,"Ġáº¸gbáº¹":9905,"Ġwiwon":9906,"Ġwith":9907,"anida":9908,"alley":9909,"Ġagbayo":9910,"ĠojÃºse":9911,"ĠojÃºlÃ¹":9912,"ĠojÃºtÃ¹Ãº":9913,"ĠojÃºÃłmÃ¬":9914,"ĠojÃºÃ¹tÃº":9915,"Ġkakiriaye":9916,"yÃ¡ra":9917,"sten":9918,"stra":9919,"stle":9920,"wÃ¹já»į":9921,"ĠlÃ¡ÃłrÃ¬n":9922,"ĠAfo":9923,"ĠAfghan":9924,"ĠNolly":9925,"tunji":9926,"ĠÃ©jÃ¬":9927,"ĠmÃ©jÃ¬dÃŃnlÃ³":9928,"ĠkÃ©ta":9929,"ĠkÃ©kÃ©":9930,"ĠkÃ©tÃ©":9931,"Ġeyikeyi":9932,"ĠNij":9933,"ĠbÃłbÃł":9934,"tÃłdÃŃnlÃ³":9935,"ĠÃłkÃ³rÃłn":9936,"ĠÃłkÃ³tÃ¡n":9937,"ĠÃłkÃ³já»įpá»į":9938,"ĠÃłkÃ³Ã³nÃº":9939,"kÃłndÃŃnlÃ³":9940,"kÃłngÃ¡":9941,"kÃłnlÃ©lÃ³":9942,"kÃłnlÃ©lÃ³gÃºn":9943,"kÃłnbalÃ¨":9944,"fokan":9945,"fosforu":9946,"1921":9947,"1963":9948,"ĠdÃºkÃ¬":9949,"ĠtÃ¨lÃ¨":9950,"hat":9951,"haji":9952,"hamu":9953,"haha":9954,"Ġolus":9955,"Ġolujidide":9956,"Ġolusodipupo":9957,"Ġolutuwo":9958,"Ġoludaniloro":9959,"Ġolukuluku":9960,"jÃ²fi":9961,"Ġnipase":9962,"piter":9963,"ĠUn":9964,"ĠUbangi":9965,"ĠUpper":9966,"ĠUsman":9967,"Ġpoliti":9968,"mÃºÃ¹":9969,"mÃºláº¹":9970,"mÃºrÃºdu":9971,"head":9972,"heed":9973,"ĠiyebÃŃye":9974,"ĠInd":9975,"ĠBay":9976,"ĠBawo":9977,"ĠBain":9978,"ĠBath":9979,"ĠBasse":9980,"ĠBaptist":9981,"kins":9982,"kinni":9983,"kÃ¡rÃł":9984,"kÃ¡rÃŃá»į":9985,"sÃ¹pÃ¡":9986,"ĠKewa":9987,"ĠKeje":9988,"ĠKefa":9989,"ĠmÃŃmÃº":9990,"ĠlÃ²pÃ²":9991,"ĠOlÃ³gun":9992,"ĠOlÃ³bÃŃmitÃ¡n":9993,"NÃŃgbÃłtÃŃ":9994,"pÃ¨re":9995,"pÃ¨lÃ©":9996,"Ġ34":9997,"ĠfÃŃfáº¹":9998,"Ġjagidi":9999,"fur":10000,"ĠsÃ¡jÃº":10001,"ĠsÃ¡bÃ©":10002,"ĠsÃ¡fáº¹":10003,"Ġapar":10004,"Ġapata":10005,"Ġapapá»į":10006,"Ġapaariwa":10007,"ves":10008,"vere":10009,"vement":10010,"Ġsara":10011,"Ġsale":10012,"Ġsako":10013,"Ġsaka":10014,"Ġsafihan":10015,"Ġsamojuto":10016,"--<|":10017,"LÃ¡sÃ¬kÃ²":10018,"LÃ¡tÃłrÃŃ":10019,"lÃŃle":10020,"lÃŃvar":10021,"Ġyeke":10022,"Ġyears":10023,"ĠolÃ¹sÃ¬n":10024,"ĠolÃ¹rÃłnlÃ³":10025,"ĠAlÃ¡dÃ©":10026,"ĠAlÃ¡keji":10027,"ĠAlÃ¡kÃ³so":10028,"ĠAlÃ¡kÃ¹nrÃ©":10029,"ĠAlÃ¡dÃ¬ye":10030,"esburg":10031,"OrÃŃá¹£irÃŃá¹£i":10032,"Ġraa":10033,"Ġradi":10034,"tertain":10035,"ĠgboyÃ¨":10036,"Ġagbero":10037,"Ġagbebon":10038,"Ġidimule":10039,"ĠÃ¬yÃŃdÃł":10040,"ĠirÃºfáº¹":10041,"jÃ¡dÃ²":10042,"vich":10043,"vieve":10044,"Ġinuarin":10045,"Ġinuatomu":10046,"hoe":10047,"Ġ178":10048,"Ġ1769":10049,"ĠsubÃº":10050,"ĠkÃ¡sÃ¨":10051,"ĠpÃłpÃł":10052,"ĠpÃłrÃłkÃ²yÃŃ":10053,"Ġyoku":10054,"ĠsÃ©ÅĦtÃºrÃ¬":10055,"ĠÃłsÃ¡lÃł":10056,"rÃ¡nyÃłn":10057,"Ġelere":10058,"Ġelebun":10059,"Ġeleyameya":10060,"ĠTope":10061,"ĠTome":10062,"ĠTower":10063,"ĠTobago":10064,"Ġnkankan":10065,"ĠasÃ²n":10066,"ĠsÃ³n":10067,"ĠsÃ³fo":10068,"ĠOlÃºgbÃ²":10069,"ĠOlÃºkÃłrÃ©":10070,"ĠÃłÃłye":10071,"ĠÃłÃłyÃ²":10072,"Ġojuami":10073,"Ġidari":10074,"Ġegbeegberun":10075,"uston":10076,"ĠrojÃ³":10077,"rÃ¬nlÃ¡":10078,"BaÃ¡lÃ¨":10079,"ĠMovement":10080,"ĠdÃłÃł":10081,"ĠdÃłrÃº":10082,"ĠAlafia":10083,"ĠÃ¬pÃŃnsÃŃ":10084,"Ġloworo":10085,"ĠKaz":10086,"ĠKath":10087,"ĠelÃ©wÃ²n":10088,"guy":10089,"guda":10090,"ĠdÃ³rÃŃ":10091,"ĠÃĴkÃ¨Ã¨":10092,"ĠVa":10093,"ĠVan":10094,"ĠVin":10095,"ĠVer":10096,"ĠVene":10097,"ĠVII":10098,"ĠVilla":10099,"ĠVenus":10100,"ĠValley":10101,"maru":10102,"maran":10103,"Ġirufáº¹":10104,"risun":10105,"risÃ¬ÃŃ":10106,"cob":10107,"Ġanfani":10108,"ĠDirector":10109,"ĠbÃ³jÃº":10110,"LÃ©yÃ¬n":10111,"LÃ©hÃ¬n":10112,"tÃ¡fo":10113,"ĠtÃºbá»į":10114,"Ġayamu":10115,"cian":10116,"ciali":10117,"dine":10118,"Ġiparun":10119,"hÃ¬nrere":10120,"ĠlÃłwo":10121,"Ġigberin":10122,"ĠÃłpÃ³nlÃ©":10123,"ĠOgunde":10124,"Ġ1655":10125,"ĠMarku":10126,"ĠMarsh":10127,"ĠMartin":10128,"ĠMargaret":10129,"eres":10130,"sunmo":10131,"sunkan":10132,"táº¹láº¹":10133,"ĠÃ¬wÃ²n":10134,"Ġ42":10135,"Ġ45":10136,"Ġ46":10137,"dÃ¡rayÃ¡":10138,"ĠÃ¬bÃ¡wÃŃ":10139,"Ġlaringotraki":10140,"Ġfore":10141,"Ġfodio":10142,"nese":10143,"ĠÃ¬wÃłÃ¡sÃ¹":10144,"Ġgbigbo":10145,"Ġgbigbá»įn":10146,"Ġ51":10147,"Ġ54":10148,"Ġ56":10149,"Ġ58":10150,"Ġ59":10151,"Ġ500":10152,"Ġyanju":10153,"ĠyanrÃ¬n":10154,"Ġyanturu":10155,"ĠgÃŃgÃºn":10156,"ĠSegun":10157,"mann":10158,"ĠdarapÃ²":10159,"ĠRepublic":10160,"ĠtannÃ¡":10161,"ĠÃłÃ¡rin":10162,"kÃ¬tÃ¬pupa":10163,"Ġ95":10164,"Ġ97":10165,"ĠIsle":10166,"ĠBois":10167,"ĠBolÃŃvar":10168,"ronÃº":10169,"ronunciation":10170,"ĠÃłfiwÃ©":10171,"ĠAnd":10172,"ĠAnge":10173,"Ġ101":10174,"ĠLÃ¡tÃ¬n":10175,"ĠLÃ¡mÃºrÃºdu":10176,"mÃ©nÃŃÃł":10177,"ĠSao":10178,"ologun":10179,"olohun":10180,"oloji":10181,"Ġdoju":10182,"Ġodomo":10183,"Ġododun":10184,"Ġodoodun":10185,"ĠibÃ¹sá»į":10186,"ĠmÃ©jÃ¨Ã¨":10187,"ĠmÃ©jÃ¨ejÃ¬":10188,"ĠmÃ©jÃ¨Ã©ji":10189,"ĠbÃ²kun":10190,"Ġranse":10191,"hinde":10192,"mÃłle":10193,"Ġabori":10194,"Ġaboki":10195,"ĠnÃŃbitÃŃ":10196,"Ġ1916":10197,"ĠÃºnsÃ¡":10198,"ĠimojÃ¬":10199,"ĠÃ¬bÃŃláº¹":10200,"loworo":10201,"ĠLado":10202,"ĠLawal":10203,"gers":10204,"gerboy":10205,"Ġonmo":10206,"Ġaseyo":10207,"Ġaseoro":10208,"Ġinf":10209,"ĠkÃ¹tÃ¹":10210,"Ġyooba":10211,"Ġyooku":10212,"ĠOrileominira":10213,"ĠBengal":10214,"ĠMid":10215,"ĠMichel":10216,"ĠfaramÃ³":10217,"ĠfarahÃłn":10218,"ĠsunwÃ²":10219,"Ġitanran":10220,"ĠÃ¬gbÃ©yÃłwÃ³":10221,"ĠJoe":10222,"hÃ¡mÃł":10223,"Ġiwasi":10224,"Ġjija":10225,"Ġjijin":10226,"Ġjijá»įwá»į":10227,"Ġaiba":10228,"Ġadari":10229,"ĠadarÃŃ":10230,"Ġadagun":10231,"Ġadabaye":10232,"ĠRome":10233,"ĠRousse":10234,"ĠRoboto":10235,"ĠRobinson":10236,"Ġasoyipo":10237,"ĠlÃŃlo":10238,"ĠÃ¬dÃ¡lÃ¨":10239,"ĠÃ¬dÃ¡jÃ³":10240,"ĠÃ¬dÃ¡dÃºrÃ³":10241,"ĠdÃ¬Ã¨":10242,"Leyi":10243,"Lehin":10244,"Mari":10245,"Majid":10246,"Ġ127":10247,"ĠrÃ¡ná¹£áº¹":10248,"ĠJagin":10249,"ĠnÃ¡wÃ³":10250,"Ġifesi":10251,"ĠÃłÃ¬gbÃł":10252,"ĠÃłÃ¬má»į":10253,"ĠÃłÃ¬yedÃ¨":10254,"ĠÃłwÃ²rÃ²":10255,"tics":10256,"tical":10257,"ĠFranco":10258,"ĠUnifasiti":10259,"ĠUnicode":10260,"Joan":10261,"Jowo":10262,"ette":10263,"mÃ¡Ã¬kÃ¬":10264,"mÃ¡wÃ²rÃ¡n":10265,"Ġ70":10266,"Ġ71":10267,"ĠgbÃ¡mÃº":10268,"ĠNevis":10269,"ĠNepal":10270,"Ġáº¹nikáº¹":10271,"ĠkÃłÃł":10272,"ĠkÃłwÃ©":10273,"ĠGeology":10274,"ĠCay":10275,"ĠlÃ¡ÃłÃ¡nÃº":10276,"yÃ²dÃ©":10277,"Ġkáº¹rin":10278,"rillic":10279,"rilliki":10280,"ĠÃ¨rÃ²ngbÃł":10281,"ĠtÃ²nÃŃ":10282,"ĠÃ¨Ã¨wÃ²":10283,"ĠÃ¨Ã¨rÃ¹n":10284,"ÃŃstÃ¬":10285,"ĠChina":10286,"ĠChristoph":10287,"ĠPala":10288,"ĠPaul":10289,"Ġmetali":10290,"dence":10291,"dental":10292,"ĠArts":10293,"ĠArmy":10294,"ĠArÃ¡ÃłlÃº":10295,"ĠArmÃ©nÃŃÃł":10296,"Ġparamita":10297,"ĠGui":10298,"ĠTaino":10299,"ĠPoli":10300,"OrÃŃsÃ¬ÃŃrÃŃsÃ¬ÃŃ":10301,"element":10302,"form":10303,"páº¹ráº¹":10304,"ĠjÃ³nÃ¡":10305,"ĠLib":10306,"ĠLimited":10307,"yÃ¬i":10308,"Ã¬yÃłnjÃº":10309,"ĠArabiki":10310,"ĠAramaic":10311,"Ġonimoye":10312,"1996":10313,"Sulfuru":10314,"ptera":10315,"Ġ03":10316,"Ġ05":10317,"Ġlule":10318,"Ġeee":10319,"ĠAustrÃ¡lÃŃÃł":10320,"ĠOlusegun":10321,"ksiko":10322,"olution":10323,"Ġikopa":10324,"Yoruba":10325,"Ġookan":10326,"ĠÃ¬rÃ²nÃº":10327,"ĠpÃŃnÃº":10328,"Ġá»įgá»įrÃ¹n":10329,"ĠBÃ¡kÃłrÃ¨":10330,"ĠMesopo":10331,"ĠMeksiko":10332,"ĠmÃ¡rÃ¹ndÃŃnlÃ³":10333,"Omode":10334,"OlÃ³de":10335,"OlÃ³yÃ¨":10336,"pertext":10337,"ĠMuir":10338,"ĠDada":10339,"ĠDayo":10340,"ĠDavis":10341,"Ġ1882":10342,"Ġ1885":10343,"Ġ1886":10344,"Ġ1889":10345,"ssical":10346,"ĠakÃ©kÃ²Ã³":10347,"ĠÃłtÃºnse":10348,"ĠÃ¬dÃłkejÃ¬":10349,"Ġyáº¹n":10350,"ultural":10351,"ĠBank":10352,"ĠKokanla":10353,"sting":10354,"anoso":10355,"ĠÃ¬gbÃ¬":10356,"ĠÃ¬gbÃ¬yÃłnjÃº":10357,"Ġkerejulo":10358,"ĠRika":10359,"Ġ1892":10360,"Ġ1893":10361,"Ġ1894":10362,"Lawrence":10363,"wÃ¨Ã©":10364,"Ġitemo":10365,"Ġijidide":10366,"Ġijiroro":10367,"Ġisowo":10368,"á¹¢iá¹£ayáº¹wo":10369,"LÃ³de":10370,"Ġipinpa":10371,"Ġipinya":10372,"Ġmarundinlogun":10373,"olaju":10374,"sÃ¡ra":10375,"Ġimuse":10376,"ĠTig":10377,"1980":10378,"1989":10379,"adanida":10380,"ĠoÃºnjáº¹":10381,"ĠgbÃ²rÃ²":10382,"ĠApaguusu":10383,"ĠApaariwa":10384,"ĠSuku":10385,"ĠKiristi":10386,"Nitorie":10387,"ĠenÃ¬yÃłn":10388,"ĠtÃ¡lÃ¡":10389,"Ġtheir":10390,"Ġijamba":10391,"ĠÃłmÃºye":10392,"ĠbÃºra":10393,"Ġprotoni":10394,"Ġdupe":10395,"ĠgbÃŃgbÃł":10396,"ĠgbÃŃgbÃ³nÃ¡":10397,"ĠgbÃ¨rÃ²":10398,"ĠgbÃ¨yÃ¬n":10399,"ĠgbÃ¨jÃł":10400,"Ġesinsin":10401,"ĠBud":10402,"ĠSanni":10403,"Aworan":10404,"Lori":10405,"gÃłjÃŃ":10406,"hÃºnrÃ¬nwÃ¡":10407,"Ì£Ìģ":10408,"Ġaá¹£Ã¡Ã¡jÃº":10409,"Ġaá¹£odi":10410,"Ġaá¹£Ã¨bÃ©Ã¨rÃ¨":10411,"Ġfá»įlÃ¡á¹£adÃ©":10412,"Ġdundun":10413,"Ġejowo":10414,"ĠStra":10415,"lican":10416,"licin":10417,"ĠWeimar":10418,"kÃŃkanjÃº":10419,"Anna":10420,"Anne":10421,"zed":10422,"zia":10423,"entle":10424,"Ġiá¹£a":10425,"Ġeyokan":10426,"Ġ1905":10427,"Ġ1908":10428,"ĠGio":10429,"ĠGiriki":10430,"Ġorisii":10431,"ĠTheodo":10432,"ĠTheSly":10433,"Ġ1871":10434,"ĠNewton":10435,"ĠNewspa":10436,"ĠalÃ¡Ãł":10437,"Ġalpha":10438,"Ġalkali":10439,"Ġaljebra":10440,"Ġamohunma":10441,"Ġikeko":10442,"Ġikefa":10443,"ĠÃłbÃ¹rÃ²":10444,"tinni":10445,"tintinni":10446,"ĠOlÃ¹gbÃ©":10447,"ĠBÃŃÃ²bÃ¡":10448,"ĠLondonu":10449,"thern":10450,"ĠdÃŃdÃ¡má»į":10451,"rench":10452,"Ġnsele":10453,"Ġadulawo":10454,"Ġayori":10455,"pilÃ¨sÃ¨":10456,"Babalawo":10457,"167":10458,"uten":10459,"utch":10460,"utron":10461,"Ç¹kÃłn":10462,"Ġamunis":10463,"ĠsÃłrÃ³":10464,"Ġitusile":10465,"Ġitujade":10466,"Ġibáº¹ráº¹":10467,"ĠÃłdÃ¡bÃ¡":10468,"ĠÃłdÃ¡mÃ²":10469,"ĠÃ¬yÃłwo":10470,"ĠÃ¬yÃłlÃ©":10471,"ĠAdrian":10472,"ĠIfÃ³n":10473,"ĠHei":10474,"ĠHepatitis":10475,"ĠHeberu":10476,"ĠtÃ¨tÃ¨dÃ©":10477,"ores":10478,"Ġadodi":10479,"Ġtinrin":10480,"ĠIwosan":10481,"ĠBiya":10482,"ĠpapÃ²dÃł":10483,"Ġgegebii":10484,"esters":10485,"Inter":10486,"Infact":10487,"Oluko":10488,"Samuel":10489,"Samogo":10490,"ikipedia":10491,"stantine":10492,"Ġogoji":10493,"Ġaroko":10494,"ĠakÃŃkanju":10495,"Ġiyipo":10496,"ĠÃ¬somÃ³":10497,"Ġgeere":10498,"ĠCole":10499,"ĠCounty":10500,"tholic":10501,"thority":10502,"ĠVictoria":10503,"ĠLÃ¡rÃºbÃ¡Ã¡wÃ¡":10504,"Jack":10505,"James":10506,"ĠÃłlÃłfo":10507,"ĠÃ¬rÃłnlá»į":10508,"ĠfÃ¡wÃ©":10509,"ĠAtta":10510,"ĠShehu":10511,"ĠSheik":10512,"1975":10513,"1978":10514,"1979":10515,"ĠmÃŃlÃŃÃ²nÃ¹":10516,"guay":10517,"Ġpipejulo":10518,"Mike":10519,"Michael":10520,"OlÃºbÃ¡kin":10521,"kleu":10522,"ĠsÃºre":10523,"ĠdÃŃnkÃ¹":10524,"ÃĢkÃ³jo":10525,"Ġleekan":10526,"Ġagbalaaye":10527,"Ġolugbewo":10528,"GBÃĵ":10529,"lines":10530,"ĠQuin":10531,"enturi":10532,"Ġidopin":10533,"Ġirojinle":10534,"ĠÃłseyo":10535,"ĠÃ¬fowo":10536,"ĠÃ¬fowÃ³pamÃ³":10537,"ĠyÃ¬Ã³":10538,"ĠfÃºnraráº¹":10539,"Ġisáº¹láº¹":10540,"ĠChile":10541,"Ġkemistri":10542,"APIS":10543,"Charles":10544,"UNO":10545,"UNESCO":10546,"synth":10547,"Ġvol":10548,"ĠajemÃ³":10549,"Ġajemonu":10550,"sert":10551,"ÃĴkÃ¨nÃŃsÃł":10552,"ĠFÃ¡wo":10553,"ĠFÃ¡wá»įlÃ©":10554,"ĠRain":10555,"ĠRaba":10556,"Ġoludari":10557,"Ġoludajoba":10558,"Ġoludasile":10559,"129":10560,"OnÃŃs":10561,"lÃ¡ÃłyÃ¨":10562,"Ġoruka":10563,"Ġigbin":10564,"ĠÃłdÃłlÃº":10565,"ĠÃ¬á¹£edá»į":10566,"ĠÃ¬wÃºrÃŃ":10567,"ĠAmÃ©rÃŃkÃł":10568,"ĠÃ¨Ã©mÃŃ":10569,"ĠÃ¨Ã©kÃ¡nnÃ¡":10570,"ĠÃ²jÃ²wÃº":10571,"Ġsedasile":10572,"ĠEleduwa":10573,"ĠKant":10574,"ĠGriisi":10575,"ĠGrimes":10576,"ĠRÃ³sÃŃÃł":10577,"Ġcompo":10578,"Ġcommuni":10579,"Ġ-----------<|":10580,"ĠXV":10581,"Ġarrest":10582,"Ġifoloke":10583,"ĠÃ¬pÃ¨sÃ¨":10584,"ĠÃ²gbÃºfÃ²":10585,"onÃŃtÃłn":10586,"ĠIparapo":10587,"gberingberin":10588,"ĠTurner":10589,"ĠTrinity":10590,"ĠConcer":10591,"ĠProvince":10592,"mÃºnÃŃstÃ¬":10593,"ÃļN":10594,"à¤¾":10595,"Ġná¹£iá¹£e":10596,"Ġafoju":10597,"Ġmonths":10598,"ĠjinlÃ¨":10599,"ĠKudi":10600,"ĠKÃ¡tÃ³lÃ¬":10601,"ĠLÃ©jÃ²fi":10602,"ĠPeninsula":10603,"ĠPentagonu":10604,"Ġ1791":10605,"ĠNÃłÃŃjÃŃrÃŃÃł":10606,"Napoleon":10607,"tres":10608,"wanda":10609,"Ġadehun":10610,"Ġajodun":10611,"Ġnitoto":10612,"ĠÃłsoye":10613,"Ġgbongbo":10614,"Ġgbongan":10615,"ĠOjogbon":10616,"ĠSpace":10617,"ĠShagari":10618,"Ġisinmi":10619,"Ġisinku":10620,"ĠPride":10621,"ĠonÃŃgbÃłgbá»į":10622,"ĠUSD":10623,"America":10624,"American":10625,"David":10626,"cyclo":10627,"eÃ©kÃł":10628,"ĠakÃ²wÃ©":10629,"Ġiwuwa":10630,"ĠÃ²wÃºrÃ²":10631,"Ġlodoodun":10632,"âĢ¦.<|":10633,"ĠBalto":10634,"wadii":10635,"Ġalakobere":10636,"cellor":10637,"helsea":10638,"LÃ¡Ã¬pÃ©":10639,"hilip":10640,"Jane":10641,"itarist":10642,"ksÃŃdÃ¬":10643,"nyluv":10644,"Ġneutron":10645,"Ġifarakan":10646,"Ġkorokoro":10647,"ĠÃłrÃ²gÃºn":10648,"Ġtitapa":10649,"ĠAbeokuta":10650,"ĠOlÃ¡dÃŃ":10651,"ĠOwÃ³dÃ©":10652,"ĠgÃ¹ngÃ¹n":10653,"ĠSÃłrÃ³":10654,"ĠSÃłlÃ³rÃ²":10655,"ĠMoroko":10656,"ĠÃĴndÃ³":10657,"ĠEnikan":10658,"Ġmilionu":10659,"Ġoriá¹£irisi":10660,"ĠTunde":10661,"ĠChadic":10662,"ĠFilipini":10663,"ĠFoundation":10664,"ĠPÃ³pÃ³o":10665,"Ġunsele":10666,"Ġalagbarameji":10667,"ĠMalawi":10668,"stronomer":10669,"Ġgigunjulo":10670,"Edwin":10671,"Laipe":10672,"nando":10673,"priset":10674,"ĠÐľ":10675,"Ġajaese":10676,"Ã¬dÃ¡má»į":10677,"ĠÃ¬fÃ²rÃ²":10678,"ĠAbacha":10679,"ĠOkon":10680,"ĠOdÃ¹duÃł":10681,"Ġfisiksi":10682,"Ġgaari":10683,"Ġgaara":10684,"ĠNorway":10685,"ĠStephen":10686,"ĠMcC":10687,"ĠGarden":10688,"kikanju":10689,"Ġburuku":10690,"ĠArmstrong":10691,"ĠÃĴgbÃ³mÃ²sÃ³":10692,"Ġlegbegberunkeji":10693,";;;;":10694,"Afrika":10695,"Ijala":10696,"Muhammad":10697,"agbeyewo":10698,"eyiti":10699,"Ã§ois":10700,"Äģn":10701,"á¸±":10702,"Ã¡lÃ¡ksÃ¬":10703,"ĠagbÃ¡te":10704,"Ġibusun":10705,"Ġipese":10706,"Ġiká»įlu":10707,"Ġkromoso":10708,"ĠÃłlÃ¹mÃ²":10709,"ĠbÃ¹s":10710,"ĠAuthority":10711,"parte":10712,"kalitu":10713,"Ġpelebe":10714,"ĠStanley":10715,"ĠÃĴrÃ³dÃ¹dÃ¹joyÃ¨":10716,"ĠJÃ¡mÃ¡nÃ¬":10717,"ĠTÃ³gÃ²":10718,"ĠCenter":10719,"ĠCentiuri":10720,"ĠChancellor":10721,"ĠFulani":10722,"ĠHollandi":10723,"Ġonisona":10724,"Ġoniseero":10725,"LÃ¡kÃ²Ã³kÃ³":10726,"ssssssss":10727,"ĠZuma":10728,"iiiiiiii":10729,"Ġproteini":10730,"ĠproteÃŃnÃ¬":10731,"daniloju":10732,"Ġimmunob":10733,"ARA":10734,"Abdul":10735,"Classical":10736,"Donald":10737,"mphony":10738,"oÃ²run":10739,"www":10740,"Î±Î":10741,"Ð¾Ð²":10742,"ĠogÃ³je":10743,"Ġlanguage":10744,"ĠkÃŃnnÃŃ":10745,"ĠÃłyÃŃkÃ¡":10746,"ĠÃłkÃ¡mÃ³":10747,"ĠÃ¬jÃŃmÃ¨rÃ¨":10748,"ĠÃ¬lá»įsÃŃwÃ¡jÃº":10749,"Ġfaaji":10750,"ĠAmobaba":10751,"ĠAdÃºlÃ¡wÃ²":10752,"ĠIrelandi":10753,"Ġbiggerboy":10754,"ĠÃĮkÃ¡lÃ¨":10755,"ĠSÃ²Ãºn":10756,"ÃĮlÃ©dÃ¨":10757,"ĠLaiberia":10758,"ÃĴpÃ²lopÃ²":10759,"ĠHelena":10760,"ĠalÃ¡bÃłÃ¡pÃłdÃ©":10761,"Nitorina":10762,"ĠWoyo":10763,"Ġgbesele":10764,"ĠlÃłÃłmi":10765,"ĠMussolini":10766,"Ahmed":10767,"Bantu":10768,"General":10769,"JÃ²hÃ¡nÃ¹":10770,"New":10771,"Victor":10772,"lenukleu":10773,"scow":10774,"trÃ³jÃ¬n":10775,"yaafin":10776,"yneguy":10777,"Î½Î":10778,"ĠtÃ²Ã³tá»į":10779,"Ġowun":10780,"ĠorÃ³ke":10781,"Ġaporo":10782,"gbÃŃgbÃ³":10783,"Ġsyndrome":10784,"Ġstrep":10785,"ĠkÃ¹nÃł":10786,"ĠÃłkÃłrÃł":10787,"ĠÃ¬bÃłnÃº":10788,"ĠerÃ¹pÃ¨":10789,"ĠAmpÃ¨re":10790,"ĠAguiyi":10791,"ĠAbrahamu":10792,"ĠÃ²tÃ²sÃ¬":10793,"ĠIragbeje":10794,"lÃ¡dÃłpÃ²":10795,"ĠÃĮjÃ¬nlÃ¨":10796,"ĠMinister":10797,"ĠElÃ©tÃ²":10798,"ĠEkule":10799,"ĠYobe":10800,"ĠYunus":10801,"ĠJÃ©Ã©sÃ¹":10802,"ĠTaiwan":10803,"ĠCruz":10804,"kÃ¨Ã¨kÃ©Ã©":10805,"ĠPanyan":10806,"ĠHerbert":10807,"ĠHouse":10808,"ĠRÃŃsÃł":10809,"ĠwÃŃwÃ¡rÃŃ":10810,"ĠWilhelm":10811,"Ġalaafia":10812,"Ġaladawa":10813,"Ġoniruru":10814,"ĠpÃłtÃłki":10815,"fowoda":10816,"Ġjakejado":10817,"gÃŃdÃŃjÃłgan":10818,"ĠAlbania":10819,"ĠJohannesburg":10820,"dinlogoji":10821,"ĠStreet":10822,"ĠBroadca":10823,"Ġkarboni":10824,"ĠTurkic":10825,"Ġifarakora":10826,"BÃłyÃ¬ÃŃ":10827,"FÃŃÃ¬mÃ¹":10828,"Karl":10829,"London":10830,"Louis":10831,"RÃ²gbÃ²dÃ¬yÃłn":10832,"Shirley":10833,"Wiwu":10834,"gÃ¨dÃ¨n":10835,"lvania":10836,"okomooka":10837,"ywhy":10838,"Î¿ÏĤ":10839,"á½¸":10840,"Ġoyibo":10841,"Ġayáº¹yáº¹":10842,"ĠamÃ¡yÃ©de":10843,"Ã¬sopá»į":10844,"ĠÃłdÃ¹gbÃ²":10845,"ĠÃ¬jÃ¬yÃł":10846,"ĠÃ¬yanu":10847,"ĠÃ¬jÃ¨sÃł":10848,"ĠÃ¬dÃ¹nnÃº":10849,"ĠegbÃ²gi":10850,"ĠApÃ¨bÃŃ":10851,"ĠAristotle":10852,"ĠOhÃºmo":10853,"Ġtogunjulo":10854,"ÃĢpÃ¨jÃ¡":10855,"ercedes":10856,"ĠNyeri":10857,"ĠBorno":10858,"ĠBillboard":10859,"ĠSÃŃrÃŃÃł":10860,"ĠSarah":10861,"Ġbawoni":10862,"ĠEbira":10863,"ĠKÃłbbÃł":10864,"ĠKomunisti":10865,"ÃĮrÃ¨lÃ¨":10866,"ĠorÃŃsiirÃŃsi":10867,"ĠCyrillic":10868,"ĠCentral":10869,"ĠÃĢrÃ¡pa":10870,"ĠFÃºlÃłnÃŃ":10871,"Ġhalte":10872,"ĠRÃ³Ã²mÃ¹":10873,"ĠRooseve":10874,"ĠRoss":10875,"ĠalÃ¡gbÃ¡dÃ¡":10876,"ĠalÃ¡dÃ¹ÃºgbÃ²":10877,"ĠÃ¡lÃºfÃ¡bÃ©":10878,"ĠWÃłdÃ¡Ã¬":10879,"ĠonÃŃá¹£eáº¹":10880,"ĠjÃ¡kÃ¨jÃ¡dÃ²":10881,"ĠsalÃ¡mÃ²":10882,"Ġmejidinla":10883,"ĠAntonio":10884,"ĠlÃŃtÃŃrÃ©sÃ²":10885,"ĠÃ¬dÃ¡nilÃ©kÃ²Ã³":10886,"ĠÃģrÃ¡mÃ¡Ã¬kÃ¬":10887,"ĠSociety":10888,"ĠBangladesh":10889,"ĠKomoro":10890,"Ġalujonnu":10891,"ĠKÃ¡bÃŃÃ¨sÃŃ":10892,"ĠmÃ¹tÃºmÃ¹wÃł":10893,"Ð¸ÑĽ":10894,"ĠNÃ¡ÃŃjÃŃrÃŃÃł":10895,"ĠÃĴgbÃ²rÃ²gÃ¡n":10896,"ĠÃĢtÃ¬lÃ¡ÅĦtÃŃÃ¬kÃ¬":10897,"Atomu":10898,"Dogon":10899,"GÃŃrÃ¡mÃł":10900,"Zosso":10901,"hoog":10902,"oassay":10903,"rnest":10904,"urism":10905,"ĠnlÃ¡nlÃ¡":10906,"Ã©sinkin":10907,"ĠominÃº":10908,"Ġajumolo":10909,"ÃºÅĦjáº¹":10910,"Ġstill":10911,"Ġnigbogbo":10912,"Ġnimá»įran":10913,"ĠÃłdÃºgbÃ³":10914,"ĠÃłpÃłlÃł":10915,"ĠÃłtáº¹nudáº¹":10916,"ĠbÃ¬nrin":10917,"ĠÃ¬rÃŃjÃº":10918,"ĠÃ¬yisÃ³dÃ¬":10919,"Ġfosforu":10920,"ĠfaransÃ©":10921,"ĠgbÃ¡ngba":10922,"Ġeyonomba":10923,"Ġemperor":10924,"ĠAmÃ²ye":10925,"ĠAdÃ¬kÃºta":10926,"ĠAzikiwe":10927,"ĠAnambra":10928,"ĠOgbomosho":10929,"ĠOlympiki":10930,"ĠÃ¨gÃºsÃŃ":10931,"ĠÃ²gidÃ¬":10932,"ĠItura":10933,"ĠIjokopapo":10934,"lÃ©gÃ¹nÃºn":10935,"ĠtÃ³jÃ¹u":10936,"Ġgranuli":10937,"Ġgedegbe":10938,"ĠNamibia":10939,"ĠBonaparte":10940,"ĠSunday":10941,"Ġdiddasile":10942,"ĠÃĴgÃ¬rÃ¬Ã¬yÃłndÃ¡":10943,"Ġbasofili":10944,"ĠEthiopia":10945,"ĠErnst":10946,"ĠKolumbia":10947,"ĠKongresi":10948,"ĠGanglani":10949,"ĠGlasgow":10950,"ĠTraining":10951,"ĠLÃģK":10952,"ĠLincoln":10953,"ĠFombina":10954,"ĠFlorida":10955,"gorithm":10956,"ĠHussein":10957,"ĠRaleigh":10958,"ĠalÃ¡sÃŃnpÃ²":10959,"já»įlunipa":10960,"thwaite":10961,"ĠWesley":10962,"Ġribavirin":10963,"ĠAfghanistan":10964,"ĠNollywood":10965,"ĠBassey":10966,"Ġjagidijagan":10967,"ĠÃºnsÃ¡bÃł":10968,"ĠRousseau":10969,"ĠJaginrÃ¬n":10970,"Ġaá¹£odikokoro":10971,"Ġamohunmaworan":10972,"ĠBÃŃÃ²bÃ¡kÃº":10973,"ĠSheikh":10974,"ĠKÃ¡tÃ³lÃ¬kÃ¬":10975,"Ġkromosomu":10976,"Ġimmunoblot":10977,"Ð¾Ð²Ð¸ÑĽ":10978,"ĠÃ¬bÃłnÃºjÃ©":10979,"ĠRoosevelt":10980,"%).<|":10981,"',":10982,"'m":10983,"))":10984,").":10985,"++":10986,",\"":10987,",..<|":10988,"03":10989,"09":10990,"2000":10991,"240":10992,"35":10993,"44":10994,"51":10995,"86":10996,"88":10997,"91":10998,"95":10999,"900":11000,"963":11001,"?âĢĿ<|":11002,"Am":11003,"Ari":11004,"Alo":11005,"Ase":11006,"AgbÃł":11007,"Alu":11008,"AbÃ¡":11009,"Aso":11010,"AkÃ²":11011,"Abe":11012,"Abo":11013,"ArÃ³":11014,"AmÃ²":11015,"AtÃ³":11016,"AgbÃ¡":11017,"Abu":11018,"AjÃ¨":11019,"Awá»į":11020,"AfÃł":11021,"Aaye":11022,"AmÃ©":11023,"Aarin":11024,"All":11025,"Amin":11026,"Akoko":11027,"Aiye":11028,"AtÃºmÃ²":11029,"Akiyesi":11030,"Apere":11031,"AÃ©rÃ©":11032,"Assy":11033,"BA":11034,"BÃ¬":11035,"Bri":11036,"Bus":11037,"Bere":11038,"Bang":11039,"BÃģ":11040,"Benue":11041,"Bruce":11042,"Belle":11043,"BÃºkan":11044,"CM":11045,"CN":11046,"Cor":11047,"Cuba":11048,"Chan":11049,"Cos":11050,"Colo":11051,"Cong":11052,"Cee":11053,"Cast":11054,"DA":11055,"DU":11056,"Dan":11057,"Dani":11058,"Des":11059,"Dama":11060,"Det":11061,"Dad":11062,"EC":11063,"EL":11064,"ER":11065,"EW":11066,"Em":11067,"Elo":11068,"ElÃ¨":11069,"Ebi":11070,"EyÃŃ":11071,"Eji":11072,"Eso":11073,"EnÃŃ":11074,"Eru":11075,"Efi":11076,"EgbÃ©":11077,"Ema":11078,"Ebun":11079,"Efun":11080,"ErÃ¹":11081,"Equ":11082,"Egy":11083,"Ekeji":11084,"EÃ©gÃºn":11085,"ErÃ©kÃ¹":11086,"Emmanuel":11087,"Ehen":11088,"Evon":11089,"EÃ©sinkin":11090,"FD":11091,"Fan":11092,"Flo":11093,"Foni":11094,"Faye":11095,"FBS":11096,"FFC":11097,"Frien":11098,"Federer":11099,"Ga":11100,"Gbi":11101,"GbÃł":11102,"GbÃ²":11103,"Gol":11104,"GÃºsÃ¹":11105,"German":11106,"Glen":11107,"Gree":11108,"Gab":11109,"Gram":11110,"Grade":11111,"GIO":11112,"GÃļN":11113,"HT":11114,"Ho":11115,"Han":11116,"Hor":11117,"HCV":11118,"HUN":11119,"Hima":11120,"IB":11121,"IM":11122,"Ire":11123,"Ito":11124,"Iran":11125,"IrÃ¨":11126,"Ibu":11127,"Ifa":11128,"Iyo":11129,"Ioni":11130,"IyÃ¡":11131,"Iha":11132,"Iá¹£e":11133,"IwÃ¡jÃº":11134,"InÃ¡":11135,"IfÃ©":11136,"ItÃºn":11137,"Iyen":11138,"IyÃ¡n":11139,"Iroyin":11140,"Itobi":11141,"Ijá»įba":11142,"Iva":11143,"Ibra":11144,"Itá»įju":11145,"Isis":11146,"IfÃ³":11147,"Iwadi":11148,"IgE":11149,"IbÃ¹dÃ³":11150,"IHE":11151,"Imoran":11152,"Iráº¹landi":11153,"IKI":11154,"Iyaafin":11155,"JE":11156,"Ji":11157,"JÃŃ":11158,"JÃł":11159,"Jáº¸":11160,"Jes":11161,"JÃºpÃŃtÃ©rÃ¬":11162,"Jamai":11163,"Jonathan":11164,"KE":11165,"KW":11166,"Kan":11167,"KÃ¡Ãł":11168,"KÃĵ":11169,"Kur":11170,"Kaye":11171,"Kim":11172,"KÃ¬kÃ¬":11173,"Kolombia":11174,"Khmer":11175,"Kant":11176,"LU":11177,"LÃ¨":11178,"Laa":11179,"Lojo":11180,"Laye":11181,"Larin":11182,"Lami":11183,"LÃļ":11184,"LÃ²de":11185,"Máº¹":11186,"MÃ¡a":11187,"Mas":11188,"Mir":11189,"Mid":11190,"MÃłlÃ¡":11191,"MPE":11192,"Maapu":11193,"Monica":11194,"Mercedes":11195,"NÃł":11196,"Náº¹":11197,"Ndu":11198,"Nomba":11199,"Nnam":11200,"Nelson":11201,"Nneka":11202,"Nnaji":11203,"NTV":11204,"OC":11205,"OO":11206,"Os":11207,"Odo":11208,"Ogb":11209,"Ose":11210,"Ola":11211,"Oni":11212,"OlÃ¡":11213,"Ogbo":11214,"Oki":11215,"Oya":11216,"Oyo":11217,"OgÃºn":11218,"Ogbon":11219,"Otun":11220,"OrÃ¬s":11221,"Osun":11222,"Oore":11223,"Osise":11224,"Ogagun":11225,"Okowo":11226,"OAO":11227,"PC":11228,"PÃ©":11229,"Páº¹":11230,"Par":11231,"Para":11232,"Pupo":11233,"Poto":11234,"Portu":11235,"PDP":11236,"PRC":11237,"Philip":11238,"Ras":11239,"Rys":11240,"Ruth":11241,"RÃ¡rÃ¡":11242,"ST":11243,"SÃ¡":11244,"SÃł":11245,"SÃ¨":11246,"Ser":11247,"Stan":11248,"Sam":11249,"Sal":11250,"Sere":11251,"Suni":11252,"Sak":11253,"Sim":11254,"SÃłngÃ³":11255,"SOL":11256,"Sistemu":11257,"SÃłlÃ¡":11258,"Stock":11259,"Te":11260,"Th":11261,"Tun":11262,"Toni":11263,"Tani":11264,"Tano":11265,"Tabi":11266,"UA":11267,"Ubangi":11268,"USA":11269,"UDA":11270,"Van":11271,"Volu":11272,"Venus":11273,"We":11274,"Wen":11275,"Wan":11276,"WÃĢ":11277,"WAS":11278,"Wikipedia":11279,"WNTV":11280,"YO":11281,"YÃŃ":11282,"Yan":11283,"ako":11284,"aba":11285,"ase":11286,"awa":11287,"atu":11288,"apÃ¡":11289,"afin":11290,"akÃŃ":11291,"ajÃ©":11292,"atáº¹":11293,"asia":11294,"akoko":11295,"adÃ¡a":11296,"awari":11297,"acon":11298,"atannÃ¡":11299,"ahia":11300,"asiko":11301,"aduma":11302,"awy":11303,"ayÃ¡ra":11304,"bá»įn":11305,"bro":11306,"bus":11307,"bwe":11308,"brÃł":11309,"boro":11310,"bha":11311,"bana":11312,"bene":11313,"bral":11314,"bonu":11315,"blish":11316,"bÃ³Ã²lÃ¹":11317,"block":11318,"cc":11319,"cl":11320,"cen":11321,"cti":11322,"cki":11323,"cke":11324,"cca":11325,"cron":11326,"cts":11327,"cation":11328,"canic":11329,"dg":11330,"dÃ¬n":11331,"dha":11332,"dly":11333,"dana":11334,"dhi":11335,"dina":11336,"dral":11337,"dusa":11338,"dberg":11339,"ei":11340,"eu":11341,"ex":11342,"ey":11343,"ebi":11344,"emo":11345,"erin":11346,"eya":11347,"ekun":11348,"ema":11349,"ega":11350,"ekÃ¹n":11351,"egbon":11352,"emin":11353,"ekÃ³kÃ³":11354,"efÃŃnnÃŃ":11355,"eCee":11356,"fy":11357,"fka":11358,"ffa":11359,"fsa":11360,"foo":11361,"fford":11362,"fonia":11363,"fried":11364,"gs":11365,"gus":11366,"goni":11367,"goro":11368,"gana":11369,"gÃ¨rÃ¨":11370,"gne":11371,"gry":11372,"gÃºÃºsÃ¹":11373,"gist":11374,"gram":11375,"ggae":11376,"hh":11377,"ht":11378,"hÃ¹":11379,"his":11380,"hlah":11381,"hnese":11382,"ido":11383,"iwon":11384,"irin":11385,"ier":11386,"ipo":11387,"ifi":11388,"ich":11389,"ife":11390,"idáº¹":11391,"itÃºn":11392,"ipele":11393,"igbona":11394,"ifowo":11395,"ikeyin":11396,"ithwaite":11397,"jÃłn":11398,"jaa":11399,"jana":11400,"kh":11401,"kko":11402,"kro":11403,"kta":11404,"kpo":11405,"kpe":11406,"kus":11407,"kongo":11408,"kÃ¶":11409,"kÄģn":11410,"lm":11411,"lun":11412,"lon":11413,"lla":11414,"ljáº¹":11415,"lmÃº":11416,"lene":11417,"lton":11418,"lbaye":11419,"lhÃłÃ¡":11420,"ml":11421,"mp":11422,"má»įn":11423,"mne":11424,"mbá»į":11425,"mund":11426,"munadoko":11427,"maapu":11428,"nd":11429,"nrin":11430,"nÃ¹n":11431,"nkan":11432,"nda":11433,"nhun":11434,"njÃº":11435,"nar":11436,"nbo":11437,"nya":11438,"nma":11439,"ndÃł":11440,"ntá»į":11441,"nnÃ¡":11442,"nel":11443,"ntáº¹":11444,"nsÃ¡":11445,"nfÃ¨rÃŃ":11446,"oun":11447,"olÃº":11448,"ope":11449,"otÃ³":11450,"opin":11451,"ofa":11452,"ofin":11453,"osa":11454,"osu":11455,"osÃł":11456,"osÃ¹":11457,"ofurufu":11458,"oyinbo":11459,"oapa":11460,"obitu":11461,"pp":11462,"pÃ":11463,"plo":11464,"pta":11465,"peni":11466,"pho":11467,"pona":11468,"prah":11469,"president":11470,"pburn":11471,"pras":11472,"rte":11473,"rÃ¹bÃ¡":11474,"rÃ³Ã²":11475,"rgÃŃ":11476,"rsirÃŃsi":11477,"rmÃ¡n":11478,"rbÃŃÃł":11479,"sor":11480,"sta":11481,"spo":11482,"swa":11483,"sch":11484,"sorun":11485,"squ":11486,"sfÃ³":11487,"td":11488,"tko":11489,"tÃ¹n":11490,"tÃ³Ã²":11491,"tona":11492,"tts":11493,"try":11494,"tlam":11495,"ui":11496,"uwo":11497,"ule":11498,"ure":11499,"ude":11500,"urin":11501,"ukan":11502,"ubÃ¡":11503,"umu":11504,"ukun":11505,"ubÃł":11506,"uble":11507,"uxi":11508,"uchi":11509,"uania":11510,"ukar":11511,"ures":11512,"ucli":11513,"ulation":11514,"vu":11515,"vati":11516,"vine":11517,"ving":11518,"vard":11519,"ventu":11520,"volution":11521,"wÃ¬ÃŃ":11522,"wani":11523,"xre":11524,"ym":11525,"yu":11526,"yre":11527,"yÃ¹n":11528,"yÃłtá»į":11529,"zra":11530,"zona":11531,"zler":11532,"zard":11533,"zambi":11534,"zburg":11535,"zenga":11536,"±n":11537,"±Ø":11538,"²à¸":11539,"¹n":11540,"¹ÏĤ":11541,"»Î±Î":11542,"¾Î":11543,"Âº":11544,"Ã¤":11545,"Ãª":11546,"Ã½":11547,"Ãĺ":11548,"Äį":11549,"É¾":11550,"ÉĶ":11551,"Êĥ":11552,"Îµ":11553,"Î»Î±Î":11554,"Ïĥ":11555,"ÏĦ":11556,"Ïį":11557,"Ð»":11558,"ÙĦ":11559,"Ùĩ":11560,"ÙĬ":11561,"ÛĮ":11562,"à¥":11563,"Ġ&":11564,"Ġ+":11565,"ĠQ":11566,"Ġz":11567,"Ġá»":11568,"Ġá¸":11569,"Ġques":11570,"ĠÙħ":11571,"ĠÅĥ":11572,"ĢÎ½Î":11573,"ĨÏį":11574,"ÃŃá»į":11575,"ÃŃmÃ²":11576,"ÃŃkÃł":11577,"ÃŃgbÃ²":11578,"ÃŃmÃ¹":11579,"ÃŃyÃ¡":11580,"ĠÃ§":11581,"ĠÃ±n":11582,"ĠÃ¹n":11583,"ïĢ¥)":11584,"ïĢ¥).<|":11585,"Ġnte":11586,"ĠnÃ©":11587,"Ġnon":11588,"Ġnto":11589,"Ġnro":11590,"Ġnnu":11591,"Ġngbo":11592,"ĠnkÃ³":11593,"Ġnmá»į":11594,"ĠnlÃ¹":11595,"Ġnma":11596,"Ġnpá»į":11597,"Ġntu":11598,"Ġnwá»į":11599,"Ġnani":11600,"Ġndara":11601,"ĠnpÃ¨":11602,"Ġnaijiria":11603,"Ġndin":11604,"Ġnano":11605,"Ġnreti":11606,"Ġnyara":11607,"Ġts":11608,"Ġton":11609,"ĠtÃ¬ÃŃ":11610,"Ġtto":11611,"Ġtran":11612,"ĠtÃĵ":11613,"Ġtuba":11614,"Ġtha":11615,"Ġtenu":11616,"Ġthin":11617,"Ġtham":11618,"Ġtrans":11619,"Ã¡dÃ©":11620,"Ã¡rÃ¬":11621,"Ã¡rÃł":11622,"Ã¡lÃŃ":11623,"Ã¡rÃŃn":11624,"Ã¡ÃŃnÃł":11625,"Ã¡lÃ¡s":11626,"Ã¡layÃ©":11627,"Ã¡kÃŃÃ¡":11628,"ÃłrÃŃ":11629,"Ãłjo":11630,"Ãłgbo":11631,"ÃłyÃłn":11632,"ÃłrÃ¨":11633,"Ãłpá»į":11634,"ÃłyÃł":11635,"ÃłjÃŃ":11636,"Ãłwá»į":11637,"Ãłrá»į":11638,"ÃłpÃ³":11639,"ÃłrÃ¡n":11640,"ÃłpÃł":11641,"ÃłkÃ³so":11642,"ÃłyÃŃpo":11643,"ÃłwÃ²ká»į":11644,"enzi":11645,"entation":11646,"endental":11647,"tedo":11648,"teli":11649,"tewe":11650,"teesi":11651,"teau":11652,"tello":11653,"Ã³de":11654,"Ã³ni":11655,"Ã³lÃ³":11656,"Ã³kÃ²":11657,"Ã³yÃ¨":11658,"Ã³lÃ¹":11659,"Ã³rÃ¹n":11660,"Ã³nÃ¬ÃŃ":11661,"Ã³mÃłÃ¡lÃ³":11662,"Ã³mÃŃnÃł":11663,"Ã³simi":11664,"dom":11665,"doro":11666,"doso":11667,"dogbon":11668,"domÃł":11669,"double":11670,"Ã©lÃ¡":11671,"Ã©gun":11672,"Ã©bÃ¹":11673,"Ã©rÃ¹":11674,"Ġod":11675,"Ġok":11676,"Ġote":11677,"ĠoÃ³":11678,"ĠolÃ©":11679,"Ġogbo":11680,"Ġoda":11681,"ĠokÃ³":11682,"ĠogbÃ³":11683,"ĠowÃ¡":11684,"ĠodÃŃ":11685,"ĠogÃ¹n":11686,"Ġosa":11687,"ĠopÃ³":11688,"ĠorÃ¹":11689,"Ġoil":11690,"ĠobÃ¬n":11691,"ĠofÃł":11692,"ĠorÃ¬s":11693,"Ġodin":11694,"ĠodÃ¹n":11695,"Ġone":11696,"ĠokÃºta":11697,"Ġord":11698,"Ġoyun":11699,"Ġolati":11700,"ĠobÃ²kun":11701,"Ġopon":11702,"ĠobÃŃnibÃŃ":11703,"ĠoyÃºn":11704,"Ġogiri":11705,"Ġojona":11706,"Ġomele":11707,"ĠoÃºÅĦjáº¹":11708,"Ġad":11709,"ĠalÃ³":11710,"Ġagun":11711,"ĠawÃ³":11712,"Ġaji":11713,"Ġaran":11714,"Ġaki":11715,"Ġame":11716,"Ġage":11717,"Ġadun":11718,"ĠawÃł":11719,"Ġayan":11720,"ĠabÃº":11721,"ĠatÃ²":11722,"Ġalá»į":11723,"Ġatan":11724,"ĠadÃ³":11725,"Ġalan":11726,"Ġasan":11727,"ĠamÃ³":11728,"ĠafÃ¨":11729,"ĠasÃ¨":11730,"ĠabÃ²":11731,"ĠadÃºgbÃ²":11732,"Ġaanu":11733,"ĠarÃ¡n":11734,"Ġagan":11735,"ĠawÃº":11736,"Ġall":11737,"ĠakÃŃn":11738,"Ġaden":11739,"ĠasÃŃwÃ¡jÃº":11740,"Ġafara":11741,"Ġajagun":11742,"Ġarg":11743,"Ġagbana":11744,"Ġact":11745,"Ġawáº¹":11746,"Ġakara":11747,"Ġagin":11748,"Ġactor":11749,"Ġadarapo":11750,"ĠalÃłgbÃł":11751,"Ġatanna":11752,"Ġacce":11753,"ĠarÃ²ko":11754,"Ġastronomer":11755,"Ġakikanju":11756,"gban":11757,"gbin":11758,"gbÃ¡Ãł":11759,"gboro":11760,"Ã¨rÃŃ":11761,"Ã¨re":11762,"Ã¨kan":11763,"Ã¨wÃ²":11764,"Ã¨nÃ¬yÃłn":11765,"Ãºko":11766,"ÃºlÃ¹":11767,"ÃºoyÃ¨":11768,"Ã¬kan":11769,"Ã¬bÃ¡":11770,"Ã¬kÃ²":11771,"Ã¬yÃł":11772,"Ã¬kÃ©":11773,"Ã¬rÃł":11774,"Ã¬fo":11775,"Ã¬tumÃ²":11776,"Ã¬jÃ¬n":11777,"Ã¬lÃŃsÃŃÃł":11778,"Ã¬fÃ¬wÃ©":11779,"Ġsq":11780,"Ġsen":11781,"Ġsta":11782,"ĠsÃ³Ã²":11783,"Ġsai":11784,"Ġshi":11785,"Ġsco":11786,"ĠsÃłngÃ³":11787,"Ġspor":11788,"ĠsÃłÃ¬sÃłn":11789,"Ġslovenia":11790,"Ġsenturi":11791,"Ġnijo":11792,"Ġniwá»įn":11793,"Ġnidi":11794,"Ġnina":11795,"Ġnimu":11796,"ĠniyÃ¬ÃŃ":11797,"Ġnisisi":11798,"Ġnigbeyin":11799,"Ġniyawo":11800,"Ã²s":11801,"Ã²kÃ¬":11802,"Ã²kun":11803,"Ã²tÃ³":11804,"Ã²bÃł":11805,"Ã²dÃ²":11806,"Ã²jÃ©":11807,"Ã²yÃ¬":11808,"Ã²hÃ²":11809,"Ã²mÃŃnÃŃ":11810,"Ġlbi":11811,"Ġlana":11812,"Ġlangba":11813,"ĠlÃłtÃŃ":11814,"ĠwÃ¬":11815,"Ġworo":11816,"ĠwÃ¨rÃ¨":11817,"Ġwesi":11818,"á»£":11819,"Ġii":11820,"Ġip":11821,"Ġiti":11822,"ĠilÃ¡":11823,"ĠirÃ²":11824,"Ġiga":11825,"Ġigo":11826,"ĠidÃł":11827,"Ġirá»į":11828,"Ġiráº¹":11829,"ĠirÃºn":11830,"ĠijÃ¹":11831,"ĠirÃ¬n":11832,"Ġigbáº¹":11833,"Ġiyá»į":11834,"Ġigbi":11835,"Ġitele":11836,"Ġijá»įba":11837,"ĠibÃ©Ã¨rÃ¨":11838,"ĠiwÃ¨":11839,"ĠikÃ³kÃ³":11840,"Ġihu":11841,"Ġifini":11842,"Ġidani":11843,"Ġiduro":11844,"Ġitoro":11845,"Ġibinu":11846,"ĠitÃ²sÃŃ":11847,"Ġidupe":11848,"ĠikÃ¨n":11849,"Ġidunadura":11850,"Ġirorun":11851,"á»įgun":11852,"á»įdÃºn":11853,"á»įlá»į":11854,"Ġkon":11855,"Ġker":11856,"Ġkli":11857,"Ġking":11858,"ĠkÃ¨rÃ©":11859,"ĠkorÃ²":11860,"ĠÃłi":11861,"ĠÃłt":11862,"ĠÃłw":11863,"ĠÃłgba":11864,"ĠÃłlÃ¡":11865,"ĠÃłda":11866,"ĠÃłyÃłn":11867,"ĠÃłjÃ¬":11868,"ĠÃłnÃł":11869,"ĠÃłdÃŃ":11870,"ĠÃłgbÃ²":11871,"ĠÃłyo":11872,"ĠÃłwu":11873,"ĠÃłlÃ²":11874,"ĠÃłsÃ³":11875,"ĠÃłfo":11876,"ĠÃłtá»į":11877,"ĠÃłmÃ¬n":11878,"ĠÃłfáº¹":11879,"ĠÃłkÃºn":11880,"ĠÃłyá»į":11881,"ĠÃłfÃŃ":11882,"ĠÃłgá»į":11883,"ĠÃłtÃ¹":11884,"ĠÃłhÃºn":11885,"ĠÃłfara":11886,"ĠÃłtÃºmÃ²":11887,"ĠÃłfÃ¬":11888,"ĠÃłbÃŃnibÃŃ":11889,"ĠÃłwÃ³n":11890,"ĠÃłfojÃº":11891,"ĠÃłgbÃ¬":11892,"ĠÃłtÃłrÃŃ":11893,"ĠÃłhÃ¡mÃ³":11894,"ĠÃłafin":11895,"ïĢ£).<|":11896,"ane":11897,"anÃŃ":11898,"anto":11899,"anna":11900,"anga":11901,"ance":11902,"anfani":11903,"unu":11904,"unta":11905,"unrÃłn":11906,"ĠbÃłn":11907,"Ġboro":11908,"Ġbruce":11909,"Ġbridge":11910,"tiba":11911,"tise":11912,"tier":11913,"time":11914,"tifi":11915,"titan":11916,"tifon":11917,"ĠmT":11918,"Ġmen":11919,"Ġmin":11920,"Ġmbo":11921,"Ġmus":11922,"ĠmbÃł":11923,"ĠmÃ¹sÃ¹":11924,"áº¹si":11925,"áº¹nu":11926,"wogba":11927,"woje":11928,"wolori":11929,"work":11930,"Ġtia":11931,"Ġtip":11932,"Ġtit":11933,"Ġtika":11934,"Ġtitan":11935,"Ġtiise":11936,"Ġtitobi":11937,"Ġtiraka":11938,"Ġtiá¹£u":11939,"Ġtitutu":11940,"ĠÃ¬g":11941,"ĠÃ¬w":11942,"ĠÃ¬te":11943,"ĠÃ¬bi":11944,"ĠÃ¬nÃº":11945,"ĠÃ¬lÃ³":11946,"ĠÃ¬gbo":11947,"ĠÃ¬jÃº":11948,"ĠÃ¬gbe":11949,"ĠÃ¬yÃ©":11950,"ĠÃ¬be":11951,"ĠÃ¬sÃŃ":11952,"ĠÃ¬rÃ¬":11953,"ĠÃ¬tan":11954,"ĠÃ¬wÃ¹":11955,"ĠÃ¬ha":11956,"ĠÃ¬á¹£Ãł":11957,"ĠÃ¬rÃ¹":11958,"ĠÃ¬fu":11959,"ĠÃ¬fáº¹":11960,"ĠÃ¬yen":11961,"ĠÃ¬bá»į":11962,"ĠÃ¬jÃºwe":11963,"ĠÃ¬bÃ¹dÃ³":11964,"ĠÃ¬yapa":11965,"ĠÃ¬kÃ¨n":11966,"ĠÃ¬tÃºná¹£e":11967,"ĠÃ¬hÃ¡mÃ³":11968,"ĠÃ¬mÃºni":11969,"ĠÃ¬hÃ¬nrere":11970,"ĠÃ¬mÃłle":11971,"ĠÃ¬jÃłn":11972,"rid":11973,"rip":11974,"rike":11975,"riku":11976,"rice":11977,"rifÃº":11978,"ritory":11979,"rigbÃ©rin":11980,"riges":11981,"Ġpp":11982,"Ġpen":11983,"ĠpÃłn":11984,"ĠpÃ¡Ãł":11985,"Ġpá»įn":11986,"Ġpla":11987,"ĠpÃ¡n":11988,"ĠprÃ³":11989,"Ġpanu":11990,"ĠpÄĻ":11991,"Ġpento":11992,"Ġprim":11993,"Ġphysi":11994,"ĠpanÃ¡":11995,"Ġpronunciation":11996,"Ã¹gbÃł":11997,"Ã¹jÃº":11998,"Ã¹wÃ²":11999,"Ã¹kÃ¹":12000,"Ã¹fÃ¹":12001,"Ã¹fÃº":12002,"Ã¹sÃº":12003,"Ã¹kÃ¡rÃŃá»į":12004,"ĠnÃŃs":12005,"ĠnÃŃlu":12006,"ĠnÃŃpo":12007,"ĠnÃŃbe":12008,"ĠnÃŃke":12009,"ĠnÃŃpÃ¡":12010,"ĠnÃŃfÃ¨":12011,"ĠnÃŃjÃ²":12012,"ĠnÃŃsÃł":12013,"ĠnÃŃdÃ¬ÃŃ":12014,"ĠnÃŃsin":12015,"ĠnÃŃpÃł":12016,"ĠnÃŃtor":12017,"ĠnÃŃtÃ²sÃŃ":12018,"ĠnÃŃnlÃ¡":12019,"Ġfra":12020,"Ġflo":12021,"ĠfÃ¹n":12022,"Ġfran":12023,"Ġfani":12024,"ĠfÃ¨rÃ¨":12025,"Ġforu":12026,"Ġfyneguy":12027,"ĠfÃ¹fÃº":12028,"Ġjan":12029,"ĠjÃ¡nÃł":12030,"Ġjunu":12031,"ĠtÃŃti":12032,"ĠtÃŃtÃłn":12033,"ĠtÃŃtÃ¬":12034,"ĠtÃŃtun":12035,"ĠtÃŃtÃºn":12036,"ĠtÃŃtáº¹":12037,"Ġyun":12038,"Ġyaa":12039,"ĠyÃłÃ¡":12040,"Ġyani":12041,"rate":12042,"raye":12043,"rawa":12044,"rali":12045,"raga":12046,"rapÃ¡":12047,"rapi":12048,"radan":12049,"raft":12050,"ratory":12051,"Ìģ\"":12052,"Ìģ).<|":12053,"Ìģ?<|":12054,"Ġdaran":12055,"Ġdena":12056,"Ġdyna":12057,"ĠgbÃ¬":12058,"ĠgbÃºn":12059,"ĠgbÃ¡Ãł":12060,"Ġgbgbo":12061,"Ġgbenu":12062,"rÃŃra":12063,"rÃŃláº¹":12064,"rÃŃnÃŃ":12065,"rÃŃki":12066,"rÃŃdÃŃ":12067,"rÃŃjá»į":12068,"rÃŃdÃ¬":12069,"rÃŃmÃ³Ã²gÃ¹n":12070,"ins":12071,"inta":12072,"inrÃº":12073,"ingi":12074,"infe":12075,"inho":12076,"inger":12077,"inform":12078,"ĠeÃ¨":12079,"Ġemo":12080,"ĠerÃ²":12081,"Ġeran":12082,"Ġesan":12083,"ĠepÃ³":12084,"Ġevi":12085,"Ġemar":12086,"ĠemÃ¨":12087,"Ġebon":12088,"ĠesÃº":12089,"Ġepon":12090,"Ġefon":12091,"Ġetutu":12092,"ĠekÃ¹Ãº":12093,"Ġehoro":12094,"ĠegbÃ¨rÃºn":12095,"Ġeukar":12096,"Ãºnde":12097,"Ãºnjáº¹":12098,"ÃºnlÃ©kÃ¨":12099,"leri":12100,"lede":12101,"lese":12102,"lekan":12103,"leru":12104,"lelori":12105,"least":12106,"leration":12107,"ĠAO":12108,"ĠAU":12109,"ĠAw":12110,"ĠAgb":12111,"ĠAin":12112,"ĠAlÃ¨":12113,"ĠAlu":12114,"ĠArÃ²":12115,"ĠAta":12116,"ĠAbÃ¡":12117,"ĠAdi":12118,"ĠAjÃº":12119,"ĠApe":12120,"ĠAji":12121,"ĠAnÃŃ":12122,"ĠAbo":12123,"ĠArÃ³":12124,"ĠAkun":12125,"ĠAgbÃ¡":12126,"ĠAjÃ¨":12127,"ĠAch":12128,"ĠAsa":12129,"ĠAsan":12130,"ĠAmÃ³":12131,"ĠAst":12132,"ĠAbÃ¹":12133,"ĠArÃ¹":12134,"ĠAjÃ¡":12135,"ĠAgbÃ¡ra":12136,"ĠAgbáº¹":12137,"ĠAug":12138,"ĠAami":12139,"ĠAmin":12140,"ĠAiye":12141,"ĠAÃ¡lÃ¨":12142,"ĠAward":12143,"ĠArere":12144,"ĠAsiwaju":12145,"ĠAila":12146,"ĠApere":12147,"ĠAstria":12148,"ĠAssy":12149,"ĠAdipo":12150,"ĠAÃłfin":12151,"ĠAIDS":12152,"ĠAAA":12153,"ĠAGE":12154,"ĠArÃºkÃº":12155,"ĠApÃ²mÃ¹":12156,"ĠAgbongbo":12157,"ĠÃ³un":12158,"ĠÃ³yÃ¨":12159,"ĠÃ³fi":12160,"ĠOwon":12161,"ĠOkan":12162,"ĠOsi":12163,"ĠOrÃ²":12164,"ĠOdi":12165,"ĠOnÃ¬":12166,"ĠOwÃ¡":12167,"ĠOdu":12168,"ĠOkÃ¨":12169,"ĠOfin":12170,"ĠOgbon":12171,"ĠObÃ³":12172,"ĠOselu":12173,"ĠOgidi":12174,"ĠOkowo":12175,"ĠOyinbo":12176,"ĠOstria":12177,"ĠOwalu":12178,"ĠOHUN":12179,"ĠOSOL":12180,"ĠOYO":12181,"ĠÃ¨to":12182,"ĠÃ¨bÃ¡":12183,"ĠÃ¨rÃº":12184,"ĠÃ¨gbÃ©":12185,"ĠÃ¨ká»į":12186,"ĠÃ¨tÃ³":12187,"ĠÃ¨sÃ¬":12188,"ĠÃ¨dÃł":12189,"ĠÃ¨kÃ©":12190,"ĠÃ¨rÃ¹":12191,"ĠÃ¨pÃ¨":12192,"ĠÃ¨tÃ¨":12193,"ĠÃ¨sÃ©":12194,"ĠÃ¨keji":12195,"ĠÃ¨sÃº":12196,"ĠÃ¨gÃ¨":12197,"ĠÃ¨yun":12198,"ĠÃ¨gbÃ³n":12199,"ĠÃ¨kÃŃnÃŃ":12200,"ĠÃ¨kuru":12201,"ĠÃ¨wonÃ¬dÃ¡hÃ¹n":12202,"ĠÃ²á¹£":12203,"ĠÃ²la":12204,"ĠÃ²ni":12205,"ĠÃ²di":12206,"ĠÃ²gun":12207,"ĠÃ²pe":12208,"ĠÃ²jÃ¬":12209,"ĠÃ²yÃ¨":12210,"ĠÃ²be":12211,"ĠÃ²yÃ¬n":12212,"ĠÃ²dÃł":12213,"ĠÃ²gÃ¹n":12214,"ĠÃ²tÃ¬":12215,"ĠÃ²kÃ©":12216,"ĠÃ²jÃ©":12217,"ĠÃ²wÃ¹":12218,"ĠÃ²fo":12219,"ĠÃ²fÃł":12220,"ĠÃ²nÃ¡":12221,"ĠÃ²rÃŃn":12222,"ĠÃ²kÃºn":12223,"ĠÃ²tÃ¡":12224,"ĠÃ²fÃº":12225,"ĠÃ²gÃ¹":12226,"ĠÃ²gbÃ¬n":12227,"ĠÃ²daran":12228,"ĠÃ²darÃłn":12229,"ĠÃ²giri":12230,"ĠÃ²gÃ¬rÃ¬":12231,"ĠÃ²gÃ²gÃ³":12232,"ĠÃ²mÃ¬nÃ¬":12233,"rez":12234,"rerin":12235,"rege":12236,"resile":12237,"read":12238,"relia":12239,"reau":12240,"onse":12241,"onel":12242,"onina":12243,"ÃłntÃ¬":12244,"ÃłnyÃ¡n":12245,"ÃłnÃ¬yÃłn":12246,"kou":12247,"kosi":12248,"koore":12249,"kossa":12250,"Ã¬ÃŃrÃ¬s":12251,"ĠsÃŃs":12252,"ĠsÃŃÃ¬":12253,"ĠsÃŃra":12254,"ĠsÃŃbÃŃ":12255,"ĠsÃŃwÃ¡ju":12256,"bata":12257,"balÃ¹":12258,"bajáº¹":12259,"bama":12260,"bayo":12261,"barÃł":12262,"bakanna":12263,"basti":12264,"bagbepo":12265,"baÃ¡lÃ¡":12266,"babwe":12267,"ÅĦjo":12268,"ÅĦdÃ©":12269,"ÅĦtÃł":12270,"ÅĦgÃ²":12271,"ÅĦski":12272,"ÅĦtÃ¡ÃłsÃ¬":12273,"loe":12274,"loo":12275,"lop":12276,"lou":12277,"low":12278,"lole":12279,"lode":12280,"lokun":12281,"lobu":12282,"lohÃ¹n":12283,"loselu":12284,"lorile":12285,"lofurufu":12286,"Ġjeki":12287,"Ġjeome":12288,"deen":12289,"dekun":12290,"deci":12291,"delia":12292,"desand":12293,"ĠÅĦi":12294,"ĠÅĦla":12295,"ĠÅĦlu":12296,"ĠÅĦkÃ³":12297,"ĠÅĦnÃŃ":12298,"ĠÅĦfi":12299,"ĠÅĦlÃ¹":12300,"ĠÅĦpÃ©":12301,"ĠÅĦfÃ©":12302,"sek":12303,"sex":12304,"sese":12305,"segbÃ¡":12306,"sepá»į":12307,"sesc":12308,"semb":12309,"seven":12310,"Ġloti":12311,"Ġlore":12312,"Ġlose":12313,"Ġlosi":12314,"Ġloto":12315,"Ġloro":12316,"Ġloso":12317,"Ġlove":12318,"ĠloÃ²Ã³":12319,"Ġloore":12320,"Ġlojiji":12321,"Ã¡ÃłrÃ²":12322,"Ã¡ÃłfÃŃn":12323,"ĠrÃ¹":12324,"Ġrorun":12325,"ĠrÃ¬rÃ¬":12326,"ĠrorÃ²":12327,"ĠrorÃ¹n":12328,"bie":12329,"bian":12330,"bile":12331,"biá¹£áº¹":12332,"bility":12333,"mor":12334,"modo":12335,"more":12336,"moye":12337,"modi":12338,"mour":12339,"motion":12340,"molov":12341,"mouth":12342,"molaya":12343,"ĠIV":12344,"ĠIrin":12345,"ĠIsi":12346,"ĠInu":12347,"ĠIju":12348,"ĠIpe":12349,"ĠIpÃ²":12350,"ĠIdÃ¡":12351,"ĠIbe":12352,"ĠIya":12353,"ĠIke":12354,"ĠIna":12355,"ĠIgbÃ¡":12356,"ĠIá¹£áº¹":12357,"ĠIku":12358,"ĠItan":12359,"ĠIsu":12360,"ĠItun":12361,"ĠIfÃ©":12362,"ĠIron":12363,"ĠImÃ¨":12364,"ĠIgbona":12365,"ĠIgbÃ³mÃ¬nÃł":12366,"ĠIsise":12367,"ĠIsis":12368,"ĠIbÃ²kun":12369,"ĠIpinnu":12370,"ĠIgbÃ¬":12371,"ĠIbÃ¹dÃ³":12372,"ĠIHE":12373,"ĠIkomi":12374,"ĠIráº¹landi":12375,"ĠIdunadura":12376,"ĠIUPA":12377,"ĠIzon":12378,"rindo":12379,"Ġfim":12380,"Ġfiti":12381,"Ġfita":12382,"ĠfilÃł":12383,"Ġfiga":12384,"ĠfidÃŃ":12385,"ĠfipÃ¡":12386,"Ġfiá¹£e":12387,"Ġfifáº¹":12388,"Ġfilasi":12389,"Ġfifara":12390,"Ġfifowoda":12391,"Ġtose":12392,"Ġtomo":12393,"Ġtoro":12394,"ĠtojÃº":12395,"Ġtoje":12396,"Ġtopari":12397,"Ġtopete":12398,"Ġtosunmo":12399,"lÃ©yÃ¬n":12400,"lÃ©bÃ©":12401,"lÃ©Ã³simi":12402,"á¹£un":12403,"Ġsil":12404,"Ġsibi":12405,"Ġsiro":12406,"Ġsisu":12407,"Ġsisun":12408,"Ġsitos":12409,"Ã¹ndÃ¡":12410,"Ã¹njÃ¹":12411,"kande":12412,"kanlÃ¨":12413,"kandinlo":12414,"kanzler":12415,"ord":12416,"orm":12417,"orÃ©":12418,"oran":12419,"orfi":12420,"ordan":12421,"sie":12422,"sip":12423,"sius":12424,"simu":12425,"situ":12426,"sirisi":12427,"siomu":12428,"sirelia":12429,"ĠlÃ¡a":12430,"ĠlÃ¡s":12431,"ĠlÃ¡tÃŃ":12432,"ĠlÃ¡yÃł":12433,"ĠlÃ¡mÃ¬":12434,"ĠlÃ¡Ã¬nÃŃ":12435,"ĠlÃ¡papá»į":12436,"ĠlÃ¡tÃłrÃŃ":12437,"ĠlÃ¡Ã©lÃ¡":12438,"Ġkanra":12439,"Ġkanka":12440,"Ġkansa":12441,"Ġkannan":12442,"pade":12443,"papa":12444,"paya":12445,"pasáº¹":12446,"patÃ¡n":12447,"paul":12448,"pagboko":12449,"jowo":12450,"jorÃŃ":12451,"jose":12452,"joli":12453,"jogbÃ©":12454,"lÃºÃł":12455,"lÃºye":12456,"lÃºsÃ¬":12457,"lÃºkÃº":12458,"lÃºdÃ³":12459,"ĠpÃ©jÃº":12460,"ĠpÃ©lÃ©bÃ©":12461,"Ġwao":12462,"Ġwari":12463,"Ġwaja":12464,"Ã¬ndÃŃnlÃ³gÃºn":12465,"ĠlalÃ¨":12466,"Ġlala":12467,"ĠlayÃ©":12468,"Ġlast":12469,"Ġlaaka":12470,"Ġlayika":12471,"Ġlaaro":12472,"Ġlaayo":12473,"Ġlaela":12474,"Ġlagbaja":12475,"Ġlatari":12476,"laka":12477,"laju":12478,"laji":12479,"laki":12480,"laru":12481,"laus":12482,"lake":12483,"laria":12484,"laai":12485,"lard":12486,"ladel":12487,"latory":12488,"lagong":12489,"laurin":12490,"Ġwoli":12491,"tok":12492,"toye":12493,"topu":12494,"toine":12495,"tosynth":12496,"tourism":12497,"ĠlÃ³ti":12498,"ĠlÃ³ni":12499,"ĠlÃ³lÃ¡":12500,"ĠlÃ³rÃ²":12501,"ĠlÃ³gun":12502,"ĠlÃ³hun":12503,"ĠlÃ³nÃŃ":12504,"ĠlÃ³ru":12505,"ĠlÃ³yÃ¨":12506,"ĠlÃ³rÃ³":12507,"ĠlÃ³we":12508,"ĠlÃ³rÃ¬":12509,"ĠlÃ³hÃ¹n":12510,"ĠlÃ³tÃ²":12511,"ĠlÃ³dÃ¬":12512,"ĠlÃ³mÃ¬":12513,"ĠlÃ³kÃ¹nrin":12514,"ĠlÃ³bÃ¬nrin":12515,"ĠlÃ³ore":12516,"ĠlÃ³fÃ¨Ã©":12517,"ĠlÃ³Ã³gun":12518,"gbajo":12519,"gbala":12520,"gbagbo":12521,"gbami":12522,"gbamu":12523,"gbadura":12524,"ĠwÃ³pÃ²":12525,"gbÃłwÃŃ":12526,"roo":12527,"roko":12528,"rowÃ³":12529,"roje":12530,"rold":12531,"roit":12532,"rophy":12533,"Ġseto":12534,"Ġsepo":12535,"Ġseju":12536,"Ġseso":12537,"Ġsehin":12538,"Ġselana":12539,"Ġsesiro":12540,"Ġsecon":12541,"Ġsepinpin":12542,"Ġsekede":12543,"lub":12544,"lue":12545,"lule":12546,"luka":12547,"luwa":12548,"ludÃ©":12549,"lumu":12550,"luma":12551,"lutifon":12552,"Ġatiláº¹":12553,"Ġatijá»į":12554,"Ġatinrin":12555,"yemo":12556,"yeye":12557,"yeke":12558,"yeama":12559,"yelÃ³fÃ²":12560,"dÃ¨rÃº":12561,"dÃ¨jÃ¬":12562,"dÃ¨rÃ©":12563,"dÃ¨gbÃ©":12564,"ĠtÃ³rÃŃ":12565,"ĠtÃ³rÃ³":12566,"ĠtÃ³jáº¹":12567,"ĠtÃ³sÃ²":12568,"ĠtÃ³wÃ¹Ãº":12569,"nÃºsÃ¬":12570,"nÃºarÃ³":12571,"ĠgÃłn":12572,"Ġgar":12573,"Ġgene":12574,"Ġget":12575,"ĠgÃ¬rÃ¬":12576,"ĠgÃ¡lÃ¡ksÃ¬":12577,"kas":12578,"kaba":12579,"kaki":12580,"kaya":12581,"kaia":12582,"kaluku":12583,"karioti":12584,"kalaki":12585,"Ġá»įlÃ¡":12586,"Ġá»įyÃłn":12587,"Ġá»įkÃ²":12588,"Ġá»įjÃ³":12589,"Ġá»įá¹£áº¹":12590,"Ġá»įá»įfun":12591,"Ġá»įkunrin":12592,"Ġkora":12593,"Ġkoin":12594,"Ġkore":12595,"Ġkokan":12596,"Ġkosi":12597,"Ġkomi":12598,"Ġkopo":12599,"Ġkowa":12600,"Ġkoje":12601,"Ġkoma":12602,"Ġkokanla":12603,"nie":12604,"niz":12605,"niti":12606,"nifÃº":12607,"nigbÃ¹wÃł":12608,"nipasáº¹":12609,"ÃĢÃ¡":12610,"ÃĢbÃŃ":12611,"ÃĢgbe":12612,"ÃĢwÃ³":12613,"ÃĢki":12614,"ÃĢdÃ¡":12615,"ÃĢmá»į":12616,"ÃĢgbÃ©":12617,"ÃĢká»į":12618,"ÃĢjÃ¨":12619,"ÃĢjá»į":12620,"ÃĢbÃ©":12621,"ÃĢtÃł":12622,"ÃĢkÃłn":12623,"ÃĢtÃº":12624,"ÃĢtÃºn":12625,"ÃĢgbáº¹":12626,"ÃĢayÃ¨":12627,"ÃĢpilÃ¨":12628,"ÃĢfojÃº":12629,"ÃĢdÃ¬mÃº":12630,"ÃĢyÃłnmÃ³":12631,"ÃĢfikÃºn":12632,"ÃĢÃ¬rÃŃ":12633,"ÃĢrÃŃyÃłnjiyÃłn":12634,"ÃĢpatÃ¡n":12635,"lÃ¡rÃłn":12636,"lÃ¡pÃ¡":12637,"lÃ¡dÃº":12638,"lÃ¡mÃ¹":12639,"lÃ¡tÃº":12640,"lÃ¡gbÃ¡ra":12641,"lÃ¡ayÃ©":12642,"nut":12643,"nuso":12644,"nukÃ²":12645,"nume":12646,"nulÃ©kÃ¨":12647,"rÃ²jin":12648,"lÃ³Ã²":12649,"lÃ³jÃ¬":12650,"lÃ³bÃ¬nrin":12651,"lÃ³fÃ¬n":12652,"lÃ³gÃ³jÃ¬":12653,"lÃ³trÃ³":12654,"eron":12655,"erry":12656,"ertifi":12657,"erritory":12658,"ĠbÃŃu":12659,"ĠbÃŃÃł":12660,"ĠbÃŃÃ¬":12661,"ĠbÃŃbi":12662,"ĠbÃŃkÃ²":12663,"ĠbÃŃrÃŃki":12664,"Ġsoo":12665,"Ġsodo":12666,"Ġsowon":12667,"Ġsomo":12668,"Ġsohun":12669,"Ġsope":12670,"Ġsoja":12671,"Ġsolori":12672,"Ġsogoye":12673,"ĠbÃ¡s":12674,"ĠbÃ¡bÃ¡":12675,"ĠbÃ¡tan":12676,"ĠbÃ¡tÃłnÃ¬":12677,"gbom":12678,"Ã¡ayÃ¨":12679,"tara":12680,"tase":12681,"tarÃ©":12682,"tage":12683,"tagi":12684,"talie":12685,"mir":12686,"mile":12687,"mimo":12688,"mimi":12689,"mibe":12690,"mirÃłn":12691,"mikÃ¡":12692,"milÃ©kÃ¨":12693,"mitoro":12694,"miento":12695,"mission":12696,"bÃ¡dÃ¡":12697,"bÃ¡yÃ¬ÃŃ":12698,"bÃ¡kÃŃn":12699,"day":12700,"dare":12701,"dagba":12702,"dapo":12703,"dawe":12704,"dalandi":12705,"dams":12706,"dagry":12707,"diÃŃ":12708,"dijo":12709,"diro":12710,"dich":12711,"diomu":12712,"Ġpee":12713,"ĠperÃŃ":12714,"Ġpepe":12715,"Ġpetiro":12716,"ĠNO":12717,"ĠNde":12718,"ĠNje":12719,"ĠNya":12720,"ĠNyan":12721,"ĠNati":12722,"ĠNgu":12723,"ĠNaira":12724,"ĠNnaji":12725,"pore":12726,"possi":12727,"porini":12728,"point":12729,"pods":12730,"pomÃ©jÃ¬":12731,"potenu":12732,"ĠÃĮre":12733,"ĠÃĮse":12734,"ĠÃĮlÃ©":12735,"ĠÃĮye":12736,"ĠÃĮrÃ²":12737,"ĠÃĮlÃ¹":12738,"ĠÃĮgbÃ¨":12739,"ĠÃĮja":12740,"ĠÃĮyÃł":12741,"ĠÃĮgbÃ²":12742,"ĠÃĮwá»į":12743,"ĠÃĮfÃ¡":12744,"ĠÃĮjÃ©":12745,"ĠÃĮsÃ¨":12746,"ĠÃĮbáº¹":12747,"ĠÃĮrÃ¬n":12748,"ĠÃĮsÃ¡n":12749,"ĠÃĮgÃ¨":12750,"ĠÃĮgÃłn":12751,"ĠÃĮrÃ²yÃ¬n":12752,"ĠÃĮsÃ²rÃŃ":12753,"ĠÃĮdÃ¡nwÃ²":12754,"ĠÃĮá¹£Ã¨":12755,"ĠÃĮsirÃ²":12756,"ĠÃĮperÃŃ":12757,"ĠÃĮrÃ¡nÃ¬":12758,"ĠÃĮdomÃł":12759,"juwa":12760,"juwÃ³":12761,"ïĢ¤ïĢ¤":12762,"gungun":12763,"guntÃł":12764,"hunrun":12765,"ĠkÃ²kÃ²":12766,"ĠkÃ²sÃ¬":12767,"jÃºu":12768,"jÃºwo":12769,"jÃºbÃł":12770,"Ġmowo":12771,"ĠmorÃŃ":12772,"Ġmoka":12773,"Ġmohun":12774,"Ġmobo":12775,"Ġmofe":12776,"Ġmojuto":12777,"Ġmosalasi":12778,"Ġmolaai":12779,"ĠBÃ³":12780,"ĠBáº¹":12781,"ĠBÃŃn":12782,"ĠBrun":12783,"ĠBai":12784,"ĠBuba":12785,"ĠBes":12786,"ĠBet":12787,"ĠBim":12788,"ĠBÃłtÃ¡":12789,"ĠBlues":12790,"ĠBÃºoyÃ¨":12791,"Ġ215":12792,"ĠSy":12793,"ĠSti":12794,"ĠSÃ¹":12795,"ĠSin":12796,"ĠSÃłn":12797,"ĠSlo":12798,"ĠSor":12799,"ĠSar":12800,"ĠSve":12801,"ĠSter":12802,"ĠShi":12803,"ĠSos":12804,"ĠSol":12805,"ĠSham":12806,"ĠSton":12807,"ĠSpan":12808,"ĠSwÃŃ":12809,"ĠSwis":12810,"ĠSander":12811,"ĠSlavic":12812,"ĠSinga":12813,"ĠSÃ£o":12814,"kÃ³pÃ¹":12815,"Ġdiye":12816,"Ġdidun":12817,"Ġdivision":12818,"ĠMÃŃ":12819,"ĠMÃº":12820,"ĠMá»į":12821,"ĠMba":12822,"ĠMes":12823,"ĠMur":12824,"ĠMongo":12825,"ĠMum":12826,"ĠMano":12827,"ĠMusa":12828,"ĠMill":12829,"ĠMBE":12830,"ĠMrs":12831,"ĠMÃ¹sÃº":12832,"ĠÃĴdo":12833,"ĠÃĴyÃ¬n":12834,"ĠÃĴjÃ¨":12835,"ĠÃĴwÃº":12836,"ĠÃĴrÃºnmÃ¬lÃł":12837,"ĠÃĴdÃ²go":12838,"ĠÃĴgÃ¨dÃ¨n":12839,"ĠÃĴGÃļN":12840,"Ġaralu":12841,"Ġarabirin":12842,"ĠbaÃ¡":12843,"ĠbalÃ©":12844,"ĠbabÃ¡":12845,"Ġbawa":12846,"Ġbafi":12847,"Ġbauxi":12848,"ĠgbalÃ¨":12849,"Ġgbajo":12850,"Ġgbami":12851,"Ġgbaju":12852,"Ġgbaláº¹":12853,"Ġgbayi":12854,"Ġgbaya":12855,"Ġgbayo":12856,"Ġgbadura":12857,"ĠEÃ¨":12858,"ĠEka":12859,"ĠEdi":12860,"ĠEji":12861,"ĠEru":12862,"ĠEdu":12863,"ĠEjÃŃ":12864,"ĠEst":12865,"ĠEsu":12866,"ĠErÃŃn":12867,"ĠEdin":12868,"ĠEug":12869,"ĠEiye":12870,"ĠEssi":12871,"ĠEÃ©gÃºn":12872,"ĠEzi":12873,"ĠEÃ¬nÃŃ":12874,"ĠEmmy":12875,"ĠECO":12876,"ĠEdumare":12877,"ĠEmmanuel":12878,"ĠEgha":12879,"ĠEfÃ²n":12880,"ĠEagle":12881,"ĠEvere":12882,"ĠErnest":12883,"ĠEFFC":12884,"ĠEbene":12885,"bÃŃrÃŃ":12886,"bÃŃlÃ©":12887,"ĠwÃłyÃ©":12888,"ĠwÃłÃ¡sÃ¹":12889,"Ġrep":12890,"Ġreti":12891,"Ġrele":12892,"Ġrerin":12893,"ĠrewÃ¡jÃº":12894,"Ġreser":12895,"Ġrecom":12896,"Ġrechar":12897,"ĠYan":12898,"ĠYaa":12899,"ĠYam":12900,"ĠYOR":12901,"ĠYÃºrÃ³":12902,"ĠYong":12903,"ĠYÃłgbÃł":12904,"gbÃ³Ã²gÃ¹n":12905,"Ġpaa":12906,"Ġpap":12907,"Ġpar":12908,"Ġpas":12909,"Ġpako":12910,"ĠpawÃ³":12911,"ĠpatÃł":12912,"Ġpasipa":12913,"ÃŃnÃ¡":12914,"wasi":12915,"waki":12916,"waii":12917,"ĠKor":12918,"ĠKÃ¬n":12919,"ĠKru":12920,"ĠKede":12921,"ĠKini":12922,"ĠKoni":12923,"ĠKare":12924,"ĠKanu":12925,"ĠKir":12926,"ĠKing":12927,"ĠKrio":12928,"ĠKhmer":12929,"ĠKwere":12930,"ĠKlerk":12931,"pei":12932,"petu":12933,"peal":12934,"pejuwe":12935,"ĠÃ¨dÃ¨e":12936,"ĠkÃŃÃ¬":12937,"ĠkÃŃka":12938,"ĠkÃŃki":12939,"ĠkÃŃkÃºn":12940,"ĠkÃŃlÃ¡Ãł":12941,"ĠkÃŃÃ¡kÃŃÃ¡":12942,"Ġleba":12943,"Ġlede":12944,"Ġlekan":12945,"Ġleto":12946,"Ġleke":12947,"gbee":12948,"gbewo":12949,"gbekun":12950,"ÃĮh":12951,"ÃĮwo":12952,"ÃĮdÃ¨":12953,"ÃĮlÃ¡":12954,"ÃĮdi":12955,"ÃĮgbÃ³":12956,"ÃĮmá»į":12957,"ÃĮke":12958,"ÃĮfÃ¨":12959,"ÃĮjÃ²":12960,"ÃĮpÃ©":12961,"ÃĮnÃ¡":12962,"ÃĮkejÃ¬":12963,"ÃĮwÃº":12964,"ÃĮyÃŃpadÃł":12965,"ÃĮrÃŃsÃŃ":12966,"ÃĮrÃŃrÃŃ":12967,"ÃĮsÃ²rÃŃ":12968,"ÃĮyapa":12969,"ÃĮtipÃ¡":12970,"ÃĮperÃŃ":12971,"ÃĮyÃłndÃ¡":12972,"ÃĮWÃĢ":12973,"ĠGB":12974,"ĠGun":12975,"ĠGrÃŃ":12976,"ĠGon":12977,"ĠGba":12978,"ĠGbÃł":12979,"ĠGoo":12980,"ĠGren":12981,"ĠGwari":12982,"ĠGod":12983,"ĠGNU":12984,"ĠGreenberg":12985,"ĠGough":12986,"ĠGCM":12987,"arÃ¡":12988,"arÃ¨":12989,"arth":12990,"arca":12991,"arry":12992,"ardian":12993,"yÃłnjÃ¬":12994,"rÃºdÃ²":12995,"pÃ²Ã²yÃ¬":12996,"jibo":12997,"jikÃ¬":12998,"sore":12999,"soju":13000,"sobu":13001,"sowá»į":13002,"sovo":13003,"solar":13004,"south":13005,"sosialisti":13006,"Ġlatigba":13007,"Ġyiri":13008,"Ġyika":13009,"yÃ©kÃ©":13010,"yÃ©jayÃ©":13011,"nÃŃgbÃł":13012,"nÃŃta":13013,"ĠwÃ¡bi":13014,"ĠâĢ¡":13015,"ĠâĢ¦":13016,"ĠâĢĶ":13017,"NÃŃlÃ©":13018,"NÃŃjÃ³":13019,"NÃŃdÃł":13020,"NÃŃwÃ²n":13021,"NÃŃtrÃ³jÃ¬n":13022,"Ġmio":13023,"ĠJÃ¬":13024,"ĠJer":13025,"ĠJam":13026,"ĠJiba":13027,"ĠJÃ¹jÃº":13028,"rand":13029,"ransi":13030,"rangbe":13031,"kÃ²dÃ³":13032,"ĠgbogbogbÃ²Ã²":13033,"kirÃŃ":13034,"kipáº¹":13035,"ruk":13036,"rup":13037,"ruba":13038,"rust":13039,"yÃ¨wÃ²":13040,"ĠDÃ³":13041,"ĠDun":13042,"ĠDar":13043,"ĠDal":13044,"ĠDanu":13045,"ĠDama":13046,"ĠDennis":13047,"ĠDjen":13048,"ĠDÃºdÃº":13049,"ĠDutch":13050,"ĠDARA":13051,"ĠDjibo":13052,"Ġorire":13053,"ĠorilÃ¨":13054,"Ġorigun":13055,"Ġorison":13056,"Ġkiye":13057,"Ġkikun":13058,"ĠkifÃ¡":13059,"Ġkiise":13060,"jele":13061,"lÃłbÃ¹":13062,"aac":13063,"lid":13064,"lige":13065,"lius":13066,"lica":13067,"lionu":13068,"litt":13069,"light":13070,"lisisi":13071,"liskopu":13072,"litz":13073,"lifonia":13074,"lihlah":13075,"wÃ¡lÃ©":13076,"wÃ¡sÃŃ":13077,"wÃ¡lÃłgbÃł":13078,"wÃ²ye":13079,"dÃ¡Ã¡":13080,"dÃ¡já»įpá»į":13081,"yii":13082,"yirapo":13083,"Ġá¹£erÃ©":13084,"Ġá¹£ÃłÃ¬sÃłn":13085,"Ġá¹£Ãºre":13086,"Ġá¹£aaju":13087,"Ġáº¹rin":13088,"Ġáº¹ta":13089,"Ġáº¹mi":13090,"Ġáº¹rÃº":13091,"Ġáº¹ran":13092,"Ġáº¹nÃ¬":13093,"Ġáº¹mu":13094,"Ġáº¹ráº¹":13095,"Ġáº¹rÃ¹":13096,"Ġáº¹yáº¹":13097,"Ġáº¹gbÃłÃ¡":13098,"ĠorÃŃle":13099,"ĠorÃŃki":13100,"ĠorÃŃkin":13101,"ĠorÃŃlÄĻ":13102,"ĠorÃŃrsirÃŃsi":13103,"ĠorÃŃÃ¬kÃ©":13104,"enio":13105,"enian":13106,"enior":13107,"enisula":13108,"bes":13109,"belo":13110,"beji":13111,"ĠmÃ©ji":13112,"merin":13113,"mesÃ¬":13114,"metres":13115,"Ġilese":13116,"Ġilepa":13117,"Ġilewa":13118,"Ġileru":13119,"Ġileasofin":13120,"ĠisÃł":13121,"Ġisun":13122,"Ġisare":13123,"rÃ©Ãł":13124,"rÃ©Ã¨":13125,"rÃ©lÃŃÃł":13126,"ĠkÃ³ko":13127,"ĠkÃ³jo":13128,"ĠkÃ³Ã³kÃ²":13129,"ĠTs":13130,"ĠTy":13131,"ĠTara":13132,"ĠTris":13133,"ĠTomba":13134,"ĠTuni":13135,"ĠTele":13136,"ĠTenis":13137,"ĠTryp":13138,"ĠTrÃŃnÃŃ":13139,"ĠTÃºnde":13140,"ĠTerritory":13141,"ĠCD":13142,"ĠCE":13143,"ĠCra":13144,"ĠCola":13145,"ĠComo":13146,"ĠChamo":13147,"ĠColombia":13148,"ĠCrete":13149,"ĠClerk":13150,"ĠCeres":13151,"ĠCultural":13152,"ĠChelsea":13153,"ĠClub":13154,"ĠLáº¹":13155,"ĠLuba":13156,"ĠLes":13157,"ĠLos":13158,"ĠLolo":13159,"ĠLEW":13160,"ĠLÃ¡ayÃ¨":13161,"boh":13162,"boko":13163,"bogun":13164,"bobo":13165,"gel":13166,"gemo":13167,"gelu":13168,"geal":13169,"ĠrÃŃrÃ¡n":13170,"fimo":13171,"fied":13172,"sÃŃlÃ©":13173,"sÃŃbáº¹":13174,"sÃŃtÃ©":13175,"sÃŃÃ¬lÃ¬":13176,"Ġtaba":13177,"Ġtata":13178,"ĠtakÃ²":13179,"ĠtayÃ²":13180,"Ġtalika":13181,"ĠÃĢti":13182,"ĠÃĢko":13183,"ĠÃĢwon":13184,"ĠÃĢlÃ¡":13185,"ĠÃĢbÃ¡":13186,"ĠÃĢkÃ³":13187,"ĠÃĢgbÃ²":13188,"ĠÃĢdÃ¹":13189,"ĠÃĢjÃ©":13190,"ĠÃĢkin":13191,"ĠÃĢá¹£Ãł":13192,"ĠÃĢpÃ¨":13193,"ĠÃĢÃ¬sÃłn":13194,"ĠÃĢgan":13195,"ĠÃĢpapá»į":13196,"ĠÃĢÃ¬pÃ©":13197,"ĠÃĢfikÃºn":13198,"ĠÃĢpÃ³lÃł":13199,"ĠÃĢmÃºÃ¹":13200,"ĠÃĢKÃĵ":13201,"ĠÃĢlhÃłÃ¡":13202,"ĠÃĢÃŃyÃ¡":13203,"ussi":13204,"usto":13205,"ushi":13206,"ussian":13207,"gbÃ©pÃ²":13208,"gbÃ©nulÃ©kÃ¨":13209,"gbÃ©milÃ©kÃ¨":13210,"yaji":13211,"yadar":13212,"kei":13213,"kele":13214,"kemi":13215,"kekere":13216,"ÃłtÃ³":13217,"ÃłtÃ¬":13218,"ÃĪre":13219,"ÃĪmi":13220,"ÃĪyi":13221,"ÃĪgbÃ³n":13222,"wÃłdÃł":13223,"wÃłgÃºn":13224,"tÃŃÃŃ":13225,"tÃŃtÃłn":13226,"tÃŃkÃ¬":13227,"dÃ©gbÃł":13228,"dÃ©gbÃ¨":13229,"dÃ©kÃ¹nrin":13230,"dÃ©Ã©dÃ©":13231,"ĠtÃºnmÃ²":13232,"ĠilÃ¨e":13233,"ĠilÃ¨kÃ¹n":13234,"Ġwá»įnÃº":13235,"rÃłnwÃ³":13236,"ÃĴkan":13237,"ÃĴbÃŃ":13238,"ÃĴwÃ²":13239,"ÃĴkun":13240,"ÃĴjÃŃ":13241,"ÃĴkÃº":13242,"ÃĴmÃŃrÃłn":13243,"ÃĴdÃ²go":13244,"ÃĴkÃ²wÃ²":13245,"ÃĴÃ³rÃ¹n":13246,"ĠpÃ¨rÃ²":13247,"ĠpÃ¨run":13248,"ĠpÃ¨tÃ©":13249,"rÃ³wÃ³":13250,"rÃ³yÃ¨":13251,"wee":13252,"weight":13253,"mÃ²rÃ¨":13254,"mÃ²sÃ³":13255,"lÃ¹fá»į":13256,"lÃ¹mÃ¡":13257,"ĠFÃ©":13258,"ĠFede":13259,"ĠFis":13260,"ĠFusu":13261,"ĠFou":13262,"ĠFore":13263,"ĠFunda":13264,"ĠFeli":13265,"ĠFederal":13266,"ĠFÃ¬dÃŃ":13267,"ĠFlute":13268,"ĠFrede":13269,"ĠFrench":13270,"ĠFÃ¬lÃŃsÃŃÃł":13271,"wÃ©rÃ©":13272,"rÃ¬lÃ¬":13273,"yinka":13274,"Ġeniti":13275,"ĠeniyÃłn":13276,"ïĢıïĢ¬":13277,"duÃł":13278,"dugbÃ³":13279,"ductor":13280,"mulo":13281,"muse":13282,"muda":13283,"mudu":13284,"mumbi":13285,"Ġdako":13286,"Ġdaba":13287,"Ġdato":13288,"Ġdake":13289,"Ġdaku":13290,"Ġdasiláº¹":13291,"Ġdalute":13292,"kÃ¨nÃŃsÃł":13293,"kÃ¨rÃºdÃ²":13294,"ĠgbÃ³lÃ³":13295,"ĠgbÃ³dÃ³":13296,"ĠgbÃ³dá»į":13297,"ĠgbÃ³lohÃ¹n":13298,"Ġorilede":13299,"kÃ¬yÃ¨sÃŃ":13300,"ĠgbÃ©lÃ¨":13301,"ĠgbÃ©pÃ²":13302,"ĠPÃ¡":13303,"ĠPÃ¨":13304,"ĠPun":13305,"ĠPrÃ©":13306,"ĠPana":13307,"ĠPere":13308,"ĠPol":13309,"ĠPupa":13310,"ĠPAL":13311,"ĠPers":13312,"ĠPuli":13313,"ĠPhysi":13314,"ĠPrince":13315,"ĠPersian":13316,"ĠPÃłnyÃ¡n":13317,"ĠPorfi":13318,"ĠPenisula":13319,"á»ĮwÃ¡":13320,"á»Įká»į":13321,"á»Įdáº¹":13322,"gbÃ¨de":13323,"gbÃ¨je":13324,"gbÃ¨rÃ¬":13325,"jáº¹r":13326,"jáº¹ri":13327,"kuna":13328,"kunnu":13329,"Ġá¹£eÃ©":13330,"rÃ¹ndÃºn":13331,"ĠÃ¬sÃ³":13332,"ĠlÃ©lÃ¨":13333,"ĠlÃ©bi":13334,"ĠlÃ©rÃ¨":13335,"ĠlÃ©rÃ©":13336,"ĠlÃ©gbÃ²":13337,"ĠlÃ©tÃ²":13338,"ĠlÃ©wu":13339,"ĠlÃ©bÃłÃ¡":13340,"tÃ³ri":13341,"mal":13342,"mase":13343,"mais":13344,"mail":13345,"matÃŃn":13346,"magne":13347,"ĠolorÃŃ":13348,"Ġololu":13349,"Ġolohun":13350,"Ġoloru":13351,"Ġolotu":13352,"Ġolosan":13353,"Ġolooru":13354,"gbÃ¡jÃł":13355,"ĠdÃ¡Ã¡":13356,"ĠdÃ¡lÃ¨":13357,"ĠdÃ¡rin":13358,"ĠdÃ¡gbÃ³":13359,"ĠdÃ¡wÃ³":13360,"ĠdÃ¡dÃ©":13361,"ĠdÃ¡mÃ²":13362,"ĠdÃ¡fÃ¡":13363,"ĠdÃ¡lÃ¹Ãº":13364,"ĠdÃ¡dÃºrÃ³":13365,"bers":13366,"berta":13367,"Ġjubelo":13368,"Ġibikan":13369,"gara":13370,"gala":13371,"gation":13372,"garian":13373,"gasy":13374,"gayika":13375,"sÃ¬lÃ¨":13376,"sÃ¬gbÃ²":13377,"sÃ¬wÃ¡jÃº":13378,"sÃ¬mesÃ¬":13379,"nÃła":13380,"nÃłmá»į":13381,"ism":13382,"isen":13383,"isation":13384,"goi":13385,"gol":13386,"Ġhi":13387,"ĠhÃ¹":13388,"Ġhin":13389,"ĠhÃłÃ¬":13390,"Ġhisi":13391,"ĠmÃºmÃº":13392,"bul":13393,"bura":13394,"buko":13395,"busi":13396,"bulary":13397,"bÃ¨rÃ¨":13398,"bÃ¨bÃ¨":13399,"dÃŃÃł":13400,"dÃŃran":13401,"bÃºtÃ©":13402,"ĠÃ¨yÃŃkÃ©":13403,"Ġkeyin":13404,"Ġkesan":13405,"ĠkefÃł":13406,"Ġkeferi":13407,"ĠÃ¬gbÃłlÃł":13408,"ĠÃ¬gbÃłtÃŃ":13409,"ĠÃ¬gbÃłdÃ©gbÃł":13410,"tua":13411,"turn":13412,"turba":13413,"pinpÃ¬n":13414,"rial":13415,"riam":13416,"riati":13417,"kÃłyÃ¨":13418,"kÃłkiri":13419,"jÃ¨mÃº":13420,"jala":13421,"jave":13422,"jabele":13423,"yÃłyÃł":13424,"ĠHan":13425,"ĠHal":13426,"ĠHaye":13427,"ĠHeb":13428,"ĠHami":13429,"ĠHerman":13430,"ĠHill":13431,"ĠHans":13432,"ĠHÃ©bÃ©":13433,"ĠHuston":13434,"ĠRen":13435,"ĠRai":13436,"ĠRol":13437,"ĠRFC":13438,"ĠRingi":13439,"ĠRorÃ©":13440,"Ġbora":13441,"Ġbound":13442,"Ġboot":13443,"ĠalÃ¡se":13444,"ĠalÃ¡lÃ¨":13445,"ĠalÃ¡yÃ©":13446,"ĠalÃ¡lÃł":13447,"ĠalÃ¡rÃ³":13448,"ĠalÃ¡bÃ²":13449,"ĠalÃ¡kÃłn":13450,"ĠalÃ¡fÃ©":13451,"ĠalÃ¡koso":13452,"ĠalÃ¡kÃ²Ã³":13453,"ĠalÃ¡Ã¬á¹£áº¹":13454,"ĠalÃ¡sejÃ¹":13455,"ĠalÃ¡pÃ¬ÃŃ":13456,"ĠalÃ¡dÃ¡ni":13457,"ĠalÃ¡wÃ¬ÃŃ":13458,"ĠalÃ¡jogbÃ©":13459,"ĠalÃ¡gbÃłwÃŃ":13460,"Ġbeta":13461,"Ġbeyo":13462,"Ġbesini":13463,"bÃłkÃ¨":13464,"bÃłjáº¹":13465,"Ġmete":13466,"Ġmeeti":13467,"ĠmejÃ¨ji":13468,"Ġmeerin":13469,"Ġmererin":13470,"rÃ¡yÃ©":13471,"rÃ¡tÃ¬":13472,"ĠdÃ©Ã©":13473,"ĠdÃ©lÃ©":13474,"ĠdÃ©dÃ©":13475,"chte":13476,"chan":13477,"chard":13478,"chdad":13479,"change":13480,"ĠÃ¡Ãł":13481,"ĠÃ¡ti":13482,"ĠÃ¡rÃ©":13483,"ĠÃ¡gbÃ¡":13484,"ĠÃ¡afi":13485,"ĠÃ¡lÃ³trÃ³":13486,"ĠkÃºde":13487,"ĠkÃºbÃł":13488,"jÃŃrÃ¬":13489,"jÃŃrÃł":13490,"jÃŃsÃŃrÃ©":13491,"hÃ¹npÃ¨":13492,"hÃ¹nmÃ¡wÃ²rÃ¡n":13493,"kupa":13494,"kulu":13495,"kuje":13496,"kubu":13497,"Nibe":13498,"Nibo":13499,"Nike":13500,"NitorÃŃ":13501,"Nigbana":13502,"jÃłÇ¹kÃłn":13503,"jÃłgÃŃdÃŃjÃłgan":13504,"jÃłludÃ©":13505,"ĠwÃ²lÃŃ":13506,"ĠwÃ²fÃºn":13507,"gic":13508,"gie":13509,"gida":13510,"gije":13511,"giga":13512,"gimiento":13513,"Ġunla":13514,"Ġunfa":13515,"Ġunsise":13516,"Ġunwaye":13517,"ĠolÃ³ri":13518,"ĠolÃ³rÃ²":13519,"ĠolÃ³jÃº":13520,"ĠolÃ³rÃ¬":13521,"ĠolÃ³kun":13522,"ĠolÃ³gbÃ²":13523,"ĠolÃ³dÃ¬":13524,"ĠolÃ³Ã²Ã³":13525,"ĠolÃ³Ã²Ã³tÃ³":13526,"ĠolÃ³tÃ¹Ãº":13527,"thÃ©":13528,"thon":13529,"thai":13530,"thani":13531,"thal":13532,"thel":13533,"thau":13534,"thaniel":13535,"thony":13536,"thuania":13537,"fawa":13538,"faani":13539,"fagbÃ¡ra":13540,"falos":13541,"kÃºro":13542,"kÃºÃ¹gbÃł":13543,"torÃŃpÃ©":13544,"ĠâĢľ(":13545,"áº¸nu":13546,"áº¸gbáº¹":13547,"ĠwÃŃwÃ²":13548,"Ġigbaja":13549,"Ġigbaeyin":13550,"mÃŃrÃł":13551,"mÃŃrÃ¡tÃ¬":13552,"lá»įá¹£e":13553,"dÃ¹wÃł":13554,"dÃ¹ÃŃgbÃ²":13555,"dÃ¹ÃłrÃ¨":13556,"Ġmathe":13557,"Ġmajor":13558,"Ġmathematiki":13559,"Ġmatimatiiki":13560,"Ġmalaria":13561,"Ġteyin":13562,"finro":13563,"Ġdel":13564,"Ġdear":13565,"Ġdepen":13566,"kÃ¹nrÃ¹n":13567,"kÃ¹nyÃ¹n":13568,"Ġ1819":13569,"Ġ1850":13570,"Ġ1846":13571,"Ġ1824":13572,"Ġ1826":13573,"Ġ1856":13574,"Ġ1847":13575,"Ġ1849":13576,"Ġ1859":13577,"Ġ1845":13578,"Ġ1857":13579,"gÃ¹nrÃ²":13580,"Ġakopo":13581,"Ġakoayo":13582,"ĠWar":13583,"ĠWal":13584,"ĠWhi":13585,"ĠWama":13586,"ĠWande":13587,"ĠWola":13588,"ĠWTA":13589,"ĠWright":13590,"ĠWuwo":13591,"Ġogunlo":13592,"Ġogunlá»į":13593,"Ġalade":13594,"Ġalaje":13595,"Ġalafo":13596,"ĠalaayÃ¨":13597,"Ġalapilese":13598,"Ġalaile":13599,"Ġalatuwo":13600,"Ġaladugbo":13601,"Ġalatako":13602,"Ġaladiboyan":13603,"Ġalaroko":13604,"Ġalagemo":13605,"ĠgbÃłÃ¡":13606,"ĠonÃŃÃ¡":13607,"ĠonÃŃlÃ¨":13608,"ĠonÃŃá¹£":13609,"ĠonÃŃtÃłn":13610,"ĠonÃŃfÃ¡":13611,"ĠonÃŃgbá»į":13612,"ĠonÃŃgÃŃ":13613,"ĠonÃŃsÃ²":13614,"ĠonÃŃsÃłn":13615,"ĠonÃŃkÃŃkan":13616,"ĠonÃŃbÃłtÃ¡":13617,"ĠonÃŃrÃ¡rÃł":13618,"ĠonÃŃrÃ²yÃ¬n":13619,"ĠonÃŃsÃ¨gÃ¹n":13620,"ĠonÃŃdÃ¡jÃ³":13621,"ĠonÃŃbiá¹£áº¹":13622,"ĠonÃŃnÃºarÃ³":13623,"ĠonÃŃtÃŃtÃłn":13624,"ĠonÃŃdÃ©Ã©dÃ©":13625,"Ġribosi":13626,"Ġrirele":13627,"Ġrichdad":13628,"ĠIlÃ©dÃ¨":13629,"ĠIlÃ©san":13630,"ĠIlÃ©sÃł":13631,"yole":13632,"yobo":13633,"yotte":13634,"ĠAmeri":13635,"ĠAmerin":13636,"ĠfalÃ¨":13637,"Ġfalasi":13638,"Ġfall":13639,"omen":13640,"omÃºn":13641,"omar":13642,"ombo":13643,"omsky":13644,"amÃ¨":13645,"ambo":13646,"amarca":13647,"dÃ³rÃŃ":13648,"ĠlÃ³rÃŃi":13649,"ĠlÃ³rÃŃlÃ¨":13650,"ĠlÃ³rÃŃá¹£irÃŃá¹£i":13651,"Ġá»Įya":13652,"Ġá»Įká»į":13653,"Ġá»Įst":13654,"Ġá»Įdáº¹":13655,"Ġá»ĮlÃ¡dÃł":13656,"Ġá»Įsirelia":13657,"lantic":13658,"rá»įmu":13659,"ĠnÃ¬bi":13660,"ĠnÃ¬gbÃł":13661,"ĠnÃ¬yÃ¬ÃŃ":13662,"wuro":13663,"wumi":13664,"Ġoniti":13665,"Ġoniri":13666,"Ġonile":13667,"Ġoniwe":13668,"Ġonima":13669,"Ġonitan":13670,"Ġoniroyin":13671,"Ġonirawo":13672,"Ġonikoro":13673,"Ġonikikan":13674,"Ġonisayensi":13675,"Ġoniatomu":13676,"Ġonigbagbo":13677,"Ġoniyeye":13678,"ĠyÃŃÃ³":13679,"ĠyÃŃgbÃł":13680,"ĠyÃŃkÃ¨":13681,"ĠyÃŃyapa":13682,"ĠmÃ³ra":13683,"ĠmÃ³lÃ©":13684,"ĠmÃ³fÃŃÃ¬mÃ¹":13685,"safáº¹":13686,"sation":13687,"saenia":13688,"Ġmura":13689,"Ġmusi":13690,"Ġmuch":13691,"sanya":13692,"sanna":13693,"sandro":13694,"Ġodunrun":13695,"mÃ³lÃ¨":13696,"tÃ¬jÃº":13697,"tÃ¬Ã¬kÃ¬":13698,"ĠÃĪrÃ²":13699,"ĠÃĪyÃ©":13700,"ĠÃĪsÃ³":13701,"ĠÃĪkejÃ¬":13702,"ĠÃĪwonÃ¬dÃ¡hÃ¹n":13703,"ĠÃĪDÃĪ":13704,"bunmi":13705,"Ġlorisirisi":13706,"onifo":13707,"Ġá»įmá»įge":13708,"ĠdÃŃpo":13709,"ĠdÃŃdáº¹":13710,"ĠdÃŃdÃºrÃ³":13711,"ĠdÃŃÃ¡má»į":13712,"ĠMae":13713,"ĠMat":13714,"ĠMama":13715,"ĠMabu":13716,"ĠMaha":13717,"ĠMaur":13718,"ĠMaris":13719,"ĠMass":13720,"ĠMaham":13721,"ĠMauri":13722,"ĠMalta":13723,"ĠMajor":13724,"ĠMasters":13725,"ĠMagde":13726,"ĠMajemu":13727,"ĠMagazine":13728,"ĠMaures":13729,"ĠMalokun":13730,"ĠMajoli":13731,"ĠMagic":13732,"ĠMayotte":13733,"Ġisese":13734,"Ġisepo":13735,"Ġisesiro":13736,"pÃŃnlÃ¨":13737,"kÃ©kerÃ©":13738,"kÃ©Ã¨dÃ¬":13739,"kÃ©yÃ©kÃ©":13740,"rÃłm":13741,"rÃłwÃ²":13742,"rÃłsÃŃÃ¬lÃ¬":13743,"Ġfese":13744,"Ġfeli":13745,"Ġfema":13746,"Ġnadu":13747,"fele":13748,"ferino":13749,"fÃ¡rÃ¡":13750,"fÃ¡fÃ¡":13751,"Ġlá»įpá»į":13752,"Ġgbeko":13753,"Ġgbeyewo":13754,"Ġáº¸nÃ¬kan":13755,"ÃłÃ¬s":13756,"Ġwiwopo":13757,"Ġjojo":13758,"ĠjoyÃ¨":13759,"Ġjoyin":13760,"ĠjogÃºn":13761,"jÃ©rÃŃÃł":13762,"ĠfÃ©ran":13763,"alin":13764,"alfa":13765,"aller":13766,"allen":13767,"Ġagbaese":13768,"sÃ¨gbÃ¡":13769,"bÃ²bÃ²":13770,"lÃ²pÃ²":13771,"lÃ²mÃ¬ÃŃrÃłn":13772,"ĠojÃºlÃ©":13773,"Ġkabi":13774,"Ġkala":13775,"Ġkata":13776,"Ġkaláº¹":13777,"Ġkakakiri":13778,"Ġ\"\"":13779,"darada":13780,"daramá»į":13781,"sÃ³rÃŃ":13782,"sÃ³dÃŃ":13783,"sÃ³mÃłÃ¡lÃ³":13784,"Ġmaapu":13785,"stru":13786,"stone":13787,"structure":13788,"wÃ¹jo":13789,"wÃ¹rÃ¹":13790,"ĠlÃ¡ÃłrÃ²":13791,"ĠbÃ¨bÃ¨":13792,"ĠAfri":13793,"ĠNoam":13794,"ĠNovi":13795,"nyÃŃn":13796,"ares":13797,"funjowo":13798,"sugbon":13799,"tuntun":13800,"ĠÃ©e":13801,"ĠÃ©Ã©":13802,"ĠÃ©Ã¨":13803,"ĠÃ©Ã¨dÃ¬":13804,"Ġojokandinlo":13805,"Ġojogbom":13806,"ĠmÃ©jÃ¬lÃ©lÃ³":13807,"ĠkÃ©jÃ¬":13808,"ĠkÃ©kere":13809,"ĠkÃ©jÃ¬lÃ¡":13810,"ĠNig":13811,"ĠNidesand":13812,"ĠNijáº¹r":13813,"ĠbÃła":13814,"tÃłbÃŃ":13815,"tÃłpÃ¡":13816,"tÃłdÃŃn":13817,"tÃłlÃ¬":13818,"ĠÃłkÃ³já»į":13819,"ĠÃłkÃ³sÃ³rÃŃ":13820,"kÃłnlÃ©":13821,"fomo":13822,"foju":13823,"found":13824,"forami":13825,"1913":13826,"1943":13827,"1927":13828,"1956":13829,"1939":13830,"1952":13831,"1969":13832,"1959":13833,"1964":13834,"ĠdÃºkÃ¹Ãº":13835,"ĠdÃºkÃłÃ¡":13836,"toripe":13837,"habi":13838,"Ġolugba":13839,"Ġolusegun":13840,"Ġoludarapomora":13841,"Ġolumusin":13842,"pig":13843,"piri":13844,"pion":13845,"pice":13846,"pirini":13847,"piano":13848,"pical":13849,"ĠNÃłÃ¬jÃ©rÃŃÃł":13850,"dá»įta":13851,"sÃłbÃŃ":13852,"sÃłÃ¡n":13853,"sÃłgÃ¡":13854,"ĠayÃ©Ã¨":13855,"ĠayÃ©bÃ¡yÃ©":13856,"á¹£efÃŃnnÃŃ":13857,"ĠUK":13858,"ĠUgbo":13859,"ĠUkra":13860,"ĠUmaru":13861,"ĠUforami":13862,"Ġpojulo":13863,"Ġpoly":13864,"Ġpoet":13865,"ĠpolÃ³wÃ³":13866,"mÃºbá»į":13867,"mÃºwÃłgÃºn":13868,"ĠOrÃŃs":13869,"ĠOrÃŃlÃ©":13870,"ĠOrÃŃkin":13871,"bÃ¹rÃ¹":13872,"ĠkÃ¬jikÃ¬":13873,"Ġedema":13874,"báº¹ráº¹":13875,"hes":13876,"heim":13877,"heat":13878,"out":13879,"ouse":13880,"ouÃ«":13881,"Ġiyemeji":13882,"ĠBale":13883,"ĠBaki":13884,"ĠBaha":13885,"ĠBaden":13886,"ĠBaÃ¡lÃ©":13887,"ĠBaraka":13888,"ĠBabangi":13889,"ĠBarack":13890,"ĠBauchi":13891,"ĠBaÃłjÃŃ":13892,"ĠBadagry":13893,"ĠBayaji":13894,"king":13895,"kindÃ©":13896,"ĠOlopa":13897,"ĠOlofin":13898,"Ġgiri":13899,"ĠKejÃ¬":13900,"ĠKeshi":13901,"ĠDee":13902,"ĠDel":13903,"ĠDesert":13904,"rÃ¹u":13905,"rÃ¹lÃ©":13906,"rÃ¹kÃ³Ã³":13907,"ĠmÃ²Ã²kÃ¹n":13908,"kÃ¹rÃ³":13909,"kÃ¹tÃ©":13910,"ĠmÃŃlÃŃá»į":13911,"ĠmÃŃÃŃrÃłn":13912,"ĠÃ¬dÃŃwÃ³":13913,"ĠlÃ²dÃ¬":13914,"ĠAkala":13915,"ĠAkadáº¹":13916,"ĠAkademy":13917,"ĠOlÃ³ye":13918,"ĠOlÃ³wÃ¡lÃłgbÃł":13919,"Ġtáº¹le":13920,"Ġká»įrin":13921,"Ġká»įá»įkan":13922,"pÃ¨lÃº":13923,"Ġ33":13924,"Ġ37":13925,"Ġ38":13926,"Ġ39":13927,"Ġ300":13928,"Ġ3000":13929,"ĠjÃ¡ko":13930,"ĠjÃ¡lÃ¨":13931,"ĠjÃ¡bÃ²":13932,"rÃºntÃ³":13933,"Ġayejoun":13934,"Ġayeodeoni":13935,"Ġayeraye":13936,"ĠfÃŃfÃ²":13937,"ĠfÃŃfÃ©":13938,"ĠfÃŃfá»į":13939,"ĠfÃŃdÃŃÃ²":13940,"Ġjado":13941,"Ġjapo":13942,"fufu":13943,"fulde":13944,"ĠawoÃ²n":13945,"ĠsÃ¡lo":13946,"ĠsÃ¡fÃ©":13947,"ĠsÃ¡bÃłÃ¡":13948,"Ġpáº¹kipáº¹":13949,"Ġapakan":13950,"Ġapaipin":13951,"pÃ©Ã¨":13952,"ĠÃ¬wÃ¡rÃŃ":13953,"ĠÃ¬wÃ¡sáº¹":13954,"ved":13955,"anuatu":13956,"lymph":13957,"Ġsafi":13958,"Ġsatan":13959,"Ġsasa":13960,"Ġsakitiyan":13961,"Ġsatunse":13962,"Ġnigbato":13963,"LÃ¡yÃ©":13964,"LÃ¡báº¹":13965,"jÃ¹mÃº":13966,"gÃŃyÃł":13967,"lÃŃfÃŃÃł":13968,"sing":13969,"sinki":13970,"Modern":13971,"Ġyewo":13972,"Ġyeye":13973,"jokovic":13974,"ĠolÃ¹s":13975,"ĠolÃ¹tÃ¨":13976,"ĠolÃ¹sÃ²":13977,"ĠolÃ¹dÃŃje":13978,"ĠolÃ¹pilÃ¨sÃ¨":13979,"ĠAlÃ¡kÃ²":13980,"ĠAlÃ¡rÃ©":13981,"ĠAlÃ¡pÃł":13982,"Ġsá»įkun":13983,"ĠpÃ²we":13984,"ĠOnoja":13985,"esz":13986,"anafilasisi":13987,"analandi":13988,"ĠIleasofin":13989,"Ġ2014":13990,"OrÃŃláº¹":13991,"OrÃŃkin":13992,"Ġrada":13993,"Ġradarada":13994,"terloo":13995,"aralu":13996,"nÃ¡ÃłnÃ¬":13997,"Ġgboko":13998,"Ġgbomo":13999,"Ġgboye":14000,"Ġgbogun":14001,"Ġgbojulo":14002,"Ġgbokiki":14003,"Ġgbolohun":14004,"Ġgbojule":14005,"atisi":14006,"Ġagbere":14007,"Ġagbede":14008,"Ġagbekale":14009,"Ġagbehinde":14010,"Ġidie":14011,"Ġidil":14012,"Ġidipo":14013,"ĠÃ¬yÃŃn":14014,"ĠÃ¬yÃŃpÃł":14015,"ĠÃ¬yÃŃsÃ³dÃŃ":14016,"ĠbabaÅĦlÃ¡":14017,"Ġnitorie":14018,"ĠirÃºgbÃ¬n":14019,"ĠmÃ¡jáº¹":14020,"jÃ¡wÃ¹rÃ¹":14021,"vice":14022,"viridae":14023,"Ġ)âĢĿ":14024,"Ġinure":14025,"hop":14026,"hosa":14027,"hoong":14028,"Ġ175":14029,"Ġ1716":14030,"Ġ1717":14031,"Ġ1763":14032,"Ġ1756":14033,"Ġ1705":14034,"Ġ1735":14035,"Ġsub":14036,"Ġsure":14037,"Ġsuta":14038,"Ġsubu":14039,"Ġsuuru":14040,"ĠkÃ¡láº¹":14041,"ĠkÃ¡dÃ¬ÃŃ":14042,"ĠkÃ¡mÃ©":14043,"ĠkÃ¡wÃŃ":14044,"ĠkÃ¡lukÃº":14045,"ĠkÃ¡lÃ¡mÃ¹":14046,"ĠkÃ¡kÃłkiri":14047,"rÃŃnwÃ³":14048,"ĠpÃłse":14049,"ĠpÃłro":14050,"ĠpÃłmÃ²":14051,"ĠpÃłgÃ³":14052,"ĠpÃłsÃ¡n":14053,"ĠpÃłjÃ¡wÃ¹rÃ¹":14054,"ĠyojÃº":14055,"Ġteletele":14056,"higbe":14057,"ĠsÃ©yÃ¬n":14058,"ĠÃłsá»į":14059,"ĠÃłsáº¹":14060,"ĠÃłsÃ²n":14061,"ĠÃłsÃ¡lÃ©":14062,"ĠÃłsÃ¹njÃ¹":14063,"ĠÃłskÃ¬yÃ¨sÃŃ":14064,"BÃ¡wo":14065,"rÃ¡ns":14066,"rÃ¡ntÃŃ":14067,"rÃ¡nkÃº":14068,"Ġelegbe":14069,"Ġeleyo":14070,"Ġelect":14071,"Ġelement":14072,"Ġeleegun":14073,"Ġelesese":14074,"ĠÃ²kÃ¨rÃ¨":14075,"ĠToyin":14076,"ĠasÃ¡lÃ¨":14077,"Ġassemb":14078,"ĠsÃ³de":14079,"ĠsÃ³jÃº":14080,"ĠsÃ³pin":14081,"ĠsÃ³tÃ²":14082,"ĠsÃ³dÃ²":14083,"Ġmáº¹rin":14084,"ĠOlÃºbo":14085,"ĠOlÃºwÃł":14086,"ĠOlÃºmÃ²":14087,"ĠOlÃºbÃłdÃłn":14088,"ĠOlÃºbÃ¡kÃŃn":14089,"tÃºmá»į":14090,"tÃºsÃ¬n":14091,"tÃºkÃ¡":14092,"ĠÃłÃłbo":14093,"ĠÃłÃłráº¹":14094,"cas":14095,"cabulary":14096,"Ġojuse":14097,"Ġojutu":14098,"Ġojuibi":14099,"Ġojuonai":14100,"Ġidaji":14101,"Ġidaran":14102,"Ġidaduro":14103,"Ġidaabo":14104,"Ġidaloruko":14105,"dáº¹káº¹":14106,"inua":14107,"Ġipolongo":14108,"ĠipomÃ©jÃ¬":14109,"Ġrole":14110,"Ġrolu":14111,"Ġroyin":14112,"rÃ¬nlÃ©lÃ³":14113,"rÃ¬nÃłjÃ²":14114,"rÃ¬nlÃ©lÃ¡ÃłÃ¡":14115,"ĠsÃ²rÃŃ":14116,"Baby":14117,"Baptist":14118,"BaktÃ©rÃŃÃł":14119,"Ġyagbe":14120,"ĠarÃ¡yÃ©":14121,"Ã¨rÃ¨kÃ¨rÃ¨":14122,"ĠMost":14123,"ĠMossi":14124,"ĠModupe":14125,"ĠMosalasi":14126,"ĠMoscow":14127,"ĠMojave":14128,"ĠdÃładÃ¡a":14129,"ĠAlade":14130,"ĠAlabama":14131,"ĠÃ¬pÃŃnlÃ©":14132,"ĠÃ¬pÃŃnyÃł":14133,"ĠKate":14134,"ĠKamo":14135,"ĠKakan":14136,"ĠKalu":14137,"ĠKayo":14138,"ĠKapu":14139,"ĠKash":14140,"ĠKayode":14141,"ĠKalifonia":14142,"miniomu":14143,"tÃºnjÃŃ":14144,"tÃºnpÃ¨":14145,"Ġkule":14146,"Ġyinyin":14147,"ĠelÃ©de":14148,"ĠelÃ©gbÃ¨":14149,"ĠelÃ©sÃ¨":14150,"ĠelÃ©mÃ²sÃ³":14151,"ĠerÃ©e":14152,"guai":14153,"guese":14154,"gueri":14155,"guilla":14156,"pula":14157,"enuko":14158,"ĠÃ¬yÃ¡ra":14159,"kÃºnrin":14160,"kÃºnrÃ©":14161,"kÃºnnÃ¹":14162,"kÃºndÃ¹n":14163,"verse":14164,"ĠdÃ³ri":14165,"ĠdÃ³ko":14166,"ĠdÃ³jÃº":14167,"ĠObaluaye":14168,"ĠÃĴkÃ¨s":14169,"ĠÃĴkÃ¨ba":14170,"ĠÃĴkÃ¨nÃŃs":14171,"ĠÃĴkÃ¨kÃłngÃ¡":14172,"Ġliri":14173,"Ġliana":14174,"ĠÃłgbÃłlÃłgbÃł":14175,"KÃ²kÃ²rÃ²":14176,"ĠVes":14177,"Ġiruipele":14178,"rister":14179,"Ġ1935":14180,"come":14181,"counta":14182,"Ġangbadura":14183,"Ġanfaani":14184,"hanti":14185,"ĠbÃ³rá»į":14186,"ĠbÃ³tiláº¹":14187,"ĠAlbert":14188,"ĠAllian":14189,"ĠAlhaji":14190,"ĠAllicin":14191,"tÃ¡Ã¡":14192,"tÃ¡zar":14193,"ĠtÃºtÃ¹":14194,"Ġayamaapu":14195,"ĠkejÃ¬lÃ¡":14196,"ĠkejÃ¬dÃŃnlÃ³gÃºn":14197,"ĠkejÃ¬lÃ©lÃ³gÃºn":14198,"ciÃ³":14199,"cipe":14200,"cial":14201,"cios":14202,"cium":14203,"ciÅĦski":14204,"ding":14205,"dinku":14206,"dinlá»įgá»į":14207,"dinamarca":14208,"Ġipamo":14209,"Ġipalara":14210,"Ġipalemo":14211,"ĠlÃłbÃł":14212,"Ġigbeka":14213,"Ġigbeyin":14214,"Ġigbega":14215,"Ġigbekale":14216,"Ġigbeyewo":14217,"ÃĮdÃŃlÃ©":14218,"ĠÃłpÃ³tÃŃ":14219,"Ġ1646":14220,"Ġ1638":14221,"ĠMarsi":14222,"ĠMarwa":14223,"ĠMartina":14224,"ĠMargueri":14225,"Ġoffi":14226,"ganran":14227,"ganisation":14228,"Ġ48":14229,"Ġ49":14230,"Ġleyinju":14231,"bÃ¬tÃ¬":14232,"Ġounkoko":14233,"ĠÃ¬bÃ¡tan":14234,"ĠJutland":14235,"káº¹rin":14236,"káº¹hÃ¬n":14237,"Ġorobo":14238,"Ġoroise":14239,"Ġorunko":14240,"Ġfori":14241,"ĠforÃŃ":14242,"ĠfoÃºn":14243,"Ġfobe":14244,"ĠfohÃ¹n":14245,"Ġforiko":14246,"ĠfolÃºkÃ©":14247,"Ġfoundation":14248,"fÃŃÃ¬sÃ¬":14249,"nett":14250,"ĠgbilÃ¨":14251,"Ġgbiláº¹":14252,"Ġ5000":14253,"ĠjÃŃjáº¹":14254,"ĠjÃŃjÃ³":14255,"ĠjÃŃjÃł":14256,"ĠjÃŃjuwÃ³":14257,"Ġyanrin":14258,"ĠyangÃłn":14259,"ĠgÃŃgÃ¹n":14260,"ĠSeles":14261,"ĠSemitic":14262,"ĠSebasti":14263,"cken":14264,"mando":14265,"askalaki":14266,"ĠÃłgbÃ©yÃ©":14267,"ĠÃłgbÃ©kÃł":14268,"ĠÃłgbÃ©jÃ¡de":14269,"ĠÃłgbÃ©kaláº¹":14270,"ĠReese":14271,"ĠReggae":14272,"ĠReich":14273,"ĠbuyÃ¬":14274,"ĠÃłÃ¡do":14275,"ĠÃłÃ¡rÃŃ":14276,"ĠÃłÃ¡ráº¹":14277,"Ġ1927":14278,"sÃ²kÃ¨":14279,"Ġ90":14280,"Ġ93":14281,"Ġ99":14282,"Ġ943":14283,"Ġ117":14284,"ĠIsla":14285,"ĠIsaac":14286,"ĠBokan":14287,"ĠBoxer":14288,"ĠBojÃºwo":14289,"kÃ²Ã³so":14290,"ronka":14291,"Ġnombamewa":14292,"ĠÃłfibÃ²":14293,"ĠÃłfiyÃ¨sÃŃ":14294,"ĠAnti":14295,"ĠAntil":14296,"ĠAndea":14297,"ĠAntoine":14298,"ĠAnnie":14299,"diac":14300,"ĠLÃ¡ÃŃ":14301,"ĠLÃ¡pÃ¡":14302,"ĠLÃ¡oyÃ¨":14303,"ĠLÃ¡rÃ¹bÃ¡":14304,"sonu":14305,"ĠSabin":14306,"ĠSabon":14307,"ĠSahara":14308,"ĠSaturn":14309,"oloro":14310,"yÃ¡nrin":14311,"Ġcy":14312,"Ġcar":14313,"Ġcard":14314,"Ġcentu":14315,"Ġcredi":14316,"Ġcorre":14317,"Ġdoko":14318,"Ġdopin":14319,"Ġdotun":14320,"Ġdokita":14321,"ĠdolÃ³Ã²":14322,"ĠAkingbe":14323,"ĠAkintola":14324,"ĠmÃ©jÃ¨Ã¨ji":14325,"ĠosÃ¹n":14326,"Ġosoni":14327,"Ġosuwon":14328,"Ġosupo":14329,"Ġnibii":14330,"Ġnibikibi":14331,"ĠÃłgbÃ¡te":14332,"ĠÃłgbÃ¡kÃ²":14333,"ĠÃłgbÃ¡jÃ©":14334,"ĠÃłgbÃ¡lÃ¡ayÃ©":14335,"ĠranjÃº":14336,"hine":14337,"iseala":14338,"mÃłwÃ©":14339,"mÃłkin":14340,"Ġaboju":14341,"ĠsÃ¨kejÃ¬":14342,"unior":14343,"NÃŃtorÃŃpÃ©":14344,"ĠÃºnlo":14345,"ĠÃºndÃ¡":14346,"pÃŃÃ¬":14347,"Ġtumá»į":14348,"ĠtÃ¬e":14349,"ĠtÃ¬re":14350,"ĠolÃºkÃ¡lukÃº":14351,"Ġ153":14352,"Ġ1500":14353,"Ġ1540":14354,"Ġ1554":14355,"Ġ1502":14356,"Ġ1507":14357,"lasika":14358,"ĠLaun":14359,"ĠLaur":14360,"Ġonka":14361,"ĠonÃŃnÃ¡":14362,"Ġaseye":14363,"Ġasepo":14364,"Ġaseku":14365,"Ġaseodeoni":14366,"Ġasefisi":14367,"Ġasipirini":14368,"Ġinkan":14369,"Ġinsi":14370,"ĠkÃ¹rÃ²":14371,"ĠkÃ¹kÃ¹tÃ©":14372,"ĠÃ¬lÃłkÃłkÃł":14373,"ĠOrilee":14374,"ĠBene":14375,"ĠBeng":14376,"ĠBennett":14377,"ĠMik":14378,"ĠMimá»į":14379,"ĠMirÃ³":14380,"ĠMilan":14381,"ĠMiff":14382,"ĠMichele":14383,"ĠMicron":14384,"ĠMilionu":14385,"ĠalÃ¡wÃ²mÃ³":14386,"Ġfarao":14387,"Ġfaramo":14388,"Ġfarasin":14389,"wÃºrÃł":14390,"Ġsunki":14391,"ĠsunkÃºn":14392,"Ġikanni":14393,"ĠÃ¬gbÃ©sáº¹":14394,"ĠÃ¬gbÃ©kaláº¹":14395,"ĠÃ¬gbÃ©wá»įra":14396,"Ġgaan":14397,"Ġgalaksi":14398,"Ġgauss":14399,"ĠJoan":14400,"ĠJowo":14401,"ĠJosef":14402,"jinÃŃÃł":14403,"phouÃ«":14404,"Ġjiyan":14405,"ĠjiyÃ¡n":14406,"ĠyÃ©ni":14407,"ĠyÃ©wÃ¡ndÃ©":14408,"ĠyÃ©kÃ©yÃ©kÃ©":14409,"Ġerookan":14410,"Ġ600":14411,"Ġ639":14412,"Ġaimo":14413,"Ġaisi":14414,"Ġaipe":14415,"Ġaiku":14416,"Ġaiá¹£e":14417,"Ġadaba":14418,"Ġadase":14419,"Ġadajo":14420,"Ġadawa":14421,"Ġiyatá»į":14422,"quis":14423,"quid":14424,"quire":14425,"quanti":14426,"Ġatojo":14427,"Ġatorawo":14428,"ĠlÃ¡Ã¬bÃ¡":14429,"ĠlÃ¡yÃ©lÃ¡yÃ©":14430,"ĠRose":14431,"ĠRoberts":14432,"Tira":14433,"mend":14434,"mento":14435,"Ġasopo":14436,"ĠlÃŃtÃŃ":14437,"ĠlÃŃlÃ¹":14438,"ĠlÃŃifi":14439,"Ġláº¹áº¹kan":14440,"ĠÃ¬dÃ¡jÃŃ":14441,"ĠÃ¬dÃ¡hÃ¹n":14442,"ĠÃ¬dÃ¡sÃ¬kÃ²":14443,"ĠyÃ¡ra":14444,"ĠdÃ¬rÃ²":14445,"ĠdÃ¬mÃº":14446,"ĠdÃ¬tÃ¨":14447,"Lee":14448,"Lewis":14449,"Max":14450,"Mali":14451,"Ġsanra":14452,"Ġsinmi":14453,"Ġsinyi":14454,"Ġsingle":14455,"Ġibale":14456,"Ġibalo":14457,"Ġ1200":14458,"ĠrÃ¡nmÃº":14459,"ĠJazz":14460,"ĠJagbÃ³jÃº":14461,"ĠJacob":14462,"ĠJakande":14463,"ĠJayÃ©jayÃ©":14464,"ĠJemibe":14465,"ĠpÃ¡ÃłnÃ¹":14466,"enegro":14467,"ĠÃłÃ¬ko":14468,"ĠÃłÃ¬lera":14469,"ĠÃłwÃ²mÃ³":14470,"ticles":14471,"ticulation":14472,"rical":14473,"ĠFrank":14474,"AlÃ¡rÃ¨":14475,"AlÃ¡pÃł":14476,"AlÃ¡dÃ¹ÃŃgbÃ²":14477,"Joe":14478,"Johann":14479,"Ġpile":14480,"Ġpipin":14481,"Ġpipá»įn":14482,"Ġpilus":14483,"ĠBraithwaite":14484,"ĠkÃ©kerÃ©owÃ³":14485,"ghts":14486,"mÃ¡wÃ¡":14487,"mÃ¡á¹£e":14488,"mÃ¡ÃŃkÃł":14489,"Ġ77":14490,"Ġ79":14491,"Ġnikansoso":14492,"Ġirins":14493,"Ġirinse":14494,"Ġpinya":14495,"Ġdanto":14496,"ĠNeander":14497,"ĠNedalandi":14498,"Ġáº¹nitÃŃ":14499,"ĠLee":14500,"ĠLeg":14501,"ĠLeo":14502,"ĠLeyin":14503,"ĠLeRo":14504,"ĠLeopo":14505,"ĠLewis":14506,"ĠLeib":14507,"ĠLekta":14508,"ĠLevine":14509,"184":14510,"186":14511,"1840":14512,"1830":14513,"1817":14514,"1852":14515,"Ġwuwo":14516,"ĠwuyÃ¬":14517,"ĠkÃłwe":14518,"ĠkÃłkÃł":14519,"ĠkÃłkÃºn":14520,"Ġlaipe":14521,
[...]
