#version: 0.2
Ġ n
a n
w a
Ġn i
g a
e n
l a
Ġn ga
l i
t o
t e
Ġ s
k a
m a
d o
Ġs a
Ġ ka
Ġ a
g i
t an
Ġ ma
en do
x t
te xt
endo f
< |
| >
endof text
u la
. <|
n g
Ġ gi
o y
Ġma oy
Ġgi h
Ġka li
wa y
wa tan
Ġkali watan
g way
ula gway
Ġgih ulagway
to ng
Ġa d
Ġad tong
Ġ 1
Ġ1 9
u s
e r
i n
Ġ u
i s
n a
a r
s e
an g
t a
o n
c h
Ġ b
Ġ l
r i
Ġu na
Ġ in
k to
ga w
Ġ1 8
o r
Ġin se
Ġinse kto
Ġl an
Ġlan gaw
e s
e l
r a
Ġ S
t i
o p
o s
Ġ M
Ġu g
a k
i a
Ġ B
i l
t h
s i
u k
Ġb ak
Ġ H
Ġ C
o m
Ġ p
a l
Ġ A
uk ang
Ġbak ukang
i c
r e
o l
u m
Ġ L
Ġ m
p h
Ġ G
r o
Ġ W
Ġ J
l e
d a
Ġ F
Ġ P
h i
Ġ R
a m
Ġ D
u n
en s
Ġ c
t us
0 0
u l
Ġ19 9
a s
Ġ19 8
Ġ K
o g
si w
Ġ T
o d
Ġ 2
an a
Ġ19 7
Ġ19 6
Ġ2 00
Ġ k
u r
b ang
a g
Ġ h
te r
Ġ E
li s
i d
Ġ19 2
o c
Ġka ka
ens is
Ġ19 1
Ġ19 3
Ġ d
Ġ19 0
a c
i ng
an d
Ġ19 5
o b
m i
r is
Ġ v
Ġ t
Ġ f
Ġ tan
r y
r us
e c
s a
Ġ18 9
Ġtan om
e a
i t
b a
op h
i m
b er
e d
o h
m an
c a
o t
Ġa li
Ġa la
i p
i g
Ġ N
in a
y l
Ġ O
ĠC h
n e
siw siw
Ġala siwsiw
Ġ V
ĠW il
r an
Ġ19 4
o v
e p
e t
ri ch
s p
u b
s on
hi la
u y
la d
h a
el la
ta se
Ġ is
q u
bang bang
Ġali bangbang
Ġk rus
u c
tase o
Ġkrus taseo
ri c
Ġm ga
i us
er a
o ma
u g
Ġ ang
e i
el l
Ġ18 8
Ġ g
a p
a ta
o ng
Ġ18 6
ĠM ar
te s
Ġis da
e m
li n
ĠJ oh
ga s
i ch
i r
u d
o ch
k er
Ġ18 5
ar l
y s
uy og
to n
Ġb uyog
l an
a y
Ġ e
Ġ18 7
ti lad
ar d
o na
a t
Ġ I
o la
Ã ©
ĠT h
le x
ar ag
in i
Ġa sp
u ra
e v
k i
r d
f f
e li
op s
Ġn a
er i
arag os
Ġasp aragos
y a
n d
a b
ic a
or a
ĠS ch
ĠH en
er o
and er
Ġv on
u t
r os
P h
Ġ la
g an
t en
c us
Ġa l
n is
ĠM a
i e
om y
l od
g e
a e
Ġ18 4
y p
an n
en t
man n
ĠA lex
ĠS te
al l
u li
Ġ Z
Ġ18 3
C h
P ar
s ch
r on
Ġu lod
u do
y c
en a
o w
o li
ĠE d
id es
a v
e us
o u
l l
a d
r u
ĠAlex ander
ĠWil li
o k
e y
o ri
b i
an th
t is
ĠJoh n
o e
os a
ĠWilli am
Ġ re
an i
d i
t in
Ġl ang
Ġs i
ga m
e b
Ġt un
y n
Ġ1 7
p a
m us
Ġtun gaw
en d
Ġh ol
wa rd
li a
A n
Ġ Y
ĠW al
si ng
ro c
ber t
ri a
e an
Ġm an
e ph
do n
Ġhol mi
Ġholmi gas
ĠF ri
Ġh en
Ġ i
h el
to r
Ġlang gam
an us
ĠC arl
t ra
v a
u p
ĠA l
omy ia
Ġhen ero
il l
Ġs ing
y r
ti c
er t
o ta
r es
Ġ tilad
Ġtilad tilad
la t
an s
ĠH er
am p
ri p
i er
Ġsing sing
N e
ĠF ran
M e
i li
o se
Ġ hila
to p
ĠL e
p an
e z
a la
t r
Ġnga lan
e in
ĠL in
Ġe k
oma s
i k
a li
i f
n er
Ġhila hila
Ġgih ata
ar a
m er
ĠB re
ĠG e
Ġgihata gan
th er
sa kto
d er
P se
f an
Ġek sakto
o ides
y o
ch i
m e
k e
ĠSte fan
ĠEd ward
l er
od es
ti l
le y
hel m
tan g
s h
ĠJ ean
ra c
s t
ana p
Ġ ta
o th
te l
ĠTh omas
ĠWil helm
un ing
Ġb ana
ĠBre uning
Ġd e
Ġp ag
y m
ĠGe or
Ġman anap
ĠWal ker
Ġ da
ĠJoh ann
z a
ĠHen ry
Ġni g
ĠFri ed
u ri
r op
ĠFried rich
Ġbana og
ula ta
ug us
us a
c k
p in
L ep
u ng
h an
ar t
ĠB r
Ġ j
ula k
c e
la v
ac qu
ĠF re
ĠA ugus
ĠR ob
t ri
Ġ18 2
c ta
i la
or d
ph a
Ã ¼
Ġ li
ic k
ic us
Ġ ch
ti a
t ar
o do
il us
A c
e ter
ĠA r
ul us
ra s
Ġb a
Ġka ga
is i
to m
l d
yl l
Ġ199 4
o x
r en
p i
to s
Ġb ulak
u da
ops is
en nis
a ch
on gi
te ra
ĠJ ose
t um
ang an
y d
R h
Ġ198 3
ĠCh ris
ri d
Ġ199 8
Ġ199 3
c is
er us
Ġ200 4
e g
li p
c ia
Pse udo
in e
Ġ198 8
m p
ĠHer mann
ĠG i
la s
Ġ199 1
Ġc on
Ġ190 8
en ta
Ġ U
Ġ200 0
Ġ191 1
ĠS a
Ġni ini
m b
y an
Ġ198 7
ĠH ein
Ġ r
a ul
Ġ199 2
Ġ198 1
Ġ191 0
i i
ra ch
ĠA n
Ġ196 5
Ġ an
Ġre p
Ġkaga angan
Ã ¶
Ġna hi
Ġ200 3
Ġ199 5
en g
s u
Ġa r
mi th
id i
ĠH ar
ĠHein rich
or us
Ġ199 0
y on
s us
y ang
Ġ197 9
T h
Ġ193 8
Ġ196 8
i v
Ġ192 7
e x
Ġ198 4
Ġ198 6
os us
ĠB o
Ġma tang
Ġ200 2
k o
ĠS h
Ġbak i
Ġ199 9
to ma
on e
op hila
ar i
Ġ197 1
l os
in us
Ġp a
Ġ199 7
A ng
Ġ198 0
ana w
Ġrep til
Ġ198 5
ĠB ar
Ġ191 5
ch us
Ġb it
Ġ196 4
z i
c i
ĠA nd
ĠJose ph
Ġali nd
Ġalind anaw
Ġ197 8
d es
or nis
Ġ198 9
Ġ197 7
Ġ w
Ġ200 6
Ġ192 4
Ġ196 7
Ġ197 4
c u
Ġ196 2
ch er
Ġ ru
Ġ ga
Ġ190 7
Ġl ongi
y ph
Ġ197 0
Ġa tong
us ta
Ġ190 6
Ġs ub
Ġ200 5
on d
Ġl um
Ġp ar
ĠGeor ge
Ġ192 6
Ġ197 2
Ġ198 2
Ġ199 6
il la
Ġ196 9
il le
m o
n i
M ic
Ġma c
Ġf lav
ĠS mith
o i
Ġ197 3
Ġ193 6
ti an
r om
re v
im on
t ro
o tus
Ġlum ot
ĠB or
Ã Ń
Ġ193 4
u ma
Ġ200 7
Ġs isi
to c
or m
er s
Ġ193 5
Ġ196 0
U sa
y i
b o
ry s
arl es
u a
al us
h o
Ġ193 9
Ġ og
Ġ192 5
t z
ur us
ki ta
ĠCh arles
am es
Ġp ul
Ġ192 2
el e
Ġ192 9
ka b
ri g
e ta
ma r
ff er
ula tus
ub os
Ġ192 8
un d
u i
Ġn ag
il e
ka y
t y
Ġma kita
al li
to ph
Ġ196 1
th a
Ġ200 1
c o
en i
ĠG ra
ĠC a
Ġ191 4
p is
ber g
ra m
u na
z e
ĠL ou
P ol
ĠD e
ĠJ ames
Ġnahi ubos
Ġ usa
Ġi yang
Ġ190 2
i ta
ĠO s
p us
el li
acqu es
Ġ195 6
t yl
ti g
l us
ĠRob ert
Ġ190 5
ric k
w ig
ĠMar tin
ol d
Ġu k
am b
o da
ĠL a
ti ca
Ġp er
ĠHen ri
ĠL uc
Ġ195 9
ĠChris tian
ĠR e
op us
ic ol
ar ia
ĠLou is
Ġ197 5
or n
Ġ191 3
A p
ĠP ier
ĠS imon
Ġ rip
es c
s ki
Ġ196 3
Ġ192 3
Ġ193 2
gi n
h am
ry p
ro v
L a
Ġ193 7
Ġd i
ti p
e la
ĠR a
on i
Ġ190 4
ĠV an
ol yo
Ġ190 1
ga t
ĠLin na
om p
ia s
Ġ wa
ĠB a
oc ker
Ġrip olyo
y ch
il li
Me ga
ĠP eter
ĠM ey
ep s
Ġ197 6
i o
Ġ189 5
ba y
Ġ190 3
ĠB er
gas ter
ĠZ h
y g
Ġ192 1
e k
Ġ ob
ĠV er
Ġ189 8
Ġu n
Ġ195 7
l y
Ġ196 6
Ġ194 1
u hi
ĠD av
on ia
ĠK arl
Ġ ro
Ġs p
Ġ191 7
P ro
Ġal b
A r
tel la
t te
Ġ195 1
in s
A l
A m
i b
ĠTh e
h ong
m id
Ġ195 5
Ã ³
O r
O n
Ã ¡
Ġru f
Ġb rev
hi lip
ĠAugus te
Ġm in
Ġ qu
c ar
Ġ195 2
en ia
ĠF or
ĠK a
e uc
Ġ195 4
u ric
ĠP er
Ġ195 3
im p
ec k
o od
Ġ191 2
d ia
es t
s um
ta ta
al e
v er
ro w
Ġ19 00
oe w
ot t
ag us
en se
Ġ189 7
r in
ph i
Ġ194 0
k y
ĠL ud
ch a
i el
ĠC ocker
e th
ĠCocker ell
A na
ĠPier re
S c
t t
ĠG il
ti cus
x i
y ia
ĠB ur
a ga
ip es
ar p
ĠP ar
ĠM c
Ġ (
ĠF a
ĠM ich
Ġ hi
ĠC la
s en
Ġu hong
Ġ190 9
u h
udo l
ĠLud wig
ĠH ans
Ġ193 1
v e
Ġ191 8
ĠP aul
Ġ189 6
Ġd is
ĠL i
ĠR udol
Ġ189 9
y b
n y
Ġb ul
ĠT a
Ã¼ n
P lat
ĠF er
ĠSch mid
oc eph
s is
Ġma r
am er
ĠC o
r un
th oph
ul t
ra d
e u
Ġ200 8
v i
l o
Ġma g
Ġ195 0
Ġm on
ĠG Ã¼n
ĠH ol
M ac
n us
e w
Ġ189 4
Ġda gat
Ġ or
ĠP hilip
Ġ z
Ġ191 9
it z
am ber
Ġ o
as on
r ena
i do
y la
Ġ193 0
ĠGÃ¼n ther
Ġ191 6
Ġ lin
u ta
Ġ195 8
ron s
el an
f re
og on
Ch rys
un cta
H yd
ma c
ĠMey rick
Ġ193 3
ĠY ang
ti f
ĠR ich
ĠG u
ĠA d
s te
E u
as a
Ġ do
ev ich
S ten
Ġ187 8
P er
ĠG usta
ĠAl bert
ĠFran cis
na ta
ĠK ie
n es
Ġb ay
C amp
Ġbit in
o is
ic ola
l or
ĠGil bert
h e
ula ris
ĠF is
Ġ188 9
ĠCh amber
ph us
y x
l la
M es
J acques
ĠKie ffer
Ġc ar
ov a
ĠFre der
ĠM or
v ar
os er
Ġal uhi
Ġaluhi pan
op a
L i
Ġ18 1
eli a
t ti
ĠE r
ĠS an
ĠD u
ĠJ r
as cia
T rich
ĠS p
a ma
Ġ X
ĠD el
ĠG or
ĠChamber lin
Ġ188 8
le c
ĠBr un
Ġ och
li ng
C o
ĠS t
Ġ186 3
w or
H yp
ĠRich ard
k s
Ġm i
ab ric
e mi
ĠLinna eus
ec ker
Lep to
Ġa p
D i
Ġ188 7
l es
T et
Ġf us
ĠMa uric
ona ld
s c
ĠL oew
ĠFreder ick
Ġk in
ip ennis
g en
Ġ18 0
ĠK ar
ĠMauric e
ĠAnd re
l and
Ġ189 1
os c
ĠC ur
or ne
ĠH u
ĠF abric
op ter
te ro
ĠFabric ius
la b
ia e
ing bay
Ġbay ingbay
Ġbayingbay ing
g us
ĠGusta v
Ġ189 2
an ga
th us
h t
gi a
son i
un c
ani el
Ġ te
i lis
ĠGi ra
Ġa b
esc ens
Ġt ri
Ġe x
E x
Ġ189 0
d en
oph ora
Ġ192 0
ĠGeor g
ĠS c
i ed
ol oph
ĠRudol ph
i da
ĠEdward s
S p
o z
ĠThe odo
ent ris
ĠGira ult
E n
Ġp ro
Ġ188 5
C al
C era
ĠM e
oc era
b e
u is
op tera
ol us
Ġc a
n o
Ġ194 2
Ġt u
ĠB al
ta g
e se
D ic
on te
orm is
omy za
yl la
Ġ ra
re a
Ġ oc
Ġa c
ĠJ ac
Ġma o
ĠT ow
Ġ17 8
ob ius
Ph yll
Ġ17 9
Ġbul ÃŃ
us su
ĠS er
or e
ĠH o
u on
ĠFre y
g er
all och
ga r
b an
os oma
b ia
ussu re
y na
in ea
ĠD aniel
b us
Ġ th
Ġv i
Ġ ti
ca ta
Ġ183 8
T ri
T ip
yll um
ig en
os p
ch en
Ph y
tyl us
er e
ĠD is
G l
Ġ y
ĠC amer
se y
ĠHar ris
oc k
ĠFa ir
ar c
le m
Ġ194 4
i x
Ġ Q
k an
p e
on is
ĠSa ussure
ĠM alloch
o id
On thoph
ĠDav id
Ġ186 5
Ġt en
Ġ188 6
ĠC ar
â Ģ
Ġh um
E ur
i re
. .<|
ĠCamer on
Ġ194 7
en e
D ia
r and
ĠP a
el on
Onthoph agus
ell us
v en
ĠBor is
Tip ula
c er
s ter
Ġ186 8
ĠTh om
Ġ185 8
An th
n ig
il ang
as c
Ġ194 8
bi lis
Ġb ar
p es
ga l
ar is
ĠThom son
Ġ185 1
ĠW at
Ġ er
La si
h ard
C or
Ġ194 3
Ġ186 9
y ne
Ġ194 9
m s
is ter
ea d
Ġl u
on otus
s o
l f
an ensis
th ur
P s
ĠO li
Ġ17 5
u er
g na
Ġs ch
ic ornis
um on
ros ophila
h er
s ia
u ha
oph aga
in o
en z
Ġ188 2
ĠV ic
p p
Ġ186 4
ĠCh en
A ph
v an
h n
h oe
Ġm ang
ĠW ang
S i
to d
na rd
b ur
t u
Ġqu ad
u el
D end
om us
Ġr ub
s ka
ĠC res
th i
Ã §
er c
ak er
Ġ194 6
ta tus
ĠLuc as
Ġ175 8
en na
ov it
ĠE mer
ĠDel ong
ĠM acqu
Ġg rac
A ll
ĠMacqu art
oph yllum
o to
ar us
li x
m ia
Ġ185 9
A g
A s
es i
e do
or c
Ġ187 7
C on
ĠBa tes
C ol
oc cus
ĠP et
ĠK ra
H en
Par a
f er
Ġ194 5
ul b
u kab
v es
Ġu kab
ĠH ard
ĠB en
ĠAr thur
ra p
ĠM oser
Ġ200 9
C hi
os s
ĠL ec
os ia
P ha
Ġ183 0
g o
or h
Ġ17 7
h r
ka l
ba kay
ĠM u
Ġba kay
Ġbakay bakay
Ġ186 2
. -
ĠJ uli
a el
id ia
ut k
c ol
ĠM at
Ġni ad
Ġk ini
it ch
y th
ĠEr n
Ġs er
in c
k en
t re
ĠG a
om or
E p
Ġ189 3
Ġ us
Ã§ ois
ĠLe on
ĠHard y
M ar
m is
te a
th al
ĠLec onte
Ġd ak
ul l
M a
Ġs pin
e ma
tan a
Ġ186 1
ĠFran Ã§ois
Ġbit uon
ina ta
C ryp
n s
z on
t s
A nd
Ġp se
Ġc or
d t
L euc
ĠFis cher
ĠM ik
Ġsi ya
Ġc ol
og los
B rach
us tra
in er
Ġpul gas
ĠMar y
icol or
H eli
ĠN or
Ġmang ung
Ġ185 5
utk ut
Ġmangung utkut
ĠM ac
p ar
ĠS ta
p er
ton i
ĠJac ob
ĠI an
Ġ185 7
. ,
Ġ2 0
ĠE m
S ca
Ġniad tong
ĠM on
ĠVic tor
Ġ187 5
ĠB ecker
sp is
ĠB aker
Ġ185 3
ri on
ran s
hoe ff
ĠCres son
Ġin ter
ĠH ay
ch ar
i ra
t ris
B ulb
or is
idi um
Mic ro
ĠCa sey
ĠJohann es
ma ta
M on
e to
O x
o ec
ll us
Ġ184 6
u ro
ĠB an
Ġ185 2
Ġ187 2
L im
C a
k in
D as
or um
as s
ĠH a
one ura
Ġ187 1
ĠSchmid t
ph y
ĠO t
te ri
Hen ri
S a
tan t
ĠG re
uli c
u e
al d
Ã ¨
C ha
Ġ x
en us
b y
ov i
i en
d el
Ġ186 0
ora x
Ph il
C op
te tti
es s
os ta
wa r
in ia
Ġm ic
Ġb is
tetti x
Ġp alli
re ma
h l
Ġ ilang
ther ine
ga ta
Bulb ophyllum
Ġ187 3
m on
ar s
ĠS z
ĠFran z
u z
Me ta
ĠEmer y
il d
P ach
S im
u ensis
s ky
Ġv er
Ġ187 4
ap tis
ĠVer hoeff
ĠKa therine
ĠMa h
fre d
ĠCur ran
ry o
l ob
er ia
ĠB la
ch is
as hi
ch ard
en es
m in
rid ge
ĠE nd
iel d
Ġ20 1
ĠN ik
E mp
sh m
D ip
l li
uli um
h ang
ĠMartin s
O p
ĠJuli us
na tus
D oli
c on
o ff
M yc
ĠWil lis
ĠFor el
ei er
Ġc ur
R ha
f era
h in
mi lis
Ġ186 6
ĠP ol
ti on
ĠN e
ell o
ĠAugus t
ĠE v
w ood
ĠB lan
Ġ op
Ġpse udo
ĠA do
Ġf ul
j i
Ġ to
Ġa t
tom yia
ĠC ol
Ġs c
ri x
el us
im us
row n
Ġc ap
ĠS and
ĠMe igen
m es
e mann
ow ska
tr and
d is
Ġp ic
un o
ĠK ei
to ne
ĠM ay
Ġ184 2
Ġb i
op e
ĠA lan
d us
ĠP ic
ne umon
ĠC on
ola s
ma ire
ĠH am
oph orus
ĠB rown
n ick
O phi
ĠLuc ien
r Ã©
lin ea
ĠBan ks
enta lis
Ġn as
ig n
un ka
an c
an o
ri ng
Ġli ryo
A pan
ĠR onald
Ġ184 9
ĠK ir
ev i
ĠA ll
Sim ulium
C ar
r ol
ĠO tte
ĠAn ton
r h
H eter
us e
Ġd ec
ĠT im
oceph alus
Ġ185 0
d in
id us
ne y
t roc
r um
Ġc ras
Ġsa b
ĠA shm
c tylus
ĠA b
ĠB ol
ĠZh ang
ĠAshm ead
ĠH el
ob a
ing h
ba ch
ĠLin d
Ġlin gin
b is
as ch
ĠTh or
S ph
Ġm o
ĠR en
an e
ĠFair maire
o don
in is
ĠCla r
f ield
th es
ot rich
le in
aptis te
ĠErn st
ap p
X anth
ĠMar io
ba yan
Ġ186 7
Ġs in
yc l
Ġnig ri
ĠN av
Ã¡ s
i um
Ġh a
Ac anth
ĠMah unka
ph an
Ã³ r
e ch
ed es
en ko
ona rd
ap on
ĠTheodo r
Ġfus c
ĠA ch
ĠW ied
ĠSh arp
wa ld
ĠMich ael
P ter
ĠSand Ã³r
B a
j a
ĠDis tant
tel es
en n
Ġm ul
K ini
Mega ch
D rosophila
e man
ĠF Ã©
ka wa
ha us
ro g
Ġm elan
Ġin s
ĠG aul
Ġ188 1
Ġ188 3
ĠPet rov
ĠG ar
ĠP or
ĠNik ola
Ġ187 9
top s
b u
ph ora
ĠS ay
i th
ĠGaul d
Doli ch
Megach ile
H op
ob ias
ta c
op ogon
ord an
oglos sum
H e
O li
C er
ĠL o
ĠD o
i mi
ĠG o
Ġk on
Ġv an
ro ch
om e
as il
r uc
qu a
li c
eph alus
ĠLe w
And rena
ĠS ha
Ġ imp
ma s
el le
M y
ĠB ri
tip ennis
inea u
v is
ĠD all
ĠKei th
i ella
do r
Ġb run
ĠW ar
ĠE rich
w o
ol f
ĠSp en
ug o
ĠS am
ĠG er
ĠT obias
v oid
al c
ĠK och
ĠS il
oma la
v entris
os hi
Ġc o
void y
si c
ĠRob ineau
des voidy
f el
G e
Ġma y
nig ht
S te
l um
Lasi oglossum
Ġka y
is ch
ĠL Ã©
Ġ185 6
E up
ra g
Am ph
ascia ta
ĠS trand
S er
re t
n Ã©
ti ng
mi t
la y
ze e
ent rus
ĠM i
s ley
ip p
ez zi
t sch
ĠM as
oceph ala
l u
ic eps
Ġhi r
d e
oph ilus
op ard
e ti
Ã ¥
ĠM an
C la
op er
Ġ184 7
ĠJ ordan
Dic ran
uncta ta
B ar
ĠMar sh
ĠWied emann
ma d
is si
ul p
ych e
se lia
ĠMar tha
n eri
wa g
Ġ183 4
ĠSc ott
b ar
T ab
ĠDu zee
ĠB ezzi
Ġ183 9
m en
to mus
k ins
Ġm ed
ĠHar old
ĠBrun ner
Ġ ele
ĠP lat
Ġhum an
ĠH e
Ġ185 4
ti us
al pus
ic um
as pis
ĠMar ia
er lein
ĠH art
Ġ188 0
ste dt
ten w
ĠW hi
i ensis
Ġn e
Ġg u
ĠGra f
Mega selia
ĠPlat nick
ĠWat tenw
ĠWattenw yl
i es
icol lis
h ason
or st
Ch lor
una y
ell er
Ġ184 4
Ġkin hason
ĠB e
ĠEd gar
rac on
ĠLew is
ca tus
g ren
ĠSch l
ĠSam uel
ak owska
Or th
Ġa ustra
ĠP Ã©
el er
ĠLe onard
Ġ188 4
idi on
ta e
un da
em b
ĠSchl tr
ch neumon
ĠV asil
wor akowska
Ġ et
ĠJ acques
ĠAdo lf
Ġs u
Ġpar v
ĠMar ie
ven h
A us
wa s
ĠK night
Ġus ab
z er
anth a
tte ms
is s
ĠD worakowska
Tab anus
ĠS hi
ĠD a
Ġk an
ĠNor man
ol lis
ĠN a
Ã ¤
ĠI rena
Ġdak bayan
ĠV i
ĠA ttems
ul eng
ul osa
ou ng
t ria
Ġ im
an um
H ol
g m
f ord
Ġp al
ug h
ĠM el
Ġv ar
ĠTa ka
t ina
u x
Ġa cu
or ea
me ister
C ten
p ia
Ġ184 8
ĠQ u
u re
ĠV a
ĠOt to
ĠSpen cer
v u
ĠR oth
ri ca
anga y
Ġp ol
ĠW er
anth us
ĠF el
ĠCarl o
m ed
ro b
li ck
Ġh u
w in
ĠBur meister
ĠTow nes
u th
ĠAll en
ta l
il um
ei ra
c amb
r oph
ar m
og na
S ch
mi p
ĠCh opard
D ich
o ensis
la w
Ġp h
ym n
ĠGra y
ĠR oss
uleng er
ĠEnd erlein
le a
ĠGor don
camb ridge
ar do
Ġna ka
ĠB el
Ġ183 5
ĠFor ster
o tes
ti ma
up ta
Ġ Ã
al la
mi li
ĠBo ulenger
ĠO haus
ĠBlan chard
D is
v ille
g or
ra ta
Ġs ul
Ġma ong
ĠNav Ã¡s
m ond
Ġ ter
li um
u tus
t ens
ĠMa x
ĠT ur
C y
t rich
ch e
vu ori
h ler
Ġgrac ilis
ĠWer ner
ĠG ri
Ġc omp
Ġc la
Par ac
yn chus
ĠRen Ã©
ll er
Ġ184 0
M yr
ill o
li us
t ula
Ġl euc
ulic oides
ir th
ri us
ĠK im
tig ma
Ġma ka
et ti
et ter
s k
Ġ ori
en is
ĠG od
ĠOli ver
ung od
ĠN ich
mac ulata
Ġele gan
S yn
ĠCh a
f or
Ġ and
Ġ182 9
ĠChris toph
Ġm e
ĠZ a
la c
T a
k ingh
ĠP asc
ĠPol kingh
ĠPasc oe
ĠPolkingh orne
ĠW u
ĠR ei
C ulicoides
Ġ ann
om ys
ĠRa uno
ĠLinna vuori
ĠB ro
res si
es se
ing er
he eler
Ġ17 6
l oc
Ġa m
S ym
ch th
o lis
la m
ĠM ello
ĠW a
l yp
in d
u v
ol e
Ġd ili
la ch
li ge
ĠA m
C yr
la ta
up er
to g
ĠM eli
ec ta
ĠW est
Ġob sc
z ia
Ġ ri
ĠW irth
ĠW heeler
om an
Ġin d
ĠMat sum
f rons
Ġgi p
Ã¥ l
ĠN iel
ĠPer kins
I s
p on
ĠSer ge
y er
ĠM o
Ġ187 0
ĠSte in
ĠFri ese
oli a
ord ani
ĠAl fred
ĠHol z
Ġa s
Ġsi y
Ġgi kan
lige ti
ĠG upta
ĠMeli char
d to
le p
ur c
qu ille
gm eier
j an
r oy
Ġs im
Ġd en
si li
Ġp unc
ĠBor gmeier
ĠLin sley
P le
Ġs e
to l
ĠE ug
orc ip
Ġma mip
os toma
Ġmamip ero
f ormis
u lis
or b
ev a
tic ola
u an
og h
Ġf er
ĠAndre y
O don
s ak
Ġ el
Ġa ma
c id
ĠL es
ĠF ili
ski j
I n
c ris
Ġb if
di um
ĠTow ns
M elan
el lia
ĠD asch
ae ma
An omala
lick y
ĠS ug
op is
Ġv it
ĠI van
to b
Ġl ep
ĠMa licky
o gaster
t ta
Ġs imp
amp s
Th er
ĠS asa
ric us
la ke
on y
ar ius
tar sus
ri k
ĠC ap
ĠD i
ill er
ĠThor ell
y ra
ĠY oung
ĠClar k
Ġ184 3
A ga
S chi
ol ep
ĠZh eng
A mb
ĠTowns end
ĠSt Ã¥l
u ch
ĠPor ter
b eck
Ġb icolor
om ya
el es
ĠH amp
Ġp an
ĠF all
ĠAd ri
B ac
v illi
gi na
Ġs em
Ġc ali
E ri
X en
et is
E c
oi ka
wor th
H ap
ber c
Ġ184 1
O m
tom y
Ġm er
ph on
k h
l ori
Ġ es
si us
ĠMatsum ura
ĠG ali
ĠAn to
ĠM itch
ĠH ugo
me x
c tus
t ura
ri ll
ĠS oika
bi um
H emi
op es
ĠGi ordani
Ġc as
Lim n
enta ta
omor pha
ĠD onald
N o
l ora
Ġ ros
X yl
Ġin f
Ġd iv
u f
li m
man i
ert sch
Ġpul ch
S arc
ĠHamp son
ĠN ew
Ġ183 7
lad imi
uri villi
ĠAnto ine
o f
b b
Pse ud
Ã³ s
ĠBal ogh
o ur
r ina
s er
ka r
ĠAugus tus
Rh y
n it
ĠO ba
och ov
Op ius
ĠB aptiste
ic e
ĠT or
ĠMitch ell
ric o
ĠM oh
Ġp ara
ĠB ra
om b
ĠV ladimi
Ġful v
P ros
ĠP at
D ac
p ina
ga tus
ti la
ĠWest wood
om i
ĠH ale
Ġp ra
Ġ182 4
y al
ĠE n
ĠMar ius
Ġ187 6
Ġsi la
dia h
m yia
Plat y
ĠOba diah
A sp
t ur
Ġp ata
ĠJ an
ĠK e
ĠGor ochov
H ali
o a
ĠR ed
H em
Ġpag ka
Ġg ra
Ġ183 3
da y
urivilli us
to ch
ĠP app
re m
r omyza
li na
ĠI n
ves tri
g u
um b
ea e
Ġ elon
Ġp il
ĠRe hn
esc amps
Ġang us
Ã¼ ller
ĠA urivillius
ĠD escamps
ĠR is
ul es
os te
ĠWal ter
eph al
l on
Eur y
en er
ĠZ etter
ĠHen del
in ensis
Ġni ti
ĠZetter stedt
ĠA x
ori a
an ia
Ġvi rid
ĠWilliam s
din and
tip es
ina tus
ei j
Ġa ron
ĠR am
Ġc al
Dend ro
s od
tan us
Xanth op
Ġ ana
uda d
ĠWhi te
e h
Ġa f
ĠR og
ĠSte ph
C u
ĠSch ul
h ar
ĠBla ck
yl us
lad ius
oma c
eb u
H om
ĠM ason
top us
ĠCo quille
Ġp us
ĠCoquille tt
Ġl uc
Ġg rand
ra x
Ġni ng
pha er
ae ta
yn erus
ĠNich olas
os um
Ġt ur
Ġs tri
and ra
Ġnig ric
I sch
ĠA le
Ġla m
Mar ie
ra lis
ac a
sch uh
Ġsi milis
ĠAnd rÃ©
ĠHolz schuh
b lat
ĠS o
od i
or ata
ÃŃ var
ĠBol ÃŃvar
C l
da ctylus
lin us
ĠLi u
ĠR av
Ġ184 5
ok ob
i ti
to ides
do re
A N
T an
ĠM ann
ĠFer dinand
x a
om ma
ĠWil son
Ġb ra
gi s
ana g
eb ard
ĠBo uc
F ran
v in
ĠG ertsch
ĠT ok
G ymn
li o
Ġtu ig
en ea
th is
A f
ana e
ĠE lix
okob yl
ĠE ng
Apan teles
ĠSug bo
ĠKar sch
si g
oph y
lin t
Ch e
C ycl
ĠAr row
ĠF lint
ĠW e
s b
u ga
Ġelegan s
es ti
ĠR ein
ĠTur ner
Ã ±
ap u
F orcip
ĠAn ne
pp o
r ops
ĠO cta
ĠSerge y
ĠAx el
P an
oloph ilus
M olophilus
as is
Ġ tes
Ġin c
ay o
ĠMor gan
Ġinter med
ĠTim ber
okobyl skij
i ph
ĠBel okobylskij
ĠTimber lake
hi m
g h
u ca
in ella
uc k
ĠR ay
Ġa ff
if er
le i
ĠSz ep
tomy za
ĠMarsh all
le o
Camp onotus
Sarc ophaga
ber gi
ĠBar nard
ram ma
C alli
in et
oc occus
a gi
g y
Ġta wo
sa lis
th orax
or t
ĠB ig
it y
o j
Ġp in
ro ma
ĠC ebu
ph ra
tif rons
ĠHol m
Forcip omyia
i ana
en c
ĠS ars
Ġs te
oc er
E uc
n ia
en ic
is h
ĠFili ppo
v ier
ĠH ebard
Ġd id
N em
P la
c ari
Ġm or
ug las
li ch
at z
s hi
ĠG ro
ta lis
ĠK on
ter us
P lec
r Ã¶
ig ny
if ormis
o te
u ard
Ġb er
ys er
ĠPar ent
ĠÃ ī
P roc
Ġb rach
ĠD al
ĠOcta ve
A edes
ph is
if rons
Ġnig ro
Ġ201 0
ĠDo uglas
en fel
ul ler
ascia tus
L is
ĠSil vestri
Ġpag p
om is
ed ro
ĠVladimi r
an an
Ġl e
es ia
N a
ul o
Ġf orm
m ina
Ġka p
ti i
ĠOs wald
ĠEv ans
z ar
en te
fre y
ĠLÃ© vi
e lis
ĠE ll
O c
R hi
Ġb ala
or g
re p
ĠS tan
ich i
xi mili
ĠGod frey
ĠH all
ub i
Ġd es
y ga
lin d
ard i
Lep ido
Ġwa la
Ġn ak
Ġt ungod
ĠMu ir
Ġd uha
Dendro bium
ĠF edo
am ph
Ġt ris
E us
P oec
Ġnga dto
th ys
Ġlu te
toph ila
ĠGa han
E ry
M er
re z
Ġal bi
ĠW end
ĠJacob us
or ac
ĠM en
Ġk ulak
oc c
ba cher
eph ala
ita o
ĠFis her
Ġx anth
Ġkulak nit
yl or
ir os
ĠM iller
D or
em p
ĠFÃ© lix
s ten
ch in
ĠK ol
ex ic
opter us
otrich ia
ĠW ulp
ĠCo ok
ĠGali leo
p ennis
el en
ĠMa ximili
ann i
u w
ica lis
uncta tus
osp ilus
orh ynchus
ĠB oh
ĠL am
Ġm is
Ġh ay
ĠBar angay
op le
ĠC ra
ĠW olf
to des
ĠS al
ba la
ĠHel ena
an t
on es
hi ro
v al
ĠL y
Ġj apon
Al lium
Ġsiy udad
s worth
Ġala s
arm elia
en ne
Ġlongi c
ĠRein hard
wa l
ĠM Ã¼ller
Ġg ris
Ġo f
Ġc er
Ġd ep
ten bacher
at um
ren ce
b ra
m und
ĠI ng
me lin
ĠHam mer
ag o
ip los
ĠRed tenbacher
b on
k ong
Ġ183 6
gi le
si i
ĠE phra
yn ch
ill us
Ġori entalis
ĠSzep ligeti
ĠEll sworth
ĠEphra im
T ach
m ent
ma e
Dicran omyia
I chneumon
H er
ĠV al
ica uda
T rach
ph ia
ez a
Ġt rans
Ch elon
to va
in cta
mi tri
ud e
bur n
Ġ Â
rip es
Ġp oli
T ric
Ġs emi
le itao
ba tes
on ov
ĠP oc
uri um
Ġa pan
ĠSch mi
iplos is
ĠAlex and
r ella
ip a
Ã¶ r
Das y
ĠNiel son
ĠPoc ock
ud i
ori ac
di ta
enna h
Myr m
ĠK n
ĠRei chen
b al
el ma
ol o
ĠHenri k
b ro
m um
la va
ĠD mitri
h on
et t
yll us
Ox y
tan s
da s
ĠF ennah
ul um
ĠMa uri
ĠÂ »
Ġu bi
P a
ĠD es
od ia
ung sod
ĠRog er
v us
on t
el ys
ĠP eck
Fran gile
ĠBig ot
Ġ183 2
ĠAnton io
il ton
ec a
Chelon us
ĠKe yser
Ġsa k
in son
Ġk ina
Ġmin or
ĠM it
ĠJ ules
ea ta
Ġal ang
ĠTheodo re
Anth urium
Ġaustra lis
ĠC am
rip s
onis cus
ĠFel t
ĠMel ander
l en
le g
qu e
ĠMik l
P ris
ĠM il
ĠMikl Ã³s
iv entris
H aema
ĠB ru
P al
en ter
Ġg ran
Co eli
ĠKeyser ling
tre p
d Ã©
yp ta
S in
i ma
se l
rom us
ĠGra venh
ĠGravenh orst
L yc
P and
Ġka ron
us h
ru p
oloph ia
Ġdid to
M el
Ġp lan
da d
eli x
Phyll ophaga
Ġd ia
ens ke
m y
ĠBr enske
ĠAd el
to ria
is ta
ĠA s
pin e
B racon
i on
ic ula
b l
er n
in na
ona l
ĠMich el
e tus
n on
ĠW es
Ġcon f
ac c
G er
o as
ĠL ea
ĠFri tz
ĠPetrov ich
ĠM es
ĠK ri
ri er
Ġhu kal
Ġd el
Ba th
L ip
op lus
ĠLa w
Ġ "
oph thal
tic ollis
chen ko
Ġla b
ow ski
ix on
rap ata
L ei
ĠO r
ĠFran co
ter na
Ġr h
ua te
Cu lex
do s
ey er
Ġga rapata
d rich
Ġb ik
ĠL or
ĠK as
Pol yp
Co el
Emp is
D ys
Ġi ka
M im
ac k
mann i
Ġg y
ĠMaximili an
i ri
ca uda
ĠJose f
ĠBer nard
ill on
la x
Ġc orn
j ev
cu tella
Ġbrev is
opter yx
ĠB l
Ġaff inis
ĠSch a
ĠH ir
Pter olophia
ĠLy man
d an
u ey
ĠM eij
ori um
ovit sch
ĠL ane
ĠR and
ap a
Ch or
to ri
to sa
yr tus
ley i
ĠFedo tova
ĠMeij ere
ĠI gna
ĠG melin
ri as
op pia
ĠP i
s il
Ġl ungsod
os i
b ec
Ġv ic
âĢ Ļ
f ri
oh an
ig er
ez zia
ter berg
ka da
ul osus
ĠAlexand re
om phus
Ġp ang
Ġc an
os t
Ġf or
ex a
ĠBer g
Xanthop armelia
u gi
ĠS tro
ĠAch terberg
Ġ 3
Ġla la
Ġs ca
Ġka s
on ensis
ab ot
G on
Phil od
ĠCon rad
n il
Ġro b
om er
ie ter
if era
linea ta
k ov
l ana
Ġb ur
ĠC ity
ba ta
Ġsimp lex
i j
pa th
Schi z
Ġs h
op al
Ġf ra
bi li
C ra
og ry
ĠFran k
uk i
Ġv ir
lin ton
on us
ĠC an
Ġp ec
ĠP edro
as p
ry sa
ĠAdri en
S ap
ĠH esse
ĠG ressi
ĠGressi tt
Ġs il
E um
roc tus
chi da
ho use
ĠPa uli
N es
y ar
Ġsa m
es ch
Ġer yth
ĠMo ore
Rh in
it ar
mac ulatus
ĠEn rico
i ka
ĠM er
ĠC linton
ab ri
rip ennis
col or
ĠD od
Myc e
Ġbik tima
un der
He tero
Ġ ed
ĠMes nil
o ki
oc y
ĠN ixon
ran eus
Ġoc cid
Ġre c
or te
ĠS ol
Ġda g
Ġtu berc
ĠL al
ĠMar c
ow ell
ze tes
ola ta
ĠPeter s
Mes och
T ha
ĠLin nÃ©
Par as
ĠEm ile
ĠAch ille
Ġc om
Pand anus
I di
ĠC hi
ĠR ic
Ġh er
te roc
na e
el mo
ti lis
Ġm exic
ĠJ o
ĠZh u
ĠBlack burn
D el
Ġma s
or pha
si an
ĠHer ing
Ġ177 5
d ensis
ch ia
ul ong
ac if
ali ta
H ila
Â Ń
oma da
Sca p
H yla
ona lis
ĠRand all
ĠH an
ĠA us
ox ys
Ġsa l
gi nata
N eph
n ea
Ġa ur
Ġb u
ri l
ed er
una ga
Am phi
ĠAndre w
G na
P tero
ĠS to
ti er
ĠG ott
ul c
tsch i
T yph
b ius
y ag
Ġ182 3
op oda
ĠW in
D in
l eri
ĠPeck ham
ra ena
it is
ops ylla
odes mus
ĠBrun etti
ĠSteph en
ĠAdel elmo
C ephal
ĠS ti
ĠB ick
ĠY in
P el
se lla
ĠW ood
it ter
ha pon
Ne oc
C ent
ol or
Che il
Myce tophila
a o
al pis
Ġc lav
ra e
ing on
Ne o
Ġ en
ĠN ina
oew er
ĠSan tschi
ĠLor enz
ĠR oewer
ĠFre d
Ġs ep
ĠReichen bach
r inus
Ġs ig
Ġd ub
ĠGre en
in gi
ĠR ena
ag e
Ġr ug
y tarsus
id ea
Ġ181 8
Ġquad ri
y le
A ma
Ġ tor
th ia
Ġmac uli
Ġmin uta
ula tum
un n
as ar
Ġh is
oc ne
uc e
ys ia
Ġb o
es us
ĠKar ny
sch ild
tic eps
en oc
ĠRichard s
ĠPhilip pi
e ar
h il
Ġp ap
yp us
enta tus
i lia
ĠW ag
da e
da m
Ġis ip
chi um
Ġnag p
ty la
ĠLind ley
N omada
Rh amph
Ġs an
Ġs us
ba t
ba z
oper la
ĠP o
yl va
B rad
Ġa e
os ter
Ġnig ra
Ġ âĢ
li ff
ed ic
Ġaf ric
Ġhay op
ĠBru es
Ġb ip
ti le
ĠMar k
i ro
ĠRoth schild
D es
f orn
ta s
ĠT ra
Ġt ric
ĠN oy
rom ia
ĠHu ang
ĠPauli an
A ch
es ta
ow ler
Pse uda
oas ca
Tet ra
En ic
b ri
ub b
ĠLe e
ĠRudol f
em us
ut z
ĠU chida
Mesoch orus
z yn
omor phus
ĠBouc ek
ĠT s
Emp oasca
Poec il
e is
ĠR od
ĠD uda
ot is
ci ara
v it
an do
ker i
Ġar g
ĠMik ha
ĠLaw rence
M us
ĠS elys
Ġla ev
Ġdo r
ĠLam bert
o hi
ĠS uper
ĠP ieter
i to
ĠR oy
Ġsab wag
l ensis
m ins
Ġc ir
res c
ĠCap oriac
ĠCaporiac co
w an
ĠH os
ow den
ĠErich son
Aus tro
u ter
v ie
Mac ro
zyn ski
l ov
er u
Ġp lat
Ġf ur
B la
te i
do p
ĠS pin
ĠM un
ĠA ng
ĠL ie
es a
os tomus
Ġp or
ton ia
ki i
ora tus
Par ap
tr um
Plat yp
Ġten u
ĠC or
ĠR oh
as t
Rhy ac
Ġ res
si milis
Ġm odes
ĠG ig
ĠC ro
ĠSh ar
Hyd raena
Ġa mb
ch t
ĠN ar
rig on
ĠKim mins
oc erus
ĠJohn son
var ov
ĠCol lin
Ġ oli
Ġa g
ri lus
ĠF owler
ot rema
E un
f tin
la g
Cha e
ĠMikha il
O ri
Ġni ya
ed e
lem and
C ala
ti chus
ĠS eg
ul d
ring uey
ĠPÃ© ringuey
ĠGig lio
oc entrus
ov ich
fri ed
el s
ĠM ora
am ensis
eli na
tra ta
do sa
re w
ĠJoh an
ĠOli vier
Ġcali forn
Ġh in
Ġkaga hapon
ar pa
Ġc ris
ond t
imp la
Ġcras si
ĠRena ud
us s
on or
Ġb ic
yph us
ĠMay r
c al
Ġk o
Ġg la
tri x
Ġten uis
ĠGri ff
Ġb al
ra y
ĠL evi
Ġt in
blat t
Enic ospilus
O s
yr ha
ĠPÃ© rez
p it
Ã £
Ġ ir
ras er
B at
ri m
ĠS k
ol y
ĠJ os
ow er
ĠU varov
ĠWar ren
Ġma j
Ġk ang
Ġd im
Ġt run
it t
ĠSch war
ĠWend ell
ĠHam ilton
og ona
ĠY u
rop us
ĠCur tis
Rhyac ophila
n ic
z el
ĠV ill
ov en
ĠMa ma
is a
ĠT oh
ie ch
h u
w en
la p
ĠG old
Hyd ro
w ell
ia lis
tos us
y os
Ġk ani
Ġd u
A nis
Ġro t
ĠK us
od era
sa y
oma l
ĠQ uate
se i
ic ulata
re us
Ġdi hang
Ã£ o
ina e
ĠThe isch
i an
ula t
ĠH ag
ella ta
era e
Cera to
oba tes
ĠDmitri y
Mic rop
ĠMc al
ĠTa ylor
Ġnas od
ĠToh ru
ĠTheisch inger
) .<|
B om
Ġn ata
Ġgi b
ĠN ied
ota ta
od is
ĠEd uard
ĠMcal pine
ra ba
och a
ĠPar am
Ġmi ra
ĠWillis ton
C rema
es tes
ĠR os
Per dita
ĠParam onov
C os
ĠP al
Ġc os
Ġnahi m
ĠGre gor
o tan
Ġa ri
ĠS ae
ĠPer ez
ĠSchmi tz
th y
ur p
Ġre tic
mo to
ĠFrey tag
Ġn ov
ĠWa ter
ĠTok unaga
ĠLal lemand
ĠF elix
Ġc yan
as ter
Ġt ar
Lep toc
Ġ182 8
Ġoccid entalis
H al
ta bo
ĠG abri
pi da
ĠC osta
ĠJ a
og onia
ne us
ei do
Ġ182 0
Ġ178 9
A b
ĠR id
rov ich
ac us
Ġins ularis
bi i
ĠHans son
Eu ph
bia lis
ĠPat rick
O ec
er ma
kto r
ĠB ut
ĠT hi
va tus
Ġmac ulata
ĠOs sian
l mer
ĠS ub
Ġp la
Pha onia
ftin ck
ĠS ou
tin e
ĠGabri el
Ġp acif
mer ic
ce lis
Brach y
Dolich opus
A raneus
ĠM ose
ec tus
ge la
A d
d ge
ĠG r
ĠNoy es
od ius
Sym p
Li th
Eury toma
f asciata
to la
Ġu ban
all us
Gl enea
ĠMauri ts
ĠLie ftinck
g ang
Ġs ex
il lia
Ġp ana
b ot
s tan
ĠH ut
ĠK er
Ġh e
ĠVer rill
ĠDav ao
ĠDis ney
Isch n
ĠNied bala
Ġ ep
ĠF raser
oph is
man tis
end ron
Rhamph omyia
ula ria
ri t
ĠW oj
Ġh ok
ĠMama ev
te m
ĠCh ap
tic ornis
uh l
âĢ Ŀ
al ensis
ĠV il
los sa
c iech
en o
re y
ĠF uller
ĠP r
ĠMar t
och rysa
art sch
tyl um
ĠWoj ciech
an ica
ĠA u
ec cari
eli ce
Di osc
C ap
T rop
li ce
Ph eido
Ġ182 6
he im
ĠPetrov itz
Ġobsc ura
Hyla eus
S ol
te p
ĠC amp
oc qu
em is
Ġ182 5
Ġsp ec
d uc
th asar
Ġv aria
Co en
ĠBal thasar
B ra
s ton
li e
Ġ183 1
v o
se v
ĠMar se
ĠBr uce
ĠFer n
P eri
Ġs ta
Ġa mp
le it
O re
h ashi
troc era
ogna thus
Diosc orea
ĠH orn
Ġh ar
ip pa
ĠSh in
ĠMoh rig
ĠWag ner
E l
u ti
en th
or y
ĠS i
as te
or ph
tic ta
ĠBri t
an ti
do ardo
ĠB eccari
ĠR Ã©
oh l
ĠO doardo
oe hler
inc tus
ĠGold blatt
ka ld
si k
ĠN g
ĠMa tile
ĠS ac
ĠB all
ig o
yb ra
G ry
ra tus
oph us
ĠO le
ĠZa itz
ĠMarse ul
an tes
Ġp ina
ĠEng ler
ĠZaitz ev
as ia
od us
Ġmag n
wa t
ĠS ylva
si ca
Ġp am
ĠCla ude
l le
endo r
ra b
Ġh yp
hel ea
dis on
p o
an is
ĠH ed
Ġla c
Ġgy ud
ĠSylva in
S ti
omy r
end ran
ĠSan tos
Chi ron
yrha chis
L amp
on yx
ĠP ili
yl lis
qu am
han an
Hyd rop
Ther idion
H ab
k el
l ang
w e
ĠGo uld
B ol
ĠM al
ĠM illi
ĠAl ber
ĠNikola i
C ir
E la
um an
oser ica
Ps ych
Heli na
t ric
ga mit
ang u
ob ia
ba li
ĠOs ten
Ġdiv er
sb ry
T om
n c
ĠB artsch
ĠP rov
ur t
ur y
ĠCh an
ĠX u
Dip l
c y
Ġn eg
ĠD yar
ĠK oehler
ter n
ĠY ves
s yon
ĠLe hr
til la
Sp il
Phy tomyza
L opes
en ae
ĠB rad
le tes
Ne op
oda ctylus
es per
il lan
id e
ot te
in h
ar es
uy o
ĠKir by
Ġgrand is
ĠSac ken
ĠS av
ĠL ac
ĠR us
ĠT ana
ga yan
en eu
th e
ĠR o
C omp
toc ephalus
orb igny
Haema top
ĠMose ly
ĠJ ones
Ġv en
ĠLe o
ĠRob inson
Ġch rys
Ġcur v
Oli g
o ka
ĠCh ev
oth rix
x is
ĠB ae
un ga
ĠEd mund
Gon omyia
H yb
c ula
t rus
to k
Ġgi pa
och us
st y
g ens
or s
Ġd in
ot rop
Ġ182 2
Ġm ol
ĠCarl os
yg us
ĠRid ley
kald y
m os
Ġ ov
ph ila
ec tes
ea tus
ers ta
ĠMil ne
ersta ecker
f elice
Ġan ak
ĠPier felice
ĠFÃ© lice
ĠRav enna
Pla gi
ĠNar endran
C lin
to gaster
ĠP il
Ġc iner
it sch
Ġbra sili
ĠPili pin
o ker
si ma
ĠC al
Ġc av
Ġc amp
lab ola
ĠKir kaldy
ĠHolm gren
Chiron omus
g ei
la tus
Ġad unay
Par at
ĠEd mond
ond ani
rom is
Pol yc
ĠWat son
C occ
Ã ¯
ĠH ull
ĠT em
Ġpa gi
ĠCam illo
es mus
le t
ĠK oz
yr mex
ĠGu il
her me
Hom oneura
B i
o tettix
ĠM et
ĠH eller
ĠJ ason
ĠJ Ã¤
Ġnig er
C le
L y
T ur
h ara
si la
Ġm us
Ġf lori
ed i
di on
on ica
op l
Ġhir su
ĠBut ler
ĠGuil herme
T er
Ġn ap
li tis
Ġob li
ĠKol be
Ġrob usta
Ġu l
ang ensis
ys s
Ġkin ing
lach lan
Ġpata g
Ġg lob
ir on
min ck
ĠTem minck
ar os
ĠS ab
ĠM ur
ell um
Chi mar
ĠSeg uy
b orn
w itz
ĠS ong
ĠR ondani
Pheido le
T ox
rac arus
ĠKas par
Haematop ota
gi t
Ġf ili
Ph ry
ota ert
ĠLo Ã¯
Amb ly
ĠLoÃ¯ c
S tar
b re
u rea
te ria
ro a
ĠT on
od ynerus
ĠHu bert
S al
Ġ em
Ġu hi
ĠT e
ĠO kada
ĠU r
Ġap icalis
gela bert
Ġuhi pan
on ius
Ġc y
ot ti
Ġg ut
ola tus
ĠFre eman
uma la
ĠFer r
Ġcas tan
eneu ve
t sh
Ġu mb
ro ber
Ġj av
ĠMey er
Ġintermed ia
ĠGro otaert
ĠVill eneuve
r ana
an es
hi mo
Ġg lab
ĠKaspar yan
n ik
x ia
Ġma ri
thi racarus
ĠMit su
ĠPil sbry
Ġa meric
ĠB is
un na
Ġf em
Par am
tr op
ox a
ĠPhilip p
id is
oph agus
ĠSasa kawa
mina lis
u ber
ula c
el son
ĠD labola
roc era
Ġpalli d
Ġvar ie
Hap l
ĠMitsu hiro
S yna
k ei
ti k
ĠM ag
re i
ĠAl drich
ach al
Ġ201 1
S phaer
Ġ 4
ma l
ĠM ou
ĠL ep
ĠI vie
ĠGi ov
Pol y
Ġgrac ili
Ġelon gata
dore tus
trep tus
Chimar ra
B alita
L e
ep e
yla x
ĠAu bert
ĠGiov anni
D a
j e
ak i
ak ov
ĠB eier
ongi a
ĠCra w
Ġsam tang
or pa
ia ta
um na
ĠW ell
oc a
Ġd er
ĠV achal
Ġta bili
Ġob tus
Rha b
G a
S A
l ph
ang e
Ġb an
ro ng
Ġli ne
ĠIgna z
ĠSuper Balita
Platyp alpus
m ic
Ġp ub
ĠG erstaecker
oc ladius
em sak
est ris
orh ina
ĠBri an
Ery th
ĠMun ro
ĠMilli dge
C all
g ra
s tra
Ġ tig
Ġs ten
ĠM y
ic ker
Ġdi in
ĠRis bec
D er
M an
M as
Ġs tria
Ġp op
Ġba hin
ui z
y ri
ac ris
Ġ180 4
ĠBick el
A trich
b es
p at
y e
ĠC arp
ĠL uis
ĠGra ham
Tet ram
Bac trocera
ĠRay mond
S ys
l oy
ĠK rober
ĠT oy
ur g
Ġtri ang
linea tus
E chin
H ym
L ox
li ca
ĠV ier
mann ia
Ġpalli da
ĠCarp enter
o us
ula x
ĠR i
omyr mex
? <|
u ria
Ġn uk
ĠH orst
ĠG ris
ris ch
Par dosa
Ġni la
ga yon
ĠH owden
Ġp rop
ĠW eb
ĠO ld
t ulus
en ius
ĠW ol
ex ia
ĠHo ward
Ps il
eth i
ĠHay den
C ata
Ġin sig
man s
ops yche
ros a
hr ens
um e
ba eus
ĠX av
Ġcap ensis
Brad ysia
Ġmaj or
P ala
in ing
ĠS e
ĠP hil
Ar ch
ĠJacob i
S til
Ġb id
ĠL ondt
da lis
sh eh
Ġga bii
ophthal mus
sheh baz
ĠH ippa
ĠK un
don ia
ill ot
ski i
Ġun icolor
Ġro bus
Ġdis c
ĠV ie
Ġmon tana
H exa
L ab
T rigon
Ġb in
am us
ip pus
ola bis
ey i
M ec
al le
Ġm il
am in
Ġk un
ĠStro bl
ĠCro at
ĠWell s
z an
Ġg em
ĠAnd ers
ĠDav is
ĠFer ris
Ã¨ re
Ġmer idi
rÃ¶ der
Ġnuk os
d y
u us
Ġu ng
Ġc ana
im mer
ĠVier eck
O ph
an ov
Ġa tra
ĠR em
ed ilum
Ġli m
ĠOs born
Ġka ayo
am m
oph a
oph ron
ero don
ĠBer n
ĠFair field
eto sa
f i
ĠA hrens
Ġm eta
ĠG ui
ĠP owell
An oph
Ar c
l ug
Ġa ure
ĠS tar
Ġp yg
un od
ĠWil lem
ĠAd dison
P or
P yr
S ar
k ol
id ius
eb ius
ĠCa gayan
Ġjapon ica
ĠS tone
ĠO ro
och i
ĠRe itter
Chrys op
ĠWar nc
ĠWarnc ke
B aptiste
E pi
N G
o ti
oth y
ĠLa ur
H el
Ġind ica
t ran
mi us
ba um
mar ck
ych a
Ġkin sa
Coeli oxys
ĠâĢ ľ
Anoph eles
C anth
Ġs ec
Ġb un
ba w
oth rus
ĠMc lachlan
N or
do ng
bi enko
ke w
anc ock
ĠBae hr
L oph
S ybra
u wa
en ti
ma tus
An thoph
omp son
Am m
ĠToy ohi
z o
Ġl ob
Ġla ti
ela tus
Dasy helea
ĠMora witz
Ġb e
Ġb as
Ġm u
ĠE sp
Ġar gen
tops yche
O chth
en op
ĠC as
ĠC orne
lex a
Ph an
issi er
h ina
Ġs or
ri omyza
ĠH ancock
um p
ĠCh emsak
eri k
Ġda pit
is c
ĠD rew
yph antes
Ġ181 7
ĠFred erik
Ã ¸
er ica
Ġb ag
Ġf um
ura lis
ĠLÃ© on
Ġp ili
al an
un k
ck el
Ġ179 0
ĠHart mann
Dac tyl
Ġlongic ornis
ogry llus
o gas
ti um
end y
A ustra
n ophila
se ll
ĠA ud
ĠF o
ĠE venh
sing er
ĠHo oker
ĠEvenh uis
m ensis
ri ma
ia o
ba e
lin i
uli na
col lis
ĠHag en
Hexa toma
h al
hi za
ay a
ĠNe al
ĠLo omis
ma eus
pin osa
L ec
ga e
one ma
u chi
Ġgi ta
in um
un e
ig era
ĠI s
ro d
ĠBo issier
ar ti
Ġb oli
es p
Ġc ong
Ġt um
Ġf al
uy a
Ġqu in
Hop l
ĠHos ler
ĠJos Ã©
Ġp at
Ġ180 1
ĠHu ber
Polyp edilum
C yph
M et
er is
si d
eb us
tom on
Pol yrhachis
Ġap p
Ġ chi
el ea
ĠT ops
Ġta ga
Ġpag s
Per ic
Ġfer ru
ĠTops ent
Ġ ig
la ter
Ġka ta
Ġad law
or gia
Ġm ia
ĠJ uan
ob us
ez i
und us
ta la
Ġp hilip
ic ata
f ie
s l
ma y
si p
ag ne
ĠN eg
Ġch il
ho us
tig mus
ĠHay ashi
Sch rÃ¶der
k ina
ĠA h
Ġf ron
eu ch
ĠBrun er
F orm
t le
ĠI sa
Rh opal
Ġper u
ĠEug en
Ġlab ing
ĠScha us
X ys
ich thys
ĠLa marck
ĠGriff ith
G ra
Ġp res
id er
ona ta
Ph ys
ĠStan ley
H erc
Ġka ba
ar um
ĠH in
ĠG us
ĠMon nÃ©
G i
f a
si ya
Ġp ip
ĠTh ompson
oth orax
Ġcon c
y ong
ĠM ed
ĠH ali
A mp
A doretus
to mi
hi ma
od erus
yc n
Ġob s
ĠAle k
m and
r ini
t urus
Ġ ram
Ġs oli
el otes
ĠC ope
ĠD endy
un i
ig usa
Mic ros
ĠAm Ã©
itar sis
Hila ra
S ty
in t
Ġl ong
ti ago
op hi
ro th
ro des
ĠK el
Ġh ang
Pseudo c
Ġar c
asa lis
ĠAs kew
ĠAr n
Platy gaster
ĠWater house
ĠCraw ford
r ensis
gi ng
ta x
op ros
th o
uli fera
Ġdis tin
Col letes
ĠMu ese
Ġp as
ĠG agne
Ġf a
ĠAmÃ© dÃ©
er up
ĠD ol
ora lis
yd esmus
ĠGustav o
la e
ĠS hel
ĠR iv
at ch
Sph ec
Lith obius
ĠMart yn
b el
ĠH ew
as ma
di i
Ġi ho
sen beck
ĠSan tiago
la rd
gi natus
Ġb en
Ġl ev
Ġp un
Ġv ari
ata y
ud h
at re
ten us
ĠGu Ã©
Philod endron
E rem
F re
O ch
la ris
op el
ros s
ĠMuese beck
c ola
f us
l end
Ġ 5
ĠR ud
ĠN elson
ĠSch iner
c es
e ff
ĠB u
ana o
ur opus
ei k
Ġun ang
oid ea
ĠWolf gang
B le
ĠE x
Ana c
phy cus
ĠVi ktor
loy d
O ber
S y
i ulus
k is
en tomon
ĠR al
ter yx
ne ville
yc ter
Herc ostomus
f rid
i ya
Ġ rus
es cu
ph orus
ota enia
wig an
Ġ177 6
E d
li ne
si cus
ĠE mb
roy d
Ġsus p
Ġmira bilis
ĠHali day
E ud
da c
og ramma
ĠE s
oh n
eri ana
ĠHen nig
Ph or
tin us
ĠRa o
Atrich opogon
H arp
M is
t ensis
ar an
ro toma
ck ena
ĠBrit ton
o za
os tigma
ĠM ori
ak es
ĠF an
ĠT os
sp ic
ys is
ĠTh un
ĠMich ener
Ġvirid is
enfel d
v ia
Ġsa ma
Ġa kong
ĠB uhl
ic ke
ĠD om
ĠT ang
ot sch
ĠI si
ine ura
Ġ180 5
ĠNe erup
Ġform os
P eg
k on
u o
Ġka r
ro ides
ĠP rin
Ġ182 1
lla cris
ĠLind ner
A tra
S tro
d endor
Ġa uri
ĠS un
Ġp urp
da g
ĠThun berg
E udo
P rion
gi us
ĠR ub
ur ensis
ori bates
Gl ypta
Heli c
ĠMay or
ĠClar ke
Ġs cutella
ĠL yne
ĠE l
Ġd eli
ac ies
Ġf un
ella tus
ĠSa igusa
ĠMan fred
cal f
ĠEmb rik
ga d
la mp
da o
ĠBr and
los s
ĠOs car
ĠX ue
ĠGriffith s
b os
ĠC lem
ec ido
ber ge
ud der
no ir
Cheil osia
Ġbrasili ensis
ĠOld royd
op orus
Ġh or
oc ent
ov e
tel li
Ġan ten
ĠKra us
ubi ona
L in
S is
Ġb orea
Ġp en
ĠJ ocqu
lad era
ya e
ae us
mer us
Ġcon s
Ġw il
rig ht
ryp tus
ĠSc later
Tan ytarsus
ĠIsi dore
ĠJocqu Ã©
A th
ĠP an
Ġd unay
hard t
Cl ubiona
Rhab do
S path
Ġf asciata
Par ali
Ġmin utus
ĠErn est
ĠEm den
L on
L uc
S tyl
G ar
o it
an icus
ĠB ei
Ġm ur
et gh
Ġg e
ox i
tera lis
Pseudo p
Ġwa l
Ġmon ticola
Ġor nata
Ġpata y
Myrm ec
B ry
M i
Ġ os
to ralis
ĠS yna
om ura
le ma
ona e
ros ky
ĠAn th
ĠSyna ve
ti b
Ġp os
ber i
eb uer
ĠTor sten
ĠGott fried
ĠA da
ĠJ esus
ĠP ro
ros tris
Ġal bo
oli na
ĠBen oit
mata y
Ġbis an
ĠSab rosky
ĠTon noir
Ġa ren
ĠJ Ã¶r
ĠU lmer
Pha e
anag romyza
liff e
ĠAnth ony
Ġma d
Ġu r
ĠW under
ĠT om
ĠSil va
Ġ176 6
Ġlala wigan
ĠGuÃ© rin
etgh ebuer
H ipp
y chus
gi i
ar ta
ĠH eik
ov er
top ius
car us
Cop elatus
ign ot
ĠSha w
E s
c l
en ga
ka i
Ġp u
ic i
ent z
tin o
Ac roc
Ġkan hi
Pris ti
Crema togaster
ĠWunder lich
ĠHeik ki
A G
ĠR on
yl os
Ġpa uc
Ġfus ca
ĠCar ter
umon t
ĠFall en
Om ma
iron omus
Anthoph ora
ma ra
res sa
ras s
yne ma
ĠBol ton
ĠGo etghebuer
re ta
Ġ180 2
L ib
c ki
Ġn eb
li ensis
ing s
ob b
Ġpag pa
Ġte x
Ġpro b
ĠAb el
oman tis
u ata
Ġ :
ne ma
Ochth ebius
) ,
m ile
is t
ĠL ui
ĠG Ã©
ha y
era ta
ĠGu ignot
Cor yn
oly te
ĠChev ro
H ome
se ma
ĠS ey
am i
Ġper p
ĠChevro lat
ol om
Ġc up
ĠDi et
Ġsak op
Tha uma
ĠWillem se
b or
s Ã©
y tes
Ġn an
te d
Ġl ug
ĠG y
Ġflav ipes
Ġborea lis
w i
M ach
T euch
b ell
g es
m ura
to ce
Ġp le
Ġp ach
ĠA sa
Ġm os
et ta
Ġ182 7
Tet ras
Meta phycus
C as
P arag
g ona
r era
Ġn ang
ma ea
Ġb il
tar sis
Mac ros
olep is
ĠMet calf
C ym
x us
Ġp um
Ġp lum
ĠL loyd
Ġm es
ei ro
ota tus
Ġmed i
ĠHart man
p sis
Ġv al
illa ta
elli ng
ĠBur ton
Ġca uda
ĠCha o
Xyl oc
ĠHorst mann
er ry
na lis
Ġin er
ĠL ap
am ong
mi ta
A ne
l ops
Ġn or
te le
ti d
ĠY oshi
tar c
enc yrtus
E le
oc al
pin us
Anth rax
ĠRal ph
T roch
si on
ĠA oki
ĠL end
ul en
ob ezzia
uc c
Ġpar va
Pach yc
olep ta
Ġpin ulong
Ġpina agi
Z yg
r or
lip es
Ġlongi pes
ere is
ĠMac fie
ĠHir oshi
S pin
Ġgi gan
il ota
Ġp et
eli o
ĠOs kar
ĠBla ke
ulis an
Rhi z
S pi
c antha
t ini
Ġgi s
on ops
ri ta
ĠL ars
le ay
Phy to
Sca ph
Pristi mantis
A t
f em
la r
Ġs t
gi mb
ca p
Ġsul od
opros opa
ĠSey rig
T rip
Ġa z
ĠD um
Ġta i
ĠSc udder
Ġspin osa
ede tera
j ean
o en
ĠH ipp
oph rys
Ġang usta
ĠBo ur
ĠRichard son
Lis son
ĠWeb b
ĠLui gi
c ulus
m or
re g
ann ia
H y
ĠB ea
ĠH od
ph ar
ry las
tar among
ni ot
ĠMon niot
ĠEnd rÃ¶
Ġlam ang
Neph rotoma
ĠSpin ola
ĠPilipin as
Q u
o er
ĠB Ã¶
Ġcon v
bay e
ĠHans en
ĠHo ff
ĠChan taramong
sty lis
ĠChantaramong kol
M ala
T em
g rion
z h
Ġ ec
ti x
Ġm ini
da la
Ġh el
Ġla ing
res s
Ġat lan
Ġafric ana
Ġinsig nis
ĠHipp olyte
D us
b ein
c ea
ar th
ĠS uz
ĠP oli
ĠR ad
Ġmon tanus
gna tha
ĠAda ms
H a
Ġu nd
ĠH ubb
ur st
ĠV and
st rier
Ġkani ya
do i
or et
or hiza
op roctus
ĠJ ak
Ã¼ r
ĠAn n
Ã¨ s
issi ma
ĠPhil lip
ĠVie illot
N an
c um
t ner
os cia
ug od
end er
Ġalb ic
ĠMou re
Xyloc opa
ĠLend enfeld
E re
P orc
an cher
Ġka sa
Ġb uk
ĠS ig
ĠM ani
ĠJ us
Ġt rid
Par ad
yr rh
ji ma
u cha
ens a
it ra
oma lus
ĠGe off
Ap ros
Ap ogonia
Ġth e
ĠDal ton
Ġkap ulisan
ĠAud inet
C ac
C oni
b un
o ura
Ġn ub
gi l
ĠB ud
tar inia
ĠCla strier
Ġ178 1
m et
t un
ang er
ĠB ill
ul le
ter s
Chor ebus
Ġmexic ana
ĠJÃ¤ ch
G al
Ġs quam
ri e
op on
Ġp ala
Ġv a
ip i
Ã© neville
ĠEd win
ĠRobert s
Ġdi ha
ĠMc c
ĠLes lie
Coen osia
ĠProv ancher
toce tus
Å Ĥ
te lia
ĠS n
op illia
om ia
ĠG ur
ĠK ris
sa e
ab eth
Ġba tok
Ag la
ople ura
ulc zynski
Ġbun tag
en berg
Ġs uma
Ġs uper
el eb
Ġp unctata
ĠR ocha
Ġf asc
ĠWil ly
ona ga
ann on
ĠRa f
xi ma
ĠEr sÃ©
Mus ca
Ġnahim u
ĠEndrÃ¶ di
b uhi
te c
ta m
ak on
ĠB ry
oph ylax
Par m
Ġsp ini
ĠRic ardo
ĠAus tin
Tetram orium
ĠErsÃ© us
G yp
m eri
ph es
ĠP en
ĠK lug
Chrys osoma
ĠSt sl
Oli arus
ĠGer mar
ĠVa sili
ĠRam me
Ġbala y
ush man
w ick
op ia
os ina
ac ea
gimb art
A Y
M edetera
ka d
Ġka rong
ĠS ign
ĠB os
oph ry
Ġg ob
tr opus
pus il
unk hous
M eli
r opsis
ic ensis
re d
ĠP e
ĠSta lle
Ġsin ensis
ĠIng risch
Ġcy lind
Ed ward
v ata
Ġ 7
Ġ ol
Ġ ing
li g
ic o
ul ans
og e
Ġk er
ob ald
Ġti bialis
Ġop is
sk yi
iros tris
ĠSk use
ĠChap man
ĠRÃ© gimbart
Ġdin hi
A T
A e
Z elotes
Ġs up
ĠG ol
ĠP in
ĠSch ott
ik an
ĠAugus tine
ÃŃ a
ho f
Rha phi
omys is
P y
wa i
Ġs ud
Ġma la
Ġb ata
ĠC ushman
ĠR entz
Ġh al
ter nus
Ġt rip
ent ralis
illi ers
ĠThe obald
kh urst
ĠAlber to
ĠSign oret
A le
S ci
u ichi
Ġb or
ĠB on
ĠL ynch
ini i
Ã¶ ck
zi es
Li riomyza
Ġme ga
Eudo rylas
unkhous er
ĠB ay
ĠT ol
em en
Ġch lor
eu ca
Cla th
ĠPal las
ri b
ĠM ein
Ġh ya
Ġd ar
im e
Cor y
Ã± a
ocne mis
Apros tocetus
D raba
Ġma da
ĠA sp
ul og
Ġv ill
era lis
ay ong
ut um
ĠVa illan
Bom by
ĠFerr ara
ĠVaillan t
B oth
Ġ ya
Ġka so
or ella
op eza
ĠB ou
ĠV illiers
Ġal l
tod rosophila
phan tes
ĠMen zies
Hydrop tila
ĠAsp Ã¶ck
C yc
G yn
e um
ro ta
ber ti
et te
ĠI ma
cis troc
Th y
Ġdes er
ĠFranco is
Cala mus
ĠSae ther
Porc elli
ch es
ol ensis
ĠF unkhouser
Ġvi ola
Ma ladera
Cy lind
Dus ona
ĠSig frid
B rev
N ec
f oli
i ang
t ulata
op yga
ak e
ph odius
od ic
Ġv ul
Ġt ub
ĠN aga
toc erus
Ex oprosopa
Ġbar angay
Cryp to
Das ineura
ĠShin onaga
D em
Ġs ty
ĠL amb
Ġf lava
ot ar
rig u
Ġro se
Hyd r
Dia d
ĠÃī mile
Ġmeridi onalis
Lisson ota
M or
N ym
gi lis
ĠG on
ĠG rand
ĠR atz
Ġh o
eb urg
Ġor na
gna thus
Micro don
L und
en da
la ce
te us
th am
ĠK ohl
ur is
Ġt ra
ha i
em ia
ĠSuz uki
E os
G n
P lan
R op
u ba
Ġ ton
es ma
el jan
ĠK ulczynski
yl ander
ond yla
Ġ179 8
Ġy unn
Ġpulch ra
Ġelon gatus
ĠRatz eburg
A ris
f e
ĠS j
ĠA na
ens en
ĠT ika
ĠN ylander
ha d
Ã¡ r
ĠHay at
otte lat
Ġn ud
Ġa us
ak ita
da b
ul sky
tif era
M al
te in
do minalis
Ġa sa
ĠK ottelat
Ġmac ulatus
elli na
ĠMich a
Phyll onor
Cla do
ĠBoh eman
Ġmodes ta
Phyllonor ycter
P et
j ap
ma chus
ĠR olf
ĠD ana
Ġf re
ca dion
ĠO akes
ab e
Camp yl
ĠTika der
D ry
N oth
d tong
d ynerus
p os
y li
th ew
om ic
ro ix
ron ia
ani i
tor um
dendor f
f asciatus
ĠM otsch
th en
ĠA mes
id ens
ca pus
ric ia
Ġba baye
Ġlongi cauda
Ġdis par
ĠGu illa
Myc omya
Plec tris
Mel anagromyza
N oto
Ġgi l
in osa
ra ki
ĠF rÃ©
ac as
S pha
T ra
ti lia
ĠL as
ĠT re
ub e
Ġe xi
Ġintermed ius
him ong
dÃ© ric
Ġpacif ica
ĠFrÃ© dÃ©ric
V er
u j
ga y
do ra
os celis
um ann
id ente
ĠN icola
ona x
ĠBr Ã¶
Ġdi ff
Ġbrev icornis
Ġvaria bilis
A ta
H esper
Ġ 6
Ġma l
ĠB ir
ĠL og
od iplosis
ris on
ĠCh andra
ay ne
wig ht
ĠMe illon
Psych oda
ĠLac roix
ĠPoli ce
h na
gi o
om era
le cta
ens ley
di da
tic um
Ġj ac
iv it
toph ora
Sc ol
lo f
Ela ph
Xys ticus
ĠBud de
A ther
P on
c liffe
Ġp ri
og orgia
ura ta
sch e
ĠTaka hashi
ĠAdri an
omac ulata
Ġoli v
ĠCamp bell
I x
L acc
S cia
e las
us i
th an
ĠK al
ĠK ob
and i
Ġe xt
rob ov
ĠRoh dendorf
B is
y rus
ar e
ĠC om
ĠG rig
ĠD enis
ĠD wight
Ġh am
ĠN ut
eb ra
ĠIvan ovich
Ġiner mis
G ona
h ensis
ung dan
ĠJac k
Gl yc
Hem er
Os mia
Omma tius
S u
X iph
on s
il ey
th gen
ĠA g
ip alpis
och th
Ã¼ thgen
toc oris
omp ar
ĠBl Ã¼thgen
Ġrobus tus
ĠNeg robov
ĠVand el
t ud
Ġsa r
Ġgih im
ĠT r
ĠE senbeck
Ġv ali
ae ffer
uli a
Ġte tra
ĠBoris ovitsch
ĠNe es
ĠAdo lph
ĠShi raki
P ycn
S chis
ro x
Ġt ulo
ĠI r
rac omorphus
oth rips
eu ria
erc ops
ĠTok uichi
Bat racomorphus
A u
k si
s son
gi lla
or rh
ĠR uiz
sen ius
Ġac um
gal ensis
Ã¨ ne
tone ura
L ob
a w
b org
f ur
g rand
n ert
Ã ´
Ġ anth
le mann
ba ga
Ch il
gin osa
La ph
ny der
Ġmar m
ĠMac leay
Ġpip ila
akon off
N yc
m Ã©neville
ĠH op
ĠJ acqu
Ġf alla
sa ta
ĠZ e
Ġex ig
ĠKra atz
qua lis
ĠNew man
ĠArn old
n oli
Ġ on
Ġn am
ti enne
op elma
im b
et s
och ilus
Ġruf ipes
Ġ179 4
ĠDi akonoff
Schi zon
Des m
y as
ar et
ĠB rig
ĠH un
ic ta
ĠE wald
tos c
ĠRa ma
car ta
Ex ocentrus
ĠGar cia
Ġtes tac
ĠMartyn ov
Ã º
Ġb ac
ĠS nyder
ti onal
Ġp ha
ub an
ent ina
ron euria
ean u
ill y
ovit sh
Para ph
Ġobsc urus
ĠRav en
ĠDod d
C ond
c eps
d al
ka rd
us ik
is cus
ĠG unna
ul la
ter bein
ĠN ompar
ten a
ther e
ĠCa umont
Ġdi gi
ĠPer rier
ĠKar lis
ĠOt terbein
Ġpalli dus
ĠPrin cis
ĠLap orte
Ġmini ma
ĠGunna r
A st
Ġ -
Ġn ana
en opsis
le e
Ġt rich
Ã© ril
ĠDav ies
Ġdak ong
Ser ic
ole on
ĠDum Ã©ril
cistroc erus
ĠGuilla ume
ĠBrÃ¶ lemann
Ġa tri
er as
th ar
si ana
om erus
ic z
ĠJ oy
ĠCh icker
ha tag
ĠSch en
ĠY as
ĠQu icke
No ti
Pal p
Ġdub ia
ĠChicker ing
s man
z al
Ġ ox
Ġn ep
Ġs angu
er es
ch ner
op lis
ĠB ac
oma r
mp son
ĠDu ret
ix ius
Ser ica
ĠLyne borg
w ei
ĠL und
ul ti
ĠK ensley
ur ina
ing ong
Ġf ri
ĠN ob
ent is
Par an
emb re
Pros op
AN G
ĠMann ing
Cycl ocephala
Star k
P ap
T eph
Ġin or
ec us
ab i
ut tata
ĠMa this
ĠHer man
yo do
Ġwa lay
Cera tina
Ps ylla
ĠTs acas
Schizon ycha
R a
S ta
z ona
li t
ĠB ran
ol s
ĠP ra
ĠD an
ĠE igen
ug na
ĠMar usik
ir ns
Ã© p
ĠZ immer
Lec an
C yp
S il
ig ona
ĠIvan ovitsch
Ġpus illa
Oec etis
Pala e
ĠMotsch ulsky
ĠEigen mann
A sc
k ensis
er os
ĠM erc
ĠT av
oh elea
ĠCh and
ric ola
ay ashi
anth e
ts ov
trich ia
ĠBoh art
Chrysop ilus
Spath ius
S tic
f olia
ĠS tra
il osa
hi ng
ba tus
Ġna h
ĠSa ba
Ġ178 7
Dis c
Ġpara do
Ġhang tod
Bomby lius
A L
E las
t su
v ed
y lia
er son
re pan
ĠK Ã¼
im ia
ros i
tel us
tos an
Ġar cu
Ġsub c
ĠPar khurst
enz el
iner vis
Hali cl
Ġcaliforn ica
ĠCorne lius
ĠVasili evich
B er
N ag
l ba
en leit
Ġa ra
Ġa ter
Ġa ber
ot um
bi o
yr in
ans en
ĠGi es
Hyp er
F annia
H yph
to na
se llus
ĠM asa
Ġm el
ĠW ayne
ot ro
ero ides
Ch ei
ĠKa z
gen ys
ruc e
Ġdim idia
L es
ol di
ĠG ille
Ġlongi p
Mic ra
Ġsp lend
P ty
P yg
n ier
te llus
Ġgi bb
om on
Ġp on
Ġc ryp
Ġan ti
ĠEm eljan
tae tia
ĠSti mpson
ĠEmeljan ov
w han
Ġs mith
Ġb orne
ĠH Ã¶
ic ulatus
ĠF yodo
ĠP ap
ĠCa irns
ĠRe ese
ĠKra mer
ĠBen j
ĠFyodo rovich
C an
D y
ma th
er ti
ra ec
os o
Ġm ong
lin ensis
tig era
Hop litis
Tetra gnatha
ĠDiet rich
ĠH Ã¼
ĠK u
oc ra
Ġf ran
sp er
lad i
Ġg re
ys kal
ie g
ge on
one urus
Ġpul cher
D il
u ana
li i
or ensis
uk od
Ġh ama
ip alpus
qu i
ton us
yc ine
tra m
ele man
ĠAb ra
Halicl ona
C ord
d z
m ma
Ġc and
Ġc it
og omphus
ĠI wa
ĠSte yskal
ĠAr mand
ĠU hler
ech baum
Ġgris e
ĠKri v
Sap romyza
C om
L utz
T ry
a i
on icus
ph ond
ĠK uma
Ġe ur
yn n
ĠEv gen
rol ep
Ġtrans ver
ĠJa ap
C ecido
T in
y evich
Ġ 9
ĠB us
ĠL ang
og n
Ġk la
Ġg er
och aeta
ĠBo is
ĠBer land
eth us
tero ides
ĠEug Ã¨ne
Limn ophora
ĠWolf ram
otrop is
ĠUr ban
Sphec odes
ĠBenj amin
M ol
g era
os h
Ġt ran
ne mus
ad en
Ġnig ripes
ĠRa th
Pro taetia
les i
ĠFel der
ĠLes ne
ĠGus enleit
Tetras tichus
ĠSj Ã¶
ĠGusenleit ner
T ory
d u
la k
is hi
le us
as h
lat ta
ali dia
han ensis
Ġmul tis
Ġpana hon
Lutz omyia
P opillia
u ff
ĠD r
Ġf ac
Ar mad
ĠNikola yevich
Dor cadion
ĠSav chenko
ĠBrand t
ĠEvgen yi
Tory mus
E pis
R iv
d ana
d era
ka e
da ue
Ġh apon
ig ma
tos oma
ĠDe eleman
Or ni
Hol otrichia
Dich ae
uck ett
Ġtris tis
vit tata
stan tin
ĠKoz lov
Acroc ercops
ĠSjÃ¶ stedt
C arc
D elia
G la
ma el
Ġka ra
Ġa uric
il ya
am ia
Ġd up
ha w
yc nus
ĠHer b
ara ch
ĠCo en
Ġ181 6
Ġspec i
ĠMicha il
m Ã¡
li er
to i
Ġin a
ĠA ki
ĠK ott
Ġh as
cha ea
vi ana
Ġ179 3
Ġniti d
Ġchil ensis
Ġn ob
ie ber
ili o
ĠLa ub
bur g
Ġind icus
ĠPi za
echbaum er
d ak
y ella
ĠC ros
ĠC omp
Ġm ich
da i
as sa
ru z
anth rax
Me te
Ġlin eata
Rhy ti
Ġtric olor
Ġhin ungdan
ĠFern ando
ylos tylus
C re
n um
r n
Ġu bang
re inh
ĠD ur
Ġc lyp
as sus
Ġf as
ĠHer bert
Rh ys
ele tier
Or ch
enn ing
ĠNiel sen
phond ylia
reinh old
E ug
P odo
T ryp
s ina
ra ad
Ġc re
Ġc ub
Ġk us
ob ar
oph ylla
ĠStefan o
Ġch a
Mic roc
ĠRe gan
ly tus
Ġbrun ne
Ste g
ckel berg
Cond ylostylus
ĠCoen raad
S elen
z ii
gi da
os is
ed ia
ĠN eb
uy en
ker ras
ou ri
eph th
ari ensis
Mac roc
Brach yp
ĠSta ckelberg
iros treptus
Ġlaev is
aros lav
Stro ng
P i
T rog
V illa
an on
ic er
ĠD ruce
id um
Ġg o
top ogon
Ġbrun nea
Ġsu ba
ĠNa ka
Ġmagn if
Ġ ip
tan gan
ch aeta
Ġp e
ing ensis
och lora
Ġch inensis
Ġex c
Ġinter rup
Lim ne
ĠBro ok
ĠWe ber
ĠNg uyen
Stil obezzia
ĠKob ayashi
S yr
Ġa mo
ph ron
ro tt
le v
Ġc ili
ĠT at
im er
eph eus
ala s
rac anth
las ton
ĠHar ry
ham i
Ġ181 9
uz ne
Tach ina
Symp ycnus
duc ta
ĠLaur ent
udh uri
H yal
P ag
g on
Ġs eg
ĠS ar
op lia
ĠH ood
it ta
ric ornis
ĠI gor
tr om
gin ea
Tri oza
Ġvit tata
ĠTor re
Ġnak o
Ġkina buhi
Gyp ona
ĠChand ler
a wa
Ġka pi
er na
in es
Ġbak eri
ig ra
ĠO lof
up p
Ġnag pa
Ã³ n
Ġquad ris
Eup el
ind anao
Eri ococcus
ĠEng el
U ran
v ey
os ticta
ia l
ĠB as
si mus
si mum
ĠD ar
Ch ar
Par al
ĠTa iti
ĠSer gei
ĠMac kerras
Chlor ops
ĠWes mael
H omal
T e
ga ra
ri da
ĠH obb
ĠY ama
ĠWal lace
ĠBr ulle
Ġw e
Chrys otus
ĠMan daue
ĠWol laston
H ir
f our
ma rus
Ġb asalis
ĠH uckett
Ġp o
ic ki
Ġm en
hi yon
un ensis
Ġc e
oc ar
tes ia
ĠSch leg
roc erus
ose lla
Ġba o
ĠSha dab
rico topus
Ġniti da
ĠSchleg el
I phia
p s
Ġ lis
Ġs ur
el y
ia tus
om u
ob oth
em on
top tera
Ġda v
pha ga
mar ginata
Ġor natus
Ġmul ti
ĠJak ob
Iphia ulax
j o
k ia
Ġ1 0
om itra
ol ana
ro i
ĠJ en
ob ata
ov ia
anth ura
oloph us
Ġpic ta
ogna tha
Ġann uli
Ec n
s tes
ga ri
en ac
ĠS ingh
Ġp re
ĠJ ona
un gi
ran us
eli us
tig er
tica uda
war t
Ġmada gas
ĠHobb s
C ixius
U n
k us
te ll
do c
Ġgi ingong
or th
op la
op oli
os pi
om orium
ĠL apu
ĠD ay
im ba
ell eri
til us
ins ky
Ġvarie gata
Fre ycine
Dem onax
Freycine tia
I ris
N ann
r re
Ġin cis
ol owska
ĠL ich
ph ilus
da hl
ot re
ĠO l
ĠBo tosan
Gl yp
Con tarinia
lim nophila
Ġstri ata
ĠGr ube
I I
b as
k ey
w ski
to le
Ġs tigma
ri f
Ġp eti
ic ella
amp ion
ĠPer cy
Ġcar inata
ĠBe amer
ĠWes olowska
Ġtuberc ulata
ĠSto ck
ĠRod rigu
C yan
i z
j al
Ġs oc
se ta
Ġb ella
ĠS id
Ġk ra
An ti
res sus
Plat yc
ste in
Cal op
Cal lis
Ep ic
ĠCon s
mit tia
Ġbuk ya
ĠBotosan eanu
b igny
c ox
Ġ 8
en ci
do m
ar gus
ti ventris
ĠB resc
ph or
Ġt rop
yl v
Ġla teralis
ĠJohn ston
Ġan yos
amb us
Lepto thorax
blat ta
ĠKri echbaumer
Eos entomon
ĠBresc ovit
A lei
g re
Ġ rich
an ella
li cus
ma lus
Ġa sia
Ġb ad
om ont
Ġp unctatus
da t
ĠD enning
Ġc am
yd ney
Pseudo s
ĠMartin ez
Ġat ten
ĠBra uer
ĠSchul z
ĠBouc omont
Ġjapon icus
Ġhirsu ta
Anac roneuria
Clath ria
a tus
Ġ ova
Ġn o
to rius
er on
se s
Ġin con
ona tus
Ġba si
ho ff
Am orph
ĠGusta f
Col p
Sph en
sic ornis
Ġden tic
Rhi p
Ġsil v
B emb
B ezzia
D oc
E ut
P in
h ynchus
k ta
s eni
Ġa tro
Ġgi ka
th or
ph ale
ĠF eng
ĠR ey
Ġh eter
ich neumon
ĠHen k
ĠLa f
enz lin
Ġto w
Dac us
Ġretic ulata
ĠLep eletier
ĠXav er
Form ica
Laph ria
B ur
D ama
Ġma k
es thes
ĠS car
ĠL it
oc oris
ry a
ep ta
em ph
ard ia
Ġan tarc
ci on
bo tan
ken thal
bu ok
ĠSchul tz
resc ens
ĠRud y
ĠGy Ã¶
B oli
C li
C yn
L iss
O dynerus
g ula
gi d
ar y
on em
Ġl una
ĠB lum
th el
uk e
Ġc osta
ur gus
ĠWil lard
tar ia
Ġcon color
Ġflav ic
ĠRa ff
ois s
Mon omorium
ald well
ĠSz Ã©p
ĠGar y
Hop lia
Ġgita wag
ĠKÃ¼ kenthal
ĠGyÃ¶ Ã¶
ĠSzÃ©p ligeti
H yl
M ay
b osa
te t
ti v
ĠC aldwell
Ġp ers
ph ac
ip ona
toc era
uhi ko
ĠSer ville
As phondylia
ĠKra enzlin
Ġlala ki
Peg omya
Teuch olabis
ĠBrig noli
lee ker
b om
l ot
Ġs ol
Ġgi pusil
ĠB leeker
ig nata
ov al
ei rus
sing ham
ĠAr tur
Chrys ops
Ġ180 3
Eur yc
Ġopis yal
b ara
ti va
Ġp i
Ġp asa
ĠJ aroslav
ĠK uzne
ĠN i
Ch alc
ĠWal singham
Ġde f
oni ella
ly th
Ġmag na
Phy tocoris
chth ys
Ġpil osa
val ho
Oxy opes
Ġmexic anus
ĠNeb oiss
ĠArtur s
K a
O z
h ol
Ġs hi
do na
Ġma tag
ĠS ur
re tt
Ġm uc
Ġm ili
og ra
Ġtan ang
ot rach
ĠV ig
ĠCarl gren
ĠBr om
Rh ynch
Sp irostreptus
Dic ty
Ġmay or
Alei odes
A me
O pis
S umala
c ornis
o ol
er si
in k
ch ow
ĠH um
Ġv el
Ġv ol
ea u
son ia
ĠHer rich
Ne telia
ĠCar valho
Ġcom m
ĠRath bun
C roc
b ella
os var
ĠB eyer
ĠP res
ĠD ra
Ġk ir
Ġf asciatus
tra tus
ĠSh ear
Ana s
ĠGor y
ister nus
Ġana a
Parm otrema
Mete orus
B al
P rim
b rev
m ana
v et
es is
ĠB y
ĠB ala
un di
ne mis
eri ella
Ġsing ularis
Pseudo m
ty lis
Ġoch rac
ĠJo Ã£o
ĠHut ton
s or
u ji
ri um
Ġin cer
ĠB oy
al o
ĠR ol
Ġc alli
och aris
pin osus
ni phora
Ap ocephalus
Ġun ta
ĠBur geon
ja ev
Din otrema
Eun idia
Ġari zon
ĠIsa ac
Ġfalla x
ĠSchen kel
ĠBrom ley
d eni
v as
to v
Ġb on
el ba
ĠS in
ĠL u
ĠG oz
ĠK ap
ub o
och e
och romis
tis sima
An c
Rh ac
Ġth orac
kin son
Pach y
ĠAmÃ©dÃ© e
Ata enius
s ens
z um
an da
ĠCh ou
Ã¶ m
Ġ179 2
Cha eto
Dolich opeza
ĠStar y
Porcelli o
A rach
d un
ĠH i
og u
Ġk or
ĠE b
ĠO ff
uli fer
ad i
ik o
mer ia
Ex ochus
men to
Ġnata lensis
Dipl ota
p tera
ka ma
Ġb el
es tylum
ĠS y
ĠR ag
ĠD on
ac eus
ot to
et ina
ĠMar ga
tes z
ĠI shi
don i
Ne ma
ram m
ham mad
ĠMu eller
Cop estylum
ĠHoff man
P hila
c ock
o toma
ĠC er
ĠJ asch
Ġf lex
ca la
ent s
Ġman tala
hn tner
Ca lad
hang lan
roch ilum
Ġparv us
roph thal
Eum erus
Ġmaculi pennis
bre cht
A del
S ciara
T ap
r ug
y u
en to
li eb
in th
ĠC ab
ĠL atre
ĠG ard
od ium
od erma
Ġd entata
Ġf enes
Ġf urc
Ch eli
ow i
tif er
ĠMu hammad
Ma o
ĠLatre ille
N ep
an omyia
li cata
gi lus
Ġp ed
Ġd ich
ub ong
ĠSch ne
ros us
tom ia
Ġpulch ella
A ug
N i
e o
to bia
ula e
ĠH ild
al um
re ira
ĠG asp
ĠP op
Ġc inc
as abot
Ġasp er
Ġna matay
tri ata
ren tep
Ġga was
ĠLa zar
Sc y
Ġmar ginata
opa uropus
Si ph
Bar bus
che ilus
Ġpinulong an
ĠGeoff roy
ĠZe hntner
ĠGasp ard
ta b
ĠB ib
le se
ĠD illon
un is
Ġc ruc
ca e
rd i
ĠAl ban
Me gas
ĠJohann sen
eg er
Ġnahi tabo
Ar g
Ġruf escens
Dia phorus
gy rus
ĠPo ore
ĠKer tesz
Phan ero
Ober ea
ĠAbra ham
ĠBlum e
A pa
C am
I T
M en
t ron
z l
ri ae
Ġp rin
al es
ul ta
Me top
ĠBr ull
Pro to
Ar th
Dend rochilum
Ser gen
Diplota xis
rentep oh
M at
y gi
Ġn ota
ma la
Ġka m
Ġa mi
Ġa tol
ula cus
ĠB i
ĠB ag
Ġp ru
ic ea
ĠL ar
ĠD eb
og an
Ġd ila
tin ia
one ta
des mus
eth ira
Ġab dominalis
orac e
Ġdag hang
Ġameric ana
ĠMy ers
Bemb idion
ĠJasch hof
C erodon
S ophron
T en
T rentepoh
er ina
ch ilus
ra eus
Ġp all
ĠD alla
Ġc un
ĠWil cox
uc ken
ud is
ops yllus
ten d
ert y
idi otus
Ġflav escens
oni um
Dend ron
Ġama zon
Tom osvar
ĠKel sey
rott ky
Cerodon tha
Trentepoh lia
Tomosvar yella
A pi
G as
G ladi
M il
M all
g eri
t ch
u to
gi ata
ar ensis
ĠS oy
ya ma
ĠZ wick
anth era
An opl
st re
Ġ181 1
Ġbi maculata
Ophi omyia
uv al
ĠGott lieb
Ġlug ub
Calop tilia
C ic
S eto
T or
l oe
v ari
w on
Ġu ni
ĠS ydney
ti ch
ĠD em
ĠD ir
ens us
oc tonus
qu inet
uc tob
ud us
ero dactylus
va la
Ne oloph
tr Ã¶m
Ġnig rop
ĠLi ang
Lepto gaster
Ġsusp ek
ĠTos quinet
oxi pha
Gyn oplis
jap itz
Ġaber rans
Uran otaenia
ĠSchne ider
Gynoplis tia
D rass
K ar
is e
ta y
Ġm od
Ġm and
ĠR oman
ĠSch rottky
st ric
Ġpag t
Ġar mata
eth oven
Ġ179 1
All oc
Ġspin osus
ĠBe ethoven
Ġbif ur
Eri optera
Bla es
Ġrot unda
lba uer
ĠBrull Ã©
A ra
X es
c olas
Ġ ign
Ġni ining
ga lis
Ġa ethi
Ġb uh
ĠA v
ĠL ess
da ta
od romia
if oli
ĠRobert son
Ġoc c
Ġpol y
Ple cia
Ġnov ae
zan owski
D repan
L apu
s oma
Ġs ut
er cus
se va
ĠB lyth
ĠW ei
ĠP as
ĠR amb
ĠK iri
Ġd em
ec ia
ran t
ĠTh Ã©
pha en
Ġmac ro
Mac ropsis
urc ell
In do
ĠMer rill
ĠSchwar z
sev itch
Ġphilip pin
ĠBry ant
nert z
Neoloph onotus
P aul
m eyer
Ġu bos
ĠH as
da chner
ĠK in
ig ema
ne i
Ġna a
Ġla tif
der son
ĠHa j
Ġparv ula
Cyr to
ĠWin nertz
ĠTana sevitch
Lacc ophilus
L an
T mes
d uval
l zel
t ros
ri tus
ĠP urcell
ĠT ri
oph allus
ot ylus
ĠWil ton
gam hanan
illa tus
Ġun c
Hyd rops
oris ta
mes a
ring er
Ġama han
Hali ctus
Ġdag han
ĠThi ele
leit Ã£o
ĠRub tsov
Ather igona
ĠHÃ¶ lzel
Calad enia
A B
G oni
U r
u ka
li ta
or ma
ol obus
Ġm im
ĠG ill
le tte
ĠK am
ell en
ĠMar tius
Ne ob
Ġta mb
ĠBer lese
Ġac anth
ĠSo ula
gis mund
ĠSal vin
ĠSi gismund
Cecido myia
Gladi olus
A mi
b nic
k es
si ella
si lia
Ġe v
ev e
ĠOs bert
ĠHay ward
uv ier
Lei oproctus
Scap tomyza
Ġtrun cata
Lecan ora
ĠLess ert
P eli
Ġp l
Ġk ri
lis abeth
ba d
ber a
ĠGi b
Ġlongi sp
co gaster
No toph
ophy tum
Ptero malus
Ġdistin cta
ĠNut ting
Prosop ocera
R am
Ġ om
Ġma hi
Ġin te
si color
Ġp ak
Ġp uncta
Ġc roc
oc chi
ev an
ut ter
Ac al
ld e
Ġlin d
Cha ma
Ġver ruc
Asp ilota
ĠIn ing
ĠKun th
ĠRem m
Ġmia ging
ĠAlek sei
ĠBois duval
Sergen tomyia
Hydrops yche
A gal
d n
en nes
Ġb lan
ti ana
ĠH oe
ro na
ĠK ing
og g
ur ella
qu us
ora ea
ĠSch aeffer
di ana
tr oph
Ġli g
ĠChris ti
Leuc oph
Ġim ong
Ġed ward
Ġpam ilya
ĠRolf e
Strong yl
Ecn omus
L am
w er
Ã «
an tis
Ġs en
is ÅĤ
Ġb ro
es sa
ĠM uller
ĠC uvier
ul s
ĠK Ã¶
ip s
qu ama
ĠSch wen
ita ta
ĠLi ma
Orth ocladius
Ġhe tero
ĠMed ler
ochth onius
ĠSchwen ke
P olis
y ge
wa ll
Ġka t
Ġma t
se c
th ie
ĠH or
ol on
ĠK r
ĠK re
ed usa
ell uc
ĠSte bnic
end ra
Ne os
cher on
ĠKa to
Eu ch
Ġlu gar
Cop ris
ĠCha se
ĠKn ull
Ġtai w
Nym phon
Blaes oxipha
ĠStebnic ka
S yc
T elma
Ġgi gas
Ġgi tu
Ġ1 2
on ella
on ova
ĠL ans
ĠL uer
ĠG rich
ha b
ir d
anth es
ĠCarl yle
sh ev
Ac rop
yd rus
rid is
Ġga r
On c
ĠMor se
Aph is
Ġfron talis
Ġina han
ephth ya
ĠGrich anov
G ag
te e
ĠH il
Ġc alc
ĠN icol
ou p
ĠAl f
cis trus
elli i
He teroc
ĠLes son
ĠAle ks
Ġpop ula
Ġprop in
Ġkata whan
ĠPro ut
do uard
Ġa k
ch ild
es tro
ĠJ enn
ĠP ont
Ġk u
ĠO h
ev ra
ros p
yp tera
ĠZ dz
Pol ydesmus
les s
Ġhum ilis
ĠGa ima
ĠPol l
Ġfusc ipennis
Oli os
ĠStein dachner
Ġcorn uta
Ġaur anti
ĠKus igema
Ġmeta lli
ĠRaf ael
Sophron ica
isÅĤ awa
ĠZdz isÅĤawa
ĠKusigema ti
S yne
t tar
Ã ¢
ma lay
ri mus
el oribates
al p
ĠL ub
Ġk ur
ec ke
ĠCh ild
ell man
ong res
och lor
Ġe ch
ik ov
pha era
rach ne
ĠShi ma
Spil ogona
ĠOff ice
ĠAleks and
in eus
ĠB ha
od d
Ġf uli
man us
ĠO no
ĠHen derson
ĠAl b
ĠBor ch
tz ov
ĠBur ret
ĠPar k
ony mus
eis er
ĠBac escu
Ġce yl
ĠAlban y
D ig
P edi
g son
ĠH orace
Ġc ari
ĠT ac
ĠV ol
Ġla tifrons
ĠMa si
ent ulus
ori des
ĠSh annon
Ġnag s
illi dium
ste ad
Lepto tarsus
Ġcol um
ass ler
ĠMi y
ĠCap ener
Pan orpa
Ger anomyia
Ġdor salis
Comp s
C erc
D eli
F al
x e
ĠF itz
un ov
ul od
id ura
ne z
era tus
ud er
Camp sic
Cten us
Ġobs cu
Mach imus
Eupel mus
Dendron ephthya
ĠChristi ansen
E v
H ar
e da
s ti
ri tis
ĠG ood
ĠP av
Ġc ing
oc ryptus
Ġd al
ig h
lod es
ori o
odo r
rov er
ĠPar ker
Ġap ic
Tet rag
ĠFair child
inc la
Ã¨ rre
ĠPi Ã¨rre
ĠRamb ur
Campsic nemus
N os
P til
h ys
Ġs ha
ri ensis
ra chium
op lex
Ġp enic
ul enta
qu er
Ch roma
und in
land i
osc opus
En car
Ġten eb
ĠPic tet
ĠSha tal
law on
tob ius
Ġpus illus
Ġconf usa
Atra c
Dichae tomyia
ĠJona than
ĠShatal kin
W al
Z ethus
Ġa re
ta tum
ĠA ra
Ġm ob
oph anes
ug e
ila r
Ġpa uli
ĠSp eiser
Ġser rata
enfel s
Ġcaliforn icus
Bi bio
ĠGrig or
Pty ch
ĠLaub enfels
A ulac
N ia
e ura
la in
Ġma himong
on cus
es tus
ĠM is
ĠJ ensen
ĠF l
un es
ĠT i
nd ez
ent in
Ġi la
ther us
ĠJoseph ine
Or gilus
Ana gyrus
Sc elio
xi pha
ĠNav as
for t
Bom bus
ĠRus sell
ckena er
Palp omyia
ĠLans berge
E m
I d
k la
os he
om ir
ĠR om
Ġk ugi
Ġf lag
yl lia
qu es
ev Ã¨re
ĠWal ckenaer
up yo
Rh odo
Ang raec
ĠBar rion
Ġruf a
ĠFa h
mac ula
opter on
He tera
ĠMi hai
Lip aret
ĠAus ten
Ġafric anus
Ġamb ig
ĠLuis a
Coryn optera
Prim evÃ¨re
ĠGib son
Polis tes
ĠBorch senius
Liparet rus
z z
Ġs ey
Ġa rab
Ġ1 1
si m
om et
ĠL Ã¡s
le ura
ĠF ar
ella e
och roa
lat um
enta l
Ġab brev
ulic ornis
Ġsc ulp
ĠEug enia
Xanthop impla
omac ulatus
ĠJack son
mÃ¡ ny
ĠGoz mÃ¡ny
dun no
zl Ã³
ĠLÃ¡s zlÃ³
A ugus
Ġn anga
Ġni yang
li tus
Ġa en
Ġb us
ic tus
ph eus
rich ia
eb rand
ota m
chi i
Ġde bilis
Ġw hi
ĠBer ry
Ġsp ar
Ġtu ber
ĠBlan co
rit chard
ĠAnders en
aran ea
A er
H ex
V ar
r omyia
Ġ ok
to e
na b
ang kon
ĠH ope
ol l
ĠL ev
uc ker
lin o
Ġal ba
Par ach
res na
if olia
ÃŃ as
Ġnag ka
Pro machus
Plat ys
Ġti buok
ĠDa hl
ĠTaka oka
ĠÃī tienne
ĠÃī douard
Philod romus
Ġstria tus
Ġung oy
ĠMarga ret
C ardi
M isch
S mi
g omphus
l ong
u le
Ġni v
Ġs etosa
Ġgi d
us us
ang eli
op pa
it son
ĠO chi
Ch lori
Ġ181 5
Ġex ca
ĠEmer ton
Ġbala od
Ġae qu
E r
Ġs pi
ti m
ĠA p
ĠG I
ĠD en
Ġc us
ot ry
qu ist
lin um
ud es
Ġal ta
Ne ola
ĠBar nes
Ġhum eralis
Cla donia
ĠTaka gi
ĠKon stantin
ocy ttar
Ġmodes tus
ĠHew itson
ophry ne
B o
F ri
G loss
L umb
T el
n ell
se ius
Ġb uha
il han
ĠC oh
om oi
hi gayon
00 0
Ġh an
och ae
ĠSte wart
ĠZ er
eph agus
ĠAr t
ĠSa int
ĠSc opoli
van ia
Si phon
ĠGar ay
rag ma
ĠMas ner
gina lis
bro ugh
Lyc osa
Dys dera
ĠSub ÃŃas
ĠShel ford
Ġmong oli
enci ennes
ĠLit singer
ocyttar us
l yc
Ġ way
an tia
Ġka uga
ula tor
Ġgi gamit
in ter
es ar
el lis
Ġp ini
am is
am tang
Ġc ren
ĠCh vala
ne cht
ep pe
sch i
top sis
ĠBa ird
ĠDu ellman
rog gat
ĠWhi t
Ġ176 7
Harp ac
Ġlugub ris
Tmes isternus
Encar sia
E ph
P ra
T i
h or
li opsis
on ta
ch amb
ĠB assler
ĠG ius
da wat
ona ria
ĠSa ka
ĠSa ylor
Mic r
Ġpul ong
ffer ia
Ã¡ le
tod iplosis
Ġbrun n
Melan oplus
ĠSpin elli
ĠHut ch
bali k
Ġpub escens
Ġpyg maea
spic ua
ĠHod gson
ĠLub omir
C at
D oh
H ys
T eth
h om
en ensis
ka s
na s
Ġl o
Ġc og
oc amp
Ch al
Par ab
An op
Ac i
ĠAnd y
ele on
Ġca uca
Cryp top
ĠIng ram
ĠCan u
Scap todrosophila
ĠLehr er
ĠScar brough
Deli as
B otan
l ys
en ce
Ġl uri
ĠM am
ĠB od
Ġp roc
Ġm ys
Ġc amer
Ġk om
ran k
at u
roc ephalus
Me la
Lep idium
ĠCol e
Ġnigric eps
Af ro
ople urus
Ġsuma tr
ĠAki ra
japitz in
Botan ophila
C ali
X er
c eus
Ġni tens
Ġka b
Ġa qu
Ġb ru
ĠC os
Ġc eleb
as ta
ĠE rik
ean us
tr ella
ras hima
Ġru gi
amb arus
Or m
Ġmin yo
Ġbrun neus
jan ova
Om phale
Ori ba
dunno ugh
Misch ocyttarus
k yi
t ulatus
Ġ q
ga lde
en ham
Ġs tella
in b
se kh
Ġb ivit
op ec
op ach
ĠB Ã¢
ro t
Ġc ra
ĠT an
od ytes
Ġd ev
ĠCh eng
gas si
yp a
ĠU galde
ela e
Mega l
Ġun sa
ĠMc dunnough
Ġcar inatus
gal umna
Aph y
Ġciner ea
ump t
Com m
ĠLaf resna
ĠBib ron
tend ipes
ĠBÃ¢ thie
ĠLafresna ye
L ach
c ei
y ensis
in ga
on ocephalus
ri i
ĠM ish
ĠH ick
Ġf ar
Ġf oli
im bri
Ġg en
ĠZ umpt
Ġsi yang
han ang
Ġlongi pennis
ĠBor k
rans field
ĠSteph ens
ogry llacris
Ġkaba yo
ĠKuzne tzov
Z y
u berc
z us
ch eri
ĠB ona
Ġp el
Ġm ip
ĠG uy
le b
ĠP ag
id en
ba ut
ĠN un
Ġg ros
ent ra
Ġsi bi
yn us
ĠPar ui
Plat ych
Ġfus cus
ĠHarris on
Heter onyx
Euc era
Ġnahim ong
ĠGregor y
ĠEx ley
Hydr ellia
Ġexi lis
Ġgihim o
ĠHop per
ĠCons tant
Ġkugi ta
Doh r
I so
P enta
d ius
y ba
te ca
da yon
ric eps
ff i
Ph enac
ad e
Ac ro
Ġw illi
ĠSan tis
ope as
Sym ph
tog ramma
ĠMil es
ĠSae ger
Ġtriang ularis
ĠBos mans
Edward s
ĠChandra sekh
Dohr niphora
A ri
O ed
S e
v eira
Å ¡
Ġ ingon
ga was
Ġs tra
er la
Ġu nis
Ġlan ce
os ita
ĠC liff
om ph
Ġm inus
ĠP eng
ĠD ransfield
ens ky
ry i
ig na
qu et
qu ez
ĠMa a
Ġpag pan
ĠSh am
Pro ta
Ġex p
ĠNikola j
ĠMel zer
ĠKon onova
Ery simum
ĠVal enciennes
Del phac
Met ri
Parali m
Ġyunn anensis
ĠTr japitzin
ĠKriv oshe
ĠRodrigu es
Acal olepta
ĠJenn ifer
Ġkauga ling
ĠKrivoshe ina
A x
P ip
S trep
T hi
Ġ tom
Ġ tha
Ġn at
Ġs cu
op ora
ol tz
ĠW right
ĠR eg
ĠO man
ne tt
ran ia
ran da
ep om
Ch ond
ĠVer non
bon illa
Ġdia y
ĠGr anger
Gry on
L eth
P hi
l yph
ka t
se mus
os ch
ĠA t
ĠR ib
ĠD ep
ĠE ver
and ez
ran i
eri o
Ġla was
eb es
ĠSa dao
Ġan omala
ska ya
oglos sa
bach ia
ycl ops
dop sis
ower by
heim s
Ġameric anus
ĠDom ing
tele ia
Ix odes
Ġbuh ok
ĠTac zanowski
C ari
E fferia
H ad
I son
T ria
la us
Ġma lay
Ġb ir
Ġp apu
ĠK ura
Ġk omp
ĠV ira
yan o
Ġalb op
ĠHol lis
no tes
Ġkon se
Ġacu ta
Ġniti dus
Ã± igo
enoc arpa
Tur bonilla
ĠXav ier
Ġferru ginea
Ġasa wa
ĠSaba do
ĠDem ange
ĠChandrasekh ara
P A
P eta
R ob
c ker
w old
y gia
Ġ *
Ġn ay
Ġb ig
es h
ĠS owerby
op alpus
ĠM omoi
Ġp s
ph osa
ĠF ieber
am en
ub art
opter um
Aph an
Pha enocarpa
par te
Ġmic ro
Ġver sicolor
enko i
Ge lis
Ġfur cata
ĠShar key
ĠVil kama
Hyb omitra
Ġcana densis
ĠGui do
Ble phar
Tem el
Ġnahimu tang
ĠVilkama a
D id
c ra
t inata
w ini
Ã į
es tr
ĠM indanao
ĠH ey
ĠL ip
ĠL umb
ĠP aste
un elle
Ġc ata
Ġg ram
Ã© e
Ġna ma
ria tus
mp is
ĠAnd erson
Ġw ood
Pol l
Ġdo lich
Ġas s
ĠMauri Ã¨s
Trop ido
Luc ilia
red ale
kta math
Notoph thiracarus
ĠGius eppe
ĠVira ktamath
Temel ucha
Ãį Ã±igo
H ister
L imon
S tra
c tis
f acies
j uk
k owski
u eri
v ert
ta ea
or ina
ĠF on
as yon
ag es
Ġg us
ĠSch rank
ĠSch ubart
ĠSte bb
Lep ta
Ġch al
Th e
Ġpa ma
ĠVer me
ĠSt uder
ĠPa ula
ĠBen edic
rap etis
Ġha in
Ġcomp ac
for di
ĠRi baut
ĠLog unov
Angraec um
ĠBork ent
ĠCliff ord
P sa
S uctob
c era
to x
Ġa ch
tan ia
Ġgih apon
in aria
ch ys
il y
th rips
Ġp av
le ata
ag rus
Ġd ug
ing ton
ĠI redale
eli i
ab ka
ĠZ abka
oli m
yr phus
ĠAr c
yd is
yan an
Ġsub p
ua tus
mar t
Ġ178 8
Ġvi ri
yer no
Ã³s zynski
ĠPat ricia
ĠPr Ã³szynski
Ġmadagas cari
H ogna
T ar
Ã ª
Ġ '
tan ica
Ġin ae
Ġp ulis
ut tle
Ph yl
ent ro
bi ensis
if lora
Rh e
Ġti ng
ovit tata
Ġmic ros
Rha ph
Ã¤ ffer
Ta eni
Limn ophila
Ġdub ius
' s
C ricotopus
e f
o ga
y embre
Ġs imon
Ġa ris
on ga
ĠM us
le bia
ĠD ak
og en
sp ongia
ric ollis
ale don
Ġcol laris
Ġme gal
Schiz op
Ġrug osa
Pyr g
Armad illidium
Delphac odes
ĠLumb sch
C arp
G ipa
I L
b anus
c ina
d ina
to ra
il di
ĠD ogn
ĠK y
ĠK os
od rosophila
ry m
ig an
son ii
Ġi ta
Ġun ya
ĠMor on
Ġab yss
Ġ201 2
Ġins oli
Chlor ophorus
tria tus
Ġapp end
Ġscutella ris
Seto des
ĠVerme ulen
ĠDogn in
F a
Ġs ic
Ġs ob
os yllis
th ippus
ĠH jal
om ella
ĠR as
oh ang
ig ht
ie ff
Ġcon stric
gin osus
Ġsp at
Ġbrev ic
ĠAndre as
ĠHa w
Ġinf us
Ġnigric ornis
omer is
ĠRos en
ochi ton
Carc elia
Ġphilippin ensis
ĠHjal mar
M ei
R at
n oda
s tus
u roc
in da
on ot
Ġin si
os tichus
ĠB ock
il o
th emis
Ġp elluc
Ġm it
ob i
anth idium
tr ura
amb e
Ġalb os
Ana stre
eu on
Dicran ota
ĠShar ma
ĠCas tro
Orm osia
B or
C rep
E ula
S mic
h ua
l und
v ass
y od
Ġs is
in gia
ar ica
ri dium
op tila
ĠM ck
ĠH ur
Ġp rom
ic omyia
ĠG w
ĠW ie
ĠR ow
og yne
ac e
ber hard
ĠV ita
Ġe b
Ġe u
ola emus
ut tatus
Ġal ticola
yph lops
uma topsyche
ĠDe chamb
ĠBal ke
ĠMat thew
Ġpal lipes
tens tein
Che umatopsyche
ĠHolm berg
Chor thippus
Hydro vatus
Ġrot und
Ġmantala ang
ĠDechamb re
j uncta
Ġ gam
Ġn um
te x
Ġka da
ta k
ti ka
ĠA dam
ĠL utz
ĠG enna
ur um
Ġv enus
ĠI II
Ne operla
Pse c
Ġta g
art sh
ĠMor ley
Ġpro f
Aph on
As ta
ĠKra use
Meta p
ech ia
tens en
Syn opeas
Sti ch
Ġgracili pes
Rhopal omyia
Lib notes
Coni opteryx
ĠLich tenstein
Ame gilla
ĠEb mer
ĠAleksand r
toe chus
D uri
T marus
e opsis
t ya
Ġ xi
ma i
op las
ĠC zer
ĠA c
id ella
Ġd ip
ĠO p
ola imus
Ġla ta
Me lis
Ġnig roc
ĠGi bb
rig ona
pe tus
oba tus
Ġaustra liensis
Ġtuberc ulatus
ĠPr ins
mal di
ĠGris wold
ĠJoy ce
ĠDeb enham
C in
C ub
f ani
te si
ma rachne
Ġa v
Ġa lex
Ġma p
na l
ch ina
ĠM ura
ia p
ton otus
Ġla evi
sch Ã¤ffer
ili an
Ġpic tus
My si
uth is
Myr marachne
ĠBro om
Odon tomyia
ony chus
Ġpra ec
Tric entrus
Ġrh odo
ĠHan itsch
Brachy meria
Lon chaea
ĠRad cliffe
ĠHi rashima
W a
o telus
Ġ ran
Ġni pp
te thus
Ġka gamhanan
gi ta
ti ella
ĠT ix
Ġf alc
ĠN epom
ud inger
ura x
Ġal p
ĠMa o
Ġre hiyon
Ġli t
ari on
ĠDe jean
Al c
Ġmin ut
lor um
Co tesia
Ġlu zon
ĠSta udinger
ĠHel m
ĠVi ette
Ger on
Cocc ophagus
ĠAh med
Ġatlan tica
ĠMish chenko
ĠTix ier
ĠNepom uk
D rapetis
E ris
K on
P ed
S eri
c ens
k ini
Ġ ze
Ġs ang
gi ca
er to
ti ko
op i
ic les
am an
id ula
der us
Ġta sman
Ġnig ros
ĠZh ou
Al ys
ĠCla us
Mac rop
Ġca eru
osp ora
Ps amm
Ġful va
rol l
Amphi ura
ĠTra ub
lamp us
Ġprob lema
elling er
ĠMein ander
Psylla ephagus
Tin odes
ĠSid ney
ĠGaima rd
ĠBona parte
Ġmadagascari ensis
h li
m oc
o encyrtus
Ġn gan
en odes
Ġs ph
in ar
op ygus
os tata
Ġp ros
Ġm y
oph ya
lin ia
ona rius
roc k
uri ensis
Pol ynema
ĠRe ed
yb rach
Ġmar gin
Chrys opa
Ġcar o
Hyp otrach
Ġra dia
Ġ178 5
oid eus
Ther eva
Gna th
Comm elina
Hypotrach yna
C entris
v ens
Ġma h
xt a
is us
ch el
ti as
ĠP ran
ĠD uc
ac ek
Ġg ri
ud in
Ġla tis
yc tes
ans sens
ym p
Ġnig rescens
rid ea
Sc ler
Ġlin ea
Gl yph
Ġlu tea
Ġrub ri
ĠHel ge
ĠThor sten
ĠQu oy
Tach y
ĠBerg quist
Ġgla uc
Ġfem oralis
Gi ila
P impla
S ep
d ep
o on
p ora
Ġ za
Ġka la
ĠB ed
ĠB aptis
il ma
al lis
le ta
ĠR upp
ĠD onis
un s
ĠN il
Ġang ulata
eg ma
Ġruf iventris
ĠFa uch
Ġlin eatus
Con os
ĠZa ka
Ġ176 3
Ġpil osus
Ġvic ina
Ġpacif icus
vo ort
ĠShel ley
ĠAnn ecke
thor pe
Limon ia
Anastre pha
ĠDonis thorpe
b ac
m ena
v at
x imus
to da
Ġs el
na ud
ĠS wa
ĠB ellinger
om es
ul oides
ĠK han
ĠT j
ĠE li
sa amen
ep p
lin s
lan is
Ġun iformis
lo o
osp ila
Ġmul tip
ĠSo est
Ġfra gilis
Ġretic ulatus
Bol b
ĠCal vert
Ġcastan ea
ogas tra
ĠNaga tomi
Ġborne ensis
ĠFauch ald
A K
C ri
L ic
M in
li ae
te re
ri ella
ĠS incla
il osus
ĠG ir
ĠJ anssens
ĠK emp
ag ria
Ġh ap
ca tum
ha o
Ġna ga
ĠSch w
Ġla in
va ult
Ne oh
art seva
aria e
Ġsp ecta
Sten opogon
ling er
Ġ178 0
Ġ178 3
Ag romyza
ĠGri maldi
toch ilum
oste ria
inet tia
Ġpoli ta
ĠDes utter
sik op
ĠMy artseva
ĠMori tz
Ġgigan tea
ters all
ĠGur janova
grand colas
ĠTat tersall
Duri vault
ĠSincla ir
N ic
k ell
v ard
en si
to ly
Ġb ali
ĠS vet
ĠB eth
Ġh eli
ed ek
ĠO ri
ĠO ber
ell ula
ani um
yr h
Ne oserica
ĠBr undin
tif ormis
nes i
Ġquad rip
Ġpan amensis
Ġnigric ans
Ġsep ten
pat rick
ĠClem ents
Opis th
ĠSoy ka
ĠZer ova
ĠSham shev
ĠZaka rias
E li
G ib
L oma
s ser
to merus
es me
ĠC ui
ĠL Ã¼
ĠT omas
Ġk n
ris i
uy t
ĠLe ander
art w
Ġj a
Ġlongi s
eni or
Ġbrev ip
Cop ido
Car dam
Amph in
esch na
Ġquin qu
tosc opus
Elas mus
ĠBroom field
ĠSvet lana
3 0
C ne
M oraea
P ul
c ana
g ena
h as
h ana
o ena
z ier
ga la
te ma
in osus
ĠS pi
ĠD ow
oph il
ed y
Ch ry
ĠY ea
ĠBa iley
Cal anthe
Cera toph
Ġser ra
ĠDod ge
ĠLep esme
Lon ch
Scia pus
ĠPap e
ĠIning les
Suctob el
Cardam ine
M yth
T yl
s mith
gi kan
ic ularis
um anni
ĠJ eff
hi ta
un do
ĠK or
ev er
ut yag
ĠMa d
ie b
An olis
ĠRa inb
On ych
Mac rob
unc ulus
Ġtri f
ĠMon t
oec ia
ĠSz lach
Ophi on
Ġmed ia
ĠRÃ© my
oge ton
illy ard
Dil ophus
Ġwilli am
O N
R e
T ru
b le
x ys
ga lia
en tia
er m
ĠH uy
ĠH ill
oc us
ĠV ari
eri on
Ph thiracarus
ou rea
Ġta li
Ġj an
ile urus
ĠRe eve
lec tus
ĠHa an
Ġmic rop
Ġparv ulus
Sch eloribates
Ġcir cum
Ġkani la
Smi lax
Ġsepten tri
A ste
P ri
q vis
u te
u chus
Ġ ther
Ġ rad
Ġn od
Ġn oc
el o
el dt
ĠS ets
th yphantes
Ġp enta
ĠW all
hi r
ĠK uro
ĠK evan
Ġv esti
Ġf esti
Ġla k
ow l
ĠY a
ĠBre thes
Lep top
odo rus
ĠGu en
col m
Myc ale
Ġcras sa
ĠSharp e
Coeli chneumon
ocne mus
Eun ice
ĠStebb ing
ĠSets uya
S ig
v ol
z ae
er ella
ta do
ĠS tor
ĠD ob
ĠD ilma
og obius
ĠT odd
ĠT uttle
ur on
ing ham
ca ea
ĠZ eller
ou x
va lis
ĠLe h
ĠRob erto
eg yp
Lepto genys
ith orax
ome top
Hem ic
Ġpil os
Ġrec ur
ĠWin ter
ĠHew itt
Ġformos ana
ĠPen ny
Ġacum inata
yrin chium
ĠBrook s
Ġannuli pes
ĠTj eder
ĠOri ental
C edusa
N ar
O phia
Z a
c ott
k uha
m ys
n h
Ġn em
er v
is yon
or da
el t
ĠR odo
Ġc rini
ĠK o
ĠK urt
ĠN app
Ġg enic
em ya
ud en
ya w
yc era
Ġta la
las s
Ã¡ n
vi da
lf us
Leuc tra
Ġha baga
Ġsul c
Ġform osa
Ġsca b
Hetero ch
ĠSol ange
Amm ophila
Helic opsyche
Sis yrinchium
Alys sum
ĠYea tes
ĠGuen Ã©e
B an
H ec
L ac
N iph
u tia
Ġa u
Ġma ayong
Ġb ou
ti bia
ĠL oh
Ġc all
ĠT ull
oph omyia
man do
ig lossa
ina tum
ĠHen d
ey eri
ung ha
eg en
mar go
ĠLa berge
Ġ181 4
Trich ogramma
land ica
oglos sus
oec us
ĠBlack wall
ĠMal colm
mara es
Ġnob ilis
Gag ea
ĠPaste els
ĠPrins loo
ĠHelm ut
B all
V es
f lav
j eb
r ang
y ma
Ġ ren
us ter
Ġb re
ĠS ep
ĠH ugh
ĠH emp
ĠC ris
ĠG omy
ro gaster
Ġc rib
ĠE mili
Ġv and
ig natus
ran chia
Ġg ui
ab odes
ĠZ hao
eu ff
Cryp toc
Heli us
mata yon
Ġop ac
Chlor ophytum
Ġann ulata
Ġsim b
rik ken
ĠSchul ze
ĠSal va
Ġcrassi pes
ĠThi erry
Ġpyg maeus
Phanero toma
dn ota
Leucoph enga
ĠNun omura
ĠArc angeli
C ot
M yi
P rop
P lesi
S yl
h es
p ort
s an
Ġs to
do phora
Ġb ry
ĠM ca
Ġp is
ic ia
ĠK rikken
ĠT o
ĠE berhard
oc ricus
Ġd an
ac anth
Ġf lab
Ġg or
och rus
ya thus
ĠAl cock
ik e
ner ia
Ac ar
Ġba lat
Pseudo ph
Th in
Th agria
ze wski
uh ang
ĠOli veira
ĠCres po
All ua
ass ag
Ġnigri ventris
ĠCha udhuri
Amb lyp
kh oven
Ġbrach y
ophthal ma
esch all
Ġhis p
Gra ph
ĠDol eschall
opel tis
arta mento
Troch alus
Ġtestac ea
Pap ilio
ĠHild ebrand
ĠMca tee
D u
G o
N ereis
h man
s z
Ġni ve
la ub
er vis
ĠM ab
ĠM end
ĠB ij
Ġc at
ba han
ina li
ĠO k
ran ea
ov sky
omy ces
Ġnig rip
tar i
Ġbrev ipennis
ĠCar roll
Ġins ul
issi mus
Ġana lis
Lei ophron
Coel ogyne
ĠChap in
Sol enopsis
ĠRiv e
ĠJÃ¶r g
ĠKris hna
Ġexig ua
G or
N oc
e ki
s ang
Ġs trand
Ġma ayo
ĠF in
ĠF itch
ĠT er
ĠT sch
Ġd il
ĠO leg
em ura
eri an
Ġla ticeps
ĠSte khoven
ĠHar vey
toc epheus
ĠVer voort
Ġbrev icauda
ste d
Per is
enz ie
All opauropus
ĠGo unelle
ĠRay ment
ĠGui maraes
ipi ens
Ġsmith i
ĠMichail ovitsh
Syr ph
ĠPop ov
ĠDir sh
Wal ckena
ĠVita ly
L yg
e es
j be
l onia
Ġa urea
us ab
ĠB un
ĠJ in
ĠJ ay
ĠP ac
ĠP ritchard
ul an
Ġk ol
Ġh ow
ĠE lisabeth
ĠV illa
ell an
sch uyt
Ġda s
yd ra
ĠU n
mar k
ĠFrancis co
lf o
orc eps
Ġim b
El lip
Aci anthera
schuyt bro
B el
an gi
to sh
Ġs unod
Ġsa la
is tra
op si
ĠB ow
ol ong
ĠW en
ĠT ucker
oc or
oc os
ea di
it j
ĠSch i
art ment
tia lis
Ġar matus
Ġru p
mo ur
ĠRich ter
Ex orista
ĠGa jbe
otrich es
Ġkan ia
Ġph il
Ġcla r
Ġsim ulans
Ġsem ic
vin aria
Ġgris ea
Ġcer v
Lip otriches
Eum enes
Ġvarie gatus
ĠIr win
ĠRol lins
Crep idium
Melis s
ĠEmili o
Walckena eria
H or
g ry
h ev
p or
Ã ł
do x
Ġma ma
Ġu pat
ĠH ad
Ġm oh
Ġd ur
Ġt raba
Ġf imbri
ry as
och ila
ori ella
tos ciara
rid us
ĠRe uter
ocker oth
yb ia
Ġ180 7
Phy gad
har ton
ĠSol em
Idi ocerus
Ġnagp akita
ĠSub lette
Ġlob ata
Ġnep alensis
Steg ana
Poll enia
ĠBeth une
Phygad euon
A ul
E mb
E uh
J ohan
L ig
h ok
w son
Ġ il
to pa
Ġs um
Ġka matayon
ĠS win
ti ae
ti osa
op eta
th uis
om ela
Ġp ud
Ġf ove
ĠWil kinson
ura tus
ten bach
ĠAl der
Pseudo ch
ĠSa ito
Ġar m
ĠVan schuytbro
ĠPer cheron
rin um
Ġhi gayon
Ġdis similis
ĠFer reira
Camp oplex
Hyp oc
Ġrub ra
ĠLeon hard
ruc k
ies er
ĠQu ed
ĠAm eri
Pros oplus
Ġcos tar
Py ram
fe e
orrh ina
Ġinor nata
otro gus
Ġpopula syon
ĠHutch ings
ĠRodo lfo
ĠVanschuytbro eck
G rap
M ag
b aker
l uc
Ġs y
Ġs ene
or ta
ĠB ella
Ġp lana
ĠK ana
ĠT illyard
ry c
Ġe ph
lex us
ie z
bi ana
ĠAl phon
ĠLe ech
Ġda yon
row ne
enis on
Aga petus
ophy es
Nem otelus
ĠKn uth
Ġglab ra
Nor r
ĠHubb s
otar sus
Scy todes
ĠWie bes
Ġspecta bilis
qvis t
c ic
Ġl y
ĠS um
ĠP elle
lis ta
ba chi
ig gin
lan s
Ġe van
ut ina
Ġla te
ali na
ryp ta
Ġmar ginatus
ĠCo oper
Mac rocera
asa ka
ĠSer eno
ore ma
ĠDavid son
rion us
ĠSha fee
ĠMas kell
Ġas similis
ĠRoh acek
ĠHed qvist
Hydrop orus
othy reus
Rhaphi um
Ġvul ga
Diad egma
ĠComp ere
Arach n
ĠSwin hoe
E rig
p ang
s sen
Ġn ar
Ġma m
Ġb ubong
Ġl uma
ĠM euff
ak o
th ura
Ġp ari
Ġc och
og stra
ĠT enison
oph asma
ĠMar telli
st ro
tos ia
ĠHar ling
ĠBo us
Ġmin imus
Ana p
Ġhi malay
ĠCla ud
Ġcar b
Ġab n
ĠBal four
Ġdak o
Meta c
Ste phan
Ple uro
sak in
Hemi p
sil opus
ĠKus sakin
tilla ria
ĠBrad y
ĠRon don
ĠGol ov
Ġsplend ens
Macroc entrus
otre chus
Platych eirus
artsh uk
ĠMeuff els
G re
G onia
N er
T ele
T rox
f ina
u osa
Ġ ord
Ġ1 5
ri o
Ġm et
ĠF ox
ĠP ek
oc ki
ĠN o
ĠO ka
lad ia
ten g
oe ma
Ġsi k
Ġj ama
tos erica
ĠU go
ĠBar ton
ĠLa tham
tica lis
yla spis
ĠMor tensen
tu osa
Ġ177 3
Cryp tops
ĠVi enna
Asp arag
Ġkas ong
ower ban
Mis um
itta cus
artw right
ĠRainb ow
ĠUgo lino
M ys
N ipp
O dos
P ogon
d exia
k ana
k ev
p ula
ga do
la wa
Ġs tr
er ta
ti des
ĠB uck
ĠC artwright
al and
ro us
ĠW itt
le is
le tta
ĠP ridge
Ġd ic
ob asis
man uel
Ġang olensis
Ġal pina
yp ris
ĠEd vard
Ġta enia
odo re
Ġlongi rostris
Ġflav icornis
ĠGil mour
Ġdis color
Camp iglossa
Ag ryp
Ag rilus
Op ogona
Heter opoda
ĠHart laub
ĠTaka da
ĠMoh am
Ġcal car
Ġdep artamento
Phry xe
Ġboli vi
Ġconv ex
Teph ritis
Ġmili tar
Å¡ ek
Gipa tik
ĠHaw ks
ĠGir ard
ĠPridge on
1 9
C eri
P O
R os
u xi
Ġs ia
tan d
ĠM uls
ĠB ara
Ġp yr
ĠP it
ĠP uli
ĠD ias
Ġd ra
ec ki
ĠI m
Ġre f
ez ia
ara tus
Lep thyphantes
Ġch ap
mid ti
Ġmag p
ĠMor rison
Ġvi et
go in
Ġcras sicornis
ĠLind berg
ĠMas an
Aga ve
Ġsak yanan
Bla cus
ĠBern hard
Ġkaba hin
ĠDol lfus
ĠBour goin
ĠBran c
Orni tho
Nia dtong
ĠMis amis
ĠReg el
Amblyp silopus
Asparag us
Odos tomia
ĠMuls ant
C lav
C eriana
u ay
li mas
er b
se a
ti Å¡ek
Ġp anag
ĠW enzel
Ġc in
ĠK ha
ĠT ani
ac is
ob olus
Ġf orcip
eri i
ica tus
Ch rom
ĠFran tiÅ¡ek
st ri
ym pan
Ġnig ripennis
tos hi
gin uma
Ġalb ip
Lepto chilus
Cera phron
gna to
Ox yp
ess art
ĠKir sch
Amph ic
gor gia
Cy ther
Ġvit tatus
Hem is
Ġinc omp
elen ga
ĠSchmi edek
ocy there
ĠAlber tino
Phry n
ĠBis trÃ¶m
ĠAmÃ©dÃ© gnato
Pachyc ondyla
Au toserica
ocra tes
Limne philus
Peli dnota
ĠSchmiedek necht
C ross
L inna
O oencyrtus
Ġ ipa
la to
Ġka l
is tes
ti z
os ti
os treptus
ĠM ig
Ġp ing
ĠW ieser
am ma
ot ensis
ĠCh ampion
ĠMar cus
ou ensis
pa la
ther n
sh e
Ġj u
Ġli ma
ĠAr naud
Ġar ma
eck el
Micro gaster
ĠEv ers
Ġsem in
Trach y
Ġcris tata
ĠBay er
Both ri
Ġdiff ic
Augus te
ĠStor r
Ġsimb olo
D uf
G yna
j ci
n ella
Ġn anus
tan i
na p
or ha
or oides
ĠM uma
Ġp ad
ol cus
Ġm ila
Ġm uta
ĠK it
ĠK ina
ĠT elenga
Ġk orte
oph anus
ina lis
et ko
uc tus
Ġg ro
Ġla g
udo myia
Ne ur
tom ella
ox is
Ġpar alle
mar ginatus
Sc enop
ĠHol thuis
ĠX ia
lec trus
Si ya
Leuc opis
Das yb
del ey
Ġha wa
Austro limnophila
Ele uth
Ġparado xa
Amorph ophallus
ĠKura hashi
ĠLip ke
ĠBaptis t
Allua udomyia
ĠBij deley
Scenop inus
D ri
S co
b asis
ga tum
li cis
to sp
us ey
ĠD arius
Ġh emi
Ġv ent
ry con
ba ti
oh a
ĠN on
ĠN artshuk
ug ma
at ra
ola ris
eri um
ĠHen drich
Ġla lake
Ne om
der os
Ac mae
ĠLuc jan
ĠChristian e
illi ma
Pro b
Ġbrev ipes
Ġmag nus
ĠSer gius
Anth idium
Ep ica
kin si
lic ola
uv el
Ġrug osus
Peric oma
ĠTos io
Hy da
Gona tocerus
ĠKuma ta
ĠSzlach etko
ĠGolov atch
ĠDarius z
n usa
o an
r ard
s ar
Ġs et
ka m
Ġsa c
tan icus
ak off
ĠH ud
Ġm ona
ĠJ e
ĠF ang
ĠR Ã¼
ĠT oda
et tia
tor sik
Ġta p
odo ra
enta lium
Ġan da
Ġmac roc
Ã¡ ndez
Ġruf us
Ġor eg
Li olaemus
En te
Ġpro xima
rea th
Ġbar b
Ca tase
Ġdec ipiens
wal do
Myrm eleon
ory pha
Ġwal keri
ĠGies brecht
Ġmagnif ica
ĠBara ud
S tri
S emi
a ea
e lin
h en
h em
l oh
t ken
to ry
th ra
th ana
ĠC Ã©
ic eus
Ġc ala
ĠK limas
Ġf lor
ip us
ĠO zer
Ġla r
eb as
pan teles
uri ca
Ġli ng
lip sis
ĠBar bosa
ĠFa uvel
sen berg
ĠPhilip pine
ĠAd lbauer
ĠWa hl
In tosh
Ġsimp lic
ĠCra mer
Oxy ethira
Mim ela
Ġmol upyo
Ġtex ana
Ġcauda ta
Rop alidia
Ġjac ob
Ġarcu ata
ĠKu oh
Orch ym
ongres ista
ĠMck enzie
ĠLÃ¼ tken
ĠPek ka
Catase tum
ĠKlimas zewski
D ec
I c
V en
W harton
k os
o ter
v el
is eta
Ġin n
ak ilian
Ġp lu
re ys
Ġm ela
ĠP on
ĠD ud
Ġc uc
ĠK ab
ĠK ok
ĠE thel
oc o
ei ensis
Ġch ar
ĠAr g
ĠVer on
Ana bar
Ex echia
gal um
Ġrub ro
ĠIvan ov
Xyl otrechus
Cra sp
Ach ae
odis cus
ĠRem y
ĠEsp rit
Hemer obius
ĠTav akilian
ĠKiri akoff
Ġtamb al
ĠRib eiro
Ġseptentri onalis
ĠMoham mad
B A
C ly
D rac
M ga
X orides
n ong
t tus
z han
wa vas
Ġka d
se udes
ĠB og
th eca
ĠH ann
om eta
Ġp oec
ĠA lec
Ġm anag
ĠR ep
ĠR ie
ĠD my
Ġc entralis
Ġk ita
Ġt yp
im u
ip pe
ola e
ĠSch uster
Ġla w
lat ch
Ne od
Ġch ris
Ġsub tilis
ni ensis
ych ia
Or ph
ĠMc Intosh
Sten us
ere maeus
ĠWat ts
Pter ostichus
My z
ĠZa jci
Nem oura
enfel dt
ĠHir omu
Ġcir c
ĠSchwar tz
Ġfum ipennis
ĠPe Ã±a
ĠStra sser
Ġinterrup ta
Ġkapi tal
Ġcosta lis
Ġedward si
ĠCos car
Macrob rachium
ĠDmy tro
ĠZajci w
D ili
K er
M ord
O g
S ab
n yi
an na
Ġs ign
Ġad lawa
Ġb icol
Ġin ex
ĠS iv
ti ensis
ĠB elle
ĠC av
Ġp anga
ĠD ec
ĠK ano
Ġk i
ĠE lmer
Ġf ru
ĠV ved
ura e
ora e
Ġla tus
ĠSte ff
An to
Ġi mita
omas tax
chi ton
Ġun if
Ġruf icornis
hler s
Oc ypta
Cos m
Trigon idium
ĠPan zer
ĠGur ney
Ġova lis
Croc idura
ĠBy ers
Drass odes
Myth icomyia
ĠHuy nh
Pyram ica
Linna emya
ĠVved ensky
Ocypta mus
A tel
A phaen
B ras
D ag
S ic
T yp
V ent
h ren
p oda
t ys
u ala
an ta
Ġs id
ma ri
in n
es ii
ĠS w
os to
om ena
ĠA ub
ros oma
ĠY akov
st ylus
Ġj un
Ġj ohn
odo ce
ĠU ni
Ġw er
Ġflav us
ĠCa usey
xi ensis
ĠPaul y
Con ops
zon eri
Mon och
Lim osina
Ġros trata
Hapl ochromis
Ath eta
Ġspeci osa
Ġaethi op
ĠMasan ori
Eleuth erodactylus
ĠOzer ov
C is
L euca
S oma
S tel
T ris
f erus
i or
m Ã¼ller
r ero
w ang
ma sa
Ġma ta
Ġgi na
er ca
is ay
se m
on ch
ĠS ander
ĠC ox
ĠW ray
Ġh op
and eri
ig ena
rich i
ĠMar tes
ĠSch ma
Ġre g
lat ys
Lep idi
Ġcon tra
zi ed
ile en
Pol yg
Ar gy
Ġmar sh
lf uss
Aga p
Poec ili
ĠCam ras
let cher
Ġobtus a
Ober eopsis
ĠGille tte
Ġasia tica
Ġsut uralis
ĠNicol et
ĠMatthew s
torsik lo
C ur
L ag
T ungod
f eri
f lora
z in
Ġb oh
ĠS emen
ĠB oc
ĠB owerban
ol estes
Ġm op
ul li
ĠI lli
Pol ys
ita lis
Ġqu a
ĠSt ur
ĠHo oper
tone urus
Ġnigri frons
ĠAm sel
Aga bus
ĠIng er
Ġika d
Ġtin u
Microp litis
ĠMur ray
je e
Canth idium
dac tyla
Gar gara
hay es
ulen tus
ĠBir stein
Ġdimidia ta
adi evich
ĠAv adievich
Tria enodes
ĠCoscar on
Leuca uge
ĠSchma lfuss
ĠBowerban k
B ran
C ran
E ch
G y
H yg
H uman
T hel
i opsis
k ovi
v ora
y ta
en thal
te li
Ġs oma
Ġka dag
th ea
ĠC ruz
Ġp arag
Ġm un
ĠF r
ĠP u
ĠR eb
un og
ĠE ileen
Ġd entatus
qu ensis
em er
Ph al
yp sis
ad is
Ġnig ris
ii ensis
ci o
Ġflav ipennis
On itis
Li toria
Ġsch ul
ald eman
lob in
Asp ido
toch ironomus
ĠGro gan
ĠSal mon
ĠCan zoneri
Sap rinus
Bat rach
ĠBÃ¶ senberg
ĠIma jima
ĠPran siya
ĠTull gren
Ġdiffic ilis
B run
M it
S amtang
Ġ eng
li ko
ka ra
Ġa ph
is ei
ĠS enior
ĠP ius
Ġc occ
Ġh ex
ob racon
ot ri
ina x
ĠV og
ĠZ lobin
tera ta
ĠBar ber
Ap p
Ġdo min
Ġtri lob
igen ys
Sca phy
Rha gio
ji angensis
rix ia
tura ta
Ġclav ata
Ġhirsu tus
Rop ica
Aris aema
Les todiplosis
erna dor
Pedi obius
Heteroch elus
Agryp on
N il
S tre
b ula
m ei
o zetes
Ġs ed
do ras
Ġka h
on n
op ez
os omella
si lis
ic ulus
ol etis
ĠG reath
ĠJ iang
ĠD c
Ġc ru
Ġtan an
ov ae
et z
ud lo
Ġi ya
Ac tin
tom ias
car do
wor k
ĠGer lach
ĠMoh n
Cycl osa
Ġsig nata
Chae toc
Ġir reg
Canth on
Ġpun do
ĠLar son
Ġviri di
ĠBous field
Scaphy topius
ĠGreath ead
S en
S trum
U g
s in
or gus
ĠS u
ĠM uk
ĠB ean
om ec
ic ans
ĠL ast
ĠL unes
Ġm c
ap il
Ġe uc
Ġna to
ori us
Ġdi re
yb as
Ġte re
Ġus s
war ta
ĠVi ol
Cten ophthalmus
ĠHolz enthal
lim enes
lon cha
Peric limenes
Ġconc inna
Ġmedi ter
Ere chth
Ġmarm orata
Rhyti do
Ġantarc tica
Mela loncha
Phenac occus
ĠDak bayan
Cin ara
C urt
G ast
K ining
L ia
M ang
M ona
P en
o or
p eter
s tor
y pha
Ġ yan
ar inata
Ġb row
op old
os tra
ol le
ph ragma
ĠP ri
Ġc ard
og rap
oc ris
ac el
sa phes
oph yllia
ros ia
ll o
tic tus
pan ea
ox enus
ari um
tz er
ĠX ie
Phy ma
Ep ip
odon ta
tops ylla
Ġri v
ĠRam os
ĠWe wal
Lepido dexia
ĠFrank lin
Pel ec
Ġsig na
Polyc yrtus
Micros erica
ĠRon deros
ĠGÃ© ry
ĠJacqu in
Chei racanth
ĠHerb st
Rhys semus
Prota panteles
Duf ourea
Erechth ias
Curt ara
ĠWewal ka
Cheiracanth ium
A z
F inali
L ar
b li
g rin
u tang
ar le
se p
Ġb la
ĠB ot
th ess
ĠC ambe
ĠR oz
ĠD essart
Ġc ephal
ĠK nab
Ġk en
pi do
Ġpar ti
ĠBa te
Ġsp il
ois t
ĠHu o
Ġth om
As cogaster
ĠBen oist
ema eus
Leuc ochrysa
Brach yc
ĠOt tis
ĠNe ed
ĠSchul thess
Isch i
Lis p
ĠWend land
Tric imba
ĠRic cardo
epe olus
Hym en
Arc tosa
ĠKal tenbach
thar sius
zal ez
Rhip idia
ĠMiy ake
Smic ridea
ĠCzer ny
Norr bom
ĠPuli tzer
Strum igenys
ĠCambe fort
D ypsis
N ap
O NG
P elas
a sellus
Ġ ander
Ġs ym
Ġad una
Ġp end
ĠW o
ĠF roggat
am o
ĠE arle
Ġv id
Ġf o
ha yag
lin k
Ġla tic
ck hardt
tom orpha
ren ko
Sc el
ĠBur ckhardt
Ġmar ginalis
gal lia
Ġsc op
ĠAll gen
Ġco eru
ĠChristoph er
esse l
ole ius
Ġama bilis
Ġsem ana
ĠNew stead
elis ca
Cephal ops
ĠCor p
Ġven usta
Dig on
Ġpauli ani
ĠXia olong
Anabar hynchus
ĠFroggat t
B ae
L o
P is
P oli
P oth
V ol
f ron
h una
i tes
k od
en tus
en ops
li ka
li dia
Ġs ti
Ġkali botan
is sa
on um
or phus
ti dia
ĠH ot
ĠH ov
ĠK ull
ca lis
ĠN as
Ġg ressi
ĠSch u
Ġal ter
Ch lam
ow n
me la
acqu iao
Th am
Ġmac rop
Ġmac ulosa
Or bigny
Ġcar in
osc ir
Leuc othyreus
Aga this
Tru panea
Ġvulga ris
Orchym ont
j er
Ġni c
Ġka uban
Ġma xima
Ġl un
os ensis
um oto
ĠL eb
Ġm ana
ĠT sa
ĠT uth
ana eus
Ġh un
sp idiotus
ir ma
och therus
ĠZ an
ĠY uan
chi rus
Ġpag ta
tar ius
Ġcon ca
Th ryp
Ġwa r
Per iss
be ke
tana is
Heli ophanus
ĠPic kard
ĠNikola us
Ġbif asciata
ĠJan son
duc tus
ĠTana ka
Sys tropus
Ġsor dida
Amp elisca
Scol op
Ġatten uata
Ġincer ta
Ram ulus
Dasyb asis
ĠNeed ham
Pelas toneurus
ĠTuth ill
G ale
I ly
M erodon
S cu
h art
en oides
Ġa ko
Ġb uc
ĠB ush
th rix
ĠH ub
Ġp ris
hi p
em e
ki bara
ya b
Ph le
oe ch
sh anensis
Ġnig rov
ĠVer sev
ĠTa dao
Ġo ff
Eu x
Ġte mp
osp ongia
Ma tod
Leuc os
Ġnas ud
Ġvar ipes
ĠRei ch
uga y
Ġcorn utus
Ġhis pan
Ġarg ent
Ġtar salis
Pseudoc occus
Ġvill osa
Bis an
Ġanth rac
Epic ypta
Ġmand ib
sec tra
Lumb rin
Amphin emura
Ornitho galum
zied z
ĠKull ander
ĠVersev eldt
P od
P enth
S ib
Z e
c anthus
j tsh
m ylus
x um
Ġn ev
to don
Ġs ylv
os tola
ĠM ead
Ġp ay
ĠA k
ĠL im
ĠK lap
ĠT u
yp roctus
Ch oris
ĠU l
ĠHar ms
illa ris
Pro top
uha t
Ġser ratus
tre chus
Dip oena
ring omyia
ĠNikola jev
Ġtur neri
Ġtrun ca
Cerato baeus
Ġline aris
Ã¸ yer
ogas trura
Sty ringomyia
Rhaphi dophora
ĠLas alle
ĠMerc et
chow sky
ĠDra ke
Anc yl
ĠKr Ã¸yer
vass os
Tachy trechus
Ġstrand i
ĠWitt mer
Aphaen ogaster
Lepidi ota
p ec
r ha
s oria
w ynn
an ius
li dium
Ġa ene
on o
si optera
al ea
ĠL otto
ĠW ins
ĠJ ago
ĠF age
ĠF letcher
ĠD ub
ĠE sb
Ġd ugo
ac i
ĠO gil
ĠCh ern
lad y
uc ci
em ur
och ara
Ġe marginata
ĠI to
ent ropus
ad ensis
ĠAl bu
Ġar gy
ĠSh eng
ĠCla rence
Ġor b
Mes oleius
Ġoch re
unc tus
den te
hn ia
oto mius
orh yn
Pach ybrach
Aus tr
Dich otomius
omi ya
ocer os
tle ya
Och ro
ĠTre wavas
Noti phila
ĠNon fried
ĠEthel wynn
G ram
N ov
P o
P lac
a u
o ther
y spongia
la ing
do v
Ġsa git
Ġa w
on ides
or gi
or bis
or kis
ti chneumon
ia g
ĠH ul
Ġk ung
id berg
ac anthus
Ġf on
ĠI l
Ġla mp
ili us
ĠFre idberg
Rh yn
ers ter
yi ulus
Sp ara
fel t
Ġgu ang
Dis a
lyp e
Dac nusa
omi ma
Cl ovia
Ġae qualis
ĠTra vassos
Gry ll
bali ta
Clin ocera
Call yspongia
Scaph oideus
ĠMani la
ĠPin to
ĠMerc edes
Cyn orkis
ĠSaka kibara
Suctobel bella
owl ton
ĠAlphon se
peter sen
ĠCorp uz
Ġgressi tti
ĠEsb en
A D
B enth
S em
c yrtus
j ell
y at
Ġ gas
la kan
Ġs o
ma ria
tan ytarsus
on ii
es ter
Ġp alus
re u
ol yc
Ġm ir
ĠJ un
ter ys
id ge
ob at
ich a
ut is
Ġla baw
ru pes
di tus
Ġj oh
Rh ag
Ġan c
tip ula
Ġor e
ĠEm il
Ca en
ĠCon stan
ĠKir k
Ġros si
ĠLorenz o
Ġflori dana
Ġvari ans
fem ur
Ġnahimu tangan
Sci ophila
ĠGille t
Ġsene galensis
ĠAub Ã©
B ru
E ra
H ier
N as
N omia
S or
T am
V al
Ġ ic
ar ra
on ota
ch y
Ġl ori
ĠS und
ti mus
ĠH aldeman
ic ephalus
um ikan
ĠJ er
ĠP ala
Ġc ul
ĠK ell
od exia
ter ino
im ensis
em ber
Ph thi
ĠSte hman
ĠGe er
Ġpag sa
ym yrmex
uri gona
ĠU SA
illa rd
Ġflav os
ĠCa terino
Ġper f
osp er
Das yp
hl ke
Lis pe
uw an
ĠKn owlton
ĠMit jaev
Ġvic tori
Ġung u
Ġfal cata
Ġneb ulosa
Ġvali da
Ġpha e
ĠHaj imu
Ġtom en
ĠDep artment
ĠPelle grin
Crasp edo
M ur
R as
S t
b rowne
l ow
m ing
w ana
Ġn uda
om o
ĠP acquiao
am enta
ĠD uck
od z
ag rion
Ġf lam
im anus
ĠN ord
ĠN ash
lad en
oli var
Ġre li
ill um
Ne urigona
ĠAn na
mar ga
Ġper eg
Ap ogon
Ana xipha
ĠDu ch
Ġex cis
orh inus
Mar ga
Micro terys
ome las
Ġnaka p
ĠBro un
Ġpec tinata
ĠMer ri
Ġoli g
Man ota
Ġperu vi
ĠBu eno
ĠClem ens
ĠTol edo
ĠAna toly
ols om
ĠGies bert
ĠBenedic t
ĠPit tino
Epica uta
ĠHov ore
L or
T inea
f o
r hi
u anensis
y do
y nd
y onal
Ġn ew
en oi
ĠS zi
os argus
ĠB latch
ĠH al
hi i
ens tam
ul osum
Ġv iv
man e
ĠCh u
qu ino
ud ens
Ch ari
ad well
anth on
Ġsi b
Ġta ma
yll en
ci ta
ci da
illa i
ĠRa iner
Al lod
Sc ara
Mes op
ĠFreder ico
Ex eta
ĠGeorg es
ĠJac ot
ĠPa ik
phy ra
Car y
edes mia
Ġmul tic
mas tix
ĠMas umoto
Ġann ulicornis
Ġpagp ang
omis us
Ġconf usus
ĠBick hardt
Leptoc era
tep ipona
Hym edesmia
Ġperu viana
ĠAsa hina
ĠTre adwell
Ġkla se
ĠMam et
Copido soma
ĠHemp el
Ġtraba ho
ĠHawks w
ĠViol ovitsh
Pachybrach is
C el
P ec
P otam
v ei
w hi
y ura
li catus
Ġs ord
oy a
op ol
ĠM Ã¶
Ġp eter
ĠF iro
am mo
Ġh ys
ĠE lli
ac tis
Ġt uc
it ler
ne mia
oma spis
em ent
ĠI chi
ut in
Ch el
Ġnahi mo
ĠBar anov
ĠFor bes
cha do
Ġdo l
Per omyia
Mes oc
Ġoc ulata
ore ana
Ġrub i
phy salis
ĠGre ene
ĠGar rett
Aus tros
Haema physalis
Ġnagp uyo
Ġpags ulat
Ġpres yon
Ġtex anus
Brev ipalpus
ĠYas uhiko
onem obius
ĠBala chowsky
Cat tleya
ĠDoming go
Conos tigmus
ĠSpi x
ĠFiro z
P ti
S ub
S tea
i phan
te ras
Ġa le
Ġa trata
tan tops
in cia
ta sia
kto n
es to
ra i
ĠS laden
ĠM enzel
si ops
si jtsh
re mpis
ĠF lor
Ġc li
od e
Ġh ab
Ġd ri
ne ta
ĠV ar
Ġg rup
em ing
ud ell
Ġe ff
ero ta
pa da
An n
An tepipona
za wa
Plat yla
lo ugh
ĠPhilip pe
lab is
Ġ177 7
ĠMon tag
ĠAb d
Sph e
ĠSpen ce
Ġann ulatus
ĠBro ad
ĠTor o
ocer cus
ĠIgna c
ĠChi u
Ġdistin ctus
ĠBÃ¶ hlke
Gal umna
Ġgob yerno
ĠZimmer mann
oche ilus
Telma toscopus
Syne ches
Ġceleb ensis
ogen ys
ĠSiv ec
ĠSemen ov
ĠBlatch ley
C ro
C ydis
H eria
R ic
S ter
e tes
f arl
j os
q bal
r ell
Ġ ron
wa d
Ġs tro
on oma
ĠS on
os sa
ĠC enter
Ġp ras
ĠA gar
ĠW an
ĠW ard
am e
ĠT en
bang an
oc elis
ac antha
ĠV acel
lin gi
gas yon
at ta
ĠI qbal
Ph asia
Ġla tipennis
An cistrocerus
iv e
ĠSh en
Ġw or
ĠCa zier
ĠCa udell
ĠVer beke
run kev
Eur yg
Ġsch midti
tu o
Ġquad rid
ĠPet tib
Pha lac
Ġmic ans
Ġpseudo c
Sph ing
odon tis
ĠAm non
Is operla
Ġel ec
Lepido saphes
Pa tella
Ġrh odes
Ġfra ter
Gna mp
ĠSub ba
ĠHed ley
Ġven ez
Polyc entropus
Ġbid entata
Nor ops
Ġall ua
ĠTav ares
Ġthorac ica
ĠAlb ino
Fri tillaria
Harpac tea
iden f
Ġanda man
Ġwer neri
ĠVacel et
ĠPettib one
A ren
A thys
I NG
T ympan
l ym
s toma
v ic
v ana
an ense
ga li
Ġs es
Ġka ad
Ġ1 6
ĠS yo
ĠM oto
ĠF ur
ĠE hlers
Ġd alan
ing eri
Ġt rin
it richia
ot ina
tes cens
ward i
An omal
chi z
Ġli v
ach vat
Ġga may
ĠPeter sen
thoph ilus
Cal yp
Anth omyia
Ġcras sus
Ġter m
loc e
Ġgip ang
yer nes
Ġtes sella
ĠGriff ini
Ġobli qua
Ġferru gi
atre f
Ġec ua
Siph ona
ĠBi yernes
Ġpall ens
ĠBha t
Rhaph uma
Ġabyss in
ĠGw endo
Seri xia
ĠKuro kawa
Ente don
Anto cha
ĠDuck house
A tar
H A
L ing
Z o
b yi
p aris
r ze
s ta
u in
Ġn odo
la ga
do ch
Ġa ta
Ġgi t
on c
ra ca
ĠM ol
uk an
ĠH ogg
ĠH itler
om imus
ph al
am ang
ur mans
lis ter
ne t
ĠWil hem
ha p
ica e
ĠZ one
ou ted
ĠWal ley
Lep toph
ine ensis
bo ur
Ġfus co
Ġbi maculatus
Orth otrichia
ure us
Parac lius
Ġse tosus
Ġtes ta
Polyp lec
Ġtrun catus
pida ta
ĠBrad ford
Cory doras
quer que
Ison ychus
Ġhawa iiensis
ĠZan ol
Exeta stes
idenf aden
E b
I r
M A
O T
S an
T ein
U L
U SA
e ere
m u
r th
t sila
Ġ eri
Ġb ol
ri do
ĠS ul
ĠH ess
ĠA gu
ic ana
ro tus
ĠR ox
ĠT al
Ġh ard
ob elba
Ġt s
yl on
Ã© n
ĠMa chado
ill eri
ym nus
tos toma
ĠBor dat
ĠDe eming
yg odz
Ġalb is
Al opec
Ġmar tini
ĠGu er
Ġ180 8
Ġab ys
Ep ir
oec a
Ġcras sis
ĠNa th
Ġbif ida
odi on
ĠLam eere
Ġcan ariensis
Cerato stylis
Peri litus
Ġneg lecta
Ly si
ĠSe idenfaden
Ġmil yon
ĠFo erster
Hopl oph
ĠMori masa
Mala c
Cyc la
foli um
Mei oneta
ĠGenna ro
ĠSwa inson
ĠBun ting
ĠSchu urmans
ĠHarms ton
Patella pis
atref ages
A eth
C ama
b ana
c ensis
e kto
m eli
u lex
y oshi
Ġ emp
Ġni lang
en ella
ĠB olus
al onia
ĠL ow
Ġc incta
ĠK eti
Ġh art
Ġd y
ac cus
im an
ĠN ag
yl ori
ĠWil link
ub ra
ella ris
qu in
Ġla cus
ten i
An ch
ota banus
Ġpag d
rop a
ĠBr Ã©
yd e
Ġcon sper
ĠPer eira
Hyp ogastrura
Ġac c
rol euc
ĠQu atrefages
Ġsul cata
Ġdep ressa
Ġvir escens
Chae top
tric t
ĠCal man
ĠTe odor
Ġwil soni
Riv ellia
assa ing
Ġmuc ro
ĠIshi i
opach ria
Acmae odera
ĠDud ley
Digon ogastra
ĠDuch assaing
Ġallua udi
2 0
G ip
H ondt
L oup
e chi
f lava
h ero
o ana
ka ya
ĠS mi
ĠM ak
il es
ĠC ouri
Ġp ani
ĠT yl
Ġd end
and ia
ea lis
ot ra
ĠN omura
ep is
Ġg ani
ĠMar tens
ut t
ten ia
tis simus
don ta
Me topius
rac lough
oth oe
lip ennis
ĠBar raclough
rom erus
ty na
ĠRe id
Ġro bert
Ar gi
ecker i
ĠHo ogstra
Tri epeolus
Lasi optera
As ilus
Ġcol ora
ĠNik ol
ĠGali ano
Pseud ep
Ġbip unctata
Ġir r
ĠRos si
ĠShin ji
Ġgut tata
ĠStone dahl
ĠHin z
ĠYoshi moto
Qu ad
Tem n
Ġ- -
ĠHÃ¼ dep
Ġhama ta
Api ocera
Ġbifur cata
osch ema
Ġsimon i
ĠAgar wal
Ġkaad lawon
ĠHoogstra al
ĠHÃ¼dep ohl
C av
E na
W ala
Z on
b ner
l mann
m odes
w l
Ġn ova
li ma
Ġs und
Ġsa d
Ġka him
tan abe
er heim
is ca
ar inatus
ri et
Ġin op
ti ga
os ki
al y
ĠT ib
Ġh off
lis ay
Ġd ubi
ĠO mer
ug bo
ĠSch ein
Par av
ou i
pa lis
ĠBre tt
Ġj uc
las tus
ĠSh uh
Ġga l
Ġmac ros
uma ta
Ġsp len
Ġor th
hl b
Ġmo torsiklo
Ġmul tif
Dicran op
Ġacu tus
ĠDal man
val gus
Cos mos
Bra un
ĠTana sijtsh
Ġbid ens
Ġlim bata
Austra l
ĠJÃ¶r n
ĠMein ert
Palae orhiza
ĠHÃ¼ bner
Doc alidia
ĠCab anis
ucken berg
Rat cliffe
Ġcostar icensis
ĠMig uel
Ġirreg ularis
Ochro trichia
ĠTanasijtsh uk
C oph
D ir
F us
M apa
R ec
V an
c oides
d ema
e ur
f ascia
h inus
p pa
v ena
te tes
gi ani
ta ll
ra t
ĠS ido
ĠB ach
ĠD un
ĠD as
ĠT su
od ula
od rilus
ug ot
ton ensis
ier stra
ez es
ĠLin da
isi ta
rid g
las ta
ver sa
ĠPar in
Sten odynerus
Tet rix
osc eles
osp erma
Phy tosciara
Con ch
ĠTim othy
Ġpulch ellus
Ġstri g
ocer as
Ġkas z
Typh lops
Ori marga
Mach a
Agla is
Ġton kin
ĠKin berg
Lepta cis
Lic uala
ĠKana ar
Lumbrin eris
Scara baeus
Cydis tomyia
Atar ba
Alopec osa
ĠShuh ei
Cosmos carta
A ster
H eb
M ed
b racon
d ens
i ton
l op
la ma
Ġa way
ta tor
Ġl ec
ĠS im
ĠS mit
ti anus
ĠG as
ĠP erty
hi tabo
Ġc oma
Ġc oriac
ĠK ot
ris oni
rich t
ell oides
ich la
ys an
tic ulata
amp e
top pia
za i
yan te
ĠCa i
Pol ana
ĠKa wai
bur gh
ĠHel en
ĠGar man
lyp ta
ĠMen ezes
vit tatus
odis ma
ĠSou th
Bra chi
Le ia
Glyc aspis
oboth ris
ĠKemp f
Ġkania dto
ryc tes
Ġsia mensis
Ġparalle la
Hyda ticus
B ittacus
M yx
c z
g ramma
w elli
y ke
te ga
Ġs anc
ka u
tan um
ula re
ng an
is er
ar ina
es tra
ti tis
um ba
ĠJ i
ĠP f
ĠP ear
ĠT eru
oc ella
Ġv illi
Ġt rig
ec ten
ot ypus
ip tera
ĠV Ã¡
eli mus
ein fur
ung an
ĠHar ten
Ġpar all
tz ova
La th
iel ke
ĠSp ringer
ĠCar ne
tu berc
kal ov
ĠSta tion
Sca tella
rog onia
qua ert
Ge org
ĠBe quaert
ĠVasil y
Ġkan unay
ĠWa tanabe
uf ri
ĠMann erheim
ĠLea ch
baz us
Bra h
Bol etina
ĠKoz Ã¡r
Ġfas ci
Hir todrosophila
Ġviet na
Spara sion
Polyplec tropus
ĠTeru o
C ad
E nd
F ar
S h
S mittia
b all
i ji
z u
an te
Ġs z
Ġs ich
ka ta
ma ll
oy sius
er y
Ġb et
ol euc
Ġm ollis
ĠF oster
ĠP apa
ĠD eng
Ġc arp
og enes
ana x
Ġk imi
Ġv entralis
man o
ĠO g
ĠV iv
ev sky
eb ris
Ġi mi
ill osa
Pse lli
ym na
Ġper similis
Ġruf icollis
Chrys obothris
Ġmi y
Tet rap
ĠKar el
gus on
Sp ir
Dia mesa
Col e
ĠNor ris
Ġop aca
Cer oplas
Ġacu leata
ville i
Ġangus tifrons
Myrm ica
ost juk
Ġpec toralis
ĠDod son
Typh lod
Hydro taea
Ġdiver gens
Hyb os
tran ychus
Ġdeli ca
tec ticus
ĠAdolph o
ĠVig giani
Ġochrac ea
Aug ochlor
Alloc osa
Acrop ora
Ġmetalli ca
ĠDuc ke
iggin s
Achae aranea
ĠAlbu querque
Ġsplen dida
ĠSido renko
B as
B assus
G igan
R ach
W ye
g ma
h stor
i don
m el
s trom
u teri
en thes
Ġa ga
Ġa rd
is an
is ia
se tosa
or in
ak ensis
ĠH su
ĠL an
Ġm yr
ĠK ur
ob ra
ha e
ong ensis
ona spis
ini o
bi ya
ĠAl oysius
omas tix
Ac on
bay ashi
Ġbrev i
Sc ambus
Eu bazus
Trich omyia
Ġ179 5
Cryp tus
Ġimp or
Aus troc
Ġim maculata
Ġam ong
Ġfulv us
Proc ambarus
ij o
ĠCamp os
Mec is
Ġanten nata
Ġperp lexa
Ġviola cea
ĠLund beck
Colp ochila
Ġdentic ulata
Ġarizon ensis
Lisp ocephala
Era toneura
Ġgrup o
Ġtesta ce
hlb ruck
Ġkasz abi
Wye omyia
C ry
E ua
L ich
S tor
S tern
r ura
u jev
wa la
Ġa urata
Ġa egyp
ar o
ĠA hl
ĠL eng
ĠP ab
ul ensis
ul ton
Ġk ana
and rus
ba hin
Ġg umikan
Ġe gre
Ġna ilhan
ĠSch oltz
ena i
ĠSh ene
eps is
Ġmar gari
ĠHol land
ĠSt uckenberg
ĠCar rera
esi um
Ġspin ipes
Brach ys
eto pa
Ġpalli di
Ġne oc
ĠQu entin
ĠVladimi rovich
Ġalbi frons
ĠReichen ow
rias hev
Sap rosi
Rhin ocricus
under s
Ġban ksi
ĠSn elling
Ġcylind rica
Hyph ydrus
Ġamo ena
ĠKam ijo
Ġngan ong
Ġcaro linensis
ĠKok ujev
Ġmarsh alli
Sphing onotus
ĠGwendo line
ostjuk ov
hlbruck ner
ĠShene felt
" .<|
G I
L ap
R aros
S tac
b elli
k uwa
p ona
v ig
y mus
to rus
in otus
Ġu p
Ġin di
os z
ĠM in
ĠP illai
Ġc yp
Ġc ord
Ġc inna
ĠT ipp
ĠE sch
id al
omy c
pa chys
ĠY an
up i
Th omisus
onia e
ĠTa lisay
Ġ178 6
ĠBen tham
Ġ177 8
Ġbis pinosa
con othrus
Ġsin uata
lea tus
ĠZa hlbruckner
Ġam ph
lep s
Om mata
Ġluc ida
Mer osargus
dop s
ĠVil helm
Tetram esa
Epi phragma
Sty g
Ġscutella ta
Spi rob
ĠMasa hiro
lot tis
rophthal ma
Ġbivit tata
ĠQued enfeldt
zin ski
ĠMuk er
ĠSzi lady
ĠBrÃ© au
einfur th
H in
P oda
Z od
Z elan
b ei
h ag
k ris
l orus
l yphus
m oides
p il
v ensis
an yos
en ch
to ris
Ġa gilis
ar ella
ch o
ĠS uter
op p
os ph
ĠB ender
ĠL and
ĠL Ã¶
ĠL Ãª
ĠK ostjukov
ry x
oph or
im yia
ig enia
ĠN ierstra
ĠCh erian
ran chus
Ġe ug
pa ida
end icula
me Ã±a
Ġda w
mp ra
ĠU lf
ĠHar riet
Th or
ĠAnd riashev
Ap ol
Al paida
imp son
Ġdis tri
Tet tig
tu osus
Con ocephalus
fer um
Ox ys
lli na
ome topus
ĠDa wson
Ġter minalis
olo gi
Ġcos tata
ĠBrad ley
Ġben galensis
Rhabdo blatta
Ġrose a
ĠDur ga
ĠRaff a
Tap in
Strongyl osoma
Ġkaugaling on
ufri ev
ĠBender itter
ĠNierstra sz
H ya
J ap
l ok
n icola
y ot
y ran
an orpa
oy i
ar n
Ġl es
ĠS uwa
ĠM Ã¡r
Ġm eli
le ton
og enia
od er
ur ch
Ġf in
Ġf ascia
ba to
ĠV os
Ġg l
ir ensis
ĠTh eron
oli us
tor mon
Ġta ka
ĠRob ack
ras sus
ox ia
mb us
Ġan na
ni x
ela ta
nard i
Ag ri
char ius
ĠMay o
Ġnas uta
bu ca
Ġ176 1
Ġlep ida
Gna phosa
Bla ck
tern um
ĠAlek se
Micros tylum
ĠRud zinski
arta u
Ġpinulong ang
Spha ero
Pin anga
ĠGard ner
Ġtaiw anensis
Ġnags ugod
Ġwilliam si
Ġbrow ni
Bru ch
outed eni
Ġkahim tang
P il
P tecticus
W inth
s to
s ol
Ã ½
Ġn otata
ga p
Ġa x
Ġgi lu
Ġb icornis
Ġl em
ri ka
os tenus
ĠA quino
un us
ĠK at
lis sus
and us
Ġv es
ot ris
ot rupes
Ġg uate
ĠI nd
Ġla p
oth ele
oth rica
idi opsis
oi dalis
Ġmar tin
Ġsch outedeni
Col ob
bu tan
Ġgu bat
Ġsim bahan
Ġpunc tipennis
Ġel emen
ĠAle man
Coel otes
Ġvic inus
Ġboli vari
Ġdeli cata
Ġcons ob
Ġpum ila
Hemer odromia
Ġdigi tata
Callis tethus
emph eria
Ġcomm unis
Phila utus
Ġnota bilis
Cic urina
Ġluma d
fina do
ĠKina tsila
Poecili mon
ĠMoto yoshi
Winth emia
C e
E ret
P loc
b aste
j ak
m anae
s s
Ġ it
tan ensis
Ġgi ila
Ġgi nik
Ġ1 3
Ġb elli
ĠS ud
ĠB owden
ĠH and
ic ius
ro cha
ĠR ing
Ġc ac
ĠK ae
ĠK ali
ĠK won
ag u
im in
yl es
ĠO v
ell oz
eli con
ab ag
yp terus
tis ta
pa in
up ser
Ġj e
Rh odes
ĠOs meÃ±a
Ġo a
Eu th
Hyp ero
Ġti m
ene mann
ĠGa wl
ĠNe umann
Ġpseudo p
Ġimp er
ĠNa tional
Cycl op
das ys
Ġsep tem
Microp sectra
Ġcav ern
Ele phan
zh ans
Ġund ulata
ĠNicola s
Pi donia
ines que
Ġrich ard
Asta ena
Pul vinaria
Meliss odes
Ġfimbri ata
Phle bo
ĠMerri am
whi te
Saprosi tes
C ren
D U
E ul
G ran
H arm
N A
U var
b ek
e ia
o ut
en ii
to t
in eri
Ġu ma
Ġb ang
ra ea
op ris
ĠB inis
ĠB ish
ĠA charius
ĠR osa
tus a
ĠK enne
Ġd ru
Ġt urc
gas tra
lan on
ev ert
Ph ronia
Ġla eta
ĠSa unders
Ġflav iventris
tian eira
ze f
ĠRe iss
ĠBa ert
Al buca
Ġruf iceps
phi um
Camp ylaspis
Ġ181 0
Hyp si
ĠPa x
Ġquad ric
thal lis
tura tus
No top
Ġfulv ipes
ĠMann heims
len h
cutella ta
Ġflori d
Tox orhina
Ġfem orata
Ġbe qua
ckel bergi
Hopl opleura
Ġcauda tus
Ġsuper ba
ĠRaf inesque
Ġtestac eus
Ġcili ata
alas tor
lita wo
Ġabbrev iata
Phyl lod
Ophia cantha
ĠBella rdi
Ġjama icensis
Monoch amus
Ġpundo k
ĠMead e
elicon es
ĠKenne th
D yna
E ub
H is
U l
c tor
f ran
m ugna
s ac
la bay
Ġs ma
do ri
Ġma uri
se ca
ch et
ti or
Ġp ho
ĠA ug
ĠA gassi
ĠL ong
Ġm ot
ĠG odo
ul ang
ob rycon
ĠV as
et um
ero x
uli p
ron eura
ori i
Ġsi ling
ĠAr ne
yd romia
Ġar mas
Ġw it
ni ta
uma tsu
ĠRe Ã©
Ġbrev if
Ana thallis
ĠMc K
Ġbul an
vi eri
Ġmon te
Sten oc
Cera pachys
Ġoc ellata
Phyll oc
ĠHo ffer
Ġcor onata
Ġcol om
Ġfusc ipes
ĠMas ay
Ġpunc tulata
Limn ophyes
odi ro
Sin ularia
ĠCor tes
Ġsta ckelbergi
Cas tianeira
ĠGon zalez
ĠPra do
ĠKaz uo
ifoli um
Ami ota
Ġhain anensis
ĠJeff rey
she imer
Ġtambal anan
Ceroplas tes
ĠTipp mann
Phlebo tomus
ĠAgassi z
A li
A sty
F er
L ed
P im
T omaspis
Z eph
b ig
t ub
u en
or me
ĠS odiro
ti vus
ĠH abe
ĠG ras
hi k
Ġc ri
Ġc ycl
ĠK orn
ana y
ĠE hren
Ġt rap
ec ium
it zi
och etus
ĠHen tsch
ut ta
ĠHer n
ĠLe grand
Pseudo pan
ĠAn sel
rov i
rin o
Ana g
ĠX iang
les tes
gia tus
ied emann
ĠPet runkev
Leuc andra
Ġdec orata
ĠAb reu
Dolich oderus
ĠMel sheimer
ĠSo ares
ĠStan ge
ĠBl ocker
Ġsil va
bri um
ĠSou le
ĠIs may
ĠAh mad
Amp ulex
Ġanten nalis
Ġtrid ens
opon era
ĠNicola us
Ten u
Ġambig ua
ellis tena
Ġinae qualis
ĠKy oung
ungha an
ĠGodo y
ĠMasay oshi
ĠHentsch el
ĠPetrunkev itch
5 0
D e
E pe
P all
V elloz
b ensis
g ram
h ne
j ae
j oppa
z ur
z ig
Ä ģ
Ġs phaer
Ġma roc
ch ez
ri an
ti bialis
ĠG arc
ĠD ali
Ġh om
and ensis
ob ac
ob othrus
ba wo
uc ita
ric e
ĠMar il
och elus
eli ae
uli pennis
ĠBr gy
ĠAr ch
rid ia
Ġw ol
cher emaeus
rom ma
ile w
lus i
Ġper yod
gin ova
ĠZh il
Ġbrev irostris
Trich oniscus
ĠBen oy
ĠLo ginova
ĠMi yer
Xyl ota
ophy sa
Ġpoli tus
Ġen si
Ġsus amang
ĠâĢ ĺ
Macro teleia
Crema stus
thy reus
ĠMur ano
Ga urax
Ġsor or
Phys ocephala
atch ell
ĠIma dat
Gn ophomyia
Riv ulus
Orni th
ĠPres idente
rophthal mus
Anopl odactylus
Ġpropin qua
Ġmongoli ca
ieff eriella
ĠSchw einfurth
Ves pa
Stel letta
Hypero lius
Velloz ia
ĠImadat Ã©
I l
P sila
r aria
s oc
z osteria
Ġ `
do va
Ġma b
Ġma himo
on cha
Ġb ut
Ġl yc
Ġin tri
op lax
ĠB uk
ĠH ille
ĠA yl
ĠG rant
da tus
ĠF ield
ens per
as an
ĠK i
ĠK an
ĠT am
Ġk e
ĠE sk
Ġt uy
ev ille
eri e
ab ilis
ĠSch eller
ĠMa kar
Par alastor
yr s
amp o
sh off
pin yon
tri tia
Ġflav o
ui ter
ita tus
Al oc
Al ucita
Ġdis p
Mac ron
ew itz
Di ph
Ġ179 6
aris to
Ġsch war
trich a
ĠFili p
oste mma
Ġbrach yc
Ġform osus
Ġtrans va
ĠDes b
ĠMichel otti
Ġdag kong
yle pis
ĠCro tch
Ġhin uon
Ġcris tatus
ĠTe occhi
oxa lis
Zyg othrica
ĠCoh en
Ġsumatr ana
Peta l
Go era
Ġimb esti
gry llus
Drac onarius
ĠRie k
ĠSteff an
ĠHub richt
Ġginik anan
ĠZhil tzova
A de
A ethi
C ris
C och
O l
S pa
Y elicones
c odes
o tomyia
s yn
z kowski
li ana
Ġs on
Ġu litawo
se mb
Ġb ea
Ġb ug
ĠS atchell
ti gas
ak h
th Ã¼r
ĠL ower
Ġm ora
ĠK uw
Ġh esper
ĠE ric
Ġt re
Ġt ug
ĠN ov
ĠO pinyon
et ensis
qu ata
lin ella
ae ch
ĠSte phan
Ġre m
Ġre ducta
Ġi rid
Ac er
cis sus
cia lis
Ġan omalus
ĠBo eck
ĠBar kalov
ĠRe is
icol us
Ap l
yb os
Chrys ometa
Ġrub ic
ĠKra uss
Ġ177 1
phy us
Ge ophilus
Ste fani
Ġhir ta
ĠVa inio
Ġlute us
atum an
Ġgran ulata
ĠOr bigny
Cra tichneumon
Ġres idente
Ġdu ol
tem ma
ĠJÃ¤ ger
Ġarc tica
yli za
Su illia
Ġtransver sa
Limne bius
ĠVig ors
ĠAlf ken
Id ris
Ġass amensis
rym nus
ĠOber thÃ¼r
ĠMab ille
Neom ochtherus
ĠElli ot
Ġdri ver
Heria des
Ġlacus tris
Pseudopan urgus
ĠAyl ward
I ng
K am
L ongi
O ti
T ana
c or
d ella
d ale
j ne
Ġ end
Ġs ens
Ġl ut
Ġp ali
ol euca
Ġm id
ph le
da gan
ĠF ric
as trum
ĠT ar
Ġf lu
ha uer
ug hi
ff ard
Ph olcus
cus ta
all ene
Ġre galis
ĠY ing
pha ea
tom ys
Ġar mi
Ġga y
rom o
Ġpul os
ĠLa jos
Pro tone
est ina
ogon us
Per isc
ĠBen nett
min istra
Car abodes
sic era
Hol c
Ġpunc ticollis
Ġfer n
tob latta
sil va
Nes ticus
Neo empheria
Pseuda grion
ĠShar if
Ġdiver sa
ĠMunro e
ĠCorne lis
Ġlev is
Hydr ophorus
ĠSar Ãł
Dicty na
Ġlongisp ina
Oriba tula
Metri ocnemus
Mysi dia
Thin ophilus
Mord ellistena
osper mum
ĠTyl er
ĠRing dahl
upser ha
ĠMiyer k
ĠFric ke
F or
G en
J ulus
L em
P elle
V i
X ia
a way
f t
i ba
l man
w ebes
Ġn erv
Ġs tric
do w
do des
Ġl ew
ak ii
th odon
Ġp y
ĠA ver
ic orn
ĠG h
ĠF al
am y
ul ella
ul escens
Ġv ag
ĠCh assag
ĠV on
ĠWil d
ric um
ug ang
ell ensis
Ġg lori
Ġasp era
Ġna sikop
ĠHen tz
uli ci
Ġta l
Ġpag h
Ġda c
Ġar te
Ġpar ap
Ġflav op
Ġbrev iceps
ĠPaul o
ĠDel finado
ĠHu webes
Ġtu lis
asc ens
Ġbar bata
Ġsin ica
Cer ac
ĠDo ane
dor ensis
Amph is
ĠBe han
Cyr tochilum
Ġangus tus
Ġangus tipennis
Ġnak uha
ĠReinhard t
ĠWater ston
ĠVil baste
Ġov ata
Ġflori densis
Sar opogon
arti ta
Trog loh
Ġincis a
Sphen omorphus
ĠRag onot
Ġprin ceps
rosp ilus
kla mo
Neola sioptera
Ġlit toralis
ĠSum mer
ĠKit chen
Vent uria
Ġikad uhang
App endicula
Thryp ticus
Platyla bus
ĠVÃ¡ ri
Typhlod romus
Stac tobia
Ġdistri to
ĠKorn icker
ĠChassag nard
Trogloh yphantes
C lep
E ng
J a
T ama
U s
c op
c ey
r ub
s y
ga b
ga mi
ga rd
Ġs tic
Ġsa ra
Ġu ta
ra ti
ak u
ĠB uc
ĠB ilar
th ena
ĠA mi
ic era
ph omyia
ĠG rover
ĠG yllen
ĠF uji
Ġc ab
Ġh ut
Ġh ad
im ana
ei v
ĠY e
don us
ĠGi ffard
Ġmin u
ĠCar r
Eur ys
ĠPa inter
Cop to
Doli cheremaeus
Oli go
Ġsu ff
Dich ochrysa
ĠGod ing
ĠNich oll
Ġae qua
Cir olana
Ġcana lic
Ġkasa d
Ġoliv acea
Schis tura
Ġtow n
Ġamazon ica
ĠLev y
Ġbuha tan
atu bang
Aphy tis
Ġcompac ta
Chry son
Ġjohn soni
Mecis tocephalus
Ġbequa erti
Pelle tier
ĠBilar do
ĠNicholl s
A mer
A enic
B ore
B rixia
O D
S ert
e mart
u um
y ana
y there
Ġ ry
Ġ yo
Ġka hi
Ġ1 4
in soni
ĠS ith
ĠB alita
ĠC ond
Ġp ost
ĠA mando
Ġm ani
ĠG estro
ĠW or
ĠT ros
od ella
Ġh ed
Ġf imb
sa tus
Ġala sk
ĠN ogu
ov ski
ton ii
lan an
ie tus
ĠAlex is
ĠAr tigas
ĠSa ma
ĠSa aristo
Ġsub g
Ġsub ter
ĠRe gi
Ġob esa
uh al
Ġmar ga
Ġ181 3
Di oc
Sp erm
Mon ohelea
Myc odrosophila
Ġdec ora
Cyr topogon
oste thus
omac rus
bec ki
kada i
Cheil oneurus
Ġhis tri
omal opsis
Ġem er
Ġcastan eus
ĠIsa o
ÃŃa z
Clado chaeta
Ġmarm oratus
ĠJacqu emart
ĠHun t
Mil togramma
Schizop rymnus
Stea toda
incia l
ĠRaffa ello
Rhodes iella
ĠSith ole
A W
I S
M orm
P rom
S ynema
Z ag
l og
s al
v ae
y t
Ġn es
Ġs w
Ġka mp
ar ata
Ġb os
Ġb rac
el d
el eri
ra yi
ĠS ue
ĠH yde
ĠC ou
Ġp lac
ol eta
ĠL amber
ĠR it
ul tus
ba o
im ulium
ĠN ishi
Ġis la
ich us
Ġna ay
ron d
amp tus
Ne w
der ma
Ġta ylori
iv ora
Ġbit uberc
toph yllum
Ġ181 2
ĠX iao
Ġer em
As trop
Ġnigri ta
ĠMan uel
Tach ydromia
my rus
ĠStro uhal
ĠHan son
ĠSchwar zer
ĠFern Ã¡ndez
Ambly seius
ĠMag nus
Ġfun ebris
Ġst ucken
ĠJus tus
Nyc ti
oboth ea
Ġincon spicua
Eut rich
Ġtow nesi
Ġfenes trata
Megas tigmus
Ġpelluc ida
Ġsis tema
ĠKha la
ĠBoc age
ĠWan less
roleuc on
Ġsma rag
Chryson otomyia
F la
I chth
M C
O tos
U roleucon
W ood
p ta
p ensis
u ar
u gas
u ense
w ong
Ġ tip
te ata
Ġs it
Ġka ha
gi nis
Ġb og
ĠB ab
ĠH ine
om etopa
Ġp aul
ĠA y
ic osta
Ġm ik
Ġc ro
Ġh ina
Ġh ey
ter er
oc ulata
and al
ob run
ki ana
odes sus
Ġta m
Lep tom
ox us
Pseudo n
yph ylla
ile ma
Ap ter
Ġalb omaculata
Di phyus
Ġpro ducta
Ġpro ximus
Ġy uta
Ps ammo
go ensis
Ġcur vis
Ġbi lineata
Dich aea
Ġgip atay
Xen ylla
Ġinf lata
Ġniti di
Lepido stoma
todes mus
acc obius
Ġsca p
Del tocephalus
Ġbu ot
Typh loc
Ġamp li
Ġram osa
Sy ze
Ġpen ins
Rhiz oecus
ĠHubb ard
Ġspini fera
AT AY
Ġhya lina
Ġdeser ticola
Ġinor natus
ĠMasa toshi
ĠDr ury
ĠSin ugbo
ĠFl uke
Ġpapu ana
stro em
ĠHann um
ĠTsa ur
Ġpalus tris
Athys anella
Brah mina
ĠGras shoff
Protone mura
ĠMiyerk ules
Otos tigmus
G yr
K ay
N ata
U M
V a
e tosus
l era
l ellan
m gren
w ensis
Ø §
an ce
la ra
to gnathus
Ġs cha
Ġka pin
Ġa tomi
na u
on ectes
el ta
ĠS ec
ti ve
op ius
op latus
os ae
ĠH ors
ĠC re
om ba
Ġp od
ĠJ Ã³
ĠF en
ĠF ra
ĠR oma
ĠD ru
ĠD unn
ĠK oma
ĠT ag
Ġh ali
ob latta
ĠV in
oma si
Ne osc
Me lin
ung og
ĠHar ter
Th ec
yph ia
rad e
Eu ophrys
Col obothea
Sph ex
dor f
Amph ip
Aga th
Af rom
ĠKri eger
Ġhis pida
oster nus
Neop anorpa
the ostoma
Ambly omma
Sys toechus
ĠRub saamen
Ġsangu in
Brachyp ogon
tole on
Anas tatus
Mall ophora
Ã¡le k
Zy gina
ĠYa ginuma
orda ire
Ġjacob soni
Ġtinu od
Ġmandib ularis
Augochlor opsis
Ġelemen tong
ĠTros chel
Syze uctus
Z or
f iel
t ry
Ġs path
Ġma cha
Ġl ea
ĠS iti
ĠB risch
ĠH oy
ĠC ogan
da ert
hi ya
ĠD anger
Ġc op
Ġc ay
ter son
ĠE con
oc rypta
ba i
ina i
ep a
ep per
Ġis ab
Ġg ur
ap icalis
ĠMar lier
ola tum
ĠSch otte
ie u
av at
An oma
Ġi ran
ĠLe opold
rac antha
Lep tata
ĠGi bon
rach us
Th ym
ĠBo ett
ĠBar bour
ele teria
toph ilus
ĠBa uer
Pro tos
ĠGu ang
Cera topogon
Ġoc ellatus
ovit j
All o
Pha edro
ĠJuli o
ovi ensis
Car ep
ech t
Eup ros
Hali ch
ĠVal entina
Bath yp
Peri lampus
Ġmus c
Da siops
ĠHin tz
ĠGagne pain
over idge
Trip teroides
Cylind romyia
zum ia
ĠBod daert
Loma ptera
Ball ana
ĠUl rich
ĠMontag u
Cycla spis
Zelan do
Elephan tomyia
ĠBish op
ĠEsk ov
ĠFuji kawa
Ġtown sen
Ġstucken bergi
ĠHors field
ĠJÃ³ zef
ĠSiti o
ĠBrisch ke
ĠDanger field
Leptata spis
ĠBoett ger
A da
A las
C ob
E theostoma
M un
N upserha
P teroc
e ana
u ardo
v ir
Ġni mo
to me
us ch
us ia
er ulescens
Ġu lo
Ġb eckeri
or ei
os ca
si yon
uk o
ĠC ri
ĠC oe
ol bus
ĠL iao
da ea
hi z
ĠR uth
ĠD unc
Ġc u
ĠK enn
ĠT ab
ur s
ber si
ip io
ĠV ockeroth
ran ta
ug os
ud ia
ini ella
ura l
Par ala
za ga
pha x
Ac ritus
isi on
pi ra
Ġcon j
ĠAn ufriev
Ġan ceps
Th ysan
Ġga lli
illa r
ĠCa margo
Ġruf ithorax
ĠMc lellan
Camp odorus
Lepto nema
Ġpro lix
Ġ178 2
Phy tod
ĠVic ente
Aph idius
Ġquad rata
wood i
Ġpic tipennis
Cer esium
ĠMi randa
ĠTaka kuwa
Ġcali for
ĠGro te
Ġsan cta
Ġfur catus
ĠRoh wer
Leptoc onops
Cap nia
ĠSi evert
Dactyl orhiza
Ġboli viana
Rhabdo mastix
Ġtrid entata
Ġparado xus
Xes tocephalus
Tetrag oneura
Ġkonse ho
Ġvenus tus
opeta lum
Dag han
ĠKlap Ã¡lek
ĠHarter t
B ab
H ala
L er
M onte
P unc
P eleteria
S tan
T ec
T era
b ile
d um
i va
k et
m od
m enus
v ers
z Ã¡le
Ġ ani
an ten
Ġs and
ma t
Ġa st
er da
ĠS en
ĠS ugi
op era
op atra
ĠB ug
ĠA thana
ol ei
ĠL overidge
ĠG ang
hi ensis
ĠD ing
un ong
Ġc el
Ġc ensus
Ġk oz
Ġk uno
Ġh unga
ĠE g
Ġd una
ry on
ec i
oph onte
ne yi
ov skii
et ra
qu el
uc chi
ug an
ell nick
lan es
Ġla bi
ĠZ ielke
Ch yliza
Me x
Ġta b
oth a
Lep tur
ÃŃ n
omp sa
Ġqu e
enia e
ĠAd ler
Trich ocera
ĠX ing
Ġtri fasciata
Ġex imia
bur yi
Ġspin os
ĠMon tro
uz ier
min th
Heter os
eman i
bu tang
ĠQu artau
Cy ma
trich us
Syn odontis
lep ta
Ġana to
ophy ma
Ġlongic eps
Dasy valgus
Ġgran ulatus
Cephal otes
Ġquadri maculata
ĠTs une
ĠKus nez
otan ypus
Ischn ochiton
Ġcurv ata
Ġciner eus
Ġjav ana
Ġcong oensis
Ġquin que
kina hanglan
Thauma lea
Cac ia
rolep is
Selen ops
Ġauranti aca
ĠFah ringer
Hys ter
Ġinsoli ta
Ġlak ip
ĠHot tes
Chlam y
Zod arion
ĠEhren berg
Ġperyod iko
Stefani ola
zÃ¡le z
ĠAthana se
ĠTsune ki
ĠKusnez ov
1 0
A topsyche
C aul
D ubi
L u
b orne
r ens
z eri
Ġn al
Ġa ut
Ġgi k
ch roma
Ġl en
ĠS ena
ĠC un
Ġp rov
al ba
Ġm ita
Ġm oda
ĠP el
Ġc amb
ĠT as
Ġh elen
Ġala ta
ĠV echt
ov ern
ei ventris
em or
och or
och ira
ura i
Ph ob
Ġal c
ĠMa zur
ĠWal sh
oth ea
ĠU singer
iv ersi
Ġlongi seta
Ġflav of
berg er
Or myrus
ĠBur la
ste ri
sc ens
ida s
kan e
Dia ch
Ġver nalis
Ġcur ta
Ġdec ep
otrich a
Hop loc
Bar bac
Ġcla ripennis
lam ys
omi tus
iph um
Ġgris eus
Tric or
Ġsig natus
Ġdiver si
ĠProv incial
Ġmari tima
ĠBis was
ĠBis aya
Mas tig
fus ca
Ġformos anus
Ġge orgi
Ġmala isei
ĠLog vin
ĠKuma r
Rhyti phora
Drepan osticta
Ġgitu ohang
hys sa
Ġsibi rica
ĠGibb s
Erig one
Ġabn ormis
uay ensis
ĠAk bar
Ġtonkin ensis
Spir orbis
ĠMuker jee
Apol ysis
ĠLamber s
ĠRit sema
A eg
G ama
M ir
P as
U tetes
c lus
e tia
h y
h ti
h ona
u lin
z ella
la imus
li tz
ma in
Ġka iphan
Ġma x
us o
us tus
ar te
ch at
Ġb rad
ri gi
ĠS ack
ti kal
il an
ĠH och
ĠH sia
ic al
ĠP and
ĠD omb
Ġc yr
ul odes
ĠK uhl
ĠK oval
ĠK laus
ĠT omma
Ġh yb
ec anium
Ġe up
eli dia
ros sus
di tor
tic e
res cu
ans ki
uri i
Ġj ean
Ġan gay
Ġar n
Ġw he
Ġflav iceps
Ar ren
uric us
ĠBur ke
Ġz u
Chrys ocharis
oz zi
Pach noda
Rha din
tion s
ĠMay er
Eup teryx
ĠMi ÅĤ
etti i
for me
cid ea
Calli phora
ĠVal erie
Ġgla ber
nic ki
Ġpla umanni
Psych omyia
ĠMur phy
Sar gus
Teuch ophorus
ĠSn ellen
Diad elia
omar ginata
ĠLund strom
Ġcand ida
Homal omena
Glyp to
ĠHor v
Hetera lonia
Ġexca vata
Ġtala ang
ĠHend rik
Ġinex pec
farl ane
Ġkimi ko
ĠDurga das
ĠMakar chenko
Ġatomi k
ĠMiÅĤ osz
B elon
E uk
M inettia
N eiv
c ephala
l ovi
m orpha
v ani
Ġ rac
en bergi
li do
Ġs har
Ġsa x
Ġsa uteri
Ġka dtong
se la
Ġl or
ĠS tr
ti osus
os phaera
ĠB ingham
il oscia
si ra
Ġp ab
ph idia
am eri
as m
Ġk and
lis tus
Ġt ung
Ġt rini
Ġf is
im o
ber us
ir ella
uli pa
ad ix
ori ca
tin cta
up t
lat t
til um
Ġta as
Ġba tesi
enta tum
Ġflav ip
Ġpul ver
ui j
Ap lidium
Ġmag t
Mes osa
les ic
Aph ani
ass in
Ġmic roc
Ġne otrop
ĠVasil evich
Ġpal palis
ĠVa isan
Ġsul ph
Ġcla vatus
Ġros tratus
rem n
dos zkowski
Ġplat yc
Ġtenu icornis
Sol en
Ġglob osa
ocal anus
ĠCros by
Eug lossa
Ġkus og
ĠHum ph
Ara bis
Ġarab ica
Leth rus
Ġappend iculata
ĠRupp el
Syrph octonus
ĠVar gas
ĠAug ener
ĠGarc ÃŃa
ĠSummer hayes
ĠMontro uzier
Ġwhe eleri
Neiv am
ĠVaisan en
A tta
M ini
M ad
O lesic
P lum
R omu
T re
b odo
c anus
d din
h yd
n itz
s ara
Ġni l
Ġni ingon
li riomyza
Ġs ip
Ġs qu
Ġs tar
Ġma ll
ar icus
on jaev
Ġb at
ĠM illot
ĠM Ã¸
om mer
Ġp uli
ol ens
um i
ĠL uh
ĠP es
ĠP inh
ĠR iley
og lanis
ur an
lis sa
ac arus
ob la
ob io
ĠN ij
ĠCh ill
ran th
qu hart
ena x
ani ella
tin en
Ġsi mi
lat tella
ans eni
rip ta
art y
Ġcon ica
eng ensis
Ġw est
Ġpar ac
Ġflav ifrons
rom enus
toph orus
Pol ym
Ġun ip
Ġalb oc
Al stroem
ĠPer ry
Ana ulac
Ana phes
Ġhi er
Ġmon st
tif olia
En dasys
be e
lic tus
Chlor otettix
Ġsul catus
ĠGri bodo
Ġelegan tula
Is omyia
cid eres
ĠSug onjaev
Eri ospermum
Pris ta
Ġika t
Scap tia
ril lia
Neoc onocephalus
Ġbic orn
ĠUr quhart
Ġmari ae
Ġconc in
ĠMed ved
ĠGeoff rey
Ġdimidia tus
Ġcing ulata
Sab ella
Ġuss uriensis
ĠChern ova
Epir hyssa
Cerac lea
Psammo tettix
Olesic ampe
ĠChill cott
Alstroem eria
ĠMedved ev
A lab
B oma
B oech
C ara
C orm
T ub
e ticus
g ana
l oma
n ensis
p unctata
p tomus
r ophora
t zi
Ġ zi
Ġn ea
la h
te uthis
Ġs tan
Ġs ci
in ius
is mo
on idia
ri to
ĠS ten
ti da
op oma
al th
ĠR ose
ĠR occhi
ĠD ag
ĠD ell
Ġc ent
ĠK ey
od ema
ana ce
oc osa
Ġt ui
Ġt rog
im Ã©
ot roph
ĠCh app
ĠV inc
et sch
ei chen
Ġg od
ona tum
ut s
Ph ara
gan s
ie w
yp tila
oli che
ĠBre ddin
Ġda m
uri llus
ĠSa kai
Ġw ir
Pro asellus
Ar gia
ĠSan borne
Ġ180 9
land icus
Ġab rup
En opl
Cal lip
Tri b
Tri aspis
Ġten ella
ilang go
Cor eth
ovit tatus
Phil oliche
eria lis
bis yo
Ste th
Ġcomp ressa
Ġam urensis
Idi ocera
Macro dactylus
Parali paris
Ġple be
ĠYoshi da
Phyto liriomyza
Ġoliv aceus
Ġfas ti
Cyan opterus
Ġkra us
Rhac onotus
Gas tro
Ġverruc osa
ĠKÃ¶ hler
Ġgenic ulata
Ġmuta bilis
Leucos pis
Hier odula
ĠTsu an
ĠXiang wei
ĠDunc an
ĠDomb row
Prista ulacus
Boech era
A re
A ge
B ro
B alan
D im
D ica
P apu
P ulici
b ok
c as
c anc
g han
p ez
Ġ est
li tes
Ġs ylva
Ġgi dala
er tus
ta w
Ġin dis
ra dia
op o
os tes
ĠM ula
ĠB ell
th ala
Ġp ila
ol li
ĠL opez
ph one
ĠJ ong
ĠF Ã¶r
am u
ĠD ick
as sen
ag ula
Ġd eb
and ica
ed us
ot roch
ĠO st
ĠCh urch
et tel
Ġang ulatus
Ġg ol
bi anus
bi talis
yn obius
Ne uro
ĠChris tine
cia e
su on
ĠBar rie
Ġga rd
Mic roph
Ġflav i
ze k
Ġwa g
On esia
yb us
Trich onta
Cal yc
Cor ybas
ulic ola
Pach yd
Ġop era
Ba silia
Ge odia
Ġgu ineensis
ĠShi ino
Syn tormon
Is oc
Eus tomias
Ġdep ressus
ĠChi ang
Ġgla cialis
otan ytarsus
Man tis
ĠBu quet
Ġpurp urea
ĠGon zÃ¡lez
ĠAg osto
ĠDan zig
Ġtran si
tell um
Dama lis
Ġpru inosa
ĠGood e
Ġminus cula
ĠEver mann
ĠTsch udi
Nipp on
olyc osa
rze j
ygodz insky
ĠAlekse evich
ĠSue o
Astrop ecten
Barbac enia
Aphani osoma
Romu lea
ĠMÃ¸ ller
Pulici phora
B alc
S ip
T ulipa
c anth
h meyer
m ella
t ung
la toria
to genys
ma g
Ġka ti
Ġa gi
Ġa trop
gi dus
in x
Ġb ec
ĠS we
ti dis
ĠA z
ĠL em
ĠG las
ĠW ygodzinsky
ĠF eli
am pa
Ġ2 5
Ġh aema
lis is
sa d
ĠN ick
ran cistrus
ros c
ent je
ĠZ ettel
top yge
ler us
uri e
ĠBr Ã¨
Ġch alc
las yon
ui ensis
Ġro th
On cideres
cha udhuri
ĠChamber s
Gl en
hn an
ĠMik e
ess obrycon
Ġver ticalis
chis ta
phan es
ĠMi ya
ĠBe entje
Ġsu av
Ġacu ti
Ġobsc uri
ote tranychus
Ġgy od
ĠBl och
edic ia
Leptoc erus
ĠSou to
ĠKer rich
ĠNikolai evich
Ġfre yi
Ġgihim ong
Hyph essobrycon
oso ter
Pseudom yrmex
Aug ochlora
Agal liopsis
Ġchal yb
tere bra
ĠWall work
ĠReb el
Gast rancistrus
ograp ta
Neivam yrmex
ĠLuh man
ĠMula ik
ĠBrÃ¨ thes
A R
A te
D ol
D ein
I sa
M ong
M aech
S tom
T rig
a da
c ella
d ea
d rilus
g p
i anus
Ġs eti
Ġs ucc
Ġsa mad
Ġa pa
ar pus
se udo
ch ris
Ġb uwan
ra ma
ti bo
op yr
th ae
ĠH ua
Ġp eri
ĠL av
ĠG ob
ĠP ers
ul ohan
od eres
ur se
id law
och ar
och orema
Ġe ury
ĠZ imin
Ġre gina
Ġi ber
ili um
Ġhila ris
ym pha
rop hila
Ġli ber
mb ia
rach ia
Th orac
tro ch
ĠGra vier
Ġwa lla
Ġalb ipes
Ġhi gala
ĠFer guson
Ġte le
van t
edo rea
ĠHa eckel
hin um
Heter on
Ġel lip
ser ville
Sin ophorus
Coel orin
ĠBerg enstam
Ġrug os
Ġplat y
Cir rospilus
enae us
ĠRiv ero
Atra ctus
bor ni
Ġconv exa
ress ler
Ġsud lay
Te tan
Ġpasa do
ĠThÃ© rond
Lan ce
Stra ti
Rhe otanytarsus
Ġinfus cata
Ceri thi
Ven ez
ĠArg oviensis
Lia carus
ĠKirk patrick
Ġferrugi neus
raca ena
Ġparall elus
Ġflorid anus
ensper ger
Ġtuy om
ĠBuc kton
Ġtownsen di
Phytod ietus
ĠKoval ev
Arren urus
ĠChapp uis
ĠFÃ¶r ster
Coelorin chus
ĠBergenstam m
C las
C los
E senbeck
N ota
O sb
b ea
h ia
h um
j ecta
n ica
r ora
r ho
r ophorus
u il
z ani
li fera
Ġs yn
Ġs yri
Ġa tu
er ei
on ana
ch icum
Ġb ili
ĠS ala
ĠB rus
ĠB olivar
ĠC og
al er
ol um
Ġm ou
ĠD ÃŃaz
as ci
ĠT ian
oc arpa
ob lem
mi do
Ġf u
it ens
man ica
ya do
Ġla si
ĠEd ler
Me semb
ara i
Lep tos
ord es
odo psis
ĠBar on
ci os
Ġsub f
ni eri
ĠBa umann
Ġqu erc
Ġz eb
Ġ180 6
Dic ro
Tri x
gal phus
Leuc ocelis
toni ella
ĠCol less
Ġha us
ĠHe er
Ġsim illima
Ġstri gi
Ġpagp atay
Ġnak ita
Lyc oriella
Gna thia
Ġarg entina
Ġdim in
Plagi ognathus
Ġfili formis
Syna g
ĠVie hmeyer
Ġmu elleri
Phys aria
rodes mus
ocent rum
Dama eus
ĠBoy er
Platys oma
ĠRas mus
ĠClaud ius
Misum enops
Ġtyp ica
Ġguate ma
Asty anax
Aenic tus
ĠEcon omic
Ġque ens
ĠXing bao
Esenbeck ia
Osb orn
C lype
D racaena
K as
M o
h ino
k ill
s soni
u tan
Ġ rid
Ġsa v
Ġma tod
xt us
Ġb ud
Ġl ud
ĠS el
op se
os ker
os yrphus
ĠB at
ĠB oss
si b
Ġp ero
al b
ĠA lista
re te
Ġm ib
ĠF ro
ĠD ev
ĠD up
ĠD onov
ul os
ĠK ohn
od ina
Ġh ag
Ġh yd
ĠE yles
ob er
Ġt ul
sa yan
it um
ĠCh ina
ne um
ov skaya
ell ens
Ġal tern
ĠSte ven
yr ma
ĠHer ting
ose mi
ila s
Ġcon tor
enta le
ĠBar tak
ĠAnd rzej
Ġflav oc
old ridge
illi mus
Ġro d
rin ella
ĠBur ks
ĠTa da
lo eus
Ġmag pa
Di xa
Ġpro gra
asc an
ira ta
uro ides
ĠHa us
ĠGre g
Ġbi roi
Ophi othrix
troc ladius
tac ea
ĠGer main
ĠFel sche
Cyr top
Ġlep to
Ġpra e
Ã± o
ĠSto ll
ĠAng el
Ġbas ilew
Ġlug ens
ĠBou illon
Micra thena
Hyal onema
Ġdav isi
Chama edorea
Ġcauca sica
Ġinsi dente
Ceratoph y
Nar cissus
Ġsik k
ĠRep ub
Og codes
Brun ettia
ĠWo oldridge
Gale odes
Carep roctus
clus ive
Phara phodius
ĠAlista ir
C yb
R han
S epe
g ensis
u ina
y gius
en as
Ġa em
tan te
ar ae
Ġb ri
Ġb usa
or inus
el op
os tatus
th ier
th enes
ĠC ed
Ġp yrrh
ic ap
ol en
Ġm ok
ĠG al
ĠG ran
ĠF rag
ĠF rison
ĠD ong
Ġc um
Ġc era
ĠK anes
og mus
Ġh eb
it ensis
ba ensis
ĠWil lmann
ep us
tes sus
ya d
nd us
ent re
ena lis
va li
ĠHer re
Ne ol
Ne otrichia
Ġar b
ĠBar ros
ille i
ÃŃ rez
Sc ymnus
Mes sor
ĠBrun o
osc inella
Sp ongia
kan itz
ĠCar bon
Ġrub ripes
And es
min al
ĠBel tram
Ġcla ra
ĠCha udh
for ma
ĠRei che
lam bi
tog lossa
In f
tomy das
odi tes
Ġinc ur
Plec tis
Ġconf lu
ĠBl est
Ġbu tang
Amphi oplus
enoc ladius
ilia tus
ĠHos hino
Da em
ĠEx clusive
Sy nd
wi gi
ĠMcc osker
ĠTol kanitz
Ġexig uus
Ġfac ialis
Paral ep
ĠHum bert
Chroma tomyia
ĠCoh er
Ġluri da
Ġimita tor
omec yna
Ġcephal otes
ĠPala cios
ĠViv es
ĠMaril yn
Dioc tria
ĠHumph reys
Maech idius
Ġbasilew skyi
Sepe don
ĠCed ric
ĠFrag oso
ĠKanes hiro
N eb
W iedemann
h yla
h ead
n u
o tica
s ticta
t yc
t yphlops
v romo
Ġn apa
en ow
Ġs n
Ġs unog
ka w
do lum
Ġsa ging
Ġad ministra
in cus
ta li
Ġb ona
Ġb icus
Ġin qu
ĠM oc
ĠM Ã©
om ona
Ġp rima
ĠA re
re do
ĠL ack
ĠG run
ĠJ ez
da x
Ġc l
oc ala
Ġf rac
it tata
ba ho
Ġg land
ap nia
all o
Ch ori
res t
lat yura
Ġpag gamit
ĠGi ar
Ġcon ver
mb o
Th ana
ko i
ĠBar ron
Ġpar keri
ĠLa Gre
omp soni
ias ter
Ã³ pez
ew icz
ĠDu four
pe don
Ag onum
Ox yrhachis
Ġmic rops
olas tes
mas tax
lu tha
Hol olepta
Ġph yll
Cy baeus
olis an
ĠMo ulton
Oc topus
Ġalbi da
tori bates
Ġsil vestri
Ama ra
dop tera
onor ops
ray ber
pida tus
Ġhyp er
Cle is
Ble dius
Glyc yph
ĠKaz uhiko
Ġcub ensis
ĠKap oor
Arg yra
Ġpak ig
ĠNil s
ĠPac kard
Ġping uis
ĠReich ensperger
Ġnev adensis
ĠMÃ¡r cia
Epe olus
ĠBuk id
obla cion
Venez illo
Osborn ellus
ĠDonov an
Daem onorops
Wiedemann ia
vromo usta
ĠLaGre ca
! <|
A M
B yrrh
C eu
T ing
b run
c ulata
e ola
h ini
n ing
n ec
p ter
q i
z ygia
Ġ oh
Ġ esc
wa gan
ta zar
Ġl us
op ella
ĠC le
om be
ĠA ma
le ch
hi bawo
ĠK um
Ġk ans
Ġk ili
bang ga
Ġh us
Ġh ub
Ġt rach
ĠN al
et to
son ella
Ġe la
ard us
uli odes
ĠAl pheus
ĠHer sh
ĠLe thier
rac anthus
rop oda
Ġba tan
tom era
Rh yp
Ġlongi collis
rom ica
Ġpul o
ĠRe mane
ĠLouis a
La ev
Ġalb on
Ġhi tabo
thoph aga
rad us
ĠSp ring
lec tro
ĠBrun hes
Co quille
Hyp osoter
Ġmi xta
Di es
ĠMe ek
ĠCar olina
ĠMon ser
Ca ec
My daea
sic ola
Bar yc
ĠÃ ĸ
ole tus
pon era
lon ga
ĠWe ele
ĠRay chaudhuri
Plec troc
Ġbrach yptera
Ġle on
Ġkap olisan
Bath y
Dys mic
ĠMarc os
Ad icella
Ġpana hona
âĢĿ <|
Ġcamp estris
Ġcamp belli
Parat rich
Phor tica
ĠGÃ© nier
Ġvali dus
Ġacum inatus
Ġspeci osus
Ġinterrup tus
ungi ella
Ġpasa hero
rover kh
lund ia
Psec trocladius
Sep ia
Poth yne
Ġsiling an
ĠHabe eb
Typhloc yba
ĠLogvin enko
Coreth rella
canc ino
Ġprogra ma
Rhan tus
Glycyph ana
ĠLethier ry
ĠMonser rat
A lis
C um
C rinum
E usta
G ong
L ind
T ed
T egen
V ela
g ota
Ġsa p
Ġa enea
Ġma pa
in ei
ar tinia
on el
or pus
ĠB Ã¶r
il odes
ĠH era
ĠH ong
ĠA udo
ic oides
re ti
Ġm ota
ph yllum
ĠG en
ĠR uz
ĠD ziedz
ĠK ang
og us
mi ulus
Ġf am
oph lebia
ber is
ĠWil ld
et rum
Ġis hi
Ġg uy
och ironomus
ton iscus
Ġe dad
Ph erb
nis cus
uli collis
bi on
tic ula
ert ens
ili na
me tana
rop eza
ung er
tom is
Ġpa agi
oda eus
Ap rionus
ĠRa doszkowski
Ġob long
Or ne
uric ea
est re
ĠBur g
ew ell
Sten h
Ġcar ini
tti i
uel ensis
oto xum
Para dox
Ġser p
Ġser r
My ospila
ĠGer st
Ġvar ius
Ġbif asciatus
ĠRam ÃŃrez
zar o
osi phon
Paras tasia
Hila rempis
Ġgla uca
isa to
Ġneg lectus
ĠEsp er
Phys oc
ĠLyne tte
Cym b
ĠLamb kin
Ġpropin quus
Ġsumatr ensis
ĠHick man
ĠTani ta
orha ga
Ġcolora densis
Ġvilli ersi
ĠKuw ana
Phaedro toma
ĠPand elle
Alab agrus
ĠOst roverkh
ĠChaudh ri
ĠJez ek
ĠWilld enow
ĠOstroverkh ova
, ..<|
A pis
E rema
F lab
F urc
H epta
L at
P ero
d anan
j evich
k um
l usa
r do
s uya
u ia
w ing
z ha
Ġni p
ma tog
Ġsa ba
Ġa er
gi cus
ula y
is man
Ġl ou
ri bal
es ae
ĠS oli
ĠB Ã¼
al pa
um osia
Ġm illeri
ĠG oe
ro xi
ĠW el
ĠW ool
Ġc rin
Ġh y
lis ot
oph ileurus
ĠO c
Ġg ymn
em yia
ir rus
Ġal ber
ĠSte jne
pa thes
ym met
Ġli toralis
tos ternus
Ġcon fer
Ġr udis
ond ria
Ġmac ulosus
tha lia
ela tes
yg na
Ġun say
Ġhi ng
Chrys ina
Mes orhaga
Tet racanth
Ex oc
Cera toc
âĢ ľ
Con ophyma
Col chicum
Ġsc it
Acanth osc
Ste lis
Eup lectrus
ĠMas ter
emb ro
ĠBro d
Ġsiy ag
Ple ur
Pseud an
ĠBra un
elis ter
icula tum
ĠSol las
Ġtenu ipes
Ġciner ascens
Qu artinia
Hyper aspis
Ġantarc ticus
Ġincer tus
ĠHil big
Gloss osoma
Oriba tella
entra l
Stich opogon
Ġfesti va
ĠCris tina
Ġbolivi ensis
Ġpoec il
Myz ostoma
fran co
ĠPinh ey
ĠNij ssen
Balc lutha
Dysmic occus
Tegen aria
ĠBÃ¶r ner
ĠHera ty
ĠDziedz icki
Orne bius
ĠStejne ger
A S
A ca
D olom
I N
K ap
L ilium
P ell
P at
P alli
S tran
c inia
d ell
s ha
t l
t sev
Ġ id
Ġ ille
ga ma
en ica
Ġs mi
do g
Ġa to
Ġad usta
is tus
Ġ18 00
op impla
Ġp roy
Ġp enai
ĠL Ã³pez
Ġm unda
ĠG amo
ro li
ĠF ros
ĠR an
od ec
Ġ2 4
Ġk iv
Ġh em
Ġt roch
Ġf ila
ec es
ba ena
oph th
ed ens
ĠN ose
ran galia
sp i
ros cia
Ph elister
Ġla tipes
ten si
oli ca
ĠEd uardo
oe ta
Ġsi er
eb o
Ġi ri
Me g
rid ula
Ġr ud
toma s
Ġga hom
ers dorf
gin us
illi na
car pus
rin otus
Sc orpa
opter is
Cera tin
ĠCar men
Eur yp
Dia stylis
uro k
Ca tharsius
ĠCol ling
Cer aspis
My ndus
oman es
lep sius
Ġste ph
toria lis
terna lis
Ġ3 0
Ġpec tina
Clin odiplosis
Ġjav anica
Ġobtus us
Lox osceles
spic uus
Parag us
Ġpum ilus
Cylind ro
Desm opachria
Ġarcu atus
lak ip
Nep al
Ġsey rigi
Ġcog nata
Ġlance olata
esh wa
Carp elimus
ĠBranc ucci
Stre bl
oscir tus
Black bur
Ġgay ud
ĠGh osh
ĠSinugbo anon
ĠBug bee
Hyster opterum
Dubi aranea
ĠCun ha
ĠAudo uin
ĠNose k
1 1
B ud
F lav
G in
O ste
O edo
S epsis
b ag
e odes
s ur
Ġ tel
Ġa ru
er ens
in ens
se lli
se tosus
ta i
on di
Ġb our
Ġl ei
ri eri
op odo
os tyla
Ġp ac
Ġp uw
ic is
ph e
Ġc ten
Ġc ocker
Ġk uri
ec ius
uc ey
em num
ard sley
ow icz
bi da
Ġre ich
don tia
amp i
rip tus
top is
pan ya
Ġta ho
ord ius
Ġch ampion
angan illo
Ġcon similis
Ġflav ida
Ġalb escens
ib asis
Chrys otoxum
Sten el
lab es
Ġca es
Ps y
ĠMat s
Ep ac
Ep it
Ġcor ru
Ġpic ea
Ste m
Ġsu gi
sk ey
Ġri gida
Hemi b
Tan yproctus
ote uthis
ĠOr tiz
Ġatra tus
Ġargen tea
Ġaren icola
Ġpauc is
Ġbil obata
ĠGrand i
ĠIr v
ĠBus ck
ĠCros skey
Tryp eticus
Oz yptila
Nep tosternus
ĠHoe se
Atrac todes
Ġcrini ta
Ġhabaga tan
ĠTo ucey
ĠBow man
Lig yra
Ġoreg onensis
ĠFr anganillo
Rhytido ponera
ĠJer don
ĠLeng ersdorf
Ġwit tei
Eupros opia
Ġaut umna
Boma rea
Ġtui ga
Pachyd ema
Dicro tendipes
ĠMoc s
Dolom edes
ĠFros t
C lad
E uma
H oma
I K
L eb
S it
S acc
a f
a lis
b ris
s un
u ae
Ġn g
ga this
la giata
to idea
Ġs co
ka li
Ġsa gad
way ama
ar enko
Ġl op
op odus
th oe
al yp
al anus
ĠA f
ol la
Ġm end
Ġm orio
ĠG in
ĠF ei
ĠP ay
Ġc aledon
Ġk il
Ġk ha
Ġv esp
ot reta
et sa
ha iensis
lan us
eli des
ĠMa in
ĠMa tic
ĠY uri
va is
tos um
ĠAn anth
Th arra
Mic aria
rev or
Ġro h
ĠFor tun
eth es
Ġdis ting
oceph eus
Ġz onata
Ġdo d
ĠMor ris
Hyp oponera
ks yon
sc olom
ese a
ĠMat su
Ġniad to
Ġser icea
tre tus
Micro d
ĠMah eshwa
lob lin
Ġto x
Ġsc otti
Ġbi lineatus
kawa i
ĠGer hard
Sch oen
Sym pi
gina tum
Ec tin
Ġkap uyo
Ġgris escens
Ġsemi p
Ġsemi ru
Ġgran ulosa
onal do
ĠTra ver
Ġtin un
ĠSou thern
Hab rona
Ġargen te
Ġfa ir
Ġgigan teus
Ae gi
Ġtub ig
Try phon
ĠNaka hara
Ġexc el
Ġsur in
Liss od
ĠNi isato
Ur ophora
olon tha
Ġfuli ginosa
Ġpama agi
Eris talis
Ġthom soni
Ġperuvi anus
Gnamp togenys
ĠFilip jev
Ġtulis an
Cyb ister
F id
H AN
M ix
S eg
T r
d ula
h is
h yp
j ensis
j ab
k ova
Â ²
Ġn otatus
wa e
en eri
Ġs olom
do phaga
Ġa sc
Ġb ed
Ġb ab
Ġl obatus
Ġin ca
el os
ĠS olis
ti gi
op lec
th on
ĠH ell
ĠC ow
Ġp uber
ic occus
ol ea
ol ex
Ġm j
Ġm uri
Ġm anni
ro ensis
le ini
ĠD us
Ġc ros
ag ei
im hoff
ot ryp
yl oidea
ĠCh in
ran thus
ei ffer
ena lia
oe da
An troc
ean um
if acies
ord um
Rh omb
Ġar na
sus ulat
Ġpa ingon
ci don
tro ma
tha w
ĠOs amu
ĠLa idlaw
Ġper kinsi
ĠRa z
Sc op
Ġhi pp
ĠCla assen
Eu odynerus
Per galumna
Trich oc
Lepto typhlops
inea e
ĠPa lisot
Ġbar bar
Lasi us
ms haw
Ag ros
ĠGa o
ĠMac g
Ġx er
ĠEv ald
Ophi op
Ġnas utus
elle i
ĠGer vais
Ge iss
ĠGri mshaw
ind ela
tol ana
Asp lundia
ĠDouglas s
ĠKol tun
Ġkina hanglan
ĠBerg roth
Cra ugas
Ġrec tang
Cheil otrichia
Ġnagp asabot
Ġdor s
aster on
Euph ranta
Pyr rh
tho um
ĠEl lis
Ġangusta ta
Ġatlan ticus
Coni oscinella
sche id
ulla way
Stic to
ĠIwa ta
lak ang
rn ov
ĠTat suya
rif ic
Ġasia ticus
Ġthorac icus
Ġami hanang
Cic indela
Ġunc inata
Ġcog natus
Lach enalia
ĠAc zel
Ġhabaga tang
Gor yphus
ĠAmeri kan
Dri mia
Ġkad lawon
ĠIl mari
Mesop olobus
ĠPf eiffer
omyc terus
ologi st
ĠField ing
Ġschwar zi
Strebl ocera
Habrona ttus
Antroc ephalus
Geiss orhiza
Craugas tor
A v
A shm
B ides
L yd
U N
Z ap
e ga
i te
k w
p ius
v ea
v ialis
Ġni pa
Ġs ilang
Ġka sh
Ġka say
Ġma lac
ula rd
on evra
ĠS it
ĠS Ã©
os ii
ak ro
ĠB ond
ĠB eck
th mys
ph ne
ĠG ord
ĠW ake
le ia
ĠP oblacion
un tius
Ġc ell
Ġc yc
ul catus
ĠK latt
og l
Ġ2 3
Ġh ubb
Ġd um
Ġd rug
ris to
Ġt r
Ġf os
ca pa
ig li
ric ondyla
ug dan
ton is
ĠI off
Ph ora
ent ar
Ch ias
av ero
rac ris
st yla
ym ma
han on
Ġj ack
tri g
rid e
ĠGi an
idi ella
Ġpa up
Ġga mit
oda c
Ġcar n
ling ensis
Lepto gorgia
Ġoc ulatus
Tri odon
Tri onymus
Chi licola
Cryp tochironomus
ĠSta cey
hl eri
chard t
ĠBlan ton
Ġcap itata
bis yon
bu ria
isch eri
Hol orus
Ġacu tipennis
lyp tus
rill o
Pros imulium
day ag
Tan ypus
eyer imhoff
Cra tyna
Ġcyan ea
ĠSou za
Ġlac te
Ġbid entatus
ĠStar ks
Por ricondyla
ĠEs ta
ocent ropus
Cas inaria
tid ea
Spin otarsus
oer odes
Ġdar wini
ĠPra in
Ġsmith ii
Cord il
ĠIwa moto
ĠNaka mura
Ġok ina
Ġlaevi gata
ĠSalva dori
Ġevan si
Ġcuc ul
Ġaethiop ica
Eux esta
ynd etus
Cro cus
Poda grion
Phyllod romica
Ġuta hensis
Ġmacha doi
Ġhelen ae
ĠTomma so
Euk iefferiella
Vela rific
ĠWool ley
ĠFortun Ã©
Ġdisting u
thmys us
Velarific torus
C accobius
D oloph
I tal
L it
R amph
T is
T arach
Z ora
b ani
d ei
d ard
g ri
i zi
j as
j ana
o o
s ugod
y ethira
Ġn ec
li odes
li ci
ar sa
ta mus
Ġl ele
ti lio
os ten
si o
ĠH igh
ĠC assin
Ġp ur
Ġp eli
Ġm ipa
ĠP ang
ĠD mit
un ia
ĠK uden
Ġh ulagway
Ġh arp
Ġh esp
Ġd ense
mi i
Ġt inc
ba ud
ne li
ĠV it
ran za
ha al
Ġe qu
ĠI na
ros ti
nis tis
ĠMa vromousta
anth ia
ani ra
An ochetus
ĠFran ces
ili ng
chi ella
chi tes
me ia
ord ulia
tos te
Pseudo nap
los oma
los sus
cher tus
Ġpar am
Ġmac ula
Ġmac il
oi tes
rom antis
ĠGra v
tig o
tella ta
ĠHol singer
Sten od
Tet rac
Ġte am
Ġquad ra
Ġgrac ile
As yndetus
yth ia
mis sion
ass er
eria ta
Ġat riceps
rh ina
Heter ospilus
ĠLind inger
Ġnigri tarsis
ĠGer man
Amph ia
Ser pula
Ġhir s
ĠDa day
Ġpol lin
Ġ176 4
Ġpunc tulatus
ĠIn c
Cl onaria
Af ric
Ġinc og
Ġnak ig
ĠMen ozzi
ĠScha um
Ġvir gata
ĠJo el
itt kau
Ġpres idente
Ġneb ulosus
had lok
tud lo
Schis matog
Fal s
ĠFon scolom
ĠEvers mann
ĠHud son
Orph nus
Ġander soni
ĠWins ton
ĠBach li
ĠOg loblin
Bruch ophagus
ĠOv tsh
Pim el
obac cha
ĠDesb ordes
ĠGyllen haal
iversi ty
Anaulac omera
Ceratophy sella
Tetracanth ella
ĠDmit ry
ĠKuden ov
ĠMavromousta kis
Pseudonap omyza
ĠFonscolom be
1 8
4 5
B usa
C oli
C remn
O res
P ipi
c ip
f il
h op
v um
an ong
wa k
en eus
Ġs ou
Ġka ayong
Ġa gassi
endo ryx
ch estes
Ġb rin
Ġl eh
or es
ĠS war
ĠM ir
ĠB erio
ĠB rock
Ġp yra
ĠL anc
le urus
ĠR heims
ĠD ei
ĠD Ã¶
Ġc anc
Ġ2 1
Ġk ord
and ale
ob ium
Ġf oss
ĠMar ÃŃa
ĠMar ikov
ard ley
ev ia
Ġla pp
ten se
ann ulata
sch ewitz
ena ti
Ġj ug
Rh op
eg ra
ĠHein z
aul ler
ĠBo ulard
Ġga bon
ty cha
Mega c
eck ia
Ġz ebra
Camp oletis
opa thes
Ġra p
Ġac ac
Phyll odoce
pp er
hn ik
erc es
Ġ177 4
ĠHa upt
Ophi oc
ĠTim m
ĠPetrov itj
Ġpal p
Ġter es
jan tsev
ĠBra vo
ifer um
enc es
ĠStan is
Eus c
ĠDmitri ev
Ach ias
Tetra l
Ore odera
Olig osita
Ter mi
Ġul ohan
ĠLaur ence
ĠDom ini
Ha hnia
Ġvill osus
Spha erodactylus
Ġatten uatus
Chalc osyrphus
Bal ta
Ġpall escens
ĠThÃ© odore
Ġmahi tabo
ĠFah raeus
Ġstella ta
Paralim na
Ax inella
ĠWinter ton
Ġcalcar ata
ĠBog ner
Ġkadag hanan
ĠBot jantsev
Rhyn c
ĠConstan ce
Ġhys trix
ĠSmi rnov
Sh annon
Eua gathis
ĠKhala im
Plectis cidea
Ġsilvestri i
Ġproy ekto
ĠIrv ing
Lissod endoryx
ĠRaz owski
Holorus ia
ĠOvtsh arenko
A ba
A top
B u
C oc
H ippe
L iv
T as
T im
W in
a si
c om
f orm
k re
r urus
z zi
te la
te tra
do t
Ġsa y
tan y
tan thus
Ġad el
Ġu m
on ycha
ch ka
Ġb ellus
es han
ĠS at
os tylum
os mylus
ĠM ill
ĠC li
al s
re k
re ux
ph ya
ĠF ullaway
ĠR Ã¶
ĠD ressler
Ġc oc
ĠK h
ĠK ry
ĠK ung
ĠT ha
ĠE ardley
oc arp
Ġd ugay
and ro
ob romus
ba ea
oph oria
ĠCh er
uc ca
ys ta
Ġe chin
ĠI jima
Ġla etus
gan i
Par then
An til
ĠY ou
Me tag
ili ensis
top teryx
ck s
Ġan is
cu ta
ond rati
tig ena
Ġwa ter
Ġalb og
Ġalb itarsis
Ġor as
Ġdo s
ĠSt re
Ġap il
Cera ta
ĠBal tazar
Ġth ompsoni
Ġbar beri
ĠHa ime
Pach yp
ĠLo an
Ġpol ych
Ġsiy ay
lep tes
In ostemma
Ġlep idus
Ġes tado
ĠIn terna
Ġangus ti
ophy ton
uw ang
lana ta
Ama uro
ĠWag ler
ĠVill ers
ĠLac ordaire
Tox orhyn
ĠBern hauer
Ġobs oleta
Es tola
ĠMcc omb
Ver ra
Ġclyp eata
Ġdila tata
Ġbro ok
Ġech inata
Ġwhi te
Ġlo kal
Ġhimalay ensis
Ġforcip ata
ĠUni dos
Styg obromus
phle ba
ĠSwe et
Sympi esis
Agros tophyllum
Shannon omyia
ondrati eff
Toxorhyn chites
C oe
C ane
F rea
G ala
K ra
S ylv
T on
T rag
X yle
k or
k yl
m ud
u chen
v ini
w id
x ius
y ris
li ella
li nata
to ric
do rus
Ġka k
in icola
ĠS as
ĠS impson
il ochus
ĠL ock
ĠL uo
ph ana
ĠG omon
un ang
ens u
ul ana
Ġk ochi
Ġh ud
ĠE inar
ĠE manuel
mi ya
Ġf uji
Ġf erox
sa la
it inea
im en
im orpha
ne mann
ov na
ay on
ff a
Ġal drich
ĠZ ikan
ron i
yc lus
Ġi da
ier s
Ne olim
ĠU ropa
Ġan tip
ĠBar r
Ġnag gikan
ze aland
ĠBer thoum
Ġalb ipennis
Ã¡ ry
ĠCo oman
ĠAndre i
ĠHu isman
lab ris
Ġti be
Ġy ak
Cor alli
kal cu
tre uil
Ġcor onatus
ĠNor ton
ĠMon treuil
Sph od
ĠPor at
Ġbrun neri
Cten otus
ĠVa urie
ĠGray um
Ġcla th
ĠNich ols
yer si
ĠDal mas
Ġlute ola
Ġsak it
Pris tomerus
Ġdia dema
icula ria
bat bat
Ġdu wa
Ġcos tatus
ĠPr ell
enae opsis
Parat re
Ġgut tatus
amm odius
ĠBern ward
elea se
Ġperu ana
Ġfun er
Styl ogaster
Agla oph
Ġsuma tran
Ġfasc ipennis
Ġall eni
Elaph ropeza
Ġgibb osa
Un ya
Ġpeti olata
Ġsilv icola
ĠDon nell
Ġocc ip
Chlori dolum
ĠKonstantin ovich
Zy gin
Ġgus to
ĠUn iversity
Grap tomyza
Anap lecta
Ġcin ere
Ġvictori ae
Allod ia
Ġconsper sa
Stor ena
ĠBinis aya
ĠMcK night
ĠChurch ill
Mantis pa
Ate uchus
Ġsikk imensis
ĠCarbon ell
ĠBukid non
Pherb ellia
Exoc elina
ĠMarikov skij
ĠBerthoum ieu
B ala
C orn
I yang
M erion
O ra
P l
S then
Z achvat
c an
d ias
f ac
f ila
j s
k n
m oneura
m orata
o el
p terus
Ġ tian
ga ran
Ġsa mo
Ġka ma
se tia
on era
Ġb ow
Ġl up
ĠS eng
os ma
ĠH ert
ĠC r
Ġp rocera
ĠA gus
Ġm ori
Ġm eng
ĠF olsom
hi ko
ĠT ak
ĠT epper
Ġk im
ĠE tienne
id ulus
mi ra
ber gia
ot yphlops
ip enne
ov ic
tes ta
eri ta
pa tha
ĠY ous
tic ella
ili ata
ose pedon
tr opis
usa ma
Lep id
Pseudo b
yph ops
Ġsub s
oi ulus
mar ensis
Sc eli
Ġmag susulat
ido r
osc ordum
Ġoc ean
Ġ179 9
tod us
Phil osepedon
Ġop hi
Ġnas ay
Ġdec em
Ġdec oratus
Pter onemobius
ting ton
Ġmed yang
ĠDa gat
ĠBel kin
ĠRei chardt
Is ophya
rina x
ĠBra et
Proc ladius
ichi oli
ĠBoh ol
Cent ro
Ġen tom
ubb ock
Ab la
Ischn optera
Plagi thmysus
Arch y
Ġsoli da
Thauma s
arth rum
ĠKohl s
ebra tulus
ĠHun tington
abi lin
Ġarab icus
ĠDen mark
ĠWhit ley
Ġminut issima
Ġsang lit
Ġradia ta
Hemis phaer
Ġreg ularis
Argy rodes
yat t
Ġtessella ta
Ġirr orata
Ġimbesti gasyon
Bab iana
ĠGang lbauer
Leptur ges
Corm ocephalus
ĠLack schewitz
ĠEsta dos
ĠYous uf
D ias
E uli
I p
J ac
M ili
S qu
S yb
S kel
T op
T ex
b utyag
c ik
f elia
g enia
v ius
Ġ ric
li si
ma p
do tus
do ides
Ġa h
us p
ta enia
on ec
ch ius
Ġl eg
ri tia
ĠS ara
os ib
il ensis
il oides
si ensis
ĠH ara
ĠA lam
Ġm opa
Ġm emb
Ġm ime
ĠJ es
ĠF ed
am ba
ul u
ĠK ea
ĠE wing
id entata
mi da
rus us
oph on
oph ara
ĠCh ees
ric ella
ric osa
ei eri
Ġe li
ev in
ĠSch let
omy zon
mann ii
ok ensis
ori tes
end us
tra baho
ota l
res i
Ne oe
ali k
st riatus
Ġcon tin
Ġar ch
ita s
Ġob esus
Ġun ic
row ius
ĠBur kill
ĠTa te
ĠHol t
Hyp s
Ġtri vittata
Tri phleba
Ġbar batus
esi ana
tre bert
ĠSta eger
Ġat ripes
tone ta
Acanth och
Cer ebratulus
fel d
Bar ys
ĠDa udin
Dis ophrys
Ġand re
Ple ura
ertsch i
ĠMann y
ĠCra ig
bal o
bal hin
Ġplan us
ĠKas ad
ĠScha uff
Ġfor f
Idi ops
ĠSti tz
ĠRod ney
Ġarg entata
ĠSuper balita
enth eri
ĠMag n
ĠRi bera
Cata sticta
Ġperp lexus
Troch osa
Phyto bia
ĠHubb ell
Ae ol
Thy reus
ĠGrand jean
Tra thala
Ġmagnif icus
Ġmak ig
Boli toglossa
ĠSur eshan
Cyrto dactylus
Ġmongoli cus
Ġconstric tus
Aphon opelma
ĠAmeri ka
ĠKab akov
Ġmediter ranea
Ġalter nata
Choris oneura
Ø§ Ù
Thana tus
ĠGian franco
Cordil ura
Archy tas
Skel ley
ĠSchlet terer
A tyl
A radus
E lach
G un
P ad
P irata
R ab
S terna
r Ã¼
v iae
z abeth
an ya
Ġni ch
ga tor
te vant
ka do
Ġma il
er um
Ġlan ei
el ot
el ena
op ota
ĠM eri
ĠB onaldo
si tes
om ani
Ġp ter
ĠA sche
ph ir
ĠW ea
ĠF our
ĠF ittkau
ĠD rin
ĠD yke
ul ga
ag ni
id ier
Ġv in
Ġf ischeri
ed erus
ca udus
ip teria
ub ot
Ġang ularis
och ares
ev es
eli ng
Ġla teri
ĠZ ib
Par ar
Par ec
oli dia
Ġre d
Ġre cta
ani ya
di ella
roc ephala
ĠCarl es
ill ensis
me ta
uri us
ĠBr ender
Ġj ose
Ġch ae
tom yrmex
pi i
ongi lla
Ġsub n
Ġun om
ly na
Ar chi
Al ysia
ĠKa as
Sc ot
Sc inax
opa ea
ĠDu Cane
Hyp oxis
Sp e
Ġquad rin
ĠMik sic
ĠNor te
ĠSta tz
Sca thophaga
Meta zygia
Ġop acus
Ġat ric
ĠAnton ius
otrich us
Ġmed ius
ĠGod man
Ġse tigera
Ġlep ido
Ġdiv isa
lim osina
Calli onymus
Mer omyza
Trach ys
Ġdia b
ĠAs ya
Ġfor tis
Ġpec tin
ĠWin trebert
ĠSchwar zhans
ĠPal mer
Sol va
Sti ph
we ther
Ġsec unda
ĠKel ton
ĠBrand is
Pseudop oda
Ġpach y
mor phus
Noth oscordum
Xiph idiopsis
ĠRama kris
ospi o
Ġped unc
ĠOh bayashi
ĠFitz patrick
Ġila bi
Ġkaugaling ong
ĠHur ley
ĠCav ichioli
ĠDec ember
ĠStur tevant
Tham n
ĠOgil by
ĠKell y
Ġandaman ensis
Pseudep ipona
Hin uon
Ġwalla cei
ĠMaster man
Ġarna udi
Amphia custa
Pleura phodius
ĠMeri wether
ĠZib rowius
B las
C ambarus
D ik
E buria
G am
J an
a ton
b ora
d iplosis
h ni
i tor
n oides
s linger
v ina
Ġ tus
Ġn eph
Ġni valis
tan o
Ġma ha
in ville
is teri
ar on
ar ea
ar cta
Ġb es
Ġb om
Ġb ell
Ġb alli
Ġb land
ĠC ec
ĠA sh
re tus
Ġm endo
ĠG l
ĠF ol
ĠD ia
ĠD ean
ĠD imi
Ġc le
Ġc arl
ĠT ink
Ġk ongresista
ag urus
oc ypris
Ġd rayber
ing uey
mi r
Ġf lin
Ġf ib
ĠWil fred
Ġis yu
Ġg uer
Ġg ertschi
ir Ã´
ĠI sb
Ã© lam
ya la
ut sky
Ġla tip
Ġal pinus
oli doptera
ĠY Ã©lam
tra lis
ĠAl ma
Ne otrich
Me gam
oth ris
pin es
ung gab
Ġj uli
lav us
Ġli der
Ġch ac
Ġba se
ld ia
Ġcon ne
ĠBar ra
Ġga la
ĠBor n
bo as
ua lis
ele tes
Ġnag t
Ġper sica
ĠBa o
Or felia
ver tex
ĠMc ca
Mac rom
ĠGu bat
ĠMor ell
ĠKar av
Gl omeris
ĠMac tan
Micro char
ĠSz ab
lob us
Ġto l
ome tes
Ta i
Pseud icius
oste mon
phaer oma
Af rolep
ĠSzep tyc
Ġmis mo
Trach elas
tori o
Ġsca bra
Ġgib uhat
Ġobli qu
Ġfem oratus
ĠAnders son
dy tes
ĠHin ton
Ġsusp etsa
ĠEs slinger
Phor bia
Ġpurp ura
Scaph eremaeus
fem orata
jean ia
Paran cistrocerus
ĠIwa sa
Ġwe beri
Pseudos mittia
Ġku warta
Ġcauca sicus
Cari os
Psa phar
ĠMus lim
Ġluzon ensis
hir ta
Ġlaw ren
Neod ex
Marga rinotus
Pselli ophora
Ġlew isi
Ġvag ans
Ġfimb riatus
Anoma lon
Ġmagt ut
Trix oscelis
Eusta la
Stran galia
Verra llina
ĠCr uden
ĠMagn iez
rÃ¼ cker
ĠIsb rÃ¼cker
ĠYÃ©lam os
Afrolep tomydas
ĠSzeptyc ki
E cta
H ama
R ori
S obar
S ebas
W orma
b in
f ar
g les
h ui
m osa
m els
u tana
w n
y tus
Ġ don
la chi
Ġs ea
Ġs eto
Ġma ra
ng berg
Ġgi batbat
er ing
ch rysa
Ġb l
or chis
or esia
ĠS ing
th ias
si ki
ĠH ack
ĠC l
ol ene
ĠL ach
ro zh
ĠJ ar
ĠD oh
ĠD jak
Ġc ad
Ġc uri
ĠK ondratieff
Ġk oe
ur ca
Ġh ein
Ġh epe
mi ensis
Ġt ricus
ec ula
ber me
ep tus
ub le
ug on
nd sted
Ph o
Ph ru
ĠSte vens
Par or
oli ta
pa x
ose psis
ther s
ĠBr Ã¸
Ġj i
ras sa
ach im
tera tus
eg hini
Ġr hin
Th rin
ĠBar ker
Ġru ber
Ġga lap
Ġpar te
tz ei
toph ry
Pro ch
Ġmin dana
Trich a
ĠSp Ã¥
Di ostra
lab ar
Ġtri maculata
Sp ani
rea ux
Ġac er
Dend rops
Ag ro
Col la
Pha en
Ġspin ulosa
ĠThor old
Ġhir tipes
mad illo
Ġpol yg
Ta ph
ĠJan se
toch v
Ġtur kes
Ġbra z
ĠMaximili en
ĠChi t
Ġsig lo
Ġven osa
Olig omyrmex
Cle ido
Ter et
Ġumb ra
ocent ron
Ġpu thaw
ĠBea uv
Ġund ulatus
Ġgob ernador
ĠDan il
ĠMichail ovitsch
ĠBoy ce
Drass yllus
Ġgitu lis
Ġobscu ripennis
Aulac aspis
Ġsey ch
Ġexca vatus
Cub aris
Cne mido
ĠLeh mann
ĠLoh se
Ellip teroides
Gyna cantha
ĠSander son
Sphe gina
Ġimi tans
Ġdelica tula
hstor feri
Harm othoe
Ġdru gas
Neosc ona
ĠEg ger
troch alus
Ceu thophilus
ĠKum anski
ribal zaga
Ġcocker elli
Schismatog lottis
Sobar ocephala
Worma ldia
ĠDjak onov
ĠBrÃ¸ ndsted
ĠSpÃ¥ ngberg
Diostra cus
" ,
A P
C C
C olastes
D E
G oerodes
M odic
P ic
S yllis
U rosi
b saamen
e bach
j u
r ar
r ÃŃ
t yon
u pa
u esia
y ton
Ġs tram
Ġsa lic
Ġa ca
ula rella
el ensis
ĠS em
th ele
ĠG os
ĠG ut
ĠG wen
ĠF Ã¼
Ġc i
Ġc rena
as ny
ĠK opon
id ensis
oc la
Ġv aga
Ġf ish
ĠN ap
ĠWil bert
qu ens
ĠMar i
ona lia
ki e
ĠSch uh
ut ensis
omy das
ĠZ wei
ĠZ agula
Par ep
udo ir
ad na
osa urus
tin elli
va lia
yr gota
me tia
Ġta wag
ĠBr ug
Ġj on
Ġli th
ras is
tom ma
ld is
ĠBo ury
Ġw eb
Ġlongi f
Ġflav is
ui ti
Ġnag kadai
ty lata
lus ia
ĠLa ing
Ġruf of
ĠFor s
Sc oli
ĠMc farlane
ĠTa chi
ĠMor ton
var ez
Lepto dactylus
osc olex
ĠTheodo rus
Cera titis
ĠDis yembre
Ġrub escens
Ġus amb
Ġcor tic
Ġx en
Emp o
ĠKei zo
Car ranza
Ġmul tid
Ġco oki
Bar ichneumon
Ġmaka p
etter scheid
ĠCha udoir
roy o
Bac anius
Ġgra hami
ĠRis so
oste d
ĠSti asny
ĠFred rik
Ġpap uensis
oster es
Pseuda c
Ġdim orpha
uber ites
Ġpallid ipes
ĠGris ebach
amus il
hina bi
Ġfal catus
Sy ng
ĠGÃ© rard
Ġpum ilio
Phyto seius
Campyl oneurus
Ġnah is
Apa tania
Ġdal ma
Aphan ogmus
ĠRow land
Myi oph
Ġconvex us
ĠKirsch baum
Ġbicol ori
ĠIlli ger
Ġjoh ns
Ġterm ino
Ġaegyp ti
Phylloc nistis
ĠRegi onal
ĠCri bb
ĠKenn edy
Plum ularia
Ġwag neri
seudo psis
Strati omys
oblem mus
Cleis ostoma
Merion oeda
ĠDrin ker
ĠTink ham
Rori ppa
Dendrops ophus
Urosi galphus
ĠKopon en
ĠZwei fel
ĠZagula jev
Ġnagkadai yang
, âĢĿ
C i
C amer
D O
D it
G eph
G omph
H am
I ri
M ari
S ac
S oph
S toma
Z en
b illus
c ona
j evi
j osted
p ov
s haw
w end
Ġn y
te cus
Ġs ter
ma lis
Ġa esti
Ġkali h
in oides
ch eli
Ġl usi
ri lla
el tis
si t
ĠH ea
ĠH atch
ĠH etterscheid
al era
ic rus
ĠL ey
ph er
ph ylla
le tus
un ta
Ġc lem
Ġc inctus
Ġc oxalis
as tis
ĠK ongresista
ĠT kalcu
od endron
Ġk re
Ġk ong
ter is
Ġv ex
Ġv ulc
ry llacris
ec o
ed eri
ov ar
rich thys
qu ad
Ġg on
ĠMar mels
ud t
och iles
ys law
ev itsch
ff erty
ann er
anth ina
top terus
Ġpag b
pin is
pi um
ophila cris
des c
mo ia
Mic romus
tro gus
ĠBor ek
Ġpul v
eta e
oni tes
Ġruf ipennis
ĠPhilip pines
Per ditor
Trich omycterus
Ġra di
Ġth omasi
her rera
Chi ton
Ġpse ud
teri as
ovi ridis
tone i
Ġcras sic
Acanth oc
tac ris
uf a
ĠSo hi
Ġpoli ce
ĠGreen wood
Ama ur
Euph oresia
bot tom
ĠRus sel
Syna ldis
Ga ede
Gra phium
Lin yphia
ĠAnn andale
Cac opsylla
Ġnud us
Ġsangu inea
Ġinte gra
Siphon ophora
Ġsibi ricus
Phi d
Ġps amm
Ġeu ph
Eli mia
flav us
Oxyp oda
Ġmila bay
Neur oleon
Ġhispan ica
Ġhard yi
ĠGas ton
Ġcinna m
Ġtransva alensis
Sert ularella
Nycti ophylax
Mong ol
ascan ara
Paratre china
Ġsumatran us
ĠMcca fferty
Ġgalap ag
Empo ascanara
Perditor ulus
A rae
D eu
G rac
H imer
N ys
P aga
R ym
g ue
i phora
m oh
m ander
m onia
v ella
an sa
en cia
la gan
la sius
to iulus
ka mp
Ġma ximus
Ġkali t
ar mata
se li
ta cus
Ġb ae
or an
ĠH owell
Ġp ela
Ġp yri
ĠA phan
ol oma
ĠL ubbock
ph agus
ĠW lad
le uc
ĠF il
ĠP les
ĠP our
ens ya
Ġc ic
as jevich
Ġ2 6
Ġk m
ĠE sc
Ġd un
Ġt rigon
Ġf ov
ca i
ov skij
ata g
em orata
Ġna tional
ad es
tic ulatus
Ne oa
ara ma
ara tettix
Ġde la
tera tura
su ta
ĠThe o
mac ulatum
Sten otabanus
Lepto desmus
All ograpta
Ã¨ de
ĠEv ert
Sph er
Bar rita
Ġsu kad
Ġpal ud
Sch end
sk ia
ĠChristoph e
Ġden si
Hali c
Ġluc idus
Ġbra un
ipa hil
ĠIgna cio
Ġvir gi
Ġsal va
Ġaur an
Neoc lytus
Cent romerus
ĠTs eng
ĠHag an
Hal odiplosis
Ad unay
ĠFern andez
hara i
Cyph omyia
Ġchi on
Ġsoli taria
Zyg omyia
Ġya ma
Dry meia
Hesper antha
Pon ana
ĠYas umatsu
Ġater rima
Ġlongip alpis
Ġhama tus
ai ev
Ġvel utina
Ġami hanan
Ġaethi ops
Ġkat ungod
Ġtuber osa
Ġaqu il
Ġbru chi
Paralim nophila
Ġconstric ta
ymp loce
ĠWinter bottom
ĠOka moto
kos ny
Craspedo lepta
Ġflam m
Ġnodo sa
Ġrobert si
Ġalask ensis
Ichth y
Ġcalifor niensis
chat sch
Belon ogaster
Trib alus
Calyc omyza
ĠGran ara
Ġconver gens
Fid ena
ĠVit torio
Tetral oniella
Rhync omya
Hippe astrum
Ġentom ologist
Hemisphaer ius
ĠKarav aiev
Psaphar ochrus
Neodex iopsis
Phid ippus
Rym osia
ĠAphan asjevich
ĠWlad yslaw
1 5
A k
A den
A eletes
B in
C ys
D rino
E chth
I ph
N ea
O sc
P les
b en
e linus
g s
i tol
m ica
u tes
Ġ ot
ga i
li gan
to ensis
Ġsa ussure
Ġma sa
Ġgi n
Ġgi kinahanglan
Ġkali butan
in ch
na ult
on idium
ch on
Ġb ib
ti dad
os sia
ĠC auller
om esus
om inettia
Ġp ert
ol and
ĠL anao
ĠG ha
ĠW it
ĠP urok
ul on
og lyph
Ġ2 2
ob iella
mi phora
ba se
oh mannia
ĠN ak
yl and
yl omorpha
ne phia
uc ula
ug da
lin gaw
och ra
ys sa
ev ington
ĠSch linger
Ph leg
ae sel
anth um
ĠWilliam son
An om
ther onia
anap is
Ġta eni
ym bium
Lep tan
Ġba th
mp us
sus hita
bo gae
tz en
ĠLuc i
Sc illa
lo way
ĠDel ucchi
Ġap icata
Ġtri lineata
Ex omalopsis
oz ona
ĠDaniel s
ven ter
Brach ydesmus
ĠMon ro
Mon oc
Mon opis
Pach ym
ĠAb b
My otis
Ġgu ad
ĠVi kto
Ġas ymmet
mani an
gu ez
ĠWhite leg
Ġluc tuosa
iti bia
him utang
Na a
bro ides
Ġbip unctatus
tas yon
ĠSk evington
yllis ia
Es nault
ĠBour don
Ġsuper bus
Ġcylind ricus
Ġdeser torum
had ina
ĠNut tall
ĠTr elease
ĠSaba tinelli
Ġkara ang
arach na
Ġdentic ulatus
ĠRey es
ĠRag ge
Cheli fera
Ġsha bu
Ġambig uus
Ari adna
ĠEver ard
Ġspat ulata
Ġord in
Ġmanag la
Ġpanga lan
ĠRoz kosny
Penth imia
Ġguang xiensis
Pec tin
Dicranop tycha
Ġvietna mensis
Ġimper f
Tenu ipalpus
Pall enopsis
avat tari
Ġkoz lovi
Ġjean neli
Ġwir thi
Cerithi opsis
Ġhaus eri
Ġautumna lis
kre cki
otal pa
Barys capus
Cleido gona
ĠBeauv ois
ĠCauller y
aesel bar
ĠWhiteleg ge
. âĢĿ<|
A ko
B re
B iro
C lis
C ola
C lusi
D ex
E sp
E che
L estes
L ocris
R T
R uti
S tur
U S
V ipio
W at
c oi
e olus
h od
k ora
m ec
p as
w anensis
y ev
Ġ ota
Ġ old
an y
an icum
ga rick
ka k
ma son
Ġsa ka
in ops
ar ch
ta han
Ġb uch
or yn
el der
ĠS ipahil
op armelia
ak an
ia c
ĠH ilton
ĠC um
Ġp ir
Ġp uno
Ġp edic
ĠL at
ĠJ on
ĠJ ew
ĠJ oa
da spis
ĠR ou
am yia
as ubra
ĠK ug
ĠT eu
od kov
Ġk um
mi tes
Ġf es
Ġf iji
ip e
ĠN urse
yl o
yl van
ĠWil ley
ov ac
uc ephala
ff lato
ĠSch ar
Ġal gi
ron e
oli i
ori m
bi la
Ġi ma
ĠAl es
Ġek on
ĠAr ribalzaga
Ġan ch
yph ona
Ġpar as
Ġpar vis
Mic rom
toc ladius
co oper
ĠRe ma
tip ora
dia lis
rad is
uncta tum
Per ip
ĠCur rie
opter ella
Ġte c
Ġra son
ban tus
arc turus
Dia phor
Ġlu tescens
Dip lo
Dip lon
mes sus
rog lyphus
tac illa
dor salis
Eup eodes
ĠMas aki
ĠLeonard i
Ã¤ g
ĠGri garick
Ġand rew
uch s
eh lich
ĠMen ke
uw ied
ĠBru ch
ĠRic ker
oster ops
ĠShar kov
Leptoc entrus
Ad una
bot ritia
Ġamp la
Parat ropus
Ġobli quus
ĠMag u
Ġbin otata
Ġaure us
dong ensis
ophi ura
ocent ra
ĠAsa ph
ĠBou vier
arach ne
Ġcub ana
Anas toechus
Cheli poda
Kar on
Tetrag on
ĠRom ano
ĠFar ran
Ti tan
Ġinae qu
ĠSalva dor
Ġclar ki
ĠBuck up
ĠRÃ¼ bsaamen
Ker mes
Atel opus
ĠVog el
Pelec opsis
Dasyp ogon
Ġtomen tosa
soc ia
Ġarte mis
ĠNogu era
Ġpenins ularis
Amphip orus
bersi dad
Tricor ynus
ĠMiya gi
ĠFro ehlich
Ġaltern ans
Plectroc nemia
Ital ochrysa
Coli as
ĠChees man
ĠHack man
rÃŃ guez
Ġkalih ukan
ĠSipahil er
B O
H ocker
H yllus
N al
O ry
O ce
S w
S eta
U rop
W e
b il
m si
t yn
Ġn el
ga le
en os
Ġs ek
Ġa ksi
Ġa uratus
Ġad am
in om
in nis
on so
ch n
Ġb ore
Ġl eb
ri lli
el oup
ĠS ad
ĠS ieg
ĠS metana
op one
ĠM edic
ĠB in
ĠH ug
ĠC rans
ĠC len
om ene
Ġp es
Ġp and
ph ylus
ĠW ed
le ph
ĠF uchs
ĠP ota
Ġ2 9
Ġd rac
Ġv il
Ġv ib
ĠN AG
Ġe g
Ġe ver
ki ha
Ġna kab
Ph el
Ġla cer
ĠZ ay
Ch eto
Par o
ron ota
ou f
ani ensis
di li
ĠWal d
ĠFri es
Lep orinus
Ac tia
ren g
ren se
pi tal
eg eri
Ġcon tr
illa e
Pol yn
icol le
Ap sil
Ġun ica
Ġsp ic
Pro se
ĠHol mes
ĠMor ales
Ġy as
Ps or
Dend rocerus
Ġful gens
Ġpic tipes
ĠSha un
Ġmed io
ĠDa ug
ugh lin
Ġsem is
Hemi dactylus
lim n
Ġfulv escens
ĠPat terson
Asp idiotus
ĠRog ers
Ġtur b
Cycl opogon
Ġste in
Dor ylomorpha
olo hiya
Ġkina bal
Ġplan o
Ġcan escens
eder wald
ĠMark ham
Ġamb o
Ġniger rima
Ġgracili cornis
Echin orhynchus
Ġlim batus
ĠFo uts
Ġtum ida
ĠAh ti
Ġrus tica
Ġmad ec
ĠDiet z
Ġangusta tus
Ġalbic ans
ĠBon ne
Ġgil v
ĠPap avero
Mol gula
ĠYama moto
opla gia
oval gus
ĠBag gio
Ġinsoli tus
Noc caea
ĠBranc sik
ĠNas krecki
ochara x
obat rachus
Ġabyssin ica
Eb uro
Ġsund alo
Spirob olus
Ġgilu ba
lectro na
Ġkiv uensis
ĠMaheshwa ry
Ġsurin amensis
egra lla
Metag onia
Ġsuspetsa do
Eche andia
ĠTeu vo
Diplon evra
Hocker ia
ĠCrans ton
ĠClen ch
ĠPota pov
B e
B enga
G ani
G ramm
I G
M ira
T ig
W ag
a is
d enia
g ya
j ung
k ra
o ense
p ing
p ay
p ott
u ze
v eni
Ġ ris
wa illy
ga wa
ga da
ka sing
Ġa do
ta linus
on ura
on igra
ch mann
Ġb oy
Ġin sc
es this
ĠS up
ti ra
ti ph
os ciara
ĠM os
ĠM ocqu
ĠM ertens
ĠB ulan
il os
ĠH iggins
om bar
Ġp it
Ġp rol
ĠA NG
ĠJ ud
ĠK ul
ĠK essel
Ġk ond
Ġh ur
id ris
ed ike
yl li
ĠCh ang
ep on
qu ier
uc ella
Ġg rana
ata ke
tes is
och rous
ev all
ros yne
Ġla ticornis
ann y
ann oni
ent um
ĠSte iner
oe bantus
yn es
An omi
Ġgihata g
ĠBr in
Ġch ees
las ter
Ġcon spicua
su ma
ers ia
und al
eni x
una e
ĠDe wailly
ĠRe h
Al ang
car ii
Plat yn
Ġz onatus
fre di
Hyd roglyphus
Sten ochironomus
ĠDu ter
ĠSp eta
Lepto stylus
Di ol
Tri mer
ĠDis trict
Aph oebantus
ĠMat sushita
tea tus
ĠHa berme
hl berg
Car in
Ġcras s
Ġfusc icornis
ĠGo ot
Ã¤ cker
Odon tocera
Ġinf latus
Mer messus
Tric yphona
Pal par
Ġconf inis
owski i
terna k
ĠStro ng
Ġfra terna
Ġeryth rop
Ptero cheilus
ocne ma
Cala m
ĠMora es
Hab ranthus
Ela chertus
ĠPhil pott
othy rea
dac rys
Ġpurp ure
Ġanten natus
ĠBea u
ĠJus tice
Ġpulcher rima
Gla phyra
Ġamo enus
ospi ra
Ġincis us
tiva ga
Oz odic
Mil esia
Chlori ta
ĠAp rika
Teth ina
ocamp tus
Ġinfus catus
Aphon oides
Ġxi z
Ġsid lakan
emer tes
Ġanthrac ina
Tympan ogaster
ĠNag lis
ridg ea
Ġuma abot
Us nea
Thym oites
Isa tis
Ġconflu ens
Byrrh inus
ĠGerst Ã¤cker
Pell enes
Sit ticus
ĠAnanth asubra
Zora ida
ĠDaug eron
Eburo dacrys
ĠMocqu ard
ĠHaberme hl
ĠAnanthasubra manian
A ula
E var
M nes
O enop
f ra
g and
l un
Ġn on
Ġni n
to rya
Ġs quama
Ġma kab
Ġma lab
us tes
er ensis
Ġu t
Ġu yab
na ll
na bl
ar u
se yi
or yne
ĠS ir
ĠS iri
ĠS ellnick
ĠM yn
il opa
Ġp ot
al oides
ĠP lass
ĠR uter
ĠD Ã©
ul cata
ur ga
Ġh and
ĠE be
oc aris
oc yathus
Ġd ry
ba enus
man icus
ot ypa
ub ag
son otus
Ġg om
ops opha
Ġna b
ab dominalis
Ph ole
ent rum
sch oltz
ey ro
ey bienko
ori ensis
di gi
An tip
An ypha
roc ta
ĠAl vin
ĠAl lard
ota bato
Me igenia
ose ma
ĠLin den
Ġda li
ung uis
han tsch
ĠRob redo
ren i
uda i
tera e
Pseudo trochalus
idi oides
Th ou
ĠSh u
Ġw an
eni lis
ĠCa o
Pro tom
Al pheus
mid tia
car ius
Lepto chiton
Cera tos
Eur hadina
Ġbar nardi
ves tiga
ĠGa edike
kin soni
ĠBla hnik
ĠBla inville
Dip loc
ycl othorax
Ge onoma
nÃ© tri
Ġne om
ux en
Dis toleon
Ġme las
Ġsem ia
Hem il
Ġbala k
ĠAs socia
sil on
Ġsca laris
Tha las
Ġclav icornis
ito na
Hal ecium
Oec obius
Lab eo
Mec yclothorax
Ath rips
Myrmec ia
Ġpos tica
Trip l
Ġviola ce
Ġexi mius
ĠAdolph e
Ġara uc
Epis inus
Ġova tus
Ġrotunda ta
Ġcalc aratus
Ġceyl onica
Ġteneb rosa
Did emnum
Eris talinus
ĠBed dard
ĠNil sson
Eli maea
ophil oscia
ĠLeh tinen
Ġarm enia
Ġcarb onaria
zhan ok
Ġparag uayensis
Ischi opsopha
ĠNath aniel
Lich en
Aloc asia
Petal ocephala
ĠCond Ã©
Ler ista
overn ment
ochor tus
Ġconcin nus
Ġguatema lensis
ĠBoss er
ĠMÃ© nÃ©tri
Ting ena
Cymb idium
Ġkasay sayan
Ġjack soni
Ġoccip italis
ĠWea ver
Modic ogryllus
ĠMedic al
Benga lia
ĠDuter te
ĠMyn hardt
ĠPlass mann
ĠEbe jer
Anypha ena
C es
C ul
F ron
H ima
K i
P lata
U p
U mb
b la
d ar
h ani
i ola
k ob
r orhynchus
u phis
y un
y ente
Ġ 0
Ġ top
en y
Ġs k
Ġs hel
Ġs entro
ka ron
ma ensis
do mus
Ġa uro
in oe
in ota
na c
ta bilis
ch lor
Ġl ub
el urillus
ra da
il jeb
ĠC IT
ic ester
ĠL uiz
ĠL Ãº
ĠW orth
ĠJ esse
ĠR owell
am bo
ĠD iller
ĠD ieter
Ġc ed
Ġc yn
ul va
ĠK eller
ĠK jell
ĠE k
Ġd ig
ac ina
ec tor
man ia
ot inus
ĠO rd
sp a
qu ard
uc our
oma e
em um
at rix
ev ey
eri ensis
ut inus
Ġla ticollis
Ġal ti
ĠMa ia
ĠMa chatsch
av re
oe um
Ġre lasyon
Ġsi bogae
hel cic
Ne oz
Ne uwied
ĠFran chet
ĠLe icester
Ġta k
tar y
Ac c
Pseudo d
Pseudo ne
ine o
su f
Th rips
ĠSh er
ĠSh oema
ari ton
Ġpul lus
ile la
ly ar
ĠFer y
ĠCo urt
Sten opsyche
Camp top
tti ng
ĠSp erry
ling ban
les si
Ġten era
Dia ea
Ep ila
Heli ophila
Ca ecido
phy rus
Cha eta
Ġver tic
Dip lectrona
Ġat rip
ĠCol le
ĠAll man
qua tus
Ge olycosa
ting og
Ġand ina
In c
Bac tris
lina e
Ã± ez
Ġnigro maculata
rep ans
ĠStan d
Ġnak it
Tric listus
ĠKn ud
Pa uesia
Ġgran ulosus
acc ulus
Polyp lax
jev itj
Ġpang hitabo
Ġrob insoni
ĠJo achim
ĠSto rozh
Ġgib ber
Hal tic
Euph thiracarus
Ġhe teroc
Gry llus
Sphaer ophoria
Ga was
ĠRi va
Arch ae
sid ea
Ġcup re
Ġspini fer
Ġnitid ula
dona do
Ġcun eata
alp ellum
Ġgros sa
Ġdug ang
ĠMend es
Ġinsul ana
Hemip enthes
ĠPeÃ±a herrera
Nap omyza
other icles
ĠSund evall
Ġtuc um
ĠIchi kawa
Ric ania
hik og
Ġend ro
ĠPles ke
ĠAbb ott
Oenop ota
Athrips odes
ĠMachatsch ke
ĠShoema ker
Caecido tea
B and
C ong
C amb
D ar
E g
G u
J ur
K ybos
L ys
N oy
R O
R ogas
T rema
V ir
b ori
b old
f l
h uensis
k lin
k eni
n an
t ara
t ulum
Ġ ras
wa tari
Ġni k
ga z
en di
en ythia
Ġs tig
Ġa toma
Ġa qua
er al
ta p
ta tis
ch ti
Ġb ran
Ġb rit
Ġl onga
ra tes
ra spis
ĠS mart
ti o
op ta
ĠM ing
ĠB ian
ĠH ep
Ġp han
ĠA li
ĠA rd
ic oxa
ĠG is
ĠG oux
ro ugh
ĠJ av
da li
da og
ĠP re
ĠR io
ĠD ella
ĠD atta
ens ch
ul opsis
Ġ2 7
Ġ2 8
Ġk ult
Ġt sch
Ġf av
Ġf ren
sa da
sa pis
oph ia
ber tia
ca tor
ot tus
ĠN ot
Ġang eli
Ġg ang
ap an
ĠMar in
em erus
ĠTh aler
ki ensis
Ġal var
ge us
yn cha
ĠWal ton
roc es
ĠAl win
top erla
if lorum
oth es
ĠSa hlberg
Th yr
ĠBar ret
Ġpul la
ela cera
Ġdo hr
ling toni
Di og
ĠAndre j
ĠAndre tta
En tom
En linia
Cal os
All obaccha
ĠBen no
Pha ea
ema e
zon us
ĠSand house
ĠBol lman
Ġsin uosa
Ġimp era
ĠMi helcic
Dich elacera
Parac occus
Ta si
Ġpunc tifrons
Xen illus
Hap los
Ġdiv ar
uf o
ĠSo os
Ġlab ot
Mim egralla
Del tochilum
Ġquadri maculatus
ĠRod rÃŃguez
Microp eza
Ab lerus
Ġdiver sus
ĠGris sell
Ġdisc repans
alle tti
Ġchi ri
Ġsoli tarius
Ġmur ina
Ġple uralis
Ġkasa garan
ĠBos sela
Ġing ens
Ast roc
Ġsilv estris
Ġvel ox
Ġpl uri
Ġlind neri
ĠVol ker
Ġcolum biana
Ġcus pidata
Lumb ric
Ġtha il
Ġhow deni
Ġjun ip
Ġcoeru le
Protop tila
Phthi ria
Lor di
Braun sapis
ĠPear se
Ġegre gia
yran thes
Ġconsob rina
Cren ic
Hypsi boas
Ġsens o
Ġkasad pan
Alas tor
ĠRuth e
Ġest ud
Ġatu bangan
Cum ella
Ġkash mi
ĠSwar tz
ĠLanc elot
Cerata gallia
fflato un
ĠBossela ers
2 00
C occus
D en
E th
G alletti
H ed
K un
M unna
c ep
c inus
c entrus
e wa
j us
m ol
p tes
p eri
s unod
u osus
w ea
z ensis
la ensis
li d
Ġs ena
do ensis
Ġka g
Ġma ti
ar cia
ch lora
Ġin vol
op ed
ĠM endo
ĠB j
ic anus
ĠG ong
ĠJ Ã¼r
ĠD ury
Ġc r
ĠK orne
ĠK rog
od ectes
ana i
mi ma
im um
ber lin
ĠN oski
ĠO u
ĠO mb
ĠV ilela
uy ama
ella rd
ric aria
ug han
ir es
och al
och lus
Ġe marginatus
at ina
ĠI ke
ops ammodius
Ġna dak
ero i
ut en
Ph rix
ĠSte fani
uli pes
uli gera
ĠZ avattari
ena u
oli um
end en
An cis
ill osus
ier us
ez h
tr uc
mer od
me topius
oth emis
pin o
Ġj unc
lav ata
pha eria
Ġch ry
rid es
Ġcon formis
rach ys
Ġmac rops
berg ensis
ita ka
Ap oc
Ġob er
Ġmin utum
ĠKa da
ĠBur ger
Plat yrh
Ġmag ell
itz man
Ġo ka
Ġcar oli
Li ogenys
ĠEr rol
ĠSp ar
les ia
Ġfus iformis
Ġex pan
Sp ar
Hen ricia
tea do
ull och
Cryp tocephalus
Ġcor alli
Sca tops
Ox ycera
phy sa
mon s
Dip seudopsis
off i
Ġmo abot
Ġimp ressi
Ġim maculatus
eira i
ĠWa da
ĠMatsum oto
tob racon
olep tus
Ġvirid escens
Ġtur k
Calli opsis
ĠMen eghini
ynch ia
Her mannia
Her silia
Her metia
ĠVal ery
Mel olontha
Amphi mall
Neo theronia
Ori botritia
thy ris
Coen ochilus
gens en
Ġpub liko
opha ea
Ġsec uri
Harp alus
Ġhor rida
Ġpos ib
ĠPen teado
Sil ba
Ġdav idi
Ġamazon icus
Syc on
Ġpenic illata
Ġcamer unensis
Pip unculus
Ġmalay ana
Ġmalay ensis
Ġcaeru le
Ġhap it
ĠSander s
Sor ex
Ġexcis a
Euryg loss
Hoploph orella
Argi ope
Ġjuc unda
chris t
Clas toptera
ĠTada uchi
Stenod yn
Spher illo
Evar cha
ĠLÃº cia
Crenic ichla
ĠNoski ewicz
Platyrh acus
Scatops ciara
Amphimall on
D up
E dosa
G is
L yss
N esi
R ad
S oli
S ama
T run
X ynobius
e ge
g et
g yne
h ow
y uensis
y tsh
z eni
en heim
Ġsa xa
Ġa bi
Ġgi sa
Ġgi pan
in ense
ang ol
ch thes
Ġb rand
el opia
ĠS l
op eri
ĠM una
ĠM ess
ĠM utin
ĠB ang
si da
ĠH unger
ĠC ord
ĠC otabato
ic erus
ĠL ab
ĠL ombar
Ġm oss
ĠR oser
ĠK ong
ĠK ishi
Ġk ris
id ar
id eus
Ġd et
ac ta
and ri
mi lia
ry l
oph yllus
ot ta
ip lax
ig u
ĠV ink
ella ria
ud sman
och roma
lan o
ev ers
Ġna d
ĠSch nabl
ros tes
ĠMa eto
ĠMa watari
ĠSte pan
av an
ou e
Ġre x
omas tus
if erus
me isteri
rac ta
anap ia
ck land
Ġch ampi
yan da
Ġw in
Ġlongi ventris
Ġmac qu
Ġnag sa
Pol yb
Ap omecyna
Ġhi gh
Ġor bitalis
ste rias
Sp or
oz ier
En c
Ġca ud
no tettix
Tri oxys
chen berg
ĠPa tel
Ġer ecta
Ep ig
Leuc on
Mon tipora
Ġbis pinosus
chis a
linea tum
enn icke
He mith
Amph ine
was an
ford ia
Ġvar icolor
Ġacu leatus
ure c
ĠMax im
enis c
urc itinea
Ġse tiger
Ġbif idus
ĠBra uns
Ġle echi
ĠFred dy
ĠPo epp
Gry llacris
Ġcastan e
nik ovi
Poly dora
Eryth ridula
hal ley
Gar ra
Mi omantis
Phyto ecia
mor ensis
Ġsup erc
Ale broides
odic tya
Gn om
Clado tanytarsus
Tra desc
Ġpri mi
Ġhas tata
Platyc leis
Ġbad ia
ĠDra udt
ĠHild ur
Cam illina
Agal lia
Onc opsis
Ġabbrev iatus
Ġq ing
ĠHick son
Ġkonse hal
ĠFon seca
Taeni odera
Ġgri ff
Bel v
kana yon
Ġfru hstorferi
Scel oporus
opol ynema
Cama ridium
Ġmucro nata
Ġsich uanensis
Ġmiy embro
ĠEsch scholtz
ench elys
lenh oven
yrs ocera
fiel di
Ġbec carii
Inf urcitinea
Chori z
ĠGrav ely
Coe lin
Ġaldrich i
Elach iptera
Ġpurpura scens
ĠFÃ¼ sun
Ġsaussure i
Phleg ra
ĠJew ett
ĠCIT Y
ĠBarret to
Ġnadak pan
Lyss omanes
ĠHunger ford
ĠLombar do
ĠPoepp ig
Tradesc antia
B od
C ras
H ep
P las
S tag
S onor
T ych
Z ab
b ong
k un
n oy
n juk
o ze
o elia
p ogon
u han
u che
Ġ ill
Ġ ring
te g
Ġka sing
gi tta
Ġma li
ar ns
Ġb r
Ġb ambus
Ġl yn
Ġin dus
ĠM illar
Ġp ugi
Ġp ygi
ic aria
ĠG alla
ĠW halley
ĠP ana
ĠD ug
ĠD ozier
ens te
og hi
Ġh ata
ĠE fflatoun
Ġd esc
Ġf orb
Ġf ort
ĠN ame
yl ops
ĠV o
ella tum
ff en
ero lis
ut ista
ros toma
ros kyi
Ġla bia
ow an
oli cus
eus a
ou ria
bi lin
anth i
tin ervis
An tod
up orta
ota china
Me oneura
ĠLe C
ĠLe do
rop is
Lep idon
ick ia
ox ylon
tos celis
ari o
Ġga lla
Ġflav idus
ĠBor utz
tz e
tha uma
ĠJames on
ĠOs ytsh
ĠRa da
Ġwa t
ek el
Ġob longa
Ġalb us
Ġbrev icollis
Ġbul b
eu tes
Ġo don
ĠGor odkov
Ġap erta
opter ina
Ġpro se
Ġca ff
gal lier
Cor yth
Ġquad ratus
Ġrub ida
ael urus
Ġser iceus
Ep ich
ĠGre wal
Ġx in
Meta ph
Ġ201 3
Ġcur tus
Ġsab roskyi
ruc ei
mas tia
sic um
Ġgu entheri
ĠBe quard
Cten ochira
roph is
Dis tich
Cy lis
ĠEug ene
Odon to
Xen opsylla
Hap al
Platy zosteria
Ġlam elli
ĠWe itzman
Calli ostoma
ĠOr merod
cutella tus
ĠSol omon
Hyla rana
Ġen igma
Parap s
Ġmaj us
Ġrot undi
Ab labes
ĠRo ig
ĠPilipin o
Sal ticus
ĠWol da
Ġobs oletus
Coryn oneura
Nec tarinia
are te
ĠCom mission
Asc orhynchus
Ġsplend idus
Ġtransver sus
doc era
Ġflex uosa
Ġpak is
ĠHoe k
hab dus
Ġmetalli cus
Ġnagka lain
Pra on
ranchia ta
Aul on
Emb lyna
Ily bius
Ġcavern icola
Zeph yranthes
Spa thi
Ġflu via
Halich ondria
Chlamy dopsis
ĠTas chenberg
ĠDus met
Parthen icus
Atyl otus
ĠPour tal
hantsch ikov
ĠAssocia tion
Tripl ophysa
ĠWorth ington
Ġchampi oni
ĠOsytsh njuk
Ablabes myia
D on
D exia
H iman
J ohn
J oppa
L ou
M iros
R av
U G
U na
U lob
Z osterops
h uman
n oi
u ffer
z ab
Ġ elli
Ġ illi
en teri
li fer
to thrix
te mb
ka p
Ġa ka
Ġad un
ta in
Ġb ras
or nata
es ner
es tia
el ona
el bo
ĠS Ã¶
os tylus
ĠC och
om ik
Ġp up
Ġp uer
ĠA nis
ĠG law
ĠF eder
ĠD am
ul ch
ĠK en
ĠT ad
od g
od illo
Ġk oreana
ur ra
ter os
Ġd ul
Ġd ys
ac ca
and iae
Ġv as
Ġf let
ip teryx
ĠO i
ep lus
Ġg ood
Ġg ladia
at ula
ae tus
ou te
pa hanan
An kyl
ĠY uiti
tor ina
yr op
ota inia
pan ia
rac ken
st ris
Ġpag hatag
Ġda p
rop oli
Ġj ames
ĠRob ins
ĠSh uns
mo tus
Ġflav itarsis
ĠCa esar
Pol yphylla
ham ma
ĠBa lin
Pro tra
Ġmon tei
Mac romia
ogon um
ĠMor e
ling eri
Ġmi rif
Ġab s
ĠHo zawa
ban t
Tri mala
Ġy un
her ingi
bur y
Chi onaspis
Ġpic eus
Ġnas ak
ĠLind roth
ĠPor tsch
Oli diana
ĠDo uble
lic ephalus
Ġco arcta
rag ua
ĠMi quel
mad usa
Ġpol ys
Bac chisa
lori a
Ġpara si
ĠKe iser
Eury opis
Ġber mud
rep eira
Dor yctes
Ġpoli tika
ost ry
Pel oribates
Neoc oryn
Ġsep arata
eis eri
ĠMart ÃŃn
Spil osmylus
ĠSav age
Ġgipa higayon
Ter eb
ĠBern ini
uchi i
Ġhang tud
Ġarc ticus
ĠJÃ¶r gensen
Macros iphum
Parad el
Plan t
baga tang
Micra sema
Pyg ophora
Cli ona
Rhac ophorus
Gas tr
Ġpagt uon
Ur g
Ġkri men
ĠKre k
ĠVol lenhoven
hys tera
Ġbrunn escens
Psa enythia
Ġmegal ops
Ġcaeru lea
Euh esma
Ġsy udad
Sen otainia
ĠPri esner
Ġvid ua
Ġnic obar
ĠDub ovsky
ĠIchi ro
ĠTen orio
Tetrap onera
ogenia tes
ĠSud re
Stan tonia
ĠNal bant
ĠInterna tional
ĠDonnell y
Rab dophaga
Ġlawren cei
Ġstram inea
ĠMagu indanao
Nal zaro
Epila mpra
ĠStand ley
ĠHep ner
urec lipsis
Belv osia
ĠPourtal Ã¨s
Ulob orus
ĠCoch ran
ĠShuns uke
Trimala conothrus
B en
B lep
G org
G aste
H u
P euc
R iba
T ib
b ald
d entata
f w
k ang
k ovit
k haus
l oides
m n
p ex
u anus
Ġn u
Ġn ord
la rus
la ya
ma rostes
er tes
na r
ta yan
Ġb rom
Ġb ucc
Ġl og
Ġl oew
Ġin v
ĠM id
th uri
th olom
ĠH ellen
ĠC ler
om in
Ġp oc
al gus
ĠA la
re cta
um ov
um elle
ĠL atz
ĠG len
ro tica
ĠJ inh
ĠF le
ĠF lem
ĠR ac
ĠR yland
am mus
Ġc ym
ĠT uxen
Ġk em
oc ap
Ġf uk
Ġf ini
oph olis
ig on
ina tor
ĠCh ak
ĠV ences
qu en
ei va
ir olana
lan i
ya th
ĠSch ult
ero w
ru tus
tin ctus
pa ti
ward t
ĠAl oi
ĠAl ess
Ne oli
top leurus
if orme
der es
st yl
Ġda ma
ĠAr cher
Rh inella
Ġcon sp
ĠAn anda
Ġan oma
eng ue
zi eri
zi evitsch
Mic rov
Ġnag d
ty lev
eni o
pis sa
ram mus
Ap or
ĠPeter son
ĠBer e
ĠKa math
ĠLud vig
ĠGil christ
tif ica
Per omys
Camp tomyia
ĠEr land
Cal ochortus
Ġy oshi
ĠCar son
Dia spidiotus
Ġer ra
Lasi opogon
gna thia
Ġsch m
Aph rophora
Para tettix
ĠJuli an
Ma da
Lim b
Lim otettix
Ophi ura
Car yanda
Heter omysis
ĠDo ering
Ġimp erialis
ĠNa j
ux ania
Dis tenia
Ġcomp ressi
ĠKim berlin
Ġme gas
Ġann andal
ĠBro ng
Ġvit ripennis
Ġsem il
Hemi ph
ĠBra in
Platy metopius
nia ux
Ġkina iya
Ġrh omb
ĠHir st
Ġvir g
abri zi
ocy pha
Ġclav iger
Ach elia
vit ta
ĠCor ona
ĠJa ennicke
endor f
ĠMal donado
Bi osteres
Sal omona
Ġumb rosa
Psil opa
ĠEsp anya
Macros teles
Ġaz teca
Ġdar lingtoni
Cory thalia
Paraph lepsius
Ġgre eni
mÃ¡ n
Ġclyp eatus
Microc erella
ĠSar as
Ġkapi tan
Ġtrop ica
ĠKato liko
Ġcing ulatus
Parach ironomus
Did ym
estr inus
ĠKos tylev
Ġquadrip unctata
Hyg rotus
Az teca
Ġsord idus
ĠTal bot
Brachi onidium
tuberc ulata
pil otus
Ade tus
Eutrich ota
ĠFen ner
Zygina ma
Atta lea
Ġkraus si
Ġkati lingban
gp eth
Cylindro iulus
Microd rosophila
ĠMill s
Sylv icola
ĠSzab Ã³
Ġmagtut udlo
ĠDoh rn
ĠReh der
zhanok men
Tasi ocera
ĠKorne yev
ĠOmb udsman
ĠSÃ¶ ren
ĠPortsch insky
ĠDouble day
Urg leptes
ĠLatz el
ĠAloi zievitsch
, "
A se
E moia
M enisc
N othrus
O onops
P ana
P lex
R is
S to
Z el
d h
i ga
p les
r ellus
v ica
te on
te mum
Ġs han
do lius
Ġma ya
Ġgi mugna
ar matus
Ġl ow
or ula
es on
ĠS A
ĠS ush
op ala
os mia
ĠM ga
ĠM ock
ĠB rid
ĠB eng
ĠH ind
om bo
Ġp ier
Ġp eta
al ong
al sina
ĠA mara
ĠA ckland
ĠF u
ĠP ros
hi g
ens tein
og ostylum
ĠT revor
od ea
ĠE aton
id aria
ac um
ac tus
Ġv ander
Ġf ir
ot rigona
ig us
ĠO fw
ĠCh oi
et ula
et su
Ġg un
ĠMar ques
em in
Ġe um
Ã© s
ev is
ab ana
ĠSch ool
gan ensis
ĠMa thew
ann ulatus
ĠZ omp
Ch onocephalus
Par ydra
ll ensis
Ġi v
res sum
Ne ose
top ia
pin s
Ġj o
Ġli mb
Ġba tang
tum bok
Rh eg
Pseudo sten
ĠGi js
ĠBo urc
Ġga g
Pol ybia
Ġper inguey
ych oda
ek ul
Ġruf icauda
Plat yl
Ġmon ili
ĠGu o
Sten omacrus
Ġmi randa
les tin
Sp ogostylum
Ġpro ductus
Cera topsyche
no f
Ġoc to
Ġth or
Ġth alas
arc ophaga
bur nia
Ag elena
As then
Para do
ĠNor bert
Ġver ec
lob a
con ectus
Xanth osoma
ĠMichael sen
ĠNikola evich
ĠBri to
isch ia
Ġhir tus
Orth oporus
ĠDa uber
tina e
roph ylla
Ġbicolor ata
Bac teria
Ec tobius
Om orgus
Ġpra es
toch aeta
Ġluc tuosus
Ġnigric ollis
ocer ca
lich aris
Ġbrach ypterus
Eus pilotus
ĠWend elbo
bro ok
Ger marostes
Ġ3 1
Ġeryth ro
ĠMer z
Typh lo
Cephal oc
ĠHed ges
Ġneg us
opl ophora
Phry gan
Ġpallid ula
Phor onc
ĠClem ent
Myrmec aelurus
Macros temum
ĠJus t
Ġox y
Ġgibb osus
tram mena
ĠOl s
Men emerus
Ġkam ot
Ġlind bergi
Ġobscu ripes
ĠRow e
Lac conectus
Niph ona
Hypoc acculus
Ġgro en
ĠCÃ© lestin
isay as
Scolop endra
ĠRox burgh
ĠKan miya
Ja ap
vani z
Age lasta
ĠAre ekul
Ġille gal
Ġpectina tus
Blackbur neus
Ġbrin cki
Antil licharis
Zachvat kina
Teret rius
Ġjon esi
Myioph arus
ĠKug ler
Oce anapia
ĠWald heim
ĠBulan ova
ĠMuna ri
Paradel phomyia
Ġannandal ei
ĠOfw egen
ĠZomp ro
ĠBourc ier
Phoronc idia
" <|
B I
F il
M yl
M ich
M eri
N ama
O brium
P lu
S ola
S ala
T rid
W esma
d eri
e mar
e tella
h m
h ari
h yal
v itz
x antha
z ei
Ġ ula
Ġs ugod
ka bat
do me
Ġa sh
Ġa bo
Ġb ia
Ġb ez
Ġb iv
Ġb alita
es te
ti li
op ea
os tig
ĠM iers
om ed
om me
al di
ĠA tilio
re la
re tti
ĠL iljeb
Ġm elli
ro tes
ĠW as
ĠF abrizi
ĠP la
ĠP esar
ĠD in
ĠD ipp
Ġc omor
og ymn
ag ra
Ġh il
Ġh ospi
lis ia
Ġd us
and ezi
ob ilis
ris odes
Ġv ockeroth
Ġt unghaan
Ġf lum
ed en
oh yla
ĠO uchi
ĠO lah
ĠCh ia
ov ol
lad us
ric osus
lin ga
ker son
at war
ĠI liffe
ĠMa ther
ey ella
eb ias
An tarc
Ġi ris
ota e
res tis
Ne th
tr ina
ther ia
me this
ke own
Ġta c
Ġda la
Ac rocera
las ia
Ġan dam
cu le
Ġga yod
Ġflav icollis
uma tus
eni opsis
Ġper for
ĠPier ce
ĠMc Gin
ĠMc keown
Ġdis juncta
ĠFer enc
Tet ran
Ġfus cata
opter na
ban ensis
Ġsch mi
Con us
Pha ul
Ġcol umb
ĠNor thern
ovi ella
hl gren
chard i
rol y
ĠThor pe
ech n
Pter op
dor sum
ĠWar burg
neri ana
Ġne o
loc a
Odon tos
Ġdiv es
Ġelon gatum
uga x
bra tus
Ġtrans luc
ĠOr t
Dys machus
Ġsh annoni
Ġvir ens
Eum ec
Nes oph
Des miphora
ĠMun ting
Bat risodes
ĠYu kawa
Comp aret
Tox omerus
bre g
Ġpallid ipennis
Eryth rogonia
oti mus
lexa ura
Ġvari ol
Eud arcia
Ġhor ni
Tetras temma
Ġnor ve
ĠBea ucour
arth rus
Porcelli onides
Scia des
Ġfran cis
Tryp eta
Syr phus
Boli vari
Ġpers onata
Dicty ophara
Ġarizon ica
ĠSy kora
Phanero tomella
ĠHoe hne
Ev aniella
Teth ya
Ġcompac tus
Rhe oc
Alc yon
Ġluzon ica
ĠRupp ell
Aste ia
ometop ia
Phryn obatrachus
onch oecia
Bran ch
Batrach orhina
Periss omastix
ĠRox as
tub re
Ġirid escens
Nata tolana
rito ryo
ĠNick le
ĠCog niaux
Lind ner
Ġlele upi
Cremn ops
Eusc elidia
Amauro bius
Ġmail hing
ĠCec il
Sebas tes
Ġfish eri
Paga ronia
Ġmanagla hing
Cheto gena
ĠJÃ¼r gen
Eurygloss ina
ĠGalla rdo
ĠBorutz kii
Miros ternus
Limb odessus
Rheg moc
Ġperinguey i
Jaap iella
Ġvockeroth i
ĠMcGin ty
Comparet tia
ĠBeaucour nu
C ard
D ib
H as
T ela
f ili
h ug
h oi
h orn
m ona
s wa
y us
Ġni lo
ga o
en zi
to derus
te cta
Ġsa cha
Ġka mi
Ġa y
Ġa ugus
gi ana
Ġgi ingon
us ius
ar tog
Ġb omb
Ġlan c
es si
ti kan
ti llo
op unctata
op latys
ĠM exic
ĠB li
ĠB uy
ĠB Ã¼r
si anus
uk ia
ĠH apon
ĠH aeselbar
Ġp ug
Ġp enn
al car
re tary
Ġm imus
Ġm undus
ĠG ay
ĠW ey
ĠJ umelle
ĠP ad
ĠR igo
ĠD ond
ĠD zhanokmen
Ġc ost
Ġk h
Ġh una
oc tenus
Ġv inc
Ġf lora
ry phantes
ed ra
ĠCh ilton
ĠWil kerson
ov sk
sp ina
em obius
ich e
Ġe bur
yp eta
ĠZ atwar
Ch ers
Ch romis
Par latoria
ru thi
Ġtun ga
end le
ali ctus
ara x
oth era
Ġnig rum
Ġch opard
Ac u
ari lis
Ġru w
Ġga mi
yph is
Mic ron
Ġflav omaculata
ho ensis
ty lia
oda lis
Al la
Ġmag ba
Ġz im
ido tea
Hyd rom
Trich obius
land ensis
ĠCur ini
opter nus
Ġte ritoryo
Ġtri fasciatus
Ex oneura
Dia phus
cer ca
hard i
hn ert
As yna
Ġcor di
Ġcol orata
Phil h
mon us
Heter omer
otrich oma
Ġsin uatus
che oniscus
ĠNew port
Ġgra b
Ġgra v
Ġgra yi
ĠRam iro
Ġlam ellata
Gymn ophora
Gymn othorax
Gymn opternus
ĠWe iss
Nem estrinus
Ġdes p
Ġjapon icum
cutella ris
Amphi xys
ĠSto rey
zel n
Comp tosia
epe lin
oca uda
Ġrobus tum
Ġmia bot
bel ba
ĠEs ser
Phae ophilacris
Ġcup rea
ror ossia
cap sus
ĠPhillip s
Edward siana
ĠBon nier
Ġhya lin
ulog an
Pet rorossia
ksi yon
nert zia
Chil othorax
ĠHun yo
Asc idia
Rhys odesmus
ĠRodrigu ez
tiv agus
Ġochrac eus
Ġbon inensis
Mall ota
Ġunc inatus
Thi onia
Ġpapu anus
Ġinsul anus
Hor tipes
Ġtaenia ta
Ġmilitar is
ior inia
Ġconca va
ĠSon an
DU HA
Il burnia
Ġhistri o
Ġkamp o
Ġkand ida
roli thus
Ġkuri lensis
Triodon tella
Doloph ilodes
Phru rolithus
Camer aria
Ġdohr ni
Amphine urus
Ġflet cheri
Neocoryn ura
Gaste racantha
ĠJinh aku
ĠMock ford
ĠBeng t
ĠAmara l
ĠPesar ini
Bolivari tettix
Lindner omyia
ĠBÃ¼r ger
ĠHaeselbar th
ĠDond ale
ĠZatwar nicki
Heteromer ingia
Amphixys tis
B elis
D esc
H um
J ose
K al
M iag
P am
P ela
T anga
b unda
j ec
l ona
m yrma
n ius
s ylla
v ola
an anus
an cistrus
wa m
li cher
Ġs ir
do myia
Ġa tr
gi um
tan ura
Ġgi la
Ġad sper
se vier
Ġin us
el um
el yphus
ti onis
os terna
ĠM ineo
il st
ĠH og
ĠH old
om el
Ġp anth
Ġp rim
al do
ic orne
re um
re yi
re cht
ĠL adis
Ġm itch
ph oides
ro ti
ĠW essel
ĠK ies
og one
og lypta
Ġk oy
ur ophorus
Ġh elleri
id rilus
Ġd re
Ġv ia
Ġt uk
Ġf issi
ec amptus
ĠO tho
ran e
ker mann
Par entia
sch wend
ow itsch
ad to
up ot
rac is
oth eca
Ġpag kab
lav ilst
tri gona
odo xys
ox ing
pi o
Pseudo rh
Pseudo limnophila
ine um
mp el
ĠBo kermann
toma chus
Ġpa uper
Ġpa ulis
Ġsub nig
Ġflav ipalpis
La u
eps ia
ĠZh ong
Ġro und
Ġsp enc
Al tica
ib ulus
Ġdis co
Ġdis tans
lo a
Ġmon tic
Chrys otimus
mac ris
ĠKar abag
ied er
Ġca eca
Ġtu od
Cor inna
Aph elinus
oto i
Con ophorus
Para h
Chi on
Ġ177 9
thal mus
Cryp tanura
ĠNor th
Mon hystera
chis tus
ĠAdolf ovitj
Ġpol yp
Ġsim ulator
Ġpagka on
Ġpus t
icauda ta
Trach ylepis
Ġpoli tiko
Ġfor steri
Din hi
Cent rop
Ġmaculi pes
unn ingham
Ġbip artita
moto i
Ly tta
Ġmus ika
Ġpatag onica
tsh enko
Ġjav anicus
Hapl oniscus
Poly mastia
opha enocladius
Ġapp roxi
Ġlong ula
roth rips
Prion ospio
Lin eus
Bry ophaenocladius
ĠBay artog
jap yx
Noto loma
ochth ebius
Ġfri gida
ĠKriv ol
ĠBus j
Epis ymploce
Ġdup lex
Cre ag
Ġclyp ealis
Rhip icephalus
Bur m
ramm opes
Ġcari b
Nos odendron
Ġpini li
Cryptop ygus
Cari blatta
Cub ocephalus
Ġpraec ox
Ġnipp onica
ĠOk tubre
Ġpyr ena
Mang elia
ĠOgil vie
Ġpereg rina
ĠBroad ley
Ġpras ina
Ġinop inata
Myx illa
Ġcarp enteri
Ġneoc aledon
Jap anagromyza
Ġoa x
Diph ucephala
icorn u
Ġsara wa
Ġaequa torialis
Rhadin opsylla
Ġikat ulong
toric ensis
ĠBarra ud
Paror nix
Colla donus
ĠChit wood
Bin odoxys
Osc inella
ĠJoa quin
Ġxiz angensis
ĠDÃ© gallier
Sonor ella
ĠFeder ico
Protra cheoniscus
Neth inius
ĠRigo ut
Ġchopard i
Miag rammopes
lavilst shi
Notoloma tia
A tan
A cha
A elurillus
B orb
C ica
D av
D rusus
J uli
L op
N ean
P untius
R ama
R amus
Y ll
b rus
g lyph
h opal
h esma
y es
y chi
an ek
ga ria
to mer
to kh
Ġka w
Ġa ba
in z
in oc
ta gan
on oides
ch inger
Ġb and
Ġb uy
or ts
ti opsis
ak ovi
ia le
ĠB ul
uk ii
Ġp r
al up
ĠA imÃ©
ĠL ov
ĠL evich
ĠL enz
ro va
ĠP l
ĠP enn
ĠP eti
ĠK aul
ĠT erry
od ip
od ryas
ana ensis
Ġk ing
Ġk omy
Ġk one
Ġh ong
ĠE lla
ĠE hip
ob orus
ob rya
Ġv ita
Ġf ab
it chi
ed ium
ig no
ĠWil frid
ep ia
ub escens
uc us
ĠMar ion
em bia
ud Ã©
och eta
ki ella
ora phidia
ĠSch e
ut y
Ġla ur
Ġla osensis
Ġal uta
lod esmus
uli ger
uli formis
ĠZ ieg
ron yx
end rium
Ne oph
der ip
me on
oth is
ox antha
mb lec
Ġan nae
ĠHar tig
Th ela
ĠBo ie
ĠAnd rade
Ġpar ab
und an
Ġper c
Ġun ivit
Pro gomphus
Ġalb omaculatus
Ar cu
Al liopsis
ĠKa wa
Ġz an
Sten op
ĠFis ch
ĠSan to
Lepto neta
Ġvi gi
Dia phan
yth rix
ĠSta uffer
ĠMon od
ulic eps
ĠEnd licher
con ectes
Ġdec li
ĠAb onn
Ġmelan ura
Ġmelan ogaster
Ġins ula
rag g
Cla us
Orth omorpha
ĠNa udÃ©
Hol opogon
Ġnaka pa
ĠBro derip
ĠWa ite
orb as
Limn od
ĠRam say
Hom oe
Ġbrach ys
Pal pada
Dys c
Ġfra ternus
bili dad
oster num
Poecil ominettia
ĠAng us
Ġpina ka
ĠChan ey
Ġcamp an
Cocc obius
Ġnap al
Ġul ohang
Ġtig rina
Hym enoc
Cata ulacus
ĠFerris s
Oph ry
Chrysop rasis
Ġtum id
Ġrus ticus
Bry cona
Ġalbo fasciata
Phae ogenes
Ġprob in
rera i
Cym oth
Cym odoce
ĠBea t
Ere mia
Ġviola ceus
Brev icornu
otro chus
Ġhas tatus
Ġexc ellens
Char ac
ĠLich t
ĠOl suf
Ġstigma tica
Ġtrop icalis
Ġluna ta
Ġnovae gu
Ġfuli ginosus
Ptych optera
Ġaen eus
amtang ang
Metap enaeopsis
Ġtasman iensis
ĠJeff reys
Ġnigrip alpis
Erig orgus
Stri g
ĠCÃ© sar
Ġcirc ularis
Rhag oletis
San sevier
Ġmucro natus
Tettig onia
Ġtug pahanan
Amphis baena
Oligo don
Ġyo ungi
ket ball
olei opus
ĠPel zeln
Ġinexpec tata
Ġtroch an
Ġkil omet
ĠMacg owan
ĠGerman ovich
Ġacac iae
Win nertzia
ĠLock et
arama schi
ĠTheo wald
eyro ux
Ġsuperc ili
Ġmontei thi
Belis ana
ĠLadis laus
ĠBayartog tokh
Yll enus
ĠLevich ev
ĠPeti t
ĠOlsuf jev
Sansevier ia
B elle
C eph
D entalium
E pida
E ges
G ri
G it
H yllisia
M alloch
R eli
T ol
T ellina
W olf
a ti
c osa
c asa
f ad
i ol
l ero
m icus
p ila
p arus
y lis
an dae
wa ensis
Ġni m
en um
en siya
la si
te ric
Ġgi sak
na tum
Ġb ux
Ġb asis
Ġl und
es thia
el ow
ti thorax
os tic
os carta
ak ia
ĠC aramaschi
Ġp w
ĠW ick
hi pp
ĠR oux
ul orum
as us
ĠE izi
id ipennis
oc as
ac io
ob opterus
Ġv is
Ġt ro
Ġtan g
ry madusa
ec is
ba si
oph ag
ed te
ed rus
ed ita
ot tei
ep sus
lad e
qu eyroux
ei r
Ġg an
Ġg estro
em stra
eli ana
ĠSch io
Ph on
Ph lu
Ġla x
yp eza
Par ae
sch ler
sch aeffer
ena ar
av ia
ru ff
tin um
yn ia
pa ilia
Ġi heringi
res is
Ġch ev
ĠAr royo
Ġba ha
ren osoma
cu tor
Ġru ti
ele otris
rig o
Ġnag kanayon
illi ard
ib ar
rin gi
Ana den
Sc yla
ĠBur r
ĠTa bach
vi ridis
ido lon
ĠEr win
lec tis
lec anium
Ġmi rus
oloph a
Cal ym
Ġti t
Ġy uca
arc odexia
ĠCar sten
Anth ren
Ġer emi
gna th
Hen nemann
ĠMat uda
And renosoma
ĠHa bagatang
Ġbis e
hl bergi
Ġver mic
Ġcur tis
ĠCon stantin
odon tus
Ġnigri cauda
Ġvar icornis
ogna thia
Ġsul ca
orb en
Ġpulch ripes
Ġangus tif
Ġluc ens
ĠDes queyroux
Ġsca ber
Ġbur meisteri
itar sus
Ġher b
Ġaur ora
ĠWood ruff
Cent istes
Poecil oc
ogona lia
Cerato capsus
anis tes
angu tana
Olig onychus
Tur dus
Ġfili cornis
idis tra
Ġban da
Mec yn
opha ena
lug os
Ġfum osa
Ġig suon
Ath olus
Ġtrid entatus
enda ka
fur cata
Ġdigi tatus
ĠBran ch
Try pan
ĠDar ling
Ġbad ius
Ġcruc iata
ygi um
Ġocc ulta
Cali gus
Had ro
ĠHey don
ĠGw yn
Ġprof unda
toda x
Nic rophorus
Syrph ophagus
Ġtaenia tus
ĠIm re
Pod alonia
ĠJun ichi
Ras pailia
ĠMÃ¶ schler
Ġecua do
ĠHess ler
Gigan todax
Oxys arcodexia
Kam endaka
ĠBab enko
Ġnea vei
Ted ania
ĠBrod sky
Nys sod
Neoa thyreus
Diog mites
ĠBuy sson
Creag rutus
Ġkomy un
ĠEhip to
ĠZieg ler
Belle valia
Eges ina
ĠSchio edte
ĠTabach nick
A tom
B etta
C ana
F iorinia
G an
G amb
G rant
H I
H ele
J oer
O ma
O len
U ro
d ang
d eus
i tan
i one
n opsis
x alus
z ana
Ġ text
Ġ illus
la phus
li da
to thrips
Ġs col
Ġsa pa
Ġsa yo
Ġsa ras
Ġka lab
is is
ar tia
ta sis
or o
ĠS ip
ĠS wen
os ignata
os tictus
ĠM onte
ĠM ass
ĠH rad
ĠH eyer
ĠC ul
ĠC ade
om ez
Ġp ito
re ich
Ġm ina
Ġm ura
Ġm eg
Ġm yersi
ph ys
ph yr
ĠG ino
ĠG oto
ĠG schwend
ro di
le th
hi to
ĠD er
Ġc res
ul cus
as cus
oc eps
Ġv ac
Ġv era
oh ammus
ne mo
ĠMar g
lin ii
at is
ĠI ns
ev ae
eli ne
Ph ac
Ph umosia
Ġla mb
ĠSte chow
yc la
ou a
ok sa
tin ensis
up at
top se
Ġj ordani
isi um
lip ay
ĠU ri
mb e
ari ella
cu ma
Ġsub al
ni tus
und um
Ap seudes
ias ta
ins ya
Al vania
car pa
row i
rin ia
ĠFa in
Ġbul bosa
Ġmon tanum
ĠGu ha
ĠDel gado
Tri eces
Ġten ui
Dia c
Anth rac
ĠOli ve
enz o
Ġquad rig
col n
Ġspin ipennis
Ġcol lessi
Heli g
Das ys
osta lis
Meta ca
lli ker
ĠKei ichi
Ġdec ol
Ġsin ulat
phan ta
Dolich omitus
tac eus
Ġimp ar
sley i
tsch enko
Ġter mi
Parac rias
Myr mo
Ġann ec
Odon topyge
Amb l
Asp idistra
tur ella
Ġaf gh
lind rus
Ġlute ipes
chin orhynchus
Ġpec uli
ocy ba
Ama stris
Ġarg yr
uss baum
Crema sto
Ġpla giata
Lamp ro
the ide
Ġcurv ipes
Ly meon
Ġgracili or
Ġgem inata
enga i
Ġplum osa
Rhiz otrogus
ĠHod el
Ġhel ve
Gal epsus
ĠKris to
Ġhya linus
Thy re
Thy rid
enda x
ĠKohl mann
Campyl ocentrum
Ġpri ba
ĠGrig ori
Pycn ogonum
ĠAki o
dom yrmex
Ġnovae zealand
Ġinte ger
ĠKÃ¶ lliker
Ġflag elli
Hetera chthes
Ġaen igma
Ġspi ralis
Micr urus
ocamp us
Ġkom un
Ġbivit tatus
Iso toma
Thi enemann
Ġvesti tus
Ġfesti vus
Ġcrini tus
Cryptoc oryne
Peris sus
Ġmama himong
Ġfove olatus
Ġincomp leta
ĠHul yo
ĠKell ogg
Cary ophyllia
Braun sia
ĠDun in
ĠPab st
ĠPax ton
Ġtrap ez
ĠKuhl mann
Enopl ognatha
Sip yloidea
ĠGob ernador
Oedo thorax
Stenel lipsis
Clusi odes
ĠSchar ff
Palpar es
Ġmati lei
ĠBalin sky
ĠBli ven
Ramus ella
Hymenoc allis
Eremia phila
Epida pus
Anaden obolus
Joer opsis
ĠHrad sky
ĠGschwend tner
A sa
A lex
C ando
E mer
E vania
I nd
M ori
M usa
O do
P e
S o
S us
T ro
Y ez
d ing
h Ã¶
j ectus
n or
s ula
s trÃ¶m
u al
u ol
z sch
Ġ yp
en bachia
to ge
to xa
Ġs ys
Ġs josted
do tea
Ġsa g
gi ae
Ġma soni
Ġma mum
is ner
ar cha
se eva
ta d
ch al
Ġb ita
ri ona
Ġin fer
or u
or tonia
ra erus
ĠS or
ĠS han
ĠS ieb
op tero
op icta
ĠH Ã¤
om en
om enes
ĠL idia
ĠG ab
ĠG ross
ĠG omes
ĠP O
ĠP eyerimhoff
ĠP lavilstshi
hi d
ĠR ec
ĠR ez
ĠR yan
ĠR endle
am ot
Ġc iliatus
ul lo
ĠK omiya
ĠT ong
oc oma
oc ola
oc opris
and alum
ris o
Ġf abric
ec olle
ĠN ori
ĠWil eman
ep ke
et inus
et zi
ha si
ug ur
ei x
ell ana
Ġg enalis
ĠMar so
ir port
ĠI mp
ĠI tal
ff ter
Ph er
ann el
eus z
ll y
ori al
top yga
ĠLin coln
mer icus
ther icles
chi ensis
sh ana
Ġpag himo
ung ens
ila ria
Ġli b
odo ris
Ac an
ĠU line
Ġr ha
ĠSh ewell
ĠBar tholom
ci urus
rev us
bo urg
eni ella
lus sky
ĠRe chinger
ela ps
ĠVan hÃ¶
Ġun sang
Pro toc
ib ris
Ġruf ula
ĠKa ur
ver sus
Ġdo ktor
Trich ophthalma
Lepto iulus
Ex hyal
Eur yd
ene tes
hard ti
Si riella
All otrichoma
Ġspin igera
mon evra
Dip los
Ġnigri tus
Cer am
My das
Amph ips
ĠHe alth
Cten ocella
Ġcla rus
Odon tomachus
Ġsem en
ĠGali na
kar n
har v
ĠBig elow
ĠKon se
Plec tro
Oc repeira
ĠHall owell
ĠFedo seeva
Ġplan iceps
ĠWes theide
terna ria
Chor dodes
Ġpang utana
Ġkas amtangang
Ġvir gin
Rhin olophus
ĠGreen field
dop elma
Chae toph
Anis oplia
Ġpla gi
Ore c
ĠSav igny
Mas tac
ĠOld enberg
Hel minth
Anthoph orula
Phan er
arti tus
ycter is
ĠEs sig
Ġscutella tus
tib ong
ici ens
Meli pona
Ġsty lata
Mal linella
Nyc teri
Ġcit rina
ĠSergei evich
Ġdav id
Anti ll
Nema pogon
ĠPas ko
Ġmat sum
ĠPav esi
Ġpenic illatus
omet ra
Ġwhi t
Chal ep
Anop sicus
ĠDoming o
Ġwood i
Ġprom inens
Ġlaevi gatus
Ġtasman ica
Loma tia
Du omyia
Ġrup estris
Stephan opis
ĠIvanov na
Ġsanc ti
Ġnerv osa
ĠAy ensu
tome topus
Ġhunga rica
ĠGlas by
ĠFeli pe
Ġsuav is
ĠBrus se
ĠDanil evsky
Prose vania
Ġchees manae
ariton ov
Ġdivar icata
ĠMaxim owicz
Tych erus
Ġkasing kasing
ĠLeC onte
ĠTad eusz
Ġschm idi
ĠSaras wat
Menisc omorpha
Pseudosten ophylax
ĠDipp enaar
ĠKrivol utsky
Poeciloc loeus
ĠSip man
ĠSwen k
Helig monevra
Ġsjosted ti
ĠPlavilstshi kov
ĠVanhÃ¶ ffen
Exhyal anthrax
B eta
C nema
G ad
I xia
M iri
O rop
P urp
S uberites
T eg
V it
X y
e il
h ouensis
j am
k ull
m era
m opolynema
y thi
z en
z yg
Ã Ł
an in
la spi
Ġs uk
Ġs tyl
Ġa me
Ġma ce
er yth
se us
ta ka
or osa
op oides
op unctatus
os ty
ĠM onard
ak op
ak ig
ak ote
il og
si f
ĠC op
Ġp run
ĠA yr
ic lava
ĠL ob
Ġm ig
Ġm itis
ĠJ Ã©
ĠJ Ãº
ĠR akov
ĠD lussky
Ġc ity
ĠK udin
ĠT ord
ĠT amer
ĠT ryon
Ġk op
Ġk uma
ur na
ag er
Ġh ak
Ġh alli
oc arc
Ġv ulp
Ġv esper
Ġv ide
ĠCh av
ĠCh aritonov
ĠV is
ini on
ev ania
Ph all
Ph orbas
ie ta
ĠZ orn
Par asc
Par anthura
sch akov
udo w
av a
An yphops
ĠWal tl
tr ellus
tr opha
rac tinia
tel sen
Ġbana y
Ġpag balik
Ġda gan
Ġch ang
Ac in
rid ens
rid gei
Pseudo x
mp fi
aul on
ĠBar oni
zi ella
tian um
und ulus
toph aeus
una ta
ĠLa uter
ĠBer telsen
ĠVer reaux
Pro d
Ġruf i
ky lindrus
ĠGil es
ogon ius
Chrys so
Hyd ractinia
ĠMor akote
Li odrosophila
ĠX i
ĠDel ecolle
Di x
ĠCur cic
En nea
olus yon
Ġca thar
Ġca erulescens
Ġra mi
Ġth i
so on
Ġsch lingeri
As tiph
ĠKra epelin
Ġcur rani
rol estes
Acanth ogorgia
tac anthus
He te
roch aris
men is
Ġkan tidad
rica uda
Ġnaka labay
esse i
Ple thodon
Xen op
ser er
Hali p
Hem ile
toch ilus
ĠIn oue
Cu terebra
ĠKon cz
Ġber landi
Na ka
Dor at
Sin oc
Ġplan ifrons
kov sky
ij t
ĠAus serer
tier rez
Typh l
Din arthrum
Austro d
ĠCor dova
ĠChev reux
oca tantops
Ġtriang ulata
Lox oblemmus
Por phy
Ġbe ameri
Xys trocera
Helic topleurus
Ġmur rayi
Ġaren aria
Pachyc raerus
Mala conothrus
enberg er
Ġtrip unctata
Ġaus tri
Ġsar si
Ġmen or
orth ezia
Platyc oelia
Doc osia
Chaeto don
Ġkor eanus
ĠBag nall
ĠSoy er
ĠAlb in
Cardi ochiles
Neola parus
Strep tocephalus
ĠBenedic ty
ĠGenna dy
Ġalex anderi
Ġnipp onensis
Ġgui anensis
Euh ybus
Typ osyllis
Ġaethiop icus
Ġkah oy
ĠLeb is
Ġsylv estris
Ir cinia
Tein obasis
Rec ilia
eur omyia
Heb ec
Ġcoriac ea
ĠKali botan
ĠHern andez
Ġrem ota
dow s
Clep tometopus
Ġarn oldi
Ġtrog lod
Ġsylva tica
osemi on
Ġoblong us
Physoc onops
ĠPay kull
Tarach odes
Acanthoch itona
Ġseych ellensis
Ġnel soni
Diol cogaster
Ġneom exic
ĠNot man
Coelin idea
ĠAless andro
ĠHog ue
ĠBeat ty
ĠLicht wardt
Scyla ticus
Metaca tharsius
ĠKudin ova
ĠTamer lan
Astiph romma
A ulacus
G rania
J ordan
L ong
M ul
M ile
M orph
N om
N eri
P ion
R ia
R ie
S hel
S tig
S aga
T ess
X enia
c tum
d les
g uttata
n otata
p ad
Ġ ans
ga tan
ga sa
Ġs yl
Ġs chiz
Ġma ai
us ton
in opsis
ta spis
on icum
Ġb ung
or natus
es er
ĠS ang
ĠS ie
ĠS tern
ĠB racken
ĠH eckel
Ġp ow
ĠL jung
Ġm oc
ph anus
ĠW i
ĠP ub
ĠP olas
ĠR app
ĠD or
ĠD ini
un ica
ens on
Ġc ob
ul uensis
ĠK ola
og y
ĠT ru
ur n
ur nia
Ġh ell
Ġd engue
ob as
mi ger
Ġf rag
ba lia
ber son
man ii
ca di
ĠN ad
ĠCh rys
ĠCh ace
ĠV immer
uc ta
gas in
lan illa
Ġna va
eri ellus
ĠSch ick
Ġla ticauda
Ġal ger
ĠMa la
ge oni
uli k
uli frons
Ġre ctus
Ġre klamo
eb e
pa te
eph ena
Ne omyia
Ne oi
chi za
Ġpag ba
Pseudo tri
Pseudo par
Ġcon rad
ĠU schakov
iv er
Ġsub la
ÃŃ l
Ġpul lata
pis anis
ham ensis
ham phus
Pro tod
On ch
Ġqu er
Ġbul lata
Ġor gan
Camp toptera
Camp tocladius
ĠSt u
Di opsis
ĠKar aman
En hyd
Phyll optera
lem ma
Ġten ellus
pes ia
Ġer in
Ġsch is
tod ytes
ĠKra tochv
Para tanytarsus
Ep im
Ox yc
hang lang
Ġat ricornis
Ġnigri thorax
enn ius
ĠDo urs
ome lissa
lic z
mas yon
Orth ocentrus
ĠGod art
Xen o
ĠTor rey
Platy mantis
Platy lister
gu ti
Ġcal yp
Ġcal va
Cu eta
Lis tro
Bath yphantes
bata an
ril oides
Ġcaliforn icum
ĠJos hua
Symp loce
Hab roces
bali gya
ĠMet z
ĠUr bani
Ġjav ensis
Ġline olata
Ġpop ovi
ĠWol ff
Oph thal
ĠFo ote
Ġlong us
ĠEx line
Eud endrium
Ġcons angu
Ġpu ella
Ġval di
Ane ilema
At lan
ĠHoff mann
Ha em
Ġsquam osa
ĠKris ti
Ġvill os
Dry m
rox ys
eras yon
omar ginatus
Ġfran zi
Armad illo
Ġmich ael
Hir moneura
onem ertes
Ġpers onal
Ni toc
Ġverruc osus
Euch aris
Ġtaiw ana
Ġcren ulata
Oed ip
ĠRosen blatt
Ġbali k
Lonch optera
Ġflab elli
Ġrup icola
Stegana carus
Hypoc accus
Ġeph ipp
Sco tophaeus
tory al
ĠPon der
Polyg onatum
Ġmun roi
Ġschul tzei
Nil obezzia
Ġbla ck
Gryll otalpa
Ġpereg rinus
Potam ogeton
Ġgit ukod
Ġpani malay
ĠKot enko
Eret m
Ġpho enic
Copto tettix
Ġscap ularis
Zelando tipula
Ġhier oglyph
ĠAma oka
Dies trammena
Apis togramma
ĠBorn mÃ¼ller
Ġut lanan
Ġexpan sa
Ġsaxa tilis
Gnom idolon
ĠHind s
Ġgestro i
Olen ecamptus
Thyrid anthrax
ĠBracken ridge
ĠPolas zek
A ric
A bra
B on
B ip
C ela
E xi
J ones
K or
M uric
P ir
P emph
P eckia
R ana
S k
S yri
Z eu
c ulum
d ra
l ena
p ag
s ul
s tans
v orus
w itsch
ga urax
te mp
Ġs tu
do l
Ġsa yong
Ġka wa
Ġma ura
er ius
er opsis
is toma
ar in
ch ir
Ġb oe
es ted
ti dium
op oroides
os ana
ĠC ei
Ġp orc
Ġp licata
Ġm oli
ĠG eb
ĠF uk
ĠP ope
ĠP eder
am ana
ĠD ixon
as mi
as tra
ĠT ip
ur cata
bang on
ac ra
Ġf an
Ġf ic
sa p
ba tula
oph ilum
Ġala tus
ip pium
qu eti
Ġg ugma
em enes
ys tus
ard in
ĠSch Ã¼r
Ph oli
bi ko
An il
Ġi ba
va za
ans hanensis
ali cus
if ex
Ġta w
pin nis
ung o
ung gan
Ġj ud
ce tes
ĠChris t
yan um
Ġan ton
Ġsub fasciata
toc ythere
ze er
ĠDe harv
tip enne
tip alpis
Ġwa s
Pro toribates
Ġalb idus
Ġalb iceps
Ar te
ott s
Ġdis trict
Ġbul ga
Mac rog
fre a
lec tides
ĠAndre a
Ġex qu
En cyrtus
arc y
Dend ryphantes
Col oss
Leuc ophora
Heli ococcus
ĠGre er
ild ing
Ophi opogon
Ġmo orei
ĠHe im
ĠTaka si
ux ton
tens eni
Syn tretus
Ġse qu
Ġel eph
ĠFili pino
Hap lod
Ġinf la
Ġpara ensis
oste ma
ocer yx
Nem er
Dor ylus
Dys der
Mim etus
Schiz ocosa
ĠSol ander
teroc erus
ĠWin dows
Poecil osomella
ĠRoy en
Ġplat ys
Ġres p
nik ov
gra pha
hina y
Ġig na
ĠAlek sey
Ġlong ulus
Ġfun gi
Sis yr
Ġalbo lineata
arth ron
Ġfasc iculata
Mor ellia
ĠGrand idier
Ġnam an
ulla h
omar morata
ĠNob i
Pag ka
deni ella
Ġmantala an
Arth roc
Mat ud
Ġbifur catus
Ġmim ica
ĠTi kar
ĠDen ton
ochae tus
ĠWhit field
Ġluri dus
Ġgen tilis
Ġlance olatus
Ped aria
ĠLoh mander
ĠSep ti
Ġvand uze
Acar ospora
Ġevan escens
stri ata
Semi dalis
Ġparti do
Sib og
Tapin oma
Uvar us
Morm ia
Cob itis
lido rea
ĠLem os
Heteron ychia
ober gi
lambi git
Ġfila men
Ramph otyphlops
Neoe chinorhynchus
Gun ungiella
ĠDimi tri
ĠDella casa
Lepidon otus
ĠLiljeb lad
Nesoph rosyne
Ġspenc eri
Burm oniscus
Ġpinili ay
Brycona mericus
Nyssod rys
Ġnovaezealand iae
Helminth oglypta
ĠDini z
Neoi tamus
ĠSchÃ¼r hoff
ĠDeharv eng
. "<|
1 6
B ucc
C P
C up
C osc
F olsom
G alli
L en
M oen
P omac
S ila
S ald
U roxys
c c
d inus
d aniel
e on
m ang
s ulat
t ug
t ley
w icki
en an
Ġnga lang
to nae
te y
Ġs ev
Ġs odalis
Ġsa licis
Ġa rea
gi ne
Ġma in
endo lph
ula r
ula spis
oy le
Ġkali na
er cis
is on
is as
na ld
Ġb od
Ġb ot
Ġb ok
Ġl oe
ri fera
Ġin sp
or yctes
ra tia
ti gayon
os tom
ĠM eg
ĠM ezh
th ria
ĠC entral
Ġp olis
ĠL ei
ĠL ill
Ġm ola
Ġm endax
ph os
ph ae
ĠG ins
ĠW oas
le uca
le buryi
ĠP od
ĠR udow
Ġc ass
ul er
ĠK ik
ĠK ner
ĠK lein
ĠK ongres
Ġh ac
Ġh ug
Ġh ild
Ġh ebes
oc ran
oc ulus
ob ran
ris ta
Ġf e
ca si
Ġali ena
ĠN ou
yl lium
yl ypa
uy i
qu illa
ĠMar ples
ay ang
ops ocus
ann il
ent ula
Par omalus
ori da
ori xa
Ġlang yab
ĠY osii
ala pona
der lein
tel son
Ġpag li
rop ogon
ung ensis
lav ius
tri ca
Ġli e
ren ch
cis a
las ma
Ġcon juncta
ĠSa zon
yan sa
Ġr and
idi tus
cu tellum
ni art
toc occus
bo a
ho a
Ap tesis
yg ra
Ana x
Ġz ap
ste ini
nes ia
Li ochthonius
Hyp ostomus
Dic raeus
ger si
ix a
pp ell
Aph anistes
tu aria
omus ium
Ep il
Ġful gida
ĠCol eman
dis tus
Ophi omusium
onard ia
Ġmelan ocephala
Ġkon tro
ĠBri mblec
Eup aratettix
Bar ylypa
ĠHe aly
ĠNa zeer
Ġcomp ressus
ĠEug enio
uf us
Pseud e
day ong
Ġaf ra
Ġaf ghan
sig nata
Ġmis a
Bath yc
Ġkas undal
Typh onium
ĠPo ey
Ġpor teri
Ġnata d
Oec anthus
Ġhar risoni
Tom oplagia
Ġneg os
ĠBrad shaw
Plagi olepis
ulac aspis
ĠSe ale
Ġpat ru
lae oba
Och odaeus
Ġpurp ureus
mura i
Macros tylis
ĠJus sila
Nec roscia
Stic topis
Elas m
Ġauric ulata
Ġgika ta
ogra pha
Comps ophorus
Ġbuha ton
Aphy osemion
Symph urus
Ġting uha
Ġnoc tur
Ġvesti ta
Ġnem oralis
Hec alus
Hec alapona
ĠSep temb
Pogon omyrmex
Ġarma dong
Agap anthia
ĠIlli es
Phyma toste
Ġpend leburyi
jell berg
Ras bora
Ġsib il
Ġmultic olor
ĠAbd ul
ĠLow e
Ġcoriac eus
ĠFal der
Ġcanalic ulata
Ġry uk
UM AN
Cara usius
Ġroth sch
Ġsugi lanon
ĠDÃ¶ derlein
Ġbrook si
ĠRamakris hnan
Microchar on
Tricha phodius
ĠLey te
ĠWit te
ĠBeau fort
Ceratos olen
Soli eria
ĠSl uiter
Hemith yrsocera
Cylis ticus
khaus ia
ĠBrong niart
Rheoc ricotopus
Ġgami ton
ĠAbonn enc
Oma lodes
Ġpeculi aris
Mile ewa
ĠChrys anthus
Ġvanduze ei
Moen khausia
ĠGins burg
ĠSazon ov
ĠBrimblec ombe
Stictopis thus
ĠSeptemb re
Phymatoste tha
1 2
A si
A egyp
B ri
B illa
E di
E vi
H ae
K in
L os
L om
M ughi
N y
N ot
O b
S yag
T up
Y a
p ruthi
s and
s ud
u ez
u uma
v or
v eri
y unes
Ġn eu
an as
an gis
an nae
an cistrocerus
Ġni d
la do
to f
Ġs telli
do ta
Ġa rach
Ġa shm
Ġma lle
ula w
ng ensis
Ġgi lle
Ġgi dag
Ġgi dak
us is
in ov
in ica
in oi
is yo
ar chus
ar abodes
se be
ang ana
ch ari
ch neri
Ġb rucei
ri ana
or chestes
ra ensis
ti chthys
op an
op eus
os sus
os tylis
ĠB ert
ĠB ragg
th erium
uk om
Ġp olaris
al pin
ĠA iton
ic ey
ĠL eloup
Ġm ess
le todes
da git
ĠF anny
ĠP is
ĠD iv
ĠK oh
og uttata
ĠT ran
ĠT oki
od romus
Ġh on
Ġh ot
ter m
ter on
oc les
ac ensis
mi la
Ġt ru
Ġtan gan
sa ma
ea ch
man ensis
ĠN ussbaum
ne m
ub in
ub og
ius culus
ei li
Ġg ud
ys si
lan do
at tini
eli ca
ĠHen le
Par yph
yc olus
ides mus
ok endolph
Ġre in
di ensis
Ġlang yaw
end ens
end eis
An ter
An oec
ĠFri tsch
Ġi k
res enta
amp ini
rip edium
yo ensis
sh omyia
ras yon
pi thoe
eg us
mb ong
Ġar gus
ni ella
ui ar
Ġnag lakip
old en
ĠLuc ena
ĠBa utista
Ar bori
Am pithoe
On therus
Ġmag d
ĠGÃ¼n ter
Ġz ern
Chrys ogorgia
Sten olophus
Sten ocercus
Mes tosoma
Hyp sicera
Di os
Di ores
ĠGira ud
Cal ophya
ĠMe erow
Ġti b
Tri mma
arc tica
Ġten er
ĠPa olo
Ġbar bi
Ġsch ae
Ġrub ens
Con le
Cryp toph
Ġcor data
Ġcol lar
Brach inus
Sca phi
ass ny
Ġx yl
Ġsc in
tone ma
Heter opogon
Heter onychus
Cer ococcus
Cer distus
ĠGer ard
Ste re
Eup lec
ulp ta
ĠWhi tting
ĠBe ardsley
Ġpal udo
Ta enia
urc ouf
Ġsim ile
Melan ostoma
ĠFall Ã©n
Ġes akii
Ġfulv icornis
omi oides
Ġpus io
Ġnigric oxa
Af ron
Ġform ic
bra i
Her p
ĠKn ox
ĠOr lov
tori dad
ost rangalia
ĠChi ef
Hila ire
Ġpap illosa
Brad yc
lov er
Ġbic arinata
Ġtin gali
Ġgib ba
Ġari da
Peri lissus
Ġlac tea
Sti z
Ġpallid icornis
Hym enop
ĠIs land
Ġphilip pina
Ble pisanis
Eud erus
Cas tan
Clath rina
Crypto labis
ĠGrand colas
ĠBir ula
Ġater rimus
Pyg opleurus
Ġgre en
Cord yl
Pag urus
trom bus
Ġlis s
ĠJen kins
Un sa
Ġmak uha
Boli tophila
gid ea
ĠGard iner
Ġrotunda tus
Ġocc ultus
ĠHas well
ĠHaj du
ĠKre is
stead ia
Ġmob alik
Hex ac
Ġniv ea
Ġstella tus
Fa iditus
ĠHur d
Graph ocephala
Ġcat ar
Ġfove olata
Pseudoch romis
Metac nephia
ĠNo ort
Ġref lexa
Chaetoc nema
Mang ora
Ġken yensis
Ġsym met
Ġoff ic
ĠLim bourg
ĠMÃ¶ hn
Rach icerus
ĠKur z
Ġax illaris
ĠKat sila
ĠAmi hanang
Lance oppia
Stenh omalus
ĠMocs Ã¡ry
Ġlop esi
Ġmj obergi
Ġcinnam om
Ġasymmet rica
ĠCum ming
ĠKul zer
Plata mbus
chlor ops
Stenodyn eriellus
Ġpygi dialis
ĠCler ck
glyph is
Ġprobin siya
Atom osia
ĠGino o
Purp uric
Syri tta
Billa ea
Mughi phantes
ĠWhitting ton
A en
A la
B un
C B
C ab
C PO
D ieff
E pin
G ym
G ikan
M enes
O d
O tin
P oma
P ron
R eichen
T um
W ur
c otti
f ana
f onta
g ood
h ecker
l uma
m ola
o tana
p alpis
v ost
x on
y um
y utk
Ġ idi
Ġ osc
Ġ igo
Ġn un
an u
en osa
te um
Ġs eri
ma ris
Ġka z
gi ensis
Ġma sak
Ġu var
na ria
se cutor
ta bang
ch ei
Ġl oph
Ġl yra
ra ja
ĠS imba
ti tu
op opillia
os si
ĠM r
ak ul
ĠB ata
ĠB Ã©
ĠB isch
th rop
th onius
ĠH yatt
om eli
om oides
Ġp ann
ĠA yala
re klamo
ol ebias
ĠL oksa
ro eder
ĠW iggins
ĠW Ã¤g
ĠF jellberg
ĠP un
ĠP rÃ©
ĠP ovol
un gis
Ġc oh
Ġc ot
as ensis
as tes
Ġh ond
ter ga
id iplosis
id entatus
oc tes
oc incta
oc ellata
oc oncha
Ġd aniel
Ġd anae
ac ki
ob re
mi k
Ġf eae
ec im
oph aeus
ĠV el
ric is
ric ki
ius cula
era dor
ich thus
ir rata
ĠI i
ff oon
ya ulax
Ph th
ĠMa thur
ĠMa labar
ae ger
Par ata
Par ames
ad ena
ok o
ill oides
res tris
ĠLe g
ali t
Ġnig ron
Pseudo nic
ĠU sa
Ġr ang
Ġr hiz
Ġan te
su way
ĠHar per
Ġw ell
Ġw rig
Ġlongi setosa
ni or
ni um
Ġmac ra
old t
ĠLa ffoon
Ġper rieri
ĠRe im
La x
ĠBer til
Pro tand
Or conectes
Ġruf ifrons
Ġbrev ipalpis
car is
ĠMc kay
Ġmar c
Ġmag dal
Ġmon tivaga
Per ips
ĠSp uler
ĠSp ungis
Sp alan
En do
ĠFrey hof
ger ald
Cor yph
so a
tod era
ĠSta tius
Micro tus
Micro tendipes
ue ur
Phil oscia
Rha ch
ĠAb ril
Pter opus
vis ia
Ġco operi
Ġne on
ĠBro uw
Ġind ec
Ġgip as
lep sch
Ġsim illimus
ĠLes ueur
Melan aspis
omi ris
Ġpra tensis
Ġgra eca
Ġgrand iflora
Ġinc rus
bergi i
roma chus
Ġmor risoni
ĠDal y
Ger billus
Tha lass
ĠJo icey
Neph tys
ĠSti assny
Ġclav ipes
Ġclav igera
Ġir wini
Hydro ides
Cerato zetes
Ġcyan eus
Ġtar sata
Trop idion
ĠRus chka
ĠRo epke
Cle istes
Ġglob osus
urea u
tsh enkoi
ĠIs lam
Met richia
Peric li
ophi um
opel ta
Ġdeli catus
Sis ym
Myrmec ophilus
Ane laphus
Trip lectides
reg ori
Ġconv ol
ĠMcc ulloch
Ġgob i
ĠPin oy
Ġaus tro
Lob ophytum
Cyp ripedium
Gla resis
Ġkus cheli
opla giata
Anti pathes
Ġign obilis
phaen oides
Ġinte g
Ġblan da
Syc ophila
ĠFitz gerald
Ġhan soni
opec ten
Ġscu tata
Pyrg oc
Pyrg ulopsis
Alc oneura
Cne m
Ġlak ang
Ġhisp idus
ĠSchi ffer
Ġclar kei
Ġcarb onarius
Ġbolivi anus
Cyther opteron
Ġtap ro
Ġmediter raneus
Ġhispan icus
ĠWins ome
ĠHal ffter
ĠBroad head
Eul ophus
Uvar oviella
Anag rus
Ġsilva tica
Aethi onema
ĠAver yan
ĠWor ld
ĠSec retary
Ġprolix a
Ġnil gi
tali wa
Paratrich ius
Scorpa ena
Bud dy
ĠKasad pang
ĠDia z
Hama taliwa
Himer tosoma
Ġbraun si
ĠGha uri
ĠVikto rovich
Ory z
ĠZay as
Anomi opus
Ġendro ed
ĠRio zo
Entom obrya
Lou is
Ġabo gado
Jose ph
Atan ycolus
ĠElla h
Ġnovaegu ineae
Ġbux toni
ĠCul berson
ĠKratochv ÃŃl
Aric idea
Coloss endeis
Sibog linum
Folsom ides
Ġkalina w
ĠMezh ov
Syag rus
Purpuric enus
Dieff enbachia
Reichen bachia
Ġuvar ovi
ĠWÃ¤g ele
ĠPrÃ© vost
ĠMalabar ba
Protand rena
ĠBrouw ers
' d
A ran
B otry
D erae
E ruc
E otetranychus
G oe
L ynchia
M ab
M emb
M alla
O eda
P acif
R oc
R ed
T ers
b it
c cia
d entatus
d reich
g ro
g ert
h me
i eri
l uta
r ch
s omorpha
u ph
u isi
v inia
w ijt
y eg
y rea
Ġ endo
Ġ ow
Ġni abot
en h
en tier
la was
Ġs tol
Ġs umala
Ġsa gitta
Ġka ro
gi bb
Ġgi r
Ġgi ilang
Ġad vena
Ġu dto
Ġu enoi
el phax
ĠS all
ĠS urcouf
op ica
op yrus
ĠB uch
il oba
si dia
si annil
ĠH us
ĠH uij
ĠC rich
ĠC okendolph
Ġp ut
Ġp otan
ĠA itch
ol oba
Ġm ose
ph yd
ro la
ĠW ini
le on
le pis
ĠR ap
ĠR ampini
Ġc ec
ĠK uri
og yna
Ġk y
Ġk oh
id emann
oc ol
oc ellatus
Ġd j
ing o
Ġt sh
Ġf id
Ġf ly
Ġf loc
Ġtan a
ec tin
ba yon
man um
ca eus
ip nus
ina ti
ĠV isayas
ell enberg
Ġg ua
em na
lan eta
eli cus
eri da
ĠZ achvat
sch oe
oli cana
ey o
ĠY ong
Ġman ana
ĠAl ston
res entar
top orus
tr eras
if emur
chi la
ler da
Ġta xi
Ġde gen
Ġpag tuo
ung e
ila bris
odo rum
odo ryctes
Ġba ba
ĠGi ven
mb rus
Ġar bor
Th yri
Ġw uy
ond e
illa rdi
ni o
ele tus
eta lum
mar da
Ġnag la
Ġnag hatag
Ap lys
ham mar
Ġdi ana
ĠBer lepsch
Ġro thi
Pro di
ins ka
Ã¡ th
Ġruf os
aga l
Ġhi gay
Ġdis calis
ĠHol loway
Ġdo riae
Ġmi xtus
osc elus
unc il
Ġab dita
Ġab ditus
Ex echi
Sp ong
Cal odia
tag ma
Dic la
onte i
Ġra ff
Ġvi tiensis
Ġti morensis
Phy tom
hn eri
bur ni
ĠEmer son
Ġspin iger
Brach yg
Mon ocentrus
Ca tox
teri or
Cha en
Ġto k
Ġsin ua
Ġha em
Ba tocera
rog lossa
Ġmelan ch
Cer n
roch lamys
ĠSha o
ĠMas unaga
Orth ostigma
emb elus
Hol ochlora
Ġcla va
sk Ã¥l
Ġ176 8
Ġgip asaka
tol ra
tta lia
Eri dolius
worth y
Ġdiv isus
of a
Ġfulv iventris
ĠJan et
Tan tilla
Ġbra ueri
Gymn opleurus
Pan esthia
Ġber gi
Proc er
Dor ys
Ġkina dak
cauda ta
ĠPi etsch
ĠStro hecker
Ġkas am
Ġsam ang
ĠMarc elli
Pseuda ulacaspis
ohi r
Macro labis
Ġbal oghi
Cos mo
Symp lecta
Ġsex maculata
Cap n
Ġpam uno
Lamp ona
Ġmol ucc
Ambly opone
ĠTe odore
ĠFerr aris
Da ph
ĠCraw ley
Ġline ola
Der olus
Cata chlorops
Cata glyphis
Ġmeridi ona
Ġpili pes
ĠIs ra
ider os
Amp licephalus
Ġwil lis
ĠGÃ© za
Ġmedi ocris
Ġorna tipennis
Elaph idion
Glyc era
Ãº ndez
Ber deniella
Ġsoc ialis
Bur mannia
Ġflavic ans
Euryc ope
Opis tognathus
Ġpru inosus
Ġblan chardi
Ġceyl onicus
Ġteneb rosus
Aulac oserica
Var anus
Ġalta ica
Chal cis
Iso dontia
Ġminus culus
ĠHey den
Fa Ãºndez
ometop on
Ophia ctis
jeb org
Ġsala pi
eadi ella
Hor mius
Ġstr en
Ġboh arti
Tham notettix
Ġargent inus
Cary omyia
Ġabyssin icus
UL O
Ġdubi osa
Lath rolestes
Austroc arabodes
ĠPab lo
idal go
Ploc eus
Ġcolom biana
Ġmaroc cana
Ġmaroc canus
New steadia
Ġbituberc ulata
Ġdecep tor
Gama somorpha
ĠHorv Ã¡th
Polym era
elop ment
Rhyp arus
Coquille t
Psy ttalia
Ophiop lin
Ashm eadiella
Zap rionus
Aglaoph enia
Lepid anthrax
Top omyia
Ġsea brai
ĠLach ner
Iri domyrmex
Pseudone ureclipsis
ĠColle ge
ĠMing lanilla
Ġturk men
Ġfluvia tilis
ĠAnis yutk
Ġkem pi
ĠGijs wijt
Chers odromia
Emer sonella
ĠLjung man
Listro gnathus
ĠLill jeborg
ĠFalder mann
Ġrothsch ildi
Edi toryal
Pseudonic sara
ĠSchiffer mÃ¼ller
Derae ocoris
ĠCrich ton
ĠCokendolph er
ĠWini fred
ĠZachvat kin
schoe man
Exechi opsis
ĠAnisyutk in
E rn
E vaza
G ik
L ang
M og
M odis
M arion
N ass
P hilip
S ialis
Z imi
Z odion
b ina
c elio
d man
f lorum
g n
j unctus
l yi
m eyeri
o tia
o ticus
p ot
r ma
s Ã¶
u tea
v icus
Ġ od
ga in
la i
li des
to vi
te ki
Ġs ternalis
Ġs enilis
Ġma ga
Ġgi ra
in iae
is ip
Ġl ove
ri oides
ri formis
Ġlan d
el otus
ĠS oc
ĠS ea
os ideros
ĠM aki
ĠB av
ĠB ad
ĠH em
ĠH amb
om edes
Ġp sil
re x
ol ey
Ġm ann
Ġm elle
ph oneura
ĠG le
ĠG Ã¶
ĠG loria
ĠG lover
ro f
ĠW ong
ĠW ieg
ĠW ynn
ĠR ulik
ĠD ik
ens eni
ens oni
Ġc omb
ĠK Ã¡
ĠT orben
od ii
Ġk ura
id ippus
Ġd ir
ac ae
and en
Ġt enta
Ġf uj
ec tinata
ba ts
im ys
ed al
ĠN ie
ĠCh o
ĠCh alum
qu eira
tes zi
Ġe lisabeth
ĠI I
ola r
ops ilopa
ros sa
ros tylis
ten to
uli ca
Ch as
Ch lora
Par ana
Par ama
av ello
ru a
oe b
yn x
ĠY ano
ill es
odes ma
Ġta bang
Ġpag pusil
ym orpha
Ġda ling
uri ana
pin um
ung danan
Ġj r
Ġli vida
eg ers
ĠSa w
Ġan tilla
Ġw el
Ġlongi styla
ĠBor od
und ra
ty x
alli phora
ĠDe ar
ĠOs waldo
ĠMartin son
Ġper sicus
Ap ar
Ġdi ri
ins kyi
car ensis
ĠKa i
dia e
arp entier
ĠMc fad
Ġz he
ĠSan chez
Ġtri maculatus
Ex ogone
tag o
Ġac ut
Anth odi
her mes
ĠVic e
Aph el
tu re
Ġgrac il
As ar
ĠPet rescu
ĠKra mp
Para x
ĠBen ham
Ma ira
ema lis
ĠMac kin
oris menus
Ox ya
ĠMah mo
lob ata
Ġcap itatus
Ġdec orus
ĠGar avello
Hop lis
ĠGer ald
Orth otylus
unda tion
Ġkan ako
Cten ichneumon
Ġori entale
Syn idotea
Ġand inus
ĠAm elia
Ġri t
Ġvit ticollis
ĠDi va
Amb lyc
Ec phylus
Ġpulch ripennis
gu chi
Ġcal lip
Pan ur
Ġalbi ventris
ĠMen on
icauda tus
ĠKn ut
Coeli ccia
Ġbur geoni
ĠPauli ne
ÂŃ ÂŃ
ĠHan na
ĠRod er
Ġpor phy
rim ul
Ġrot undus
ĠPal ma
Euph oria
ĠHed gpeth
ĠCal der
Polyc arpa
nik ova
Ġmari timus
Da hlgren
Eryth rod
Lox ocera
ĠWeb ster
Ġbin otatus
Oph ichthus
Ġsec undus
Form osa
Ġperu anus
Phor ocera
Ġhor ridus
Ġprob insya
Ġbil oba
Ġbil obatus
Ġtai wan
Ġva doni
ĠBry an
Aris tea
Ġlongicauda ta
Ġlongicauda tus
ĠLas senius
Ġext ensa
ĠAg uiar
ĠNob le
Ġtransver salis
Mol op
du phantes
Podo myrma
Ġgo ul
ĠOl ga
ulifer um
Ġkri tikal
Ġcroc ea
Telma tobius
Onc ometopia
Ġauranti acus
Ġcolum bianus
ĠPav an
Ġaen escens
Var gas
roggat ti
Ġrugi collis
Ġunsa on
estr ini
ĠKos z
Ġrubri ventris
Ceratoph yllus
Ġgenic ulatus
Ġau rip
hes quier
ĠHad dad
Arachn odes
Cyther ea
Bae oura
Poth os
Ġliv idus
Ġstrig osa
Colob ostema
Ġbut leri
Lem na
Zag lyp
Agath omyia
ĠHorv ÃŁ
ĠPes enko
ĠSten hammar
Ġdimin uta
sib idion
Ġadministra syon
Palli duphantes
ĠChin one
Ġcucul lata
Ġpollin osa
Ġwhite h
Ġfuji anensis
Tex ananus
Ġbicolori pes
Amaur omyza
Ġpalud icola
oland revus
Ozodic era
Hima l
ĠBj Ã¶r
Polyb lastus
Ġbermud ensis
ostig modes
Pterop trix
breg ts
Rama lina
Mastac embelus
Cnema spis
ĠCop pins
Jordan oleiopus
Haplod rassus
Aegyp tobia
Arbori dia
ĠPovol ny
ĠHuij bregts
Modis imus
ĠChalum eau
ĠMcfad den
Anthodi octes
Dahlgren ius
ĠHorvÃŁ th
1 7
A rid
A thy
B ag
B ald
D A
F lex
F alc
I top
I ns
M akro
N um
P S
P ocha
S ulc
T imia
U HA
c la
d ras
e ides
f ell
m m
r ophilus
x worthy
y kei
an oplus
la zon
li tan
Ġs usama
Ġsa kay
gi chneumon
Ġma urus
Ġgi ti
er obius
in ton
in orum
Ġu gat
on othrus
Ġb orb
ĠS v
ĠS ebas
ti ll
op yge
op odisma
ĠB akh
il pha
th enia
th oneura
th rum
om ensis
Ġp ig
Ġp angan
Ġp inus
Ġp ear
Ġp rocerus
ĠA lay
ic anthon
re c
ol ecanium
um y
ĠG ama
ĠW ein
ĠF rom
ĠP oi
hi li
hi ra
ĠD ash
un iella
ĠK ub
Ġh ov
Ġh arm
Ġh ender
ĠE hr
Ġd ensa
ob off
ec tum
ec phora
ea ui
it ton
ĠN Ã©
ĠN eusa
ĠCh arpentier
ne mos
ov ii
et ri
sp inosa
Ġg uiz
ich is
ker y
ton otum
ĠI z
ĠI ne
ĠI ligan
ola us
Ġna dawat
ica udus
ĠSch re
ĠHen rard
ten ius
ĠMa j
ĠAlex e
Ch ym
Ch asm
Par ak
ron us
ey ra
Ġsi lay
gam ia
yn ium
end el
ĠY abe
Ġman ga
tor hina
yr ella
ĠHer cule
ali ca
chi ardi
Ġda mpfi
Ġnig eriensis
ĠFre itas
Ġli p
Ġch am
tar ab
eg onus
ĠGi ard
Ġcon tig
Ġar tista
ĠHar z
iv ena
ko ff
Ġmac leay
uma e
uma r
ho fer
eta la
mar um
old ia
ĠRa xworthy
oni ensis
io tes
Ġsp icata
Ana pis
tt ina
Ġmar tensi
lo ea
Ġz en
Ġz on
itz evi
ĠGu ad
ĠAd law
Eu tettix
Per itrichia
Mes ostenus
Di ospilus
lab ra
Ġpro gram
be ia
Ġoc ularis
Ġth y
ĠQ ui
ire z
Dia spis
nig hti
yne i
ĠVic kery
Aph eli
Ġgrac illima
inc tum
Ma x
Ma sicera
Cryp si
Ġcol lina
ĠSta inton
Ġbis eta
Emp ec
Dip lazon
ĠThor p
Ġmo esta
ycl ocheilus
Hop los
Cer op
roch aeta
Ġimp ressa
Ġimp ressus
Ġco quille
Bar b
Orth onevra
ĠShi m
Ġacu tang
Ġmaka pa
sk necht
uv age
Cyr tanthus
Amb lys
Ec top
Om ic
Ġgra tiosa
toch ia
Isch no
Ġlam ottei
ĠSo Ã³
Gymn ochthebius
uga p
Ġintermed ium
Ġste war
elis ia
ĠDes hayes
Dys odia
Ġbrevis pina
ĠRic chiardi
Ġtric ol
Ġlaev icollis
Ġplat yp
Ġres pon
lap tus
ĠThi enemann
Cap rimul
ĠBae z
Ġ4 0
ĠSe evers
Oph io
Ġlim ba
Ġpat ula
ĠGus sak
ĠKel ley
ĠRiv era
Erem obates
lend ens
Ġauri ta
ĠGy Ã¶r
At yp
ĠBÃ¶ hme
Ae ga
Ġsup orta
Cyc los
Pet ro
Laph ys
ĠNob uo
Dy sidea
ĠLaub ier
ĠDar rell
Sphen orhina
Ġluna tus
Ġshi ra
Ġdich roa
ĠIning gles
Gag nÃ©
Ġare olatus
Ġspar sa
ĠKonstantin ovna
Symph erobius
Ison euromyia
Schizop era
Rat tus
noda x
ĠEli ot
Onych ogomphus
Lyg odactylus
ocor yne
ĠClaud ia
ĠRÃ¼ ppell
Ġtyp icus
Ġfru tic
ĠHul st
Caen oh
ĠNord al
Ġreli cta
Pti lod
Ġvenez uelensis
Ġmilyon es
ĠTib bats
Med ina
ĠAleman ya
Ġstric ta
Ġsit yo
Gyr ophaena
Balan ophyllia
Ġtele bisyon
Mesemb rius
Ġtul unghaan
Ġcontor ta
ĠHaus sknecht
Ġarb orea
ĠGoe th
ondi bilis
ĠCow per
ĠFed tschenko
Mongol oraphidia
Thou ars
Haltic optera
Ġalvar engai
ĠDury ea
ĠLedo yer
Wolf gang
Ġannec tens
ĠRez sÃ¶
ythi tes
Halip lus
Hemile ius
ĠKola rov
Arthroc nodax
ĠToki oka
Ġcollar ti
ĠReim oser
Phytom yptera
Catox yethira
Cern otina
ĠKÃ¡ roly
Erythrod iplax
Formosa tettix
Molop opterus
Itop lectis
Makro kylindrus
Chym omyza
Caprimul gus
1 3
A ry
C olus
C enoc
D ino
E ci
E ly
F ru
H esp
L ala
N otropis
O ne
T O
T y
T echn
U roc
V inc
b og
c occus
e oides
g um
g romyza
h ya
h yn
h ert
j cik
p ei
r anae
t ungod
y cus
y ii
Ġ Å
Ġ ×
Ġn yas
wa da
Ġni butyag
Ġs anga
Ġsa pp
Ġka ay
gi dium
Ġgi lli
Ġkali hok
in en
se t
se cta
ang ense
or yc
ĠS ev
ĠS apa
ĠS omer
op ra
op odium
ĠM car
ĠB ier
ĠB ureau
il obus
ĠH av
ĠH ynes
om mata
Ġp eck
Ġp enna
ic incta
ol ybia
Ġm eyeri
da han
ĠF aden
ĠP ey
ĠP age
ĠR ight
un an
ul lier
ĠK ay
ĠK uiter
ĠT ous
ag an
Ġh at
Ġh oe
Ġh essei
lis h
oc ulatus
oc amenta
Ġd alli
ac ia
ac inth
ry llus
ba densis
ed ya
Ġali enus
ĠN em
ĠV oss
ov aria
qu ei
ug u
Ġg rata
ir Ã¡
ud din
ud eman
ay ana
ola ria
ola bus
ya wan
ĠSch inz
Ġla wak
gan o
omy mar
ae tano
ĠAlex sand
ron ema
av o
ĠAl lan
ota c
Ne olep
Me tan
ler c
Ġta d
Ġda laga
rop lus
lav er
Ġch eli
tos tigma
rid ius
ine ta
ĠSa uvage
Ġr ara
ĠBo ard
Ġpa x
Ġpa dayon
cu lis
Ġga ga
Ġlongi tarsis
toc ki
elli us
ela toria
Ġsp ang
Ar gas
Ar rh
Ar miger
Sc ylla
ĠPar do
yb e
Ġmar s
Ġmag ka
Ġmag ti
Ġcar val
Hyp oserica
Dic tya
ĠHo oge
pe ti
gal og
Cor egonus
Ġ175 7
tu ber
ĠCres sey
thi ola
edo myia
ĠKra jcik
Para pha
yth yrea
Ġser bisyo
ĠLeon id
Ġcor p
Ġinter sti
Bulb othrix
ĠSz irÃ¡
Ġop erasyon
enn ensis
Ġimp rov
My ri
My opa
ĠNa umov
Ġim bri
ĠMel o
Ġph y
ĠÃ ģ
Ġter restris
for ti
Ta u
Ġam phi
tob asis
Eri b
Ec tem
Hemi teles
Limn ichus
ĠSo umy
Af roc
Euc elatoria
Proc era
Rhi pi
Mer anoplus
ĠVal ck
ĠAlexand r
eca toma
dad ensis
ĠAdel bert
Dys chirus
osi tus
Ġpang lawas
asp idius
yag oda
Ġrug ulosus
Ġbo ett
ĠâĢ ĵ
Austro ch
Ġbic incta
Anis ocentropus
Symp etrum
ĠMal y
Comp sibidion
Cle phyd
Tur an
Ambly aspis
Eryth roneura
Der onectes
Sys tole
ethi yagoda
Pala em
ĠKun tze
Arc oppia
Ġmu tica
Austra lob
ĠFo undation
ĠArn ol
lard i
Eud erces
Atra cis
Ġaren arius
tid ens
Ġpala wanensis
ipi ter
ĠGol oboff
Ale ochara
Campyl omyza
Bis cutella
Xiph osomella
Seric oides
Seric ania
Ġtran sp
Dichae tophora
Ġnitid icollis
Ġmich eneri
Ġquadris pinosa
ocar pus
jo ested
Ġpre tiosa
Ġsoc ia
Ġtrop icus
Colp otroch
Ġmak it
Ġfurc ifer
Kar shomyia
Heteroc onis
Ġpopula r
Ev acanthus
Ptil oglossa
vass osi
Ġkada gatan
Ġza itzevi
Ġbou vieri
Ġvand ykei
Cot tus
Ġbry anti
gry llacris
Ġcoch le
ĠTani kawa
ĠHud dles
Ġimita trix
Phal oria
Gast ros
Cel onites
Ġpeter si
Chel ostoma
Dicranop ygium
ĠCarne vali
Cad ulus
gram mus
Ġlut zi
Ġfern andezi
Ġbrad leyi
Glypto thorax
Ġsax icola
Mini limosina
Ġabrup ta
Gastro theca
Ġellip tica
ĠHersh ler
Ġscit ula
Stem miulus
ĠAmerikan ong
Av icularia
Ġincog nita
Pipi za
ĠDomini kus
uchen ius
ĠGos se
Schend ylops
Ruti lia
Wat sonia
Ġfiji ensis
Ġekon omiya
Calos ota
Lordi phosa
wea ther
ryl lodes
Bod ilus
oute den
Peromys cus
Hemiph ileurus
Alcyon ium
Ġhyalin ipennis
Ġmitch elli
Yez oceryx
Acan alonia
Dix ella
Neri ene
Eretm ocerus
ĠSepti yembre
Evi ota
Ters ilochus
ĠHamb leton
ĠWieg mann
Chlora ea
ĠMahmo od
ĠKosz tarab
ĠBjÃ¶r n
ĠAlay Ã³n
ĠGyÃ¶r gy
ĠAlexsand rovich
Ġcarval hoi
ĠSzirÃ¡ ki
ĠSoumy endra
Clephyd roneura
Colpotroch ia
ĠHuddles ton
4 0
A es
B ad
B ali
D al
F arl
G il
G amps
L yp
L amin
M MC
N ac
N ip
P ez
P orph
P uto
R ip
S mer
S ephena
W ille
k it
l lip
m ez
m osus
o ja
r omy
r omyrmex
s ensis
s odes
s iae
y da
z quez
wa ri
Ġni shi
la ia
la carus
li ya
Ġsa ga
Ġsa lina
Ġsa under
Ġa tte
Ġa gu
us to
er inus
in ta
in ha
is pina
is poda
na i
ar g
ta t
ch yc
Ġb y
or ni
es tis
el ec
ra bar
ĠS ter
ti en
op os
op ina
ĠM olina
ak is
ĠB unge
th odes
th ela
ĠH ob
ĠC row
ĠC oyle
om ers
Ġp ugna
ic oma
ic tya
ĠL iv
Ġm illi
ĠG rac
ĠG allo
le bra
ĠF rol
ĠP ur
ĠP uri
ĠP ethiyagoda
am bi
am phus
ĠD arcy
ĠK ata
ĠK ings
og omph
ĠT aeger
Ġk ul
Ġk lu
Ġk warta
Ġh ova
ĠE ide
id ze
oc occ
ob e
ob is
Ġv e
Ġv illa
Ġt su
Ġf at
ec ensis
sa int
ea vey
it tatus
yl lod
ĠV era
ran tha
ran eura
et ria
era i
era si
Ġg n
ĠMar quez
gas ta
ona ster
ola x
ura inia
eli da
eli pus
ab ius
Ph anaeus
ĠMa gal
ann olene
ent ri
Ch in
av e
bi fera
Ġre k
Ġre gula
An urophorus
Ġhen ryi
va ga
ĠAl brecht
ĠAl varez
ans han
tr ell
ĠLin ne
der ensis
rac tus
Ġj ar
tri ga
tri ya
Ã¼ ll
odo xa
ox alus
Rh ene
Pseudo ca
ine ma
Ġr om
Th laspi
zi o
Ġw itt
yph es
usta gramma
uma cher
ers en
Ġnag tuo
ty ch
alli da
tha ea
ĠDe la
Ap on
Ġrip aria
La ternaria
ela han
ĠBa isas
uhi ro
Ġsp ongi
Ġalb ovittata
est rus
ĠPar r
Ġdis si
Ġz ar
ido psis
he ch
Trich i
Lepto gnathia
gen cy
ĠAndre jevitj
osc ytus
Sp el
Sp elae
ĠHo uston
osp ar
ere ma
ĠCar car
Ġhum er
Dend roph
ĠLucas sen
Chi one
Phil ophylla
Ġbis etosa
Ġver m
lob os
hin al
Ġful vi
Ġpic turata
ĠCon treras
ign yi
Pter yg
lic um
ĠGer mÃ¡n
ret ta
ĠMan fredi
Ġgu ar
ĠNa umann
Ġim m
Ġph al
Ġcomp ta
illo ti
ĠKim ura
Ġobsc ur
Ple uroc
Ġse tifera
Ġes tab
nit syn
Ġpagka ta
ĠRis to
aca uda
Af ranth
Ġmor osa
ĠStan ko
Trach usa
odia spis
Lip ar
cauda tus
tori i
ĠBerg evin
ĠDod erlein
Ġtor quata
Ġmaculi frons
Ġdu odec
Ġgib bus
Euph ros
Cap rella
Clin teria
Ġbrasili ana
Ġcav ifrons
Ġniger rimus
Ġjav anus
Syna p
Ġargen teus
Ochth era
Ġpili ay
uni ga
fus cus
Prion yx
ĠPro secutor
Ġnub ila
Ġdeser ta
Ġtra vassosi
ĠKal evi
ĠBrig gs
Palae opsylla
Ġmel anderi
Chei rostylis
Ġpulcher rimus
Hyl oxalus
Ġpers onatus
hol m
ĠLu ederwald
Nema cheilus
tab ong
ĠAlf ono
Ġare olata
Ġcus pidatus
Siphon ogorgia
hor mius
Ġcra w
Rob ustagramma
Ġting og
Ġalp icola
Ġminut issimus
Ġmultip unctata
Cri otettix
ĠTomas ovic
Du olandrevus
Ġunif asciata
Sic yon
Soma tidia
Ġcocc inea
Chaetoc ladius
ĠTu omik
Chari esthes
vana karn
Macha er
Rach ispoda
Cyclop tilum
Ġflavo lineata
Ġrubic unda
Tana ostigmodes
Eurys ternus
Ġmarga re
Pseudon ortonia
Melin da
Ġsanguin ol
ĠSena do
Ġdiversi pes
Ġneotrop ica
otroph us
Steth ynium
Ġopera tion
Ġguy anensis
ĠBurg ess
Ceratoc anthus
Acanthosc elides
Clad iella
elos imus
Ġpyra mi
Xyle tobius
Ġmime tica
Scot in
Neotrich oporoides
Ġold roy
Ġfes tae
Diaphor ina
ĠSiri vanakarn
Lumbric illus
ĠMendo za
Ġmoss amb
Tetran ychus
Ġruw enz
Desc urainia
Limnod riloides
Ġillus tris
Sinoc yclocheilus
Bucc inum
Ġzern yi
ĠAveryan ov
Prodi domus
ĠDik ow
Ġantilla rum
Ġwhiteh eadi
ĠFrom ont
nemos yne
Techn omyrmex
ĠMcar eavey
ĠTous saint
Armiger es
Afranth idium
ĠLuederwald t
ĠTuomik oski
A ux
B us
C uc
C ycn
D ur
E iph
G ol
K elisia
L ev
L ae
M ene
M Ã¼ll
N omioides
O lavius
P ac
P anc
P ATAY
S id
X ya
a eschna
d elli
e eva
j ac
l eng
p unctatus
p atay
x enus
Ġn ami
an ch
an oides
to si
te dt
Ġs tre
Ġs icula
Ġs onor
ka ensis
ka sad
do bli
Ġka in
Ġa eru
Ġma ki
is setia
is hech
se x
se ur
Ġb ov
Ġb ila
Ġb hu
ri top
ri frons
Ġin i
Ġin ops
el oides
ĠS under
ti eri
op ul
op los
ĠB ida
th oides
th obius
ĠH ove
ĠH ensch
ĠC obb
ĠC unningham
ĠA tan
ĠL ange
ĠL ily
Ġm oni
ĠW ind
ĠJ ard
ĠR oj
ens wood
Ġc is
ul toni
ĠT ro
ĠT ina
ana lis
Ġk ok
ur nus
Ġh ick
ter um
ĠE ast
ĠE mano
Ġd emis
ris tata
Ġv og
Ġf lo
ot z
ne tina
ĠV inson
ov ir
uy on
ric ula
lin is
ops oides
ĠSch marda
ros um
Ġla e
Ġla hi
ĠAlex ey
all os
Par aga
ou ze
oe ophila
Ġre ductus
tin omi
lia tus
An elosimus
ĠWal lich
tra tum
yr hynchus
Me ti
ez oensis
ez eyi
ik ani
sh ania
Ġpag la
Lep e
Ġli gid
Rh am
Pseudo eur
mb ea
toma c
ari an
ĠBar tol
Ġsub ru
Ġflav eola
rev e
ho gas
ele o
ty um
co ensis
eni ta
ram osa
Ġusa hay
lus us
amb yx
Ap oda
oni ulus
Ġsp adix
ĠKa up
eth ra
Ġdis tan
yb ina
sis pira
lo ff
ĠGu tierrez
Eu phy
Eu fri
Li x
wor sky
Ġmi gamit
les is
ĠTheodo or
Ġra ma
ĠCamer ano
Ġhum bold
aris ta
Lasi oserica
Dend roc
Chi rosia
Ma h
Ma ori
Heli ocopris
ĠSta m
Micro dynerus
Cha et
Ġmic rophthalma
Ġbis pina
mon tana
Meta ll
Pach yl
Ġcur vi
Ġpseudo s
Ġat ros
Ġat ripennis
tone urina
rol ene
Ġmo kabat
onard i
Ġmelan urus
tac anthina
vis a
Ġco erulescens
men aeus
Aus troph
ĠDa i
Ġpol yc
arm ostes
Ġnaka dawat
ĠLes ley
ony ma
Ġes k
Hemi g
ĠRed dy
toch lora
Ġangus tis
Ġvirid ula
Ġvirid ipennis
ĠRam irez
Ġstri gata
ĠRav enswood
Nem esia
Ġmor dax
ote leia
Ġbrach yp
ĠKol enati
ĠDmitri evich
Pal es
Sin oxylon
Lyc enchelys
Mel ecta
ĠOr tega
Coel op
Ġcorn igera
esch ena
Amphi ophiura
Pel tacanthina
Neoc ompsa
ingi i
Anis omysis
ocha uliodes
El oeophila
ĠHed wig
Ġlac inia
Hab ropoda
Ter ellia
Ġtig rinus
Stil p
Hel c
zo anthus
Dactyl ocythere
Ġpas an
Hipp osideros
Ġprob osc
Ġsquam osus
foli ae
Spha eri
Ġnam o
Seric esthis
otro cha
Pyg ora
Can tero
Gla uc
Ġdup licata
Ġincon stans
ĠSchultz e
Nema top
Acrop yga
igh ton
Chroma toiulus
ĠRom ero
Bo ophis
Iso tom
Ġgus sak
Ġpama hayag
Ġdug han
Ġkada ugan
ĠSwa in
Ã¡n chez
ĠVilla lobos
Meliss optila
Ġpad ulong
ĠStur m
Cran ichis
Vol ucella
ĠConstan tine
Ġemp le
Argi olestes
Parav illa
Ġintri cata
Perisc epsia
Ġglori osa
Ġbituberc ulatus
Wood iphora
obrun nea
Monte zumia
iew icz
Dim orph
ĠRuz sky
ĠOc ampo
ĠColling e
odac tyla
Pimel odella
ĠCli mo
Ġconne xa
ĠNap oleon
moh ard
Apsil ochorema
Psor ophora
Ġestud yante
Cras sispira
Ġxin jiangensis
Ġgladia tor
ĠFlem ing
ĠChak rabar
Ġmace don
ĠStu art
Pomac entrus
ĠKongres o
Ġrand alli
Ġgidag hanon
Bradyc ellus
siannil sson
Ġpotan ini
Ġwillis toni
ĠDiva kar
ugap tilus
Laphys tia
ĠSomer en
Porph yr
ĠFrol ov
dobli es
ĠBida wid
ĠWind ham
ĠJard ine
Eufri esea
ĠChakrabar ti
A dox
E ro
F enes
G ymna
K eil
M end
N ing
N ab
O P
O octonus
P ang
P ort
S el
T elen
T uber
U sia
V esp
W ul
b ol
f u
h old
i os
j ad
p inata
p teryx
r g
r ula
s lade
t arachne
u bay
v iv
y il
y ther
y gina
y dalis
z Ã¡r
Ġ )
Ġ tong
Ġ ich
Ġ ender
Ġn oto
an tus
Ġs m
Ġs wa
Ġs ong
Ġs ander
Ġs he
Ġs tag
Ġa eg
Ġa ster
tan ea
Ġma say
us ca
er emus
in ula
is trellus
on ense
Ġb eng
Ġb enne
Ġl oc
Ġl ox
Ġlan u
op lata
ia tum
th um
th ani
th eyella
si ko
ĠC e
ĠC ong
ĠC assag
ĠC aetano
Ġp lica
al ense
ĠA mb
ol oides
um ensis
ĠL ed
ĠL ight
Ġm isi
ĠG ul
ĠG ie
ro don
ro tophora
ĠP rice
ĠR es
ĠR ick
am mia
ens t
Ġc ae
ĠK la
ĠK Ã´
ĠT ake
od te
Ġk uyog
ag g
Ġh os
oc ara
Ġf agei
man thus
ot methis
uy s
era ma
Ġang u
ei rensis
Ġg old
Ġg hesquier
ap is
ĠMar ais
em oy
ys tra
ĠI pe
ĠTh ell
ff ia
Ġna wong
ĠSch ae
gan ea
uli ran
ĠZ anden
ĠZ uniga
ow ii
ou et
ou fie
anth emum
Ġre bel
di opsis
yn otus
An ten
Ġman ip
don ium
tor hynchus
ert um
Ne och
ala e
ala ra
Ġj ur
tri ng
Ġli bo
pi ella
ĠChris tens
ĠU b
ĠU tinomi
Ġan til
Ġrep ort
idi eri
iv orus
Ġmac ulatum
ram phus
Ap tero
ek ei
Ġun icornis
ib idion
On uphis
Ġruf ulus
ĠFor attini
Ana tella
ĠFa xon
ĠCo ull
Ġmon tivagus
Ġor y
Ġz el
Chrys anthrax
Eu rema
Sten obothrus
Camp tochaeta
Trich ops
ĠDel y
ĠDel pon
land ella
land iae
Ġtri b
Ġtri lineatus
Ġca esia
bia si
ĠDaniel ssen
Gl ob
onis coides
Dia p
ĠPa z
Ġbar ko
esi ella
Ġspin ulosus
Ġcor ona
Micro g
Cop tomia
ĠNik olas
Ġcur vatus
Ġto biasi
ign um
Ġdec ur
Ġnigri facies
Ġmelan ocephalus
Ġbrun eri
Ġco omani
Ġne op
ĠDa baw
Ġpal m
mip pus
Syn o
ĠAm orim
Cyr tarachne
sak i
Ġcali ginosa
Ec cop
Ġcas p
of t
of asciata
Pseud ione
ener al
ĠSteph ensen
him ensis
ĠDal las
anan da
Ġle op
Ġtris pinosa
Ery lus
Trach yc
Lyc odes
acc etti
ĠLaw son
lana tus
ĠCan trell
Ġpec ki
Hetero tropus
Ġtor quatus
Ġmaculi collis
uce ki
Ġpap ua
Ġsan ta
Pseuda pis
ĠRod rigo
ando lph
ĠMora vitz
Ġtin dahan
ĠJos so
Ġari z
Ischn ura
hashi i
Ġhar risi
El mohard
Ġnap ulo
Tox ophora
Ġpallid um
Sphaer ocera
Stil pon
Ġgem ina
tran galis
Ġtum idus
hima kak
Mis tshenko
Ġkar nyi
Lin ognathus
Ġmos unod
At theyella
Parm elia
Ġvul n
Ġrose us
Ġton noi
Mal th
Noto xus
Ġgil berti
Tra ulia
Ġdiff usa
Scol ec
Desm ometopa
Paraph ylax
Les pesia
Ġpon tica
ĠKu eichen
ĠKu wayama
Cyan otis
[...]
