{"<|endoftext|>":0,"!":1,"\"":2,"#":3,"$":4,"%":5,"&":6,"'":7,"(":8,")":9,"*":10,"+":11,",":12,"-":13,".":14,"/":15,"0":16,"1":17,"2":18,"3":19,"4":20,"5":21,"6":22,"7":23,"8":24,"9":25,":":26,";":27,"<":28,"=":29,">":30,"?":31,"@":32,"A":33,"B":34,"C":35,"D":36,"E":37,"F":38,"G":39,"H":40,"I":41,"J":42,"K":43,"L":44,"M":45,"N":46,"O":47,"P":48,"Q":49,"R":50,"S":51,"T":52,"U":53,"V":54,"W":55,"X":56,"Y":57,"Z":58,"[":59,"\\":60,"]":61,"^":62,"_":63,"`":64,"a":65,"b":66,"c":67,"d":68,"e":69,"f":70,"g":71,"h":72,"i":73,"j":74,"k":75,"l":76,"m":77,"n":78,"o":79,"p":80,"q":81,"r":82,"s":83,"t":84,"u":85,"v":86,"w":87,"x":88,"y":89,"z":90,"{":91,"|":92,"}":93,"~":94,"¡":95,"¢":96,"£":97,"¤":98,"¥":99,"¦":100,"§":101,"¨":102,"©":103,"ª":104,"«":105,"¬":106,"®":107,"¯":108,"°":109,"±":110,"²":111,"³":112,"´":113,"µ":114,"¶":115,"·":116,"¸":117,"¹":118,"º":119,"»":120,"¼":121,"½":122,"¾":123,"¿":124,"À":125,"Á":126,"Â":127,"Ã":128,"Ä":129,"Å":130,"Æ":131,"Ç":132,"È":133,"É":134,"Ê":135,"Ë":136,"Ì":137,"Í":138,"Î":139,"Ï":140,"Ð":141,"Ñ":142,"Ò":143,"Ó":144,"Ô":145,"Õ":146,"Ö":147,"×":148,"Ø":149,"Ù":150,"Ú":151,"Û":152,"Ü":153,"Ý":154,"Þ":155,"ß":156,"à":157,"á":158,"â":159,"ã":160,"ä":161,"å":162,"æ":163,"ç":164,"è":165,"é":166,"ê":167,"ë":168,"ì":169,"í":170,"î":171,"ï":172,"ð":173,"ñ":174,"ò":175,"ó":176,"ô":177,"õ":178,"ö":179,"÷":180,"ø":181,"ù":182,"ú":183,"û":184,"ü":185,"ý":186,"þ":187,"ÿ":188,"Ā":189,"ā":190,"Ă":191,"ă":192,"Ą":193,"ą":194,"Ć":195,"ć":196,"Ĉ":197,"ĉ":198,"Ċ":199,"ċ":200,"Č":201,"č":202,"Ď":203,"ď":204,"Đ":205,"đ":206,"Ē":207,"ē":208,"Ĕ":209,"ĕ":210,"Ė":211,"ė":212,"Ę":213,"ę":214,"Ě":215,"ě":216,"Ĝ":217,"ĝ":218,"Ğ":219,"ğ":220,"Ġ":221,"ġ":222,"Ģ":223,"ģ":224,"Ĥ":225,"ĥ":226,"Ħ":227,"ħ":228,"Ĩ":229,"ĩ":230,"Ī":231,"ī":232,"Ĭ":233,"ĭ":234,"Į":235,"į":236,"İ":237,"ı":238,"Ĳ":239,"ĳ":240,"Ĵ":241,"ĵ":242,"Ķ":243,"ķ":244,"ĸ":245,"Ĺ":246,"ĺ":247,"Ļ":248,"ļ":249,"Ľ":250,"ľ":251,"Ŀ":252,"ŀ":253,"Ł":254,"ł":255,"Ń":256,"Ġn":257,"an":258,"wa":259,"Ġni":260,"ga":261,"en":262,"la":263,"Ġnga":264,"li":265,"to":266,"te":267,"Ġs":268,"ka":269,"ma":270,"do":271,"Ġsa":272,"Ġka":273,"Ġa":274,"gi":275,"tan":276,"Ġma":277,"endo":278,"xt":279,"text":280,"endof":281,"<|":282,"|>":283,"endoftext":284,"ula":285,".<|":286,"ng":287,"Ġgi":288,"oy":289,"Ġmaoy":290,"Ġgih":291,"Ġkali":292,"way":293,"watan":294,"Ġkaliwatan":295,"gway":296,"ulagway":297,"Ġgihulagway":298,"tong":299,"Ġad":300,"Ġadtong":301,"Ġ1":302,"Ġ19":303,"us":304,"er":305,"in":306,"Ġu":307,"is":308,"na":309,"ar":310,"se":311,"ang":312,"ta":313,"on":314,"ch":315,"Ġb":316,"Ġl":317,"ri":318,"Ġuna":319,"Ġin":320,"kto":321,"gaw":322,"Ġ18":323,"or":324,"Ġinse":325,"Ġinsekto":326,"Ġlan":327,"Ġlangaw":328,"es":329,"el":330,"ra":331,"ĠS":332,"ti":333,"op":334,"os":335,"ĠM":336,"Ġug":337,"ak":338,"ia":339,"ĠB":340,"il":341,"th":342,"si":343,"uk":344,"Ġbak":345,"ĠH":346,"ĠC":347,"om":348,"Ġp":349,"al":350,"ĠA":351,"ukang":352,"Ġbakukang":353,"ic":354,"re":355,"ol":356,"um":357,"ĠL":358,"Ġm":359,"ph":360,"ĠG":361,"ro":362,"ĠW":363,"ĠJ":364,"le":365,"da":366,"ĠF":367,"ĠP":368,"hi":369,"ĠR":370,"am":371,"ĠD":372,"un":373,"ens":374,"Ġc":375,"tus":376,"00":377,"ul":378,"Ġ199":379,"as":380,"Ġ198":381,"ĠK":382,"og":383,"siw":384,"ĠT":385,"od":386,"Ġ2":387,"ana":388,"Ġ197":389,"Ġ196":390,"Ġ200":391,"Ġk":392,"ur":393,"bang":394,"ag":395,"Ġh":396,"ter":397,"ĠE":398,"lis":399,"id":400,"Ġ192":401,"oc":402,"Ġkaka":403,"ensis":404,"Ġ191":405,"Ġ193":406,"Ġd":407,"Ġ190":408,"ac":409,"ing":410,"and":411,"Ġ195":412,"ob":413,"mi":414,"ris":415,"Ġv":416,"Ġt":417,"Ġf":418,"Ġtan":419,"ry":420,"rus":421,"ec":422,"sa":423,"Ġ189":424,"Ġtanom":425,"ea":426,"it":427,"ba":428,"oph":429,"im":430,"ber":431,"ed":432,"oh":433,"man":434,"ca":435,"ot":436,"Ġali":437,"Ġala":438,"ip":439,"ig":440,"ĠN":441,"ina":442,"yl":443,"ĠO":444,"ĠCh":445,"ne":446,"siwsiw":447,"Ġalasiwsiw":448,"ĠV":449,"ĠWil":450,"ran":451,"Ġ194":452,"ov":453,"ep":454,"et":455,"rich":456,"sp":457,"ub":458,"son":459,"hila":460,"uy":461,"lad":462,"ha":463,"ella":464,"tase":465,"Ġis":466,"qu":467,"bangbang":468,"Ġalibangbang":469,"Ġkrus":470,"uc":471,"taseo":472,"Ġkrustaseo":473,"ric":474,"Ġmga":475,"ius":476,"era":477,"oma":478,"ug":479,"Ġang":480,"ei":481,"ell":482,"Ġ188":483,"Ġg":484,"ap":485,"ata":486,"ong":487,"Ġ186":488,"ĠMar":489,"tes":490,"Ġisda":491,"em":492,"lin":493,"ĠJoh":494,"gas":495,"ich":496,"ir":497,"ud":498,"och":499,"ker":500,"Ġ185":501,"arl":502,"ys":503,"uyog":504,"ton":505,"Ġbuyog":506,"lan":507,"ay":508,"Ġe":509,"Ġ187":510,"tilad":511,"ard":512,"ona":513,"at":514,"ĠI":515,"ola":516,"Ã©":517,"ĠTh":518,"lex":519,"arag":520,"ini":521,"Ġasp":522,"ura":523,"ev":524,"ki":525,"rd":526,"ff":527,"eli":528,"ops":529,"Ġna":530,"eri":531,"aragos":532,"Ġasparagos":533,"ya":534,"nd":535,"ab":536,"ica":537,"ora":538,"ĠSch":539,"ĠHen":540,"ero":541,"ander":542,"Ġvon":543,"ut":544,"ros":545,"Ph":546,"Ġla":547,"gan":548,"ten":549,"cus":550,"Ġal":551,"nis":552,"ĠMa":553,"ie":554,"omy":555,"lod":556,"ge":557,"ae":558,"Ġ184":559,"yp":560,"ann":561,"ent":562,"mann":563,"ĠAlex":564,"ĠSte":565,"all":566,"uli":567,"ĠZ":568,"Ġ183":569,"Ch":570,"Par":571,"sch":572,"ron":573,"Ġulod":574,"udo":575,"yc":576,"ena":577,"ow":578,"oli":579,"ĠEd":580,"ides":581,"av":582,"eus":583,"ou":584,"ll":585,"ad":586,"ru":587,"ĠAlexander":588,"ĠWilli":589,"ok":590,"ey":591,"ori":592,"bi":593,"anth":594,"tis":595,"ĠJohn":596,"oe":597,"osa":598,"ĠWilliam":599,"Ġre":600,"ani":601,"di":602,"tin":603,"Ġlang":604,"Ġsi":605,"gam":606,"eb":607,"Ġtun":608,"yn":609,"Ġ17":610,"pa":611,"mus":612,"Ġtungaw":613,"end":614,"Ġhol":615,"ward":616,"lia":617,"An":618,"ĠY":619,"ĠWal":620,"sing":621,"roc":622,"bert":623,"ria":624,"ean":625,"Ġman":626,"eph":627,"don":628,"Ġholmi":629,"Ġholmigas":630,"ĠFri":631,"Ġhen":632,"Ġi":633,"hel":634,"tor":635,"Ġlanggam":636,"anus":637,"ĠCarl":638,"tra":639,"va":640,"up":641,"ĠAl":642,"omyia":643,"Ġhenero":644,"ill":645,"Ġsing":646,"yr":647,"tic":648,"ert":649,"ota":650,"res":651,"Ġtilad":652,"Ġtiladtilad":653,"lat":654,"ans":655,"ĠHer":656,"amp":657,"rip":658,"ier":659,"Ġsingsing":660,"Ne":661,"ĠFran":662,"Me":663,"ili":664,"ose":665,"Ġhila":666,"top":667,"ĠLe":668,"pan":669,"ez":670,"ala":671,"tr":672,"Ġngalan":673,"ein":674,"ĠLin":675,"Ġek":676,"omas":677,"ik":678,"ali":679,"if":680,"ner":681,"Ġhilahila":682,"Ġgihata":683,"ara":684,"mer":685,"ĠBre":686,"ĠGe":687,"Ġgihatagan":688,"ther":689,"sakto":690,"der":691,"Pse":692,"fan":693,"Ġeksakto":694,"oides":695,"yo":696,"chi":697,"me":698,"ke":699,"ĠStefan":700,"ĠEdward":701,"ler":702,"odes":703,"til":704,"ley":705,"helm":706,"tang":707,"sh":708,"ĠJean":709,"rac":710,"st":711,"anap":712,"Ġta":713,"oth":714,"tel":715,"ĠThomas":716,"ĠWilhelm":717,"uning":718,"Ġbana":719,"ĠBreuning":720,"Ġde":721,"Ġpag":722,"ym":723,"ĠGeor":724,"Ġmananap":725,"ĠWalker":726,"Ġda":727,"ĠJohann":728,"za":729,"ĠHenry":730,"Ġnig":731,"ĠFried":732,"uri":733,"rop":734,"ĠFriedrich":735,"Ġbanaog":736,"ulata":737,"ugus":738,"usa":739,"ck":740,"pin":741,"Lep":742,"ung":743,"han":744,"art":745,"ĠBr":746,"Ġj":747,"ulak":748,"ce":749,"lav":750,"acqu":751,"ĠFre":752,"ĠAugus":753,"ĠRob":754,"tri":755,"Ġ182":756,"cta":757,"ila":758,"ord":759,"pha":760,"Ã¼":761,"Ġli":762,"ick":763,"icus":764,"Ġch":765,"tia":766,"tar":767,"odo":768,"ilus":769,"Ac":770,"eter":771,"ĠAr":772,"ulus":773,"ras":774,"Ġba":775,"Ġkaga":776,"isi":777,"tom":778,"ld":779,"yll":780,"Ġ1994":781,"ox":782,"ren":783,"pi":784,"tos":785,"Ġbulak":786,"uda":787,"opsis":788,"ennis":789,"ach":790,"ongi":791,"tera":792,"ĠJose":793,"tum":794,"angan":795,"yd":796,"Rh":797,"Ġ1983":798,"ĠChris":799,"rid":800,"Ġ1998":801,"Ġ1993":802,"cis":803,"erus":804,"Ġ2004":805,"eg":806,"lip":807,"cia":808,"Pseudo":809,"ine":810,"Ġ1988":811,"mp":812,"ĠHermann":813,"ĠGi":814,"las":815,"Ġ1991":816,"Ġcon":817,"Ġ1908":818,"enta":819,"ĠU":820,"Ġ2000":821,"Ġ1911":822,"ĠSa":823,"Ġniini":824,"mb":825,"yan":826,"Ġ1987":827,"ĠHein":828,"Ġr":829,"aul":830,"Ġ1992":831,"Ġ1981":832,"Ġ1910":833,"ii":834,"rach":835,"ĠAn":836,"Ġ1965":837,"Ġan":838,"Ġrep":839,"Ġkagaangan":840,"Ã¶":841,"Ġnahi":842,"Ġ2003":843,"Ġ1995":844,"eng":845,"su":846,"Ġar":847,"mith":848,"idi":849,"ĠHar":850,"ĠHeinrich":851,"orus":852,"Ġ1990":853,"yon":854,"sus":855,"yang":856,"Ġ1979":857,"Th":858,"Ġ1938":859,"Ġ1968":860,"iv":861,"Ġ1927":862,"ex":863,"Ġ1984":864,"Ġ1986":865,"osus":866,"ĠBo":867,"Ġmatang":868,"Ġ2002":869,"ko":870,"ĠSh":871,"Ġbaki":872,"Ġ1999":873,"toma":874,"one":875,"ophila":876,"ari":877,"Ġ1971":878,"los":879,"inus":880,"Ġpa":881,"Ġ1997":882,"Ang":883,"Ġ1980":884,"anaw":885,"Ġreptil":886,"Ġ1985":887,"ĠBar":888,"Ġ1915":889,"chus":890,"Ġbit":891,"Ġ1964":892,"zi":893,"ci":894,"ĠAnd":895,"ĠJoseph":896,"Ġalind":897,"Ġalindanaw":898,"Ġ1978":899,"des":900,"ornis":901,"Ġ1989":902,"Ġ1977":903,"Ġw":904,"Ġ2006":905,"Ġ1924":906,"Ġ1967":907,"Ġ1974":908,"cu":909,"Ġ1962":910,"cher":911,"Ġru":912,"Ġga":913,"Ġ1907":914,"Ġlongi":915,"yph":916,"Ġ1970":917,"Ġatong":918,"usta":919,"Ġ1906":920,"Ġsub":921,"Ġ2005":922,"ond":923,"Ġlum":924,"Ġpar":925,"ĠGeorge":926,"Ġ1926":927,"Ġ1972":928,"Ġ1982":929,"Ġ1996":930,"illa":931,"Ġ1969":932,"ille":933,"mo":934,"ni":935,"Mic":936,"Ġmac":937,"Ġflav":938,"ĠSmith":939,"oi":940,"Ġ1973":941,"Ġ1936":942,"tian":943,"rom":944,"rev":945,"imon":946,"tro":947,"otus":948,"Ġlumot":949,"ĠBor":950,"ÃŃ":951,"Ġ1934":952,"uma":953,"Ġ2007":954,"Ġsisi":955,"toc":956,"orm":957,"ers":958,"Ġ1935":959,"Ġ1960":960,"Usa":961,"yi":962,"bo":963,"rys":964,"arles":965,"ua":966,"alus":967,"ho":968,"Ġ1939":969,"Ġog":970,"Ġ1925":971,"tz":972,"urus":973,"kita":974,"ĠCharles":975,"ames":976,"Ġpul":977,"Ġ1922":978,"ele":979,"Ġ1929":980,"kab":981,"rig":982,"eta":983,"mar":984,"ffer":985,"ulatus":986,"ubos":987,"Ġ1928":988,"und":989,"ui":990,"Ġnag":991,"ile":992,"kay":993,"ty":994,"Ġmakita":995,"alli":996,"toph":997,"Ġ1961":998,"tha":999,"Ġ2001":1000,"co":1001,"eni":1002,"ĠGra":1003,"ĠCa":1004,"Ġ1914":1005,"pis":1006,"berg":1007,"ram":1008,"una":1009,"ze":1010,"ĠLou":1011,"Pol":1012,"ĠDe":1013,"ĠJames":1014,"Ġnahiubos":1015,"Ġusa":1016,"Ġiyang":1017,"Ġ1902":1018,"ita":1019,"ĠOs":1020,"pus":1021,"elli":1022,"acques":1023,"Ġ1956":1024,"tyl":1025,"tig":1026,"lus":1027,"ĠRobert":1028,"Ġ1905":1029,"rick":1030,"wig":1031,"ĠMartin":1032,"old":1033,"Ġuk":1034,"amb":1035,"oda":1036,"ĠLa":1037,"tica":1038,"Ġper":1039,"ĠHenri":1040,"ĠLuc":1041,"Ġ1959":1042,"ĠChristian":1043,"ĠRe":1044,"opus":1045,"icol":1046,"aria":1047,"ĠLouis":1048,"Ġ1975":1049,"orn":1050,"Ġ1913":1051,"Ap":1052,"ĠPier":1053,"ĠSimon":1054,"Ġrip":1055,"esc":1056,"ski":1057,"Ġ1963":1058,"Ġ1923":1059,"Ġ1932":1060,"gin":1061,"ham":1062,"ryp":1063,"rov":1064,"La":1065,"Ġ1937":1066,"Ġdi":1067,"tip":1068,"ela":1069,"ĠRa":1070,"oni":1071,"Ġ1904":1072,"ĠVan":1073,"olyo":1074,"Ġ1901":1075,"gat":1076,"ĠLinna":1077,"omp":1078,"ias":1079,"Ġwa":1080,"ĠBa":1081,"ocker":1082,"Ġripolyo":1083,"ych":1084,"illi":1085,"Mega":1086,"ĠPeter":1087,"ĠMey":1088,"eps":1089,"Ġ1976":1090,"io":1091,"Ġ1895":1092,"bay":1093,"Ġ1903":1094,"ĠBer":1095,"gaster":1096,"ĠZh":1097,"yg":1098,"Ġ1921":1099,"ek":1100,"Ġob":1101,"ĠVer":1102,"Ġ1898":1103,"Ġun":1104,"Ġ1957":1105,"ly":1106,"Ġ1966":1107,"Ġ1941":1108,"uhi":1109,"ĠDav":1110,"onia":1111,"ĠKarl":1112,"Ġro":1113,"Ġsp":1114,"Ġ1917":1115,"Pro":1116,"Ġalb":1117,"Ar":1118,"tella":1119,"tte":1120,"Ġ1951":1121,"ins":1122,"Al":1123,"Am":1124,"ib":1125,"ĠThe":1126,"hong":1127,"mid":1128,"Ġ1955":1129,"Ã³":1130,"Or":1131,"On":1132,"Ã¡":1133,"Ġruf":1134,"Ġbrev":1135,"hilip":1136,"ĠAuguste":1137,"Ġmin":1138,"Ġqu":1139,"car":1140,"Ġ1952":1141,"enia":1142,"ĠFor":1143,"ĠKa":1144,"euc":1145,"Ġ1954":1146,"uric":1147,"ĠPer":1148,"Ġ1953":1149,"imp":1150,"eck":1151,"ood":1152,"Ġ1912":1153,"dia":1154,"est":1155,"sum":1156,"tata":1157,"ale":1158,"ver":1159,"row":1160,"Ġ1900":1161,"oew":1162,"ott":1163,"agus":1164,"ense":1165,"Ġ1897":1166,"rin":1167,"phi":1168,"Ġ1940":1169,"ky":1170,"ĠLud":1171,"cha":1172,"iel":1173,"ĠCocker":1174,"eth":1175,"ĠCockerell":1176,"Ana":1177,"ĠPierre":1178,"Sc":1179,"tt":1180,"ĠGil":1181,"ticus":1182,"xi":1183,"yia":1184,"ĠBur":1185,"aga":1186,"ipes":1187,"arp":1188,"ĠPar":1189,"ĠMc":1190,"Ġ(":1191,"ĠFa":1192,"ĠMich":1193,"Ġhi":1194,"ĠCla":1195,"sen":1196,"Ġuhong":1197,"Ġ1909":1198,"uh":1199,"udol":1200,"ĠLudwig":1201,"ĠHans":1202,"Ġ1931":1203,"ve":1204,"Ġ1918":1205,"ĠPaul":1206,"Ġ1896":1207,"Ġdis":1208,"ĠLi":1209,"ĠRudol":1210,"Ġ1899":1211,"yb":1212,"ny":1213,"Ġbul":1214,"ĠTa":1215,"Ã¼n":1216,"Plat":1217,"ĠFer":1218,"ĠSchmid":1219,"oceph":1220,"sis":1221,"Ġmar":1222,"amer":1223,"ĠCo":1224,"run":1225,"thoph":1226,"ult":1227,"rad":1228,"eu":1229,"Ġ2008":1230,"vi":1231,"lo":1232,"Ġmag":1233,"Ġ1950":1234,"Ġmon":1235,"ĠGÃ¼n":1236,"ĠHol":1237,"Mac":1238,"nus":1239,"ew":1240,"Ġ1894":1241,"Ġdagat":1242,"Ġor":1243,"ĠPhilip":1244,"Ġz":1245,"Ġ1919":1246,"itz":1247,"amber":1248,"Ġo":1249,"ason":1250,"rena":1251,"ido":1252,"yla":1253,"Ġ1930":1254,"ĠGÃ¼nther":1255,"Ġ1916":1256,"Ġlin":1257,"uta":1258,"Ġ1958":1259,"rons":1260,"elan":1261,"fre":1262,"ogon":1263,"Chrys":1264,"uncta":1265,"Hyd":1266,"mac":1267,"ĠMeyrick":1268,"Ġ1933":1269,"ĠYang":1270,"tif":1271,"ĠRich":1272,"ĠGu":1273,"ĠAd":1274,"ste":1275,"Eu":1276,"asa":1277,"Ġdo":1278,"evich":1279,"Sten":1280,"Ġ1878":1281,"Per":1282,"ĠGusta":1283,"ĠAlbert":1284,"ĠFrancis":1285,"nata":1286,"ĠKie":1287,"nes":1288,"Ġbay":1289,"Camp":1290,"Ġbitin":1291,"ois":1292,"icola":1293,"lor":1294,"ĠGilbert":1295,"he":1296,"ularis":1297,"ĠFis":1298,"Ġ1889":1299,"ĠChamber":1300,"phus":1301,"yx":1302,"lla":1303,"Mes":1304,"Jacques":1305,"ĠKieffer":1306,"Ġcar":1307,"ova":1308,"ĠFreder":1309,"ĠMor":1310,"var":1311,"oser":1312,"Ġaluhi":1313,"Ġaluhipan":1314,"opa":1315,"Li":1316,"Ġ181":1317,"elia":1318,"tti":1319,"ĠEr":1320,"ĠSan":1321,"ĠDu":1322,"ĠJr":1323,"ascia":1324,"Trich":1325,"ĠSp":1326,"ama":1327,"ĠX":1328,"ĠDel":1329,"ĠGor":1330,"ĠChamberlin":1331,"Ġ1888":1332,"lec":1333,"ĠBrun":1334,"Ġoch":1335,"ling":1336,"Co":1337,"ĠSt":1338,"Ġ1863":1339,"wor":1340,"Hyp":1341,"ĠRichard":1342,"ks":1343,"Ġmi":1344,"abric":1345,"emi":1346,"ĠLinnaeus":1347,"ecker":1348,"Lepto":1349,"Ġap":1350,"Di":1351,"Ġ1887":1352,"les":1353,"Tet":1354,"Ġfus":1355,"ĠMauric":1356,"onald":1357,"sc":1358,"ĠLoew":1359,"ĠFrederick":1360,"Ġkin":1361,"ipennis":1362,"gen":1363,"Ġ180":1364,"ĠKar":1365,"ĠMaurice":1366,"ĠAndre":1367,"land":1368,"Ġ1891":1369,"osc":1370,"ĠCur":1371,"orne":1372,"ĠHu":1373,"ĠFabric":1374,"opter":1375,"tero":1376,"ĠFabricius":1377,"lab":1378,"iae":1379,"ingbay":1380,"Ġbayingbay":1381,"Ġbayingbaying":1382,"gus":1383,"ĠGustav":1384,"Ġ1892":1385,"anga":1386,"thus":1387,"ht":1388,"gia":1389,"soni":1390,"unc":1391,"aniel":1392,"Ġte":1393,"ilis":1394,"ĠGira":1395,"Ġab":1396,"escens":1397,"Ġtri":1398,"Ġex":1399,"Ex":1400,"Ġ1890":1401,"den":1402,"ophora":1403,"Ġ1920":1404,"ĠGeorg":1405,"ĠSc":1406,"ied":1407,"oloph":1408,"ĠRudolph":1409,"ida":1410,"ĠEdwards":1411,"Sp":1412,"oz":1413,"ĠTheodo":1414,"entris":1415,"ĠGirault":1416,"En":1417,"Ġpro":1418,"Ġ1885":1419,"Cal":1420,"Cera":1421,"ĠMe":1422,"ocera":1423,"be":1424,"uis":1425,"optera":1426,"olus":1427,"Ġca":1428,"no":1429,"Ġ1942":1430,"Ġtu":1431,"ĠBal":1432,"tag":1433,"ese":1434,"Dic":1435,"onte":1436,"ormis":1437,"omyza":1438,"ylla":1439,"Ġra":1440,"rea":1441,"Ġoc":1442,"Ġac":1443,"ĠJac":1444,"Ġmao":1445,"ĠTow":1446,"Ġ178":1447,"obius":1448,"Phyll":1449,"Ġ179":1450,"ĠbulÃŃ":1451,"ussu":1452,"ĠSer":1453,"ore":1454,"ĠHo":1455,"uon":1456,"ĠFrey":1457,"ger":1458,"alloch":1459,"gar":1460,"ban":1461,"osoma":1462,"bia":1463,"ussure":1464,"yna":1465,"inea":1466,"ĠDaniel":1467,"bus":1468,"Ġth":1469,"Ġvi":1470,"Ġti":1471,"cata":1472,"Ġ1838":1473,"Tri":1474,"Tip":1475,"yllum":1476,"igen":1477,"osp":1478,"chen":1479,"Phy":1480,"tylus":1481,"ere":1482,"ĠDis":1483,"Gl":1484,"Ġy":1485,"ĠCamer":1486,"sey":1487,"ĠHarris":1488,"ock":1489,"ĠFair":1490,"arc":1491,"lem":1492,"Ġ1944":1493,"ix":1494,"ĠQ":1495,"kan":1496,"pe":1497,"onis":1498,"ĠSaussure":1499,"ĠMalloch":1500,"oid":1501,"Onthoph":1502,"ĠDavid":1503,"Ġ1865":1504,"Ġten":1505,"Ġ1886":1506,"ĠCar":1507,"âĢ":1508,"Ġhum":1509,"Eur":1510,"ire":1511,"..<|":1512,"ĠCameron":1513,"Ġ1947":1514,"ene":1515,"Dia":1516,"rand":1517,"ĠPa":1518,"elon":1519,"Onthophagus":1520,"ellus":1521,"ven":1522,"ĠBoris":1523,"Tipula":1524,"cer":1525,"ster":1526,"Ġ1868":1527,"ĠThom":1528,"Ġ1858":1529,"Anth":1530,"nig":1531,"ilang":1532,"asc":1533,"Ġ1948":1534,"bilis":1535,"Ġbar":1536,"pes":1537,"gal":1538,"aris":1539,"ĠThomson":1540,"Ġ1851":1541,"ĠWat":1542,"Ġer":1543,"Lasi":1544,"hard":1545,"Cor":1546,"Ġ1943":1547,"Ġ1869":1548,"yne":1549,"Ġ1949":1550,"ms":1551,"ister":1552,"ead":1553,"Ġlu":1554,"onotus":1555,"so":1556,"lf":1557,"anensis":1558,"thur":1559,"Ps":1560,"ĠOli":1561,"Ġ175":1562,"uer":1563,"gna":1564,"Ġsch":1565,"icornis":1566,"umon":1567,"rosophila":1568,"her":1569,"sia":1570,"uha":1571,"ophaga":1572,"ino":1573,"enz":1574,"Ġ1882":1575,"ĠVic":1576,"pp":1577,"Ġ1864":1578,"ĠChen":1579,"Aph":1580,"van":1581,"hn":1582,"hoe":1583,"Ġmang":1584,"ĠWang":1585,"Si":1586,"tod":1587,"nard":1588,"bur":1589,"tu":1590,"Ġquad":1591,"uel":1592,"Dend":1593,"omus":1594,"Ġrub":1595,"ska":1596,"ĠCres":1597,"thi":1598,"Ã§":1599,"erc":1600,"aker":1601,"Ġ1946":1602,"tatus":1603,"ĠLucas":1604,"Ġ1758":1605,"enna":1606,"ovit":1607,"ĠEmer":1608,"ĠDelong":1609,"ĠMacqu":1610,"Ġgrac":1611,"All":1612,"ĠMacquart":1613,"ophyllum":1614,"oto":1615,"arus":1616,"lix":1617,"mia":1618,"Ġ1859":1619,"Ag":1620,"As":1621,"esi":1622,"edo":1623,"orc":1624,"Ġ1877":1625,"Con":1626,"ĠBates":1627,"Col":1628,"occus":1629,"ĠPet":1630,"ĠKra":1631,"Hen":1632,"Para":1633,"fer":1634,"Ġ1945":1635,"ulb":1636,"ukab":1637,"ves":1638,"Ġukab":1639,"ĠHard":1640,"ĠBen":1641,"ĠArthur":1642,"rap":1643,"ĠMoser":1644,"Ġ2009":1645,"Chi":1646,"oss":1647,"ĠLec":1648,"osia":1649,"Pha":1650,"Ġ1830":1651,"go":1652,"orh":1653,"Ġ177":1654,"hr":1655,"kal":1656,"bakay":1657,"ĠMu":1658,"Ġbakay":1659,"Ġbakaybakay":1660,"Ġ1862":1661,".-":1662,"ĠJuli":1663,"ael":1664,"idia":1665,"utk":1666,"col":1667,"ĠMat":1668,"Ġniad":1669,"Ġkini":1670,"itch":1671,"yth":1672,"ĠErn":1673,"Ġser":1674,"inc":1675,"ken":1676,"tre":1677,"ĠGa":1678,"omor":1679,"Ep":1680,"Ġ1893":1681,"Ġus":1682,"Ã§ois":1683,"ĠLeon":1684,"ĠHardy":1685,"Mar":1686,"mis":1687,"tea":1688,"thal":1689,"ĠLeconte":1690,"Ġdak":1691,"ull":1692,"Ma":1693,"Ġspin":1694,"ema":1695,"tana":1696,"Ġ1861":1697,"ĠFranÃ§ois":1698,"Ġbituon":1699,"inata":1700,"Cryp":1701,"ns":1702,"zon":1703,"ts":1704,"And":1705,"Ġpse":1706,"Ġcor":1707,"dt":1708,"Leuc":1709,"ĠFischer":1710,"ĠMik":1711,"Ġsiya":1712,"Ġcol":1713,"oglos":1714,"Brach":1715,"ustra":1716,"iner":1717,"Ġpulgas":1718,"ĠMary":1719,"icolor":1720,"Heli":1721,"ĠNor":1722,"Ġmangung":1723,"Ġ1855":1724,"utkut":1725,"Ġmangungutkut":1726,"ĠMac":1727,"par":1728,"ĠSta":1729,"per":1730,"toni":1731,"ĠJacob":1732,"ĠIan":1733,"Ġ1857":1734,".,":1735,"Ġ20":1736,"ĠEm":1737,"Sca":1738,"Ġniadtong":1739,"ĠMon":1740,"ĠVictor":1741,"Ġ1875":1742,"ĠBecker":1743,"spis":1744,"ĠBaker":1745,"Ġ1853":1746,"rion":1747,"rans":1748,"hoeff":1749,"ĠCresson":1750,"Ġinter":1751,"ĠHay":1752,"char":1753,"ira":1754,"tris":1755,"Bulb":1756,"oris":1757,"idium":1758,"Micro":1759,"ĠCasey":1760,"ĠJohannes":1761,"mata":1762,"Mon":1763,"eto":1764,"Ox":1765,"oec":1766,"llus":1767,"Ġ1846":1768,"uro":1769,"ĠBan":1770,"Ġ1852":1771,"Ġ1872":1772,"Lim":1773,"Ca":1774,"kin":1775,"Das":1776,"orum":1777,"ass":1778,"ĠHa":1779,"oneura":1780,"Ġ1871":1781,"ĠSchmidt":1782,"phy":1783,"ĠOt":1784,"teri":1785,"Henri":1786,"Sa":1787,"tant":1788,"ĠGre":1789,"ulic":1790,"ue":1791,"ald":1792,"Ã¨":1793,"Cha":1794,"Ġx":1795,"enus":1796,"by":1797,"ovi":1798,"ien":1799,"del":1800,"Ġ1860":1801,"orax":1802,"Phil":1803,"Cop":1804,"tetti":1805,"ess":1806,"osta":1807,"war":1808,"inia":1809,"Ġmic":1810,"Ġbis":1811,"tettix":1812,"Ġpalli":1813,"rema":1814,"hl":1815,"Ġilang":1816,"therine":1817,"gata":1818,"Bulbophyllum":1819,"Ġ1873":1820,"mon":1821,"ars":1822,"ĠSz":1823,"ĠFranz":1824,"uz":1825,"Meta":1826,"ĠEmery":1827,"ild":1828,"Pach":1829,"Sim":1830,"uensis":1831,"sky":1832,"Ġver":1833,"Ġ1874":1834,"aptis":1835,"ĠVerhoeff":1836,"ĠKatherine":1837,"ĠMah":1838,"fred":1839,"ĠCurran":1840,"ryo":1841,"lob":1842,"eria":1843,"ĠBla":1844,"chis":1845,"ashi":1846,"chard":1847,"enes":1848,"min":1849,"ridge":1850,"ĠEnd":1851,"ield":1852,"Ġ201":1853,"ĠNik":1854,"Emp":1855,"shm":1856,"Dip":1857,"lli":1858,"ulium":1859,"hang":1860,"ĠMartins":1861,"Op":1862,"ĠJulius":1863,"natus":1864,"Doli":1865,"con":1866,"off":1867,"Myc":1868,"ĠWillis":1869,"ĠForel":1870,"eier":1871,"Ġcur":1872,"Rha":1873,"fera":1874,"hin":1875,"milis":1876,"Ġ1866":1877,"ĠPol":1878,"tion":1879,"ĠNe":1880,"ello":1881,"ĠAugust":1882,"ĠEv":1883,"wood":1884,"ĠBlan":1885,"Ġop":1886,"Ġpseudo":1887,"ĠAdo":1888,"Ġful":1889,"ji":1890,"Ġto":1891,"Ġat":1892,"tomyia":1893,"ĠCol":1894,"Ġsc":1895,"rix":1896,"elus":1897,"imus":1898,"rown":1899,"Ġcap":1900,"ĠSand":1901,"ĠMeigen":1902,"mes":1903,"emann":1904,"owska":1905,"trand":1906,"dis":1907,"Ġpic":1908,"uno":1909,"ĠKei":1910,"tone":1911,"ĠMay":1912,"Ġ1842":1913,"Ġbi":1914,"ope":1915,"ĠAlan":1916,"dus":1917,"ĠPic":1918,"neumon":1919,"ĠCon":1920,"olas":1921,"maire":1922,"ĠHam":1923,"ophorus":1924,"ĠBrown":1925,"nick":1926,"Ophi":1927,"ĠLucien":1928,"rÃ©":1929,"linea":1930,"ĠBanks":1931,"entalis":1932,"Ġnas":1933,"ign":1934,"unka":1935,"anc":1936,"ano":1937,"ring":1938,"Ġliryo":1939,"Apan":1940,"ĠRonald":1941,"Ġ1849":1942,"ĠKir":1943,"evi":1944,"ĠAll":1945,"Simulium":1946,"Car":1947,"rol":1948,"ĠOtte":1949,"ĠAnton":1950,"rh":1951,"Heter":1952,"use":1953,"Ġdec":1954,"ĠTim":1955,"ocephalus":1956,"Ġ1850":1957,"din":1958,"idus":1959,"ney":1960,"troc":1961,"rum":1962,"Ġcras":1963,"Ġsab":1964,"ĠAshm":1965,"ctylus":1966,"ĠAb":1967,"ĠBol":1968,"ĠZhang":1969,"ĠAshmead":1970,"ĠHel":1971,"oba":1972,"ingh":1973,"bach":1974,"ĠLind":1975,"Ġlingin":1976,"bis":1977,"asch":1978,"ĠThor":1979,"Sph":1980,"Ġmo":1981,"ĠRen":1982,"ane":1983,"ĠFairmaire":1984,"odon":1985,"inis":1986,"ĠClar":1987,"field":1988,"thes":1989,"otrich":1990,"lein":1991,"aptiste":1992,"ĠErnst":1993,"app":1994,"Xanth":1995,"ĠMario":1996,"bayan":1997,"Ġ1867":1998,"Ġsin":1999,"ycl":2000,"Ġnigri":2001,"ĠNav":2002,"Ã¡s":2003,"ium":2004,"Ġha":2005,"Acanth":2006,"ĠMahunka":2007,"phan":2008,"Ã³r":2009,"ech":2010,"edes":2011,"enko":2012,"onard":2013,"apon":2014,"ĠTheodor":2015,"Ġfusc":2016,"ĠAch":2017,"ĠWied":2018,"ĠSharp":2019,"wald":2020,"ĠMichael":2021,"Pter":2022,"ĠSandÃ³r":2023,"Ba":2024,"ja":2025,"ĠDistant":2026,"teles":2027,"enn":2028,"Ġmul":2029,"Kini":2030,"Megach":2031,"Drosophila":2032,"eman":2033,"ĠFÃ©":2034,"kawa":2035,"haus":2036,"rog":2037,"Ġmelan":2038,"Ġins":2039,"ĠGaul":2040,"Ġ1881":2041,"Ġ1883":2042,"ĠPetrov":2043,"ĠGar":2044,"ĠPor":2045,"ĠNikola":2046,"Ġ1879":2047,"tops":2048,"bu":2049,"phora":2050,"ĠSay":2051,"ith":2052,"ĠGauld":2053,"Dolich":2054,"Megachile":2055,"Hop":2056,"obias":2057,"tac":2058,"opogon":2059,"ordan":2060,"oglossum":2061,"He":2062,"Oli":2063,"Cer":2064,"ĠLo":2065,"ĠDo":2066,"imi":2067,"ĠGo":2068,"Ġkon":2069,"Ġvan":2070,"roch":2071,"ome":2072,"asil":2073,"ruc":2074,"qua":2075,"lic":2076,"ephalus":2077,"ĠLew":2078,"Andrena":2079,"ĠSha":2080,"Ġimp":2081,"mas":2082,"elle":2083,"My":2084,"ĠBri":2085,"tipennis":2086,"ineau":2087,"vis":2088,"ĠDall":2089,"ĠKeith":2090,"iella":2091,"dor":2092,"Ġbrun":2093,"ĠWar":2094,"ĠErich":2095,"wo":2096,"olf":2097,"ĠSpen":2098,"ugo":2099,"ĠSam":2100,"ĠGer":2101,"ĠTobias":2102,"void":2103,"alc":2104,"ĠKoch":2105,"ĠSil":2106,"omala":2107,"ventris":2108,"oshi":2109,"Ġco":2110,"voidy":2111,"sic":2112,"ĠRobineau":2113,"desvoidy":2114,"fel":2115,"Ge":2116,"Ġmay":2117,"night":2118,"Ste":2119,"lum":2120,"Lasioglossum":2121,"Ġkay":2122,"isch":2123,"ĠLÃ©":2124,"Ġ1856":2125,"Eup":2126,"rag":2127,"Amph":2128,"asciata":2129,"ĠStrand":2130,"Ser":2131,"ret":2132,"nÃ©":2133,"ting":2134,"mit":2135,"lay":2136,"zee":2137,"entrus":2138,"ĠMi":2139,"sley":2140,"ipp":2141,"ezzi":2142,"tsch":2143,"ĠMas":2144,"ocephala":2145,"lu":2146,"iceps":2147,"Ġhir":2148,"de":2149,"ophilus":2150,"opard":2151,"eti":2152,"Ã¥":2153,"ĠMan":2154,"Cla":2155,"oper":2156,"Ġ1847":2157,"ĠJordan":2158,"Dicran":2159,"unctata":2160,"Bar":2161,"ĠMarsh":2162,"ĠWiedemann":2163,"mad":2164,"issi":2165,"ulp":2166,"yche":2167,"selia":2168,"ĠMartha":2169,"neri":2170,"wag":2171,"Ġ1834":2172,"ĠScott":2173,"bar":2174,"Tab":2175,"ĠDuzee":2176,"ĠBezzi":2177,"Ġ1839":2178,"men":2179,"tomus":2180,"kins":2181,"Ġmed":2182,"ĠHarold":2183,"ĠBrunner":2184,"Ġele":2185,"ĠPlat":2186,"Ġhuman":2187,"ĠHe":2188,"Ġ1854":2189,"tius":2190,"alpus":2191,"icum":2192,"aspis":2193,"ĠMaria":2194,"erlein":2195,"ĠHart":2196,"Ġ1880":2197,"stedt":2198,"tenw":2199,"ĠWhi":2200,"iensis":2201,"Ġne":2202,"Ġgu":2203,"ĠGraf":2204,"Megaselia":2205,"ĠPlatnick":2206,"ĠWattenw":2207,"ĠWattenwyl":2208,"ies":2209,"icollis":2210,"hason":2211,"orst":2212,"Chlor":2213,"unay":2214,"eller":2215,"Ġ1844":2216,"Ġkinhason":2217,"ĠBe":2218,"ĠEdgar":2219,"racon":2220,"ĠLewis":2221,"catus":2222,"gren":2223,"ĠSchl":2224,"ĠSamuel":2225,"akowska":2226,"Orth":2227,"Ġaustra":2228,"ĠPÃ©":2229,"eler":2230,"ĠLeonard":2231,"Ġ1884":2232,"idion":2233,"tae":2234,"unda":2235,"emb":2236,"ĠSchltr":2237,"chneumon":2238,"ĠVasil":2239,"worakowska":2240,"Ġet":2241,"ĠJacques":2242,"ĠAdolf":2243,"Ġsu":2244,"Ġparv":2245,"ĠMarie":2246,"venh":2247,"Aus":2248,"was":2249,"ĠKnight":2250,"Ġusab":2251,"zer":2252,"antha":2253,"ttems":2254,"iss":2255,"ĠDworakowska":2256,"Tabanus":2257,"ĠShi":2258,"ĠDa":2259,"Ġkan":2260,"ĠNorman":2261,"ollis":2262,"ĠNa":2263,"Ã¤":2264,"ĠIrena":2265,"Ġdakbayan":2266,"ĠVi":2267,"ĠAttems":2268,"uleng":2269,"ulosa":2270,"oung":2271,"tria":2272,"Ġim":2273,"anum":2274,"Hol":2275,"gm":2276,"ford":2277,"Ġpal":2278,"ugh":2279,"ĠMel":2280,"Ġvar":2281,"ĠTaka":2282,"tina":2283,"ux":2284,"Ġacu":2285,"orea":2286,"meister":2287,"Cten":2288,"pia":2289,"Ġ1848":2290,"ĠQu":2291,"ure":2292,"ĠVa":2293,"ĠOtto":2294,"ĠSpencer":2295,"vu":2296,"ĠRoth":2297,"rica":2298,"angay":2299,"Ġpol":2300,"ĠWer":2301,"anthus":2302,"ĠFel":2303,"ĠCarlo":2304,"med":2305,"rob":2306,"lick":2307,"Ġhu":2308,"win":2309,"ĠBurmeister":2310,"ĠTownes":2311,"uth":2312,"ĠAllen":2313,"tal":2314,"ilum":2315,"eira":2316,"camb":2317,"roph":2318,"arm":2319,"ogna":2320,"Sch":2321,"mip":2322,"ĠChopard":2323,"Dich":2324,"oensis":2325,"law":2326,"Ġph":2327,"ymn":2328,"ĠGray":2329,"ĠRoss":2330,"ulenger":2331,"ĠEnderlein":2332,"lea":2333,"ĠGordon":2334,"cambridge":2335,"ardo":2336,"Ġnaka":2337,"ĠBel":2338,"Ġ1835":2339,"ĠForster":2340,"otes":2341,"tima":2342,"upta":2343,"ĠÃ":2344,"alla":2345,"mili":2346,"ĠBoulenger":2347,"ĠOhaus":2348,"ĠBlanchard":2349,"Dis":2350,"ville":2351,"gor":2352,"rata":2353,"Ġsul":2354,"Ġmaong":2355,"ĠNavÃ¡s":2356,"mond":2357,"Ġter":2358,"lium":2359,"utus":2360,"tens":2361,"ĠMax":2362,"ĠTur":2363,"Cy":2364,"trich":2365,"che":2366,"vuori":2367,"hler":2368,"Ġgracilis":2369,"ĠWerner":2370,"ĠGri":2371,"Ġcomp":2372,"Ġcla":2373,"Parac":2374,"ynchus":2375,"ĠRenÃ©":2376,"ller":2377,"Ġ1840":2378,"Myr":2379,"illo":2380,"lius":2381,"tula":2382,"Ġleuc":2383,"ulicoides":2384,"irth":2385,"rius":2386,"ĠKim":2387,"tigma":2388,"Ġmaka":2389,"etti":2390,"etter":2391,"sk":2392,"Ġori":2393,"enis":2394,"ĠGod":2395,"ĠOliver":2396,"ungod":2397,"ĠNich":2398,"maculata":2399,"Ġelegan":2400,"Syn":2401,"ĠCha":2402,"for":2403,"Ġand":2404,"Ġ1829":2405,"ĠChristoph":2406,"Ġme":2407,"ĠZa":2408,"lac":2409,"Ta":2410,"kingh":2411,"ĠPasc":2412,"ĠPolkingh":2413,"ĠPascoe":2414,"ĠPolkinghorne":2415,"ĠWu":2416,"ĠRei":2417,"Culicoides":2418,"Ġann":2419,"omys":2420,"ĠRauno":2421,"ĠLinnavuori":2422,"ĠBro":2423,"ressi":2424,"esse":2425,"inger":2426,"heeler":2427,"Ġ176":2428,"loc":2429,"Ġam":2430,"Sym":2431,"chth":2432,"olis":2433,"lam":2434,"ĠMello":2435,"ĠWa":2436,"lyp":2437,"ind":2438,"uv":2439,"ole":2440,"Ġdili":2441,"lach":2442,"lige":2443,"ĠAm":2444,"Cyr":2445,"lata":2446,"uper":2447,"tog":2448,"ĠMeli":2449,"ecta":2450,"ĠWest":2451,"Ġobsc":2452,"zia":2453,"Ġri":2454,"ĠWirth":2455,"ĠWheeler":2456,"oman":2457,"Ġind":2458,"ĠMatsum":2459,"frons":2460,"Ġgip":2461,"Ã¥l":2462,"ĠNiel":2463,"ĠPerkins":2464,"Is":2465,"pon":2466,"ĠSerge":2467,"yer":2468,"ĠMo":2469,"Ġ1870":2470,"ĠStein":2471,"ĠFriese":2472,"olia":2473,"ordani":2474,"ĠAlfred":2475,"ĠHolz":2476,"Ġas":2477,"Ġsiy":2478,"Ġgikan":2479,"ligeti":2480,"ĠGupta":2481,"ĠMelichar":2482,"dto":2483,"lep":2484,"urc":2485,"quille":2486,"gmeier":2487,"jan":2488,"roy":2489,"Ġsim":2490,"Ġden":2491,"sili":2492,"Ġpunc":2493,"ĠBorgmeier":2494,"ĠLinsley":2495,"Ple":2496,"Ġse":2497,"tol":2498,"ĠEug":2499,"orcip":2500,"Ġmamip":2501,"ostoma":2502,"Ġmamipero":2503,"formis":2504,"ulis":2505,"orb":2506,"eva":2507,"ticola":2508,"uan":2509,"ogh":2510,"Ġfer":2511,"ĠAndrey":2512,"Odon":2513,"sak":2514,"Ġel":2515,"Ġama":2516,"cid":2517,"ĠLes":2518,"ĠFili":2519,"skij":2520,"In":2521,"cris":2522,"Ġbif":2523,"dium":2524,"ĠTowns":2525,"Melan":2526,"ellia":2527,"ĠDasch":2528,"aema":2529,"Anomala":2530,"licky":2531,"ĠSug":2532,"opis":2533,"Ġvit":2534,"ĠIvan":2535,"tob":2536,"Ġlep":2537,"ĠMalicky":2538,"ogaster":2539,"tta":2540,"Ġsimp":2541,"amps":2542,"Ther":2543,"ĠSasa":2544,"ricus":2545,"lake":2546,"ony":2547,"arius":2548,"tarsus":2549,"rik":2550,"ĠCap":2551,"ĠDi":2552,"iller":2553,"ĠThorell":2554,"yra":2555,"ĠYoung":2556,"ĠClark":2557,"Ġ1843":2558,"Aga":2559,"Schi":2560,"olep":2561,"ĠZheng":2562,"Amb":2563,"ĠTownsend":2564,"ĠStÃ¥l":2565,"uch":2566,"ĠPorter":2567,"beck":2568,"Ġbicolor":2569,"omya":2570,"eles":2571,"ĠHamp":2572,"Ġpan":2573,"ĠFall":2574,"ĠAdri":2575,"Bac":2576,"villi":2577,"gina":2578,"Ġsem":2579,"Ġcali":2580,"Eri":2581,"Xen":2582,"etis":2583,"Ec":2584,"oika":2585,"worth":2586,"Hap":2587,"berc":2588,"Ġ1841":2589,"Om":2590,"tomy":2591,"Ġmer":2592,"phon":2593,"kh":2594,"lori":2595,"Ġes":2596,"sius":2597,"ĠMatsumura":2598,"ĠGali":2599,"ĠAnto":2600,"ĠMitch":2601,"ĠHugo":2602,"mex":2603,"ctus":2604,"tura":2605,"rill":2606,"ĠSoika":2607,"bium":2608,"Hemi":2609,"opes":2610,"ĠGiordani":2611,"Ġcas":2612,"Limn":2613,"entata":2614,"omorpha":2615,"ĠDonald":2616,"No":2617,"lora":2618,"Ġros":2619,"Xyl":2620,"Ġinf":2621,"Ġdiv":2622,"uf":2623,"lim":2624,"mani":2625,"ertsch":2626,"Ġpulch":2627,"Sarc":2628,"ĠHampson":2629,"ĠNew":2630,"Ġ1837":2631,"ladimi":2632,"urivilli":2633,"ĠAntoine":2634,"of":2635,"bb":2636,"Pseud":2637,"Ã³s":2638,"ĠBalogh":2639,"our":2640,"rina":2641,"ser":2642,"kar":2643,"ĠAugustus":2644,"Rhy":2645,"nit":2646,"ĠOba":2647,"ochov":2648,"Opius":2649,"ĠBaptiste":2650,"ice":2651,"ĠTor":2652,"ĠMitchell":2653,"rico":2654,"ĠMoh":2655,"Ġpara":2656,"ĠBra":2657,"omb":2658,"ĠVladimi":2659,"Ġfulv":2660,"Pros":2661,"ĠPat":2662,"Dac":2663,"pina":2664,"gatus":2665,"tila":2666,"ĠWestwood":2667,"omi":2668,"ĠHale":2669,"Ġpra":2670,"Ġ1824":2671,"yal":2672,"ĠEn":2673,"ĠMarius":2674,"Ġ1876":2675,"Ġsila":2676,"diah":2677,"myia":2678,"Platy":2679,"ĠObadiah":2680,"Asp":2681,"tur":2682,"Ġpata":2683,"ĠJan":2684,"ĠKe":2685,"ĠGorochov":2686,"Hali":2687,"oa":2688,"ĠRed":2689,"Hem":2690,"Ġpagka":2691,"Ġgra":2692,"Ġ1833":2693,"day":2694,"urivillius":2695,"toch":2696,"ĠPapp":2697,"rem":2698,"romyza":2699,"lina":2700,"ĠIn":2701,"vestri":2702,"gu":2703,"umb":2704,"eae":2705,"Ġelon":2706,"Ġpil":2707,"ĠRehn":2708,"escamps":2709,"Ġangus":2710,"Ã¼ller":2711,"ĠAurivillius":2712,"ĠDescamps":2713,"ĠRis":2714,"ules":2715,"oste":2716,"ĠWalter":2717,"ephal":2718,"lon":2719,"Eury":2720,"ener":2721,"ĠZetter":2722,"ĠHendel":2723,"inensis":2724,"Ġniti":2725,"ĠZetterstedt":2726,"ĠAx":2727,"oria":2728,"ania":2729,"Ġvirid":2730,"ĠWilliams":2731,"dinand":2732,"tipes":2733,"inatus":2734,"eij":2735,"Ġaron":2736,"ĠRam":2737,"Ġcal":2738,"Dendro":2739,"sod":2740,"tanus":2741,"Xanthop":2742,"Ġana":2743,"udad":2744,"ĠWhite":2745,"eh":2746,"Ġaf":2747,"ĠRog":2748,"ĠSteph":2749,"Cu":2750,"ĠSchul":2751,"har":2752,"ĠBlack":2753,"ylus":2754,"ladius":2755,"omac":2756,"ebu":2757,"Hom":2758,"ĠMason":2759,"topus":2760,"ĠCoquille":2761,"Ġpus":2762,"ĠCoquillett":2763,"Ġluc":2764,"Ġgrand":2765,"rax":2766,"Ġning":2767,"phaer":2768,"aeta":2769,"ynerus":2770,"ĠNicholas":2771,"osum":2772,"Ġtur":2773,"Ġstri":2774,"andra":2775,"Ġnigric":2776,"Isch":2777,"ĠAle":2778,"Ġlam":2779,"Marie":2780,"ralis":2781,"aca":2782,"schuh":2783,"Ġsimilis":2784,"ĠAndrÃ©":2785,"ĠHolzschuh":2786,"blat":2787,"ĠSo":2788,"odi":2789,"orata":2790,"ÃŃvar":2791,"ĠBolÃŃvar":2792,"Cl":2793,"dactylus":2794,"linus":2795,"ĠLiu":2796,"ĠRav":2797,"Ġ1845":2798,"okob":2799,"iti":2800,"toides":2801,"dore":2802,"AN":2803,"Tan":2804,"ĠMann":2805,"ĠFerdinand":2806,"xa":2807,"omma":2808,"ĠWilson":2809,"Ġbra":2810,"gis":2811,"anag":2812,"ebard":2813,"ĠBouc":2814,"Fran":2815,"vin":2816,"ĠGertsch":2817,"ĠTok":2818,"Gymn":2819,"lio":2820,"Ġtuig":2821,"enea":2822,"this":2823,"Af":2824,"anae":2825,"ĠElix":2826,"okobyl":2827,"ĠEng":2828,"Apanteles":2829,"ĠSugbo":2830,"ĠKarsch":2831,"sig":2832,"ophy":2833,"lint":2834,"Che":2835,"Cycl":2836,"ĠArrow":2837,"ĠFlint":2838,"ĠWe":2839,"sb":2840,"uga":2841,"Ġelegans":2842,"esti":2843,"ĠRein":2844,"ĠTurner":2845,"Ã±":2846,"apu":2847,"Forcip":2848,"ĠAnne":2849,"ppo":2850,"rops":2851,"ĠOcta":2852,"ĠSergey":2853,"ĠAxel":2854,"Pan":2855,"olophilus":2856,"Molophilus":2857,"asis":2858,"Ġtes":2859,"Ġinc":2860,"ayo":2861,"ĠMorgan":2862,"Ġintermed":2863,"ĠTimber":2864,"okobylskij":2865,"iph":2866,"ĠBelokobylskij":2867,"ĠTimberlake":2868,"him":2869,"gh":2870,"uca":2871,"inella":2872,"uck":2873,"ĠRay":2874,"Ġaff":2875,"ifer":2876,"lei":2877,"ĠSzep":2878,"tomyza":2879,"ĠMarshall":2880,"leo":2881,"Camponotus":2882,"Sarcophaga":2883,"bergi":2884,"ĠBarnard":2885,"ramma":2886,"Calli":2887,"inet":2888,"ococcus":2889,"agi":2890,"gy":2891,"Ġtawo":2892,"salis":2893,"thorax":2894,"ort":2895,"ĠBig":2896,"ity":2897,"oj":2898,"Ġpin":2899,"roma":2900,"ĠCebu":2901,"phra":2902,"tifrons":2903,"ĠHolm":2904,"Forcipomyia":2905,"iana":2906,"enc":2907,"ĠSars":2908,"Ġste":2909,"ocer":2910,"Euc":2911,"nia":2912,"enic":2913,"ish":2914,"ĠFilippo":2915,"vier":2916,"ĠHebard":2917,"Ġdid":2918,"Nem":2919,"Pla":2920,"cari":2921,"Ġmor":2922,"uglas":2923,"lich":2924,"atz":2925,"shi":2926,"ĠGro":2927,"talis":2928,"ĠKon":2929,"terus":2930,"Plec":2931,"rÃ¶":2932,"igny":2933,"iformis":2934,"ote":2935,"uard":2936,"Ġber":2937,"yser":2938,"ĠParent":2939,"ĠÃī":2940,"Proc":2941,"Ġbrach":2942,"ĠDal":2943,"ĠOctave":2944,"Aedes":2945,"phis":2946,"ifrons":2947,"Ġnigro":2948,"Ġ2010":2949,"ĠDouglas":2950,"enfel":2951,"uller":2952,"asciatus":2953,"Lis":2954,"ĠSilvestri":2955,"Ġpagp":2956,"omis":2957,"edro":2958,"ĠVladimir":2959,"anan":2960,"Ġle":2961,"esia":2962,"Na":2963,"ulo":2964,"Ġform":2965,"mina":2966,"Ġkap":2967,"tii":2968,"ĠOswald":2969,"ĠEvans":2970,"zar":2971,"ente":2972,"frey":2973,"ĠLÃ©vi":2974,"elis":2975,"ĠEll":2976,"Oc":2977,"Rhi":2978,"Ġbala":2979,"org":2980,"rep":2981,"ĠStan":2982,"ichi":2983,"ximili":2984,"ĠGodfrey":2985,"ĠHall":2986,"ubi":2987,"Ġdes":2988,"yga":2989,"lind":2990,"ardi":2991,"Lepido":2992,"Ġwala":2993,"Ġnak":2994,"Ġtungod":2995,"ĠMuir":2996,"Ġduha":2997,"Dendrobium":2998,"ĠFedo":2999,"amph":3000,"Ġtris":3001,"Eus":3002,"Poec":3003,"Ġngadto":3004,"thys":3005,"Ġlute":3006,"tophila":3007,"ĠGahan":3008,"Ery":3009,"Mer":3010,"rez":3011,"Ġalbi":3012,"ĠWend":3013,"ĠJacobus":3014,"orac":3015,"ĠMen":3016,"Ġkulak":3017,"occ":3018,"bacher":3019,"ephala":3020,"itao":3021,"ĠFisher":3022,"Ġxanth":3023,"Ġkulaknit":3024,"ylor":3025,"iros":3026,"ĠMiller":3027,"Dor":3028,"emp":3029,"ĠFÃ©lix":3030,"sten":3031,"chin":3032,"ĠKol":3033,"exic":3034,"opterus":3035,"otrichia":3036,"ĠWulp":3037,"ĠCook":3038,"ĠGalileo":3039,"pennis":3040,"elen":3041,"ĠMaximili":3042,"anni":3043,"uw":3044,"icalis":3045,"unctatus":3046,"ospilus":3047,"orhynchus":3048,"ĠBoh":3049,"ĠLam":3050,"Ġmis":3051,"Ġhay":3052,"ĠBarangay":3053,"ople":3054,"ĠCra":3055,"ĠWolf":3056,"todes":3057,"ĠSal":3058,"bala":3059,"ĠHelena":3060,"ant":3061,"ones":3062,"hiro":3063,"val":3064,"ĠLy":3065,"Ġjapon":3066,"Allium":3067,"Ġsiyudad":3068,"sworth":3069,"Ġalas":3070,"armelia":3071,"enne":3072,"Ġlongic":3073,"ĠReinhard":3074,"wal":3075,"ĠMÃ¼ller":3076,"Ġgris":3077,"Ġof":3078,"Ġcer":3079,"Ġdep":3080,"tenbacher":3081,"atum":3082,"rence":3083,"bra":3084,"mund":3085,"ĠIng":3086,"melin":3087,"ĠHammer":3088,"ago":3089,"iplos":3090,"ĠRedtenbacher":3091,"bon":3092,"kong":3093,"Ġ1836":3094,"gile":3095,"sii":3096,"ĠEphra":3097,"ynch":3098,"illus":3099,"Ġorientalis":3100,"ĠSzepligeti":3101,"ĠEllsworth":3102,"ĠEphraim":3103,"Tach":3104,"ment":3105,"mae":3106,"Dicranomyia":3107,"Ichneumon":3108,"Her":3109,"ĠVal":3110,"icauda":3111,"Trach":3112,"phia":3113,"eza":3114,"Ġtrans":3115,"Chelon":3116,"tova":3117,"incta":3118,"mitri":3119,"ude":3120,"burn":3121,"ĠÂ":3122,"ripes":3123,"Ġpoli":3124,"Tric":3125,"Ġsemi":3126,"leitao":3127,"bates":3128,"onov":3129,"ĠPoc":3130,"urium":3131,"Ġapan":3132,"ĠSchmi":3133,"iplosis":3134,"ĠAlexand":3135,"rella":3136,"ipa":3137,"Ã¶r":3138,"Dasy":3139,"ĠNielson":3140,"ĠPocock":3141,"udi":3142,"oriac":3143,"dita":3144,"ennah":3145,"Myrm":3146,"ĠKn":3147,"ĠReichen":3148,"bal":3149,"elma":3150,"olo":3151,"ĠHenrik":3152,"bro":3153,"mum":3154,"lava":3155,"ĠDmitri":3156,"hon":3157,"ett":3158,"yllus":3159,"Oxy":3160,"tans":3161,"das":3162,"ĠFennah":3163,"ulum":3164,"ĠMauri":3165,"ĠÂ»":3166,"Ġubi":3167,"Pa":3168,"ĠDes":3169,"odia":3170,"ungsod":3171,"ĠRoger":3172,"vus":3173,"ont":3174,"elys":3175,"ĠPeck":3176,"Frangile":3177,"ĠBigot":3178,"Ġ1832":3179,"ĠAntonio":3180,"ilton":3181,"eca":3182,"Chelonus":3183,"ĠKeyser":3184,"Ġsak":3185,"inson":3186,"Ġkina":3187,"Ġminor":3188,"ĠMit":3189,"ĠJules":3190,"eata":3191,"Ġalang":3192,"ĠTheodore":3193,"Anthurium":3194,"Ġaustralis":3195,"ĠCam":3196,"rips":3197,"oniscus":3198,"ĠFelt":3199,"ĠMelander":3200,"len":3201,"leg":3202,"que":3203,"ĠMikl":3204,"Pris":3205,"ĠMil":3206,"ĠMiklÃ³s":3207,"iventris":3208,"Haema":3209,"ĠBru":3210,"Pal":3211,"enter":3212,"Ġgran":3213,"Coeli":3214,"ĠKeyserling":3215,"trep":3216,"dÃ©":3217,"ypta":3218,"Sin":3219,"ima":3220,"sel":3221,"romus":3222,"ĠGravenh":3223,"ĠGravenhorst":3224,"Lyc":3225,"Pand":3226,"Ġkaron":3227,"ush":3228,"rup":3229,"olophia":3230,"Ġdidto":3231,"Mel":3232,"Ġplan":3233,"dad":3234,"elix":3235,"Phyllophaga":3236,"Ġdia":3237,"enske":3238,"my":3239,"ĠBrenske":3240,"ĠAdel":3241,"toria":3242,"ista":3243,"ĠAs":3244,"pine":3245,"Bracon":3246,"ion":3247,"icula":3248,"bl":3249,"ern":3250,"inna":3251,"onal":3252,"ĠMichel":3253,"etus":3254,"non":3255,"ĠWes":3256,"Ġconf":3257,"acc":3258,"Ger":3259,"oas":3260,"ĠLea":3261,"ĠFritz":3262,"ĠPetrovich":3263,"ĠMes":3264,"ĠKri":3265,"rier":3266,"Ġhukal":3267,"Ġdel":3268,"Bath":3269,"Lip":3270,"oplus":3271,"ĠLaw":3272,"Ġ\"":3273,"ophthal":3274,"ticollis":3275,"chenko":3276,"Ġlab":3277,"owski":3278,"ixon":3279,"rapata":3280,"Lei":3281,"ĠOr":3282,"ĠFranco":3283,"terna":3284,"Ġrh":3285,"uate":3286,"Culex":3287,"dos":3288,"eyer":3289,"Ġgarapata":3290,"drich":3291,"Ġbik":3292,"ĠLor":3293,"ĠKas":3294,"Polyp":3295,"Coel":3296,"Empis":3297,"Dys":3298,"Ġika":3299,"Mim":3300,"ack":3301,"manni":3302,"Ġgy":3303,"ĠMaximilian":3304,"iri":3305,"cauda":3306,"ĠJosef":3307,"ĠBernard":3308,"illon":3309,"lax":3310,"Ġcorn":3311,"jev":3312,"cutella":3313,"Ġbrevis":3314,"opteryx":3315,"ĠBl":3316,"Ġaffinis":3317,"ĠScha":3318,"ĠHir":3319,"Pterolophia":3320,"ĠLyman":3321,"dan":3322,"uey":3323,"ĠMeij":3324,"orium":3325,"ovitsch":3326,"ĠLane":3327,"ĠRand":3328,"apa":3329,"Chor":3330,"tori":3331,"tosa":3332,"yrtus":3333,"leyi":3334,"ĠFedotova":3335,"ĠMeijere":3336,"ĠIgna":3337,"ĠGmelin":3338,"rias":3339,"oppia":3340,"ĠPi":3341,"sil":3342,"Ġlungsod":3343,"osi":3344,"bec":3345,"Ġvic":3346,"âĢĻ":3347,"fri":3348,"ohan":3349,"iger":3350,"ezzia":3351,"terberg":3352,"kada":3353,"ulosus":3354,"ĠAlexandre":3355,"omphus":3356,"Ġpang":3357,"Ġcan":3358,"ost":3359,"Ġfor":3360,"exa":3361,"ĠBerg":3362,"Xanthoparmelia":3363,"ugi":3364,"ĠStro":3365,"ĠAchterberg":3366,"Ġ3":3367,"Ġlala":3368,"Ġsca":3369,"Ġkas":3370,"onensis":3371,"abot":3372,"Gon":3373,"Philod":3374,"ĠConrad":3375,"nil":3376,"Ġrob":3377,"omer":3378,"ieter":3379,"ifera":3380,"lineata":3381,"kov":3382,"lana":3383,"Ġbur":3384,"ĠCity":3385,"bata":3386,"Ġsimplex":3387,"ij":3388,"path":3389,"Schiz":3390,"Ġsh":3391,"opal":3392,"Ġfra":3393,"bili":3394,"Cra":3395,"ogry":3396,"ĠFrank":3397,"uki":3398,"Ġvir":3399,"linton":3400,"onus":3401,"ĠCan":3402,"Ġpec":3403,"ĠPedro":3404,"asp":3405,"rysa":3406,"ĠAdrien":3407,"Sap":3408,"ĠHesse":3409,"ĠGressi":3410,"ĠGressitt":3411,"Ġsil":3412,"Eum":3413,"roctus":3414,"chida":3415,"house":3416,"ĠPauli":3417,"Nes":3418,"yar":3419,"Ġsam":3420,"esch":3421,"Ġeryth":3422,"ĠMoore":3423,"Rhin":3424,"itar":3425,"maculatus":3426,"ĠEnrico":3427,"ika":3428,"ĠMer":3429,"ĠClinton":3430,"abri":3431,"ripennis":3432,"color":3433,"ĠDod":3434,"Myce":3435,"Ġbiktima":3436,"under":3437,"Hetero":3438,"Ġed":3439,"ĠMesnil":3440,"oki":3441,"ocy":3442,"ĠNixon":3443,"raneus":3444,"Ġoccid":3445,"Ġrec":3446,"orte":3447,"ĠSol":3448,"Ġdag":3449,"Ġtuberc":3450,"ĠLal":3451,"ĠMarc":3452,"owell":3453,"zetes":3454,"olata":3455,"ĠPeters":3456,"Mesoch":3457,"Tha":3458,"ĠLinnÃ©":3459,"Paras":3460,"ĠEmile":3461,"ĠAchille":3462,"Ġcom":3463,"Pandanus":3464,"Idi":3465,"ĠChi":3466,"ĠRic":3467,"Ġher":3468,"teroc":3469,"nae":3470,"elmo":3471,"tilis":3472,"Ġmexic":3473,"ĠJo":3474,"ĠZhu":3475,"ĠBlackburn":3476,"Del":3477,"Ġmas":3478,"orpha":3479,"sian":3480,"ĠHering":3481,"Ġ1775":3482,"densis":3483,"chia":3484,"ulong":3485,"acif":3486,"alita":3487,"Hila":3488,"ÂŃ":3489,"omada":3490,"Scap":3491,"Hyla":3492,"onalis":3493,"ĠRandall":3494,"ĠHan":3495,"ĠAus":3496,"oxys":3497,"Ġsal":3498,"ginata":3499,"Neph":3500,"nea":3501,"Ġaur":3502,"Ġbu":3503,"ril":3504,"eder":3505,"unaga":3506,"Amphi":3507,"ĠAndrew":3508,"Gna":3509,"Ptero":3510,"ĠSto":3511,"tier":3512,"ĠGott":3513,"ulc":3514,"tschi":3515,"Typh":3516,"bius":3517,"yag":3518,"Ġ1823":3519,"opoda":3520,"ĠWin":3521,"Din":3522,"leri":3523,"ĠPeckham":3524,"raena":3525,"itis":3526,"opsylla":3527,"odesmus":3528,"ĠBrunetti":3529,"ĠStephen":3530,"ĠAdelelmo":3531,"Cephal":3532,"ĠSti":3533,"ĠBick":3534,"ĠYin":3535,"Pel":3536,"sella":3537,"ĠWood":3538,"itter":3539,"hapon":3540,"Neoc":3541,"Cent":3542,"olor":3543,"Cheil":3544,"Mycetophila":3545,"ao":3546,"alpis":3547,"Ġclav":3548,"rae":3549,"ingon":3550,"Neo":3551,"Ġen":3552,"ĠNina":3553,"oewer":3554,"ĠSantschi":3555,"ĠLorenz":3556,"ĠRoewer":3557,"ĠFred":3558,"Ġsep":3559,"ĠReichenbach":3560,"rinus":3561,"Ġsig":3562,"Ġdub":3563,"ĠGreen":3564,"ingi":3565,"ĠRena":3566,"age":3567,"Ġrug":3568,"ytarsus":3569,"idea":3570,"Ġ1818":3571,"Ġquadri":3572,"yle":3573,"Ama":3574,"Ġtor":3575,"thia":3576,"Ġmaculi":3577,"Ġminuta":3578,"ulatum":3579,"unn":3580,"asar":3581,"Ġhis":3582,"ocne":3583,"uce":3584,"ysia":3585,"Ġbo":3586,"esus":3587,"ĠKarny":3588,"schild":3589,"ticeps":3590,"enoc":3591,"ĠRichards":3592,"ĠPhilippi":3593,"ear":3594,"hil":3595,"Ġpap":3596,"ypus":3597,"entatus":3598,"ilia":3599,"ĠWag":3600,"dae":3601,"dam":3602,"Ġisip":3603,"chium":3604,"Ġnagp":3605,"tyla":3606,"ĠLindley":3607,"Nomada":3608,"Rhamph":3609,"Ġsan":3610,"Ġsus":3611,"bat":3612,"baz":3613,"operla":3614,"ĠPo":3615,"ylva":3616,"Brad":3617,"Ġae":3618,"oster":3619,"Ġnigra":3620,"ĠâĢ":3621,"liff":3622,"edic":3623,"Ġafric":3624,"Ġhayop":3625,"ĠBrues":3626,"Ġbip":3627,"tile":3628,"ĠMark":3629,"iro":3630,"ĠRothschild":3631,"Des":3632,"forn":3633,"tas":3634,"ĠTra":3635,"Ġtric":3636,"ĠNoy":3637,"romia":3638,"ĠHuang":3639,"ĠPaulian":3640,"Ach":3641,"esta":3642,"owler":3643,"Pseuda":3644,"oasca":3645,"Tetra":3646,"Enic":3647,"bri":3648,"ubb":3649,"ĠLee":3650,"ĠRudolf":3651,"emus":3652,"utz":3653,"ĠUchida":3654,"Mesochorus":3655,"zyn":3656,"omorphus":3657,"ĠBoucek":3658,"ĠTs":3659,"Empoasca":3660,"Poecil":3661,"eis":3662,"ĠRod":3663,"ĠDuda":3664,"otis":3665,"ciara":3666,"vit":3667,"ando":3668,"keri":3669,"Ġarg":3670,"ĠMikha":3671,"ĠLawrence":3672,"Mus":3673,"ĠSelys":3674,"Ġlaev":3675,"Ġdor":3676,"ĠLambert":3677,"ohi":3678,"ĠSuper":3679,"ĠPieter":3680,"ito":3681,"ĠRoy":3682,"Ġsabwag":3683,"lensis":3684,"mins":3685,"Ġcir":3686,"resc":3687,"ĠCaporiac":3688,"ĠCaporiacco":3689,"wan":3690,"ĠHos":3691,"owden":3692,"ĠErichson":3693,"Austro":3694,"uter":3695,"vie":3696,"Macro":3697,"zynski":3698,"lov":3699,"eru":3700,"Ġplat":3701,"Ġfur":3702,"Bla":3703,"tei":3704,"dop":3705,"ĠSpin":3706,"ĠMun":3707,"ĠAng":3708,"ĠLie":3709,"esa":3710,"ostomus":3711,"Ġpor":3712,"tonia":3713,"kii":3714,"oratus":3715,"Parap":3716,"trum":3717,"Platyp":3718,"Ġtenu":3719,"ĠCor":3720,"ĠRoh":3721,"ast":3722,"Rhyac":3723,"Ġres":3724,"similis":3725,"Ġmodes":3726,"ĠGig":3727,"ĠCro":3728,"ĠShar":3729,"Hydraena":3730,"Ġamb":3731,"cht":3732,"ĠNar":3733,"rigon":3734,"ĠKimmins":3735,"ocerus":3736,"ĠJohnson":3737,"varov":3738,"ĠCollin":3739,"Ġoli":3740,"Ġag":3741,"rilus":3742,"ĠFowler":3743,"otrema":3744,"Eun":3745,"ftin":3746,"lag":3747,"Chae":3748,"ĠMikhail":3749,"Ori":3750,"Ġniya":3751,"ede":3752,"lemand":3753,"Cala":3754,"tichus":3755,"ĠSeg":3756,"uld":3757,"ringuey":3758,"ĠPÃ©ringuey":3759,"ĠGiglio":3760,"ocentrus":3761,"ovich":3762,"fried":3763,"els":3764,"ĠMora":3765,"amensis":3766,"elina":3767,"trata":3768,"dosa":3769,"rew":3770,"ĠJohan":3771,"ĠOlivier":3772,"Ġcaliforn":3773,"Ġhin":3774,"Ġkagahapon":3775,"arpa":3776,"Ġcris":3777,"ondt":3778,"impla":3779,"Ġcrassi":3780,"ĠRenaud":3781,"uss":3782,"onor":3783,"Ġbic":3784,"yphus":3785,"ĠMayr":3786,"cal":3787,"Ġko":3788,"Ġgla":3789,"trix":3790,"Ġtenuis":3791,"ĠGriff":3792,"Ġbal":3793,"ray":3794,"ĠLevi":3795,"Ġtin":3796,"blatt":3797,"Enicospilus":3798,"Os":3799,"yrha":3800,"ĠPÃ©rez":3801,"pit":3802,"Ã£":3803,"Ġir":3804,"raser":3805,"Bat":3806,"rim":3807,"ĠSk":3808,"oly":3809,"ĠJos":3810,"ower":3811,"ĠUvarov":3812,"ĠWarren":3813,"Ġmaj":3814,"Ġkang":3815,"Ġdim":3816,"Ġtrun":3817,"itt":3818,"ĠSchwar":3819,"ĠWendell":3820,"ĠHamilton":3821,"ogona":3822,"ĠYu":3823,"ropus":3824,"ĠCurtis":3825,"Rhyacophila":3826,"nic":3827,"zel":3828,"ĠVill":3829,"oven":3830,"ĠMama":3831,"isa":3832,"ĠToh":3833,"iech":3834,"hu":3835,"wen":3836,"lap":3837,"ĠGold":3838,"Hydro":3839,"well":3840,"ialis":3841,"tosus":3842,"yos":3843,"Ġkani":3844,"Ġdu":3845,"Anis":3846,"Ġrot":3847,"ĠKus":3848,"odera":3849,"say":3850,"omal":3851,"ĠQuate":3852,"sei":3853,"iculata":3854,"reus":3855,"Ġdihang":3856,"Ã£o":3857,"inae":3858,"ĠTheisch":3859,"ian":3860,"ulat":3861,"ĠHag":3862,"ellata":3863,"erae":3864,"Cerato":3865,"obates":3866,"ĠDmitriy":3867,"Microp":3868,"ĠMcal":3869,"ĠTaylor":3870,"Ġnasod":3871,"ĠTohru":3872,"ĠTheischinger":3873,").<|":3874,"Bom":3875,"Ġnata":3876,"Ġgib":3877,"ĠNied":3878,"otata":3879,"odis":3880,"ĠEduard":3881,"ĠMcalpine":3882,"raba":3883,"ocha":3884,"ĠParam":3885,"Ġmira":3886,"ĠWilliston":3887,"Crema":3888,"estes":3889,"ĠRos":3890,"Perdita":3891,"ĠParamonov":3892,"Cos":3893,"ĠPal":3894,"Ġcos":3895,"Ġnahim":3896,"ĠGregor":3897,"otan":3898,"Ġari":3899,"ĠSae":3900,"ĠPerez":3901,"ĠSchmitz":3902,"thy":3903,"urp":3904,"Ġretic":3905,"moto":3906,"ĠFreytag":3907,"Ġnov":3908,"ĠWater":3909,"ĠTokunaga":3910,"ĠLallemand":3911,"ĠFelix":3912,"Ġcyan":3913,"aster":3914,"Ġtar":3915,"Leptoc":3916,"Ġ1828":3917,"Ġoccidentalis":3918,"Hal":3919,"tabo":3920,"ĠGabri":3921,"pida":3922,"ĠCosta":3923,"ĠJa":3924,"ogonia":3925,"neus":3926,"eido":3927,"Ġ1820":3928,"Ġ1789":3929,"Ab":3930,"ĠRid":3931,"rovich":3932,"acus":3933,"Ġinsularis":3934,"bii":3935,"ĠHansson":3936,"Euph":3937,"bialis":3938,"ĠPatrick":3939,"Oec":3940,"erma":3941,"ktor":3942,"ĠBut":3943,"ĠThi":3944,"vatus":3945,"Ġmaculata":3946,"ĠOssian":3947,"lmer":3948,"ĠSub":3949,"Ġpla":3950,"Phaonia":3951,"ftinck":3952,"ĠSou":3953,"tine":3954,"ĠGabriel":3955,"Ġpacif":3956,"meric":3957,"celis":3958,"Brachy":3959,"Dolichopus":3960,"Araneus":3961,"ĠMose":3962,"ectus":3963,"gela":3964,"Ad":3965,"dge":3966,"ĠGr":3967,"ĠNoyes":3968,"odius":3969,"Symp":3970,"Lith":3971,"Eurytoma":3972,"fasciata":3973,"tola":3974,"Ġuban":3975,"allus":3976,"Glenea":3977,"ĠMaurits":3978,"ĠLieftinck":3979,"gang":3980,"Ġsex":3981,"illia":3982,"Ġpana":3983,"bot":3984,"stan":3985,"ĠHut":3986,"ĠKer":3987,"Ġhe":3988,"ĠVerrill":3989,"ĠDavao":3990,"ĠDisney":3991,"Ischn":3992,"ĠNiedbala":3993,"Ġep":3994,"ĠFraser":3995,"ophis":3996,"mantis":3997,"endron":3998,"Rhamphomyia":3999,"ularia":4000,"rit":4001,"ĠWoj":4002,"Ġhok":4003,"ĠMamaev":4004,"tem":4005,"ĠChap":4006,"ticornis":4007,"uhl":4008,"âĢĿ":4009,"alensis":4010,"ĠVil":4011,"lossa":4012,"ciech":4013,"eno":4014,"rey":4015,"ĠFuller":4016,"ĠPr":4017,"ĠMart":4018,"ochrysa":4019,"artsch":4020,"tylum":4021,"ĠWojciech":4022,"anica":4023,"ĠAu":4024,"eccari":4025,"elice":4026,"Diosc":4027,"Cap":4028,"Trop":4029,"lice":4030,"Pheido":4031,"Ġ1826":4032,"heim":4033,"ĠPetrovitz":4034,"Ġobscura":4035,"Hylaeus":4036,"Sol":4037,"tep":4038,"ĠCamp":4039,"ocqu":4040,"emis":4041,"Ġ1825":4042,"Ġspec":4043,"duc":4044,"thasar":4045,"Ġvaria":4046,"Coen":4047,"ĠBalthasar":4048,"Bra":4049,"ston":4050,"lie":4051,"Ġ1831":4052,"vo":4053,"sev":4054,"ĠMarse":4055,"ĠBruce":4056,"ĠFern":4057,"Peri":4058,"Ġsta":4059,"Ġamp":4060,"leit":4061,"Ore":4062,"hashi":4063,"trocera":4064,"ognathus":4065,"Dioscorea":4066,"ĠHorn":4067,"Ġhar":4068,"ippa":4069,"ĠShin":4070,"ĠMohrig":4071,"ĠWagner":4072,"El":4073,"uti":4074,"enth":4075,"ory":4076,"ĠSi":4077,"aste":4078,"orph":4079,"ticta":4080,"ĠBrit":4081,"anti":4082,"doardo":4083,"ĠBeccari":4084,"ĠRÃ©":4085,"ohl":4086,"ĠOdoardo":4087,"oehler":4088,"inctus":4089,"ĠGoldblatt":4090,"kald":4091,"sik":4092,"ĠNg":4093,"ĠMatile":4094,"ĠSac":4095,"ĠBall":4096,"igo":4097,"ybra":4098,"Gry":4099,"ratus":4100,"ophus":4101,"ĠOle":4102,"ĠZaitz":4103,"ĠMarseul":4104,"antes":4105,"Ġpina":4106,"ĠEngler":4107,"ĠZaitzev":4108,"asia":4109,"odus":4110,"Ġmagn":4111,"wat":4112,"ĠSylva":4113,"sica":4114,"Ġpam":4115,"ĠClaude":4116,"lle":4117,"endor":4118,"rab":4119,"Ġhyp":4120,"helea":4121,"dison":4122,"po":4123,"anis":4124,"ĠHed":4125,"Ġlac":4126,"Ġgyud":4127,"ĠSylvain":4128,"Sti":4129,"omyr":4130,"endran":4131,"ĠSantos":4132,"Chiron":4133,"yrhachis":4134,"Lamp":4135,"onyx":4136,"ĠPili":4137,"yllis":4138,"quam":4139,"hanan":4140,"Hydrop":4141,"Theridion":4142,"Hab":4143,"kel":4144,"lang":4145,"we":4146,"ĠGould":4147,"Bol":4148,"ĠMal":4149,"ĠMilli":4150,"ĠAlber":4151,"ĠNikolai":4152,"Cir":4153,"Ela":4154,"uman":4155,"oserica":4156,"Psych":4157,"Helina":4158,"tric":4159,"gamit":4160,"angu":4161,"obia":4162,"bali":4163,"ĠOsten":4164,"Ġdiver":4165,"sbry":4166,"Tom":4167,"nc":4168,"ĠBartsch":4169,"ĠProv":4170,"urt":4171,"ury":4172,"ĠChan":4173,"ĠXu":4174,"Dipl":4175,"cy":4176,"Ġneg":4177,"ĠDyar":4178,"ĠKoehler":4179,"tern":4180,"ĠYves":4181,"syon":4182,"ĠLehr":4183,"tilla":4184,"Spil":4185,"Phytomyza":4186,"Lopes":4187,"enae":4188,"ĠBrad":4189,"letes":4190,"Neop":4191,"odactylus":4192,"esper":4193,"illan":4194,"ide":4195,"otte":4196,"inh":4197,"ares":4198,"uyo":4199,"ĠKirby":4200,"Ġgrandis":4201,"ĠSacken":4202,"ĠSav":4203,"ĠLac":4204,"ĠRus":4205,"ĠTana":4206,"gayan":4207,"eneu":4208,"the":4209,"ĠRo":4210,"Comp":4211,"tocephalus":4212,"orbigny":4213,"Haematop":4214,"ĠMosely":4215,"ĠJones":4216,"Ġven":4217,"ĠLeo":4218,"ĠRobinson":4219,"Ġchrys":4220,"Ġcurv":4221,"Olig":4222,"oka":4223,"ĠChev":4224,"othrix":4225,"xis":4226,"ĠBae":4227,"unga":4228,"ĠEdmund":4229,"Gonomyia":4230,"Hyb":4231,"cula":4232,"trus":4233,"tok":4234,"Ġgipa":4235,"ochus":4236,"sty":4237,"gens":4238,"ors":4239,"Ġdin":4240,"otrop":4241,"Ġ1822":4242,"Ġmol":4243,"ĠCarlos":4244,"ygus":4245,"ĠRidley":4246,"kaldy":4247,"mos":4248,"Ġov":4249,"phila":4250,"ectes":4251,"eatus":4252,"ersta":4253,"ĠMilne":4254,"erstaecker":4255,"felice":4256,"Ġanak":4257,"ĠPierfelice":4258,"ĠFÃ©lice":4259,"ĠRavenna":4260,"Plagi":4261,"ĠNarendran":4262,"Clin":4263,"togaster":4264,"ĠPil":4265,"Ġciner":4266,"itsch":4267,"Ġbrasili":4268,"ĠPilipin":4269,"oker":4270,"sima":4271,"ĠCal":4272,"Ġcav":4273,"Ġcamp":4274,"labola":4275,"ĠKirkaldy":4276,"ĠHolmgren":4277,"Chironomus":4278,"gei":4279,"latus":4280,"Ġadunay":4281,"Parat":4282,"ĠEdmond":4283,"ondani":4284,"romis":4285,"Polyc":4286,"ĠWatson":4287,"Cocc":4288,"Ã¯":4289,"ĠHull":4290,"ĠTem":4291,"Ġpagi":4292,"ĠCamillo":4293,"esmus":4294,"let":4295,"ĠKoz":4296,"yrmex":4297,"ĠGuil":4298,"herme":4299,"Homoneura":4300,"Bi":4301,"otettix":4302,"ĠMet":4303,"ĠHeller":4304,"ĠJason":4305,"ĠJÃ¤":4306,"Ġniger":4307,"Cle":4308,"Ly":4309,"Tur":4310,"hara":4311,"sila":4312,"Ġmus":4313,"Ġflori":4314,"edi":4315,"dion":4316,"onica":4317,"opl":4318,"Ġhirsu":4319,"ĠButler":4320,"ĠGuilherme":4321,"Ter":4322,"Ġnap":4323,"litis":4324,"Ġobli":4325,"ĠKolbe":4326,"Ġrobusta":4327,"Ġul":4328,"angensis":4329,"yss":4330,"Ġkining":4331,"lachlan":4332,"Ġpatag":4333,"Ġglob":4334,"iron":4335,"minck":4336,"ĠTemminck":4337,"aros":4338,"ĠSab":4339,"ĠMur":4340,"ellum":4341,"Chimar":4342,"ĠSeguy":4343,"born":4344,"witz":4345,"ĠSong":4346,"ĠRondani":4347,"Pheidole":4348,"Tox":4349,"racarus":4350,"ĠKaspar":4351,"Haematopota":4352,"git":4353,"Ġfili":4354,"Phry":4355,"otaert":4356,"ĠLoÃ¯":4357,"Ambly":4358,"ĠLoÃ¯c":4359,"Star":4360,"bre":4361,"urea":4362,"teria":4363,"roa":4364,"ĠTon":4365,"odynerus":4366,"ĠHubert":4367,"Sal":4368,"Ġem":4369,"Ġuhi":4370,"ĠTe":4371,"ĠOkada":4372,"ĠUr":4373,"Ġapicalis":4374,"gelabert":4375,"Ġuhipan":4376,"onius":4377,"Ġcy":4378,"otti":4379,"Ġgut":4380,"olatus":4381,"ĠFreeman":4382,"umala":4383,"ĠFerr":4384,"Ġcastan":4385,"eneuve":4386,"tsh":4387,"Ġumb":4388,"rober":4389,"Ġjav":4390,"ĠMeyer":4391,"Ġintermedia":4392,"ĠGrootaert":4393,"ĠVilleneuve":4394,"rana":4395,"anes":4396,"himo":4397,"Ġglab":4398,"ĠKasparyan":4399,"nik":4400,"xia":4401,"Ġmari":4402,"thiracarus":4403,"ĠMitsu":4404,"ĠPilsbry":4405,"Ġameric":4406,"ĠBis":4407,"unna":4408,"Ġfem":4409,"Param":4410,"trop":4411,"oxa":4412,"ĠPhilipp":4413,"idis":4414,"ophagus":4415,"ĠSasakawa":4416,"minalis":4417,"uber":4418,"ulac":4419,"elson":4420,"ĠDlabola":4421,"rocera":4422,"Ġpallid":4423,"Ġvarie":4424,"Hapl":4425,"ĠMitsuhiro":4426,"Syna":4427,"kei":4428,"tik":4429,"ĠMag":4430,"rei":4431,"ĠAldrich":4432,"achal":4433,"Ġ2011":4434,"Sphaer":4435,"Ġ4":4436,"mal":4437,"ĠMou":4438,"ĠLep":4439,"ĠIvie":4440,"ĠGiov":4441,"Poly":4442,"Ġgracili":4443,"Ġelongata":4444,"doretus":4445,"treptus":4446,"Chimarra":4447,"Balita":4448,"Le":4449,"epe":4450,"ylax":4451,"ĠAubert":4452,"ĠGiovanni":4453,"Da":4454,"je":4455,"aki":4456,"akov":4457,"ĠBeier":4458,"ongia":4459,"ĠCraw":4460,"Ġsamtang":4461,"orpa":4462,"iata":4463,"umna":4464,"ĠWell":4465,"oca":4466,"Ġder":4467,"ĠVachal":4468,"Ġtabili":4469,"Ġobtus":4470,"Rhab":4471,"Ga":4472,"SA":4473,"lph":4474,"ange":4475,"Ġban":4476,"rong":4477,"Ġline":4478,"ĠIgnaz":4479,"ĠSuperBalita":4480,"Platypalpus":4481,"mic":4482,"Ġpub":4483,"ĠGerstaecker":4484,"ocladius":4485,"emsak":4486,"estris":4487,"orhina":4488,"ĠBrian":4489,"Eryth":4490,"ĠMunro":4491,"ĠMillidge":4492,"Call":4493,"gra":4494,"stra":4495,"Ġtig":4496,"Ġsten":4497,"ĠMy":4498,"icker":4499,"Ġdiin":4500,"ĠRisbec":4501,"Der":4502,"Man":4503,"Mas":4504,"Ġstria":4505,"Ġpop":4506,"Ġbahin":4507,"uiz":4508,"yri":4509,"acris":4510,"Ġ1804":4511,"ĠBickel":4512,"Atrich":4513,"bes":4514,"pat":4515,"ye":4516,"ĠCarp":4517,"ĠLuis":4518,"ĠGraham":4519,"Tetram":4520,"Bactrocera":4521,"ĠRaymond":4522,"Sys":4523,"loy":4524,"ĠKrober":4525,"ĠToy":4526,"urg":4527,"Ġtriang":4528,"lineatus":4529,"Echin":4530,"Hym":4531,"Lox":4532,"lica":4533,"ĠVier":4534,"mannia":4535,"Ġpallida":4536,"ĠCarpenter":4537,"ous":4538,"ulax":4539,"ĠRi":4540,"omyrmex":4541,"?<|":4542,"uria":4543,"Ġnuk":4544,"ĠHorst":4545,"ĠGris":4546,"risch":4547,"Pardosa":4548,"Ġnila":4549,"gayon":4550,"ĠHowden":4551,"Ġprop":4552,"ĠWeb":4553,"ĠOld":4554,"tulus":4555,"enius":4556,"ĠWol":4557,"exia":4558,"ĠHoward":4559,"Psil":4560,"ethi":4561,"ĠHayden":4562,"Cata":4563,"Ġinsig":4564,"mans":4565,"opsyche":4566,"rosa":4567,"hrens":4568,"ume":4569,"baeus":4570,"ĠXav":4571,"Ġcapensis":4572,"Bradysia":4573,"Ġmajor":4574,"Pala":4575,"ining":4576,"ĠSe":4577,"ĠPhil":4578,"Arch":4579,"ĠJacobi":4580,"Stil":4581,"Ġbid":4582,"ĠLondt":4583,"dalis":4584,"sheh":4585,"Ġgabii":4586,"ophthalmus":4587,"shehbaz":4588,"ĠHippa":4589,"ĠKun":4590,"donia":4591,"illot":4592,"skii":4593,"Ġunicolor":4594,"Ġrobus":4595,"Ġdisc":4596,"ĠVie":4597,"Ġmontana":4598,"Hexa":4599,"Lab":4600,"Trigon":4601,"Ġbin":4602,"amus":4603,"ippus":4604,"olabis":4605,"eyi":4606,"Mec":4607,"alle":4608,"Ġmil":4609,"amin":4610,"Ġkun":4611,"ĠStrobl":4612,"ĠCroat":4613,"ĠWells":4614,"zan":4615,"Ġgem":4616,"ĠAnders":4617,"ĠDavis":4618,"ĠFerris":4619,"Ã¨re":4620,"Ġmeridi":4621,"rÃ¶der":4622,"Ġnukos":4623,"dy":4624,"uus":4625,"Ġung":4626,"Ġcana":4627,"immer":4628,"ĠViereck":4629,"Oph":4630,"anov":4631,"Ġatra":4632,"ĠRem":4633,"edilum":4634,"Ġlim":4635,"ĠOsborn":4636,"Ġkaayo":4637,"amm":4638,"opha":4639,"ophron":4640,"erodon":4641,"ĠBern":4642,"ĠFairfield":4643,"etosa":4644,"fi":4645,"ĠAhrens":4646,"Ġmeta":4647,"ĠGui":4648,"ĠPowell":4649,"Anoph":4650,"Arc":4651,"lug":4652,"Ġaure":4653,"ĠStar":4654,"Ġpyg":4655,"unod":4656,"ĠWillem":4657,"ĠAddison":4658,"Por":4659,"Pyr":4660,"Sar":4661,"kol":4662,"idius":4663,"ebius":4664,"ĠCagayan":4665,"Ġjaponica":4666,"ĠStone":4667,"ĠOro":4668,"ochi":4669,"ĠReitter":4670,"Chrysop":4671,"ĠWarnc":4672,"ĠWarncke":4673,"Baptiste":4674,"Epi":4675,"NG":4676,"oti":4677,"othy":4678,"ĠLaur":4679,"Hel":4680,"Ġindica":4681,"tran":4682,"mius":4683,"baum":4684,"marck":4685,"ycha":4686,"Ġkinsa":4687,"Coelioxys":4688,"ĠâĢľ":4689,"Anopheles":4690,"Canth":4691,"Ġsec":4692,"Ġbun":4693,"baw":4694,"othrus":4695,"ĠMclachlan":4696,"Nor":4697,"dong":4698,"bienko":4699,"kew":4700,"ancock":4701,"ĠBaehr":4702,"Loph":4703,"Sybra":4704,"uwa":4705,"enti":4706,"matus":4707,"Anthoph":4708,"ompson":4709,"Amm":4710,"ĠToyohi":4711,"zo":4712,"Ġlob":4713,"Ġlati":4714,"elatus":4715,"Dasyhelea":4716,"ĠMorawitz":4717,"Ġbe":4718,"Ġbas":4719,"Ġmu":4720,"ĠEsp":4721,"Ġargen":4722,"topsyche":4723,"Ochth":4724,"enop":4725,"ĠCas":4726,"ĠCorne":4727,"lexa":4728,"Phan":4729,"issier":4730,"hina":4731,"Ġsor":4732,"riomyza":4733,"ĠHancock":4734,"ump":4735,"ĠChemsak":4736,"erik":4737,"Ġdapit":4738,"isc":4739,"ĠDrew":4740,"yphantes":4741,"Ġ1817":4742,"ĠFrederik":4743,"Ã¸":4744,"erica":4745,"Ġbag":4746,"Ġfum":4747,"uralis":4748,"ĠLÃ©on":4749,"Ġpili":4750,"alan":4751,"unk":4752,"ckel":4753,"Ġ1790":4754,"ĠHartmann":4755,"Dactyl":4756,"Ġlongicornis":4757,"ogryllus":4758,"ogas":4759,"tium":4760,"endy":4761,"Austra":4762,"nophila":4763,"sell":4764,"ĠAud":4765,"ĠFo":4766,"ĠEvenh":4767,"singer":4768,"ĠHooker":4769,"ĠEvenhuis":4770,"mensis":4771,"rima":4772,"iao":4773,"bae":4774,"lini":4775,"ulina":4776,"collis":4777,"ĠHagen":4778,"Hexatoma":4779,"hal":4780,"hiza":4781,"aya":4782,"ĠNeal":4783,"ĠLoomis":4784,"maeus":4785,"pinosa":4786,"Lec":4787,"gae":4788,"onema":4789,"uchi":4790,"Ġgita":4791,"inum":4792,"une":4793,"igera":4794,"ĠIs":4795,"rod":4796,"ĠBoissier":4797,"arti":4798,"Ġboli":4799,"esp":4800,"Ġcong":4801,"Ġtum":4802,"Ġfal":4803,"uya":4804,"Ġquin":4805,"Hopl":4806,"ĠHosler":4807,"ĠJosÃ©":4808,"Ġpat":4809,"Ġ1801":4810,"ĠHuber":4811,"Polypedilum":4812,"Cyph":4813,"Met":4814,"eris":4815,"sid":4816,"ebus":4817,"tomon":4818,"Polyrhachis":4819,"Ġapp":4820,"Ġchi":4821,"elea":4822,"ĠTops":4823,"Ġtaga":4824,"Ġpags":4825,"Peric":4826,"Ġferru":4827,"ĠTopsent":4828,"Ġig":4829,"later":4830,"Ġkata":4831,"Ġadlaw":4832,"orgia":4833,"Ġmia":4834,"ĠJuan":4835,"obus":4836,"ezi":4837,"undus":4838,"tala":4839,"Ġphilip":4840,"icata":4841,"fie":4842,"sl":4843,"may":4844,"sip":4845,"agne":4846,"ĠNeg":4847,"Ġchil":4848,"hous":4849,"tigmus":4850,"ĠHayashi":4851,"SchrÃ¶der":4852,"kina":4853,"ĠAh":4854,"Ġfron":4855,"euch":4856,"ĠBruner":4857,"Form":4858,"tle":4859,"ĠIsa":4860,"Rhopal":4861,"Ġperu":4862,"ĠEugen":4863,"Ġlabing":4864,"ĠSchaus":4865,"Xys":4866,"ichthys":4867,"ĠLamarck":4868,"ĠGriffith":4869,"Gra":4870,"Ġpres":4871,"ider":4872,"onata":4873,"Phys":4874,"ĠStanley":4875,"Herc":4876,"Ġkaba":4877,"arum":4878,"ĠHin":4879,"ĠGus":4880,"ĠMonnÃ©":4881,"Gi":4882,"fa":4883,"siya":4884,"Ġpip":4885,"ĠThompson":4886,"othorax":4887,"Ġconc":4888,"yong":4889,"ĠMed":4890,"ĠHali":4891,"Amp":4892,"Adoretus":4893,"tomi":4894,"hima":4895,"oderus":4896,"ycn":4897,"Ġobs":4898,"ĠAlek":4899,"mand":4900,"rini":4901,"turus":4902,"Ġram":4903,"Ġsoli":4904,"elotes":4905,"ĠCope":4906,"ĠDendy":4907,"uni":4908,"igusa":4909,"Micros":4910,"ĠAmÃ©":4911,"itarsis":4912,"Hilara":4913,"Sty":4914,"int":4915,"Ġlong":4916,"tiago":4917,"ophi":4918,"roth":4919,"rodes":4920,"ĠKel":4921,"Ġhang":4922,"Pseudoc":4923,"Ġarc":4924,"asalis":4925,"ĠAskew":4926,"ĠArn":4927,"Platygaster":4928,"ĠWaterhouse":4929,"ĠCrawford":4930,"rensis":4931,"ging":4932,"tax":4933,"opros":4934,"tho":4935,"ulifera":4936,"Ġdistin":4937,"Colletes":4938,"ĠMuese":4939,"Ġpas":4940,"ĠGagne":4941,"Ġfa":4942,"ĠAmÃ©dÃ©":4943,"erup":4944,"ĠDol":4945,"oralis":4946,"ydesmus":4947,"ĠGustavo":4948,"lae":4949,"ĠShel":4950,"ĠRiv":4951,"atch":4952,"Sphec":4953,"Lithobius":4954,"ĠMartyn":4955,"bel":4956,"ĠHew":4957,"asma":4958,"dii":4959,"Ġiho":4960,"senbeck":4961,"ĠSantiago":4962,"lard":4963,"ginatus":4964,"Ġben":4965,"Ġlev":4966,"Ġpun":4967,"Ġvari":4968,"atay":4969,"udh":4970,"atre":4971,"tenus":4972,"ĠGuÃ©":4973,"Philodendron":4974,"Erem":4975,"Fre":4976,"Och":4977,"laris":4978,"opel":4979,"ross":4980,"ĠMuesebeck":4981,"cola":4982,"fus":4983,"lend":4984,"Ġ5":4985,"ĠRud":4986,"ĠNelson":4987,"ĠSchiner":4988,"ces":4989,"eff":4990,"ĠBu":4991,"anao":4992,"uropus":4993,"eik":4994,"Ġunang":4995,"oidea":4996,"ĠWolfgang":4997,"Ble":4998,"ĠEx":4999,"Anac":5000,"phycus":5001,"ĠViktor":5002,"loyd":5003,"Ober":5004,"Sy":5005,"iulus":5006,"kis":5007,"entomon":5008,"ĠRal":5009,"teryx":5010,"neville":5011,"ycter":5012,"Hercostomus":5013,"frid":5014,"iya":5015,"Ġrus":5016,"escu":5017,"phorus":5018,"otaenia":5019,"wigan":5020,"Ġ1776":5021,"Ed":5022,"line":5023,"sicus":5024,"ĠEmb":5025,"royd":5026,"Ġsusp":5027,"Ġmirabilis":5028,"ĠHaliday":5029,"Eud":5030,"dac":5031,"ogramma":5032,"ĠEs":5033,"ohn":5034,"eriana":5035,"ĠHennig":5036,"Phor":5037,"tinus":5038,"ĠRao":5039,"Atrichopogon":5040,"Harp":5041,"Mis":5042,"tensis":5043,"aran":5044,"rotoma":5045,"ckena":5046,"ĠBritton":5047,"oza":5048,"ostigma":5049,"ĠMori":5050,"akes":5051,"ĠFan":5052,"ĠTos":5053,"spic":5054,"ysis":5055,"ĠThun":5056,"ĠMichener":5057,"Ġviridis":5058,"enfeld":5059,"via":5060,"Ġsama":5061,"Ġakong":5062,"ĠBuhl":5063,"icke":5064,"ĠDom":5065,"ĠTang":5066,"otsch":5067,"ĠIsi":5068,"ineura":5069,"Ġ1805":5070,"ĠNeerup":5071,"Ġformos":5072,"Peg":5073,"kon":5074,"uo":5075,"Ġkar":5076,"roides":5077,"ĠPrin":5078,"Ġ1821":5079,"llacris":5080,"ĠLindner":5081,"Atra":5082,"Stro":5083,"dendor":5084,"Ġauri":5085,"ĠSun":5086,"Ġpurp":5087,"dag":5088,"ĠThunberg":5089,"Eudo":5090,"Prion":5091,"gius":5092,"ĠRub":5093,"urensis":5094,"oribates":5095,"Glypta":5096,"Helic":5097,"ĠMayor":5098,"ĠClarke":5099,"Ġscutella":5100,"ĠLyne":5101,"ĠEl":5102,"Ġdeli":5103,"acies":5104,"Ġfun":5105,"ellatus":5106,"ĠSaigusa":5107,"ĠManfred":5108,"calf":5109,"ĠEmbrik":5110,"gad":5111,"lamp":5112,"dao":5113,"ĠBrand":5114,"loss":5115,"ĠOscar":5116,"ĠXue":5117,"ĠGriffiths":5118,"bos":5119,"ĠClem":5120,"ecido":5121,"berge":5122,"udder":5123,"noir":5124,"Cheilosia":5125,"Ġbrasiliensis":5126,"ĠOldroyd":5127,"oporus":5128,"Ġhor":5129,"ocent":5130,"ove":5131,"telli":5132,"Ġanten":5133,"ĠKraus":5134,"ubiona":5135,"Lin":5136,"Sis":5137,"Ġborea":5138,"Ġpen":5139,"ĠJocqu":5140,"ladera":5141,"yae":5142,"aeus":5143,"merus":5144,"Ġcons":5145,"Ġwil":5146,"right":5147,"ryptus":5148,"ĠSclater":5149,"Tanytarsus":5150,"ĠIsidore":5151,"ĠJocquÃ©":5152,"Ath":5153,"ĠPan":5154,"Ġdunay":5155,"hardt":5156,"Clubiona":5157,"Rhabdo":5158,"Spath":5159,"Ġfasciata":5160,"Parali":5161,"Ġminutus":5162,"ĠErnest":5163,"ĠEmden":5164,"Lon":5165,"Luc":5166,"Styl":5167,"Gar":5168,"oit":5169,"anicus":5170,"ĠBei":5171,"Ġmur":5172,"etgh":5173,"Ġge":5174,"oxi":5175,"teralis":5176,"Pseudop":5177,"Ġwal":5178,"Ġmonticola":5179,"Ġornata":5180,"Ġpatay":5181,"Myrmec":5182,"Bry":5183,"Mi":5184,"Ġos":5185,"toralis":5186,"ĠSyna":5187,"omura":5188,"lema":5189,"onae":5190,"rosky":5191,"ĠAnth":5192,"ĠSynave":5193,"tib":5194,"Ġpos":5195,"beri":5196,"ebuer":5197,"ĠTorsten":5198,"ĠGottfried":5199,"ĠAda":5200,"ĠJesus":5201,"ĠPro":5202,"rostris":5203,"Ġalbo":5204,"olina":5205,"ĠBenoit":5206,"matay":5207,"Ġbisan":5208,"ĠSabrosky":5209,"ĠTonnoir":5210,"Ġaren":5211,"ĠJÃ¶r":5212,"ĠUlmer":5213,"Phae":5214,"anagromyza":5215,"liffe":5216,"ĠAnthony":5217,"Ġmad":5218,"Ġur":5219,"ĠWunder":5220,"ĠTom":5221,"ĠSilva":5222,"Ġ1766":5223,"Ġlalawigan":5224,"ĠGuÃ©rin":5225,"etghebuer":5226,"Hipp":5227,"ychus":5228,"gii":5229,"arta":5230,"ĠHeik":5231,"over":5232,"topius":5233,"carus":5234,"Copelatus":5235,"ignot":5236,"ĠShaw":5237,"Es":5238,"cl":5239,"enga":5240,"kai":5241,"Ġpu":5242,"ici":5243,"entz":5244,"tino":5245,"Acroc":5246,"Ġkanhi":5247,"Pristi":5248,"Crematogaster":5249,"ĠWunderlich":5250,"ĠHeikki":5251,"AG":5252,"ĠRon":5253,"ylos":5254,"Ġpauc":5255,"Ġfusca":5256,"ĠCarter":5257,"umont":5258,"ĠFallen":5259,"Omma":5260,"ironomus":5261,"Anthophora":5262,"mara":5263,"ressa":5264,"rass":5265,"ynema":5266,"ĠBolton":5267,"ĠGoetghebuer":5268,"reta":5269,"Ġ1802":5270,"Lib":5271,"cki":5272,"Ġneb":5273,"liensis":5274,"ings":5275,"obb":5276,"Ġpagpa":5277,"Ġtex":5278,"Ġprob":5279,"ĠAbel":5280,"omantis":5281,"uata":5282,"Ġ:":5283,"nema":5284,"Ochthebius":5285,"),":5286,"mile":5287,"ist":5288,"ĠLui":5289,"ĠGÃ©":5290,"hay":5291,"erata":5292,"ĠGuignot":5293,"Coryn":5294,"olyte":5295,"ĠChevro":5296,"Home":5297,"sema":5298,"ĠSey":5299,"ami":5300,"Ġperp":5301,"ĠChevrolat":5302,"olom":5303,"Ġcup":5304,"ĠDiet":5305,"Ġsakop":5306,"Thauma":5307,"ĠWillemse":5308,"bor":5309,"sÃ©":5310,"ytes":5311,"Ġnan":5312,"ted":5313,"Ġlug":5314,"ĠGy":5315,"Ġflavipes":5316,"Ġborealis":5317,"wi":5318,"Mach":5319,"Teuch":5320,"bell":5321,"ges":5322,"mura":5323,"toce":5324,"Ġple":5325,"Ġpach":5326,"ĠAsa":5327,"Ġmos":5328,"etta":5329,"Ġ1827":5330,"Tetras":5331,"Metaphycus":5332,"Cas":5333,"Parag":5334,"gona":5335,"rera":5336,"Ġnang":5337,"maea":5338,"Ġbil":5339,"tarsis":5340,"Macros":5341,"olepis":5342,"ĠMetcalf":5343,"Cym":5344,"xus":5345,"Ġpum":5346,"Ġplum":5347,"ĠLloyd":5348,"Ġmes":5349,"eiro":5350,"otatus":5351,"Ġmedi":5352,"ĠHartman":5353,"psis":5354,"Ġval":5355,"illata":5356,"elling":5357,"ĠBurton":5358,"Ġcauda":5359,"ĠChao":5360,"Xyloc":5361,"ĠHorstmann":5362,"erry":5363,"nalis":5364,"Ġiner":5365,"ĠLap":5366,"among":5367,"mita":5368,"Ane":5369,"lops":5370,"Ġnor":5371,"tele":5372,"tid":5373,"ĠYoshi":5374,"tarc":5375,"encyrtus":5376,"Ele":5377,"ocal":5378,"pinus":5379,"Anthrax":5380,"ĠRalph":5381,"Troch":5382,"sion":5383,"ĠAoki":5384,"ĠLend":5385,"ulen":5386,"obezzia":5387,"ucc":5388,"Ġparva":5389,"Pachyc":5390,"olepta":5391,"Ġpinulong":5392,"Ġpinaagi":5393,"Zyg":5394,"ror":5395,"lipes":5396,"Ġlongipes":5397,"ereis":5398,"ĠMacfie":5399,"ĠHiroshi":5400,"Spin":5401,"Ġgigan":5402,"ilota":5403,"Ġpet":5404,"elio":5405,"ĠOskar":5406,"ĠBlake":5407,"ulisan":5408,"Rhiz":5409,"Spi":5410,"cantha":5411,"tini":5412,"Ġgis":5413,"onops":5414,"rita":5415,"ĠLars":5416,"leay":5417,"Phyto":5418,"Scaph":5419,"Pristimantis":5420,"At":5421,"fem":5422,"lar":5423,"Ġst":5424,"gimb":5425,"cap":5426,"Ġsulod":5427,"oprosopa":5428,"ĠSeyrig":5429,"Trip":5430,"Ġaz":5431,"ĠDum":5432,"Ġtai":5433,"ĠScudder":5434,"Ġspinosa":5435,"edetera":5436,"jean":5437,"oen":5438,"ĠHipp":5439,"ophrys":5440,"Ġangusta":5441,"ĠBour":5442,"ĠRichardson":5443,"Lisson":5444,"ĠWebb":5445,"ĠLuigi":5446,"culus":5447,"mor":5448,"reg":5449,"annia":5450,"Hy":5451,"ĠBea":5452,"ĠHod":5453,"phar":5454,"rylas":5455,"taramong":5456,"niot":5457,"ĠMonniot":5458,"ĠEndrÃ¶":5459,"Ġlamang":5460,"Nephrotoma":5461,"ĠSpinola":5462,"ĠPilipinas":5463,"Qu":5464,"oer":5465,"ĠBÃ¶":5466,"Ġconv":5467,"baye":5468,"ĠHansen":5469,"ĠHoff":5470,"ĠChantaramong":5471,"stylis":5472,"ĠChantaramongkol":5473,"Mala":5474,"Tem":5475,"grion":5476,"zh":5477,"Ġec":5478,"tix":5479,"Ġmini":5480,"dala":5481,"Ġhel":5482,"Ġlaing":5483,"ress":5484,"Ġatlan":5485,"Ġafricana":5486,"Ġinsignis":5487,"ĠHippolyte":5488,"Dus":5489,"bein":5490,"cea":5491,"arth":5492,"ĠSuz":5493,"ĠPoli":5494,"ĠRad":5495,"Ġmontanus":5496,"gnatha":5497,"ĠAdams":5498,"Ha":5499,"Ġund":5500,"ĠHubb":5501,"urst":5502,"ĠVand":5503,"strier":5504,"Ġkaniya":5505,"doi":5506,"oret":5507,"orhiza":5508,"oproctus":5509,"ĠJak":5510,"Ã¼r":5511,"ĠAnn":5512,"Ã¨s":5513,"issima":5514,"ĠPhillip":5515,"ĠVieillot":5516,"Nan":5517,"cum":5518,"tner":5519,"oscia":5520,"ugod":5521,"ender":5522,"Ġalbic":5523,"ĠMoure":5524,"Xylocopa":5525,"ĠLendenfeld":5526,"Ere":5527,"Porc":5528,"ancher":5529,"Ġkasa":5530,"Ġbuk":5531,"ĠSig":5532,"ĠMani":5533,"ĠJus":5534,"Ġtrid":5535,"Parad":5536,"yrrh":5537,"jima":5538,"ucha":5539,"ensa":5540,"itra":5541,"omalus":5542,"ĠGeoff":5543,"Apros":5544,"Apogonia":5545,"Ġthe":5546,"ĠDalton":5547,"Ġkapulisan":5548,"ĠAudinet":5549,"Cac":5550,"Coni":5551,"bun":5552,"oura":5553,"Ġnub":5554,"gil":5555,"ĠBud":5556,"tarinia":5557,"ĠClastrier":5558,"Ġ1781":5559,"met":5560,"tun":5561,"anger":5562,"ĠBill":5563,"ulle":5564,"ters":5565,"Chorebus":5566,"Ġmexicana":5567,"ĠJÃ¤ch":5568,"Gal":5569,"Ġsquam":5570,"rie":5571,"opon":5572,"Ġpala":5573,"Ġva":5574,"ipi":5575,"Ã©neville":5576,"ĠEdwin":5577,"ĠRoberts":5578,"Ġdiha":5579,"ĠMcc":5580,"ĠLeslie":5581,"Coenosia":5582,"ĠProvancher":5583,"tocetus":5584,"ÅĤ":5585,"telia":5586,"ĠSn":5587,"opillia":5588,"omia":5589,"ĠGur":5590,"ĠKris":5591,"sae":5592,"abeth":5593,"Ġbatok":5594,"Agla":5595,"opleura":5596,"ulczynski":5597,"Ġbuntag":5598,"enberg":5599,"Ġsuma":5600,"Ġsuper":5601,"eleb":5602,"Ġpunctata":5603,"ĠRocha":5604,"Ġfasc":5605,"ĠWilly":5606,"onaga":5607,"annon":5608,"ĠRaf":5609,"xima":5610,"ĠErsÃ©":5611,"Musca":5612,"Ġnahimu":5613,"ĠEndrÃ¶di":5614,"buhi":5615,"tec":5616,"tam":5617,"akon":5618,"ĠBry":5619,"ophylax":5620,"Parm":5621,"Ġspini":5622,"ĠRicardo":5623,"ĠAustin":5624,"Tetramorium":5625,"ĠErsÃ©us":5626,"Gyp":5627,"meri":5628,"phes":5629,"ĠPen":5630,"ĠKlug":5631,"Chrysosoma":5632,"ĠStsl":5633,"Oliarus":5634,"ĠGermar":5635,"ĠVasili":5636,"ĠRamme":5637,"Ġbalay":5638,"ushman":5639,"wick":5640,"opia":5641,"osina":5642,"acea":5643,"gimbart":5644,"AY":5645,"Medetera":5646,"kad":5647,"Ġkarong":5648,"ĠSign":5649,"ĠBos":5650,"ophry":5651,"Ġgob":5652,"tropus":5653,"pusil":5654,"unkhous":5655,"Meli":5656,"ropsis":5657,"icensis":5658,"red":5659,"ĠPe":5660,"ĠStalle":5661,"Ġsinensis":5662,"ĠIngrisch":5663,"Ġcylind":5664,"Edward":5665,"vata":5666,"Ġ7":5667,"Ġol":5668,"Ġing":5669,"lig":5670,"ico":5671,"ulans":5672,"oge":5673,"Ġker":5674,"obald":5675,"Ġtibialis":5676,"Ġopis":5677,"skyi":5678,"irostris":5679,"ĠSkuse":5680,"ĠChapman":5681,"ĠRÃ©gimbart":5682,"Ġdinhi":5683,"AT":5684,"Ae":5685,"Zelotes":5686,"Ġsup":5687,"ĠGol":5688,"ĠPin":5689,"ĠSchott":5690,"ikan":5691,"ĠAugustine":5692,"ÃŃa":5693,"hof":5694,"Rhaphi":5695,"omysis":5696,"Py":5697,"wai":5698,"Ġsud":5699,"Ġmala":5700,"Ġbata":5701,"ĠCushman":5702,"ĠRentz":5703,"Ġhal":5704,"ternus":5705,"Ġtrip":5706,"entralis":5707,"illiers":5708,"ĠTheobald":5709,"khurst":5710,"ĠAlberto":5711,"ĠSignoret":5712,"Ale":5713,"Sci":5714,"uichi":5715,"Ġbor":5716,"ĠBon":5717,"ĠLynch":5718,"inii":5719,"Ã¶ck":5720,"zies":5721,"Liriomyza":5722,"Ġmega":5723,"Eudorylas":5724,"unkhouser":5725,"ĠBay":5726,"ĠTol":5727,"emen":5728,"Ġchlor":5729,"euca":5730,"Clath":5731,"ĠPallas":5732,"rib":5733,"ĠMein":5734,"Ġhya":5735,"Ġdar":5736,"ime":5737,"Cory":5738,"Ã±a":5739,"ocnemis":5740,"Aprostocetus":5741,"Draba":5742,"Ġmada":5743,"ĠAsp":5744,"ulog":5745,"Ġvill":5746,"eralis":5747,"ayong":5748,"utum":5749,"ĠVaillan":5750,"Bomby":5751,"ĠFerrara":5752,"ĠVaillant":5753,"Both":5754,"Ġya":5755,"Ġkaso":5756,"orella":5757,"opeza":5758,"ĠBou":5759,"ĠVilliers":5760,"Ġall":5761,"todrosophila":5762,"phantes":5763,"ĠMenzies":5764,"Hydroptila":5765,"ĠAspÃ¶ck":5766,"Cyc":5767,"Gyn":5768,"eum":5769,"rota":5770,"berti":5771,"ette":5772,"ĠIma":5773,"cistroc":5774,"Thy":5775,"Ġdeser":5776,"ĠFrancois":5777,"Calamus":5778,"ĠSaether":5779,"Porcelli":5780,"ches":5781,"olensis":5782,"ĠFunkhouser":5783,"Ġviola":5784,"Maladera":5785,"Cylind":5786,"Dusona":5787,"ĠSigfrid":5788,"Brev":5789,"Nec":5790,"foli":5791,"iang":5792,"tulata":5793,"opyga":5794,"ake":5795,"phodius":5796,"odic":5797,"Ġvul":5798,"Ġtub":5799,"ĠNaga":5800,"tocerus":5801,"Exoprosopa":5802,"Ġbarangay":5803,"Crypto":5804,"Dasineura":5805,"ĠShinonaga":5806,"Dem":5807,"Ġsty":5808,"ĠLamb":5809,"Ġflava":5810,"otar":5811,"rigu":5812,"Ġrose":5813,"Hydr":5814,"Diad":5815,"ĠÃīmile":5816,"Ġmeridionalis":5817,"Lissonota":5818,"Mor":5819,"Nym":5820,"gilis":5821,"ĠGon":5822,"ĠGrand":5823,"ĠRatz":5824,"Ġho":5825,"eburg":5826,"Ġorna":5827,"gnathus":5828,"Microdon":5829,"Lund":5830,"enda":5831,"lace":5832,"teus":5833,"tham":5834,"ĠKohl":5835,"uris":5836,"Ġtra":5837,"hai":5838,"emia":5839,"ĠSuzuki":5840,"Eos":5841,"Gn":5842,"Plan":5843,"Rop":5844,"uba":5845,"Ġton":5846,"esma":5847,"eljan":5848,"ĠKulczynski":5849,"ylander":5850,"ondyla":5851,"Ġ1798":5852,"Ġyunn":5853,"Ġpulchra":5854,"Ġelongatus":5855,"ĠRatzeburg":5856,"Aris":5857,"fe":5858,"ĠSj":5859,"ĠAna":5860,"ensen":5861,"ĠTika":5862,"ĠNylander":5863,"had":5864,"Ã¡r":5865,"ĠHayat":5866,"ottelat":5867,"Ġnud":5868,"Ġaus":5869,"akita":5870,"dab":5871,"ulsky":5872,"tifera":5873,"Mal":5874,"tein":5875,"dominalis":5876,"Ġasa":5877,"ĠKottelat":5878,"Ġmaculatus":5879,"ellina":5880,"ĠMicha":5881,"Phyllonor":5882,"Clado":5883,"ĠBoheman":5884,"Ġmodesta":5885,"Phyllonorycter":5886,"Pet":5887,"jap":5888,"machus":5889,"ĠRolf":5890,"ĠDana":5891,"Ġfre":5892,"cadion":5893,"ĠOakes":5894,"abe":5895,"Campyl":5896,"ĠTikader":5897,"Dry":5898,"Noth":5899,"dtong":5900,"dynerus":5901,"pos":5902,"yli":5903,"thew":5904,"omic":5905,"roix":5906,"ronia":5907,"anii":5908,"torum":5909,"dendorf":5910,"fasciatus":5911,"ĠMotsch":5912,"then":5913,"ĠAmes":5914,"idens":5915,"capus":5916,"ricia":5917,"Ġbabaye":5918,"Ġlongicauda":5919,"Ġdispar":5920,"ĠGuilla":5921,"Mycomya":5922,"Plectris":5923,"Melanagromyza":5924,"Noto":5925,"Ġgil":5926,"inosa":5927,"raki":5928,"ĠFrÃ©":5929,"acas":5930,"Spha":5931,"Tra":5932,"tilia":5933,"ĠLas":5934,"ĠTre":5935,"ube":5936,"Ġexi":5937,"Ġintermedius":5938,"himong":5939,"dÃ©ric":5940,"Ġpacifica":5941,"ĠFrÃ©dÃ©ric":5942,"Ver":5943,"uj":5944,"gay":5945,"dora":5946,"oscelis":5947,"umann":5948,"idente":5949,"ĠNicola":5950,"onax":5951,"ĠBrÃ¶":5952,"Ġdiff":5953,"Ġbrevicornis":5954,"Ġvariabilis":5955,"Ata":5956,"Hesper":5957,"Ġ6":5958,"Ġmal":5959,"ĠBir":5960,"ĠLog":5961,"odiplosis":5962,"rison":5963,"ĠChandra":5964,"ayne":5965,"wight":5966,"ĠMeillon":5967,"Psychoda":5968,"ĠLacroix":5969,"ĠPolice":5970,"hna":5971,"gio":5972,"omera":5973,"lecta":5974,"ensley":5975,"dida":5976,"ticum":5977,"Ġjac":5978,"ivit":5979,"tophora":5980,"Scol":5981,"lof":5982,"Elaph":5983,"Xysticus":5984,"ĠBudde":5985,"Ather":5986,"Pon":5987,"cliffe":5988,"Ġpri":5989,"ogorgia":5990,"urata":5991,"sche":5992,"ĠTakahashi":5993,"ĠAdrian":5994,"omaculata":5995,"Ġoliv":5996,"ĠCampbell":5997,"Ix":5998,"Lacc":5999,"Scia":6000,"elas":6001,"usi":6002,"than":6003,"ĠKal":6004,"ĠKob":6005,"andi":6006,"Ġext":6007,"robov":6008,"ĠRohdendorf":6009,"Bis":6010,"yrus":6011,"are":6012,"ĠCom":6013,"ĠGrig":6014,"ĠDenis":6015,"ĠDwight":6016,"Ġham":6017,"ĠNut":6018,"ebra":6019,"ĠIvanovich":6020,"Ġinermis":6021,"Gona":6022,"hensis":6023,"ungdan":6024,"ĠJack":6025,"Glyc":6026,"Hemer":6027,"Osmia":6028,"Ommatius":6029,"Su":6030,"Xiph":6031,"ons":6032,"iley":6033,"thgen":6034,"ĠAg":6035,"ipalpis":6036,"ochth":6037,"Ã¼thgen":6038,"tocoris":6039,"ompar":6040,"ĠBlÃ¼thgen":6041,"Ġrobustus":6042,"ĠNegrobov":6043,"ĠVandel":6044,"tud":6045,"Ġsar":6046,"Ġgihim":6047,"ĠTr":6048,"ĠEsenbeck":6049,"Ġvali":6050,"aeffer":6051,"ulia":6052,"Ġtetra":6053,"ĠBorisovitsch":6054,"ĠNees":6055,"ĠAdolph":6056,"ĠShiraki":6057,"Pycn":6058,"Schis":6059,"rox":6060,"Ġtulo":6061,"ĠIr":6062,"racomorphus":6063,"othrips":6064,"euria":6065,"ercops":6066,"ĠTokuichi":6067,"Batracomorphus":6068,"Au":6069,"ksi":6070,"sson":6071,"gilla":6072,"orrh":6073,"ĠRuiz":6074,"senius":6075,"Ġacum":6076,"galensis":6077,"Ã¨ne":6078,"toneura":6079,"Lob":6080,"aw":6081,"borg":6082,"fur":6083,"grand":6084,"nert":6085,"Ã´":6086,"Ġanth":6087,"lemann":6088,"baga":6089,"Chil":6090,"ginosa":6091,"Laph":6092,"nyder":6093,"Ġmarm":6094,"ĠMacleay":6095,"Ġpipila":6096,"akonoff":6097,"Nyc":6098,"mÃ©neville":6099,"ĠHop":6100,"ĠJacqu":6101,"Ġfalla":6102,"sata":6103,"ĠZe":6104,"Ġexig":6105,"ĠKraatz":6106,"qualis":6107,"ĠNewman":6108,"ĠArnold":6109,"noli":6110,"Ġon":6111,"Ġnam":6112,"tienne":6113,"opelma":6114,"imb":6115,"ets":6116,"ochilus":6117,"Ġrufipes":6118,"Ġ1794":6119,"ĠDiakonoff":6120,"Schizon":6121,"Desm":6122,"yas":6123,"aret":6124,"ĠBrig":6125,"ĠHun":6126,"icta":6127,"ĠEwald":6128,"tosc":6129,"ĠRama":6130,"carta":6131,"Exocentrus":6132,"ĠGarcia":6133,"Ġtestac":6134,"ĠMartynov":6135,"Ãº":6136,"Ġbac":6137,"ĠSnyder":6138,"tional":6139,"Ġpha":6140,"uban":6141,"entina":6142,"roneuria":6143,"eanu":6144,"illy":6145,"ovitsh":6146,"Paraph":6147,"Ġobscurus":6148,"ĠRaven":6149,"ĠDodd":6150,"Cond":6151,"ceps":6152,"dal":6153,"kard":6154,"usik":6155,"iscus":6156,"ĠGunna":6157,"ulla":6158,"terbein":6159,"ĠNompar":6160,"tena":6161,"there":6162,"ĠCaumont":6163,"Ġdigi":6164,"ĠPerrier":6165,"ĠKarlis":6166,"ĠOtterbein":6167,"Ġpallidus":6168,"ĠPrincis":6169,"ĠLaporte":6170,"Ġminima":6171,"ĠGunnar":6172,"Ast":6173,"Ġ-":6174,"Ġnana":6175,"enopsis":6176,"lee":6177,"Ġtrich":6178,"Ã©ril":6179,"ĠDavies":6180,"Ġdakong":6181,"Seric":6182,"oleon":6183,"ĠDumÃ©ril":6184,"cistrocerus":6185,"ĠGuillaume":6186,"ĠBrÃ¶lemann":6187,"Ġatri":6188,"eras":6189,"thar":6190,"siana":6191,"omerus":6192,"icz":6193,"ĠJoy":6194,"ĠChicker":6195,"hatag":6196,"ĠSchen":6197,"ĠYas":6198,"ĠQuicke":6199,"Noti":6200,"Palp":6201,"Ġdubia":6202,"ĠChickering":6203,"sman":6204,"zal":6205,"Ġox":6206,"Ġnep":6207,"Ġsangu":6208,"eres":6209,"chner":6210,"oplis":6211,"ĠBac":6212,"omar":6213,"mpson":6214,"ĠDuret":6215,"ixius":6216,"Serica":6217,"ĠLyneborg":6218,"wei":6219,"ĠLund":6220,"ulti":6221,"ĠKensley":6222,"urina":6223,"ingong":6224,"Ġfri":6225,"ĠNob":6226,"entis":6227,"Paran":6228,"embre":6229,"Prosop":6230,"ANG":6231,"ĠManning":6232,"Cyclocephala":6233,"Stark":6234,"Pap":6235,"Teph":6236,"Ġinor":6237,"ecus":6238,"abi":6239,"uttata":6240,"ĠMathis":6241,"ĠHerman":6242,"yodo":6243,"Ġwalay":6244,"Ceratina":6245,"Psylla":6246,"ĠTsacas":6247,"Schizonycha":6248,"Ra":6249,"Sta":6250,"zona":6251,"lit":6252,"ĠBran":6253,"ols":6254,"ĠPra":6255,"ĠDan":6256,"ĠEigen":6257,"ugna":6258,"ĠMarusik":6259,"irns":6260,"Ã©p":6261,"ĠZimmer":6262,"Lecan":6263,"Cyp":6264,"Sil":6265,"igona":6266,"ĠIvanovitsch":6267,"Ġpusilla":6268,"Oecetis":6269,"Palae":6270,"ĠMotschulsky":6271,"ĠEigenmann":6272,"Asc":6273,"kensis":6274,"eros":6275,"ĠMerc":6276,"ĠTav":6277,"ohelea":6278,"ĠChand":6279,"ricola":6280,"ayashi":6281,"anthe":6282,"tsov":6283,"trichia":6284,"ĠBohart":6285,"Chrysopilus":6286,"Spathius":6287,"Stic":6288,"folia":6289,"ĠStra":6290,"ilosa":6291,"hing":6292,"batus":6293,"Ġnah":6294,"ĠSaba":6295,"Ġ1787":6296,"Disc":6297,"Ġparado":6298,"Ġhangtod":6299,"Bombylius":6300,"AL":6301,"Elas":6302,"tsu":6303,"ved":6304,"ylia":6305,"erson":6306,"repan":6307,"ĠKÃ¼":6308,"imia":6309,"rosi":6310,"telus":6311,"tosan":6312,"Ġarcu":6313,"Ġsubc":6314,"ĠParkhurst":6315,"enzel":6316,"inervis":6317,"Halicl":6318,"Ġcalifornica":6319,"ĠCornelius":6320,"ĠVasilievich":6321,"Ber":6322,"Nag":6323,"lba":6324,"enleit":6325,"Ġara":6326,"Ġater":6327,"Ġaber":6328,"otum":6329,"bio":6330,"yrin":6331,"ansen":6332,"ĠGies":6333,"Hyper":6334,"Fannia":6335,"Hyph":6336,"tona":6337,"sellus":6338,"ĠMasa":6339,"Ġmel":6340,"ĠWayne":6341,"otro":6342,"eroides":6343,"Chei":6344,"ĠKaz":6345,"genys":6346,"ruce":6347,"Ġdimidia":6348,"Les":6349,"oldi":6350,"ĠGille":6351,"Ġlongip":6352,"Micra":6353,"Ġsplend":6354,"Pty":6355,"Pyg":6356,"nier":6357,"tellus":6358,"Ġgibb":6359,"omon":6360,"Ġpon":6361,"Ġcryp":6362,"Ġanti":6363,"ĠEmeljan":6364,"taetia":6365,"ĠStimpson":6366,"ĠEmeljanov":6367,"whan":6368,"Ġsmith":6369,"Ġborne":6370,"ĠHÃ¶":6371,"iculatus":6372,"ĠFyodo":6373,"ĠPap":6374,"ĠCairns":6375,"ĠReese":6376,"ĠKramer":6377,"ĠBenj":6378,"ĠFyodorovich":6379,"Can":6380,"Dy":6381,"math":6382,"erti":6383,"raec":6384,"oso":6385,"Ġmong":6386,"linensis":6387,"tigera":6388,"Hoplitis":6389,"Tetragnatha":6390,"ĠDietrich":6391,"ĠHÃ¼":6392,"ĠKu":6393,"ocra":6394,"Ġfran":6395,"sper":6396,"ladi":6397,"Ġgre":6398,"yskal":6399,"ieg":6400,"geon":6401,"oneurus":6402,"Ġpulcher":6403,"Dil":6404,"uana":6405,"lii":6406,"orensis":6407,"ukod":6408,"Ġhama":6409,"ipalpus":6410,"qui":6411,"tonus":6412,"ycine":6413,"tram":6414,"eleman":6415,"ĠAbra":6416,"Haliclona":6417,"Cord":6418,"dz":6419,"mma":6420,"Ġcand":6421,"Ġcit":6422,"ogomphus":6423,"ĠIwa":6424,"ĠSteyskal":6425,"ĠArmand":6426,"ĠUhler":6427,"echbaum":6428,"Ġgrise":6429,"ĠKriv":6430,"Sapromyza":6431,"Com":6432,"Lutz":6433,"Try":6434,"ai":6435,"onicus":6436,"phond":6437,"ĠKuma":6438,"Ġeur":6439,"ynn":6440,"ĠEvgen":6441,"rolep":6442,"Ġtransver":6443,"ĠJaap":6444,"Cecido":6445,"Tin":6446,"yevich":6447,"Ġ9":6448,"ĠBus":6449,"ĠLang":6450,"ogn":6451,"Ġkla":6452,"Ġger":6453,"ochaeta":6454,"ĠBois":6455,"ĠBerland":6456,"ethus":6457,"teroides":6458,"ĠEugÃ¨ne":6459,"Limnophora":6460,"ĠWolfram":6461,"otropis":6462,"ĠUrban":6463,"Sphecodes":6464,"ĠBenjamin":6465,"Mol":6466,"gera":6467,"osh":6468,"Ġtran":6469,"nemus":6470,"aden":6471,"Ġnigripes":6472,"ĠRath":6473,"Protaetia":6474,"lesi":6475,"ĠFelder":6476,"ĠLesne":6477,"ĠGusenleit":6478,"Tetrastichus":6479,"ĠSjÃ¶":6480,"ĠGusenleitner":6481,"Tory":6482,"du":6483,"lak":6484,"ishi":6485,"leus":6486,"ash":6487,"latta":6488,"alidia":6489,"hanensis":6490,"Ġmultis":6491,"Ġpanahon":6492,"Lutzomyia":6493,"Popillia":6494,"uff":6495,"ĠDr":6496,"Ġfac":6497,"Armad":6498,"ĠNikolayevich":6499,"Dorcadion":6500,"ĠSavchenko":6501,"ĠBrandt":6502,"ĠEvgenyi":6503,"Torymus":6504,"Epis":6505,"Riv":6506,"dana":6507,"dera":6508,"kae":6509,"daue":6510,"Ġhapon":6511,"igma":6512,"tosoma":6513,"ĠDeeleman":6514,"Orni":6515,"Holotrichia":6516,"Dichae":6517,"uckett":6518,"Ġtristis":6519,"vittata":6520,"stantin":6521,"ĠKozlov":6522,"Acrocercops":6523,"ĠSjÃ¶stedt":6524,"Carc":6525,"Delia":6526,"Gla":6527,"mael":6528,"Ġkara":6529,"Ġauric":6530,"ilya":6531,"amia":6532,"Ġdup":6533,"haw":6534,"ycnus":6535,"ĠHerb":6536,"arach":6537,"ĠCoen":6538,"Ġ1816":6539,"Ġspeci":6540,"ĠMichail":6541,"mÃ¡":6542,"lier":6543,"toi":6544,"Ġina":6545,"ĠAki":6546,"ĠKott":6547,"Ġhas":6548,"chaea":6549,"viana":6550,"Ġ1793":6551,"Ġnitid":6552,"Ġchilensis":6553,"Ġnob":6554,"ieber":6555,"ilio":6556,"ĠLaub":6557,"burg":6558,"Ġindicus":6559,"ĠPiza":6560,"echbaumer":6561,"dak":6562,"yella":6563,"ĠCros":6564,"ĠComp":6565,"Ġmich":6566,"dai":6567,"assa":6568,"ruz":6569,"anthrax":6570,"Mete":6571,"Ġlineata":6572,"Rhyti":6573,"Ġtricolor":6574,"Ġhinungdan":6575,"ĠFernando":6576,"ylostylus":6577,"Cre":6578,"num":6579,"rn":6580,"Ġubang":6581,"reinh":6582,"ĠDur":6583,"Ġclyp":6584,"assus":6585,"Ġfas":6586,"ĠHerbert":6587,"Rhys":6588,"eletier":6589,"Orch":6590,"enning":6591,"ĠNielsen":6592,"phondylia":6593,"reinhold":6594,"Eug":6595,"Podo":6596,"Tryp":6597,"sina":6598,"raad":6599,"Ġcre":6600,"Ġcub":6601,"Ġkus":6602,"obar":6603,"ophylla":6604,"ĠStefano":6605,"Ġcha":6606,"Microc":6607,"ĠRegan":6608,"lytus":6609,"Ġbrunne":6610,"Steg":6611,"ckelberg":6612,"Condylostylus":6613,"ĠCoenraad":6614,"Selen":6615,"zii":6616,"gida":6617,"osis":6618,"edia":6619,"ĠNeb":6620,"uyen":6621,"kerras":6622,"ouri":6623,"ephth":6624,"ariensis":6625,"Macroc":6626,"Brachyp":6627,"ĠStackelberg":6628,"irostreptus":6629,"Ġlaevis":6630,"aroslav":6631,"Strong":6632,"Pi":6633,"Trog":6634,"Villa":6635,"anon":6636,"icer":6637,"ĠDruce":6638,"idum":6639,"Ġgo":6640,"topogon":6641,"Ġbrunnea":6642,"Ġsuba":6643,"ĠNaka":6644,"Ġmagnif":6645,"Ġip":6646,"tangan":6647,"chaeta":6648,"Ġpe":6649,"ingensis":6650,"ochlora":6651,"Ġchinensis":6652,"Ġexc":6653,"Ġinterrup":6654,"Limne":6655,"ĠBrook":6656,"ĠWeber":6657,"ĠNguyen":6658,"Stilobezzia":6659,"ĠKobayashi":6660,"Syr":6661,"Ġamo":6662,"phron":6663,"rott":6664,"lev":6665,"Ġcili":6666,"ĠTat":6667,"imer":6668,"epheus":6669,"alas":6670,"racanth":6671,"laston":6672,"ĠHarry":6673,"hami":6674,"Ġ1819":6675,"uzne":6676,"Tachina":6677,"Sympycnus":6678,"ducta":6679,"ĠLaurent":6680,"udhuri":6681,"Hyal":6682,"Pag":6683,"gon":6684,"Ġseg":6685,"ĠSar":6686,"oplia":6687,"ĠHood":6688,"itta":6689,"ricornis":6690,"ĠIgor":6691,"trom":6692,"ginea":6693,"Trioza":6694,"Ġvittata":6695,"ĠTorre":6696,"Ġnako":6697,"Ġkinabuhi":6698,"Gypona":6699,"ĠChandler":6700,"awa":6701,"Ġkapi":6702,"erna":6703,"ines":6704,"Ġbakeri":6705,"igra":6706,"ĠOlof":6707,"upp":6708,"Ġnagpa":6709,"Ã³n":6710,"Ġquadris":6711,"Eupel":6712,"indanao":6713,"Eriococcus":6714,"ĠEngel":6715,"Uran":6716,"vey":6717,"osticta":6718,"ial":6719,"ĠBas":6720,"simus":6721,"simum":6722,"ĠDar":6723,"Char":6724,"Paral":6725,"ĠTaiti":6726,"ĠSergei":6727,"ĠMackerras":6728,"Chlorops":6729,"ĠWesmael":6730,"Homal":6731,"Te":6732,"gara":6733,"rida":6734,"ĠHobb":6735,"ĠYama":6736,"ĠWallace":6737,"ĠBrulle":6738,"Ġwe":6739,"Chrysotus":6740,"ĠMandaue":6741,"ĠWollaston":6742,"Hir":6743,"four":6744,"marus":6745,"Ġbasalis":6746,"ĠHuckett":6747,"Ġpo":6748,"icki":6749,"Ġmen":6750,"hiyon":6751,"unensis":6752,"Ġce":6753,"ocar":6754,"tesia":6755,"ĠSchleg":6756,"rocerus":6757,"osella":6758,"Ġbao":6759,"ĠShadab":6760,"ricotopus":6761,"Ġnitida":6762,"ĠSchlegel":6763,"Iphia":6764,"ps":6765,"Ġlis":6766,"Ġsur":6767,"ely":6768,"iatus":6769,"omu":6770,"oboth":6771,"emon":6772,"toptera":6773,"Ġdav":6774,"phaga":6775,"marginata":6776,"Ġornatus":6777,"Ġmulti":6778,"ĠJakob":6779,"Iphiaulax":6780,"jo":6781,"kia":6782,"Ġ10":6783,"omitra":6784,"olana":6785,"roi":6786,"ĠJen":6787,"obata":6788,"ovia":6789,"anthura":6790,"olophus":6791,"Ġpicta":6792,"ognatha":6793,"Ġannuli":6794,"Ecn":6795,"stes":6796,"gari":6797,"enac":6798,"ĠSingh":6799,"Ġpre":6800,"ĠJona":6801,"ungi":6802,"ranus":6803,"elius":6804,"tiger":6805,"ticauda":6806,"wart":6807,"Ġmadagas":6808,"ĠHobbs":6809,"Cixius":6810,"Un":6811,"kus":6812,"tell":6813,"doc":6814,"Ġgiingong":6815,"orth":6816,"opla":6817,"opoli":6818,"ospi":6819,"omorium":6820,"ĠLapu":6821,"ĠDay":6822,"imba":6823,"elleri":6824,"tilus":6825,"insky":6826,"Ġvariegata":6827,"Freycine":6828,"Demonax":6829,"Freycinetia":6830,"Iris":6831,"Nann":6832,"rre":6833,"Ġincis":6834,"olowska":6835,"ĠLich":6836,"philus":6837,"dahl":6838,"otre":6839,"ĠOl":6840,"ĠBotosan":6841,"Glyp":6842,"Contarinia":6843,"limnophila":6844,"Ġstriata":6845,"ĠGrube":6846,"II":6847,"bas":6848,"key":6849,"wski":6850,"tole":6851,"Ġstigma":6852,"rif":6853,"Ġpeti":6854,"icella":6855,"ampion":6856,"ĠPercy":6857,"Ġcarinata":6858,"ĠBeamer":6859,"ĠWesolowska":6860,"Ġtuberculata":6861,"ĠStock":6862,"ĠRodrigu":6863,"Cyan":6864,"iz":6865,"jal":6866,"Ġsoc":6867,"seta":6868,"Ġbella":6869,"ĠSid":6870,"Ġkra":6871,"Anti":6872,"ressus":6873,"Platyc":6874,"stein":6875,"Calop":6876,"Callis":6877,"Epic":6878,"ĠCons":6879,"mittia":6880,"Ġbukya":6881,"ĠBotosaneanu":6882,"bigny":6883,"cox":6884,"Ġ8":6885,"enci":6886,"dom":6887,"argus":6888,"tiventris":6889,"ĠBresc":6890,"phor":6891,"Ġtrop":6892,"ylv":6893,"Ġlateralis":6894,"ĠJohnston":6895,"Ġanyos":6896,"ambus":6897,"Leptothorax":6898,"blatta":6899,"ĠKriechbaumer":6900,"Eosentomon":6901,"ĠBrescovit":6902,"Alei":6903,"gre":6904,"Ġrich":6905,"anella":6906,"licus":6907,"malus":6908,"Ġasia":6909,"Ġbad":6910,"omont":6911,"Ġpunctatus":6912,"dat":6913,"ĠDenning":6914,"Ġcam":6915,"ydney":6916,"Pseudos":6917,"ĠMartinez":6918,"Ġatten":6919,"ĠBrauer":6920,"ĠSchulz":6921,"ĠBoucomont":6922,"Ġjaponicus":6923,"Ġhirsuta":6924,"Anacroneuria":6925,"Clathria":6926,"atus":6927,"Ġova":6928,"Ġno":6929,"torius":6930,"eron":6931,"ses":6932,"Ġincon":6933,"onatus":6934,"Ġbasi":6935,"hoff":6936,"Amorph":6937,"ĠGustaf":6938,"Colp":6939,"Sphen":6940,"sicornis":6941,"Ġdentic":6942,"Rhip":6943,"Ġsilv":6944,"Bemb":6945,"Bezzia":6946,"Doc":6947,"Eut":6948,"Pin":6949,"hynchus":6950,"kta":6951,"seni":6952,"Ġatro":6953,"Ġgika":6954,"thor":6955,"phale":6956,"ĠFeng":6957,"ĠRey":6958,"Ġheter":6959,"ichneumon":6960,"ĠHenk":6961,"ĠLaf":6962,"enzlin":6963,"Ġtow":6964,"Dacus":6965,"Ġreticulata":6966,"ĠLepeletier":6967,"ĠXaver":6968,"Formica":6969,"Laphria":6970,"Bur":6971,"Dama":6972,"Ġmak":6973,"esthes":6974,"ĠScar":6975,"ĠLit":6976,"ocoris":6977,"rya":6978,"epta":6979,"emph":6980,"ardia":6981,"Ġantarc":6982,"cion":6983,"botan":6984,"kenthal":6985,"buok":6986,"ĠSchultz":6987,"rescens":6988,"ĠRudy":6989,"ĠGyÃ¶":6990,"Boli":6991,"Cli":6992,"Cyn":6993,"Liss":6994,"Odynerus":6995,"gula":6996,"gid":6997,"ary":6998,"onem":6999,"Ġluna":7000,"ĠBlum":7001,"thel":7002,"uke":7003,"Ġcosta":7004,"urgus":7005,"ĠWillard":7006,"taria":7007,"Ġconcolor":7008,"Ġflavic":7009,"ĠRaff":7010,"oiss":7011,"Monomorium":7012,"aldwell":7013,"ĠSzÃ©p":7014,"ĠGary":7015,"Hoplia":7016,"Ġgitawag":7017,"ĠKÃ¼kenthal":7018,"ĠGyÃ¶Ã¶":7019,"ĠSzÃ©pligeti":7020,"Hyl":7021,"May":7022,"bosa":7023,"tet":7024,"tiv":7025,"ĠCaldwell":7026,"Ġpers":7027,"phac":7028,"ipona":7029,"tocera":7030,"uhiko":7031,"ĠServille":7032,"Asphondylia":7033,"ĠKraenzlin":7034,"Ġlalaki":7035,"Pegomya":7036,"Teucholabis":7037,"ĠBrignoli":7038,"leeker":7039,"bom":7040,"lot":7041,"Ġsol":7042,"Ġgipusil":7043,"ĠBleeker":7044,"ignata":7045,"oval":7046,"eirus":7047,"singham":7048,"ĠArtur":7049,"Chrysops":7050,"Ġ1803":7051,"Euryc":7052,"Ġopisyal":7053,"bara":7054,"tiva":7055,"Ġpi":7056,"Ġpasa":7057,"ĠJaroslav":7058,"ĠKuzne":7059,"ĠNi":7060,"Chalc":7061,"ĠWalsingham":7062,"Ġdef":7063,"oniella":7064,"lyth":7065,"Ġmagna":7066,"Phytocoris":7067,"chthys":7068,"Ġpilosa":7069,"valho":7070,"Oxyopes":7071,"Ġmexicanus":7072,"ĠNeboiss":7073,"ĠArturs":7074,"Ka":7075,"Oz":7076,"hol":7077,"Ġshi":7078,"dona":7079,"Ġmatag":7080,"ĠSur":7081,"rett":7082,"Ġmuc":7083,"Ġmili":7084,"ogra":7085,"Ġtanang":7086,"otrach":7087,"ĠVig":7088,"ĠCarlgren":7089,"ĠBrom":7090,"Rhynch":7091,"Spirostreptus":7092,"Dicty":7093,"Ġmayor":7094,"Aleiodes":7095,"Ame":7096,"Opis":7097,"Sumala":7098,"cornis":7099,"ool":7100,"ersi":7101,"ink":7102,"chow":7103,"ĠHum":7104,"Ġvel":7105,"Ġvol":7106,"eau":7107,"sonia":7108,"ĠHerrich":7109,"Netelia":7110,"ĠCarvalho":7111,"Ġcomm":7112,"ĠRathbun":7113,"Croc":7114,"bella":7115,"osvar":7116,"ĠBeyer":7117,"ĠPres":7118,"ĠDra":7119,"Ġkir":7120,"Ġfasciatus":7121,"tratus":7122,"ĠShear":7123,"Anas":7124,"ĠGory":7125,"isternus":7126,"Ġanaa":7127,"Parmotrema":7128,"Meteorus":7129,"Bal":7130,"Prim":7131,"brev":7132,"mana":7133,"vet":7134,"esis":7135,"ĠBy":7136,"ĠBala":7137,"undi":7138,"nemis":7139,"eriella":7140,"Ġsingularis":7141,"Pseudom":7142,"tylis":7143,"Ġochrac":7144,"ĠJoÃ£o":7145,"ĠHutton":7146,"sor":7147,"uji":7148,"rium":7149,"Ġincer":7150,"ĠBoy":7151,"alo":7152,"ĠRol":7153,"Ġcalli":7154,"ocharis":7155,"pinosus":7156,"niphora":7157,"Apocephalus":7158,"Ġunta":7159,"ĠBurgeon":7160,"jaev":7161,"Dinotrema":7162,"Eunidia":7163,"Ġarizon":7164,"ĠIsaac":7165,"Ġfallax":7166,"ĠSchenkel":7167,"ĠBromley":7168,"deni":7169,"vas":7170,"tov":7171,"Ġbon":7172,"elba":7173,"ĠSin":7174,"ĠLu":7175,"ĠGoz":7176,"ĠKap":7177,"ubo":7178,"oche":7179,"ochromis":7180,"tissima":7181,"Anc":7182,"Rhac":7183,"Ġthorac":7184,"kinson":7185,"Pachy":7186,"ĠAmÃ©dÃ©e":7187,"Ataenius":7188,"sens":7189,"zum":7190,"anda":7191,"ĠChou":7192,"Ã¶m":7193,"Ġ1792":7194,"Chaeto":7195,"Dolichopeza":7196,"ĠStary":7197,"Porcellio":7198,"Arach":7199,"dun":7200,"ĠHi":7201,"ogu":7202,"Ġkor":7203,"ĠEb":7204,"ĠOff":7205,"ulifer":7206,"adi":7207,"iko":7208,"meria":7209,"Exochus":7210,"mento":7211,"Ġnatalensis":7212,"Diplota":7213,"ptera":7214,"kama":7215,"Ġbel":7216,"estylum":7217,"ĠSy":7218,"ĠRag":7219,"ĠDon":7220,"aceus":7221,"otto":7222,"etina":7223,"ĠMarga":7224,"tesz":7225,"ĠIshi":7226,"doni":7227,"Nema":7228,"ramm":7229,"hammad":7230,"ĠMueller":7231,"Copestylum":7232,"ĠHoffman":7233,"Phila":7234,"cock":7235,"otoma":7236,"ĠCer":7237,"ĠJasch":7238,"Ġflex":7239,"cala":7240,"ents":7241,"Ġmantala":7242,"hntner":7243,"Calad":7244,"hanglan":7245,"rochilum":7246,"Ġparvus":7247,"rophthal":7248,"Eumerus":7249,"Ġmaculipennis":7250,"brecht":7251,"Adel":7252,"Sciara":7253,"Tap":7254,"rug":7255,"yu":7256,"ento":7257,"lieb":7258,"inth":7259,"ĠCab":7260,"ĠLatre":7261,"ĠGard":7262,"odium":7263,"oderma":7264,"Ġdentata":7265,"Ġfenes":7266,"Ġfurc":7267,"Cheli":7268,"owi":7269,"tifer":7270,"ĠMuhammad":7271,"Mao":7272,"ĠLatreille":7273,"Nep":7274,"anomyia":7275,"licata":7276,"gilus":7277,"Ġped":7278,"Ġdich":7279,"ubong":7280,"ĠSchne":7281,"rosus":7282,"tomia":7283,"Ġpulchella":7284,"Aug":7285,"Ni":7286,"eo":7287,"tobia":7288,"ulae":7289,"ĠHild":7290,"alum":7291,"reira":7292,"ĠGasp":7293,"ĠPop":7294,"Ġcinc":7295,"asabot":7296,"Ġasper":7297,"Ġnamatay":7298,"triata":7299,"rentep":7300,"Ġgawas":7301,"ĠLazar":7302,"Scy":7303,"Ġmarginata":7304,"opauropus":7305,"Siph":7306,"Barbus":7307,"cheilus":7308,"Ġpinulongan":7309,"ĠGeoffroy":7310,"ĠZehntner":7311,"ĠGaspard":7312,"tab":7313,"ĠBib":7314,"lese":7315,"ĠDillon":7316,"unis":7317,"Ġcruc":7318,"cae":7319,"rdi":7320,"ĠAlban":7321,"Megas":7322,"ĠJohannsen":7323,"eger":7324,"Ġnahitabo":7325,"Arg":7326,"Ġrufescens":7327,"Diaphorus":7328,"gyrus":7329,"ĠPoore":7330,"ĠKertesz":7331,"Phanero":7332,"Oberea":7333,"ĠAbraham":7334,"ĠBlume":7335,"Apa":7336,"Cam":7337,"IT":7338,"Men":7339,"tron":7340,"zl":7341,"riae":7342,"Ġprin":7343,"ales":7344,"ulta":7345,"Metop":7346,"ĠBrull":7347,"Proto":7348,"Arth":7349,"Dendrochilum":7350,"Sergen":7351,"Diplotaxis":7352,"rentepoh":7353,"Mat":7354,"ygi":7355,"Ġnota":7356,"mala":7357,"Ġkam":7358,"Ġami":7359,"Ġatol":7360,"ulacus":7361,"ĠBi":7362,"ĠBag":7363,"Ġpru":7364,"icea":7365,"ĠLar":7366,"ĠDeb":7367,"ogan":7368,"Ġdila":7369,"tinia":7370,"oneta":7371,"desmus":7372,"ethira":7373,"Ġabdominalis":7374,"orace":7375,"Ġdaghang":7376,"Ġamericana":7377,"ĠMyers":7378,"Bembidion":7379,"ĠJaschhof":7380,"Cerodon":7381,"Sophron":7382,"Ten":7383,"Trentepoh":7384,"erina":7385,"chilus":7386,"raeus":7387,"Ġpall":7388,"ĠDalla":7389,"Ġcun":7390,"ĠWilcox":7391,"ucken":7392,"udis":7393,"opsyllus":7394,"tend":7395,"erty":7396,"idiotus":7397,"Ġflavescens":7398,"onium":7399,"Dendron":7400,"Ġamazon":7401,"Tomosvar":7402,"ĠKelsey":7403,"rottky":7404,"Cerodontha":7405,"Trentepohlia":7406,"Tomosvaryella":7407,"Api":7408,"Gas":7409,"Gladi":7410,"Mil":7411,"Mall":7412,"geri":7413,"tch":7414,"uto":7415,"giata":7416,"arensis":7417,"ĠSoy":7418,"yama":7419,"ĠZwick":7420,"anthera":7421,"Anopl":7422,"stre":7423,"Ġ1811":7424,"Ġbimaculata":7425,"Ophiomyia":7426,"uval":7427,"ĠGottlieb":7428,"Ġlugub":7429,"Caloptilia":7430,"Cic":7431,"Seto":7432,"Tor":7433,"loe":7434,"vari":7435,"won":7436,"Ġuni":7437,"ĠSydney":7438,"tich":7439,"ĠDem":7440,"ĠDir":7441,"ensus":7442,"octonus":7443,"quinet":7444,"uctob":7445,"udus":7446,"erodactylus":7447,"vala":7448,"Neoloph":7449,"trÃ¶m":7450,"Ġnigrop":7451,"ĠLiang":7452,"Leptogaster":7453,"Ġsuspek":7454,"ĠTosquinet":7455,"oxipha":7456,"Gynoplis":7457,"japitz":7458,"Ġaberrans":7459,"Uranotaenia":7460,"ĠSchneider":7461,"Gynoplistia":7462,"Drass":7463,"Kar":7464,"ise":7465,"tay":7466,"Ġmod":7467,"Ġmand":7468,"ĠRoman":7469,"ĠSchrottky":7470,"stric":7471,"Ġpagt":7472,"Ġarmata":7473,"ethoven":7474,"Ġ1791":7475,"Alloc":7476,"Ġspinosus":7477,"ĠBeethoven":7478,"Ġbifur":7479,"Erioptera":7480,"Blaes":7481,"Ġrotunda":7482,"lbauer":7483,"ĠBrullÃ©":7484,"Ara":7485,"Xes":7486,"colas":7487,"Ġign":7488,"Ġniining":7489,"galis":7490,"Ġaethi":7491,"Ġbuh":7492,"ĠAv":7493,"ĠLess":7494,"data":7495,"odromia":7496,"ifoli":7497,"ĠRobertson":7498,"Ġocc":7499,"Ġpoly":7500,"Plecia":7501,"Ġnovae":7502,"zanowski":7503,"Drepan":7504,"Lapu":7505,"soma":7506,"Ġsut":7507,"ercus":7508,"seva":7509,"ĠBlyth":7510,"ĠWei":7511,"ĠPas":7512,"ĠRamb":7513,"ĠKiri":7514,"Ġdem":7515,"ecia":7516,"rant":7517,"ĠThÃ©":7518,"phaen":7519,"Ġmacro":7520,"Macropsis":7521,"urcell":7522,"Indo":7523,"ĠMerrill":7524,"ĠSchwarz":7525,"sevitch":7526,"Ġphilippin":7527,"ĠBryant":7528,"nertz":7529,"Neolophonotus":7530,"Paul":7531,"meyer":7532,"Ġubos":7533,"ĠHas":7534,"dachner":7535,"ĠKin":7536,"igema":7537,"nei":7538,"Ġnaa":7539,"Ġlatif":7540,"derson":7541,"ĠHaj":7542,"Ġparvula":7543,"Cyrto":7544,"ĠWinnertz":7545,"ĠTanasevitch":7546,"Laccophilus":7547,"Lan":7548,"Tmes":7549,"duval":7550,"lzel":7551,"tros":7552,"ritus":7553,"ĠPurcell":7554,"ĠTri":7555,"ophallus":7556,"otylus":7557,"ĠWilton":7558,"gamhanan":7559,"illatus":7560,"Ġunc":7561,"Hydrops":7562,"orista":7563,"mesa":7564,"ringer":7565,"Ġamahan":7566,"Halictus":7567,"Ġdaghan":7568,"ĠThiele":7569,"leitÃ£o":7570,"ĠRubtsov":7571,"Atherigona":7572,"ĠHÃ¶lzel":7573,"Caladenia":7574,"AB":7575,"Goni":7576,"Ur":7577,"uka":7578,"lita":7579,"orma":7580,"olobus":7581,"Ġmim":7582,"ĠGill":7583,"lette":7584,"ĠKam":7585,"ellen":7586,"ĠMartius":7587,"Neob":7588,"Ġtamb":7589,"ĠBerlese":7590,"Ġacanth":7591,"ĠSoula":7592,"gismund":7593,"ĠSalvin":7594,"ĠSigismund":7595,"Cecidomyia":7596,"Gladiolus":7597,"Ami":7598,"bnic":7599,"kes":7600,"siella":7601,"silia":7602,"Ġev":7603,"eve":7604,"ĠOsbert":7605,"ĠHayward":7606,"uvier":7607,"Leioproctus":7608,"Scaptomyza":7609,"Ġtruncata":7610,"Lecanora":7611,"ĠLessert":7612,"Peli":7613,"Ġpl":7614,"Ġkri":7615,"lisabeth":7616,"bad":7617,"bera":7618,"ĠGib":7619,"Ġlongisp":7620,"cogaster":7621,"Notoph":7622,"ophytum":7623,"Pteromalus":7624,"Ġdistincta":7625,"ĠNutting":7626,"Prosopocera":7627,"Ram":7628,"Ġom":7629,"Ġmahi":7630,"Ġinte":7631,"sicolor":7632,"Ġpak":7633,"Ġpuncta":7634,"Ġcroc":7635,"occhi":7636,"evan":7637,"utter":7638,"Acal":7639,"lde":7640,"Ġlind":7641,"Chama":7642,"Ġverruc":7643,"Aspilota":7644,"ĠIning":7645,"ĠKunth":7646,"ĠRemm":7647,"Ġmiaging":7648,"ĠAleksei":7649,"ĠBoisduval":7650,"Sergentomyia":7651,"Hydropsyche":7652,"Agal":7653,"dn":7654,"ennes":7655,"Ġblan":7656,"tiana":7657,"ĠHoe":7658,"rona":7659,"ĠKing":7660,"ogg":7661,"urella":7662,"quus":7663,"oraea":7664,"ĠSchaeffer":7665,"diana":7666,"troph":7667,"Ġlig":7668,"ĠChristi":7669,"Leucoph":7670,"Ġimong":7671,"Ġedward":7672,"Ġpamilya":7673,"ĠRolfe":7674,"Strongyl":7675,"Ecnomus":7676,"Lam":7677,"wer":7678,"Ã«":7679,"antis":7680,"Ġsen":7681,"isÅĤ":7682,"Ġbro":7683,"essa":7684,"ĠMuller":7685,"ĠCuvier":7686,"uls":7687,"ĠKÃ¶":7688,"ips":7689,"quama":7690,"ĠSchwen":7691,"itata":7692,"ĠLima":7693,"Orthocladius":7694,"Ġhetero":7695,"ĠMedler":7696,"ochthonius":7697,"ĠSchwenke":7698,"Polis":7699,"yge":7700,"wall":7701,"Ġkat":7702,"Ġmat":7703,"sec":7704,"thie":7705,"ĠHor":7706,"olon":7707,"ĠKr":7708,"ĠKre":7709,"edusa":7710,"elluc":7711,"ĠStebnic":7712,"endra":7713,"Neos":7714,"cheron":7715,"ĠKato":7716,"Euch":7717,"Ġlugar":7718,"Copris":7719,"ĠChase":7720,"ĠKnull":7721,"Ġtaiw":7722,"Nymphon":7723,"Blaesoxipha":7724,"ĠStebnicka":7725,"Syc":7726,"Telma":7727,"Ġgigas":7728,"Ġgitu":7729,"Ġ12":7730,"onella":7731,"onova":7732,"ĠLans":7733,"ĠLuer":7734,"ĠGrich":7735,"hab":7736,"ird":7737,"anthes":7738,"ĠCarlyle":7739,"shev":7740,"Acrop":7741,"ydrus":7742,"ridis":7743,"Ġgar":7744,"Onc":7745,"ĠMorse":7746,"Aphis":7747,"Ġfrontalis":7748,"Ġinahan":7749,"ephthya":7750,"ĠGrichanov":7751,"Gag":7752,"tee":7753,"ĠHil":7754,"Ġcalc":7755,"ĠNicol":7756,"oup":7757,"ĠAlf":7758,"cistrus":7759,"ellii":7760,"Heteroc":7761,"ĠLesson":7762,"ĠAleks":7763,"Ġpopula":7764,"Ġpropin":7765,"Ġkatawhan":7766,"ĠProut":7767,"douard":7768,"Ġak":7769,"child":7770,"estro":7771,"ĠJenn":7772,"ĠPont":7773,"Ġku":7774,"ĠOh":7775,"evra":7776,"rosp":7777,"yptera":7778,"ĠZdz":7779,"Polydesmus":7780,"less":7781,"Ġhumilis":7782,"ĠGaima":7783,"ĠPoll":7784,"Ġfuscipennis":7785,"Olios":7786,"ĠSteindachner":7787,"Ġcornuta":7788,"Ġauranti":7789,"ĠKusigema":7790,"Ġmetalli":7791,"ĠRafael":7792,"Sophronica":7793,"isÅĤawa":7794,"ĠZdzisÅĤawa":7795,"ĠKusigemati":7796,"Syne":7797,"ttar":7798,"Ã¢":7799,"malay":7800,"rimus":7801,"eloribates":7802,"alp":7803,"ĠLub":7804,"Ġkur":7805,"ecke":7806,"ĠChild":7807,"ellman":7808,"ongres":7809,"ochlor":7810,"Ġech":7811,"ikov":7812,"phaera":7813,"rachne":7814,"ĠShima":7815,"Spilogona":7816,"ĠOffice":7817,"ĠAleksand":7818,"ineus":7819,"ĠBha":7820,"odd":7821,"Ġfuli":7822,"manus":7823,"ĠOno":7824,"ĠHenderson":7825,"ĠAlb":7826,"ĠBorch":7827,"tzov":7828,"ĠBurret":7829,"ĠPark":7830,"onymus":7831,"eiser":7832,"ĠBacescu":7833,"Ġceyl":7834,"ĠAlbany":7835,"Dig":7836,"Pedi":7837,"gson":7838,"ĠHorace":7839,"Ġcari":7840,"ĠTac":7841,"ĠVol":7842,"Ġlatifrons":7843,"ĠMasi":7844,"entulus":7845,"orides":7846,"ĠShannon":7847,"Ġnags":7848,"illidium":7849,"stead":7850,"Leptotarsus":7851,"Ġcolum":7852,"assler":7853,"ĠMiy":7854,"ĠCapener":7855,"Panorpa":7856,"Geranomyia":7857,"Ġdorsalis":7858,"Comps":7859,"Cerc":7860,"Deli":7861,"Fal":7862,"xe":7863,"ĠFitz":7864,"unov":7865,"ulod":7866,"idura":7867,"nez":7868,"eratus":7869,"uder":7870,"Campsic":7871,"Ctenus":7872,"Ġobscu":7873,"Machimus":7874,"Eupelmus":7875,"Dendronephthya":7876,"ĠChristiansen":7877,"Ev":7878,"Har":7879,"eda":7880,"sti":7881,"ritis":7882,"ĠGood":7883,"ĠPav":7884,"Ġcing":7885,"ocryptus":7886,"Ġdal":7887,"igh":7888,"lodes":7889,"orio":7890,"odor":7891,"rover":7892,"ĠParker":7893,"Ġapic":7894,"Tetrag":7895,"ĠFairchild":7896,"incla":7897,"Ã¨rre":7898,"ĠPiÃ¨rre":7899,"ĠRambur":7900,"Campsicnemus":7901,"Nos":7902,"Ptil":7903,"hys":7904,"Ġsha":7905,"riensis":7906,"rachium":7907,"oplex":7908,"Ġpenic":7909,"ulenta":7910,"quer":7911,"Chroma":7912,"undin":7913,"landi":7914,"oscopus":7915,"Encar":7916,"Ġteneb":7917,"ĠPictet":7918,"ĠShatal":7919,"lawon":7920,"tobius":7921,"Ġpusillus":7922,"Ġconfusa":7923,"Atrac":7924,"Dichaetomyia":7925,"ĠJonathan":7926,"ĠShatalkin":7927,"Wal":7928,"Zethus":7929,"Ġare":7930,"tatum":7931,"ĠAra":7932,"Ġmob":7933,"ophanes":7934,"uge":7935,"ilar":7936,"Ġpauli":7937,"ĠSpeiser":7938,"Ġserrata":7939,"enfels":7940,"Ġcalifornicus":7941,"Bibio":7942,"ĠGrigor":7943,"Ptych":7944,"ĠLaubenfels":7945,"Aulac":7946,"Nia":7947,"eura":7948,"lain":7949,"Ġmahimong":7950,"oncus":7951,"estus":7952,"ĠMis":7953,"ĠJensen":7954,"ĠFl":7955,"unes":7956,"ĠTi":7957,"ndez":7958,"entin":7959,"Ġila":7960,"therus":7961,"ĠJosephine":7962,"Orgilus":7963,"Anagyrus":7964,"Scelio":7965,"xipha":7966,"ĠNavas":7967,"fort":7968,"Bombus":7969,"ĠRussell":7970,"ckenaer":7971,"Palpomyia":7972,"ĠLansberge":7973,"Em":7974,"Id":7975,"kla":7976,"oshe":7977,"omir":7978,"ĠRom":7979,"Ġkugi":7980,"Ġflag":7981,"yllia":7982,"ques":7983,"evÃ¨re":7984,"ĠWalckenaer":7985,"upyo":7986,"Rhodo":7987,"Angraec":7988,"ĠBarrion":7989,"Ġrufa":7990,"ĠFah":7991,"macula":7992,"opteron":7993,"Hetera":7994,"ĠMihai":7995,"Liparet":7996,"ĠAusten":7997,"Ġafricanus":7998,"Ġambig":7999,"ĠLuisa":8000,"Corynoptera":8001,"PrimevÃ¨re":8002,"ĠGibson":8003,"Polistes":8004,"ĠBorchsenius":8005,"Liparetrus":8006,"zz":8007,"Ġsey":8008,"Ġarab":8009,"Ġ11":8010,"sim":8011,"omet":8012,"ĠLÃ¡s":8013,"leura":8014,"ĠFar":8015,"ellae":8016,"ochroa":8017,"latum":8018,"ental":8019,"Ġabbrev":8020,"ulicornis":8021,"Ġsculp":8022,"ĠEugenia":8023,"Xanthopimpla":8024,"omaculatus":8025,"ĠJackson":8026,"mÃ¡ny":8027,"ĠGozmÃ¡ny":8028,"dunno":8029,"zlÃ³":8030,"ĠLÃ¡szlÃ³":8031,"Augus":8032,"Ġnanga":8033,"Ġniyang":8034,"litus":8035,"Ġaen":8036,"Ġbus":8037,"ictus":8038,"pheus":8039,"richia":8040,"ebrand":8041,"otam":8042,"chii":8043,"Ġdebilis":8044,"Ġwhi":8045,"ĠBerry":8046,"Ġspar":8047,"Ġtuber":8048,"ĠBlanco":8049,"ritchard":8050,"ĠAndersen":8051,"aranea":8052,"Aer":8053,"Hex":8054,"Var":8055,"romyia":8056,"Ġok":8057,"toe":8058,"nab":8059,"angkon":8060,"ĠHope":8061,"oll":8062,"ĠLev":8063,"ucker":8064,"lino":8065,"Ġalba":8066,"Parach":8067,"resna":8068,"ifolia":8069,"ÃŃas":8070,"Ġnagka":8071,"Promachus":8072,"Platys":8073,"Ġtibuok":8074,"ĠDahl":8075,"ĠTakaoka":8076,"ĠÃītienne":8077,"ĠÃīdouard":8078,"Philodromus":8079,"Ġstriatus":8080,"Ġungoy":8081,"ĠMargaret":8082,"Cardi":8083,"Misch":8084,"Smi":8085,"gomphus":8086,"long":8087,"ule":8088,"Ġniv":8089,"Ġsetosa":8090,"Ġgid":8091,"usus":8092,"angeli":8093,"oppa":8094,"itson":8095,"ĠOchi":8096,"Chlori":8097,"Ġ1815":8098,"Ġexca":8099,"ĠEmerton":8100,"Ġbalaod":8101,"Ġaequ":8102,"Er":8103,"Ġspi":8104,"tim":8105,"ĠAp":8106,"ĠGI":8107,"ĠDen":8108,"Ġcus":8109,"otry":8110,"quist":8111,"linum":8112,"udes":8113,"Ġalta":8114,"Neola":8115,"ĠBarnes":8116,"Ġhumeralis":8117,"Cladonia":8118,"ĠTakagi":8119,"ĠKonstantin":8120,"ocyttar":8121,"Ġmodestus":8122,"ĠHewitson":8123,"ophryne":8124,"Bo":8125,"Fri":8126,"Gloss":8127,"Lumb":8128,"Tel":8129,"nell":8130,"seius":8131,"Ġbuha":8132,"ilhan":8133,"ĠCoh":8134,"omoi":8135,"higayon":8136,"000":8137,"Ġhan":8138,"ochae":8139,"ĠStewart":8140,"ĠZer":8141,"ephagus":8142,"ĠArt":8143,"ĠSaint":8144,"ĠScopoli":8145,"vania":8146,"Siphon":8147,"ĠGaray":8148,"ragma":8149,"ĠMasner":8150,"ginalis":8151,"brough":8152,"Lycosa":8153,"Dysdera":8154,"ĠSubÃŃas":8155,"ĠShelford":8156,"Ġmongoli":8157,"enciennes":8158,"ĠLitsinger":8159,"ocyttarus":8160,"lyc":8161,"Ġway":8162,"antia":8163,"Ġkauga":8164,"ulator":8165,"Ġgigamit":8166,"inter":8167,"esar":8168,"ellis":8169,"Ġpini":8170,"amis":8171,"amtang":8172,"Ġcren":8173,"ĠChvala":8174,"necht":8175,"eppe":8176,"schi":8177,"topsis":8178,"ĠBaird":8179,"ĠDuellman":8180,"roggat":8181,"ĠWhit":8182,"Ġ1767":8183,"Harpac":8184,"Ġlugubris":8185,"Tmesisternus":8186,"Encarsia":8187,"Eph":8188,"Pra":8189,"Ti":8190,"hor":8191,"liopsis":8192,"onta":8193,"chamb":8194,"ĠBassler":8195,"ĠGius":8196,"dawat":8197,"onaria":8198,"ĠSaka":8199,"ĠSaylor":8200,"Micr":8201,"Ġpulong":8202,"fferia":8203,"Ã¡le":8204,"todiplosis":8205,"Ġbrunn":8206,"Melanoplus":8207,"ĠSpinelli":8208,"ĠHutch":8209,"balik":8210,"Ġpubescens":8211,"Ġpygmaea":8212,"spicua":8213,"ĠHodgson":8214,"ĠLubomir":8215,"Cat":8216,"Doh":8217,"Hys":8218,"Teth":8219,"hom":8220,"enensis":8221,"kas":8222,"nas":8223,"Ġlo":8224,"Ġcog":8225,"ocamp":8226,"Chal":8227,"Parab":8228,"Anop":8229,"Aci":8230,"ĠAndy":8231,"eleon":8232,"Ġcauca":8233,"Cryptop":8234,"ĠIngram":8235,"ĠCanu":8236,"Scaptodrosophila":8237,"ĠLehrer":8238,"ĠScarbrough":8239,"Delias":8240,"Botan":8241,"lys":8242,"ence":8243,"Ġluri":8244,"ĠMam":8245,"ĠBod":8246,"Ġproc":8247,"Ġmys":8248,"Ġcamer":8249,"Ġkom":8250,"rank":8251,"atu":8252,"rocephalus":8253,"Mela":8254,"Lepidium":8255,"ĠCole":8256,"Ġnigriceps":8257,"Afro":8258,"opleurus":8259,"Ġsumatr":8260,"ĠAkira":8261,"japitzin":8262,"Botanophila":8263,"Cali":8264,"Xer":8265,"ceus":8266,"Ġnitens":8267,"Ġkab":8268,"Ġaqu":8269,"Ġbru":8270,"ĠCos":8271,"Ġceleb":8272,"asta":8273,"ĠErik":8274,"eanus":8275,"trella":8276,"rashima":8277,"Ġrugi":8278,"ambarus":8279,"Orm":8280,"Ġminyo":8281,"Ġbrunneus":8282,"janova":8283,"Omphale":8284,"Oriba":8285,"dunnough":8286,"Mischocyttarus":8287,"kyi":8288,"tulatus":8289,"Ġq":8290,"galde":8291,"enham":8292,"Ġstella":8293,"inb":8294,"sekh":8295,"Ġbivit":8296,"opec":8297,"opach":8298,"ĠBÃ¢":8299,"rot":8300,"Ġcra":8301,"ĠTan":8302,"odytes":8303,"Ġdev":8304,"ĠCheng":8305,"gassi":8306,"ypa":8307,"ĠUgalde":8308,"elae":8309,"Megal":8310,"Ġunsa":8311,"ĠMcdunnough":8312,"Ġcarinatus":8313,"galumna":8314,"Aphy":8315,"Ġcinerea":8316,"umpt":8317,"Comm":8318,"ĠLafresna":8319,"ĠBibron":8320,"tendipes":8321,"ĠBÃ¢thie":8322,"ĠLafresnaye":8323,"Lach":8324,"cei":8325,"yensis":8326,"inga":8327,"onocephalus":8328,"rii":8329,"ĠMish":8330,"ĠHick":8331,"Ġfar":8332,"Ġfoli":8333,"imbri":8334,"Ġgen":8335,"ĠZumpt":8336,"Ġsiyang":8337,"hanang":8338,"Ġlongipennis":8339,"ĠBork":8340,"ransfield":8341,"ĠStephens":8342,"ogryllacris":8343,"Ġkabayo":8344,"ĠKuznetzov":8345,"Zy":8346,"uberc":8347,"zus":8348,"cheri":8349,"ĠBona":8350,"Ġpel":8351,"Ġmip":8352,"ĠGuy":8353,"leb":8354,"ĠPag":8355,"iden":8356,"baut":8357,"ĠNun":8358,"Ġgros":8359,"entra":8360,"Ġsibi":8361,"ynus":8362,"ĠParui":8363,"Platych":8364,"Ġfuscus":8365,"ĠHarrison":8366,"Heteronyx":8367,"Eucera":8368,"Ġnahimong":8369,"ĠGregory":8370,"ĠExley":8371,"Hydrellia":8372,"Ġexilis":8373,"Ġgihimo":8374,"ĠHopper":8375,"ĠConstant":8376,"Ġkugita":8377,"Dohr":8378,"Iso":8379,"Penta":8380,"dius":8381,"yba":8382,"teca":8383,"dayon":8384,"riceps":8385,"ffi":8386,"Phenac":8387,"ade":8388,"Acro":8389,"Ġwilli":8390,"ĠSantis":8391,"opeas":8392,"Symph":8393,"togramma":8394,"ĠMiles":8395,"ĠSaeger":8396,"Ġtriangularis":8397,"ĠBosmans":8398,"Edwards":8399,"ĠChandrasekh":8400,"Dohrniphora":8401,"Ari":8402,"Oed":8403,"Se":8404,"veira":8405,"Å¡":8406,"Ġingon":8407,"gawas":8408,"Ġstra":8409,"erla":8410,"Ġunis":8411,"Ġlance":8412,"osita":8413,"ĠCliff":8414,"omph":8415,"Ġminus":8416,"ĠPeng":8417,"ĠDransfield":8418,"ensky":8419,"ryi":8420,"igna":8421,"quet":8422,"quez":8423,"ĠMaa":8424,"Ġpagpan":8425,"ĠSham":8426,"Prota":8427,"Ġexp":8428,"ĠNikolaj":8429,"ĠMelzer":8430,"ĠKononova":8431,"Erysimum":8432,"ĠValenciennes":8433,"Delphac":8434,"Metri":8435,"Paralim":8436,"Ġyunnanensis":8437,"ĠTrjapitzin":8438,"ĠKrivoshe":8439,"ĠRodrigues":8440,"Acalolepta":8441,"ĠJennifer":8442,"Ġkaugaling":8443,"ĠKrivosheina":8444,"Ax":8445,"Pip":8446,"Strep":8447,"Thi":8448,"Ġtom":8449,"Ġtha":8450,"Ġnat":8451,"Ġscu":8452,"opora":8453,"oltz":8454,"ĠWright":8455,"ĠReg":8456,"ĠOman":8457,"nett":8458,"rania":8459,"randa":8460,"epom":8461,"Chond":8462,"ĠVernon":8463,"bonilla":8464,"Ġdiay":8465,"ĠGranger":8466,"Gryon":8467,"Leth":8468,"Phi":8469,"lyph":8470,"kat":8471,"semus":8472,"osch":8473,"ĠAt":8474,"ĠRib":8475,"ĠDep":8476,"ĠEver":8477,"andez":8478,"rani":8479,"erio":8480,"Ġlawas":8481,"ebes":8482,"ĠSadao":8483,"Ġanomala":8484,"skaya":8485,"oglossa":8486,"bachia":8487,"yclops":8488,"dopsis":8489,"owerby":8490,"heims":8491,"Ġamericanus":8492,"ĠDoming":8493,"teleia":8494,"Ixodes":8495,"Ġbuhok":8496,"ĠTaczanowski":8497,"Cari":8498,"Efferia":8499,"Had":8500,"Ison":8501,"Tria":8502,"laus":8503,"Ġmalay":8504,"Ġbir":8505,"Ġpapu":8506,"ĠKura":8507,"Ġkomp":8508,"ĠVira":8509,"yano":8510,"Ġalbop":8511,"ĠHollis":8512,"notes":8513,"Ġkonse":8514,"Ġacuta":8515,"Ġnitidus":8516,"Ã±igo":8517,"enocarpa":8518,"Turbonilla":8519,"ĠXavier":8520,"Ġferruginea":8521,"Ġasawa":8522,"ĠSabado":8523,"ĠDemange":8524,"ĠChandrasekhara":8525,"PA":8526,"Peta":8527,"Rob":8528,"cker":8529,"wold":8530,"ygia":8531,"Ġ*":8532,"Ġnay":8533,"Ġbig":8534,"esh":8535,"ĠSowerby":8536,"opalpus":8537,"ĠMomoi":8538,"Ġps":8539,"phosa":8540,"ĠFieber":8541,"amen":8542,"ubart":8543,"opterum":8544,"Aphan":8545,"Phaenocarpa":8546,"parte":8547,"Ġmicro":8548,"Ġversicolor":8549,"enkoi":8550,"Gelis":8551,"Ġfurcata":8552,"ĠSharkey":8553,"ĠVilkama":8554,"Hybomitra":8555,"Ġcanadensis":8556,"ĠGuido":8557,"Blephar":8558,"Temel":8559,"Ġnahimutang":8560,"ĠVilkamaa":8561,"Did":8562,"cra":8563,"tinata":8564,"wini":8565,"Ãį":8566,"estr":8567,"ĠMindanao":8568,"ĠHey":8569,"ĠLip":8570,"ĠLumb":8571,"ĠPaste":8572,"unelle":8573,"Ġcata":8574,"Ġgram":8575,"Ã©e":8576,"Ġnama":8577,"riatus":8578,"mpis":8579,"ĠAnderson":8580,"Ġwood":8581,"Poll":8582,"Ġdolich":8583,"Ġass":8584,"ĠMauriÃ¨s":8585,"Tropido":8586,"Lucilia":8587,"redale":8588,"ktamath":8589,"Notophthiracarus":8590,"ĠGiuseppe":8591,"ĠViraktamath":8592,"Temelucha":8593,"ÃįÃ±igo":8594,"Hister":8595,"Limon":8596,"Stra":8597,"ctis":8598,"facies":8599,"juk":8600,"kowski":8601,"ueri":8602,"vert":8603,"taea":8604,"orina":8605,"ĠFon":8606,"asyon":8607,"ages":8608,"Ġgus":8609,"ĠSchrank":8610,"ĠSchubart":8611,"ĠStebb":8612,"Lepta":8613,"Ġchal":8614,"The":8615,"Ġpama":8616,"ĠVerme":8617,"ĠStuder":8618,"ĠPaula":8619,"ĠBenedic":8620,"rapetis":8621,"Ġhain":8622,"Ġcompac":8623,"fordi":8624,"ĠRibaut":8625,"ĠLogunov":8626,"Angraecum":8627,"ĠBorkent":8628,"ĠClifford":8629,"Psa":8630,"Suctob":8631,"cera":8632,"tox":8633,"Ġach":8634,"tania":8635,"Ġgihapon":8636,"inaria":8637,"chys":8638,"ily":8639,"thrips":8640,"Ġpav":8641,"leata":8642,"agrus":8643,"Ġdug":8644,"ington":8645,"ĠIredale":8646,"elii":8647,"abka":8648,"ĠZabka":8649,"olim":8650,"yrphus":8651,"ĠArc":8652,"ydis":8653,"yanan":8654,"Ġsubp":8655,"uatus":8656,"mart":8657,"Ġ1788":8658,"Ġviri":8659,"yerno":8660,"Ã³szynski":8661,"ĠPatricia":8662,"ĠPrÃ³szynski":8663,"Ġmadagascari":8664,"Hogna":8665,"Tar":8666,"Ãª":8667,"Ġ'":8668,"tanica":8669,"Ġinae":8670,"Ġpulis":8671,"uttle":8672,"Phyl":8673,"entro":8674,"biensis":8675,"iflora":8676,"Rhe":8677,"Ġting":8678,"ovittata":8679,"Ġmicros":8680,"Rhaph":8681,"Ã¤ffer":8682,"Taeni":8683,"Limnophila":8684,"Ġdubius":8685,"'s":8686,"Cricotopus":8687,"ef":8688,"oga":8689,"yembre":8690,"Ġsimon":8691,"Ġaris":8692,"onga":8693,"ĠMus":8694,"lebia":8695,"ĠDak":8696,"ogen":8697,"spongia":8698,"ricollis":8699,"aledon":8700,"Ġcollaris":8701,"Ġmegal":8702,"Schizop":8703,"Ġrugosa":8704,"Pyrg":8705,"Armadillidium":8706,"Delphacodes":8707,"ĠLumbsch":8708,"Carp":8709,"Gipa":8710,"IL":8711,"banus":8712,"cina":8713,"dina":8714,"tora":8715,"ildi":8716,"ĠDogn":8717,"ĠKy":8718,"ĠKos":8719,"odrosophila":8720,"rym":8721,"igan":8722,"sonii":8723,"Ġita":8724,"Ġunya":8725,"ĠMoron":8726,"Ġabyss":8727,"Ġ2012":8728,"Ġinsoli":8729,"Chlorophorus":8730,"triatus":8731,"Ġappend":8732,"Ġscutellaris":8733,"Setodes":8734,"ĠVermeulen":8735,"ĠDognin":8736,"Fa":8737,"Ġsic":8738,"Ġsob":8739,"osyllis":8740,"thippus":8741,"ĠHjal":8742,"omella":8743,"ĠRas":8744,"ohang":8745,"ight":8746,"ieff":8747,"Ġconstric":8748,"ginosus":8749,"Ġspat":8750,"Ġbrevic":8751,"ĠAndreas":8752,"ĠHaw":8753,"Ġinfus":8754,"Ġnigricornis":8755,"omeris":8756,"ĠRosen":8757,"ochiton":8758,"Carcelia":8759,"Ġphilippinensis":8760,"ĠHjalmar":8761,"Mei":8762,"Rat":8763,"noda":8764,"stus":8765,"uroc":8766,"inda":8767,"onot":8768,"Ġinsi":8769,"ostichus":8770,"ĠBock":8771,"ilo":8772,"themis":8773,"Ġpelluc":8774,"Ġmit":8775,"obi":8776,"anthidium":8777,"trura":8778,"ambe":8779,"Ġalbos":8780,"Anastre":8781,"euon":8782,"Dicranota":8783,"ĠSharma":8784,"ĠCastro":8785,"Ormosia":8786,"Bor":8787,"Crep":8788,"Eula":8789,"Smic":8790,"hua":8791,"lund":8792,"vass":8793,"yod":8794,"Ġsis":8795,"ingia":8796,"arica":8797,"ridium":8798,"optila":8799,"ĠMck":8800,"ĠHur":8801,"Ġprom":8802,"icomyia":8803,"ĠGw":8804,"ĠWie":8805,"ĠRow":8806,"ogyne":8807,"ace":8808,"berhard":8809,"ĠVita":8810,"Ġeb":8811,"Ġeu":8812,"olaemus":8813,"uttatus":8814,"Ġalticola":8815,"yphlops":8816,"umatopsyche":8817,"ĠDechamb":8818,"ĠBalke":8819,"ĠMatthew":8820,"Ġpallipes":8821,"tenstein":8822,"Cheumatopsyche":8823,"ĠHolmberg":8824,"Chorthippus":8825,"Hydrovatus":8826,"Ġrotund":8827,"Ġmantalaang":8828,"ĠDechambre":8829,"juncta":8830,"Ġgam":8831,"Ġnum":8832,"tex":8833,"Ġkada":8834,"tak":8835,"tika":8836,"ĠAdam":8837,"ĠLutz":8838,"ĠGenna":8839,"urum":8840,"Ġvenus":8841,"ĠIII":8842,"Neoperla":8843,"Psec":8844,"Ġtag":8845,"artsh":8846,"ĠMorley":8847,"Ġprof":8848,"Aphon":8849,"Asta":8850,"ĠKrause":8851,"Metap":8852,"echia":8853,"tensen":8854,"Synopeas":8855,"Stich":8856,"Ġgracilipes":8857,"Rhopalomyia":8858,"Libnotes":8859,"Coniopteryx":8860,"ĠLichtenstein":8861,"Amegilla":8862,"ĠEbmer":8863,"ĠAleksandr":8864,"toechus":8865,"Duri":8866,"Tmarus":8867,"eopsis":8868,"tya":8869,"Ġxi":8870,"mai":8871,"oplas":8872,"ĠCzer":8873,"ĠAc":8874,"idella":8875,"Ġdip":8876,"ĠOp":8877,"olaimus":8878,"Ġlata":8879,"Melis":8880,"Ġnigroc":8881,"ĠGibb":8882,"rigona":8883,"petus":8884,"obatus":8885,"Ġaustraliensis":8886,"Ġtuberculatus":8887,"ĠPrins":8888,"maldi":8889,"ĠGriswold":8890,"ĠJoyce":8891,"ĠDebenham":8892,"Cin":8893,"Cub":8894,"fani":8895,"tesi":8896,"marachne":8897,"Ġav":8898,"Ġalex":8899,"Ġmap":8900,"nal":8901,"china":8902,"ĠMura":8903,"iap":8904,"tonotus":8905,"Ġlaevi":8906,"schÃ¤ffer":8907,"ilian":8908,"Ġpictus":8909,"Mysi":8910,"uthis":8911,"Myrmarachne":8912,"ĠBroom":8913,"Odontomyia":8914,"onychus":8915,"Ġpraec":8916,"Tricentrus":8917,"Ġrhodo":8918,"ĠHanitsch":8919,"Brachymeria":8920,"Lonchaea":8921,"ĠRadcliffe":8922,"ĠHirashima":8923,"Wa":8924,"otelus":8925,"Ġran":8926,"Ġnipp":8927,"tethus":8928,"Ġkagamhanan":8929,"gita":8930,"tiella":8931,"ĠTix":8932,"Ġfalc":8933,"ĠNepom":8934,"udinger":8935,"urax":8936,"Ġalp":8937,"ĠMao":8938,"Ġrehiyon":8939,"Ġlit":8940,"arion":8941,"ĠDejean":8942,"Alc":8943,"Ġminut":8944,"lorum":8945,"Cotesia":8946,"Ġluzon":8947,"ĠStaudinger":8948,"ĠHelm":8949,"ĠViette":8950,"Geron":8951,"Coccophagus":8952,"ĠAhmed":8953,"Ġatlantica":8954,"ĠMishchenko":8955,"ĠTixier":8956,"ĠNepomuk":8957,"Drapetis":8958,"Eris":8959,"Kon":8960,"Ped":8961,"Seri":8962,"cens":8963,"kini":8964,"Ġze":8965,"Ġsang":8966,"gica":8967,"erto":8968,"tiko":8969,"opi":8970,"icles":8971,"aman":8972,"idula":8973,"derus":8974,"Ġtasman":8975,"Ġnigros":8976,"ĠZhou":8977,"Alys":8978,"ĠClaus":8979,"Macrop":8980,"Ġcaeru":8981,"ospora":8982,"Psamm":8983,"Ġfulva":8984,"roll":8985,"Amphiura":8986,"ĠTraub":8987,"lampus":8988,"Ġproblema":8989,"ellinger":8990,"ĠMeinander":8991,"Psyllaephagus":8992,"Tinodes":8993,"ĠSidney":8994,"ĠGaimard":8995,"ĠBonaparte":8996,"Ġmadagascariensis":8997,"hli":8998,"moc":8999,"oencyrtus":9000,"Ġngan":9001,"enodes":9002,"Ġsph":9003,"inar":9004,"opygus":9005,"ostata":9006,"Ġpros":9007,"Ġmy":9008,"ophya":9009,"linia":9010,"onarius":9011,"rock":9012,"uriensis":9013,"Polynema":9014,"ĠReed":9015,"ybrach":9016,"Ġmargin":9017,"Chrysopa":9018,"Ġcaro":9019,"Hypotrach":9020,"Ġradia":9021,"Ġ1785":9022,"oideus":9023,"Thereva":9024,"Gnath":9025,"Commelina":9026,"Hypotrachyna":9027,"Centris":9028,"vens":9029,"Ġmah":9030,"xta":9031,"isus":9032,"chel":9033,"tias":9034,"ĠPran":9035,"ĠDuc":9036,"acek":9037,"Ġgri":9038,"udin":9039,"Ġlatis":9040,"yctes":9041,"anssens":9042,"ymp":9043,"Ġnigrescens":9044,"ridea":9045,"Scler":9046,"Ġlinea":9047,"Glyph":9048,"Ġlutea":9049,"Ġrubri":9050,"ĠHelge":9051,"ĠThorsten":9052,"ĠQuoy":9053,"Tachy":9054,"ĠBergquist":9055,"Ġglauc":9056,"Ġfemoralis":9057,"Giila":9058,"Pimpla":9059,"Sep":9060,"dep":9061,"oon":9062,"pora":9063,"Ġza":9064,"Ġkala":9065,"ĠBed":9066,"ĠBaptis":9067,"ilma":9068,"allis":9069,"leta":9070,"ĠRupp":9071,"ĠDonis":9072,"uns":9073,"ĠNil":9074,"Ġangulata":9075,"egma":9076,"Ġrufiventris":9077,"ĠFauch":9078,"Ġlineatus":9079,"Conos":9080,"ĠZaka":9081,"Ġ1763":9082,"Ġpilosus":9083,"Ġvicina":9084,"Ġpacificus":9085,"voort":9086,"ĠShelley":9087,"ĠAnnecke":9088,"thorpe":9089,"Limonia":9090,"Anastrepha":9091,"ĠDonisthorpe":9092,"bac":9093,"mena":9094,"vat":9095,"ximus":9096,"toda":9097,"Ġsel":9098,"naud":9099,"ĠSwa":9100,"ĠBellinger":9101,"omes":9102,"uloides":9103,"ĠKhan":9104,"ĠTj":9105,"ĠEli":9106,"saamen":9107,"epp":9108,"lins":9109,"lanis":9110,"Ġuniformis":9111,"loo":9112,"ospila":9113,"Ġmultip":9114,"ĠSoest":9115,"Ġfragilis":9116,"Ġreticulatus":9117,"Bolb":9118,"ĠCalvert":9119,"Ġcastanea":9120,"ogastra":9121,"ĠNagatomi":9122,"Ġborneensis":9123,"ĠFauchald":9124,"AK":9125,"Cri":9126,"Lic":9127,"Min":9128,"liae":9129,"tere":9130,"riella":9131,"ĠSincla":9132,"ilosus":9133,"ĠGir":9134,"ĠJanssens":9135,"ĠKemp":9136,"agria":9137,"Ġhap":9138,"catum":9139,"hao":9140,"Ġnaga":9141,"ĠSchw":9142,"Ġlain":9143,"vault":9144,"Neoh":9145,"artseva":9146,"ariae":9147,"Ġspecta":9148,"Stenopogon":9149,"linger":9150,"Ġ1780":9151,"Ġ1783":9152,"Agromyza":9153,"ĠGrimaldi":9154,"tochilum":9155,"osteria":9156,"inettia":9157,"Ġpolita":9158,"ĠDesutter":9159,"sikop":9160,"ĠMyartseva":9161,"ĠMoritz":9162,"Ġgigantea":9163,"tersall":9164,"ĠGurjanova":9165,"grandcolas":9166,"ĠTattersall":9167,"Durivault":9168,"ĠSinclair":9169,"Nic":9170,"kell":9171,"vard":9172,"ensi":9173,"toly":9174,"Ġbali":9175,"ĠSvet":9176,"ĠBeth":9177,"Ġheli":9178,"edek":9179,"ĠOri":9180,"ĠOber":9181,"ellula":9182,"anium":9183,"yrh":9184,"Neoserica":9185,"ĠBrundin":9186,"tiformis":9187,"nesi":9188,"Ġquadrip":9189,"Ġpanamensis":9190,"Ġnigricans":9191,"Ġsepten":9192,"patrick":9193,"ĠClements":9194,"Opisth":9195,"ĠSoyka":9196,"ĠZerova":9197,"ĠShamshev":9198,"ĠZakarias":9199,"Eli":9200,"Gib":9201,"Loma":9202,"sser":9203,"tomerus":9204,"esme":9205,"ĠCui":9206,"ĠLÃ¼":9207,"ĠTomas":9208,"Ġkn":9209,"risi":9210,"uyt":9211,"ĠLeander":9212,"artw":9213,"Ġja":9214,"Ġlongis":9215,"enior":9216,"Ġbrevip":9217,"Copido":9218,"Cardam":9219,"Amphin":9220,"eschna":9221,"Ġquinqu":9222,"toscopus":9223,"Elasmus":9224,"ĠBroomfield":9225,"ĠSvetlana":9226,"30":9227,"Cne":9228,"Moraea":9229,"Pul":9230,"cana":9231,"gena":9232,"has":9233,"hana":9234,"oena":9235,"zier":9236,"gala":9237,"tema":9238,"inosus":9239,"ĠSpi":9240,"ĠDow":9241,"ophil":9242,"edy":9243,"Chry":9244,"ĠYea":9245,"ĠBailey":9246,"Calanthe":9247,"Ceratoph":9248,"Ġserra":9249,"ĠDodge":9250,"ĠLepesme":9251,"Lonch":9252,"Sciapus":9253,"ĠPape":9254,"ĠIningles":9255,"Suctobel":9256,"Cardamine":9257,"Myth":9258,"Tyl":9259,"smith":9260,"gikan":9261,"icularis":9262,"umanni":9263,"ĠJeff":9264,"hita":9265,"undo":9266,"ĠKor":9267,"ever":9268,"utyag":9269,"ĠMad":9270,"ieb":9271,"Anolis":9272,"ĠRainb":9273,"Onych":9274,"Macrob":9275,"unculus":9276,"Ġtrif":9277,"ĠMont":9278,"oecia":9279,"ĠSzlach":9280,"Ophion":9281,"Ġmedia":9282,"ĠRÃ©my":9283,"ogeton":9284,"illyard":9285,"Dilophus":9286,"Ġwilliam":9287,"ON":9288,"Re":9289,"Tru":9290,"ble":9291,"xys":9292,"galia":9293,"entia":9294,"erm":9295,"ĠHuy":9296,"ĠHill":9297,"ocus":9298,"ĠVari":9299,"erion":9300,"Phthiracarus":9301,"ourea":9302,"Ġtali":9303,"Ġjan":9304,"ileurus":9305,"ĠReeve":9306,"lectus":9307,"ĠHaan":9308,"Ġmicrop":9309,"Ġparvulus":9310,"Scheloribates":9311,"Ġcircum":9312,"Ġkanila":9313,"Smilax":9314,"Ġseptentri":9315,"Aste":9316,"Pri":9317,"qvis":9318,"ute":9319,"uchus":9320,"Ġther":9321,"Ġrad":9322,"Ġnod":9323,"Ġnoc":9324,"elo":9325,"eldt":9326,"ĠSets":9327,"thyphantes":9328,"Ġpenta":9329,"ĠWall":9330,"hir":9331,"ĠKuro":9332,"ĠKevan":9333,"Ġvesti":9334,"Ġfesti":9335,"Ġlak":9336,"owl":9337,"ĠYa":9338,"ĠBrethes":9339,"Leptop":9340,"odorus":9341,"ĠGuen":9342,"colm":9343,"Mycale":9344,"Ġcrassa":9345,"ĠSharpe":9346,"Coelichneumon":9347,"ocnemus":9348,"Eunice":9349,"ĠStebbing":9350,"ĠSetsuya":9351,"Sig":9352,"vol":9353,"zae":9354,"erella":9355,"tado":9356,"ĠStor":9357,"ĠDob":9358,"ĠDilma":9359,"ogobius":9360,"ĠTodd":9361,"ĠTuttle":9362,"uron":9363,"ingham":9364,"caea":9365,"ĠZeller":9366,"oux":9367,"valis":9368,"ĠLeh":9369,"ĠRoberto":9370,"egyp":9371,"Leptogenys":9372,"ithorax":9373,"ometop":9374,"Hemic":9375,"Ġpilos":9376,"Ġrecur":9377,"ĠWinter":9378,"ĠHewitt":9379,"Ġformosana":9380,"ĠPenny":9381,"Ġacuminata":9382,"yrinchium":9383,"ĠBrooks":9384,"Ġannulipes":9385,"ĠTjeder":9386,"ĠOriental":9387,"Cedusa":9388,"Nar":9389,"Ophia":9390,"Za":9391,"cott":9392,"kuha":9393,"mys":9394,"nh":9395,"Ġnem":9396,"erv":9397,"isyon":9398,"orda":9399,"elt":9400,"ĠRodo":9401,"Ġcrini":9402,"ĠKo":9403,"ĠKurt":9404,"ĠNapp":9405,"Ġgenic":9406,"emya":9407,"uden":9408,"yaw":9409,"ycera":9410,"Ġtala":9411,"lass":9412,"Ã¡n":9413,"vida":9414,"lfus":9415,"Leuctra":9416,"Ġhabaga":9417,"Ġsulc":9418,"Ġformosa":9419,"Ġscab":9420,"Heteroch":9421,"ĠSolange":9422,"Ammophila":9423,"Helicopsyche":9424,"Sisyrinchium":9425,"Alyssum":9426,"ĠYeates":9427,"ĠGuenÃ©e":9428,"Ban":9429,"Hec":9430,"Lac":9431,"Niph":9432,"utia":9433,"Ġau":9434,"Ġmaayong":9435,"Ġbou":9436,"tibia":9437,"ĠLoh":9438,"Ġcall":9439,"ĠTull":9440,"ophomyia":9441,"mando":9442,"iglossa":9443,"inatum":9444,"ĠHend":9445,"eyeri":9446,"ungha":9447,"egen":9448,"margo":9449,"ĠLaberge":9450,"Ġ1814":9451,"Trichogramma":9452,"landica":9453,"oglossus":9454,"oecus":9455,"ĠBlackwall":9456,"ĠMalcolm":9457,"maraes":9458,"Ġnobilis":9459,"Gagea":9460,"ĠPasteels":9461,"ĠPrinsloo":9462,"ĠHelmut":9463,"Ball":9464,"Ves":9465,"flav":9466,"jeb":9467,"rang":9468,"yma":9469,"Ġren":9470,"uster":9471,"Ġbre":9472,"ĠSep":9473,"ĠHugh":9474,"ĠHemp":9475,"ĠCris":9476,"ĠGomy":9477,"rogaster":9478,"Ġcrib":9479,"ĠEmili":9480,"Ġvand":9481,"ignatus":9482,"ranchia":9483,"Ġgui":9484,"abodes":9485,"ĠZhao":9486,"euff":9487,"Cryptoc":9488,"Helius":9489,"matayon":9490,"Ġopac":9491,"Chlorophytum":9492,"Ġannulata":9493,"Ġsimb":9494,"rikken":9495,"ĠSchulze":9496,"ĠSalva":9497,"Ġcrassipes":9498,"ĠThierry":9499,"Ġpygmaeus":9500,"Phanerotoma":9501,"dnota":9502,"Leucophenga":9503,"ĠNunomura":9504,"ĠArcangeli":9505,"Cot":9506,"Myi":9507,"Prop":9508,"Plesi":9509,"Syl":9510,"hes":9511,"port":9512,"san":9513,"Ġsto":9514,"dophora":9515,"Ġbry":9516,"ĠMca":9517,"Ġpis":9518,"icia":9519,"ĠKrikken":9520,"ĠTo":9521,"ĠEberhard":9522,"ocricus":9523,"Ġdan":9524,"acanth":9525,"Ġflab":9526,"Ġgor":9527,"ochrus":9528,"yathus":9529,"ĠAlcock":9530,"ike":9531,"neria":9532,"Acar":9533,"Ġbalat":9534,"Pseudoph":9535,"Thin":9536,"Thagria":9537,"zewski":9538,"uhang":9539,"ĠOliveira":9540,"ĠCrespo":9541,"Allua":9542,"assag":9543,"Ġnigriventris":9544,"ĠChaudhuri":9545,"Amblyp":9546,"khoven":9547,"Ġbrachy":9548,"ophthalma":9549,"eschall":9550,"Ġhisp":9551,"Graph":9552,"ĠDoleschall":9553,"opeltis":9554,"artamento":9555,"Trochalus":9556,"Ġtestacea":9557,"Papilio":9558,"ĠHildebrand":9559,"ĠMcatee":9560,"Du":9561,"Go":9562,"Nereis":9563,"hman":9564,"sz":9565,"Ġnive":9566,"laub":9567,"ervis":9568,"ĠMab":9569,"ĠMend":9570,"ĠBij":9571,"Ġcat":9572,"bahan":9573,"inali":9574,"ĠOk":9575,"ranea":9576,"ovsky":9577,"omyces":9578,"Ġnigrip":9579,"tari":9580,"Ġbrevipennis":9581,"ĠCarroll":9582,"Ġinsul":9583,"issimus":9584,"Ġanalis":9585,"Leiophron":9586,"Coelogyne":9587,"ĠChapin":9588,"Solenopsis":9589,"ĠRive":9590,"ĠJÃ¶rg":9591,"ĠKrishna":9592,"Ġexigua":9593,"Gor":9594,"Noc":9595,"eki":9596,"sang":9597,"Ġstrand":9598,"Ġmaayo":9599,"ĠFin":9600,"ĠFitch":9601,"ĠTer":9602,"ĠTsch":9603,"Ġdil":9604,"ĠOleg":9605,"emura":9606,"erian":9607,"Ġlaticeps":9608,"ĠStekhoven":9609,"ĠHarvey":9610,"tocepheus":9611,"ĠVervoort":9612,"Ġbrevicauda":9613,"sted":9614,"Peris":9615,"enzie":9616,"Allopauropus":9617,"ĠGounelle":9618,"ĠRayment":9619,"ĠGuimaraes":9620,"ipiens":9621,"Ġsmithi":9622,"ĠMichailovitsh":9623,"Syrph":9624,"ĠPopov":9625,"ĠDirsh":9626,"Walckena":9627,"ĠVitaly":9628,"Lyg":9629,"ees":9630,"jbe":9631,"lonia":9632,"Ġaurea":9633,"usab":9634,"ĠBun":9635,"ĠJin":9636,"ĠJay":9637,"ĠPac":9638,"ĠPritchard":9639,"ulan":9640,"Ġkol":9641,"Ġhow":9642,"ĠElisabeth":9643,"ĠVilla":9644,"ellan":9645,"schuyt":9646,"Ġdas":9647,"ydra":9648,"ĠUn":9649,"mark":9650,"ĠFrancisco":9651,"lfo":9652,"orceps":9653,"Ġimb":9654,"Ellip":9655,"Acianthera":9656,"schuytbro":9657,"Bel":9658,"angi":9659,"tosh":9660,"Ġsunod":9661,"Ġsala":9662,"istra":9663,"opsi":9664,"ĠBow":9665,"olong":9666,"ĠWen":9667,"ĠTucker":9668,"ocor":9669,"ocos":9670,"eadi":9671,"itj":9672,"ĠSchi":9673,"artment":9674,"tialis":9675,"Ġarmatus":9676,"Ġrup":9677,"mour":9678,"ĠRichter":9679,"Exorista":9680,"ĠGajbe":9681,"otriches":9682,"Ġkania":9683,"Ġphil":9684,"Ġclar":9685,"Ġsimulans":9686,"Ġsemic":9687,"vinaria":9688,"Ġgrisea":9689,"Ġcerv":9690,"Lipotriches":9691,"Eumenes":9692,"Ġvariegatus":9693,"ĠIrwin":9694,"ĠRollins":9695,"Crepidium":9696,"Meliss":9697,"ĠEmilio":9698,"Walckenaeria":9699,"Hor":9700,"gry":9701,"hev":9702,"por":9703,"Ãł":9704,"dox":9705,"Ġmama":9706,"Ġupat":9707,"ĠHad":9708,"Ġmoh":9709,"Ġdur":9710,"Ġtraba":9711,"Ġfimbri":9712,"ryas":9713,"ochila":9714,"oriella":9715,"tosciara":9716,"ridus":9717,"ĠReuter":9718,"ockeroth":9719,"ybia":9720,"Ġ1807":9721,"Phygad":9722,"harton":9723,"ĠSolem":9724,"Idiocerus":9725,"Ġnagpakita":9726,"ĠSublette":9727,"Ġlobata":9728,"Ġnepalensis":9729,"Stegana":9730,"Pollenia":9731,"ĠBethune":9732,"Phygadeuon":9733,"Aul":9734,"Emb":9735,"Euh":9736,"Johan":9737,"Lig":9738,"hok":9739,"wson":9740,"Ġil":9741,"topa":9742,"Ġsum":9743,"Ġkamatayon":9744,"ĠSwin":9745,"tiae":9746,"tiosa":9747,"opeta":9748,"thuis":9749,"omela":9750,"Ġpud":9751,"Ġfove":9752,"ĠWilkinson":9753,"uratus":9754,"tenbach":9755,"ĠAlder":9756,"Pseudoch":9757,"ĠSaito":9758,"Ġarm":9759,"ĠVanschuytbro":9760,"ĠPercheron":9761,"rinum":9762,"Ġhigayon":9763,"Ġdissimilis":9764,"ĠFerreira":9765,"Campoplex":9766,"Hypoc":9767,"Ġrubra":9768,"ĠLeonhard":9769,"ruck":9770,"ieser":9771,"ĠQued":9772,"ĠAmeri":9773,"Prosoplus":9774,"Ġcostar":9775,"Pyram":9776,"fee":9777,"orrhina":9778,"Ġinornata":9779,"otrogus":9780,"Ġpopulasyon":9781,"ĠHutchings":9782,"ĠRodolfo":9783,"ĠVanschuytbroeck":9784,"Grap":9785,"Mag":9786,"baker":9787,"luc":9788,"Ġsy":9789,"Ġsene":9790,"orta":9791,"ĠBella":9792,"Ġplana":9793,"ĠKana":9794,"ĠTillyard":9795,"ryc":9796,"Ġeph":9797,"lexus":9798,"iez":9799,"biana":9800,"ĠAlphon":9801,"ĠLeech":9802,"Ġdayon":9803,"rowne":9804,"enison":9805,"Agapetus":9806,"ophyes":9807,"Nemotelus":9808,"ĠKnuth":9809,"Ġglabra":9810,"Norr":9811,"ĠHubbs":9812,"otarsus":9813,"Scytodes":9814,"ĠWiebes":9815,"Ġspectabilis":9816,"qvist":9817,"cic":9818,"Ġly":9819,"ĠSum":9820,"ĠPelle":9821,"lista":9822,"bachi":9823,"iggin":9824,"lans":9825,"Ġevan":9826,"utina":9827,"Ġlate":9828,"alina":9829,"rypta":9830,"Ġmarginatus":9831,"ĠCooper":9832,"Macrocera":9833,"asaka":9834,"ĠSereno":9835,"orema":9836,"ĠDavidson":9837,"rionus":9838,"ĠShafee":9839,"ĠMaskell":9840,"Ġassimilis":9841,"ĠRohacek":9842,"ĠHedqvist":9843,"Hydroporus":9844,"othyreus":9845,"Rhaphium":9846,"Ġvulga":9847,"Diadegma":9848,"ĠCompere":9849,"Arachn":9850,"ĠSwinhoe":9851,"Erig":9852,"pang":9853,"ssen":9854,"Ġnar":9855,"Ġmam":9856,"Ġbubong":9857,"Ġluma":9858,"ĠMeuff":9859,"ako":9860,"thura":9861,"Ġpari":9862,"Ġcoch":9863,"ogstra":9864,"ĠTenison":9865,"ophasma":9866,"ĠMartelli":9867,"stro":9868,"tosia":9869,"ĠHarling":9870,"ĠBous":9871,"Ġminimus":9872,"Anap":9873,"Ġhimalay":9874,"ĠClaud":9875,"Ġcarb":9876,"Ġabn":9877,"ĠBalfour":9878,"Ġdako":9879,"Metac":9880,"Stephan":9881,"Pleuro":9882,"sakin":9883,"Hemip":9884,"silopus":9885,"ĠKussakin":9886,"tillaria":9887,"ĠBrady":9888,"ĠRondon":9889,"ĠGolov":9890,"Ġsplendens":9891,"Macrocentrus":9892,"otrechus":9893,"Platycheirus":9894,"artshuk":9895,"ĠMeuffels":9896,"Gre":9897,"Gonia":9898,"Ner":9899,"Tele":9900,"Trox":9901,"fina":9902,"uosa":9903,"Ġord":9904,"Ġ15":9905,"rio":9906,"Ġmet":9907,"ĠFox":9908,"ĠPek":9909,"ocki":9910,"ĠNo":9911,"ĠOka":9912,"ladia":9913,"teng":9914,"oema":9915,"Ġsik":9916,"Ġjama":9917,"toserica":9918,"ĠUgo":9919,"ĠBarton":9920,"ĠLatham":9921,"ticalis":9922,"ylaspis":9923,"ĠMortensen":9924,"tuosa":9925,"Ġ1773":9926,"Cryptops":9927,"ĠVienna":9928,"Asparag":9929,"Ġkasong":9930,"owerban":9931,"Misum":9932,"ittacus":9933,"artwright":9934,"ĠRainbow":9935,"ĠUgolino":9936,"Mys":9937,"Nipp":9938,"Odos":9939,"Pogon":9940,"dexia":9941,"kana":9942,"kev":9943,"pula":9944,"gado":9945,"lawa":9946,"Ġstr":9947,"erta":9948,"tides":9949,"ĠBuck":9950,"ĠCartwright":9951,"aland":9952,"rous":9953,"ĠWitt":9954,"leis":9955,"letta":9956,"ĠPridge":9957,"Ġdic":9958,"obasis":9959,"manuel":9960,"Ġangolensis":9961,"Ġalpina":9962,"ypris":9963,"ĠEdvard":9964,"Ġtaenia":9965,"odore":9966,"Ġlongirostris":9967,"Ġflavicornis":9968,"ĠGilmour":9969,"Ġdiscolor":9970,"Campiglossa":9971,"Agryp":9972,"Agrilus":9973,"Opogona":9974,"Heteropoda":9975,"ĠHartlaub":9976,"ĠTakada":9977,"ĠMoham":9978,"Ġcalcar":9979,"Ġdepartamento":9980,"Phryxe":9981,"Ġbolivi":9982,"Ġconvex":9983,"Tephritis":9984,"Ġmilitar":9985,"Å¡ek":9986,"Gipatik":9987,"ĠHawks":9988,"ĠGirard":9989,"ĠPridgeon":9990,"19":9991,"Ceri":9992,"PO":9993,"Ros":9994,"uxi":9995,"Ġsia":9996,"tand":9997,"ĠMuls":9998,"ĠBara":9999,"Ġpyr":10000,"ĠPit":10001,"ĠPuli":10002,"ĠDias":10003,"Ġdra":10004,"ecki":10005,"ĠIm":10006,"Ġref":10007,"ezia":10008,"aratus":10009,"Lepthyphantes":10010,"Ġchap":10011,"midti":10012,"Ġmagp":10013,"ĠMorrison":10014,"Ġviet":10015,"goin":10016,"Ġcrassicornis":10017,"ĠLindberg":10018,"ĠMasan":10019,"Agave":10020,"Ġsakyanan":10021,"Blacus":10022,"ĠBernhard":10023,"Ġkabahin":10024,"ĠDollfus":10025,"ĠBourgoin":10026,"ĠBranc":10027,"Ornitho":10028,"Niadtong":10029,"ĠMisamis":10030,"ĠRegel":10031,"Amblypsilopus":10032,"Asparagus":10033,"Odostomia":10034,"ĠMulsant":10035,"Clav":10036,"Ceriana":10037,"uay":10038,"limas":10039,"erb":10040,"sea":10041,"tiÅ¡ek":10042,"Ġpanag":10043,"ĠWenzel":10044,"Ġcin":10045,"ĠKha":10046,"ĠTani":10047,"acis":10048,"obolus":10049,"Ġforcip":10050,"erii":10051,"icatus":10052,"Chrom":10053,"ĠFrantiÅ¡ek":10054,"stri":10055,"ympan":10056,"Ġnigripennis":10057,"toshi":10058,"ginuma":10059,"Ġalbip":10060,"Leptochilus":10061,"Ceraphron":10062,"gnato":10063,"Oxyp":10064,"essart":10065,"ĠKirsch":10066,"Amphic":10067,"gorgia":10068,"Cyther":10069,"Ġvittatus":10070,"Hemis":10071,"Ġincomp":10072,"elenga":10073,"ĠSchmiedek":10074,"ocythere":10075,"ĠAlbertino":10076,"Phryn":10077,"ĠBistrÃ¶m":10078,"ĠAmÃ©dÃ©gnato":10079,"Pachycondyla":10080,"Autoserica":10081,"ocrates":10082,"Limnephilus":10083,"Pelidnota":10084,"ĠSchmiedeknecht":10085,"Cross":10086,"Linna":10087,"Ooencyrtus":10088,"Ġipa":10089,"lato":10090,"Ġkal":10091,"istes":10092,"tiz":10093,"osti":10094,"ostreptus":10095,"ĠMig":10096,"Ġping":10097,"ĠWieser":10098,"amma":10099,"otensis":10100,"ĠChampion":10101,"ĠMarcus":10102,"ouensis":10103,"pala":10104,"thern":10105,"she":10106,"Ġju":10107,"Ġlima":10108,"ĠArnaud":10109,"Ġarma":10110,"eckel":10111,"Microgaster":10112,"ĠEvers":10113,"Ġsemin":10114,"Trachy":10115,"Ġcristata":10116,"ĠBayer":10117,"Bothri":10118,"Ġdiffic":10119,"Auguste":10120,"ĠStorr":10121,"Ġsimbolo":10122,"Duf":10123,"Gyna":10124,"jci":10125,"nella":10126,"Ġnanus":10127,"tani":10128,"nap":10129,"orha":10130,"oroides":10131,"ĠMuma":10132,"Ġpad":10133,"olcus":10134,"Ġmila":10135,"Ġmuta":10136,"ĠKit":10137,"ĠKina":10138,"ĠTelenga":10139,"Ġkorte":10140,"ophanus":10141,"inalis":10142,"etko":10143,"uctus":10144,"Ġgro":10145,"Ġlag":10146,"udomyia":10147,"Neur":10148,"tomella":10149,"oxis":10150,"Ġparalle":10151,"marginatus":10152,"Scenop":10153,"ĠHolthuis":10154,"ĠXia":10155,"lectrus":10156,"Siya":10157,"Leucopis":10158,"Dasyb":10159,"deley":10160,"Ġhawa":10161,"Austrolimnophila":10162,"Eleuth":10163,"Ġparadoxa":10164,"Amorphophallus":10165,"ĠKurahashi":10166,"ĠLipke":10167,"ĠBaptist":10168,"Alluaudomyia":10169,"ĠBijdeley":10170,"Scenopinus":10171,"Dri":10172,"Sco":10173,"basis":10174,"gatum":10175,"licis":10176,"tosp":10177,"usey":10178,"ĠDarius":10179,"Ġhemi":10180,"Ġvent":10181,"rycon":10182,"bati":10183,"oha":10184,"ĠNon":10185,"ĠNartshuk":10186,"ugma":10187,"atra":10188,"olaris":10189,"erium":10190,"ĠHendrich":10191,"Ġlalake":10192,"Neom":10193,"deros":10194,"Acmae":10195,"ĠLucjan":10196,"ĠChristiane":10197,"illima":10198,"Prob":10199,"Ġbrevipes":10200,"Ġmagnus":10201,"ĠSergius":10202,"Anthidium":10203,"Epica":10204,"kinsi":10205,"licola":10206,"uvel":10207,"Ġrugosus":10208,"Pericoma":10209,"ĠTosio":10210,"Hyda":10211,"Gonatocerus":10212,"ĠKumata":10213,"ĠSzlachetko":10214,"ĠGolovatch":10215,"ĠDariusz":10216,"nusa":10217,"oan":10218,"rard":10219,"sar":10220,"Ġset":10221,"kam":10222,"Ġsac":10223,"tanicus":10224,"akoff":10225,"ĠHud":10226,"Ġmona":10227,"ĠJe":10228,"ĠFang":10229,"ĠRÃ¼":10230,"ĠToda":10231,"ettia":10232,"torsik":10233,"Ġtap":10234,"odora":10235,"entalium":10236,"Ġanda":10237,"Ġmacroc":10238,"Ã¡ndez":10239,"Ġrufus":10240,"Ġoreg":10241,"Liolaemus":10242,"Ente":10243,"Ġproxima":10244,"reath":10245,"Ġbarb":10246,"Catase":10247,"Ġdecipiens":10248,"waldo":10249,"Myrmeleon":10250,"orypha":10251,"Ġwalkeri":10252,"ĠGiesbrecht":10253,"Ġmagnifica":10254,"ĠBaraud":10255,"Stri":10256,"Semi":10257,"aea":10258,"elin":10259,"hen":10260,"hem":10261,"loh":10262,"tken":10263,"tory":10264,"thra":10265,"thana":10266,"ĠCÃ©":10267,"iceus":10268,"Ġcala":10269,"ĠKlimas":10270,"Ġflor":10271,"ipus":10272,"ĠOzer":10273,"Ġlar":10274,"ebas":10275,"panteles":10276,"urica":10277,"Ġling":10278,"lipsis":10279,"ĠBarbosa":10280,"ĠFauvel":10281,"senberg":10282,"ĠPhilippine":10283,"ĠAdlbauer":10284,"ĠWahl":10285,"Intosh":10286,"Ġsimplic":10287,"ĠCramer":10288,"Oxyethira":10289,"Mimela":10290,"Ġmolupyo":10291,"Ġtexana":10292,"Ġcaudata":10293,"Ropalidia":10294,"Ġjacob":10295,"Ġarcuata":10296,"ĠKuoh":10297,"Orchym":10298,"ongresista":10299,"ĠMckenzie":10300,"ĠLÃ¼tken":10301,"ĠPekka":10302,"Catasetum":10303,"ĠKlimaszewski":10304,"Dec":10305,"Ic":10306,"Ven":10307,"Wharton":10308,"kos":10309,"oter":10310,"vel":10311,"iseta":10312,"Ġinn":10313,"akilian":10314,"Ġplu":10315,"reys":10316,"Ġmela":10317,"ĠPon":10318,"ĠDud":10319,"Ġcuc":10320,"ĠKab":10321,"ĠKok":10322,"ĠEthel":10323,"oco":10324,"eiensis":10325,"Ġchar":10326,"ĠArg":10327,"ĠVeron":10328,"Anabar":10329,"Exechia":10330,"galum":10331,"Ġrubro":10332,"ĠIvanov":10333,"Xylotrechus":10334,"Crasp":10335,"Achae":10336,"odiscus":10337,"ĠRemy":10338,"ĠEsprit":10339,"Hemerobius":10340,"ĠTavakilian":10341,"ĠKiriakoff":10342,"Ġtambal":10343,"ĠRibeiro":10344,"Ġseptentrionalis":10345,"ĠMohammad":10346,"BA":10347,"Cly":10348,"Drac":10349,"Mga":10350,"Xorides":10351,"nong":10352,"ttus":10353,"zhan":10354,"wavas":10355,"Ġkad":10356,"seudes":10357,"ĠBog":10358,"theca":10359,"ĠHann":10360,"ometa":10361,"Ġpoec":10362,"ĠAlec":10363,"Ġmanag":10364,"ĠRep":10365,"ĠRie":10366,"ĠDmy":10367,"Ġcentralis":10368,"Ġkita":10369,"Ġtyp":10370,"imu":10371,"ippe":10372,"olae":10373,"ĠSchuster":10374,"Ġlaw":10375,"latch":10376,"Neod":10377,"Ġchris":10378,"Ġsubtilis":10379,"niensis":10380,"ychia":10381,"Orph":10382,"ĠMcIntosh":10383,"Stenus":10384,"eremaeus":10385,"ĠWatts":10386,"Pterostichus":10387,"Myz":10388,"ĠZajci":10389,"Nemoura":10390,"enfeldt":10391,"ĠHiromu":10392,"Ġcirc":10393,"ĠSchwartz":10394,"Ġfumipennis":10395,"ĠPeÃ±a":10396,"ĠStrasser":10397,"Ġinterrupta":10398,"Ġkapital":10399,"Ġcostalis":10400,"Ġedwardsi":10401,"ĠCoscar":10402,"Macrobrachium":10403,"ĠDmytro":10404,"ĠZajciw":10405,"Dili":10406,"Ker":10407,"Mord":10408,"Og":10409,"Sab":10410,"nyi":10411,"anna":10412,"Ġsign":10413,"Ġadlawa":10414,"Ġbicol":10415,"Ġinex":10416,"ĠSiv":10417,"tiensis":10418,"ĠBelle":10419,"ĠCav":10420,"Ġpanga":10421,"ĠDec":10422,"ĠKano":10423,"Ġki":10424,"ĠElmer":10425,"Ġfru":10426,"ĠVved":10427,"urae":10428,"orae":10429,"Ġlatus":10430,"ĠSteff":10431,"Anto":10432,"Ġimita":10433,"omastax":10434,"chiton":10435,"Ġunif":10436,"Ġruficornis":10437,"hlers":10438,"Ocypta":10439,"Cosm":10440,"Trigonidium":10441,"ĠPanzer":10442,"ĠGurney":10443,"Ġovalis":10444,"Crocidura":10445,"ĠByers":10446,"Drassodes":10447,"Mythicomyia":10448,"ĠHuynh":10449,"Pyramica":10450,"Linnaemya":10451,"ĠVvedensky":10452,"Ocyptamus":10453,"Atel":10454,"Aphaen":10455,"Bras":10456,"Dag":10457,"Sic":10458,"Typ":10459,"Vent":10460,"hren":10461,"poda":10462,"tys":10463,"uala":10464,"anta":10465,"Ġsid":10466,"mari":10467,"inn":10468,"esii":10469,"ĠSw":10470,"osto":10471,"omena":10472,"ĠAub":10473,"rosoma":10474,"ĠYakov":10475,"stylus":10476,"Ġjun":10477,"Ġjohn":10478,"odoce":10479,"ĠUni":10480,"Ġwer":10481,"Ġflavus":10482,"ĠCausey":10483,"xiensis":10484,"ĠPauly":10485,"Conops":10486,"zoneri":10487,"Monoch":10488,"Limosina":10489,"Ġrostrata":10490,"Haplochromis":10491,"Atheta":10492,"Ġspeciosa":10493,"Ġaethiop":10494,"ĠMasanori":10495,"Eleutherodactylus":10496,"ĠOzerov":10497,"Cis":10498,"Leuca":10499,"Soma":10500,"Stel":10501,"Tris":10502,"ferus":10503,"ior":10504,"mÃ¼ller":10505,"rero":10506,"wang":10507,"masa":10508,"Ġmata":10509,"Ġgina":10510,"erca":10511,"isay":10512,"sem":10513,"onch":10514,"ĠSander":10515,"ĠCox":10516,"ĠWray":10517,"Ġhop":10518,"anderi":10519,"igena":10520,"richi":10521,"ĠMartes":10522,"ĠSchma":10523,"Ġreg":10524,"latys":10525,"Lepidi":10526,"Ġcontra":10527,"zied":10528,"ileen":10529,"Polyg":10530,"Argy":10531,"Ġmarsh":10532,"lfuss":10533,"Agap":10534,"Poecili":10535,"ĠCamras":10536,"letcher":10537,"Ġobtusa":10538,"Obereopsis":10539,"ĠGillette":10540,"Ġasiatica":10541,"Ġsuturalis":10542,"ĠNicolet":10543,"ĠMatthews":10544,"torsiklo":10545,"Cur":10546,"Lag":10547,"Tungod":10548,"feri":10549,"flora":10550,"zin":10551,"Ġboh":10552,"ĠSemen":10553,"ĠBoc":10554,"ĠBowerban":10555,"olestes":10556,"Ġmop":10557,"ulli":10558,"ĠIlli":10559,"Polys":10560,"italis":10561,"Ġqua":10562,"ĠStur":10563,"ĠHooper":10564,"toneurus":10565,"Ġnigrifrons":10566,"ĠAmsel":10567,"Agabus":10568,"ĠInger":10569,"Ġikad":10570,"Ġtinu":10571,"Microplitis":10572,"ĠMurray":10573,"jee":10574,"Canthidium":10575,"dactyla":10576,"Gargara":10577,"hayes":10578,"ulentus":10579,"ĠBirstein":10580,"Ġdimidiata":10581,"adievich":10582,"ĠAvadievich":10583,"Triaenodes":10584,"ĠCoscaron":10585,"Leucauge":10586,"ĠSchmalfuss":10587,"ĠBowerbank":10588,"Bran":10589,"Cran":10590,"Ech":10591,"Gy":10592,"Hyg":10593,"Human":10594,"Thel":10595,"iopsis":10596,"kovi":10597,"vora":10598,"yta":10599,"enthal":10600,"teli":10601,"Ġsoma":10602,"Ġkadag":10603,"thea":10604,"ĠCruz":10605,"Ġparag":10606,"Ġmun":10607,"ĠFr":10608,"ĠPu":10609,"ĠReb":10610,"unog":10611,"ĠEileen":10612,"Ġdentatus":10613,"quensis":10614,"emer":10615,"Phal":10616,"ypsis":10617,"adis":10618,"Ġnigris":10619,"iiensis":10620,"cio":10621,"Ġflavipennis":10622,"Onitis":10623,"Litoria":10624,"Ġschul":10625,"aldeman":10626,"lobin":10627,"Aspido":10628,"tochironomus":10629,"ĠGrogan":10630,"ĠSalmon":10631,"ĠCanzoneri":10632,"Saprinus":10633,"Batrach":10634,"ĠBÃ¶senberg":10635,"ĠImajima":10636,"ĠPransiya":10637,"ĠTullgren":10638,"Ġdifficilis":10639,"Brun":10640,"Mit":10641,"Samtang":10642,"Ġeng":10643,"liko":10644,"kara":10645,"Ġaph":10646,"isei":10647,"ĠSenior":10648,"ĠPius":10649,"Ġcocc":10650,"Ġhex":10651,"obracon":10652,"otri":10653,"inax":10654,"ĠVog":10655,"ĠZlobin":10656,"terata":10657,"ĠBarber":10658,"App":10659,"Ġdomin":10660,"Ġtrilob":10661,"igenys":10662,"Scaphy":10663,"Rhagio":10664,"jiangensis":10665,"rixia":10666,"turata":10667,"Ġclavata":10668,"Ġhirsutus":10669,"Ropica":10670,"Arisaema":10671,"Lestodiplosis":10672,"ernador":10673,"Pediobius":10674,"Heterochelus":10675,"Agrypon":10676,"Nil":10677,"Stre":10678,"bula":10679,"mei":10680,"ozetes":10681,"Ġsed":10682,"doras":10683,"Ġkah":10684,"onn":10685,"opez":10686,"osomella":10687,"silis":10688,"iculus":10689,"oletis":10690,"ĠGreath":10691,"ĠJiang":10692,"ĠDc":10693,"Ġcru":10694,"Ġtanan":10695,"ovae":10696,"etz":10697,"udlo":10698,"Ġiya":10699,"Actin":10700,"tomias":10701,"cardo":10702,"work":10703,"ĠGerlach":10704,"ĠMohn":10705,"Cyclosa":10706,"Ġsignata":10707,"Chaetoc":10708,"Ġirreg":10709,"Canthon":10710,"Ġpundo":10711,"ĠLarson":10712,"Ġviridi":10713,"ĠBousfield":10714,"Scaphytopius":10715,"ĠGreathead":10716,"Sen":10717,"Strum":10718,"Ug":10719,"sin":10720,"orgus":10721,"ĠSu":10722,"ĠMuk":10723,"ĠBean":10724,"omec":10725,"icans":10726,"ĠLast":10727,"ĠLunes":10728,"Ġmc":10729,"apil":10730,"Ġeuc":10731,"Ġnato":10732,"orius":10733,"Ġdire":10734,"ybas":10735,"Ġtere":10736,"Ġuss":10737,"warta":10738,"ĠViol":10739,"Ctenophthalmus":10740,"ĠHolzenthal":10741,"limenes":10742,"loncha":10743,"Periclimenes":10744,"Ġconcinna":10745,"Ġmediter":10746,"Erechth":10747,"Ġmarmorata":10748,"Rhytido":10749,"Ġantarctica":10750,"Melaloncha":10751,"Phenacoccus":10752,"ĠDakbayan":10753,"Cinara":10754,"Curt":10755,"Gast":10756,"Kining":10757,"Lia":10758,"Mang":10759,"Mona":10760,"Pen":10761,"oor":10762,"peter":10763,"stor":10764,"ypha":10765,"Ġyan":10766,"arinata":10767,"Ġbrow":10768,"opold":10769,"ostra":10770,"olle":10771,"phragma":10772,"ĠPri":10773,"Ġcard":10774,"ograp":10775,"ocris":10776,"acel":10777,"saphes":10778,"ophyllia":10779,"rosia":10780,"llo":10781,"tictus":10782,"panea":10783,"oxenus":10784,"arium":10785,"tzer":10786,"ĠXie":10787,"Phyma":10788,"Epip":10789,"odonta":10790,"topsylla":10791,"Ġriv":10792,"ĠRamos":10793,"ĠWewal":10794,"Lepidodexia":10795,"ĠFranklin":10796,"Pelec":10797,"Ġsigna":10798,"Polycyrtus":10799,"Microserica":10800,"ĠRonderos":10801,"ĠGÃ©ry":10802,"ĠJacquin":10803,"Cheiracanth":10804,"ĠHerbst":10805,"Rhyssemus":10806,"Protapanteles":10807,"Dufourea":10808,"Erechthias":10809,"Curtara":10810,"ĠWewalka":10811,"Cheiracanthium":10812,"Az":10813,"Finali":10814,"Lar":10815,"bli":10816,"grin":10817,"utang":10818,"arle":10819,"sep":10820,"Ġbla":10821,"ĠBot":10822,"thess":10823,"ĠCambe":10824,"ĠRoz":10825,"ĠDessart":10826,"Ġcephal":10827,"ĠKnab":10828,"Ġken":10829,"pido":10830,"Ġparti":10831,"ĠBate":10832,"Ġspil":10833,"oist":10834,"ĠHuo":10835,"Ġthom":10836,"Ascogaster":10837,"ĠBenoist":10838,"emaeus":10839,"Leucochrysa":10840,"Brachyc":10841,"ĠOttis":10842,"ĠNeed":10843,"ĠSchulthess":10844,"Ischi":10845,"Lisp":10846,"ĠWendland":10847,"Tricimba":10848,"ĠRiccardo":10849,"epeolus":10850,"Hymen":10851,"Arctosa":10852,"ĠKaltenbach":10853,"tharsius":10854,"zalez":10855,"Rhipidia":10856,"ĠMiyake":10857,"Smicridea":10858,"ĠCzerny":10859,"Norrbom":10860,"ĠPulitzer":10861,"Strumigenys":10862,"ĠCambefort":10863,"Dypsis":10864,"Nap":10865,"ONG":10866,"Pelas":10867,"asellus":10868,"Ġander":10869,"Ġsym":10870,"Ġaduna":10871,"Ġpend":10872,"ĠWo":10873,"ĠFroggat":10874,"amo":10875,"ĠEarle":10876,"Ġvid":10877,"Ġfo":10878,"hayag":10879,"link":10880,"Ġlatic":10881,"ckhardt":10882,"tomorpha":10883,"renko":10884,"Scel":10885,"ĠBurckhardt":10886,"Ġmarginalis":10887,"gallia":10888,"Ġscop":10889,"ĠAllgen":10890,"Ġcoeru":10891,"ĠChristopher":10892,"essel":10893,"oleius":10894,"Ġamabilis":10895,"Ġsemana":10896,"ĠNewstead":10897,"elisca":10898,"Cephalops":10899,"ĠCorp":10900,"Ġvenusta":10901,"Digon":10902,"Ġpauliani":10903,"ĠXiaolong":10904,"Anabarhynchus":10905,"ĠFroggatt":10906,"Bae":10907,"Lo":10908,"Pis":10909,"Poli":10910,"Poth":10911,"Vol":10912,"fron":10913,"huna":10914,"ites":10915,"kod":10916,"entus":10917,"enops":10918,"lika":10919,"lidia":10920,"Ġsti":10921,"Ġkalibotan":10922,"issa":10923,"onum":10924,"orphus":10925,"tidia":10926,"ĠHot":10927,"ĠHov":10928,"ĠKull":10929,"calis":10930,"ĠNas":10931,"Ġgressi":10932,"ĠSchu":10933,"Ġalter":10934,"Chlam":10935,"own":10936,"mela":10937,"acquiao":10938,"Tham":10939,"Ġmacrop":10940,"Ġmaculosa":10941,"Orbigny":10942,"Ġcarin":10943,"oscir":10944,"Leucothyreus":10945,"Agathis":10946,"Trupanea":10947,"Ġvulgaris":10948,"Orchymont":10949,"jer":10950,"Ġnic":10951,"Ġkauban":10952,"Ġmaxima":10953,"Ġlun":10954,"osensis":10955,"umoto":10956,"ĠLeb":10957,"Ġmana":10958,"ĠTsa":10959,"ĠTuth":10960,"anaeus":10961,"Ġhun":10962,"spidiotus":10963,"irma":10964,"ochtherus":10965,"ĠZan":10966,"ĠYuan":10967,"chirus":10968,"Ġpagta":10969,"tarius":10970,"Ġconca":10971,"Thryp":10972,"Ġwar":10973,"Periss":10974,"beke":10975,"tanais":10976,"Heliophanus":10977,"ĠPickard":10978,"ĠNikolaus":10979,"Ġbifasciata":10980,"ĠJanson":10981,"ductus":10982,"ĠTanaka":10983,"Systropus":10984,"Ġsordida":10985,"Ampelisca":10986,"Scolop":10987,"Ġattenuata":10988,"Ġincerta":10989,"Ramulus":10990,"Dasybasis":10991,"ĠNeedham":10992,"Pelastoneurus":10993,"ĠTuthill":10994,"Gale":10995,"Ily":10996,"Merodon":10997,"Scu":10998,"hart":10999,"enoides":11000,"Ġako":11001,"Ġbuc":11002,"ĠBush":11003,"thrix":11004,"ĠHub":11005,"Ġpris":11006,"hip":11007,"eme":11008,"kibara":11009,"yab":11010,"Phle":11011,"oech":11012,"shanensis":11013,"Ġnigrov":11014,"ĠVersev":11015,"ĠTadao":11016,"Ġoff":11017,"Eux":11018,"Ġtemp":11019,"ospongia":11020,"Matod":11021,"Leucos":11022,"Ġnasud":11023,"Ġvaripes":11024,"ĠReich":11025,"ugay":11026,"Ġcornutus":11027,"Ġhispan":11028,"Ġargent":11029,"Ġtarsalis":11030,"Pseudococcus":11031,"Ġvillosa":11032,"Bisan":11033,"Ġanthrac":11034,"Epicypta":11035,"Ġmandib":11036,"sectra":11037,"Lumbrin":11038,"Amphinemura":11039,"Ornithogalum":11040,"ziedz":11041,"ĠKullander":11042,"ĠVerseveldt":11043,"Pod":11044,"Penth":11045,"Sib":11046,"Ze":11047,"canthus":11048,"jtsh":11049,"mylus":11050,"xum":11051,"Ġnev":11052,"todon":11053,"Ġsylv":11054,"ostola":11055,"ĠMead":11056,"Ġpay":11057,"ĠAk":11058,"ĠLim":11059,"ĠKlap":11060,"ĠTu":11061,"yproctus":11062,"Choris":11063,"ĠUl":11064,"ĠHarms":11065,"illaris":11066,"Protop":11067,"uhat":11068,"Ġserratus":11069,"trechus":11070,"Dipoena":11071,"ringomyia":11072,"ĠNikolajev":11073,"Ġturneri":11074,"Ġtrunca":11075,"Ceratobaeus":11076,"Ġlinearis":11077,"Ã¸yer":11078,"ogastrura":11079,"Styringomyia":11080,"Rhaphidophora":11081,"ĠLasalle":11082,"ĠMercet":11083,"chowsky":11084,"ĠDrake":11085,"Ancyl":11086,"ĠKrÃ¸yer":11087,"vassos":11088,"Tachytrechus":11089,"Ġstrandi":11090,"ĠWittmer":11091,"Aphaenogaster":11092,"Lepidiota":11093,"pec":11094,"rha":11095,"soria":11096,"wynn":11097,"anius":11098,"lidium":11099,"Ġaene":11100,"ono":11101,"sioptera":11102,"alea":11103,"ĠLotto":11104,"ĠWins":11105,"ĠJago":11106,"ĠFage":11107,"ĠFletcher":11108,"ĠDub":11109,"ĠEsb":11110,"Ġdugo":11111,"aci":11112,"ĠOgil":11113,"ĠChern":11114,"lady":11115,"ucci":11116,"emur":11117,"ochara":11118,"Ġemarginata":11119,"ĠIto":11120,"entropus":11121,"adensis":11122,"ĠAlbu":11123,"Ġargy":11124,"ĠSheng":11125,"ĠClarence":11126,"Ġorb":11127,"Mesoleius":11128,"Ġochre":11129,"unctus":11130,"dente":11131,"hnia":11132,"otomius":11133,"orhyn":11134,"Pachybrach":11135,"Austr":11136,"Dichotomius":11137,"omiya":11138,"oceros":11139,"tleya":11140,"Ochro":11141,"ĠTrewavas":11142,"Notiphila":11143,"ĠNonfried":11144,"ĠEthelwynn":11145,"Gram":11146,"Nov":11147,"Po":11148,"Plac":11149,"au":11150,"other":11151,"yspongia":11152,"laing":11153,"dov":11154,"Ġsagit":11155,"Ġaw":11156,"onides":11157,"orgi":11158,"orbis":11159,"orkis":11160,"tichneumon":11161,"iag":11162,"ĠHul":11163,"Ġkung":11164,"idberg":11165,"acanthus":11166,"Ġfon":11167,"ĠIl":11168,"Ġlamp":11169,"ilius":11170,"ĠFreidberg":11171,"Rhyn":11172,"erster":11173,"yiulus":11174,"Spara":11175,"felt":11176,"Ġguang":11177,"Disa":11178,"lype":11179,"Dacnusa":11180,"omima":11181,"Clovia":11182,"Ġaequalis":11183,"ĠTravassos":11184,"Gryll":11185,"balita":11186,"Clinocera":11187,"Callyspongia":11188,"Scaphoideus":11189,"ĠManila":11190,"ĠPinto":11191,"ĠMercedes":11192,"Cynorkis":11193,"ĠSakakibara":11194,"Suctobelbella":11195,"owlton":11196,"ĠAlphonse":11197,"petersen":11198,"ĠCorpuz":11199,"Ġgressitti":11200,"ĠEsben":11201,"AD":11202,"Benth":11203,"Sem":11204,"cyrtus":11205,"jell":11206,"yat":11207,"Ġgas":11208,"lakan":11209,"Ġso":11210,"maria":11211,"tanytarsus":11212,"onii":11213,"ester":11214,"Ġpalus":11215,"reu":11216,"olyc":11217,"Ġmir":11218,"ĠJun":11219,"terys":11220,"idge":11221,"obat":11222,"icha":11223,"utis":11224,"Ġlabaw":11225,"rupes":11226,"ditus":11227,"Ġjoh":11228,"Rhag":11229,"Ġanc":11230,"tipula":11231,"Ġore":11232,"ĠEmil":11233,"Caen":11234,"ĠConstan":11235,"ĠKirk":11236,"Ġrossi":11237,"ĠLorenzo":11238,"Ġfloridana":11239,"Ġvarians":11240,"femur":11241,"Ġnahimutangan":11242,"Sciophila":11243,"ĠGillet":11244,"Ġsenegalensis":11245,"ĠAubÃ©":11246,"Bru":11247,"Era":11248,"Hier":11249,"Nas":11250,"Nomia":11251,"Sor":11252,"Tam":11253,"Val":11254,"Ġic":11255,"arra":11256,"onota":11257,"chy":11258,"Ġlori":11259,"ĠSund":11260,"timus":11261,"ĠHaldeman":11262,"icephalus":11263,"umikan":11264,"ĠJer":11265,"ĠPala":11266,"Ġcul":11267,"ĠKell":11268,"odexia":11269,"terino":11270,"imensis":11271,"ember":11272,"Phthi":11273,"ĠStehman":11274,"ĠGeer":11275,"Ġpagsa":11276,"ymyrmex":11277,"urigona":11278,"ĠUSA":11279,"illard":11280,"Ġflavos":11281,"ĠCaterino":11282,"Ġperf":11283,"osper":11284,"Dasyp":11285,"hlke":11286,"Lispe":11287,"uwan":11288,"ĠKnowlton":11289,"ĠMitjaev":11290,"Ġvictori":11291,"Ġungu":11292,"Ġfalcata":11293,"Ġnebulosa":11294,"Ġvalida":11295,"Ġphae":11296,"ĠHajimu":11297,"Ġtomen":11298,"ĠDepartment":11299,"ĠPellegrin":11300,"Craspedo":11301,"Mur":11302,"Ras":11303,"St":11304,"browne":11305,"low":11306,"ming":11307,"wana":11308,"Ġnuda":11309,"omo":11310,"ĠPacquiao":11311,"amenta":11312,"ĠDuck":11313,"odz":11314,"agrion":11315,"Ġflam":11316,"imanus":11317,"ĠNord":11318,"ĠNash":11319,"laden":11320,"olivar":11321,"Ġreli":11322,"illum":11323,"Neurigona":11324,"ĠAnna":11325,"marga":11326,"Ġpereg":11327,"Apogon":11328,"Anaxipha":11329,"ĠDuch":11330,"Ġexcis":11331,"orhinus":11332,"Marga":11333,"Microterys":11334,"omelas":11335,"Ġnakap":11336,"ĠBroun":11337,"Ġpectinata":11338,"ĠMerri":11339,"Ġolig":11340,"Manota":11341,"Ġperuvi":11342,"ĠBueno":11343,"ĠClemens":11344,"ĠToledo":11345,"ĠAnatoly":11346,"olsom":11347,"ĠGiesbert":11348,"ĠBenedict":11349,"ĠPittino":11350,"Epicauta":11351,"ĠHovore":11352,"Lor":11353,"Tinea":11354,"fo":11355,"rhi":11356,"uanensis":11357,"ydo":11358,"ynd":11359,"yonal":11360,"Ġnew":11361,"enoi":11362,"ĠSzi":11363,"osargus":11364,"ĠBlatch":11365,"ĠHal":11366,"hii":11367,"enstam":11368,"ulosum":11369,"Ġviv":11370,"mane":11371,"ĠChu":11372,"quino":11373,"udens":11374,"Chari":11375,"adwell":11376,"anthon":11377,"Ġsib":11378,"Ġtama":11379,"yllen":11380,"cita":11381,"cida":11382,"illai":11383,"ĠRainer":11384,"Allod":11385,"Scara":11386,"Mesop":11387,"ĠFrederico":11388,"Exeta":11389,"ĠGeorges":11390,"ĠJacot":11391,"ĠPaik":11392,"phyra":11393,"Cary":11394,"edesmia":11395,"Ġmultic":11396,"mastix":11397,"ĠMasumoto":11398,"Ġannulicornis":11399,"Ġpagpang":11400,"omisus":11401,"Ġconfusus":11402,"ĠBickhardt":11403,"Leptocera":11404,"tepipona":11405,"Hymedesmia":11406,"Ġperuviana":11407,"ĠAsahina":11408,"ĠTreadwell":11409,"Ġklase":11410,"ĠMamet":11411,"Copidosoma":11412,"ĠHempel":11413,"Ġtrabaho":11414,"ĠHawksw":11415,"ĠViolovitsh":11416,"Pachybrachis":11417,"Cel":11418,"Pec":11419,"Potam":11420,"vei":11421,"whi":11422,"yura":11423,"licatus":11424,"Ġsord":11425,"oya":11426,"opol":11427,"ĠMÃ¶":11428,"Ġpeter":11429,"ĠFiro":11430,"ammo":11431,"Ġhys":11432,"ĠElli":11433,"actis":11434,"Ġtuc":11435,"itler":11436,"nemia":11437,"omaspis":11438,"ement":11439,"ĠIchi":11440,"utin":11441,"Chel":11442,"Ġnahimo":11443,"ĠBaranov":11444,"ĠForbes":11445,"chado":11446,"Ġdol":11447,"Peromyia":11448,"Mesoc":11449,"Ġoculata":11450,"oreana":11451,"Ġrubi":11452,"physalis":11453,"ĠGreene":11454,"ĠGarrett":11455,"Austros":11456,"Haemaphysalis":11457,"Ġnagpuyo":11458,"Ġpagsulat":11459,"Ġpresyon":11460,"Ġtexanus":11461,"Brevipalpus":11462,"ĠYasuhiko":11463,"onemobius":11464,"ĠBalachowsky":11465,"Cattleya":11466,"ĠDominggo":11467,"Conostigmus":11468,"ĠSpix":11469,"ĠFiroz":11470,"Pti":11471,"Sub":11472,"Stea":11473,"iphan":11474,"teras":11475,"Ġale":11476,"Ġatrata":11477,"tantops":11478,"incia":11479,"tasia":11480,"kton":11481,"esto":11482,"rai":11483,"ĠSladen":11484,"ĠMenzel":11485,"siops":11486,"sijtsh":11487,"rempis":11488,"ĠFlor":11489,"Ġcli":11490,"ode":11491,"Ġhab":11492,"Ġdri":11493,"neta":11494,"ĠVar":11495,"Ġgrup":11496,"eming":11497,"udell":11498,"Ġeff":11499,"erota":11500,"pada":11501,"Ann":11502,"Antepipona":11503,"zawa":11504,"Platyla":11505,"lough":11506,"ĠPhilippe":11507,"labis":11508,"Ġ1777":11509,"ĠMontag":11510,"ĠAbd":11511,"Sphe":11512,"ĠSpence":11513,"Ġannulatus":11514,"ĠBroad":11515,"ĠToro":11516,"ocercus":11517,"ĠIgnac":11518,"ĠChiu":11519,"Ġdistinctus":11520,"ĠBÃ¶hlke":11521,"Galumna":11522,"Ġgobyerno":11523,"ĠZimmermann":11524,"ocheilus":11525,"Telmatoscopus":11526,"Syneches":11527,"Ġcelebensis":11528,"ogenys":11529,"ĠSivec":11530,"ĠSemenov":11531,"ĠBlatchley":11532,"Cro":11533,"Cydis":11534,"Heria":11535,"Ric":11536,"Ster":11537,"etes":11538,"farl":11539,"jos":11540,"qbal":11541,"rell":11542,"Ġron":11543,"wad":11544,"Ġstro":11545,"onoma":11546,"ĠSon":11547,"ossa":11548,"ĠCenter":11549,"Ġpras":11550,"ĠAgar":11551,"ĠWan":11552,"ĠWard":11553,"ame":11554,"ĠTen":11555,"bangan":11556,"ocelis":11557,"acantha":11558,"ĠVacel":11559,"lingi":11560,"gasyon":11561,"atta":11562,"ĠIqbal":11563,"Phasia":11564,"Ġlatipennis":11565,"Ancistrocerus":11566,"ive":11567,"ĠShen":11568,"Ġwor":11569,"ĠCazier":11570,"ĠCaudell":11571,"ĠVerbeke":11572,"runkev":11573,"Euryg":11574,"Ġschmidti":11575,"tuo":11576,"Ġquadrid":11577,"ĠPettib":11578,"Phalac":11579,"Ġmicans":11580,"Ġpseudoc":11581,"Sphing":11582,"odontis":11583,"ĠAmnon":11584,"Isoperla":11585,"Ġelec":11586,"Lepidosaphes":11587,"Patella":11588,"Ġrhodes":11589,"Ġfrater":11590,"Gnamp":11591,"ĠSubba":11592,"ĠHedley":11593,"Ġvenez":11594,"Polycentropus":11595,"Ġbidentata":11596,"Norops":11597,"Ġallua":11598,"ĠTavares":11599,"Ġthoracica":11600,"ĠAlbino":11601,"Fritillaria":11602,"Harpactea":11603,"idenf":11604,"Ġandaman":11605,"Ġwerneri":11606,"ĠVacelet":11607,"ĠPettibone":11608,"Aren":11609,"Athys":11610,"ING":11611,"Tympan":11612,"lym":11613,"stoma":11614,"vic":11615,"vana":11616,"anense":11617,"gali":11618,"Ġses":11619,"Ġkaad":11620,"Ġ16":11621,"ĠSyo":11622,"ĠMoto":11623,"ĠFur":11624,"ĠEhlers":11625,"Ġdalan":11626,"ingeri":11627,"Ġtrin":11628,"itrichia":11629,"otina":11630,"tescens":11631,"wardi":11632,"Anomal":11633,"chiz":11634,"Ġliv":11635,"achvat":11636,"Ġgamay":11637,"ĠPetersen":11638,"thophilus":11639,"Calyp":11640,"Anthomyia":11641,"Ġcrassus":11642,"Ġterm":11643,"loce":11644,"Ġgipang":11645,"yernes":11646,"Ġtessella":11647,"ĠGriffini":11648,"Ġobliqua":11649,"Ġferrugi":11650,"atref":11651,"Ġecua":11652,"Siphona":11653,"ĠBiyernes":11654,"Ġpallens":11655,"ĠBhat":11656,"Rhaphuma":11657,"Ġabyssin":11658,"ĠGwendo":11659,"Serixia":11660,"ĠKurokawa":11661,"Entedon":11662,"Antocha":11663,"ĠDuckhouse":11664,"Atar":11665,"HA":11666,"Ling":11667,"Zo":11668,"byi":11669,"paris":11670,"rze":11671,"sta":11672,"uin":11673,"Ġnodo":11674,"laga":11675,"doch":11676,"Ġata":11677,"Ġgit":11678,"onc":11679,"raca":11680,"ĠMol":11681,"ukan":11682,"ĠHogg":11683,"ĠHitler":11684,"omimus":11685,"phal":11686,"amang":11687,"urmans":11688,"lister":11689,"net":11690,"ĠWilhem":11691,"hap":11692,"icae":11693,"ĠZone":11694,"outed":11695,"ĠWalley":11696,"Leptoph":11697,"ineensis":11698,"bour":11699,"Ġfusco":11700,"Ġbimaculatus":11701,"Orthotrichia":11702,"ureus":11703,"Paraclius":11704,"Ġsetosus":11705,"Ġtesta":11706,"Polyplec":11707,"Ġtruncatus":11708,"pidata":11709,"ĠBradford":11710,"Corydoras":11711,"querque":11712,"Isonychus":11713,"Ġhawaiiensis":11714,"ĠZanol":11715,"Exetastes":11716,"idenfaden":11717,"Eb":11718,"Ir":11719,"MA":11720,"OT":11721,"San":11722,"Tein":11723,"UL":11724,"USA":11725,"eere":11726,"mu":11727,"rth":11728,"tsila":11729,"Ġeri":11730,"Ġbol":11731,"rido":11732,"ĠSul":11733,"ĠHess":11734,"ĠAgu":11735,"icana":11736,"rotus":11737,"ĠRox":11738,"ĠTal":11739,"Ġhard":11740,"obelba":11741,"Ġts":11742,"ylon":11743,"Ã©n":11744,"ĠMachado":11745,"illeri":11746,"ymnus":11747,"tostoma":11748,"ĠBordat":11749,"ĠDeeming":11750,"ygodz":11751,"Ġalbis":11752,"Alopec":11753,"Ġmartini":11754,"ĠGuer":11755,"Ġ1808":11756,"Ġabys":11757,"Epir":11758,"oeca":11759,"Ġcrassis":11760,"ĠNath":11761,"Ġbifida":11762,"odion":11763,"ĠLameere":11764,"Ġcanariensis":11765,"Ceratostylis":11766,"Perilitus":11767,"Ġneglecta":11768,"Lysi":11769,"ĠSeidenfaden":11770,"Ġmilyon":11771,"ĠFoerster":11772,"Hoploph":11773,"ĠMorimasa":11774,"Malac":11775,"Cycla":11776,"folium":11777,"Meioneta":11778,"ĠGennaro":11779,"ĠSwainson":11780,"ĠBunting":11781,"ĠSchuurmans":11782,"ĠHarmston":11783,"Patellapis":11784,"atrefages":11785,"Aeth":11786,"Cama":11787,"bana":11788,"censis":11789,"ekto":11790,"meli":11791,"ulex":11792,"yoshi":11793,"Ġemp":11794,"Ġnilang":11795,"enella":11796,"ĠBolus":11797,"alonia":11798,"ĠLow":11799,"Ġcincta":11800,"ĠKeti":11801,"Ġhart":11802,"Ġdy":11803,"accus":11804,"iman":11805,"ĠNag":11806,"ylori":11807,"ĠWillink":11808,"ubra":11809,"ellaris":11810,"quin":11811,"Ġlacus":11812,"teni":11813,"Anch":11814,"otabanus":11815,"Ġpagd":11816,"ropa":11817,"ĠBrÃ©":11818,"yde":11819,"Ġconsper":11820,"ĠPereira":11821,"Hypogastrura":11822,"Ġacc":11823,"roleuc":11824,"ĠQuatrefages":11825,"Ġsulcata":11826,"Ġdepressa":11827,"Ġvirescens":11828,"Chaetop":11829,"trict":11830,"ĠCalman":11831,"ĠTeodor":11832,"Ġwilsoni":11833,"Rivellia":11834,"assaing":11835,"Ġmucro":11836,"ĠIshii":11837,"opachria":11838,"Acmaeodera":11839,"ĠDudley":11840,"Digonogastra":11841,"ĠDuchassaing":11842,"Ġalluaudi":11843,"20":11844,"Gip":11845,"Hondt":11846,"Loup":11847,"echi":11848,"flava":11849,"hero":11850,"oana":11851,"kaya":11852,"ĠSmi":11853,"ĠMak":11854,"iles":11855,"ĠCouri":11856,"Ġpani":11857,"ĠTyl":11858,"Ġdend":11859,"andia":11860,"ealis":11861,"otra":11862,"ĠNomura":11863,"epis":11864,"Ġgani":11865,"ĠMartens":11866,"utt":11867,"tenia":11868,"tissimus":11869,"donta":11870,"Metopius":11871,"raclough":11872,"othoe":11873,"lipennis":11874,"ĠBarraclough":11875,"romerus":11876,"tyna":11877,"ĠReid":11878,"Ġrobert":11879,"Argi":11880,"eckeri":11881,"ĠHoogstra":11882,"Triepeolus":11883,"Lasioptera":11884,"Asilus":11885,"Ġcolora":11886,"ĠNikol":11887,"ĠGaliano":11888,"Pseudep":11889,"Ġbipunctata":11890,"Ġirr":11891,"ĠRossi":11892,"ĠShinji":11893,"Ġguttata":11894,"ĠStonedahl":11895,"ĠHinz":11896,"ĠYoshimoto":11897,"Quad":11898,"Temn":11899,"Ġ--":11900,"ĠHÃ¼dep":11901,"Ġhamata":11902,"Apiocera":11903,"Ġbifurcata":11904,"oschema":11905,"Ġsimoni":11906,"ĠAgarwal":11907,"Ġkaadlawon":11908,"ĠHoogstraal":11909,"ĠHÃ¼depohl":11910,"Cav":11911,"Ena":11912,"Wala":11913,"Zon":11914,"bner":11915,"lmann":11916,"modes":11917,"wl":11918,"Ġnova":11919,"lima":11920,"Ġsund":11921,"Ġsad":11922,"Ġkahim":11923,"tanabe":11924,"erheim":11925,"isca":11926,"arinatus":11927,"riet":11928,"Ġinop":11929,"tiga":11930,"oski":11931,"aly":11932,"ĠTib":11933,"Ġhoff":11934,"lisay":11935,"Ġdubi":11936,"ĠOmer":11937,"ugbo":11938,"ĠSchein":11939,"Parav":11940,"oui":11941,"palis":11942,"ĠBrett":11943,"Ġjuc":11944,"lastus":11945,"ĠShuh":11946,"Ġgal":11947,"Ġmacros":11948,"umata":11949,"Ġsplen":11950,"Ġorth":11951,"hlb":11952,"Ġmotorsiklo":11953,"Ġmultif":11954,"Dicranop":11955,"Ġacutus":11956,"ĠDalman":11957,"valgus":11958,"Cosmos":11959,"Braun":11960,"ĠTanasijtsh":11961,"Ġbidens":11962,"Ġlimbata":11963,"Austral":11964,"ĠJÃ¶rn":11965,"ĠMeinert":11966,"Palaeorhiza":11967,"ĠHÃ¼bner":11968,"Docalidia":11969,"ĠCabanis":11970,"uckenberg":11971,"Ratcliffe":11972,"Ġcostaricensis":11973,"ĠMiguel":11974,"Ġirregularis":11975,"Ochrotrichia":11976,"ĠTanasijtshuk":11977,"Coph":11978,"Dir":11979,"Fus":11980,"Mapa":11981,"Rec":11982,"Van":11983,"coides":11984,"dema":11985,"eur":11986,"fascia":11987,"hinus":11988,"ppa":11989,"vena":11990,"tetes":11991,"giani":11992,"tall":11993,"rat":11994,"ĠSido":11995,"ĠBach":11996,"ĠDun":11997,"ĠDas":11998,"ĠTsu":11999,"odula":12000,"odrilus":12001,"ugot":12002,"tonensis":12003,"ierstra":12004,"ezes":12005,"ĠLinda":12006,"isita":12007,"ridg":12008,"lasta":12009,"versa":12010,"ĠParin":12011,"Stenodynerus":12012,"Tetrix":12013,"osceles":12014,"osperma":12015,"Phytosciara":12016,"Conch":12017,"ĠTimothy":12018,"Ġpulchellus":12019,"Ġstrig":12020,"oceras":12021,"Ġkasz":12022,"Typhlops":12023,"Orimarga":12024,"Macha":12025,"Aglais":12026,"Ġtonkin":12027,"ĠKinberg":12028,"Leptacis":12029,"Licuala":12030,"ĠKanaar":12031,"Lumbrineris":12032,"Scarabaeus":12033,"Cydistomyia":12034,"Atarba":12035,"Alopecosa":12036,"ĠShuhei":12037,"Cosmoscarta":12038,"Aster":12039,"Heb":12040,"Med":12041,"bracon":12042,"dens":12043,"iton":12044,"lop":12045,"lama":12046,"Ġaway":12047,"tator":12048,"Ġlec":12049,"ĠSim":12050,"ĠSmit":12051,"tianus":12052,"ĠGas":12053,"ĠPerty":12054,"hitabo":12055,"Ġcoma":12056,"Ġcoriac":12057,"ĠKot":12058,"risoni":12059,"richt":12060,"elloides":12061,"ichla":12062,"ysan":12063,"ticulata":12064,"ampe":12065,"toppia":12066,"zai":12067,"yante":12068,"ĠCai":12069,"Polana":12070,"ĠKawai":12071,"burgh":12072,"ĠHelen":12073,"ĠGarman":12074,"lypta":12075,"ĠMenezes":12076,"vittatus":12077,"odisma":12078,"ĠSouth":12079,"Brachi":12080,"Leia":12081,"Glycaspis":12082,"obothris":12083,"ĠKempf":12084,"Ġkaniadto":12085,"ryctes":12086,"Ġsiamensis":12087,"Ġparallela":12088,"Hydaticus":12089,"Bittacus":12090,"Myx":12091,"cz":12092,"gramma":12093,"welli":12094,"yke":12095,"tega":12096,"Ġsanc":12097,"kau":12098,"tanum":12099,"ulare":12100,"ngan":12101,"iser":12102,"arina":12103,"estra":12104,"titis":12105,"umba":12106,"ĠJi":12107,"ĠPf":12108,"ĠPear":12109,"ĠTeru":12110,"ocella":12111,"Ġvilli":12112,"Ġtrig":12113,"ecten":12114,"otypus":12115,"iptera":12116,"ĠVÃ¡":12117,"elimus":12118,"einfur":12119,"ungan":12120,"ĠHarten":12121,"Ġparall":12122,"tzova":12123,"Lath":12124,"ielke":12125,"ĠSpringer":12126,"ĠCarne":12127,"tuberc":12128,"kalov":12129,"ĠStation":12130,"Scatella":12131,"rogonia":12132,"quaert":12133,"Georg":12134,"ĠBequaert":12135,"ĠVasily":12136,"Ġkanunay":12137,"ĠWatanabe":12138,"ufri":12139,"ĠMannerheim":12140,"ĠLeach":12141,"bazus":12142,"Brah":12143,"Boletina":12144,"ĠKozÃ¡r":12145,"Ġfasci":12146,"Hirtodrosophila":12147,"Ġvietna":12148,"Sparasion":12149,"Polyplectropus":12150,"ĠTeruo":12151,"Cad":12152,"End":12153,"Far":12154,"Sh":12155,"Smittia":12156,"ball":12157,"iji":12158,"zu":12159,"ante":12160,"Ġsz":12161,"Ġsich":12162,"kata":12163,"mall":12164,"oysius":12165,"ery":12166,"Ġbet":12167,"oleuc":12168,"Ġmollis":12169,"ĠFoster":12170,"ĠPapa":12171,"ĠDeng":12172,"Ġcarp":12173,"ogenes":12174,"anax":12175,"Ġkimi":12176,"Ġventralis":12177,"mano":12178,"ĠOg":12179,"ĠViv":12180,"evsky":12181,"ebris":12182,"Ġimi":12183,"illosa":12184,"Pselli":12185,"ymna":12186,"Ġpersimilis":12187,"Ġruficollis":12188,"Chrysobothris":12189,"Ġmiy":12190,"Tetrap":12191,"ĠKarel":12192,"guson":12193,"Spir":12194,"Diamesa":12195,"Cole":12196,"ĠNorris":12197,"Ġopaca":12198,"Ceroplas":12199,"Ġaculeata":12200,"villei":12201,"Ġangustifrons":12202,"Myrmica":12203,"ostjuk":12204,"Ġpectoralis":12205,"ĠDodson":12206,"Typhlod":12207,"Hydrotaea":12208,"Ġdivergens":12209,"Hybos":12210,"tranychus":12211,"Ġdelica":12212,"tecticus":12213,"ĠAdolpho":12214,"ĠViggiani":12215,"Ġochracea":12216,"Augochlor":12217,"Allocosa":12218,"Acropora":12219,"Ġmetallica":12220,"ĠDucke":12221,"iggins":12222,"Achaearanea":12223,"ĠAlbuquerque":12224,"Ġsplendida":12225,"ĠSidorenko":12226,"Bas":12227,"Bassus":12228,"Gigan":12229,"Rach":12230,"Wye":12231,"gma":12232,"hstor":12233,"idon":12234,"mel":12235,"strom":12236,"uteri":12237,"enthes":12238,"Ġaga":12239,"Ġard":12240,"isan":12241,"isia":12242,"setosa":12243,"orin":12244,"akensis":12245,"ĠHsu":12246,"ĠLan":12247,"Ġmyr":12248,"ĠKur":12249,"obra":12250,"hae":12251,"ongensis":12252,"onaspis":12253,"inio":12254,"biya":12255,"ĠAloysius":12256,"omastix":12257,"Acon":12258,"bayashi":12259,"Ġbrevi":12260,"Scambus":12261,"Eubazus":12262,"Trichomyia":12263,"Ġ1795":12264,"Cryptus":12265,"Ġimpor":12266,"Austroc":12267,"Ġimmaculata":12268,"Ġamong":12269,"Ġfulvus":12270,"Procambarus":12271,"ijo":12272,"ĠCampos":12273,"Mecis":12274,"Ġantennata":12275,"Ġperplexa":12276,"Ġviolacea":12277,"ĠLundbeck":12278,"Colpochila":12279,"Ġdenticulata":12280,"Ġarizonensis":12281,"Lispocephala":12282,"Eratoneura":12283,"Ġgrupo":12284,"Ġtestace":12285,"hlbruck":12286,"Ġkaszabi":12287,"Wyeomyia":12288,"Cry":12289,"Eua":12290,"Lich":12291,"Stor":12292,"Stern":12293,"rura":12294,"ujev":12295,"wala":12296,"Ġaurata":12297,"Ġaegyp":12298,"aro":12299,"ĠAhl":12300,"ĠLeng":12301,"ĠPab":12302,"ulensis":12303,"ulton":12304,"Ġkana":12305,"andrus":12306,"bahin":12307,"Ġgumikan":12308,"Ġegre":12309,"Ġnailhan":12310,"ĠScholtz":12311,"enai":12312,"ĠShene":12313,"epsis":12314,"Ġmargari":12315,"ĠHolland":12316,"ĠStuckenberg":12317,"ĠCarrera":12318,"esium":12319,"Ġspinipes":12320,"Brachys":12321,"etopa":12322,"Ġpallidi":12323,"Ġneoc":12324,"ĠQuentin":12325,"ĠVladimirovich":12326,"Ġalbifrons":12327,"ĠReichenow":12328,"riashev":12329,"Saprosi":12330,"Rhinocricus":12331,"unders":12332,"Ġbanksi":12333,"ĠSnelling":12334,"Ġcylindrica":12335,"Hyphydrus":12336,"Ġamoena":12337,"ĠKamijo":12338,"Ġnganong":12339,"Ġcarolinensis":12340,"ĠKokujev":12341,"Ġmarshalli":12342,"Sphingonotus":12343,"ĠGwendoline":12344,"ostjukov":12345,"hlbruckner":12346,"ĠShenefelt":12347,"\".<|":12348,"GI":12349,"Lap":12350,"Raros":12351,"Stac":12352,"belli":12353,"kuwa":12354,"pona":12355,"vig":12356,"ymus":12357,"torus":12358,"inotus":12359,"Ġup":12360,"Ġindi":12361,"osz":12362,"ĠMin":12363,"ĠPillai":12364,"Ġcyp":12365,"Ġcord":12366,"Ġcinna":12367,"ĠTipp":12368,"ĠEsch":12369,"idal":12370,"omyc":12371,"pachys":12372,"ĠYan":12373,"upi":12374,"Thomisus":12375,"oniae":12376,"ĠTalisay":12377,"Ġ1786":12378,"ĠBentham":12379,"Ġ1778":12380,"Ġbispinosa":12381,"conothrus":12382,"Ġsinuata":12383,"leatus":12384,"ĠZahlbruckner":12385,"Ġamph":12386,"leps":12387,"Ommata":12388,"Ġlucida":12389,"Merosargus":12390,"dops":12391,"ĠVilhelm":12392,"Tetramesa":12393,"Epiphragma":12394,"Styg":12395,"Ġscutellata":12396,"Spirob":12397,"ĠMasahiro":12398,"lottis":12399,"rophthalma":12400,"Ġbivittata":12401,"ĠQuedenfeldt":12402,"zinski":12403,"ĠMuker":12404,"ĠSzilady":12405,"ĠBrÃ©au":12406,"einfurth":12407,"Hin":12408,"Poda":12409,"Zod":12410,"Zelan":12411,"bei":12412,"hag":12413,"kris":12414,"lorus":12415,"lyphus":12416,"moides":12417,"pil":12418,"vensis":12419,"anyos":12420,"ench":12421,"toris":12422,"Ġagilis":12423,"arella":12424,"cho":12425,"ĠSuter":12426,"opp":12427,"osph":12428,"ĠBender":12429,"ĠLand":12430,"ĠLÃ¶":12431,"ĠLÃª":12432,"ĠKostjukov":12433,"ryx":12434,"ophor":12435,"imyia":12436,"igenia":12437,"ĠNierstra":12438,"ĠCherian":12439,"ranchus":12440,"Ġeug":12441,"paida":12442,"endicula":12443,"meÃ±a":12444,"Ġdaw":12445,"mpra":12446,"ĠUlf":12447,"ĠHarriet":12448,"Thor":12449,"ĠAndriashev":12450,"Apol":12451,"Alpaida":12452,"impson":12453,"Ġdistri":12454,"Tettig":12455,"tuosus":12456,"Conocephalus":12457,"ferum":12458,"Oxys":12459,"llina":12460,"ometopus":12461,"ĠDawson":12462,"Ġterminalis":12463,"ologi":12464,"Ġcostata":12465,"ĠBradley":12466,"Ġbengalensis":12467,"Rhabdoblatta":12468,"Ġrosea":12469,"ĠDurga":12470,"ĠRaffa":12471,"Tapin":12472,"Strongylosoma":12473,"Ġkaugalingon":12474,"ufriev":12475,"ĠBenderitter":12476,"ĠNierstrasz":12477,"Hya":12478,"Jap":12479,"lok":12480,"nicola":12481,"yot":12482,"yran":12483,"anorpa":12484,"oyi":12485,"arn":12486,"Ġles":12487,"ĠSuwa":12488,"ĠMÃ¡r":12489,"Ġmeli":12490,"leton":12491,"ogenia":12492,"oder":12493,"urch":12494,"Ġfin":12495,"Ġfascia":12496,"bato":12497,"ĠVos":12498,"Ġgl":12499,"irensis":12500,"ĠTheron":12501,"olius":12502,"tormon":12503,"Ġtaka":12504,"ĠRoback":12505,"rassus":12506,"oxia":12507,"mbus":12508,"Ġanna":12509,"nix":12510,"elata":12511,"nardi":12512,"Agri":12513,"charius":12514,"ĠMayo":12515,"Ġnasuta":12516,"buca":12517,"Ġ1761":12518,"Ġlepida":12519,"Gnaphosa":12520,"Black":12521,"ternum":12522,"ĠAlekse":12523,"Microstylum":12524,"ĠRudzinski":12525,"artau":12526,"Ġpinulongang":12527,"Sphaero":12528,"Pinanga":12529,"ĠGardner":12530,"Ġtaiwanensis":12531,"Ġnagsugod":12532,"Ġwilliamsi":12533,"Ġbrowni":12534,"Bruch":12535,"outedeni":12536,"Ġkahimtang":12537,"Pil":12538,"Ptecticus":12539,"Winth":12540,"sto":12541,"sol":12542,"Ã½":12543,"Ġnotata":12544,"gap":12545,"Ġax":12546,"Ġgilu":12547,"Ġbicornis":12548,"Ġlem":12549,"rika":12550,"ostenus":12551,"ĠAquino":12552,"unus":12553,"ĠKat":12554,"lissus":12555,"andus":12556,"Ġves":12557,"otris":12558,"otrupes":12559,"Ġguate":12560,"ĠInd":12561,"Ġlap":12562,"othele":12563,"othrica":12564,"idiopsis":12565,"oidalis":12566,"Ġmartin":12567,"Ġschoutedeni":12568,"Colob":12569,"butan":12570,"Ġgubat":12571,"Ġsimbahan":12572,"Ġpunctipennis":12573,"Ġelemen":12574,"ĠAleman":12575,"Coelotes":12576,"Ġvicinus":12577,"Ġbolivari":12578,"Ġdelicata":12579,"Ġconsob":12580,"Ġpumila":12581,"Hemerodromia":12582,"Ġdigitata":12583,"Callistethus":12584,"empheria":12585,"Ġcommunis":12586,"Philautus":12587,"Ġnotabilis":12588,"Cicurina":12589,"Ġlumad":12590,"finado":12591,"ĠKinatsila":12592,"Poecilimon":12593,"ĠMotoyoshi":12594,"Winthemia":12595,"Ce":12596,"Eret":12597,"Ploc":12598,"baste":12599,"jak":12600,"manae":12601,"ss":12602,"Ġit":12603,"tanensis":12604,"Ġgiila":12605,"Ġginik":12606,"Ġ13":12607,"Ġbelli":12608,"ĠSud":12609,"ĠBowden":12610,"ĠHand":12611,"icius":12612,"rocha":12613,"ĠRing":12614,"Ġcac":12615,"ĠKae":12616,"ĠKali":12617,"ĠKwon":12618,"agu":12619,"imin":12620,"yles":12621,"ĠOv":12622,"elloz":12623,"elicon":12624,"abag":12625,"ypterus":12626,"tista":12627,"pain":12628,"upser":12629,"Ġje":12630,"Rhodes":12631,"ĠOsmeÃ±a":12632,"Ġoa":12633,"Euth":12634,"Hypero":12635,"Ġtim":12636,"enemann":12637,"ĠGawl":12638,"ĠNeumann":12639,"Ġpseudop":12640,"Ġimper":12641,"ĠNational":12642,"Cyclop":12643,"dasys":12644,"Ġseptem":12645,"Micropsectra":12646,"Ġcavern":12647,"Elephan":12648,"zhans":12649,"Ġundulata":12650,"ĠNicolas":12651,"Pidonia":12652,"inesque":12653,"Ġrichard":12654,"Astaena":12655,"Pulvinaria":12656,"Melissodes":12657,"Ġfimbriata":12658,"Phlebo":12659,"ĠMerriam":12660,"white":12661,"Saprosites":12662,"Cren":12663,"DU":12664,"Eul":12665,"Gran":12666,"Harm":12667,"NA":12668,"Uvar":12669,"bek":12670,"eia":12671,"out":12672,"enii":12673,"tot":12674,"ineri":12675,"Ġuma":12676,"Ġbang":12677,"raea":12678,"opris":12679,"ĠBinis":12680,"ĠBish":12681,"ĠAcharius":12682,"ĠRosa":12683,"tusa":12684,"ĠKenne":12685,"Ġdru":12686,"Ġturc":12687,"gastra":12688,"lanon":12689,"evert":12690,"Phronia":12691,"Ġlaeta":12692,"ĠSaunders":12693,"Ġflaviventris":12694,"tianeira":12695,"zef":12696,"ĠReiss":12697,"ĠBaert":12698,"Albuca":12699,"Ġruficeps":12700,"phium":12701,"Campylaspis":12702,"Ġ1810":12703,"Hypsi":12704,"ĠPax":12705,"Ġquadric":12706,"thallis":12707,"turatus":12708,"Notop":12709,"Ġfulvipes":12710,"ĠMannheims":12711,"lenh":12712,"cutellata":12713,"Ġflorid":12714,"Toxorhina":12715,"Ġfemorata":12716,"Ġbequa":12717,"ckelbergi":12718,"Hoplopleura":12719,"Ġcaudatus":12720,"Ġsuperba":12721,"ĠRafinesque":12722,"Ġtestaceus":12723,"Ġciliata":12724,"alastor":12725,"litawo":12726,"Ġabbreviata":12727,"Phyllod":12728,"Ophiacantha":12729,"ĠBellardi":12730,"Ġjamaicensis":12731,"Monochamus":12732,"Ġpundok":12733,"ĠMeade":12734,"elicones":12735,"ĠKenneth":12736,"Dyna":12737,"Eub":12738,"His":12739,"Ul":12740,"ctor":12741,"fran":12742,"mugna":12743,"sac":12744,"labay":12745,"Ġsma":12746,"dori":12747,"Ġmauri":12748,"seca":12749,"chet":12750,"tior":12751,"Ġpho":12752,"ĠAug":12753,"ĠAgassi":12754,"ĠLong":12755,"Ġmot":12756,"ĠGodo":12757,"ulang":12758,"obrycon":12759,"ĠVas":12760,"etum":12761,"erox":12762,"ulip":12763,"roneura":12764,"orii":12765,"Ġsiling":12766,"ĠArne":12767,"ydromia":12768,"Ġarmas":12769,"Ġwit":12770,"nita":12771,"umatsu":12772,"ĠReÃ©":12773,"Ġbrevif":12774,"Anathallis":12775,"ĠMcK":12776,"Ġbulan":12777,"vieri":12778,"Ġmonte":12779,"Stenoc":12780,"Cerapachys":12781,"Ġocellata":12782,"Phylloc":12783,"ĠHoffer":12784,"Ġcoronata":12785,"Ġcolom":12786,"Ġfuscipes":12787,"ĠMasay":12788,"Ġpunctulata":12789,"Limnophyes":12790,"odiro":12791,"Sinularia":12792,"ĠCortes":12793,"Ġstackelbergi":12794,"Castianeira":12795,"ĠGonzalez":12796,"ĠPrado":12797,"ĠKazuo":12798,"ifolium":12799,"Amiota":12800,"Ġhainanensis":12801,"ĠJeffrey":12802,"sheimer":12803,"Ġtambalanan":12804,"Ceroplastes":12805,"ĠTippmann":12806,"Phlebotomus":12807,"ĠAgassiz":12808,"Ali":12809,"Asty":12810,"Fer":12811,"Led":12812,"Pim":12813,"Tomaspis":12814,"Zeph":12815,"big":12816,"tub":12817,"uen":12818,"orme":12819,"ĠSodiro":12820,"tivus":12821,"ĠHabe":12822,"ĠGras":12823,"hik":12824,"Ġcri":12825,"Ġcycl":12826,"ĠKorn":12827,"anay":12828,"ĠEhren":12829,"Ġtrap":12830,"ecium":12831,"itzi":12832,"ochetus":12833,"ĠHentsch":12834,"utta":12835,"ĠHern":12836,"ĠLegrand":12837,"Pseudopan":12838,"ĠAnsel":12839,"rovi":12840,"rino":12841,"Anag":12842,"ĠXiang":12843,"lestes":12844,"giatus":12845,"iedemann":12846,"ĠPetrunkev":12847,"Leucandra":12848,"Ġdecorata":12849,"ĠAbreu":12850,"Dolichoderus":12851,"ĠMelsheimer":12852,"ĠSoares":12853,"ĠStange":12854,"ĠBlocker":12855,"Ġsilva":12856,"brium":12857,"ĠSoule":12858,"ĠIsmay":12859,"ĠAhmad":12860,"Ampulex":12861,"Ġantennalis":12862,"Ġtridens":12863,"oponera":12864,"ĠNicolaus":12865,"Tenu":12866,"Ġambigua":12867,"ellistena":12868,"Ġinaequalis":12869,"ĠKyoung":12870,"unghaan":12871,"ĠGodoy":12872,"ĠMasayoshi":12873,"ĠHentschel":12874,"ĠPetrunkevitch":12875,"50":12876,"De":12877,"Epe":12878,"Pall":12879,"Velloz":12880,"bensis":12881,"gram":12882,"hne":12883,"jae":12884,"joppa":12885,"zur":12886,"zig":12887,"Äģ":12888,"Ġsphaer":12889,"Ġmaroc":12890,"chez":12891,"rian":12892,"tibialis":12893,"ĠGarc":12894,"ĠDali":12895,"Ġhom":12896,"andensis":12897,"obac":12898,"obothrus":12899,"bawo":12900,"ucita":12901,"rice":12902,"ĠMaril":12903,"ochelus":12904,"eliae":12905,"ulipennis":12906,"ĠBrgy":12907,"ĠArch":12908,"ridia":12909,"Ġwol":12910,"cheremaeus":12911,"romma":12912,"ilew":12913,"lusi":12914,"Ġperyod":12915,"ginova":12916,"ĠZhil":12917,"Ġbrevirostris":12918,"Trichoniscus":12919,"ĠBenoy":12920,"ĠLoginova":12921,"ĠMiyer":12922,"Xylota":12923,"ophysa":12924,"Ġpolitus":12925,"Ġensi":12926,"Ġsusamang":12927,"ĠâĢĺ":12928,"Macroteleia":12929,"Cremastus":12930,"thyreus":12931,"ĠMurano":12932,"Gaurax":12933,"Ġsoror":12934,"Physocephala":12935,"atchell":12936,"ĠImadat":12937,"Gnophomyia":12938,"Rivulus":12939,"Ornith":12940,"ĠPresidente":12941,"rophthalmus":12942,"Anoplodactylus":12943,"Ġpropinqua":12944,"Ġmongolica":12945,"iefferiella":12946,"ĠSchweinfurth":12947,"Vespa":12948,"Stelletta":12949,"Hyperolius":12950,"Vellozia":12951,"ĠImadatÃ©":12952,"Il":12953,"Psila":12954,"raria":12955,"soc":12956,"zosteria":12957,"Ġ`":12958,"dova":12959,"Ġmab":12960,"Ġmahimo":12961,"oncha":12962,"Ġbut":12963,"Ġlyc":12964,"Ġintri":12965,"oplax":12966,"ĠBuk":12967,"ĠHille":12968,"ĠAyl":12969,"ĠGrant":12970,"datus":12971,"ĠField":12972,"ensper":12973,"asan":12974,"ĠKi":12975,"ĠKan":12976,"ĠTam":12977,"Ġke":12978,"ĠEsk":12979,"Ġtuy":12980,"eville":12981,"erie":12982,"abilis":12983,"ĠScheller":12984,"ĠMakar":12985,"Paralastor":12986,"yrs":12987,"ampo":12988,"shoff":12989,"pinyon":12990,"tritia":12991,"Ġflavo":12992,"uiter":12993,"itatus":12994,"Aloc":12995,"Alucita":12996,"Ġdisp":12997,"Macron":12998,"ewitz":12999,"Diph":13000,"Ġ1796":13001,"aristo":13002,"Ġschwar":13003,"tricha":13004,"ĠFilip":13005,"ostemma":13006,"Ġbrachyc":13007,"Ġformosus":13008,"Ġtransva":13009,"ĠDesb":13010,"ĠMichelotti":13011,"Ġdagkong":13012,"ylepis":13013,"ĠCrotch":13014,"Ġhinuon":13015,"Ġcristatus":13016,"ĠTeocchi":13017,"oxalis":13018,"Zygothrica":13019,"ĠCohen":13020,"Ġsumatrana":13021,"Petal":13022,"Goera":13023,"Ġimbesti":13024,"gryllus":13025,"Draconarius":13026,"ĠRiek":13027,"ĠSteffan":13028,"ĠHubricht":13029,"Ġginikanan":13030,"ĠZhiltzova":13031,"Ade":13032,"Aethi":13033,"Cris":13034,"Coch":13035,"Ol":13036,"Spa":13037,"Yelicones":13038,"codes":13039,"otomyia":13040,"syn":13041,"zkowski":13042,"liana":13043,"Ġson":13044,"Ġulitawo":13045,"semb":13046,"Ġbea":13047,"Ġbug":13048,"ĠSatchell":13049,"tigas":13050,"akh":13051,"thÃ¼r":13052,"ĠLower":13053,"Ġmora":13054,"ĠKuw":13055,"Ġhesper":13056,"ĠEric":13057,"Ġtre":13058,"Ġtug":13059,"ĠNov":13060,"ĠOpinyon":13061,"etensis":13062,"quata":13063,"linella":13064,"aech":13065,"ĠStephan":13066,"Ġrem":13067,"Ġreducta":13068,"Ġirid":13069,"Acer":13070,"cissus":13071,"cialis":13072,"Ġanomalus":13073,"ĠBoeck":13074,"ĠBarkalov":13075,"ĠReis":13076,"icolus":13077,"Apl":13078,"ybos":13079,"Chrysometa":13080,"Ġrubic":13081,"ĠKrauss":13082,"Ġ1771":13083,"phyus":13084,"Geophilus":13085,"Stefani":13086,"Ġhirta":13087,"ĠVainio":13088,"Ġluteus":13089,"atuman":13090,"Ġgranulata":13091,"ĠOrbigny":13092,"Cratichneumon":13093,"Ġresidente":13094,"Ġduol":13095,"temma":13096,"ĠJÃ¤ger":13097,"Ġarctica":13098,"yliza":13099,"Suillia":13100,"Ġtransversa":13101,"Limnebius":13102,"ĠVigors":13103,"ĠAlfken":13104,"Idris":13105,"Ġassamensis":13106,"rymnus":13107,"ĠOberthÃ¼r":13108,"ĠMabille":13109,"Neomochtherus":13110,"ĠElliot":13111,"Ġdriver":13112,"Heriades":13113,"Ġlacustris":13114,"Pseudopanurgus":13115,"ĠAylward":13116,"Ing":13117,"Kam":13118,"Longi":13119,"Oti":13120,"Tana":13121,"cor":13122,"della":13123,"dale":13124,"jne":13125,"Ġend":13126,"Ġsens":13127,"Ġlut":13128,"Ġpali":13129,"oleuca":13130,"Ġmid":13131,"phle":13132,"dagan":13133,"ĠFric":13134,"astrum":13135,"ĠTar":13136,"Ġflu":13137,"hauer":13138,"ughi":13139,"ffard":13140,"Pholcus":13141,"custa":13142,"allene":13143,"Ġregalis":13144,"ĠYing":13145,"phaea":13146,"tomys":13147,"Ġarmi":13148,"Ġgay":13149,"romo":13150,"Ġpulos":13151,"ĠLajos":13152,"Protone":13153,"estina":13154,"ogonus":13155,"Perisc":13156,"ĠBennett":13157,"ministra":13158,"Carabodes":13159,"sicera":13160,"Holc":13161,"Ġpuncticollis":13162,"Ġfern":13163,"toblatta":13164,"silva":13165,"Nesticus":13166,"Neoempheria":13167,"Pseudagrion":13168,"ĠSharif":13169,"Ġdiversa":13170,"ĠMunroe":13171,"ĠCornelis":13172,"Ġlevis":13173,"Hydrophorus":13174,"ĠSarÃł":13175,"Dictyna":13176,"Ġlongispina":13177,"Oribatula":13178,"Metriocnemus":13179,"Mysidia":13180,"Thinophilus":13181,"Mordellistena":13182,"ospermum":13183,"ĠTyler":13184,"ĠRingdahl":13185,"upserha":13186,"ĠMiyerk":13187,"ĠFricke":13188,"For":13189,"Gen":13190,"Julus":13191,"Lem":13192,"Pelle":13193,"Vi":13194,"Xia":13195,"away":13196,"ft":13197,"iba":13198,"lman":13199,"webes":13200,"Ġnerv":13201,"Ġstric":13202,"dow":13203,"dodes":13204,"Ġlew":13205,"akii":13206,"thodon":13207,"Ġpy":13208,"ĠAver":13209,"icorn":13210,"ĠGh":13211,"ĠFal":13212,"amy":13213,"ulella":13214,"ulescens":13215,"Ġvag":13216,"ĠChassag":13217,"ĠVon":13218,"ĠWild":13219,"ricum":13220,"ugang":13221,"ellensis":13222,"Ġglori":13223,"Ġaspera":13224,"Ġnasikop":13225,"ĠHentz":13226,"ulici":13227,"Ġtal":13228,"Ġpagh":13229,"Ġdac":13230,"Ġarte":13231,"Ġparap":13232,"Ġflavop":13233,"Ġbreviceps":13234,"ĠPaulo":13235,"ĠDelfinado":13236,"ĠHuwebes":13237,"Ġtulis":13238,"ascens":13239,"Ġbarbata":13240,"Ġsinica":13241,"Cerac":13242,"ĠDoane":13243,"dorensis":13244,"Amphis":13245,"ĠBehan":13246,"Cyrtochilum":13247,"Ġangustus":13248,"Ġangustipennis":13249,"Ġnakuha":13250,"ĠReinhardt":13251,"ĠWaterston":13252,"ĠVilbaste":13253,"Ġovata":13254,"Ġfloridensis":13255,"Saropogon":13256,"artita":13257,"Trogloh":13258,"Ġincisa":13259,"Sphenomorphus":13260,"ĠRagonot":13261,"Ġprinceps":13262,"rospilus":13263,"klamo":13264,"Neolasioptera":13265,"Ġlittoralis":13266,"ĠSummer":13267,"ĠKitchen":13268,"Venturia":13269,"Ġikaduhang":13270,"Appendicula":13271,"Thrypticus":13272,"Platylabus":13273,"ĠVÃ¡ri":13274,"Typhlodromus":13275,"Stactobia":13276,"Ġdistrito":13277,"ĠKornicker":13278,"ĠChassagnard":13279,"Troglohyphantes":13280,"Clep":13281,"Eng":13282,"Ja":13283,"Tama":13284,"Us":13285,"cop":13286,"cey":13287,"rub":13288,"sy":13289,"gab":13290,"gami":13291,"gard":13292,"Ġstic":13293,"Ġsara":13294,"Ġuta":13295,"rati":13296,"aku":13297,"ĠBuc":13298,"ĠBilar":13299,"thena":13300,"ĠAmi":13301,"icera":13302,"phomyia":13303,"ĠGrover":13304,"ĠGyllen":13305,"ĠFuji":13306,"Ġcab":13307,"Ġhut":13308,"Ġhad":13309,"imana":13310,"eiv":13311,"ĠYe":13312,"donus":13313,"ĠGiffard":13314,"Ġminu":13315,"ĠCarr":13316,"Eurys":13317,"ĠPainter":13318,"Copto":13319,"Dolicheremaeus":13320,"Oligo":13321,"Ġsuff":13322,"Dichochrysa":13323,"ĠGoding":13324,"ĠNicholl":13325,"Ġaequa":13326,"Cirolana":13327,"Ġcanalic":13328,"Ġkasad":13329,"Ġolivacea":13330,"Schistura":13331,"Ġtown":13332,"Ġamazonica":13333,"ĠLevy":13334,"Ġbuhatan":13335,"atubang":13336,"Aphytis":13337,"Ġcompacta":13338,"Chryson":13339,"Ġjohnsoni":13340,"Mecistocephalus":13341,"Ġbequaerti":13342,"Pelletier":13343,"ĠBilardo":13344,"ĠNicholls":13345,"Amer":13346,"Aenic":13347,"Bore":13348,"Brixia":13349,"OD":13350,"Sert":13351,"emart":13352,"uum":13353,"yana":13354,"ythere":13355,"Ġry":13356,"Ġyo":13357,"Ġkahi":13358,"Ġ14":13359,"insoni":13360,"ĠSith":13361,"ĠBalita":13362,"ĠCond":13363,"Ġpost":13364,"ĠAmando":13365,"Ġmani":13366,"ĠGestro":13367,"ĠWor":13368,"ĠTros":13369,"odella":13370,"Ġhed":13371,"Ġfimb":13372,"satus":13373,"Ġalask":13374,"ĠNogu":13375,"ovski":13376,"tonii":13377,"lanan":13378,"ietus":13379,"ĠAlexis":13380,"ĠArtigas":13381,"ĠSama":13382,"ĠSaaristo":13383,"Ġsubg":13384,"Ġsubter":13385,"ĠRegi":13386,"Ġobesa":13387,"uhal":13388,"Ġmarga":13389,"Ġ1813":13390,"Dioc":13391,"Sperm":13392,"Monohelea":13393,"Mycodrosophila":13394,"Ġdecora":13395,"Cyrtopogon":13396,"ostethus":13397,"omacrus":13398,"becki":13399,"kadai":13400,"Cheiloneurus":13401,"Ġhistri":13402,"omalopsis":13403,"Ġemer":13404,"Ġcastaneus":13405,"ĠIsao":13406,"ÃŃaz":13407,"Cladochaeta":13408,"Ġmarmoratus":13409,"ĠJacquemart":13410,"ĠHunt":13411,"Miltogramma":13412,"Schizoprymnus":13413,"Steatoda":13414,"incial":13415,"ĠRaffaello":13416,"Rhodesiella":13417,"ĠSithole":13418,"AW":13419,"IS":13420,"Morm":13421,"Prom":13422,"Synema":13423,"Zag":13424,"log":13425,"sal":13426,"vae":13427,"yt":13428,"Ġnes":13429,"Ġsw":13430,"Ġkamp":13431,"arata":13432,"Ġbos":13433,"Ġbrac":13434,"eld":13435,"eleri":13436,"rayi":13437,"ĠSue":13438,"ĠHyde":13439,"ĠCou":13440,"Ġplac":13441,"oleta":13442,"ĠLamber":13443,"ĠRit":13444,"ultus":13445,"bao":13446,"imulium":13447,"ĠNishi":13448,"Ġisla":13449,"ichus":13450,"Ġnaay":13451,"rond":13452,"amptus":13453,"New":13454,"derma":13455,"Ġtaylori":13456,"ivora":13457,"Ġbituberc":13458,"tophyllum":13459,"Ġ1812":13460,"ĠXiao":13461,"Ġerem":13462,"Astrop":13463,"Ġnigrita":13464,"ĠManuel":13465,"Tachydromia":13466,"myrus":13467,"ĠStrouhal":13468,"ĠHanson":13469,"ĠSchwarzer":13470,"ĠFernÃ¡ndez":13471,"Amblyseius":13472,"ĠMagnus":13473,"Ġfunebris":13474,"Ġstucken":13475,"ĠJustus":13476,"Nycti":13477,"obothea":13478,"Ġinconspicua":13479,"Eutrich":13480,"Ġtownesi":13481,"Ġfenestrata":13482,"Megastigmus":13483,"Ġpellucida":13484,"Ġsistema":13485,"ĠKhala":13486,"ĠBocage":13487,"ĠWanless":13488,"roleucon":13489,"Ġsmarag":13490,"Chrysonotomyia":13491,"Fla":13492,"Ichth":13493,"MC":13494,"Otos":13495,"Uroleucon":13496,"Wood":13497,"pta":13498,"pensis":13499,"uar":13500,"ugas":13501,"uense":13502,"wong":13503,"Ġtip":13504,"teata":13505,"Ġsit":13506,"Ġkaha":13507,"ginis":13508,"Ġbog":13509,"ĠBab":13510,"ĠHine":13511,"ometopa":13512,"Ġpaul":13513,"ĠAy":13514,"icosta":13515,"Ġmik":13516,"Ġcro":13517,"Ġhina":13518,"Ġhey":13519,"terer":13520,"oculata":13521,"andal":13522,"obrun":13523,"kiana":13524,"odessus":13525,"Ġtam":13526,"Leptom":13527,"oxus":13528,"Pseudon":13529,"yphylla":13530,"ilema":13531,"Apter":13532,"Ġalbomaculata":13533,"Diphyus":13534,"Ġproducta":13535,"Ġproximus":13536,"Ġyuta":13537,"Psammo":13538,"goensis":13539,"Ġcurvis":13540,"Ġbilineata":13541,"Dichaea":13542,"Ġgipatay":13543,"Xenylla":13544,"Ġinflata":13545,"Ġnitidi":13546,"Lepidostoma":13547,"todesmus":13548,"accobius":13549,"Ġscap":13550,"Deltocephalus":13551,"Ġbuot":13552,"Typhloc":13553,"Ġampli":13554,"Ġramosa":13555,"Syze":13556,"Ġpenins":13557,"Rhizoecus":13558,"ĠHubbard":13559,"Ġspinifera":13560,"ATAY":13561,"Ġhyalina":13562,"Ġdeserticola":13563,"Ġinornatus":13564,"ĠMasatoshi":13565,"ĠDrury":13566,"ĠSinugbo":13567,"ĠFluke":13568,"Ġpapuana":13569,"stroem":13570,"ĠHannum":13571,"ĠTsaur":13572,"Ġpalustris":13573,"Athysanella":13574,"Brahmina":13575,"ĠGrasshoff":13576,"Protonemura":13577,"ĠMiyerkules":13578,"Otostigmus":13579,"Gyr":13580,"Kay":13581,"Nata":13582,"UM":13583,"Va":13584,"etosus":13585,"lera":13586,"lellan":13587,"mgren":13588,"wensis":13589,"Ø§":13590,"ance":13591,"lara":13592,"tognathus":13593,"Ġscha":13594,"Ġkapin":13595,"Ġatomi":13596,"nau":13597,"onectes":13598,"elta":13599,"ĠSec":13600,"tive":13601,"opius":13602,"oplatus":13603,"osae":13604,"ĠHors":13605,"ĠCre":13606,"omba":13607,"Ġpod":13608,"ĠJÃ³":13609,"ĠFen":13610,"ĠFra":13611,"ĠRoma":13612,"ĠDru":13613,"ĠDunn":13614,"ĠKoma":13615,"ĠTag":13616,"Ġhali":13617,"oblatta":13618,"ĠVin":13619,"omasi":13620,"Neosc":13621,"Melin":13622,"ungog":13623,"ĠHarter":13624,"Thec":13625,"yphia":13626,"rade":13627,"Euophrys":13628,"Colobothea":13629,"Sphex":13630,"dorf":13631,"Amphip":13632,"Agath":13633,"Afrom":13634,"ĠKrieger":13635,"Ġhispida":13636,"osternus":13637,"Neopanorpa":13638,"theostoma":13639,"Amblyomma":13640,"Systoechus":13641,"ĠRubsaamen":13642,"Ġsanguin":13643,"Brachypogon":13644,"toleon":13645,"Anastatus":13646,"Mallophora":13647,"Ã¡lek":13648,"Zygina":13649,"ĠYaginuma":13650,"ordaire":13651,"Ġjacobsoni":13652,"Ġtinuod":13653,"Ġmandibularis":13654,"Augochloropsis":13655,"Ġelementong":13656,"ĠTroschel":13657,"Syzeuctus":13658,"Zor":13659,"fiel":13660,"try":13661,"Ġspath":13662,"Ġmacha":13663,"Ġlea":13664,"ĠSiti":13665,"ĠBrisch":13666,"ĠHoy":13667,"ĠCogan":13668,"daert":13669,"hiya":13670,"ĠDanger":13671,"Ġcop":13672,"Ġcay":13673,"terson":13674,"ĠEcon":13675,"ocrypta":13676,"bai":13677,"inai":13678,"epa":13679,"epper":13680,"Ġisab":13681,"Ġgur":13682,"apicalis":13683,"ĠMarlier":13684,"olatum":13685,"ĠSchotte":13686,"ieu":13687,"avat":13688,"Anoma":13689,"Ġiran":13690,"ĠLeopold":13691,"racantha":13692,"Leptata":13693,"ĠGibon":13694,"rachus":13695,"Thym":13696,"ĠBoett":13697,"ĠBarbour":13698,"eleteria":13699,"tophilus":13700,"ĠBauer":13701,"Protos":13702,"ĠGuang":13703,"Ceratopogon":13704,"Ġocellatus":13705,"ovitj":13706,"Allo":13707,"Phaedro":13708,"ĠJulio":13709,"oviensis":13710,"Carep":13711,"echt":13712,"Eupros":13713,"Halich":13714,"ĠValentina":13715,"Bathyp":13716,"Perilampus":13717,"Ġmusc":13718,"Dasiops":13719,"ĠHintz":13720,"ĠGagnepain":13721,"overidge":13722,"Tripteroides":13723,"Cylindromyia":13724,"zumia":13725,"ĠBoddaert":13726,"Lomaptera":13727,"Ballana":13728,"ĠUlrich":13729,"ĠMontagu":13730,"Cyclaspis":13731,"Zelando":13732,"Elephantomyia":13733,"ĠBishop":13734,"ĠEskov":13735,"ĠFujikawa":13736,"Ġtownsen":13737,"Ġstuckenbergi":13738,"ĠHorsfield":13739,"ĠJÃ³zef":13740,"ĠSitio":13741,"ĠBrischke":13742,"ĠDangerfield":13743,"Leptataspis":13744,"ĠBoettger":13745,"Ada":13746,"Alas":13747,"Cob":13748,"Etheostoma":13749,"Mun":13750,"Nupserha":13751,"Pteroc":13752,"eana":13753,"uardo":13754,"vir":13755,"Ġnimo":13756,"tome":13757,"usch":13758,"usia":13759,"erulescens":13760,"Ġulo":13761,"Ġbeckeri":13762,"orei":13763,"osca":13764,"siyon":13765,"uko":13766,"ĠCri":13767,"ĠCoe":13768,"olbus":13769,"ĠLiao":13770,"daea":13771,"hiz":13772,"ĠRuth":13773,"ĠDunc":13774,"Ġcu":13775,"ĠKenn":13776,"ĠTab":13777,"urs":13778,"bersi":13779,"ipio":13780,"ĠVockeroth":13781,"ranta":13782,"ugos":13783,"udia":13784,"iniella":13785,"ural":13786,"Parala":13787,"zaga":13788,"phax":13789,"Acritus":13790,"ision":13791,"pira":13792,"Ġconj":13793,"ĠAnufriev":13794,"Ġanceps":13795,"Thysan":13796,"Ġgalli":13797,"illar":13798,"ĠCamargo":13799,"Ġrufithorax":13800,"ĠMclellan":13801,"Campodorus":13802,"Leptonema":13803,"Ġprolix":13804,"Ġ1782":13805,"Phytod":13806,"ĠVicente":13807,"Aphidius":13808,"Ġquadrata":13809,"woodi":13810,"Ġpictipennis":13811,"Ceresium":13812,"ĠMiranda":13813,"ĠTakakuwa":13814,"Ġcalifor":13815,"ĠGrote":13816,"Ġsancta":13817,"Ġfurcatus":13818,"ĠRohwer":13819,"Leptoconops":13820,"Capnia":13821,"ĠSievert":13822,"Dactylorhiza":13823,"Ġboliviana":13824,"Rhabdomastix":13825,"Ġtridentata":13826,"Ġparadoxus":13827,"Xestocephalus":13828,"Tetragoneura":13829,"Ġkonseho":13830,"Ġvenustus":13831,"opetalum":13832,"Daghan":13833,"ĠKlapÃ¡lek":13834,"ĠHartert":13835,"Bab":13836,"Hala":13837,"Ler":13838,"Monte":13839,"Punc":13840,"Peleteria":13841,"Stan":13842,"Tec":13843,"Tera":13844,"bile":13845,"dum":13846,"iva":13847,"ket":13848,"mod":13849,"menus":13850,"vers":13851,"zÃ¡le":13852,"Ġani":13853,"anten":13854,"Ġsand":13855,"mat":13856,"Ġast":13857,"erda":13858,"ĠSen":13859,"ĠSugi":13860,"opera":13861,"opatra":13862,"ĠBug":13863,"ĠAthana":13864,"olei":13865,"ĠLoveridge":13866,"ĠGang":13867,"hiensis":13868,"ĠDing":13869,"unong":13870,"Ġcel":13871,"Ġcensus":13872,"Ġkoz":13873,"Ġkuno":13874,"Ġhunga":13875,"ĠEg":13876,"Ġduna":13877,"ryon":13878,"eci":13879,"ophonte":13880,"neyi":13881,"ovskii":13882,"etra":13883,"quel":13884,"ucchi":13885,"ugan":13886,"ellnick":13887,"lanes":13888,"Ġlabi":13889,"ĠZielke":13890,"Chyliza":13891,"Mex":13892,"Ġtab":13893,"otha":13894,"Leptur":13895,"ÃŃn":13896,"ompsa":13897,"Ġque":13898,"eniae":13899,"ĠAdler":13900,"Trichocera":13901,"ĠXing":13902,"Ġtrifasciata":13903,"Ġeximia":13904,"buryi":13905,"Ġspinos":13906,"ĠMontro":13907,"uzier":13908,"minth":13909,"Heteros":13910,"emani":13911,"butang":13912,"ĠQuartau":13913,"Cyma":13914,"trichus":13915,"Synodontis":13916,"lepta":13917,"Ġanato":13918,"ophyma":13919,"Ġlongiceps":13920,"Dasyvalgus":13921,"Ġgranulatus":13922,"Cephalotes":13923,"Ġquadrimaculata":13924,"ĠTsune":13925,"ĠKusnez":13926,"otanypus":13927,"Ischnochiton":13928,"Ġcurvata":13929,"Ġcinereus":13930,"Ġjavana":13931,"Ġcongoensis":13932,"Ġquinque":13933,"kinahanglan":13934,"Thaumalea":13935,"Cacia":13936,"rolepis":13937,"Selenops":13938,"Ġaurantiaca":13939,"ĠFahringer":13940,"Hyster":13941,"Ġinsolita":13942,"Ġlakip":13943,"ĠHottes":13944,"Chlamy":13945,"Zodarion":13946,"ĠEhrenberg":13947,"Ġperyodiko":13948,"Stefaniola":13949,"zÃ¡lez":13950,"ĠAthanase":13951,"ĠTsuneki":13952,"ĠKusnezov":13953,"10":13954,"Atopsyche":13955,"Caul":13956,"Dubi":13957,"Lu":13958,"borne":13959,"rens":13960,"zeri":13961,"Ġnal":13962,"Ġaut":13963,"Ġgik":13964,"chroma":13965,"Ġlen":13966,"ĠSena":13967,"ĠCun":13968,"Ġprov":13969,"alba":13970,"Ġmita":13971,"Ġmoda":13972,"ĠPel":13973,"Ġcamb":13974,"ĠTas":13975,"Ġhelen":13976,"Ġalata":13977,"ĠVecht":13978,"overn":13979,"eiventris":13980,"emor":13981,"ochor":13982,"ochira":13983,"urai":13984,"Phob":13985,"Ġalc":13986,"ĠMazur":13987,"ĠWalsh":13988,"othea":13989,"ĠUsinger":13990,"iversi":13991,"Ġlongiseta":13992,"Ġflavof":13993,"berger":13994,"Ormyrus":13995,"ĠBurla":13996,"steri":13997,"scens":13998,"idas":13999,"kane":14000,"Diach":14001,"Ġvernalis":14002,"Ġcurta":14003,"Ġdecep":14004,"otricha":14005,"Hoploc":14006,"Barbac":14007,"Ġclaripennis":14008,"lamys":14009,"omitus":14010,"iphum":14011,"Ġgriseus":14012,"Tricor":14013,"Ġsignatus":14014,"Ġdiversi":14015,"ĠProvincial":14016,"Ġmaritima":14017,"ĠBiswas":14018,"ĠBisaya":14019,"Mastig":14020,"fusca":14021,"Ġformosanus":14022,"Ġgeorgi":14023,"Ġmalaisei":14024,"ĠLogvin":14025,"ĠKumar":14026,"Rhytiphora":14027,"Drepanosticta":14028,"Ġgituohang":14029,"hyssa":14030,"Ġsibirica":14031,"ĠGibbs":14032,"Erigone":14033,"Ġabnormis":14034,"uayensis":14035,"ĠAkbar":14036,"Ġtonkinensis":14037,"Spirorbis":14038,"ĠMukerjee":14039,"Apolysis":14040,"ĠLambers":14041,"ĠRitsema":14042,"Aeg":14043,"Gama":14044,"Mir":14045,"Pas":14046,"Utetes":14047,"clus":14048,"etia":14049,"hy":14050,"hti":14051,"hona":14052,"ulin":14053,"zella":14054,"laimus":14055,"litz":14056,"main":14057,"Ġkaiphan":14058,"Ġmax":14059,"uso":14060,"ustus":14061,"arte":14062,"chat":14063,"Ġbrad":14064,"rigi":14065,"ĠSack":14066,"tikal":14067,"ilan":14068,"ĠHoch":14069,"ĠHsia":14070,"ical":14071,"ĠPand":14072,"ĠDomb":14073,"Ġcyr":14074,"ulodes":14075,"ĠKuhl":14076,"ĠKoval":14077,"ĠKlaus":14078,"ĠTomma":14079,"Ġhyb":14080,"ecanium":14081,"Ġeup":14082,"elidia":14083,"rossus":14084,"ditor":14085,"tice":14086,"rescu":14087,"anski":14088,"urii":14089,"Ġjean":14090,"Ġangay":14091,"Ġarn":14092,"Ġwhe":14093,"Ġflaviceps":14094,"Arren":14095,"uricus":14096,"ĠBurke":14097,"Ġzu":14098,"Chrysocharis":14099,"ozzi":14100,"Pachnoda":14101,"Rhadin":14102,"tions":14103,"ĠMayer":14104,"Eupteryx":14105,"ĠMiÅĤ":14106,"ettii":14107,"forme":14108,"cidea":14109,"Calliphora":14110,"ĠValerie":14111,"Ġglaber":14112,"nicki":14113,"Ġplaumanni":14114,"Psychomyia":14115,"ĠMurphy":14116,"Sargus":14117,"Teuchophorus":14118,"ĠSnellen":14119,"Diadelia":14120,"omarginata":14121,"ĠLundstrom":14122,"Ġcandida":14123,"Homalomena":14124,"Glypto":14125,"ĠHorv":14126,"Heteralonia":14127,"Ġexcavata":14128,"Ġtalaang":14129,"ĠHendrik":14130,"Ġinexpec":14131,"farlane":14132,"Ġkimiko":14133,"ĠDurgadas":14134,"ĠMakarchenko":14135,"Ġatomik":14136,"ĠMiÅĤosz":14137,"Belon":14138,"Euk":14139,"Minettia":14140,"Neiv":14141,"cephala":14142,"lovi":14143,"morpha":14144,"vani":14145,"Ġrac":14146,"enbergi":14147,"lido":14148,"Ġshar":14149,"Ġsax":14150,"Ġsauteri":14151,"Ġkadtong":14152,"sela":14153,"Ġlor":14154,"ĠStr":14155,"tiosus":14156,"osphaera":14157,"ĠBingham":14158,"iloscia":14159,"sira":14160,"Ġpab":14161,"phidia":14162,"ameri":14163,"asm":14164,"Ġkand":14165,"listus":14166,"Ġtung":14167,"Ġtrini":14168,"Ġfis":14169,"imo":14170,"berus":14171,"irella":14172,"ulipa":14173,"adix":14174,"orica":14175,"tincta":14176,"upt":14177,"latt":14178,"tilum":14179,"Ġtaas":14180,"Ġbatesi":14181,"entatum":14182,"Ġflavip":14183,"Ġpulver":14184,"uij":14185,"Aplidium":14186,"Ġmagt":14187,"Mesosa":14188,"lesic":14189,"Aphani":14190,"assin":14191,"Ġmicroc":14192,"Ġneotrop":14193,"ĠVasilevich":14194,"Ġpalpalis":14195,"ĠVaisan":14196,"Ġsulph":14197,"Ġclavatus":14198,"Ġrostratus":14199,"remn":14200,"doszkowski":14201,"Ġplatyc":14202,"Ġtenuicornis":14203,"Solen":14204,"Ġglobosa":14205,"ocalanus":14206,"ĠCrosby":14207,"Euglossa":14208,"Ġkusog":14209,"ĠHumph":14210,"Arabis":14211,"Ġarabica":14212,"Lethrus":14213,"Ġappendiculata":14214,"ĠRuppel":14215,"Syrphoctonus":14216,"ĠVargas":14217,"ĠAugener":14218,"ĠGarcÃŃa":14219,"ĠSummerhayes":14220,"ĠMontrouzier":14221,"Ġwheeleri":14222,"Neivam":14223,"ĠVaisanen":14224,"Atta":14225,"Mini":14226,"Mad":14227,"Olesic":14228,"Plum":14229,"Romu":14230,"Tre":14231,"bodo":14232,"canus":14233,"ddin":14234,"hyd":14235,"nitz":14236,"sara":14237,"Ġnil":14238,"Ġniingon":14239,"liriomyza":14240,"Ġsip":14241,"Ġsqu":14242,"Ġstar":14243,"Ġmall":14244,"aricus":14245,"onjaev":14246,"Ġbat":14247,"ĠMillot":14248,"ĠMÃ¸":14249,"ommer":14250,"Ġpuli":14251,"olens":14252,"umi":14253,"ĠLuh":14254,"ĠPes":14255,"ĠPinh":14256,"ĠRiley":14257,"oglanis":14258,"uran":14259,"lissa":14260,"acarus":14261,"obla":14262,"obio":14263,"ĠNij":14264,"ĠChill":14265,"ranth":14266,"quhart":14267,"enax":14268,"aniella":14269,"tinen":14270,"Ġsimi":14271,"lattella":14272,"anseni":14273,"ripta":14274,"arty":14275,"Ġconica":14276,"engensis":14277,"Ġwest":14278,"Ġparac":14279,"Ġflavifrons":14280,"romenus":14281,"tophorus":14282,"Polym":14283,"Ġunip":14284,"Ġalboc":14285,"Alstroem":14286,"ĠPerry":14287,"Anaulac":14288,"Anaphes":14289,"Ġhier":14290,"Ġmonst":14291,"tifolia":14292,"Endasys":14293,"bee":14294,"lictus":14295,"Chlorotettix":14296,"Ġsulcatus":14297,"ĠGribodo":14298,"Ġelegantula":14299,"Isomyia":14300,"cideres":14301,"ĠSugonjaev":14302,"Eriospermum":14303,"Prista":14304,"Ġikat":14305,"Scaptia":14306,"rillia":14307,"Neoconocephalus":14308,"Ġbicorn":14309,"ĠUrquhart":14310,"Ġmariae":14311,"Ġconcin":14312,"ĠMedved":14313,"ĠGeoffrey":14314,"Ġdimidiatus":14315,"Ġcingulata":14316,"Sabella":14317,"Ġussuriensis":14318,"ĠChernova":14319,"Epirhyssa":14320,"Ceraclea":14321,"Psammotettix":14322,"Olesicampe":14323,"ĠChillcott":14324,"Alstroemeria":14325,"ĠMedvedev":14326,"Alab":14327,"Boma":14328,"Boech":14329,"Cara":14330,"Corm":14331,"Tub":14332,"eticus":14333,"gana":14334,"loma":14335,"nensis":14336,"punctata":14337,"ptomus":14338,"rophora":14339,"tzi":14340,"Ġzi":14341,"Ġnea":14342,"lah":14343,"teuthis":14344,"Ġstan":14345,"Ġsci":14346,"inius":14347,"ismo":14348,"onidia":14349,"rito":14350,"ĠSten":14351,"tida":14352,"opoma":14353,"alth":14354,"ĠRose":14355,"ĠRocchi":14356,"ĠDag":14357,"ĠDell":14358,"Ġcent":14359,"ĠKey":14360,"odema":14361,"anace":14362,"ocosa":14363,"Ġtui":14364,"Ġtrog":14365,"imÃ©":14366,"otroph":14367,"ĠChapp":14368,"ĠVinc":14369,"etsch":14370,"eichen":14371,"Ġgod":14372,"onatum":14373,"uts":14374,"Phara":14375,"gans":14376,"iew":14377,"yptila":14378,"oliche":14379,"ĠBreddin":14380,"Ġdam":14381,"urillus":14382,"ĠSakai":14383,"Ġwir":14384,"Proasellus":14385,"Argia":14386,"ĠSanborne":14387,"Ġ1809":14388,"landicus":14389,"Ġabrup":14390,"Enopl":14391,"Callip":14392,"Trib":14393,"Triaspis":14394,"Ġtenella":14395,"ilanggo":14396,"Coreth":14397,"ovittatus":14398,"Philoliche":14399,"erialis":14400,"bisyo":14401,"Steth":14402,"Ġcompressa":14403,"Ġamurensis":14404,"Idiocera":14405,"Macrodactylus":14406,"Paraliparis":14407,"Ġplebe":14408,"ĠYoshida":14409,"Phytoliriomyza":14410,"Ġolivaceus":14411,"Ġfasti":14412,"Cyanopterus":14413,"Ġkraus":14414,"Rhaconotus":14415,"Gastro":14416,"Ġverrucosa":14417,"ĠKÃ¶hler":14418,"Ġgeniculata":14419,"Ġmutabilis":14420,"Leucospis":14421,"Hierodula":14422,"ĠTsuan":14423,"ĠXiangwei":14424,"ĠDuncan":14425,"ĠDombrow":14426,"Pristaulacus":14427,"Boechera":14428,"Are":14429,"Age":14430,"Bro":14431,"Balan":14432,"Dim":14433,"Dica":14434,"Papu":14435,"Pulici":14436,"bok":14437,"cas":14438,"canc":14439,"ghan":14440,"pez":14441,"Ġest":14442,"lites":14443,"Ġsylva":14444,"Ġgidala":14445,"ertus":14446,"taw":14447,"Ġindis":14448,"radia":14449,"opo":14450,"ostes":14451,"ĠMula":14452,"ĠBell":14453,"thala":14454,"Ġpila":14455,"olli":14456,"ĠLopez":14457,"phone":14458,"ĠJong":14459,"ĠFÃ¶r":14460,"amu":14461,"ĠDick":14462,"assen":14463,"agula":14464,"Ġdeb":14465,"andica":14466,"edus":14467,"otroch":14468,"ĠOst":14469,"ĠChurch":14470,"ettel":14471,"Ġangulatus":14472,"Ġgol":14473,"bianus":14474,"bitalis":14475,"ynobius":14476,"Neuro":14477,"ĠChristine":14478,"ciae":14479,"suon":14480,"ĠBarrie":14481,"Ġgard":14482,"Microph":14483,"Ġflavi":14484,"zek":14485,"Ġwag":14486,"Onesia":14487,"ybus":14488,"Trichonta":14489,"Calyc":14490,"Corybas":14491,"ulicola":14492,"Pachyd":14493,"Ġopera":14494,"Basilia":14495,"Geodia":14496,"Ġguineensis":14497,"ĠShiino":14498,"Syntormon":14499,"Isoc":14500,"Eustomias":14501,"Ġdepressus":14502,"ĠChiang":14503,"Ġglacialis":14504,"otanytarsus":14505,"Mantis":14506,"ĠBuquet":14507,"Ġpurpurea":14508,"ĠGonzÃ¡lez":14509,"ĠAgosto":14510,"ĠDanzig":14511,"Ġtransi":14512,"tellum":14513,"Damalis":14514,"Ġpruinosa":14515,"ĠGoode":14516,"Ġminuscula":14517,"ĠEvermann":14518,"ĠTschudi":14519,"Nippon":14520,"olycosa":14521,"rzej":14522,"ygodzinsky":14523,"ĠAlekseevich":14524,"ĠSueo":14525,"Astropecten":14526,"Barbacenia":14527,"Aphaniosoma":14528,"Romulea":14529,"ĠMÃ¸ller":14530,"Puliciphora":14531,"Balc":14532,"Sip":14533,"Tulipa":14534,"canth":14535,"hmeyer":14536,"mella":14537,"tung":14538,"latoria":14539,"togenys":14540,"mag":14541,"Ġkati":14542,"Ġagi":14543,"Ġatrop":14544,"gidus":14545,"inx":14546,"Ġbec":14547,"ĠSwe":14548,"tidis":14549,"ĠAz":14550,"ĠLem":14551,"ĠGlas":14552,"ĠWygodzinsky":14553,"ĠFeli":14554,"ampa":14555,"Ġ25":14556,"Ġhaema":14557,"lisis":14558,"sad":14559,"ĠNick":14560,"rancistrus":14561,"rosc":14562,"entje":14563,"ĠZettel":14564,"topyge":14565,"lerus":14566,"urie":14567,"ĠBrÃ¨":14568,"Ġchalc":14569,"lasyon":14570,"uiensis":14571,"Ġroth":14572,"Oncideres":14573,"chaudhuri":14574,"ĠChambers":14575,"Glen":14576,"hnan":14577,"ĠMike":14578,"essobrycon":14579,"Ġverticalis":14580,"chista":14581,"phanes":14582,"ĠMiya":14583,"ĠBeentje":14584,"Ġsuav":14585,"Ġacuti":14586,"Ġobscuri":14587,"otetranychus":14588,"Ġgyod":14589,"ĠBloch":14590,"edicia":14591,"Leptocerus":14592,"ĠSouto":14593,"ĠKerrich":14594,"ĠNikolaievich":14595,"Ġfreyi":14596,"Ġgihimong":14597,"Hyphessobrycon":14598,"osoter":14599,"Pseudomyrmex":14600,"Augochlora":14601,"Agalliopsis":14602,"Ġchalyb":14603,"terebra":14604,"ĠWallwork":14605,"ĠRebel":14606,"Gastrancistrus":14607,"ograpta":14608,"Neivamyrmex":14609,"ĠLuhman":14610,"ĠMulaik":14611,"ĠBrÃ¨thes":14612,"AR":14613,"Ate":14614,"Dol":14615,"Dein":14616,"Isa":14617,"Mong":14618,"Maech":14619,"Stom":14620,"Trig":14621,"ada":14622,"cella":14623,"dea":14624,"drilus":14625,"gp":14626,"ianus":14627,"Ġseti":14628,"Ġsucc":14629,"Ġsamad":14630,"Ġapa":14631,"arpus":14632,"seudo":14633,"chris":14634,"Ġbuwan":14635,"rama":14636,"tibo":14637,"opyr":14638,"thae":14639,"ĠHua":14640,"Ġperi":14641,"ĠLav":14642,"ĠGob":14643,"ĠPers":14644,
[...]
