#version: 0.2
Ġ d
e n
Ġ l
Ġd e
o n
t e
Ġ p
Ġ a
a s
Ã ¨
a n
e s
en d
Ġ s
o f
x t
te xt
< |
| >
end of
endof text
. <|
Ġ c
a r
e r
a t
q u
c i
i n
r e
Ġ e
Ġ m
Ġl a
a l
u n
o r
Ã ²
en t
i s
r a
Ġl o
Ġ f
i t
Ġ qu
i c
Ġ t
o m
Ġ L
Ġ un
a u
ci on
Ġ es
d a
r i
Ġ v
Ġ en
Ġp er
a m
Ġ n
g u
o s
Ã¨ r
Ã¨ t
u s
Ġqu e
e l
Ġde l
t a
i l
o l
Ġ A
Ġ re
r es
Ġs e
Ġ b
Ġ 1
Ġ C
Ġ g
Ġ S
in s
a i
Ġc om
r o
l e
t i
Ġ P
an t
Ġc on
Ġ (
Ã §
â Ģ
Ġ E
a cion
âĢ Ļ
Ġl as
am ent
i m
Ġ M
Ġun a
Ã ©
u l
e i
i a
Ġ o
r an
m b
Ġs on
a da
e t
Ġa l
Ġ r
u t
Ġd ins
Ã² r
Ġ D
a d
u r
gu Ã¨t
i on
Ã ł
Ġlo s
s t
at s
is t
ĠL o
c h
Ġp ar
l a
ic a
a p
Ġp as
Ġ B
o t
Ġa n
d i
en s
Ã Ń
ĠL a
al a
m p
Ġ j
it at
i r
Ġm ai
qu el
Ġ R
Ġ F
is s
a v
c t
Ġ T
i v
2 0
te r
a b
Ã ¡
i g
i d
Ã§ a
Ġde s
Ġ G
Ã¨ s
Ġ in
Ġp ro
au s
Ġa mb
ci a
Ġp r
g e
h a
Ġdel s
Ġ1 9
Ġs u
Ã¨ ra
t an
m ent
i z
a c
Ġ V
it u
i ci
o v
on t
Ġf o
i Ã¡
an s
Ã¨r on
Ġp o
Ġ N
Ġs us
t at
or n
Ġcom a
b l
0 0
) .<|
Ġ ent
ÃŃ s
Ã© n
m e
an d
Ġ I
un a
Ġ te
m a
g a
Ġc ap
c a
or s
Ġd i
u ra
Ġl ei
as s
ĠE n
Ã ¯
Ġn om
m i
ad as
Ġt ra
c ci
te s
Ġd au
qu es
Ġa p
e u
b en
Ġ Â
Ã¨ l
ar a
Ġ J
Ã© s
im p
Ġa r
d e
ar i
Ġ U
at ge
ĠE s
Ġt an
Ġm e
Ġa u
or t
o b
Ġcom p
Ġfo guÃ¨t
e g
an a
o g
e c
Ġl i
o p
1 9
Ġcon t
Ġa quel
Ġv il
au t
er s
Ġs i
Ã¨r s
Ġ i
Ġp l
u m
2 5
Ġf a
1 8
3 0
Ġtan ben
on d
cci tan
c e
Ġp re
Ġt ot
Ġs a
Ġp res
Ã©n cia
n a
Ġ 20
7 9
2 4
2 6
on s
Ġe x
ri a
Ġ res
1 4
e m
2 9
Ġ :
a g
Ġp ri
2 8
7 5
or m
Ġa v
Ġ h
Ġa b
1 5
1 6
i da
u c
7 8
3 5
7 0
1 0
Ġes p
3 6
7 6
Ã² t
7 4
3 4
3 8
Ġent re
3 9
r as
Ã¨ i
in a
Ġp el
Ġf Ã²r
o c
Ġc Ã²
Ġm ar
Ġa c
Ã¨ g
ic h
Ã ³
Ġre g
e is
Ġ O
Ġv en
ar t
ai re
cion s
Ġl en
Ġpar ti
es s
r it
os t
Ġa ut
al itat
Ġes t
Ġ imp
Ġ1 8
al h
ro p
Ã¨ u
Ġc ar
Ġs itu
Ã¨ c
l es
Ġes c
es t
ĠL os
Ġ ra
Ġg ran
Ġcon s
Ġ Q
i f
Ġ "
v a
b re
Ã² c
as t
gu Ã¨ron
Ġpar t
ran c
is ta
al s
al ament
ĠQ u
p er
5 0
Ġm as
Ġ or
qu e
Ã² l
ic s
ant s
Ġs er
acion s
Ġde i
d as
ic as
ci p
es c
er a
Ġ u
al as
o ci
6 0
Ġp u
Ġ H
ar d
) ,
Ġd on
4 4
el h
o d
Ġc am
Ġm on
Ġde m
8 0
ent s
r at
Ġ Ã¨ra
5 9
6 9
Ġp a
Ġ ter
Ġg en
Ġf in
8 9
2 1
ĠS e
Ġpri mi
e x
ĠÂ «
u d
Ġre c
ul t
4 0
Ġde u
i b
s s
ĠfÃ²r Ã§a
Ã¨ st
Ã² b
4 9
v ol
Ġo ccitan
ĠU n
en c
Ġt r
Ġc l
e d
i p
un ici
unici p
Ã¨r ra
Ġ X
Ġte mp
t h
Ġ ri
f er
Ġre p
en h
Ġm unicip
Ġn e
ĠD e
Ã¨s s
ĠA n
on a
gu t
Ġm a
ion s
Ġ -
ĠA quel
2 3
r u
2 7
Ġp ol
Ġs ol
6 5
en a
6 8
Ã¨ m
Ġs Ã¨g
Ġc ol
Ġpl an
os s
i u
4 5
Ġb as
in t
Ã²r t
ĠÂ »
1 1
Ġf ranc
Ãł n
4 8
av a
it s
Ġt res
Ġa qu
Ġlen ga
Ġc re
n e
Ã²r d
ĠA l
a quel
Ġp us
Ġpas s
Ġf orm
ĠP er
Ġm es
il iz
Ġvil a
i Ã¨r
Ġan s
r Ã¨s
Â ½
Â ¿
Ġt o
ri b
I I
ci as
os a
Ġ )
3 3
il h
Ġpr in
al l
v en
ĠC h
1 7
2 2
ent a
g on
5 5
Ã¨ n
ĠsÃ¨g le
6 6
Ã² n
Ġmunicip alitat
e mp
r Ã¨
Ġl u
Ġc h
r ic
8 8
9 0
ĠC om
g es
i e
Ġen c
Ġc aus
g an
Ġ gu
in g
ĠL as
o u
Ġa m
Ġd iv
1 3
7 7
e p
Ġprin cip
Ġper s
mp u
Ġm an
Ã² p
il l
Ġre l
Ġs ul
Ġpo d
l u
r on
c on
Ã§ Ã²
Ġd os
Ġs ens
es a
ĠS ant
Ġd is
Ġl eis
is me
te ri
Ġt orn
au c
Ġd o
Ġreg ion
us t
m et
m ens
on g
al iz
Ġaquel a
Ġc ent
p ul
Ġf ar
Ġc or
8 5
ol og
4 6
i an
m an
Ġ20 0
Ġu a
Ġp Ã²t
Ã³ s
r ar
Ġcom un
er t
Ġf am
end ent
it ats
ut iliz
r en
Ġgen er
u p
an ta
Ġv i
Ġ k
Ġr om
Ġ K
i re
7 3
l ar
ĠF ran
Ġm il
Ġtemp s
Ġse gu
in e
ĠcÃ² p
Ġe le
Ġsu d
ĠM ar
mb re
ig n
es ti
or a
Ġc al
an h
Ġa ss
Ġde p
1 2
e v
Ġa d
Ġpo pul
Ġf ins
Ã¨ss er
Ġ Ã§Ã²
ch a
Ġimp ort
Ġde f
at al
9 9
i er
Ġn ov
Ġal s
u b
es p
Ġpol it
Ġter rit
Ġparti da
c as
Ġvil atge
Ġf on
Ġs os
Ġo b
Ġqu i
Ã² st
j a
Ġpu bl
Ã ¼
Ġcap it
Ġs o
Ġa t
Ġcon e
Ġ ro
Ġc as
am b
ran s
il ha
Ġf or
6 4
Ã¨r n
Ã¨ ri
l an
5 8
er v
i cion
Ã¨ ma
Ã² ria
Ġde mpu
it a
Ġ *
ĠG u
Ġcon st
f ic
in as
ĠP ar
ti v
Ġm us
Ġdes c
Ġ ont
Ġper met
Ġre v
Ã² m
Ġprimi Ã¨r
Ã¨c te
e ment
ĠD ins
ĠP as
en Ã§a
Ġc ult
ro b
Ġp auc
un h
ar ri
te l
a ci
3 7
ct u
p aus
Ã² s
Ġan n
9 8
9 5
r os
Ġpro d
Ġdi re
Ġin ter
Ġpa ÃŃs
o ur
Ġl or
u da
3 1
Ġ ins
Ġ Ã
is a
Ã§ as
iss on
im ent
l ic
Ġj orn
Ġsu per
Ġre i
ra da
res s
Ġpel s
Ġ W
er n
Ġk m
Ġv ol
Ġsitu at
e b
di cion
p ar
or i
u cion
d on
id ent
Ġqu al
er c
re ch
Ġp ich
it ar
ĠA qu
Ġse gon
vol op
Ġm in
b alh
Ġfo guÃ¨ron
ĠA r
Ġt rans
7 1
Ġa f
Ġes ta
Ġs oci
Ġsi eu
c l
if ic
Ã¨r an
Ġs t
Ġpers on
Ġd om
Ġp la
Ġa ques
Ġcon f
it al
Ġes tat
Ġc os
ĠS on
g as
ĠPas mens
Ġdo as
5 6
Ġpod er
7 2
m in
Ġg r
Ġgran d
ra f
Ġc an
Ġde is
8 6
Ġan ci
at ura
Ġtra balh
3 2
g i
Ġg rop
iv a
it ants
ist as
Ġn on
Ġ Ã¨sser
ĠU na
Ġenc ara
Ġm od
Ã º
Ġdes volop
ĠA p
5 4
Ã² ri
ur as
Ġj a
Ġimport ant
9 6
uc cion
Ġdi fer
Ġp Ã²
Ġfranc Ã©s
8 4
Ã¨ a
ĠM ont
ct or
et at
Ġv er
b i
c cion
g er
Ġe l
Ġ utiliz
ĠC ar
Ġt rob
t s
Ġp oss
l o
Ġg l
Ã¨ la
Ġe mp
a qu
en Ã§
Ġcam p
Ġc a
Ġs iÃ¡
ĠF o
Ġ of
Ã¨ us
Ã² ca
9 4
gan iz
t ra
Ġd ens
Ġ on
Ġg ov
Ġs ov
ass a
Ġ âĢ
Ġrep res
t en
ĠS a
Ġme te
at re
Ġb en
ĠFran Ã§a
Ġde b
am p
ĠE st
is h
l as
e ci
b a
Ġpro v
Ġs as
Ġm et
u di
Ġf il
ur ant
Ġv ida
Ġa g
Ġser v
Ġab itants
Ġaqu Ã²
ar is
emp le
Ġc o
Ġd arri
Ġ z
Ġ era
ta cion
Ġ ).<|
Ġqu and
at ges
in c
ĠJ o
Ġl eg
Ġcon c
Ġl ong
Ġp endent
m at
Ġl im
ar s
Ġper i
0 5
ment s
0 9
Ġcont ra
Ġsu c
Ġcom una
i ra
Ġ er
Ġd ab
Ġn Ã²rd
ci s
e us
en ci
or d
Ã² de
Ġav iÃ¡
Ġe th
o ccitan
ĠI n
ĠC on
e gu
Ġ 2
0 8
Ġcons id
Ġap rÃ¨s
ce p
ĠQu e
Ġn os
Ġre f
Ġde st
Ġfa ch
Ġv is
qu Ã¨t
Ġlo c
Ġm en
ĠAquel a
Ġpopul acion
Ġres p
0 6
Ġr d
l ament
e f
ic ul
ut at
u re
Ġen s
Ġp at
Ġpubl ic
Ġde v
Ġ Ã²b
Ġr as
e ta
b er
Ġj os
Ġc r
Ġpr en
ai res
Ġv al
Ġfam ilha
av an
Ã¯ n
Ġ ist
Ġex p
Ġgu Ã¨rra
Ġs c
Ġgran da
Ġbas ti
os icion
art ament
an g
ĠL ei
Ã² la
0 4
l at
Ġ 4
re t
ĠM as
ĠT ol
Ġd rech
ar m
j orn
Ãł ria
Ġparti r
Ġcos tat
Ġ ;
Ġl in
Ġ 3
te g
Ġdes p
ri Ã¡
us s
Ġc ada
Ġfor ma
ti u
Ġm Ã²rt
Ġb ia
Ġ 5
Ġcaus a
e mb
Ġ Ã¨ran
ĠcÃ² n
iv ers
a iss
m es
Ġoccitan a
itu d
Ã¯ s
Ġd ist
om p
Ġcom enÃ§
ri v
i us
Ġs ist
Ġqual ques
ĠFo guÃ¨t
Ġm ant
d ic
ar c
ĠA ques
Ġpres ent
t ot
Ġsu b
Ġin f
Ġ um
vol ucion
Ġann adas
Ġbia is
Ġm al
Ġm Ãł
Ġto tes
Ġde us
Ġab ans
Ġn acion
an as
el l
u bl
t as
e ct
Ġa ra
Ġ1 5
Ġesp eci
con om
rÃ¨ p
Ġl ig
ul h
Ġn eg
Ġins t
om a
Ġrepres ent
h e
Ġm ond
om b
Ġcomp aus
Ã¨ x
6 7
i as
e j
Ġar t
Ã² u
' s
en at
Ġdep artament
Ġn o
Ġdempu Ã¨i
u rop
at ur
Ġsuper f
8 3
Ġdem or
Ã©n cias
Ġgov Ã¨rn
Ġconst itu
6 3
ei re
Ġconsid er
il le
ĠTol osa
Ġb a
6 1
Ġsov ent
aut or
6 2
Ġtra v
Ġra p
aquel a
r al
ra cion
4 7
Ġc i
ar n
ĠR o
Ġa i
er ic
Ġcult ura
an n
Ġm ens
Ġma j
Ġc Ã²r
Ġe conom
Ġm i
4 3
Ġsu bre
8 7
ig ina
Ġven guÃ¨t
Ġpolit ica
Ġto ta
Ġcl ass
ent re
gu da
id as
. .<|
8 2
Ġt Ã¨r
ĠX V
A n
9 7
Ġv a
og raf
a f
o is
8 1
au r
an da
Ġs ign
4 1
g ond
Ġn Ã²st
c ul
9 3
Ġs enh
Ã² ra
Ġm ot
Ġlen gas
Ġli ter
Ġt en
Ã¨t z
Ġdiv Ã¨rs
4 2
ĠA u
Ġm ei
Ġd urant
Ġf u
9 1
olog ia
Ġa ctu
Ġpro p
Ġar m
ta da
Ġpart icul
Ġimp or
Ġamb Ã©
Ġdes s
j Ã¨cte
Ġse i
5 3
Ġrel ig
Ġcent re
Ġnom b
er g
Ġb ar
Ġrom an
Ġre aliz
Ã¨l s
ĠmÃł ger
j ar
5 1
au d
Ġnom bre
Ġperi Ã²de
tan ta
5 7
ai ga
Ġme j
Ġ1 0
Ġpr of
iÃ¡ n
Ã²t le
h as
Ġs ab
" .<|
ex p
ent as
ar g
v i
Ġ im
Ġn iv
ĠX I
Ġde c
Ġc ast
Ġdon c
9 2
ri g
Ġf l
Ġg aire
Ġdef in
Ġap ar
Ġm om
ĠM a
Ġa gu
Ġpre mi
Ġr en
Ġsuc c
ĠcÃ²n tra
Ġe t
00 0
ing Ã¼
Ã¨s ta
l Ã¨u
Ġp ens
Ġex emple
Ġcom b
es tat
E s
an ha
l i
Ãº s
Ġaut re
Ġs im
Ġf as
il a
Ġp un
Ġm ov
Ġa s
Ãłn ia
es ta
Ġrec on
E st
u a
Ġimpor tanta
5 2
Ġ1 6
Ġre t
et z
Ġe p
Ġsist Ã¨ma
an Ã§a
r Ãł
Ã¨ p
ĠM on
Ġcont unh
c up
ÃŃ cia
Ġcone gut
at a
Ã¨r t
bl es
d ent
ament s
ĠR e
iss ion
ab le
Ġf em
Ã¨c tes
Ġse mb
g rat
ĠC al
Ġpres ident
Ġn atur
Ġcar ri
0 1
Ġc er
mp Ã¨ri
0 7
ta c
re g
or igina
Ġin t
Ġa le
ri m
Ġt ip
Ġb ast
Ġg ra
ĠI I
m and
Ġb le
Ġ 6
an Ã§
Ġpro g
n acion
in f
Ġtra dicion
Ġmom ent
as c
ra Ã¯n
Ġdon cas
Ġs ci
0 3
ad or
an ci
Ġor ganiz
Ġf i
Ġin d
c s
Ġal ara
Ġpla Ã§a
ent orn
ĠpÃ² don
de p
a ques
t ar
iss a
c an
ĠAqu Ã²
aut res
ĠV al
i guÃ¨t
ĠG ran
Ġfa guÃ¨t
ar as
ĠP ro
Ġe f
or ti
ant as
Ġmaj or
ÃŃ n
Ġpich on
Ġm elh
Ġan g
Ġest ats
d at
Ġso a
Ġf ra
la Ã§
Ġ Z
d es
Ġfon da
Ġl at
Ġmov ement
Ġde ra
ar Ãł
Ġtot jorn
Ġ Ã²
Ġr s
Ġde th
ĠS eg
al ha
Ġcar ac
Ġmete is
Ġc ad
et h
ĠÂ» .<|
Ġp ort
Ġlu Ã²c
end re
Ġj Ã²c
Ġfon cion
r ica
Ã¨ ct
Ġe g
Ãłn cia
Ġv ic
ĠR ep
c n
u g
Ġci utat
Ġv es
i Ã¨rs
ĠL e
Ġp on
Ġt re
Ġar rib
Ġof ici
v as
Ġ id
Ġ1 2
ĠJo an
e qu
teri or
ĠC ons
Ġtot as
Ġfranc esa
it z
in at
Ġli bre
Ġpa Ã¯s
i Ã¨ra
Ġsitu a
Ġv ari
ĠM i
U n
is i
en g
ist ica
il itat
Ã¨m as
Ã²p a
Ġs imp
ib le
ĠcomenÃ§ ament
d ia
Ġc atal
ĠcÃ²p s
Ġlim it
Ġpu Ã¨i
II I
Ġd int
Ġaut or
Ġcam bi
ic ament
0 2
Ġp ra
Ġsitu ada
Ġte cn
r ich
m as
A r
ess ion
f a
Ġl e
qu i
ĠAp rÃ¨s
b or
Ġh o
Ġse gond
Ġparti cip
Ġist or
Ã¨ isa
en i
at z
Ġs ost
min ist
il la
ur Ã²pa
Ã¨l h
j ec
Ġp ag
Ã¨st re
b le
m er
ĠP u
Ġ 8
Ġv e
ĠEst ats
is ti
Ġp Ã¨
ar iÃ¡
al e
ch e
Ġme mb
Ġc el
ri as
Ġa is
Ġpro te
Ġt ant
f in
ul a
ĠP r
Ġv Ã¨rs
Ġex ist
l ia
Ġent raÃ¯n
ut s
Ãł s
r Ã¨t
Ġc res
Ġm ena
ist Ã²ria
ac ab
a j
Ġri u
Ġd u
on i
Ġqu atre
Ġaut res
Ġcont in
ĠC ap
Ġterrit Ã²ri
z e
Ġson que
at iv
Ġmon de
di cions
Ġe v
Ġc ors
Ġo cup
er acion
Ġe urop
Ġdesvolop ament
Ġcon v
ĠAn s
Ġlin ha
Ġm ol
Ġreg ions
d u
Ġdesc ob
ubl ica
Ġp or
le g
in ter
u ta
Ġ Y
Ġav er
i en
Ġent Ãł
Ġj unh
ĠF ranc
ĠÃ²b ra
te mp
Ġap rÃ¨p
aut re
Ġ ost
Ġt rop
a y
ri l
ĠA b
Ġj ov
Ã¨l as
Ġaques ta
Ġv os
gu e
f ici
r ala
Ġd ob
Ġn av
ĠA mb
Ġ1 4
Ġprimi Ã¨ra
on da
ĠT ot
e au
Ġm au
ap ar
Ġdis c
tel l
ress ion
Ġmemb res
at or
Ġtorn ar
Ġmus ica
Ġd ic
in d
Ġor ig
ĠA v
Ġse c
Ġf is
Ġv all
Ġcam in
Ġperson as
Ġs al
Ġm ag
er i
enc Ã¨t
Ġdis p
Ġnomb ros
Ġe xt
am or
ĠA le
Ġin di
Ġa j
Ġsu p
Ġs Ã¨t
av ant
er ci
Ġes s
Ġ 7
Ġp os
Ã¨t h
Ġj am
Ġper que
Ġmil itar
ri p
Ġn i
Ġsi eus
Ġac tiv
Ġp aire
Ġv eire
Ġcon qu
Ġm or
Ġ1 7
Ġsol ament
im a
Ġparticul ar
v an
ins t
Ã²r ta
Ġp es
Ġm o
Ġser Ãł
iss enÃ§a
Ġc iv
le t
cci dent
i eu
m ar
ĠO ccitan
Ġ 9
Ġtra ct
Ġprod u
in h
Ã¨r as
Ġm at
a z
Ġf ond
Ġcapit ala
ti a
Ġsegon da
Ġmelh or
i ent
ivers itat
av or
ce b
Ġn ec
Ġ Ã²m
Ġqu esti
Ġm erc
Ġf ilh
Ġt or
Ġsoci etat
iss er
Ġpre paus
Ġl ingÃ¼
Ġt ard
Ġtr Ã²b
Ġf re
ta di
Ġcor r
it an
Ġb i
Ġpar lar
au me
Ġmar c
ti m
t itud
Ġ end
ud is
E mpÃ¨ri
ĠV i
v e
t ol
Ã¨r ta
s a
Ġv Ã²l
Ġdeb an
Ġf eb
Ġp e
Ġde ci
Ġj og
eis h
ru ct
era qu
Ġmin ist
A l
Ġe i
u ri
Ġ ),
Ġqu il
e an
av al
ar ti
t z
atal ha
" ,
ala is
Ġg e
ur b
rit an
ĠâĢ ĵ
i res
au l
ĠC atal
arm ada
ar r
re m
ĠR om
Ġcol le
Ġf an
Ġaques te
Ġli ber
Ġest udi
Ġgener alament
Ġj ulh
Ġc ul
Ġf us
ch es
Ã² va
Ġn cia
our g
Ġde ce
ĠP a
et s
ĠÃ Ī
Ġc au
ĠA t
Ġb lan
Ġr Ã²tle
Ġqu au
on h
Ġnec ess
Ġc ant
ĠAns in
Ġjam ai
cci t
Ġpra ct
Ġc at
Ġf avor
Ġass oci
o Ã¨st
Ġa ital
Ġm and
or ia
Ġinter nacion
al itats
Ġme di
Ġan im
Ġform acion
Ġele g
Ġserv ici
Ġ isa
te mbre
ist Ã©ncia
h er
Ġ 25
Ġr ra
Ġ is
Ġt rib
is ion
Ġver tadi
Ġcomp l
al ista
Ġmon tan
Ġs orti
Ã² ta
Ã³ n
I n
ĠGu Ã¨rra
Ġquil om
E O
Ġap r
Ġre fer
Ġav i
ĠJ os
Ġbas a
ccit Ãłnia
Ġe qu
ĠS ud
Ġsemb la
Ġdi rig
Ã²b ra
m on
Ġd ich
os as
Ġcre acion
Est at
ur s
c o
l Ã©s
v ir
Ġesta bl
es es
Ġcont rar
Ġdece mbre
Ġmon di
ĠM e
Ġam eric
ess or
Ġprop ri
Ã¨t res
Ġo p
Â ²
an c
ĠCom a
Ġesp Ã¨
ĠPar ÃŃs
p a
Ġse tembre
iz acion
ĠXI X
Ġt Ã¨x
ĠfÃ²r Ã§as
Ġmar Ã§
Ġsitu acion
Ġl ors
Ġimportant as
on ha
Ġen f
Ġter r
enh ament
j at
l or
Ġaquel es
ce d
Ġv ers
Ġ1 3
u ment
Ġsuperf ÃŃcia
Ġc in
au ta
ĠC l
ĠR ei
Ġsubre tot
Ġb l
ti va
Ġli b
i ana
ĠS ol
o ct
Ġ 30
Ġtrav ers
Ġin c
ust ri
Ġv ia
Ġprod uccion
dep end
im ents
Ġesp anh
Ġorig in
Ġliter atura
i et
x im
ĠCons elh
Ġc ir
ob re
Ġd aiss
Ġc ara
ÃŃ tol
Ġv iu
Ġpro c
Ġres t
Ġdom in
Ġrelig i
or ganiz
er aire
Ġesc riv
ĠC ol
di guÃ¨t
Ġcult ur
Ġb atalha
Ġlat in
u Ã¨
ĠÂ» ,
ĠRep ublica
ĠC as
ĠB o
Ġ '
ĠÃ²b ras
Ġv end
ĠM al
Ġnom en
Ġven ir
Ġgaire ben
on ci
Ġf ab
ri u
Ãł rias
Ġs ent
ĠEs p
Ġpremi er
Ã Ĵ
ĠcÃ² s
Ã¨ is
if ica
Ġprov ÃŃn
âĢ ¦
Ġc rit
Ġv iv
ut z
ĠDe mpu
Ġob ten
o re
Ġd amb
Ġm ont
and on
Ġcomp ren
Ġt u
Ġnov e
Ġs in
ct ors
Ġre mp
Ġtrob ar
Ġconf lic
Ġgr Ãł
Ġser iÃ¡
el le
Ã²n i
Ġp ap
Ã¨ as
ĠT h
r uccion
il i
Ġan t
Ġgener al
ĠF a
Ġmil ions
Ġn um
Ġb on
at iva
Ġale mand
at h
Ġpun t
p l
Ġc inc
om ia
Ġg as
Ġpon ch
Ġqu it
ĠE x
r is
Ġre b
iss i
t re
Ġe m
Ġt al
p re
Ġsci ent
Ġro ta
Ġsim b
r Ã²
i k
s us
Ġfin ala
ad ors
Ġjorn s
av etz
Ġ us
ar da
ĠC or
Ġf en
ĠcÃ²r s
ti us
ĠI II
ĠUn its
iss iÃ¡
Ġpres enta
aus a
Ã¨ss e
Ġjulh et
ĠJ ean
ri Ã¨r
et as
Ã²r is
Ġj ol
Ġvic t
Ġc erc
j Ã¨ctes
ar ia
s erv
en n
Ġp osicion
Ã² g
Ġ1 1
ĠE ra
Ã¨i re
Ġtip e
y e
Ġte s
ĠG l
gut s
Ġin v
Ġn aut
Ġal avetz
a is
Ã²b le
Ġv in
Ġen ter
aqu Ã²
Ġm ass
Ġnov Ã¨la
en ari
Ġaqu ÃŃ
Ġnove mbre
ir en
id e
Ġcont en
rib u
or g
ven cion
Ġad minist
ĠG en
ida ment
Ġd ir
ec cion
a ch
d uccion
Ġl ev
res p
ĠV en
et ats
em s
an di
Ġ ital
Ġp en
ri r
Ġsul s
Ġsuper i
it as
Ġb o
Ġpr om
ac cion
aliz acion
Ġanci an
Ġag ric
Ġd oc
ar b
ĠAques ta
Ġd im
Ġr t
ig a
ĠGran d
Ġp int
ĠI s
Ġu Ã¨i
ĠO r
lu Ã©ncia
l ada
m ont
ĠN e
l am
Ġgr Ã¨c
Ġsucc Ã¨s
ĠpaÃ¯s es
ĠR eg
p res
Ġf ont
Ġesp er
Ġcons erv
Ġcol l
iv as
ĠX X
Ġdom eni
Ġsost en
i x
ĠL u
gu lar
ĠS al
ter n
m un
ĠAques te
ĠgrÃł cias
Ġe mb
Ġpri m
Ġras on
ap on
ess a
ult ura
Ġanci ana
ograf ia
Ġpr Ã²p
Ġ ill
ĠQu and
un as
is e
ĠD el
Ġcan Ã§
Ġbast it
Ġa guÃ¨t
ti fic
Ġpass at
ĠtÃ¨r me
Ġquesti on
i o
ens a
Ġtemp er
ĠnÃ²st ra
l and
ific acion
ic le
ta d
i que
Ġm Ã¨s
Ġpro bl
Ġpro jÃ¨cte
ĠCon st
is c
Ġse par
Ġcomun as
Ġt Ã¨rra
Ġn orm
f orm
Ã¨r na
Ġdem and
s ol
ar qu
ra d
il s
Ġpass a
ĠS anta
Ã² na
Ġprincip ala
Ã¨i ra
mer ica
Ġd inas
en ca
ĠÃ²m es
Ġd itz
d us
at ion
Ġpich ona
ĠP endent
Ġac c
ĠT r
ci n
ĠE l
p elh
Ġde cis
Ġdi al
Ġaquel as
Ã²l as
Ã²rd re
i Ã¨
Ġj ust
l ant
Ã¨ ria
Ġm er
Ġap eraqu
c cions
p e
Ġc ob
Ġvil as
Ġcol or
Ġde t
end a
Ġm itat
Ġper d
itu cion
teri z
Ġtot ala
ar rib
Ġcapit Ã¨t
Ġgrand s
h an
t Ãł
Ġn as
Ġn atura
Ġpermet Ã¨t
Ġac ab
ut ats
Ġpolit ic
Ġp et
Ġp ur
Ġp ot
Ġ1 79
ai r
ĠV er
ĠEn fin
v ar
Ġb ra
Ã¨t a
ĠA m
Ġa da
el ha
ron ti
el a
Ġtr Ã²p
d it
ĠE urÃ²pa
aut ras
Ġprog ra
os es
ta va
ens enhament
ĠtrÃ²b a
al isme
Ġqu arti
Ġt ÃŃtol
ul tat
i ers
Ġg ent
ur g
iss es
cep cion
ĠRe volucion
Ġc ort
Ġb es
ĠT o
ĠT Ã¨rra
Ġniv Ã¨l
Ġmajor itat
i cions
Ġsenh or
ĠC r
t on
Ġb ritan
Ġesp aci
Ġcarri Ã¨ra
Ġcer tan
Ġpre v
Ġvi ol
Ġes qu
Ãł cia
ĠÃĪ ra
s e
Ġcom erci
Ġaqu eu
l os
v at
Ġn uc
Ġdifer ents
Ġcarac teriz
is te
om at
ĠC an
Ġav C
Ġaut ra
Ġdist in
v ille
Ġpres Ã©ncia
i at
Ġf ronti
ĠT an
g at
Ġcomb at
in es
Ġgl Ã¨isa
Ġr Ã¨i
Ġpro ven
Ġpr Ã¨p
ĠN acion
ĠAn g
est udi
Ġl Ã¨u
Ġv eg
Ġfil os
at iu
Ã²l s
Ġresp ons
ĠN Ã²rd
t o
au la
ĠP art
Ġcomun ic
ĠT ra
r ats
Ġf ot
Ġo bl
Ġnom enat
ĠCh ar
Ġa us
ĠR oma
ab la
Ġcom encÃ¨t
ĠsÃ¨g les
ĠSeg on
Ġcorr ent
Ġp an
ĠF el
Ġor ient
Ġd ub
ĠD em
Ġmar id
ilh as
Ġt Ãł
Ġse u
j as
es per
ar ra
un es
Ġc u
Ġf er
Ġme mbre
Ġdire ccion
ĠC o
Ġfa ci
Ġaut ras
Ġs au
Ġc ost
v er
Ġf ons
Ġtrop as
g n
Ġre ti
Ġpar te
man ha
Ġman if
ĠL i
v id
Ġp Ã¨r
au x
Ġse is
Ġte atre
ult ats
vir on
Ġdinas tia
u gu
ĠP ol
ter ran
Ġcont r
Ã²l i
jec tiu
Ġcres ti
ens ion
Ġdem anda
Ġs en
un s
Ġb al
Ġma teri
Ã¨s i
Ġcons elh
Ġquit ament
d o
e y
Ġd ia
Ã²st ra
Ġd ata
Ġg raf
Ġpar la
Ã©n er
Ġdarri Ã¨r
Ġc op
Ġb alh
rÃ¨ mi
Ġnatur al
is on
Ġe la
ep Ã²ca
Ġsegu r
ab les
Ġse t
Ġcor resp
cl us
Ġb at
Ġg es
r y
Ġpro b
Ġmete issa
Ġv oc
ĠM o
ici an
ĠEs c
Ġimport ants
as i
Ġmai re
Ġpr Ã²
Ġg anh
itu ra
ĠMont pelh
ĠP rÃ¨mi
oc up
Ġmant en
Ġminist re
Ġcatal an
d uc
g ar
Ġcol on
Ġdifer entas
ann ada
Ġang lÃ©s
Ġbes onh
i ri
Ġl et
al titud
Ã² me
Ġutiliz at
l in
ot ar
Ġterrit Ã²ris
d er
u e
Ġv an
Ġv ista
Ġre ceb
n as
Ġin ici
ad es
Ã¨ it
iss ent
Ġposs ed
Ġp Ã²rta
ac tiv
Ġqu im
ĠO ccitÃłnia
Ġp Ã²ble
ĠI V
ĠCom p
ost al
Ġp Ã²rt
it or
os f
ĠM ai
ĠA f
Ġpas mens
Ġlen g
ĠB el
Ġdes ign
Ġau ment
Ġad op
Ġcaus as
Ġremp laÃ§
r ont
ĠM an
Ġmil it
ĠespÃ¨ cias
tÃł lia
ĠL or
Ã² us
di fic
Ġd avant
ist ÃŃs
Ġrap idament
es ia
ĠR ob
Ġesc rich
ast re
Ġc ros
ativ ament
bl as
ruct ura
ch as
Ġgen iÃ¨r
i ans
Ġs ant
Ġm ost
Ã¨r ca
ĠB e
Ġso ta
Ġfi gu
ri guÃ¨t
ĠS t
Ġele ct
Ġat al
Ġcas er
ĠS o
Ġcom te
Ġpass ar
Ġcarac ter
Ġdi f
ag ost
Ġsegu ida
ĠE th
Ġprimi Ã¨rs
Ġben lÃ¨u
Ġ 24
on omia
Ġv ir
Ġpr on
Ġcomp le
Ġcre at
temp s
au ment
ĠM art
la v
Ġpo di
Ġac cep
ori guÃ¨t
f Ã²r
t Ã¨t
Ġd re
Ġs ob
Ã¡ n
Ġ om
Ġc anta
ĠAn d
es as
Ġcone guda
ĠG e
Ġvict Ã²ria
Ġd us
p h
Ġd in
arc el
Ġpre cis
Ġesta da
Ġnacion ala
Ġson s
Un iversitat
ĠtÃ¨x tes
Ġs om
ch s
Ġcons equ
Ġarm ada
u f
ol s
av iÃ¡
ĠMontpelh iÃ¨r
am a
ĠB r
Ã²t s
Ġemp leg
Ġespeci alament
and re
ĠÃ Ĵ
ĠâĢ Ķ
emb le
Ġg le
Ġmes ura
Ġb ourg
Ġgran das
Ġcam b
our t
L o
ri ure
Ã© isser
Ġo ccident
ari cion
ra ment
ist ic
ĠfÃ²r t
Ġval or
c es
or b
Ġun ivers
ti on
Ġprod us
i gu
Ġ 26
Ġd at
Ġa st
il ici
Ġanci ans
Ġcontin ent
Ġl arg
ci an
Ã²c s
ĠÃ² me
Ġte le
Ġdi fic
Ġlig am
acab Ã¨t
re d
Ġpres id
rit z
Ġposs ib
Ġposs ible
Ġgov ern
Ġf ai
ĠS us
ĠP Ã¨ire
ĠLo ÃŃs
Ġpart it
ĠAp rÃ¨p
Ġeg alament
Ġconflic te
Ġ 21
ĠA ra
ĠE urop
ĠB er
ĠF in
Ġcont un
ĠCatal onha
j ada
l ica
in acion
Ġt ri
ĠM au
ĠB as
Ġsenh ors
g ent
Ġ 22
Ġd iss
ti p
Ġdeb uta
d en
Ġd ura
Ġcl ar
ĠP re
Ġj o
Ġform at
ĠPro ven
Ġreg im
Ġdest ru
ĠT e
ter min
Ġl ic
Ġv ei
ĠS er
og ra
Ġb e
Ġres s
Ġon te
Ġcontrar Ã²tle
Ġameric an
Ġcorresp ond
Ġp ont
ĠD urant
ba ye
r om
ol a
ĠnÃ²st re
Ġmondi ala
Ġcara ct
ig as
Ġass egu
aques ta
on as
Ã² des
au tat
Ġform as
Ġgrop s
Ġind ustri
Ġfeb riÃ¨r
Ġcontr ari
ro tz
Ġoccitan s
Ġpers ona
Â °
al me
gu das
ĠP res
ĠQu al
ic ÃŃ
Ġg rÃ¨
Ġsol a
y s
Ġc ab
Ġb r
enc s
Ġnombros es
Ġp au
Ġt Ã²ca
ĠdivÃ¨rs as
Ġin te
alh as
ier re
Ġref us
d s
Ġt a
ta das
ĠP l
Ġr u
Ġep Ã²ca
ĠPart it
Ġnom s
depend Ã©ncia
iren Ã¨us
v ia
Ġf lu
ri mi
ist icas
Ġcompaus at
Ġdess enh
c ar
ent ament
Ġt ol
Ã§ ar
Ġaquel ei
Ġpur m
Ġgent ilici
ĠS h
iv ament
Ġrec u
il e
Ġde guÃ¨t
aut ra
Ġdon a
Ġadminist rat
Ġvol ont
ef Ã¨ct
ĠGl Ã¨isa
al es
ab lament
Ġtrans form
Ġconsider at
ĠGen er
k a
Ġ urb
Ġg ar
av er
e ti
es tacion
Ġg er
ĠJ ac
Ġgen re
i te
v es
Ġp al
it acion
Ġb an
Ġr end
c om
u ments
Ġcom mun
Ġpar r
ap a
ĠB arcel
Ġ %
Ġs ac
Ġj ut
mat ica
c le
m en
Ġ 28
or ma
Ġre alitat
ĠLo u
Ġab andon
Ġfem na
E n
i cia
Ġeleg it
ĠprovÃŃn cia
Ġl on
Ġf ru
Ġg ard
emp eraire
Ġcolle c
e gut
t ats
Ġ ria
Ġde r
Ġm entre
ac c
Ġest ran
Ġch in
k i
Ġfre qu
ĠM us
Ġqu ant
om Ã¨n
Ġprincip alament
q Ã¼
Ġf e
Ġven gut
Ġl eu
an i
di r
Ġmunicip alitats
Ġprincip alas
Ġrel acions
c ass
Ġm Ã©s
esc Ã²la
Ġdem Ã²ra
Ġnombros as
Ġb ona
ĠG ar
Ġconqu ista
Ġre volucion
Ġsus tot
Ġi eu
Ġm ul
Ġpri v
per i
ĠCom una
Ġa ur
Ġt ir
ĠB ar
ĠR ec
E urÃ²pa
Ġan ar
Ġens enh
ĠBarcel ona
ĠL eis
man da
ĠMar ia
esti u
ĠPu ei
it ut
ed er
ĠA d
Ġpre f
Ġ 000
Ã¨r ras
Ġinst all
e dicion
Ġl es
Ġp s
ol e
Ġdemor Ã¨t
ĠM ol
Ġor gan
ie us
esp aci
Ġpich ons
Ġcr isi
Ã¨ va
ĠC ada
Ġr Ã¨sta
Ġmej ans
ĠP ort
ĠAquel es
Ġcamp s
n et
ĠA s
ĠN i
Ġpl ana
Ġmej ana
Ġsu f
Ġsi te
ĠDempu Ã¨i
C O
Ġ 23
Ġ ident
osf Ã¨ra
e xt
te i
Ġp aus
in ar
Ġt end
Ġpass atge
Ġprincip i
ĠMar s
Ġum an
ĠentraÃ¯n Ã¨t
n om
Ġm it
Ġqu alitat
Ġb il
ĠB u
Ġpro teg
Ġtrans p
Ġf aire
ĠS an
Ġform ar
Ġum ana
Ġtract at
r itura
s ion
Ã¨st ra
Ġbasti da
Ġdefin it
o ti
v ers
Ġs ap
Ġt alh
ĠC ent
Ġtravers at
o x
u das
Ġm ission
ĠP e
Ġcon dicions
Ġnov Ã¨las
Ġrev ista
Ġlo g
Ġeconom ica
b la
Ġ ut
Ġm itan
ra u
Ġn aiss
ti Ã¡
ĠÃ ĩ
gu es
Ġre m
ĠE r
ĠR am
Ġman ca
Ġequ ip
g ip
Ġ 50
Ġs h
Ġc av
ust ria
aques te
i ar
Ġl ista
on c
te ct
ĠM or
Ġr Ã¨
Ġpo bl
que ta
Ġaf lu
c ad
y a
Ġ 29
Ġmus ic
Ġp eu
Ġv ist
ir as
Ġdev es
Ġpren e
asc ut
ĠQual ques
ĠC ast
ĠM ej
oci acion
Ġpu ei
ĠXV III
Ġess enci
Ġm esc
Ġf ilha
Ġrom a
Ġrom ana
Ġtrav Ã¨rs
aj uda
Ġfab ric
at Ã²ri
ĠN ob
in o
ri ent
Ġpres a
ĠCar les
Ã¨r ts
ol it
Ġcom Ã¨r
ĠB en
ĠB ern
Ġma te
Ġrel ativament
Ġmot s
Ġg al
Ġcap s
aquel es
Ġob serv
Ġpat z
Ġbasti ment
d re
Ã§ ada
Ġap ert
ex ic
Ġbasti r
Ġinf orm
inst all
Ġvers ion
e da
en is
an im
Ġconstitu cion
oct obre
ul as
Ġsab er
er as
ĠP o
ĠD ieu
Ġdon ar
Ġdiv ers
emb lada
erg ia
esta bl
Ġjov e
Ġfen omÃ¨n
ĠTan ben
Ġm Ã¨tres
la ci
ĠXV I
rip cion
ĠRom an
at ors
Ġmus ul
Ġn au
ce an
Ġmes es
Ġ w
an Ã§as
Ġt alha
imp ort
Ġpre par
Un ion
Ġdic ha
t or
Ġqu asi
ĠC ong
le x
Ġmau grat
a h
or at
Ġab baye
Ġac om
Ġcre ar
Ġgener au
ĠaviÃ¡ n
Ġrelig ion
in i
Ġv ac
Ġpar lament
Ġte oria
Ġest udis
ud ar
ĠAn t
Ġtorn Ã¨t
ĠdivÃ¨rs ei
Ġrest au
Ã¨ ca
Ġre gular
ĠE dat
Ġmen cion
Ġse una
Ġdes fa
Ġma in
Ġpract ica
Ġprogra ma
ard s
i quÃ¨t
te t
ĠP au
Ã¨st as
ĠAl b
Ġistor ic
Ġfilos of
Ġb or
ul ar
Ġo per
ĠCh ina
Ġ200 7
Ġqu in
oc rat
Ġe ven
Ġ1 00
iz ar
Ġh Ã¨
ĠProven Ã§a
c ont
r uc
Ġl utz
Ġde cl
v al
Ġcon ta
Ġcar b
Ġm origuÃ¨t
Ġt Ã¨
Ġv int
ĠS itu
tan ha
Ġor as
ĠGu ilh
Es p
Ġcoll Ã¨g
ĠNob el
re l
un itat
ra das
ĠD i
activ itat
Ġv el
id s
Ġcomp te
Ġsc enari
ĠlingÃ¼ istica
Ġobl ig
a ctu
us ion
ch ar
Ġcomp anh
Ġpubl ica
Ġprof essor
Ġapar e
Ġviu re
Ġt omb
78 9
Ġesc ol
lic acion
Ġmej an
Ġcad un
Ġdeban Ã¨t
Ġmontan ha
Ġital ian
i qu
es qu
al is
Ġv ent
ĠJo h
g o
Ġf Ã²ra
Ġqu ia
ĠEn tre
Ġme d
Ġang les
Ġrefer Ã©ncia
en f
ar e
Ġme can
esc riv
ĠMar c
Ġdempu ei
Ġenf ants
gip te
b as
Ġn Ã²u
Ġconst ruccion
m ana
Ġde termin
er on
ĠP el
ĠB re
itu cions
Ġmar ge
ex istÃ©ncia
iliz acion
Ġele ments
Ġindi vid
Ġr Ã¨g
Ġsa tell
Ġann ada
Es c
Ġa th
Ġcomp os
Ġquau qu
I EO
v is
Ġde g
ĠS oci
ro g
ot z
Ġcar ga
Ġnov Ã¨l
Ġneg re
l om
Ġs Ã²n
ran d
Ġav ent
Ġregion al
Ġmod Ã¨l
eng ad
Ġsorti da
Ġp Ã²s
Ġm assa
Ġv esti
Ġv aria
st itut
Ġ20 00
Ġ200 6
Ġdep end
Ġmedi ev
g is
Ġsi gu
est end
Ġlib res
organiz acion
Ġmilit ara
ĠcomÃ¨r ci
l er
or an
ant in
Ġr ta
la bor
Ġmant un
ĠtÃ¨r ras
Ġfi x
ĠSeg onda
Ġactiv itats
? <|
i riÃ¡
Â »
Ġ 27
Ġd ra
Ġla c
et ica
Ġrom ans
ĠPar lament
Ġfra ire
Ġnas quÃ¨t
Ġen viron
Ġ200 8
omp anh
Ġsuperf icia
i guÃ¨ron
v Ã¨rs
Å ĵ
Ġs ia
Ġf ut
ĠG al
ĠO l
Ġat au
Ġleg is
ĠFranc Ã©s
Ġactiv itat
d ats
o y
Ġ /
Ġg all
Ġam or
paus a
r in
ut as
di o
Ġplan eta
Ġcan di
r Ã©s
Ġc aval
ĠG ra
Ġpopul ar
Ġsign ifica
Ġprof ession
Ġe les
Ġf Ãłcia
it ari
Ġen a
ur ar
reg ist
Ġproven Ã§
Ġc ri
un e
ĠS os
Ġfam Ã³s
Ġrei aume
arm ai
Ġd en
ĠS i
ĠS im
ist ral
Ġ200 9
Ġfonda ment
Ġess ent
Ġd aus
Ġa ta
ĠV I
aqu ÃŃ
Ġsov iet
ubl ic
a k
20 0
Ġcomp ta
Ġperson atge
dep endent
Ġdint re
A merica
l en
un t
Ã²t as
Ġdon at
Ġtemper atura
Ġe ct
ĠM in
iv al
ig na
de m
ĠX III
Ġconc ent
Ġdec lar
Ġinst ru
inf luÃ©ncia
o k
Ġs ta
ab ril
Ġoccitan as
iÃ¨r as
Ġblan c
' m
A ss
a te
Ġm ob
Ġtorn armai
lic ar
Ġist Ã²ria
Ġpremi era
z a
it acions
ĠD es
ĠAqu eu
Ġcat ol
on ia
Ġper f
Ġpo esia
Ġdi pl
Ġrepres enta
j ament
ĠM ag
Ġin teg
Ġcap aci
Ġmin or
Ġtrabalh s
Ġcom enc
Ġescriv an
c les
r atge
es que
Ġf ran
Ġv o
ĠT he
id Ã¨a
Ġap er
Ġ20 10
Ġam ass
Ġsim il
c k
Ã²n t
Ġrel acion
Ġ200 5
Ġlon ga
ĠS ent
Ġr re
Ġin fer
Ġcamp anha
ĠXI V
Ġdoc ument
f ica
p s
ĠC ros
Ġg laci
ĠP rimi
Ġmo dific
ĠPa ÃŃs
ĠAt al
Ġgas con
E L
on n
Ġm Ã²stra
al istas
Ġor b
Ġmes a
Ġm ent
ic les
Ã¨t re
Ġcon temp
Ġr us
ĠT er
Ġfo gu
Ġs el
Ã² i
Ġf ort
ĠS u
ia da
Ġsi Ã¨is
Ġh ar
35 0
aqu eu
ĠReg ion
i rada
Ġen g
Ã¨r o
iv Ã¨rs
Ġ19 80
ib la
Ġeconom ic
inf orm
ĠL engad
ĠC R
uc s
Ã¨m ia
ie f
Ã²s a
Ġvol can
ĠMal grat
ĠcanÃ§ on
Ġcomunic acion
ĠCong rÃ¨s
Ã² ma
ĠB eau
Ġex ec
Ġperson atges
Ġneg oci
Ġactu ala
Ġret orn
qui tect
Ġost al
Ġcertan ei
it im
ĠC re
Ġniv Ã¨u
Ġse ctor
ĠE mpÃ¨ri
ĠT res
enc Ã²p
ĠAquel as
Ġale manda
L a
v el
ĠF er
ond re
Ġcl ima
iu tad
Ã¼ n
ific ar
Ġost als
j an
s on
Ġ 40
Ġd a
Ġm ur
Ġqu ad
os c
ĠA ital
Ġ19 70
Ġ19 60
Ã¯ na
Ġcast Ã¨l
Ġm ort
Ġ20 12
d or
cion ari
ĠP al
ur at
Ġdiv ision
lat Ã¨rra
Ġl Ã²n
Ã§ at
Ġin dependent
ec onomia
Ġtr uc
Ġele ment
am in
Ġcol labor
Ġprincip al
olog ic
Ġass ai
Ġect aras
ta cions
ĠA ut
ĠD om
iv Ã¨rn
ĠX II
Ġdeci diguÃ¨t
! <|
on im
Ġtra p
Ã²n ia
Ġgu Ã¨rras
Ġutiliz ada
Ġcir cul
" <|
Ã¨ b
Ġb Ã¨l
ĠS ch
oc ar
Ġmal au
ĠdivÃ¨rs es
ĠAle manha
A f
Ġf el
ĠJ ul
ĠXV II
Ġmat Ã¨ria
t t
75 0
Ġfil m
in te
Ġser ia
olog ica
Ġdef ensa
Ġsub st
Ġsuperi or
Ã¨ re
ĠB al
Ġj us
Ġcl assa
aquel as
Ġ200 4
Ġinf lu
Ġmovement s
Ġfus ion
Ġprob ablament
Ġl anÃ§
Ġv ad
Ġmi Ã¨g
Ġet c
arrib ada
Ġper t
ĠC amp
Ġcon o
Ġimp eri
Ġele ccions
h ar
Ġqu ic
ĠA ss
Ġse us
iss as
ĠI tÃłlia
Ã²rt s
Ġcult uras
Ġ 0
ĠA c
ĠS ul
ti da
Ġal b
Ã²r ma
Ġj apon
Ġpl as
od on
Ġens ems
ĠMon di
Ġs ala
Ã¨r is
Ġar b
Ġar ch
Ġprincip aus
Ġr ur
ĠD o
ĠCar cass
Ġlong or
ĠIn ter
Ġdrech es
anci ana
O st
it iu
us e
Ġb assa
ĠB es
ĠR uss
ĠG r
Ġsegu ent
ific at
Ġactu al
ĠEsp anha
Ġinfer i
ĠLengad Ã²c
Ġd ol
Ġs ur
Ġt op
ĠL ib
il as
ĠV ic
Ġven guÃ¨ron
Ġdest in
Ġada p
qu ia
om et
Ġau riÃ¡
Ġh Ã¨ra
Ġfil me
Ġinst itucions
Ġcomb ats
d in
ĠL en
Ġb Ã¨th
ad minist
Ġrec Ã¨rca
Ġvertadi Ã¨ra
Ġdific ultats
an te
da m
ĠC ont
Ġlig at
Ġmate mat
r us
u cions
Ġd inc
ĠsÃ¨t ge
ĠLou is
c ta
en as
en ne
Ã¨ dia
Ġc ell
av i
Ã¨ mi
Ġn a
Ġpar aula
Ġpre c
Ġsens a
ĠâĢ ľ
Ġpat rim
Ġfl or
Ġaflu ent
u Ã¨i
Ġl h
Ġn autor
gu l
ĠD on
Ġcontin u
Ġsob ei
Ġc iutad
Ġt iÃ¨ra
Ġ19 90
Ġ20 11
Ġgu er
Ġcent rala
ect ura
Ġprobl Ã¨ma
Ġd Ã¨tz
ra c
ol Ã²g
Ġcom enÃ§a
ras il
ĠLe on
e di
u al
ci na
is mes
Ġal titud
ct ament
ab s
Ġdes apar
esc ritura
Ã¨lh s
Ġs ort
ĠF lor
ac e
Ġpo Ã¨ta
me di
Ġpolit icas
Ġcan al
Ġconqu ist
ĠrÃ¨ ine
ĠtÃ¨ xt
r ÃŃs
es te
ob ten
Ġpus lÃ¨u
Ġam assa
ĠpÃ² bles
Ġsist Ã¨mas
Ġapert en
Ġmod Ã¨rna
Ġarm adas
Ġofici ala
Ġ ran
Ã¨ na
un id
Ġqu an
ĠT ur
Ġfam ilhas
1 79
i es
Ġv Ã²
ti r
Ġcon tac
ĠN av
ĠfÃ²r ta
Ġa gut
in di
ri eu
Ġr ras
Ġres id
Ġconc Ã¨p
Ġclass ica
Ġdir Ã¨ct
Ġ ir
Ġp i
ĠP at
Ġcap t
Ġmon ument
ed eracion
Ġpopul acions
Ġprote ccion
ol h
ĠR od
Ġpo iriÃ¡
Ġparti das
Ġfin anci
Ġproc Ã¨s
Ġn auta
ĠC ort
Ġprote st
âĢ¦ <|
Ġnuc le
s er
us a
Ã¨l has
aut ita
Ġpass Ã¨t
Ġactu alament
Ġmol ec
Ġgraf ia
on ne
Ã²r Ã§a
Ġcomp let
Ġservici s
Ġcompl Ã¨x
iÃ¨ ch
Ġquic Ã²m
ĠCarcass ona
e ur
Ġd r
Ġm alais
Ã¨r ne
im at
Ġtot alament
Ġmar ca
Ġmet re
Ġas p
Ġvel oci
Ġcontemp oran
re u
Ã¨r tas
Ġo paus
Ġfa cha
Ã²n as
Ġso as
Ġill as
ĠChar les
A ra
Ġ 60
al it
25 0
Ġser Ãłn
Ġfas iÃ¡
Ġaperaqu ÃŃ
I s
d el
Ġv ert
Ġper man
ĠP aul
ir m
iss eau
ĠV II
Ġcin Ã¨ma
ĠcanÃ§ ons
r oma
v ent
Ġ Ã¨stre
in dependÃ©ncia
ĠP ont
âĢ Ŀ
ĠV il
Ġaqu eth
Ġsoci ala
Ġport ar
Ġid e
Ġmalau tiÃ¡
A R
er ie
Ġe volucion
Ġcom tat
ac te
Ġjov es
Ġnum er
Ġdistin cion
A u
Ġse g
ĠM es
Ġpo iss
Ġres istÃ©ncia
esp Ã¨
Ġprog ress
ĠpÃ¨ Ã§as
ar ca
ĠS ov
Ġpres sion
Ġven c
Ġpublic at
anci an
Ġprobl Ã¨mas
E N
Ġs ques
ĠI l
36 0
tel le
Ġdesp laÃ§
Ġliber tat
Ġ ol
Ġ 31
ro c
Ġpl en
um s
Ġcons ci
Ġvi atge
ins ula
ĠM ari
ad ura
Ġpo guÃ¨t
34 0
Ġca teg
Ġtecn icas
Ġbi bl
Ġfigu ra
ĠS ab
38 0
Ġto tei
ann adas
Ġe iss
Ã² ss
Ġv it
ĠC at
ĠP h
ĠP irenÃ¨us
ement s
Ġsimb Ã²l
Ġinte ress
r of
ic ol
Ġre Ã¼n
Ġpar c
Ġum ans
Ġnatur ala
ĠEurop Ã¨a
/ /
: //
Ġc oss
ti er
24 0
Ġest ra
Ġdon Ã¨t
ert ura
Ġanci anas
Ġz ona
Ġexist ÃŃs
u ala
Ġes tan
Ġn Ã²
Ġfa guÃ¨ron
Ġcol ors
teri ora
Ġsegu ir
ĠEst at
Ġtip es
ĠGuilh Ã¨m
t ica
ar di
da da
le ment
ens emble
18 0
Ġprincip au
Ġeg ip
Ġru isseau
ĠJoh n
O r
Ġ 80
ci tat
ĠC entre
Ġg au
Ġpri gond
oc ra
Ġcar n
Ġfin alament
Ġdarri er
Ġpren guÃ¨t
Ġpropri etat
Ġroma ine
Ġp ic
qu Ã¨ron
Ġcon dicion
ĠT re
Ġcomp et
26 0
Ġav anÃ§
16 0
Ġaut ors
Ġl Ã²c
it i
ĠB lan
Ġex c
Ġtrans m
Ġmal grat
Ġdre cha
Ġl ar
ĠS p
Ã²r di
ens ions
15 0
elh s
ĠL es
Ġse p
ti Ã¨r
ĠB ra
20 9
Ã©n her
ĠJ apon
78 0
Ġfl Ã²ta
Ġtes tim
Ġcommun al
Ġveloci tat
1 76
b is
b ia
Ġp air
Ã¨r re
ĠC A
Ġcom anda
ĠprimiÃ¨r as
Ġras ons
Ġdesfa cha
1 00
an ce
Ġdes b
Ġar res
Ġtot s
Ġpri ma
Ġmod Ã¨rn
Ġinf luÃ©ncia
ativ as
h on
m osfÃ¨ra
Ä ĥ
Ġn Ã²va
ti qu
ap el
ens ems
ĠR ai
ĠN Ã²va
Ġli ura
Ġform an
Ġleg ir
Ġscient if
į n
Ġc rotz
os ament
Ġan d
ĠG er
Ġres cont
Ġter ren
Ġma qu
Ġma xim
Ġlu cha
u ma
Ġa ir
Ġc ron
da g
ab las
ass ociacion
Ġven on
Ġaut on
ud ats
Ġfu Ã²c
x a
Ġa tac
Ġs Ã²l
Ġpr os
Ġdesvolop ar
Ġquarti Ã¨r
Ġcaser iu
Ġmul tip
Ġnaiss enÃ§a
x e
Ġp Ã¨ira
Ġre me
ĠF or
Ġdes igna
Ġref orm
Ġfra ires
Ġvolont at
o cion
Ġa igas
ĠM istral
Ġr is
Ġap el
78 8
36 5
Ġac ad
Ġat en
Ġserv ir
Ġsub jÃ¨cte
Ġpens ar
Ġgra v
Ġpodi Ã¡
Ġ ort
en Ã§as
an al
Ġm ess
ĠE m
Ġr ic
Ġpre ced
utiliz acion
Ġcapit Ã¨ron
Ã²ri as
ĠpÃ² u
Ġdefin icion
In stitut
Ġconsequ Ã©ncia
g en
i ats
o ire
Ġ Ãł
Ġsu u
ich el
Ġri us
Ġcomun itat
Ġcomun autat
Ġpermet re
Ġmod ern
Ġport ugu
ĠAle x
Ġlegis lat
administ racion
i ot
m or
Ġl it
Ġp eus
qu et
Ġt ur
ri d
gu a
ĠC ab
Ġdon adas
Ġcent ral
Ġpag inas
Ġreligi Ã³s
Ġgall o
o Ã¯
Ġc art
ra ch
Ġpro jÃ¨ctes
ici ans
19 0
oc at
Ġmon eda
Ġapar eis
Ġanim als
ĠGar ona
o z
r ant
ĠP lan
id ar
eu x
Ġpichon as
c ripcion
u el
Ġs il
ri er
75 6
74 0
Ġtrabalh ar
Ġlin has
Ġdess erv
Ġrecon e
isti r
ĠpÃ¨ Ã§a
Ġfis ica
Ġciv ila
Ġcultur ala
Ġdoc uments
ĠRuss ia
ent acion
ai ra
Ġcom en
Ġcont ribu
Ġ20 21
14 0
Ġab s
ĠO n
fer Ã©ncia
utiliz a
Ġdesc ub
ĠtÃ¨x te
Ã² bre
Ġb ur
Ġdes ir
Ġsu a
ac a
75 5
Ġgener ala
Ġz Ã²na
Ġeurop Ã¨us
ĠprovÃŃn cias
i am
p ir
t om
ar re
ĠC am
ut ar
Ġpolit ics
Ġben ef
egu da
ograf ica
ĠcÃ²s ta
Ġcaract Ã¨r
ĠCR EO
b e
f Ã²rt
it Ãłnia
iz ant
em os
29 0
78 5
34 9
39 0
Ġfem nas
Ġfus ta
ĠAf rica
lom eracion
3 00
Ã² f
Ġf orn
Ġn ascut
ĠM ad
ĠD os
Ġ20 20
34 8
39 5
Ġregion alas
Ġloc ala
Ġmand at
ĠRam on
O ccitÃłnia
a gu
f or
l aus
m ans
n es
u ish
v in
ĠF Ã²rÃ§a
Ġpr Ã¨s
Ġu ei
aliz ada
Ġ200 2
Ġocup at
ĠMe di
ĠMondi ala
r Ã©
an ar
Ġm ic
Ġm Ã¨stre
au las
ĠA merica
ap aricion
ĠN os
Ġar r
Ġpod ers
Ġfor tific
Ġfl ors
Ġapr of
Ġpropri et
ĠMars elha
Ġd uc
er ia
it h
Ã¨r en
ir is
ĠF EL
18 5
76 0
cl am
Ġsimp le
ĠSim on
quitect ura
Ġs Ã²r
ĠB on
28 0
75 8
76 8
38 8
Ġter m
Ġcre ada
Ġdarri Ã¨ra
ber g
ang le
Ġrepresent ant
Ġnomen ada
Ġcapaci tat
Ġs ang
us atge
Ġcon g
26 5
75 9
10 5
Ġtorn a
ian as
Ġdom enis
Ġrealiz ar
Ġcad ena
ĠRom ans
1 19
E S
e ven
v ision
Ġ Ã¯
Ġs Ã²
ĠB i
ĠT or
ĠG o
Ã¨l ha
35 5
74 8
Ġgran a
Ġrei alme
Ġdev iÃ¡
Ġf ol
Ġper tot
Ġ( "
Ã§ on
ĠB or
18 8
29 5
10 9
74 5
ian Ã§a
Ġcal cul
Ġpopul ara
pres a
ĠFEL CO
Ġd ig
in ici
Ġun ei
Ġte or
Ġtra duccion
25 9
16 9
74 9
34 5
39 9
ĠO rient
ĠH en
Ġconst ru
Ġlong temps
Ġvis c
Ġtecn ica
ĠCr ist
1 24
f f
Ġe dicion
ul g
ass es
ass egu
18 9
26 9
28 9
16 6
Ġesc amb
Ġcons ac
ĠW ik
Ġcompaus ada
Ġcul min
Ġlet ras
fÃ²r Ã§
Ġvesti gis
1 14
g ers
l y
u res
en ge
ĠP ierre
25 5
25 8
35 9
Ġlong itud
Ġdemor ar
Ġquant itat
d is
er en
Ġm ans
ĠS av
ap or
ĠN ov
Ġtot un
36 9
76 6
38 9
Ġest ar
ru p
Ãłn cias
Ġim m
Ġsucc ess
Ġfond at
Ġquilom Ã¨tres
ĠFel ip
Ġurb an
2 79
r Ã¨ron
il ib
ĠA gu
ti gi
20 5
70 5
38 5
Ġ200 3
ĠjÃ²c s
Ġmerc at
Ġpe dag
Ġpap a
Esp anha
M ar
Ġm Ã¨t
is f
Ġper c
ro t
ĠJ u
30 9
28 5
70 9
76 9
Ġ200 1
Ġpermet ent
Ġdifer Ã©ncia
autre i
Ġfilosof ia
1 15
Ġp ost
ri on
Ġper me
Ġb ot
Ġcon tes
Ãł ri
20 8
Ġin depend
28 4
76 5
Ġac ompanh
Ġor igina
Ġplan ta
Ġsimb ol
Ġinv ent
3 79
te d
Ġm est
Ġcom and
ct at
25 6
29 9
70 8
10 4
10 8
36 4
34 6
38 6
ĠPar c
Ġci utats
Ġfonda da
Ġistor ica
ĠremplaÃ§ at
import Ãłncia
7 79
Ġf eder
Ġv as
Ġv id
Ġn u
ro duccion
20 4
ĠN o
35 6
36 8
Ġam ic
Ġconegut s
Ġmontan has
ĠdirÃ¨ct ament
telle ctu
7 00
f on
Ġf iu
ĠC amb
mp re
Ġme m
ob jectiu
30 8
78 6
70 6
36 6
39 8
Ġsuperf ici
Ġfas ent
Åĵ ur
2 19
2 24
ens iva
30 5
26 8
29 8
28 6
Ġh tt
16 5
39 4
39 6
Ġprincip als
Ġcone issenÃ§a
Ġdire ctor
ĠluÃ²c s
Ġaj uda
ĠOccitan s
2 15
Ġd ot
Ġs Ã¨r
Ġn uÃ¨
Ġb les
et ic
iss ions
20 6
18 6
26 6
28 8
78 3
70 4
74 4
38 4
21 3
Ġrev irada
Ġpag ina
Ġcin qu
2 14
ĠM erc
Ã© c
ad op
ĠT orn
Ġ19 44
Ã¯ cul
ec tiv
Ġpl at
16 4
16 8
78 4
35 8
ĠUn it
enc astre
Ġemp ach
Ġart icle
Ã²u ta
Ġcatal ana
Ġlev at
Ġsigu ec
Ã² ga
ĠS am
la c
Ġpres tigi
26 4
Ġav ans
74 6
Ġdess Ãºs
Ġeurop Ã¨u
ĠsÃ¨t i
7 14
g in
i ques
Ġ Ã§
en ergia
Ã¨ bre
Ġs Ã¨m
Ġm os
Ġb Ã²s
Ġan ti
di an
ĠV III
Ġap ro
29 6
34 4
Ġmes uras
Ã¨n h
Ġjog ar
ÃĴ c
tiqu itat
k e
o bl
Ġ Ã§a
ĠC er
ĠM il
ĠB ord
ĠG as
25 4
75 4
Ġutiliz ar
Ġresp Ã¨cte
Ġef ica
Ġestats unid
Ġfonda cion
ĠJos ep
Ġnum Ã¨ro
7 19
v re
Ã ¢
Ġc Ã¨l
Ġm am
Ġt z
ĠB a
Ġdes con
Ġpr um
Ġ19 50
ĠN orm
18 4
Ġres ultat
10 6
Ġesc Ã²las
Ġarm as
Ġcel eb
Ġinternacion ala
ĠGe or
Ġpossib ilitat
ogra fic
Ġleu gi
3 19
j ats
an isme
ap eraqu
Ġrap Ã²rt
Ġdura da
ĠMej ana
3 15
7 24
7 15
on Ã©s
Ġen em
Ġpro ced
Ġ19 99
ac cions
30 6
29 4
Ġav ant
aci n
Ġpens ada
Ġsost Ã¨n
ĠCas tel
ĠConst itucion
arqu ia
3 24
3 14
Ġ Î
ci d
Ġt on
Ġt it
ir s
ĠR en
30 4
35 4
Ġven ent
ric ha
Ġinter pre
Ġconsider ada
Ġsimp lament
Ġsec ret
Ġquesti ons
Ġdecis ion
ĠNacion ala
Ġast ron
ĠgrÃ¨ ga
įn dia
Ġl exic
ra cions
Ġn otar
ol f
ad oci
Ġpar l
Ġpl antas
ĠSe ine
Ġob jectiu
Ara gon
f ab
n at
o ta
et te
Ġpres on
ag ÃŃs
76 4
alh s
21 1
21 7
ed at
Ã²st re
Ġmen ar
Ġmilitar as
Ġill ust
al i
ĠP ich
ĠM os
Ġpar all
ĠR h
Ġdes en
Ġpro xim
78 7
ĠCom un
Ġcaus ida
An g
Ġfu Ã¨lhas
ruct uras
Ġcul tiv
Ġeleg its
ĠprÃ² che
Ġa iga
Ġf id
ĠL in
Ġv otz
Ġb re
ĠD u
16 7
Ġne ut
Ġpun ts
Ġciv ilizacion
ĠOccitan a
Ġleng adoci
andre ta
Ã «
Ġc aire
Ġb ord
ĠC es
st Ã²ria
ans ion
Ġtra uc
Ġar gent
Ġi p
ag ric
est il
27 3
ĠAqu ÃŃ
Ġsci Ã©ncia
Af rica
5 00
e ctu
g ra
o w
Ġp Ã²r
or gan
am ica
ei res
Ġr it
art en
Ġest ructura
Ã¨c ta
ĠAl s
ĠCon f
Ġdist Ãłncia
ĠAle mand
Ġmarc at
ĠespÃ¨ cia
y n
Ġs at
er b
Ġun ic
Ġse mpre
ad i
ab il
76 3
est ructura
enc ont
Ġespanh Ã²l
Ġcaser ius
Ġcontac te
C h
k h
us ta
Ġb ens
ĠM ass
Ġj uri
Ġpro clam
18 7
ĠAquel ei
Ġdis cip
aliz at
Ġconstitu it
ĠAu gu
Ġdu as
Ġscient ific
Ġpedag og
Ġproxim itat
e z
r Ã³s
Ġf es
ĠLa f
ass as
Ã¨g jorn
Ġtres ena
ĠCh amp
Ġvi at
ĠsiÃ¡ s
Ġdens itat
Ġnacion al
Ġcambi ament
Ġve Ã¯cul
Ġdic cionari
ĠConst antin
j on
p ol
Ġ Ã²rdre
es ca
ĠP an
ul acion
Ġpar ents
ec tac
70 1
ena issenÃ§a
aquel ei
autor itat
Ġid Ã¨as
Ġcrit ica
Ġobten guÃ¨t
A S
i ran
Ġde guÃ¨ron
Ġp in
Ġa icÃŃ
Ġla iss
Ġf oss
il ip
Ġr uss
Ġpres ents
70 7
10 1
36 3
38 7
Ġpers egu
Ġleg enda
Ġvari etat
Ġnav iris
Ġpriv il
Ġdecl in
d ins
Ġde dic
Ġt he
ai a
le y
ĠE gipte
ĠD av
20 7
75 3
74 7
34 3
34 7
Ġmar quÃ¨t
ĠAb ans
ĠRob ert
Ġrem arc
Ġ y
ĠL ond
ĠM at
Ġar que
Ġro ge
Ġsas on
Ġvis ion
Ġcultur al
ĠBe arn
Ġsobei ran
ĠconcÃ¨p te
e volucion
u mi
Ġcon vencion
ĠV ill
Ġpre m
74 3
38 3
Ġcar ta
23 7
ie ch
Ġpermet on
Ġeurop Ã¨a
Ġcolle ccion
ĠRei aume
Ġc m
Ġc aud
in terior
el s
20 3
Ġpr endre
ĠN arb
30 7
75 7
Ġdem en
23 1
rib ucion
Ġjorn ada
enci al
exp ression
ĠTot un
ĠtrÃ²b an
p ira
er gue
Ġen regist
Ġg arn
ran ca
iss iÃ¡n
20 2
30 2
Ġpre fer
Ġ20 13
75 1
75 2
Ġven guda
Ã²c as
ou x
Ġcas tel
Ġdist ric
Est udis
Ġnuc lÃ¨u
Ġd arr
Ġf ront
ĠP ic
iss ement
ĠT arn
Ġpo Ã¨mas
ĠEn ric
26 3
29 3
78 1
74 2
39 7
ib ilitat
27 7
Ġmin im
Ġparticular ament
Ġend avant
Ġreceb Ã¨t
c Ã²p
r er
Ġdel Ãł
ĠC ant
ĠS enat
ul s
ul ta
Ġal iment
id or
ass inat
Ġ20 14
26 1
16 3
35 7
10 3
34 1
Ġac cion
est udis
ill y
Ġat ribu
ĠGran da
Ġarrib ar
Ġcaracter isticas
Ġpoiss anÃ§a
ĠRai mon
u i
is ha
ta bl
ĠC a
Ġg laÃ§
Ġpr Ã¨mi
Ġ19 40
19 9
Ġpl us
25 7
18 1
18 3
79 0
29 1
29 7
27 2
Ġso udats
Ġaf ric
Ġ5 00
ĠcÃ²n sol
Ġrs es
Ġleng atge
Ġger man
peri Ã©ncia
Ġreme mb
Ġp il
Ġa C
ĠLo ire
Ġ19 14
de cina
30 3
24 9
35 2
39 2
39 3
23 3
Ġtres en
amp a
Ġloc alas
Ġtract ament
ĠFel ib
Ġcost ats
A qu
l au
Ġl un
ir Ãł
Ġpr Ã¨tz
ĠI X
Ġdi am
16 2
35 3
70 3
10 7
36 7
76 7
Ġvi Ã¨lh
Ġdesvolop at
Ġfu guÃ¨t
Ġrecon st
Ġorganiz acion
Ġcambi ar
Ġdescob rir
Ġext ra
Ġsuperi ora
ĠCros ada
c al
p or
Ã £
Ġf Ã¨rre
Ã¨t as
ĠA g
Ġ1 50
Ġin tellectu
tan y
um an
18 2
14 5
36 2
38 1
21 2
olog icas
Ġro tacion
ĠMont fÃ²rt
Ġcompaus a
ĠMi Ã¨gjorn
ĠPu Ã¨i
Ġespanh Ã²la
Ġfont s
b o
m o
an o
end as
Ġc s
it Ãłria
Ġun s
ĠP ass
ÃŃ a
ĠR og
ĠR ev
ĠEn c
26 7
28 7
35 1
10 2
36 1
39 1
Ġest end
Ġmas atge
Ã²b ras
27 1
esti on
esp and
Ġdivers itat
ĠlÃ²n g
Ġpatrim Ã²ni
i bles
l anta
Ã Ī
en te
at ius
ĠL au
Ġes tim
Ġn ot
ĠB ritan
ĠF re
ĠV ol
Ġau ta
25 3
24 8
14 8
28 3
15 8
38 2
ex ist
Ġenc ont
Ã²m as
Ġz onas
ĠcomenÃ§ ar
ĠCal andreta
Ġis ol
ĠBre tanha
Ġorb ita
6 00
h s
Ġs an
Ġm ill
Ġun e
am es
19 5
14 9
28 2
74 1
Ġcl ub
gon da
Ġnov Ã¨u
Ġob jÃ¨cte
Ġpresent ar
Ġim ag
Ġparticip ar
Ġpropri etats
terran Ã¨a
Ġcresti ans
Ġestran gi
p as
as enÃ§a
Ġe duc
ĠA i
Ġre accion
Ġb u
la va
Ġin dic
30 1
26 2
28 1
Ã¨st res
Ġtrob at
Ġdesp ari
Ġnecess ari
Ġligam s
agric ultura
ĠAlemand s
Ġs iste
is ans
el e
il les
Ġg ig
19 8
24 4
24 5
14 6
Ġav Ã¨m
15 9
Ġest il
Ġrep ublica
23 2
Ġcre Ã¨t
Ġam ics
Ġdep utats
Ġliter ari
Ġpract ic
Ġbo ca
Ġbritan ic
Ġpron onci
Ġangles a
emos in
k o
Ġc ha
ĠL im
res a
ro u
ĠE d
id es
ors as
Ġli qu
25 1
25 2
Ġ20 17
15 4
78 2
Ġterrit ori
ress a
Ġprov es
Ġautre i
equ ip
Ġcir c
Ġdomin acion
Ġmateri al
Esc Ã²la
e bl
Ġde riv
Ġa ment
20 1
Ġcomp osicion
19 6
24 6
34 2
Ġpu ish
Ġpa ci
ud es
Ġtr omp
Ġprincip is
ĠmÃł gers
Ġsign ific
Ġvic ti
ĠCap it
Ġfabric acion
Ġfut ur
ĠMin ist
Ġinstru ment
4 00
4 69
re tat
is p
Ġen l
ĠC I
iz at
15 6
16 1
70 2
Ġac ulh
art icle
Ġser i
Ã²m s
Ġdarri Ã¨rs
Ġliter Ãłria
Ġblan ca
Ġalemand s
Ġoccident ala
ĠPre mi
Ġrecu per
ĠInter nacion
4 59
4 89
Ġ &
ĠL una
Ġcom tes
ĠM ac
Ġo ct
Ġar re
Ġbas ada
Ġgener acion
Ġdep aus
Ġren ov
Ġpurm Ã¨r
ĠSov iet
au gu
im m
ĠD au
ĠF red
Ġtot al
79 9
29 2
Ġh ilh
76 2
ĠO ccident
aliz ar
Ġdef end
6 69
Ã ±
er ament
Ġf ief
Ġper m
Ġb Ã¨la
15 5
Ġpart its
ĠCar ta
Ã¯n as
Ġeconom ia
Ġquau ques
Ġlet ra
Ġbil ingÃ¼
Ġmusul mans
Ġeven iments
escriv an
ĠLond res
6 44
6 89
b ol
j ect
w w
Ġd ur
Ġl um
Ġe d
Ġg ents
Ġg rat
ĠM er
av en
19 4
79 5
Ġri v
Ġfam osa
Ġfon cions
Ġmet Ã²de
Ġeconom icas
Ġvari etats
Ġcant on
Ġconflic tes
Ġfaci l
ĠPol onha
6 59
6 49
8 89
r ons
u as
or ic
Ġf um
Ġen gat
Ġr on
ist ics
Ġj ur
ĠF ins
ĠG rÃ¨
Ġpro ble
Ġcomp ort
76 1
Ġri b
ne ct
Ã¨n i
olog ics
ign y
Ġcal end
Ġdesp art
Ġclass as
ug al
Ġautor itats
Ġmat in
Ġvertadi Ã¨r
ĠVen guÃ¨t
Ġset man
Ġgard ar
ĠBes iÃ¨rs
Ġcoss ÃŃ
5 59
p es
Ġa er
Ġm ad
Ġf la
Ġre ven
ĠS au
Ġan onci
ab andon
Ġ19 45
Ġap ren
ob serv
79 8
Ġri ba
33 7
ori as
Ġmet al
Ġcompanh iÃ¡
A m
E dat
g ne
l ici
u tiu
en os
Ġa mp
es tan
gu et
Ġre cep
Ġcon eish
iss e
ĠG ir
ĠU r
Ġcomp ar
Ġpre t
Ġreg ist
Ġcl au
Ġcl imat
Ġtemp le
Ġsol elh
Ġsol dats
Ġfranc esas
Ġlu Ã¨nh
Ġpubl iquÃ¨t
Ġdint rada
Ġassoci acion
Ġperd ut
ĠMart in
Ġassegu rar
Ġair al
. ,
e guÃ¨t
an e
Ġc ement
om ba
Ġg ras
ia c
ce diguÃ¨t
Ġdeu riÃ¡
Ġdev on
Ġfu g
arg ent
ĠBord Ã¨u
5 44
5 69
5 49
8 00
8 44
8 59
8 69
g ica
t al
Ġ x
Ġd ont
Ġcon eis
ei x
ĠR os
Ġac cions
Ġesc Ã²la
Ġvi as
Ġfem en
Ġsorti r
Ġescriv ans
ĠPres ident
Ġcompos itor
Ġquauqu ei
5 89
8 49
A ran
S S
s ia
Ã ¶
Ġ 70
Ġm alh
ĠM en
ist an
ĠB ol
14 4
Ġmar s
ard in
22 2
mat ic
Ġdest ruccion
Ġofici alament
ĠEx istÃŃs
Ġpen insula
Ost al
ĠNav arra
Ġestra teg
Ġculmin ant
. "<|
Ã² ran
ra ine
os icions
ĠC i
Ġ19 20
Ġab sol
Ġdis paus
ĠRep res
Ġmag net
Ġreligi osa
A le
e ch
Ġp ausa
er at
in ari
Ġm is
Ġf au
ur re
ab te
ĠU a
24 3
est ar
Ġri ques
ĠAl ara
Ġform ada
ill on
Ġjorn al
ctor at
Ġperi Ã²des
Ġsemb lan
Ġves ins
Ġmelhor ar
pres as
Ġbritan ica
Ġdif usion
ĠGrÃ¨ cia
9 00
I tÃłlia
r Ã¨m
el les
Ġre mon
ĠP la
ct ritz
Ġpl ena
79 6
Ġver tat
Ġlim itat
ĠmÃ²rt s
Ġlig ada
Ġrepresent acion
ĠtÃ¨r mes
Ġnomb res
Ġmilitar s
Ġtemper at
ĠRob Ã¨rt
4 50
c er
e a
h am
Ġqu ar
Ġv am
ĠS ens
Ġesc rit
Ġesc riure
vas ion
bor g
ĠTo tes
Ġtol os
Ass emblada
9 44
A cad
L O
m ada
v o
te ro
Ġs obre
in teg
Ġe c
or k
is m
Ġv ass
Ġn Ã²rma
ist Ã¨ma
Ġmar it
33 3
inas on
Ġutiliz ats
Ġemp le
Ġemp eraire
ĠRo queta
Ġfas a
oct Ã²bre
Ġessenci alament
Ġacom encÃ¨t
4 80
9 49
Ġl ud
Ġp alais
it ant
ĠL ion
Ġre dus
Ġse x
Ġse ccion
Ġg arda
24 1
Ġchin esa
9 59
9 69
9 89
e ga
Ġ 90
Ġa ma
Ġa ctors
Ġv ita
Ġn ar
Ġcon cepcion
Ġcon Ã©isser
iz a
ĠJ er
19 3
Ġcont re
79 4
ĠcÃ² st
Ġcre issenÃ§a
ĠW ill
Ġvol um
Ġet n
Ġdescob Ã¨rta
ĠCl au
ĠRei alme
Ġparte ment
Ġplas er
h i
on or
Ġp ena
ri da
am eric
ĠP et
Ġdi u
24 2
Ġex cepcion
Ġpart s
Ġdiv is
13 7
Ġmerc Ã©
Ġprepaus a
S ant
l on
u Ã¨lh
Ġs of
un ei
ra ccion
Ġt Ã¨n
mp Ãºs
iz ada
Ġli ure
na is
Ġres ist
Ġdem est
Ġimport Ãłncia
Ġcone iss
Ġens ag
Ġpresent acion
Ġbar r
Ġameric ana
Ġprev ist
Ġmanif esta
ocra cia
4 60
a w
Â «
Ġ Ã¨
Ġg ala
di as
Ġdi fici
aut as
14 7
ag lomeracion
enc as
Ã¨n ge
Ġprod uc
Ġz Ã²nas
Ġref lex
Ġrealiz at
ĠMa x
tell ig
Ġdecis ions
Ġcontun ha
0 89
6 50
c at
g iÃ¨r
Ġc ot
qu Ã©
Ġt aus
Ġt ira
Ġun as
Ġb omb
ro du
Ġr ts
ad o
Ġcomp r
Ġsitu ats
int rada
Ġlim its
Ġlin gu
Ġdemand ar
Ġps ic
ĠCes ar
b urg
k y
r ol
Â ·
Ġc Åĵur
Ã¨r cas
ĠD an
Ġ19 30
14 3
ĠO b
Ġra con
Ġtemp tat
Ġrev Ã¨nge
Ġsuc re
Ġdefin ir
rÃł cia
Ġtradicion ala
Ġexist isson
Ġdistin gu
Ġcontun i
Ġchin Ã©s
ĠÃĩ Ã²
Ġarr ond
" )
0 44
0 59
0 69
0 49
6 60
6 80
j au
o qu
u gi
Ġde j
Ġa guÃ¨ron
Ġm ir
Ġqu at
ti en
ĠP od
ab ilitat
ig ne
Ġsus p
oc as
Ġsol ucion
Ġpubl ics
Ġca ted
ĠSa int
Ġassoci acions
ĠEx ist
Ġconsci Ã©ncia
6 40
c ans
Ġp ilh
al d
un g
Ġen qu
ĠA ten
Ġb alha
Ġr ica
Ġ20 22
Ġres ultats
Ġimp aus
esc om
Ġmon ast
11 7
17 3
13 1
Ġso i
ĠPar ti
Ġmus ician
ĠAng latÃ¨rra
Ġset mana
ĠLen ga
5 40
8 80
E R
u tacion
Ġd am
Ġde ven
us c
ĠD ic
ĠB rasil
Ġj u
Ġdi eu
Ġap lic
Ġar ti
24 7
15 7
11 3
Ġdef ens
Ġpoder Ã³s
Ġbasti ments
ois e
Ġorient ala
8 50
as p
Ġc ia
im es
33 1
17 7
ĠAqu eth
Ġens emble
Ġaj udar
Ġreti rada
Ġfru ch
Ġsatell its
Ġcomplet ament
Ġdr Ã²l
5 50
8 40
b s
d ich
f ort
n i
ar Ãłn
ra Ã¨l
ti as
ĠP i
Ġ19 95
Ġpo guÃ¨ron
og ne
15 1
Ġcl aus
ed uc
17 1
anh as
Ġdef Ã²ra
Ġconsid Ã¨ra
Ġsc Ã¨na
Ġgovern ador
Ġaprof ich
5 80
d al
Ġa ctor
at mosfÃ¨ra
Ġt au
ĠP en
ul ara
19 7
ĠO st
Ġdem ost
17 2
Ġdis on
Ġdef endre
Ġdirig it
Ġsepar acion
Ġfilos Ã²f
Ġscientif ics
5 60
8 60
n er
Ġ 45
Ġs es
Ã² da
ĠS te
ig at
Ġdes f
19 2
Ġra m
33 2
ĠK ar
Ġcal or
Ġob jÃ¨ctes
Ġsoci al
Ġorig inas
Ġcrit ic
Ġant ic
Ġant ica
Ġscient ifica
ĠLaf ont
r icas
Î ¿
Ġs ser
ar ch
om as
am ass
ĠC os
ĠB ou
Ġnom ena
19 1
Ġpre cip
15 2
per t
Ġcol oni
11 2
Ġman jar
Ġcal c
Ġrev el
Ġinter ven
itar is
Ġconc ors
Ġfra g
Ġext rem
Ġprodu ch
Ġveg et
Ġmarid atge
Ġdesign ar
Ġtele vision
ĠMus Ã¨u
ĠGas con
Ã¨ ir
ar res
Ġm ac
Ġqu ora
au tes
ri ci
Ġv au
am en
Ã§ an
Ġr ar
ĠD iv
ad ÃŃs
ob jÃ¨cte
Ġpri gonda
15 3
Ã¨n cia
tel as
Ã²s i
Ġmin utas
aqu eth
Ġsubre v
Ġclass ic
Ġorganiz at
Ġparticip Ã¨t
ĠPr in
Ġress orsas
ĠBu enos
en ha
Ġp Ã¨s
Ġt os
Ġt Ã¨ma
Ġt aula
Ġes ca
ĠC op
Ġr at
ab itants
and s
ce bre
Ġpre ce
Ġven guts
est Ã³
Ġcons om
ast ron
ed o
11 1
Ġmus Ã¨u
Ġrev Ã²uta
Ġpublic acion
Ġsucc ession
Ġconten gut
ĠAs ia
ĠSitu ada
9 50
u it
Ġ Ã²c
Ġe vol
al t
Ġun ica
el eccion
ĠA ires
Ġb ut
ĠS as
im e
Ã²r s
Ġpar aulas
di da
Ġ19 97
ici s
ĠN eg
Ġme ta
Ġcomp tar
79 3
14 1
Ġav al
Ġgran as
Ã¨ss on
Ġcone gudas
Ġmin er
Ġmod Ã¨rne
Ġdesvolop Ã¨t
Ġdifer ent
Ġcr omp
Ġ3 00
Ġrealiz acion
Ġorganiz ada
Ġfoncion ament
Ġtor re
Ġcollabor acion
Ġtransm ission
A v
c te
ra Ã¯na
Ġf res
Ġf ac
Ġt uc
Ġb Ã¨s
ul on
Ãł dio
av Ã¨m
Ġ19 98
Ġtra pa
op er
op eracion
aut s
ers ion
13 2
Ġfar Ãł
Ġcomun aut
Ġconc ern
Ġarrib Ã¨t
Ġestudi ar
Ġfort al
Ġcateg oria
Ã£ o
Ġarti fici
9 60
9 40
9 90
T A
g or
i blas
te m
as a
ar o
ĠL an
el ect
Ġb ret
Ġpas t
ĠN icol
Ġdi eus
Ġ20 19
79 7
Ġra di
ĠDe p
73 7
Ġpermet Ã¨ron
Ġsub s
ĠRo ergue
rim ir
Ġescol ans
Ġsatell it
Ġdesserv ie
Ġsuperfici e
Ġhtt p
Ġgarn ison
9 80
r or
z o
Ġl itor
end res
Ġn at
Ġb el
le u
Ġal ora
Ġpar is
Ġpl ans
Ġac Ã²rd
Ġ18 70
Ġesc al
Ġsol s
Ġch ar
ill er
Ġrev end
ĠFranc esa
Ġinternacion al
Ġfab rica
Ġcaracter istica
ĠPort ugal
Ġdiam Ã¨tre
c ol
t Ã¨ron
Ġd an
Ġm ig
Ġt ab
Ġb ol
ĠR es
av ent
Ġpo Ã¨ma
Ġtra du
Ġsi e
79 2
ess ors
Ġcam ins
ĠSe gu
Ġtr Ã²
Ġfranc eses
77 1
Ġcone guÃ¨t
Ġpor ta
ĠAv Ã¨m
ĠprÃ²p ri
Ġjust ament
Ġmanif estacion
. ;
4 65
b Ã²l
an ia
ic e
ĠP alais
di g
ĠG i
ĠV ila
ĠN eu
ĠJ up
ec tiva
ĠH o
77 7
Ġgr Ã²ss
Ġinst itucion
Ġno cion
Ġcel Ã¨b
Ġsh ens
Ġcandi dat
0 60
c oma
Ġp aur
Ġes te
ĠE mp
Ġ19 73
Ġi ra
14 2
ĠH u
ex ion
68 5
Ġsoci etats
gi guÃ¨t
Ġmaj ora
Ġarrib a
ruc cions
ĠcollÃ¨g i
Ġegip ci
0 99
b ilitat
n ov
Ġl an
in v
un iversitat
or acion
Ġun itat
ta ine
ai ral
ĠD esc
ĠV ar
Ġcomp tava
79 1
Ġex clus
ess ions
rit ge
68 8
Ġman iÃ¨ra
Ġcor re
ĠâĢ ¢
Ġdirig ida
ĠprÃ²p ria
Ġcros ada
Ġlic Ã¨u
inform acion
0 50
Ġf Ã²nt
us al
ch i
ch er
ap ole
Ã¨s us
Ġ19 89
ĠV all
ĠN on
Ġac te
art in
Ġrep ublic
int Ã¨si
77 3
Ġleg itim
Ġprop or
Ġprog rÃ¨s
Ġlimit ada
Ġaj ud
ĠpÃ¨r das
ĠSitu at
0 80
0 40
0 90
g Ã¨t
t ic
on ica
ar ma
Ġen vi
Ġg estion
di guÃ¨ron
ĠF on
Ġin clus
Ġi er
oc ant
Ġmar ch
Ġrom p
ĠsiÃ¡ n
Ġclass ificacion
Ġsci Ã©ncias
ril h
inst ru
Ġtrib un
Ġsuf is
Ġut il
Ġregular ament
Ġbor ges
apel an
6 65
6 45
6 48
b ert
f u
h o
j ants
Ġd aval
at ic
in dic
un d
Ġf Ã¨sta
Ġt ras
ĠR et
av iÃ¡n
ab riu
Ġ19 18
ĠJ an
Ġh on
Ġ18 71
Ġcar g
Ġrec Ã¨rcas
Ġprin ce
Ġch ap
teri ors
esp le
Ġob ri
Ġart icles
Ġdepartament s
Ġsenh al
Ġ179 0
Ġvac cin
Ġmed ish
Ġvad Ã³
Ġciutad ans
ĠFred eric
D N
n g
u ei
qu is
Ġre is
Ġb ranca
Ġg ost
ĠP ers
Ġal mens
ĠB an
Ã¯ ss
ĠJ Ã¨sus
Ġmas cul
rÃ¨ ma
77 2
ron ze
Ġcent rau
73 1
Ġmil i
Ġmarc ada
Ġmand ar
Ġtes ti
Ġnegoci acions
8 48
O C
f re
un ic
Ġv ide
Ã§ ats
ĠM ed
ĠM ichel
Ġpar ci
ĠF ab
ĠT rans
Ġap re
68 4
Ġpass ej
Ġpod riÃ¡
Ġcent res
Ã¨rn as
ĠAr gent
Ġconf ir
ĠnÃ²st res
terior ament
jec tius
ĠentraÃ¯n ant
Ġcul te
roma ine
5 45
v elh
Ġs tat
Ã² di
Ġv ri
Ã¨l i
ĠU Ã¨i
Ġau tes
ou te
Ġcent en
Ġmod Ã¨ls
Ġid Ã¨a
ĠVi ena
Ġsant at
5 48
8 45
l s
n s
u elh
Ġt Ã²r
au en
Ġv apor
Ġre d
ĠJ Ã²cs
ĠU c
em ia
Ġimp oss
utiliz ar
Ġrei au
Ġaf aires
Ġesta das
Ġaques tas
eus e
Ġfogu Ã¨sse
Ġjapon Ã©s
5 88
8 65
8 55
P irenÃ¨us
x i
Ġl ectura
Ġm el
Ġb arri
Ġcon te
Ġr os
Ġr tas
Ġtan p
Ġex emp
Ġtemp or
73 2
Ġqui te
Ã²m es
Ġesta cion
Ġgl ob
Ġconstitu ÃŃs
Ġdint rar
Ġocup a
Ġmol in
Ġsal v
Ġdisp osicion
Ġorigin ala
Ġcerc le
Ġjust ÃŃcia
Ġfaci ar
Ġganh Ã¨t
ĠBern at
ĠSoci etat
Ġquad re
5 65
b an
at ac
is tes
Ġv ai
Ġb acin
im atge
ĠB ri
ĠB ourg
Ġin cl
ĠH er
Ġsol ar
Ġch if
Ã²s ta
Ġtor isme
ĠTra ctat
Ġcanta ire
Ġdipl omat
ĠGascon ha
9 65
h at
o a
v os
z i
Ġd il
at ica
Ġv ig
Ġn az
ĠC ors
ur al
Ġpar lan
ĠB odon
Ġtra dicions
Ġesc richa
Ġcons istÃŃs
Ġdem Ã²ran
Ġrep ression
Ġmarid Ã¨t
esper it
ĠJer usal
apole on
p el
on y
Ġc en
it ada
Ġqu ita
om in
Ġb anh
Ġcon nect
ul at
Ġo cean
id ion
Ġ19 62
Ġex a
Ġrec ens
68 6
Ã¨n s
ific ada
Ġst ra
Ġpens a
Ġmerc Ã©s
Ġpe isses
Ġus atge
Ġpresid enci
Ġaur Ãł
h t
p us
t u
Ġc ens
Ġe dit
Ġes ti
Ġv ins
ĠC rotz
Ġan tany
ĠT al
Ġdes vel
Ġin terior
ĠJ ust
op aus
ast on
Ġtr en
Ġcol om
ĠCom ission
Ġrei ala
ress ions
Ġon or
dic cion
Ġart istas
Ġparticip acion
inter Ã¨s
Ġnav ig
Ġital iana
Ġdial ect
Ġfronti Ã¨ra
Ġeven iment
ĠrÃ¨g las
ĠnuÃ¨ ch
9 48
9 88
b on
l h
l l
o j
r ina
u k
Î ±
te in
Ġs ar
Ġs it
or ica
ra y
Ġse qu
Ġar ts
per iment
esc asenÃ§a
Ġpod Ã¨m
Ġsegu it
ell i
Ġba te
ĠMi qu
ind ustria
Ġis lam
tific at
Ġproteg ir
Ġsel eccion
Ġmatemat icas
ĠHen ri
ĠNarb ona
9 45
9 55
R D
c el
o ch
Ã¨ ja
Ġs or
Ġm ult
it Ã¨r
Ġt i
Ġn ad
Ġcon ven
ap r
Ġ19 82
Ġcap able
Ġbas at
Ġcor ona
Ġrei al
Ġum anas
Ġsign at
Ġistor ics
Ġobten ir
ĠLor raine
Ġconsequ Ã©ncias
Ġdiscip l
ĠAugu st
Ale manha
Ġ 35
Ģ ustria
Ġlo t
ol et
ĠT om
mi ra
Ġpart isans
Ġgen ier
68 3
Ġro tas
ĠAr n
Ġtrob ava
Ġcer em
Ġrs as
Ġge omet
Ġcontrar ot
Ġdaiss ar
Ġviv ent
Ġprom ocion
Ġconserv at
Ġempleg at
Ġcarb on
ĠcollÃ¨g as
Ġmanifesta cions
c ap
es on
Ġc ub
Ġf ras
Ġt ro
ĠL et
ĠC ha
ĠM el
Ġal iats
ut ors
ĠB ru
ĠR D
ici tat
Ġent orn
og en
Ġvil atges
Ã¨ss es
Ġenc ausa
46 4
Ġfam ili
Ġnov Ã¨ls
Ġqual qu
Ġfil mes
Ġref ugi
Ġrap id
ĠPro v
Ġcors es
Ġpor tada
Ġpos icions
ĠNe w
Ġlarg ament
abs Ã©ncia
iot Ã¨ca
E mp
s i
en ce
Ġc ic
Ġf ara
gu er
Ġb anc
ĠC lar
ĠS Ã¨r
Ġcon n
ur r
tat ge
Ġpl uÃ¨
Ġdiv id
Ġins c
udi ci
Ġmant una
Ġrepresent ants
Ġren g
Ġint Ã¨rna
Ġsup Ã²rt
Ġjog aire
Ġacc ess
Ġpet r
Ġpurm Ã¨ra
Ġestan d
ĠCi utat
0 88
o ul
Ġl s
ar quitectura
Ġla ch
il itats
mb ia
ĠB at
iz ont
ac Ã²rd
bl ament
Ã¨g i
Ġdep utat
Ġcas uda
ĠÃ įndia
Ġdemor Ã¨ron
Ġcast Ã¨th
organiz ar
lant ic
Ġtir ar
Au de
Ġcated rala
ĠJup itÃ¨r
0 65
0 45
0 55
b at
d ar
i al
Ġp p
Ġc icle
Ġm m
or as
ra p
Ġt s
Ġt am
el ements
ĠS ar
ĠS istÃ¨ma
ul ari
ĠB ur
ĠB ert
ot s
ot ic
Ġ19 39
Ġres erv
Ġac tes
Ġesc riguÃ¨t
esc al
esc riure
Ã¨st ras
Ġform Ã¨t
Ġaques tes
ĠpÃ² den
Ġver d
ĠCal if
Ġlimit rop
Ġprodu chs
ĠlingÃ¼ istic
Ġdial Ã¨ctes
Ġdific ultat
Ġcomenc Ã¨ron
0 48
r ist
Ã ª
Ġd ÃŃs
Ã¨ ga
Ġc lav
or ta
ic al
Ġt ub
Ġv escom
Ġper ilh
Ġse m
ai ron
Ġcon j
ab ri
Ġ19 93
Ġres Ã¨r
con st
Ġval ors
Ġno bl
Ġten iÃ¡
Ġmelh ora
Ġpor tat
Ġdisc ors
enn es
Ġalb um
ĠvÃ² te
ĠPh ilip
ilib ri
fab et
Ġsetman as
Ġgala x
m os
â Ĥ
as h
Ġc erv
Ġe dicions
ra i
Ġf reg
ĠL is
da d
Ġper p
ĠS en
ul l
ĠV iv
ond as
Ġac tiu
Ġra dic
ĠH ar
Ġdem ocrat
ex ec
Ġtr enta
Ġdeb at
Ġmet rop
occitan isme
Ġdrech s
Ġrs a
Ġsimp la
Ġeurop Ã¨as
Ġmedi terran
Ġtrib Ãºs
Ġela bor
Ġclar ament
Ġindustri ala
Ġdeg un
Ġfel ib
Ġconquist ar
Ġreflex ion
en cion
en atge
Ġde h
Ġp ent
Ġp le
an z
Ġv Ã¨r
os au
ĠP lat
Ġcon ceb
ei ra
ur os
ĠB our
Ġan c
ĠG ov
Ġpro t
Ġtan g
Ġh e
Ġab itu
Ġcar gat
Ġdon ada
Ġmon uments
ĠSe mb
ori ans
Ġtrans fer
Ġposs ession
ba ch
ĠcÃ²r das
Ġve guÃ¨t
Ġev itar
Ġterr Ã¨stra
Ġpodi Ã¡n
Ġcollec tiv
Ġassai Ã¨t
obten ir
Ġcalend iÃ¨r
E gipte
O N
h es
j adas
k m
en viron
Ġa ga
Ġe u
Ġre ina
ĠC res
Ġpar elh
ir at
ĠR ich
Ġsu paus
Ġap ond
Ġcomp eti
Ġch ic
Ġdifer enta
Ġresp ect
Ġcambi aments
Ġestabl it
ĠNacion al
Ġdiss abte
espÃ¨ cia
tero Ã¯
âĤ ¬
5 85
o us
Ġb au
ro d
Ġcon fer
Ġcon dem
Ġan al
ĠG ard
ha c
tan ben
Ġ20 18
emp Ã¨ri
Ġsegu enta
64 2
Ġtrans c
Ġloc al
Ġneg ra
Ã¨x te
erg Ã©ncia
Ġmag n
Ġmag erament
Ġdeban Ã¨ron
olit ic
Ġmediev ala
ĠDo as
ĠmÃ¨t ge
ectiv ament
Ġ ha
Ġlo u
Ġv ore
Ġb Ã²rd
ĠP Ã¨rs
ia das
ad in
ĠR ou
Ġ19 68
Ġent iÃ¨r
mi da
ort ar
em an
Ġesp le
66 6
Ġdiv in
37 2
Ġinter Ã¨s
ĠÃ ī
ĠAqu itÃłnia
Ġcr om
Ġpresent an
estat ut
asc uda
Ġves in
Ġanim al
Ġcerc ar
Ġcaracteriz a
Ġrestau racion
Ġtruc at
Ġacad em
educ acion
Ġprece dent
O rient
an ne
qu ista
ra va
Ġf r
ĠC ad
ĠM ur
Ġ19 96
Ġesp osa
Ġra i
66 4
ep ar
mat icas
Ġloc alizacion
ĠY ork
Ġdob le
Ġdisp aricion
Ġpint ura
ĠpÃ¨r da
Ġganh ar
Ġbe arn
Ġdefinit ivament
ĠCent rala
assegu rar
Ġvid Ã¨
Ġlengadoci an
Ġpetr Ã²li
A t
Ï Ĥ
Ġd ents
Ġs intÃ¨si
Ġt ala
Ġv Ã²u
Ġal tern
ĠD ens
ens enh
ag ne
oc k
Ġgran s
68 2
Ġpers p
Ġdo Ã§
olog ias
lan da
Ġdesc end
Ġmant uns
Ġfond Ã¨t
Ġdeci d
tern et
Ġbalh ar
Ġcolon ia
Ġbesonh s
Ġmem Ã²ria
ĠWill iam
h u
o ca
Ġe ta
al la
el es
el im
ol at
ĠA ust
Ġcom arca
ĠM ic
et n
ist oc
Ġest re
ast ic
68 7
Ã¨n as
Ġcaus it
ing ton
Ġsul tan
Ġcamp anhas
Ġim atge
Ġdec enn
Ġpag ar
Ġdub ertura
Ġelect ron
ĠMau grat
Ġreform as
Ġdot ze
3 20
O l
P ierre
Ã ¤
Ġp Ã¨l
as on
Ġse unas
Ã²r mas
ĠF il
Ġ19 94
ĠV ern
ĠN auta
Ġtra cta
ĠJ a
Ġar ma
Ġfa it
ĠcÃ² la
Ġsitu adas
Ġu Ã¨lhs
Ġpass ant
Ã¯s me
Ġno ta
Ġim atges
Ġem ai
Lo ire
Ġcollec tiu
ĠOl imp
ĠAlex andre
Ġprem sa
pira cion
9 85
A b
a ost
v ern
Ġl is
or ar
Ġv on
ĠS ci
Ġ19 91
ag es
Ġesp andi
Ã²p le
37 1
ĠAr t
Ġeconom ics
Ġmot or
Ġniv Ã¨ls
Ġdob te
aul t
Ġinc end
land Ã©s
Ġviol Ã©ncia
Ġesqu Ã¨rra
Ġcaracteriz at
Ġcresti ana
Ġinici alament
Ġbr ut
Ġrefus Ã¨t
ĠfenomÃ¨n s
Ġmain atges
ĠRod Ã©s
ĠMedi terranÃ¨a
ĠdÃŃs er
" ).<|
b ar
f ar
Ġ Ð
Ġt ensions
Ġre tra
ĠS c
Ġo t
ĠD ec
Ã¨s tes
Ġ19 72
ĠEn ter
Ã¯ st
Ġar bre
Ġh as
ĠO s
Ġaut omat
esc amb
ang lÃ©s
Ġconsider ar
Ġcontunh ar
reg ion
ĠPa Ã¯s
Ġdet alh
Ġpot Ã©ncia
Ġdestru it
ĠCastel ha
ĠDav id
Ġfortal esa
m ond
u x
Ġ ur
or re
Ġf ic
it y
Ġper quÃ©
Ġb aiss
Ġr ti
ĠR a
ĠT en
ig racion
ĠG aston
ĠI st
Ġex terior
Ã¨g le
59 0
68 1
66 3
ĠGu ill
Ġconf lu
Ġja Ã§
Ġpren guÃ¨ron
Ġfas i
Ġlat itud
ĠBel gica
Ġmost rar
ĠMej an
esqu Ã¨rra
ĠsÃ²n s
ĠvertadiÃ¨ra ment
adop cion
l ig
y l
Ġc te
er o
qu er
Ġla bor
ap rÃ¨s
ab ans
00 5
um as
Ġreg ard
Ġbas as
Ġ4 00
Ġves ina
Ġofici al
Ġminist res
Ġtrib alh
Ġdif us
Ġta x
ĠJac ques
ĠRec eb
ĠPe ter
Ġoper acions
Ġcarb Ã²ni
Ang latÃ¨rra
v ament
Ġp end
Ġe ire
Ġg a
ĠS il
Ã© l
ĠR iv
ĠF orm
Ġ19 00
Ġvil la
Ã¨c s
Ġmes tiÃ¨r
ĠCom tat
Ġsegu ents
Ġat Ã©nher
Ġtrans met
Ġutiliz adas
Ġnos autres
arm as
eng at
Ġcatal ans
rad or
Ġvoc acion
ocup acion
Ġpossed ÃŃs
Q u
j os
r s
r ena
ci t
al iment
Ġg re
ro is
Ġj onh
id itat
Ġtra par
op osicion
Ġra ub
Ã²n s
Ġmus icians
Ġtrob ador
Ġlim itar
An d
ĠAv iÃ¡
Ġsup lement
Ġend rech
Ġenf ant
ĠSol elh
ĠCan ad
ĠBer lin
ĠJac me
S a
v ada
Ġ Ã¨st
Ġde mpÃºs
Ġa ustri
Ġc Ã¨rca
Ġm Ã²st
Ġun itats
el la
ĠA ub
Ġre du
ot Ã¨si
ĠUn ion
66 1
66 7
Ġst as
ĠFo is
emple c
Ġconstitu isson
Ġ6 00
Ġef ectu
Ġcorr ents
ÃĴ C
Ġcompren e
Ġrecu Ã¨lh
ĠÃ§ ai
ĠJerusal Ã¨m
E l
O P
l ip
on ic
in er
Ġm ira
Ġv Ã²stre
os itat
ĠP aci
ada ma
ist oire
ĠR enaissenÃ§a
Ã¨s is
Ġ19 19
ĠV ir
Ġex erci
Ġest rech
Ġsol et
Ġnov Ã¨us
he im
Ġret rob
Ġfot ograf
ĠGe org
Ġtri angle
Ġtransp Ã²rt
inte ress
0 85
1 20
2 20
2 35
2 38
d an
r Ãłn
Ġd al
Ġm ut
ant ar
ĠM ond
Ġo Ã¨st
ad e
ch o
ĠG Ãł
Ġ19 74
ĠI Ã¨r
ga z
Ġpres erv
ĠUn iversitat
ĠAn n
ĠFran cis
Ġcas es
Ġtrob adors
Ġdest inat
Ġara bi
Ġtradicion al
Ġef Ã¨cte
Ġreligi osas
ĠOr l
ĠgrÃ¨c s
Ġesper ar
Ġtop onim
ĠJu an
ÃĪ st
Ġtromp eta
Ġenl Ãł
Acad Ã¨mia
1 35
1 36
1 38
3 18
3 34
b al
l ov
p r
it Ã¨cte
am par
ĠA ctu
Ġre da
Ġb ac
Ġcon dam
Ġ19 67
Ġsu ber
Ġor a
44 0
Ġrec entament
Ġlu char
Ġgu itar
Ġdo ct
46 7
Ġass assinat
Ġins pir
Ġens enhament
Ġparticul ara
Ġep is
Ġbl au
Ġsin gular
Ġapare guÃ¨t
Ġmolec ulas
Ãłri ament
ĠJosep h
Ġtemperat uras
1 25
1 18
1 28
1 34
3 25
Ġ Å
Ġa im
Ġc itat
Ġc rat
ĠL at
Ġv est
Ġen ergia
ĠE t
Ã© der
ĠB ressa
Ġres tabl
Ġpri eur
Ġreg lament
if Ã¨rs
rat z
Ġvol iÃ¡
ĠAp r
Ġdev ath
Ġcompaus ats
Ġsign atura
Ġim medi
Ġsucc essor
Ġrespons a
Ġcolon izacion
Ġcaract Ã¨rs
espÃ¨ cias
ĠFelib ritge
1 74
1 39
2 18
2 26
2 29
2 75
2 16
2 78
2 76
2 39
3 26
3 36
3 38
c ada
i el
m s
Ġa ran
an ge
Ġc Ãł
ci li
Ġm ari
ic ala
om o
ada p
ĠB l
iss atge
av el
id at
Ġte st
Ġau ri
Ġesp el
ĠO tom
Ġrec amp
Ġenc arg
Ġmet all
Ġco a
Ġmen ada
Ġpat ron
Ġai Ã§Ã²
isti an
Ġfilh s
Ġparlar s
Ġmontan h
Ġveg adas
Ġindepend enta
Ġbord ure
1 26
1 75
1 16
2 34
3 78
3 39
7 20
A L
A g
o ie
u ga
is ne
it ors
om ic
Ġb ud
Ġ1 49
ĠE v
Ġpar lat
Ġ19 85
Ġ19 83
Ġ19 92
Ġdi guÃ¨t
Ġdi oc
Ġap arten
ce dir
Ġh Ã©
Ġab b
Ġref orma
ĠnÃ²st ras
Ġrealiz Ã¨t
Ġpos it
Ġfond ator
Ġdomin ant
ĠCol l
ĠpÃ²rt as
Ġcell ulas
Ġrevend ic
1 78
2 25
2 28
2 36
3 28
3 75
3 16
3 74
f r
Ġd it
in vasion
Ġf lan
ĠL iga
ĠL emosin
Ġse d
ĠC ass
Ġcon ca
ĠM exic
ran Ã§a
ad re
Ġ19 48
ara is
Ġme decina
Ġentre presas
ĠH an
rat ges
Ã¨m is
Ġcaus Ã¨t
Ġresp ond
Ġlig adas
ral ha
Ġrealiz ada
exp ansion
ĠpÃ¨ iras
Ġdisc uss
Ġmor f
Ã³n cia
Ġviv on
Ġtu at
Ġagric Ã²la
Ġagric ultura
Ġ179 3
Ġadministrat iva
ĠAnt oni
ĠAlb ert
Ġbenef ici
Ġprum Ã¨r
Ġcastel han
Ġfemen in
Ġvri ulon
ĠSÃ¨r gi
1 29
2 74
3 29
3 35
3 76
6 20
7 18
7 26
7 76
7 39
z ar
on e
Ġp ale
Ã¨ ch
er ta
Ġm apa
un ivÃ¨rs
ri an
Ġv ast
gu Ã¨sse
Ġb and
ĠC orn
ot te
di fici
aus s
Ġamb e
Ġ19 86
ĠV os
ĠN apoleon
Ġte l
ĠEn s
Ġsa g
Ġres istir
Ġh ens
ess us
est en
69 0
Ġpass an
Ġad ul
Ġob ratge
Ġro ja
Ġexp lica
ĠAques tes
Ġrap ida
Ġdefin ÃŃs
Ġcad una
Ġautor oute
Ġev ident
ĠTot as
Ġpet it
Ġrespons able
Ġsac ri
Ġinstall at
Ġsoviet ica
Ġlum in
Ġpropor cion
7 75
7 16
7 78
7 35
7 34
i um
Ġa ja
at i
in et
Ġf ib
ĠL ong
Ġv iva
ĠC ir
ĠC lu
ĠP op
ei r
ĠV au
Ġi ran
ĠcÃ² m
Ġser iÃ¡n
Ġrec om
Ġdis par
Ġcent r
ian o
Ġvi Ã¨lha
ĠPar is
Ġaf ebl
Ġexp lor
Ġvari acions
leg ar
inh on
Ġorigin al
Ġmer idion
ĠPe it
Ġmesc la
Ġmencion at
rog Ã¨n
Ġarb res
ĠEnc ara
Ġpartement ale
ĠProv ÃŃn
ĠReceb Ã¨t
. -
1 10
7 25
7 29
7 28
7 36
7 74
7 38
M artin
g ier
o te
Ã¨ rem
Ġs ai
Ġe b
Ġqu oti
ĠL ev
Ġ1 789
Ġg asc
ĠP Ã²t
ĠD r
la in
Ġex paus
oc ada
Ġac amp
emp ach
Ġmil a
Ġcapit ada
Ã²s e
Ġestat ut
Ġloc aus
Ġespeci f
Ġneg res
ej ar
Ġnomb rÃ³s
erg at
ĠpaÃ¯s ans
fa ch
Ġcel Ã¨bre
Ġprote Ã¯nas
ĠvÃ²l on
Ġsent iment
Ġcolon ias
ĠNi Ã§a
ectac le
Ġexa ctament
1 30
9 58
U r
j ant
r ics
on esa
Ġc ur
is es
Ġt as
Ġb ronze
ro v
ĠD ou
Ġ19 36
ac cep
ob jÃ¨ctes
Ġi b
Ġres ol
rit s
ĠCom encÃ¨t
Ġtrob Ã¨t
Ġjos ie
Ġef ec
Ġcant ar
Ġsorti guÃ¨t
Ġmass ÃŃs
Ġmit ologia
Ġsecret ari
Ġdarr Ã¨r
Ġlud udes
Ġtos temps
Ġmili ards
3 10
k er
Ġ Ã¨ss
Ġ 65
Ġl Ã¨i
in ada
Ġt Ã¨mas
Ġv ed
Ġn Ã²ta
Ġb ranc
Ġb izant
ĠC au
ĠD eu
Ġpar ets
ĠR N
ĠR Ã²ca
ĠT el
Ġpr Ã²va
Ġ19 75
Ġ19 01
Ġtra ces
ĠÂ °
Ġpres as
em at
Ġh Ã¨it
Ġrec er
Ġrec ors
Ġcaus ir
Ġvi elh
ĠFran ce
don n
Ġdifer enci
Ġcamp ion
ĠEst udi
arc k
Ġespeci fic
An jau
Ġsign es
Ġpremi ers
Ġind ica
Ġmarc ar
ĠCor Ã¨a
ĠfÃ²rt ament
Ġdat ant
Ġpossib la
Ġoper acion
Ġcono guÃ¨t
Ġrur al
Ġcontinu ament
Ġpropriet ari
Ġvisc ut
ĠPich on
3 30
A ur
f is
s ki
en tes
an tes
es n
or ig
il es
ĠS erv
ĠV a
op ia
Ġpri vat
Ġplan etas
Ġcal if
gi Ã¨rs
Ġcr ist
exp lor
Ġren for
Ġop osicion
Ġespaci ala
Ġcomerci al
Ġreceb ut
Ġadop tat
Ġbil in
actu ala
Ġcircul acion
Ġmest re
Ġmalh um
ĠCanad Ãł
2 30
2 10
o i
w a
Ġd anÃ§
or ian
Ġf un
Ġt Ã¨sta
Ġen eb
Ġ1 60
ro dus
ti g
ap ren
ĠG au
Ġin augu
Ġ19 32
Ã¨ra ment
ĠV ille
00 8
00 9
Ġcap ables
Ġar ron
de c
Ġh Ã¨r
ess e
Ġter min
Ġrep utacion
Ġpass ion
Ġcomun ista
our s
Ġdeb ana
Ġserv ÃŃs
Ġactu au
Ġren fÃ²rÃ§
Ġassoci at
Ġcob r
Ġindivid u
Ġinstru ments
AR N
isf Ã¨ri
ĠGeor ge
aperaqu ÃŃ
Ġcomport ament
ĠRepres entacion
1 70
a ja
d ica
j ava
l acion
m ai
Ġs p
Ġs op
Ġc it
Ġc ima
Ġc uri
ent ar
ĠS el
ĠS uc
ĠM ans
ran qu
di ana
Ġmai rala
Ġ19 79
Ġ19 65
iz ats
00 4
Ġte les
Ġar c
Ġau c
Ã¨rs a
Ġex periment
Ġres ulta
ras t
Ġpel eg
59 8
Ġans in
Ġrel Ã¨u
Ġvi en
Ġcal d
Ġsoci alas
Ġgr Ã²s
Ġprov is
Ġpublic ar
Ġrecon egut
Ġnatur alas
Ġpor g
ien ne
Ġdisp on
ĠFa guÃ¨t
andi e
Ġprim it
Ġprob able
Ġquim ia
ĠBern ard
anal isi
Ġenem ics
Ġrit me
Ġnobl esa
3 70
7 30
7 70
l ob
Ġ 75
in ci
in ats
Ġm issions
al icion
ent in
Ġqu Ã©
Ġen fin
Ġre pert
Ġb ul
Ġ1 000
ĠE dicions
ĠM apa
Ġal ianÃ§a
Ġpro jec
Ġ19 64
ĠV end
00 6
ĠJ ames
Ġest ructuras
alh on
Ġmon arquia
49 0
Ġcl ara
Ġregion ala
Ġexp licar
Ġnacion alas
Ġart istica
Ġport ant
Ġocup ada
Ġdisp os
Ġoblig at
Â» .<|
ĠprovenÃ§ au
inici ativa
Ġriques a
2 70
I B
g ger
k s
en aris
im as
id er
Ġ19 81
ĠV es
ĠI mp
Ġform Ã¨ron
Ġpers ec
ev al
Ġconf irm
ĠMont s
Ġel im
ej atz
Ġcultura u
Ġbar ris
Ġmena Ã§a
Ġestudi ants
ĠJos Ã©
Ġvin ha
establ iment
Ġsoviet ic
uman itat
4 15
4 76
n ada
u ran
u ca
ent r
Ġt ucs
ran a
Ġson at
Ã²r ra
ot am
ĠF ont
ĠV el
ĠN ig
Ġdi ri
Ã©s er
Ġar qu
Ġcons tell
lic at
Ġsov en
Ġloc als
Ġpren on
Ġbasti das
Ġdemor ava
Ġparticul as
Ġas iat
Ġint ens
inh an
Ġdaiss a
Ġreti rar
Ġdin am
Ġlog ici
Ġconcent racion
Ġinferi ora
ĠVil atge
ĠsÃ²r re
ĠPremi era
ĠParti cip
0 58
4 20
4 19
4 14
4 75
4 38
4 39
k ing
w e
en ter
on at
Ã¨ ia
Ġla b
Ã² ia
Ġf als
ĠL uc
am er
Ġre ct
Ġse ctors
ĠB ig
av e
Ġ19 69
ag n
ĠcÃ² de
Ã¨c as
59 5
Ġman usc
Ġprov o
ĠJo ana
egu das
Ġrepresent an
Ġrepresent ar
Ġofici au
ĠentraÃ¯n ar
acab a
Ġnecess itat
Ġdirig ir
Ġvers ions
Ġnomen ats
gn y
ĠMol in
Ġata ca
olÃ²g s
0 95
4 79
4 78
6 28
7 10
O ccitan
n is
p ret
Î ¹
Ġd ors
te b
ent at
is an
ĠL eg
Ġun es
ĠA st
Ġre j
Ġb ru
Ġr isc
ĠB ism
ĠV ia
ĠN ad
Ġpre ci
est ats
Ġrec omp
enc Ã¨ron
Ġam ont
lar s
Ġtrabalh Ã¨t
Ġjos ieus
Ġlig ats
Ġren fÃ²r
Ġrest aur
ĠCas tell
Ġdeves it
Ġruss a
ĠCI RD
0 98
4 25
4 18
4 26
4 16
4 36
6 19
6 18
6 26
6 34
8 74
b us
Ġes telas
Ġre gul
Ġb andi
Ġcon du
ĠM et
Ã© e
Ġr Ã¨stas
ĠD ra
ap t
ap er
Ġj ardin
Ġesp and
Ã²l ta
ed ic
Ġrep arti
Ġpol onÃ©s
ing o
46 3
Ġvi ra
Ġutiliz a
Ġca Ã§a
Ġvis ita
omb ra
Ġten ir
Ġprof iech
Ġtradicion alas
Ġtecn ologia
Ġjog aires
Ġpract icas
Ġcultur alas
Ġreb at
Ġdial Ã²g
Ġpaus ar
Ġcandi dats
Ġimperi ala
ĠmodÃ¨rn es
Ġprecip itacions
ĠPhilip pe
ĠBism arck
4 24
4 29
4 28
4 35
4 74
4 34
6 25
6 79
6 24
6 14
6 29
6 75
6 16
6 38
6 39
U R
h Ã¨
t ament
Ġa il
un ion
it o
au riÃ¡
ol ar
ĠA j
Ġre mont
Ġre accions
ĠS ei
Ã§ ois
ist at
ĠB ay
ĠF ra
Ġ19 76
ac ad
ec ta
44 5
46 1
Ġrom anas
esp eci
Ġ8 00
Ġdisc u
Ġprodu ches
Ġpap iÃ¨r
Ġdemand Ã¨t
Ġprecis ion
ogra ph
acc Ã¨s
ĠbÃ²s c
ĠÃ§a quel
ĠSemb la
6 15
6 78
6 35
6 36
6 76
6 74
Ġd Ã¯
Ġm ori
ent u
Ġqu ina
ic o
Ġt amb
da das
Ġn h
ta gon
ro vi
Ã§ ament
im b
ad iÃ¡
ens is
ĠR oss
Ġ19 78
Ġ19 21
Ġ19 33
Ġ19 61
Ġte iss
Ġ20 16
Ġpri or
art s
Ġgen res
ex periÃ©ncia
Ġtorn at
ĠK h
Ġrev ira
Ġann ex
Ġco ord
Ġara gon
Ġom enatge
Ġcamb ra
Ġcomenc Ã¨
ĠnÃ² vas
Ġextrem itat
8 79
N C
d ors
j e
Ð °
Ġ Ã©s
en gu
Ġc ro
un ta
or tacion
Ġf ec
Ġre dig
Ġb od
Ġb rasil
ĠB au
ĠT ar
ĠV it
ĠV ers
Ġcont Ã¨xte
Ġcar r
est ra
ĠH e
69 5
ĠCh al
Ġch aus
Ġpubl icas
Ã¨ri as
Ġestat jants
Ġlong as
ef Ã¨cte
Ġval ent
Ġist orians
emb l
Ġno tada
af ond
Ġnecess Ãłria
Ġ' '
Ġdir Ã¨cte
Ġurb ana
Ġtend Ã©ncia
ĠAnt Ã²ni
Ġaper at
inform acions
ĠCors ega
Ġdesvel op
f as
o un
Î ½
Ġc ulh
Ġn im
Ġb lat
Ġb ois
ĠS ants
ant at
ab at
ĠN imes
eu rop
Ġ18 60
59 9
69 8
ip Ã¨dia
Ãłn dia
66 2
Ġvol cans
Ġel as
Ġloc utors
ef i
ĠMa y
aj udar
Ġdescob Ã¨rt
Ġfeb rier
ĠIs raÃ¨l
ĠSal adin
Ġbra Ã§
Ġfot bÃ²l
ĠprÃ² cha
Ġaccep tÃ¨t
Ġadministrat iu
Ġir re
ĠPaci fic
5 18
5 78
b y
x emb
Ġde dins
Ġp ed
an ti
un ica
is la
Ġt y
Ġt ardi
ri z
Ġen qÃ¼
Ġper a
Ġn aus
gu ment
ol on
Ġb ro
Ġb org
ĠT rob
Ġ19 46
ĠV ista
Ġpo Ã«
ors a
Ġex ig
em ont
Ġfin anÃ§
ĠUn ivers
Ġele vat
ĠAr ch
Ġer ig
Ġmen Ã¨t
ĠRo ch
Ġve ge
Ġmor ir
Al bi
Ġbon as
Ġinv esti
ĠGener alitat
ĠCast Ã¨l
ĠBlan c
Ġempach ar
ĠMos elle
ĠBritan ics
ĠtrÃ² Ã§
Ġapre ci
ĠArgent ina
ĠGuill aume
5 29
5 35
8 20
8 19
8 25
8 26
8 14
8 28
8 15
8 36
8 34
8 38
8 39
b alha
m y
r ut
u ari
Ġe difici
ri e
Ġdel eg
Ġcon ferÃ©ncia
ĠE xt
Ġson a
ĠB ulg
ĠT a
Ġpr Ã²sa
ĠN as
ĠJ orn
ĠJ aume
Ġh em
Ġor d
ex terior
ĠAn cian
Ġsegu ÃŃs
Ġro b
Ġrev istas
Ġel s
An autita
rÃł lia
Ġdob la
Ġminist Ã¨ri
Ġinternacion au
Ġdim enge
Ġw eb
Ġrur ala
Ġportugu Ã©s
tellig Ã©ncia
ĠGov Ã¨rn
ĠPaÃ¯s es
5 20
5 19
5 25
5 26
5 14
5 15
5 16
5 36
5 74
5 34
6 30
8 18
8 24
8 29
8 75
8 16
8 78
8 35
8 76
S e
r ÃŃ
qu ist
or v
or tat
it ament
ĠL ar
ĠC D
ĠC ultura
ĠP ren
Ãł bia
Ġdes tac
ĠG ren
em isfÃ¨ri
ĠQu au
89 0
ĠAl bi
ĠPer met
46 2
man he
Ġmil ion
Ġperson ala
ĠAp ol
ĠCar n
Ġmet Ã²des
Ġpresent Ã¨t
Ġmi te
vas ions
Ġpes ca
ĠSol eu
Ġtravers ada
Ġtu ar
Ġnorm alament
Ġada igat
Ġfer rovi
enf ant
Ġindivid Ãºs
indi vid
Ġcong rÃ¨s
Ġsie una
Ġmascul in
Ġestand ard
ĠActu alament
Ġbranc as
5 79
5 24
5 28
5 75
5 38
5 39
9 26
A DN
i era
z ac
Ġs Ã¯
ci Ã³
is ca
Ġf ich
it alh
au p
Ġn acions
Ġn ue
Ġb anda
Ġg el
Ġg les
ĠP on
ĠT ib
Ġdes par
Ġ19 87
Ġsu ed
imp aus
ost au
Ġgran ja
oss e
Ġaqu er
up cion
Ġro ck
64 1
Ġdesc ripcion
paus Ã¨t
Ġfach es
Ġba ish
Ġdess epar
Ġcarri Ã¨ras
Ġsin dic
Ġacab ar
Ġmateri als
ĠCarles manhe
Ġmob iliz
Ġcatol ica
Ġrenov el
Ġdivis ions
4 70
4 10
5 76
9 20
z on
Ġ ong
Ġd anÃ§a
Ġp it
Ġa ccident
Ã¨ cia
qu Ã¨stra
Ã² qui
Ġn Ã¨u
ol ing
ĠS atur
ĠP ap
ĠM ess
Ġpar et
ot at
ĠF ar
Ġdes Ã¨rt
Ġin dependÃ©ncia
Ġsu gger
iz Ã¨t
ĠU t
Ġab ond
Ġac tiva
Ġgen i
Ġoccitan ista
Ġtr Ã²n
ed ia
Ġbas co
Ġinter medi
Ġconstitu ida
Ġim mens
Ġbast its
Ġvari antas
onda cion
Ġfilh as
Ġequ ival
Ġterr Ã¨stre
Ġdim ension
Ġsepar at
Ġacab at
Ġcomple ment
Ġaccep tar
Ġexec utiu
Ġmolec ula
Ġvit ic
Ġcomanda ment
Ġlegislat iu
ĠÃ§aquel Ãł
4 30
6 10
9 15
9 16
9 78
9 38
9 39
A P
I stÃ²ria
g Ã¨l
j aments
p ren
y d
Ð ¾
Ġ 48
Ġd ign
Ġp Ã²l
Ġm Ã²de
Ġper paus
il at
ĠA ir
ĠC iv
ĠC erc
Ġ( Â«
Ã§ adas
Ã© t
Ġpar iÃ¨r
Ġj udici
Ġpr umi
Ġ19 47
Ġh aut
Ġimp ression
ard o
Ġdem ocracia
Ġrec ob
ĠCh au
utiliz an
64 3
64 7
Ġjorn alista
Ãº st
Ġdifer Ã©ncias
Ġemp Ã¨ri
Ġagu est
Ġfas iÃ¡n
Ġfis ician
ĠSol ar
Ġmont ar
Ġcerc aires
Ġdial Ã¨cte
Ġpossib ilitats
Ġinflu enci
edi fici
Ġmaqu ina
Ġrecone issenÃ§a
ĠcelÃ¨b ra
Ġtanp auc
Ġlimitrop he
Ġteles cÃ²p
9 25
9 79
9 14
9 28
9 75
9 36
9 74
i ens
j o
n ia
u v
en ar
Ġde gut
Ġp eth
Ġs igne
Ġla i
or di
Ġv aiss
ĠS ec
ĠP us
Ġr Ãłdio
ĠF r
ĠT emp
Ġ19 17
Ġ19 66
ass oci
Ġap licacion
ĠJ ov
eg ar
Ġmar itim
Ġest ric
Ġmas cle
ex c
th e
Ġform ats
ĠCom unitat
our n
Ġgr is
Ġpublic ada
ret z
Ġmand Ã¨t
Ġterr ens
ĠVer d
Ġlog ica
Ġinform acions
Ġapro xim
Ġfras a
Ġvege tacion
6 70
9 19
9 18
9 24
9 29
9 35
9 76
9 34
h en
o de
Ġ illa
Ġa ci
Ġa ust
al ar
Ã² cia
Ġf eu
Ġqu ilh
ĠL omb
ĠC Ã²r
ĠS enh
Ġcom ent
ĠP ens
ĠE ug
im ag
Ġal unh
ĠD esp
ĠB lu
Ġmai r
ĠR ic
Ġpo gut
Ġsus velh
Ġar tes
Ġcomp rÃ©s
Ġfa ctors
Ġpre p
elh on
ed ura
Ġform ant
Ġch e
ron ta
up s
Ġele ctor
Ġob jectius
Ġexp edicion
Ġport Ã¨t
Ġistor icas
ĠAb C
Ġblan cs
Ġlev ar
Ġpint or
ĠTr enc
Ġfronti era
Ġveg Ã¨t
ĠMan uel
ĠÃĴ m
Ġflu vi
Ġdetermin ar
Ġdestin ada
equip a
ĠPrin cip
Ġcomunaut ats
Ġbret on
Ġconnect ant
OP LO
A sia
l Ã¨us
z z
Ġ olog
Ġm iss
Ġv ess
il ia
ol d
Ġse mi
Ġb rilh
ĠP ublic
Ġo tom
Ġpar Ã§an
ab ulari
id ors
ĠG or
Ġ19 58
Ġ19 71
iz adas
ac ci
ĠV an
ĠV ent
ĠV inc
ĠI m
Ġau cup
Ã³ r
Ġaut as
Ġcl ergat
Ġpod Ã¨tz
auc up
Ġaf ir
Ġloc alit
Ġresp Ã¨ct
ef iÃ¨ch
An tiquitat
Ġprop ag
Ġcomb us
Ġfem in
Ġves inas
Ġautor itat
ĠentraÃ¯n Ã¨ron
Ã¨th s
Ġfeb la
Ġestudi Ã¨t
ĠAt au
ĠTo ta
aument acion
orb ita
Ġensenh aires
Ġapare isson
Ġinferi or
Ġprotest ants
Ġcron ica
Ġtam ben
ĠÃ¨ss ers
8 30
a ga
e dicions
j Ã²us
Ġ ivÃ¨rn
Ġl us
Ã¨ ne
Ġs enat
in Ã¨t
Ġe dat
is ar
is is
Ġv Ã¨s
am i
Ġn Ã²us
ol l
ĠA z
Ġre al
ti ci
ĠP EN
ot ica
ĠN autor
mi as
eg alitat
Ġh ont
ĠfÃ²r ma
art h
Ġdem ora
Ġrec ulh
ena y
Ġenc orat
Ġdis iÃ¡
pul s
ĠAques tas
Ġpresent as
Ġrepresent ava
Ġten gut
asc o
Ar t
inter pre
Ġtract ats
Ġperd Ã¨t
Ġfronti eras
ĠremplaÃ§ ar
Ġescrich es
Ġfai Ã§on
Ġglaci Ã¨r
ĠCat ol
Ġcompet Ã©ncias
Ġlar ga
even iment
Ġdistric te
Ġremon ta
Ġcontuni Ã¨t
ĠClu b
Ġnim ai
8 70
N S
a cha
f Ã³s
v Ã¨rn
Ġ Ï
Ġ 55
te c
Ġp ig
al b
it Ã¨t
it ler
Ġt onas
ri ga
Ġv ents
Ġre cebre
ins c
ti an
ap licacion
ÃŃ pol
ĠLa c
Ġ19 10
Ġte at
op otam
na y
Ġcons ag
Ġpart enari
Ġpol ida
iu re
Ġbas c
ĠÂ» <|
Ġgener acions
cas ion
Ġcapit ani
Ġrev Ã²
ĠAr d
Ġaf ars
Ġposs essions
ĠFo guÃ¨ron
ĠCon vencion
Ġno ir
Ġbar b
Ġas teroÃ¯
ĠVal enci
Ġcambi Ã¨t
Ġconv er
eri ana
Ġge ograf
Ġdich as
Ġorigin ari
Ġvend ut
ation al
ĠLi bre
ĠBr un
Ġprepar ar
Ġasp Ã¨cte
Ġmess atge
Ġsil enci
ĠWik ipÃ¨dia
Ġfoss ils
ĠOccident ala
ocas ion
Ġconsom acion
avent ura
ĠgrÃ²ss a
Ġfara on
8 10
E P
l ad
r un
r landa
s es
end eman
Ġt un
il ica
Ġre ten
ĠP IB
ĠM u
ĠM Ã¨s
ĠM origuÃ¨t
ut Ã¨t
iss Ã¨m
Ġ19 05
iz antin
ass an
Ġau te
ex emple
Ġaqu era
Ġad vers
cl op
Ġca Ã§
Ġdarri Ã¨ras
Ġlong s
entre presa
orti r
Ġlib ert
Ġespanh Ã²u
Ġdet lo
Ġcaracteriz ada
Ġvir ar
install acion
Ġmecan ica
ĠpÃ²r tan
Ġvicti mas
ĠSoviet ica
Ġracon te
Ġdeh ens
Ġpersp ectiva
5 30
5 10
a e
f an
f iqu
l ai
Ï ģ
en au
es ques
er va
qu Ã©s
Ġt Ã²c
om ob
Ġun icament
Ġen es
ĠC ro
Ġg o
ĠS icÃŃ
ro ven
la Ã§a
ĠR ib
ĠG rÃł
Ġ19 84
ĠN ep
Ġven iÃ¡
Ġesc amp
Ġesc laus
est in
Ã¼ r
Ã²s c
Ġdom ina
ĠgovÃ¨rn s
Ġconsider ats
aud s
Ġeg ala
Ġdim ensions
Ġcort s
Ġaument acion
ĠÃĩ a
Ġacom encÃ¨ron
Ġmediev al
Ġdol or
Ġbibl iotÃ¨ca
Ġsep t
Ġcart as
Ġbur Ã¨u
Ġpropriet aris
ĠRog iÃ¨r
Ġconstell acion
5 70
O M
Å į
Ġc e
Ġm endre
Ġv inh
Ġen vir
us at
il ar
ĠA R
Ġre mar
Ġ1 55
ĠP or
ĠP oss
ĠP auc
Ġcon clus
ĠE u
ĠM unicip
ĠB ro
ĠB ess
ĠR u
ĠG all
Ġsu es
Ġcap ÃŃtol
ura da
ast ica
esc ad
Ġri re
aliz ats
Ġcomun istas
Ġconst at
ĠW ash
Ġag ost
emple ga
exp edicion
Ġev id
Ġcau let
ÃĴ me
ĠTh omas
Ġcamb is
Ġlic Ã©ncia
Ġfrequ ent
Ġprepar acion
rel h
ĠpÃ²s te
Ost au
ĠVic t
Ġdur Ã¨t
Ġregist res
ĠExist isson
ĠAten as
Ġdoct rina
9 10
f ranc
g ia
p in
x ic
Ġ os
Ġ 49
Ġd ar
Ġs ou
at t
ci es
re z
ĠL and
au te
ol ia
ĠC ic
ĠP Ã²
Ġcon cep
ĠLo c
Ġan at
ĠF au
ig Ã¨n
Ġ19 49
Ġ19 42
Ġ19 51
Ġtot alitat
Ġmas cles
Ã²b a
Ġrep ren
Ġman c
Ġsegu entas
ub a
Ġsos mar
tiv as
Ġdesc rich
Ġpla ca
Ġutiliz acion
ĠRo ja
Ġmi ei
Ġroman ica
Ġprof essors
Ã¨is as
Ġagric Ã²las
ĠXX I
ĠTra balh
Ġrestau rar
ĠrÃ¨g la
Ġprivil eg
isp ens
instru ment
Ġvig or
ĠRich ard
ĠGrÃł cias
ĠWash ington
' <|
0 20
0 25
0 18
0 15
0 36
0 76
0 74
0 34
0 38
4 68
a jar
r ins
Â º
Ġp ura
Ġc ran
Ã¨r es
il acion
Ġb ons
ĠP omp
ĠM od
ist ori
ĠB ai
iss en
ĠG il
Ġpro tagon
Ġ19 26
Ġ19 88
Ġ19 63
ĠI b
Ġra dio
Ġfin al
Ġprimi er
Ġpass ada
Ġvi atges
Ġtrans f
Ġcan on
Ġdesvolop ada
Ġprov Ã²ca
Ġsas ons
Ġag ra
Ġconc urr
ĠCon c
equ ilibri
Ġais it
rip cions
Ġprogra mas
Ġindustri al
anim als
ĠPrimi Ã¨ra
Ġmaqu inas
ĠMad rid
ĠOrient ala
Ġfac ultat
ĠRet rach
0 19
0 79
0 24
0 26
0 14
0 29
0 28
0 75
0 16
0 78
0 35
0 39
6 68
9 30
b es
b ourg
e k
i Ã¯
p o
Ġ orn
Ġ 44
en regist
Ġl una
te aux
Ġp esc
Ġs anc
ci l
Ġm inas
Ġla cs
ent rada
ra ire
Ġt ic
Ġn erv
Ġn Ã²rmas
el ab
ĠA par
ĠM ir
Ġ19 43
Ġ19 41
ĠN ic
ass ada
ras burg
Ġesc ritura
ĠH am
ĠDe v
ger ia
Ġfach s
Ġrepresent at
Ġrelig ions
Ġind o
ariÃ¡ s
Ġfavor able
ĠEsp anh
Ġpint uras
Ġsosten ir
ĠDel s
Ġcomerci ala
Ġvoc abulari
Ġquim ica
ĠRoman ia
Ġmusul man
Ġeng enh
Ġnucle ara
Ġprogress ivament
rup cion
Ġnar rat
Ã¯ss a
Ġimposs ible
Ġnotada ment
9 70
g ans
j i
v ill
Ġ ul
Ġl Ã¨is
ar bre
in ion
ra el
Ġf ant
au a
Ġn Ã²tas
ĠC le
ĠC our
Ġg ara
ĠS uÃ¨
Ġo c
et ics
Ġr endre
Ġr ug
ch at
ir ass
Ġdes emp
Ġ19 13
Ġ19 54
Ġpo Ã¨tas
ĠI tal
Ã¯ c
eu re
Ġau ia
Ġh Ã¨n
Ġab itat
Ġmar ins
Ã¨g as
Ġcar e
Ġra cion
Ġor izont
esc ol
ĠH ol
ib al
Ġrep aus
Ġcre ire
ric k
Ġsos terran
Ġsoci als
Ġpla ja
ej ada
Ġind ispens
Ġlat ina
Ġpag ament
Ġdic tat
Ġmarc ant
Ġcompl Ã¨t
Ġmondi al
duc acion
Ġdin amica
ĠAra gon
ĠmodÃ¨rn as
Ġpros p
Ġdescub Ã¨rta
Ġliqu id
Ġvicti ma
ĠOst al
Ġprovo quÃ¨t
A G
a er
c ourt
Ã ¬
Ġ text
Ġ âĢĻ
en cia
er e
Ġm Ã¨
ra m
it Ãłrias
Ġqu itar
Ġt omba
da va
ri citat
os ta
ĠA per
Ġb esti
ĠC u
Ã²r as
ur ats
la p
la ck
Ġj Ã²ga
ĠR us
ĠV is
Ã¯ t
Ġtra ject
Ġme dic
ec cions
Ã²t ges
Ġmar ci
Ġaut ent
Ġesc and
esc ala
Ġrec enta
Ã¨ss us
Ġrel ativa
ert o
ĠÃ Ģustria
Ġpoder osa
Ġco alicion
Ġdarri era
ĠIn ici
Ġbar ra
ĠMon tanha
Ġorganiz ar
Ġang l
inter vencion
ĠJos Ã¨p
Ġinc or
Ġproc Ã¨ssus
Ġreligi oses
Ġnaut as
Ġtransform acion
actu al
Ġsimil ara
Ġsort it
Ġperman ent
ĠGeor ges
Ġparall Ã¨l
ĠConf ederacion
Ġjur is
Ġdiscipl ina
Ġcompeti cion
ĠCIRD ÃĴC
. )
M ont
O Ã¨st
g et
s c
Ġs oma
qu im
un i
Ġb rÃ¨
Ġb rica
ĠS oma
ĠF ou
ab itat
Ġdes vol
Ġdes ira
Ġ19 34
Ġ19 77
ac s
Ġnom at
op Ã²rt
Ġpl u
Ġex periÃ©ncia
Ġmar ina
art ista
rop ri
est re
Ġter mi
ĠUn idas
Ġtr uf
Ġri gor
Ã¨ss a
ĠAn ton
Ã²rd res
Ġcapit ar
Ġconc Ã¨rt
ĠIn ternet
Ġref Ãºs
Ġfach as
Ġvis quÃ¨t
Ġrepresent acions
Ġdec or
Ġas c
Ġdint rÃ¨t
Ġexist Ã©ncia
Ġmol ins
Ġext ension
activ itats
Ġempleg ada
Ġregim e
install Ã¨t
Ġminor itat
Ġcontemporan Ã¨a
Ġgau lo
Ġmam ifÃ¨rs
Ġsat isf
Ġquar anta
Ġarrond issement
Ġromp edura
g h
i di
t res
x es
Å £
Ġ oss
Ġd ang
en e
Ġp ec
es ias
end rech
Ġs orn
ent raÃ¯n
Ġqu as
Ġt rip
ĠL Ã©
ri va
ol i
ĠP ed
ĠD uc
ur itat
ĠB arb
Ġdes l
Ġ19 25
Ġtra balha
op h
Ġpre d
Ġpart enÃ§a
Ġor den
ĠFran Ã§ois
Ġtrans icion
Ġsoci alista
Ġutiliz ant
Ġprov ocar
Ġdist ribu
Ġdist ribucion
Ġbar on
Ġmom ents
Ġpun ta
Ġgra matica
aques tas
Ġnav iri
Ġdisp oni
Ġmor ala
Ġpint re
Ġmanten ir
Ġprecis a
Ġempleg ats
ĠÃĴ c
Ġprec ÃŃs
ĠvÃ² tes
Ġescamb is
Ġestatsunid enca
ĠAls ace
Aqu itÃłnia
Ġestim ada
ww w
observ acion
Ġconeiss enÃ§as
Ġjosie va
8 68
A lex
C om
O ise
V al
e im
g el
s h
Ä ı
Å ¼
un ificacion
Ġt alament
gu Ã¨ri
Ġb enda
ĠS r
ĠS ir
ĠS eu
Ġcon d
ĠM Ã©
ĠM ons
ĠM ong
Ã© r
ut il
ĠB atalha
ÃŃ vol
Ġ19 24
Ġ19 56
00 3
ass e
Ġpre Ã¯st
na ise
Ġav en
oc ats
Ġlen gua
alh ar
Ġcar rat
Ġor don
ss es
65 6
Ġcol ons
Ġform ula
ĠCh amb
gon ha
Ġdis pausa
Ġat enh
ĠAr rib
Ġof ensiva
ber ica
ĠdivÃ¨rs eis
rÃł s
Ġmelh ors
acab ar
Ġestabl iments
Ġespaci s
Ġequip a
ectac les
AS A
Ġstat ion
ĠvidÃ¨ o
istoc rÃłcia
ĠEstudi Ã¨t
ĠSicÃŃ lia
0 10
E ducacion
S us
h in
n oc
Ġd ans
te ur
of ici
ic ar
ri qu
us es
el eg
ĠA guÃ¨t
ĠC ult
ĠE i
ĠM ira
ĠD a
Ġpar ca
ĠB arr
ĠF u
ĠF eb
ĠT ri
ĠT rib
Ã¨s ter
ĠN om
ĠN acions
00 1
Ġcomp res
og Ã¨u
Ġh or
Ġ18 30
Ġor din
esc rich
44 4
Ġsol ucions
45 3
teri e
ĠMar na
Ġdep endent
Ġad er
Ġcos m
Ġmod er
ish er
Ġdest ri
Ġnacion au
Ġliber acion
Ġinternacion alas
Ġvoc ala
ocup ar
ĠComp ren
Ġprecis ament
qÃ¼ ator
Ġsuf ra
Ġpobl acion
Ġmed isha
ĠSav oie
Ġjuri dic
Ġabsol uda
Ġtemptat iva
0 56
5 68
E C
l t
n o
p an
un itats
ent ut
Ġt im
ri das
Ġb er
Ġb las
ĠC in
ĠR ed
ĠT y
iv e
ab ol
Ġ19 59
00 7
ob ratge
Ġesp ir
Ġ18 90
Ġsol id
Ġch ival
Ġst re
Ġgrop e
Ġeth s
Ġara bis
Ġart ista
Ġprop osicion
Ġnomb r
Ġcontin ents
Ġciv il
Ġdeci dit
ĠAt lantic
Ġesper it
ix e
Ġcomunic acions
Ġcu irass
Ġpau re
Ġrend Ã¨tz
peri Ã©ncias
establ ir
Ġquin ze
Ġtomb ar
Ġata cas
Ġsimil ar
Ġmaxim ala
Ġefica Ã§
espand ÃŃs
ĠtÃ²r na
Ġconfer Ã©ncias
etn am
Ġimmedi at
ĠAntoni o
Ġadul tes
0 70
0 96
M adama
c Ã²n
j ac
n y
u le
an es
es i
Ġs atge
qu in
Ã² is
ent rion
Ġv Ã¨n
Ġre vol
Ġ1 20
Ġg av
ĠS ag
ins piracion
ĠP atz
Ġo is
ĠD ivÃ¨rs
ĠB aud
ĠR ef
ĠG re
Ġ19 29
ac Ã²m
Ġte x
Ġdi jÃ²us
Ã¯ da
ĠU ei
Ġcomp aras
Ġh om
59 4
Ġsos l
Ġob t
Ġqual que
Ġdom est
Ġcos ina
Ġemp er
egu ida
Ġloc au
Ġtrib Ãº
Ġtes tificat
ĠVen Ã¨cia
Ġbra ces
Ġdat an
ĠTe atre
ĠgrÃ¨ va
Ġdessenh s
Ġmusic ala
ĠpÃ²s ca
Ġresid Ã©ncia
ĠdesplaÃ§ ament
Ġtestim oni
lanta cion
Ġpret end
Ġmagnet ic
integ racion
ĠcÃ²st as
Ġrar ament
ĠNicol as
Ġdil uns
Ġsacri fici
0 86
A ub
I l
a ctor
l us
l oc
v ila
Ð ¸
Ġ âĤ¬
Ġs inc
Ġc ana
Ġm urs
un ya
Ã² via
Ġv re
Ġv Ã©der
el i
ĠS up
Ġin vasions
Ġ19 12
ĠN elli
Ġte orias
Ġar quitectura
Ġcont ar
Ġcar gas
ex erci
ip Ã¨la
ĠAl f
Ġpass ava
Ã²n ts
Ġlu enh
Ġam ai
Ġdo bl
Ġcor on
Ġsegu rament
tiv itat
aci d
ident itat
Ġaf ar
ific ats
Ġperson alitat
Ġco operacion
Ġsuc cediguÃ¨t
Ġer en
Ġvis ig
Ġpresent ava
Ġactu alas
Ġsab on
Ġint Ã¨rnas
Ġbast issa
aques tes
isti que
Ġindi g
Ġciv iliz
Ġfeb le
Ġdeci diguÃ¨ron
Ġ25 0
Ġdaiss Ã¨t
Ġdir Ã¨cta
Ġital ians
Ġdecis iu
Ġabandon at
Ġpriv ada
Ġorgan ismes
Ġnegoci ar
ĠmalautiÃ¡ s
Ġarres tat
ĠBi bl
ĠCer tan
Ġdedic at
Ġgig ant
Ġlitor al
ĠColl Ã¨gi
Ġflan c
0 30
9 68
A N
r ants
Ä ģ
Ë Ŀ
en ada
on f
of f
Ġc ra
Ġm Ã²da
cion aris
Ġper if
Ã© p
ĠD or
ch el
Ġsu us
ment acion
ac u
ac Ã²rdi
Ġent iÃ¨ra
Ã©n cer
Ġab C
Ġest on
Ġesc ap
ĠH itler
Ġmon g
Ġpol ÃŃcia
65 4
ing en
Ġk g
Ġsegu retat
esp andi
Ġperson al
Ġaques t
Ġja une
Ġposs e
aqu ia
Ġserv isson
Ġco dific
Ġpat ri
Ġparticul ars
Ġint rodu
ativ itat
ĠFranc esc
ĠCatal ans
ĠDempu ei
Ġtu ats
Ġsimb Ã²ls
Ġus at
Ġvin has
Ġcertan eis
Ġprev ista
Ġpau res
Ġaflu ents
actu alitat
ĠPrimi Ã¨r
ĠveÃ¯cul s
Ġeduc acion
ĠMinist re
ĠdrÃ²l les
inv esti
Ġcen cha
ĠmÃ²st ran
ĠcÃ²m te
Äı Å¼
' .<|
E E
k in
v ari
en on
Ġl Ã¯
Ġa z
Ġc ru
Ġc ou
Ġm ia
Ġqu ate
ĠL ang
Ġv Ã²stra
Ġn sol
ol o
ol in
ĠP ri
ĠP ale
ant o
et ar
Ġal ent
Ġr ics
ut h
ĠD al
ĠD ia
ĠD ani
ĠR ab
ig Ã©s
Ġ19 22
ĠV aquÃŃ
ass ar
Ġ20 15
ĠO u
Ġsitu acions
ĠQu an
59 6
69 4
Ġne b
65 8
48 5
Ġcre i
Ġcor ta
Ġcomun ica
Ġro t
Ġrev isc
Ġconc Ã¨rts
Ġexp ansion
Ġdemor at
rim Ã²ni
isti guÃ¨t
Ġais idament
Ġtrop a
Ġmo tiv
ĠlingÃ¼ istas
Ġcultur als
Ġobten gut
ĠLu xemb
Ġnatura u
Ġrespons abilitat
Ġorient alas
Ġpref ectura
ĠprovenÃ§ al
Ġciutad an
Ġasp Ã¨ctes
Ġseg le
Ġegip cian
Ġatac ar
ĠChamp agne
Ġoct obre
ĠSoviet ics
Ġmarit ima
ĠClau di
Ġeta pa
0 54
0 84
0 94
A C
P S
l Ãłndia
r um
z acion
Ð µ
Ġd ret
Ġp eis
Ġa ctritz
Ġa eriana
Ġs sa
er y
it uras
Ġt h
Ġt in
Ġen quia
Ġre ag
Ġre duccion
ĠC el
le v
ti ers
ul ada
Ġo x
Ãł ment
ĠB izant
ĠLa b
iv ern
Ġdes ena
ĠG aud
Ġpro paus
Ġpr at
Ġ19 37
Ġ19 53
ĠEn t
Ġsi u
Ġfa ctor
Ġh u
ĠO cup
Ġesc riu
est ran
Ġgran jas
ard ia
69 6
69 9
Ġtr ent
Ġrep art
Ġmunicip al
ĠCom itat
Ġass emblada
ev esque
Ġpopul aras
Ġro c
Ġtrans cripcion
Ġpublic ats
Ġ15 00
Ġpens ava
Ġcontunh Ã¨t
Ġnatur alament
Ġtradicion alament
Ġpor tava
Ġpos itiu
Ġestabl ida
Ġadop tÃ¨t
ĠTe od
ĠGener al
Ġpobl ada
Ġmusul mana
Ġenviron at
Ġprotest ant
Ġnumer ica
Ġprigond or
ĠWik im
Ġperme tiÃ¡
ĠNorm andie
Ġproduc cions
ĠDep artament
Ġgalax ias
ĠBizant ins
e vol
f Ã¨ra
l ats
Ã ī
on st
te au
Ġp ira
Ġa ig
an Ã¨t
Ġs Ã²rt
of ensiva
ar an
is as
ic k
Ġt Ã¨si
Ġn ord
Ġn ÃŃvol
ĠS m
ĠS om
Ã© m
Ġson ada
et on
Ġr itu
ch en
Ġpar at
av italh
Ġ19 38
Ġ19 55
Ġ19 07
ĠV illa
ici cle
Ġpo iri
ĠN az
ĠN ASA
Ġar ist
de ish
em in
ag o
Ġh er
Ġmar cha
Ġrep roduccion
Ġma gaz
int roduccion
ill as
Ġdo Ã§a
aliz a
aliz adas
man n
Ġad m
Ġleg endas
Ġval enci
Ġum or
Ġrealiz adas
Ġcad enas
Ġnav ala
Ġdic cionaris
Ã³n her
Ġcontrar Ã²t
ĠCol le
Ġquarti er
ĠMart ÃŃ
ĠGener ala
Ġabandon ar
Ġparlament Ãłria
Ġmain ats
Ġmecan isme
ĠpÃ²s tes
Ġassai Ã¨ron
ĠlanÃ§ ar
Ġran donn
ĠcomplÃ¨x e
Ġcontemporan Ã¨us
Ġauton Ã²m
Ġcomand ant
ĠInternacion ala
Ġquat ren
ĠPen insula
Ġcrom par
Ġrepert Ã²ri
fiqu en
f el
o cean
t ant
Ġ 36
Ġc Ã¨r
Ġc ai
ar isme
Ġla ter
Ġf Ã¨stas
am o
Ġn es
Ġn ascuda
us h
el ement
Ġb Ã²n
Ġb aia
Ġcom m
Ġr Ã²
ir ar
ĠF ot
ĠF land
av esque
Ġ19 11
Ġpo esias
00 2
Ġtra u
Ġsa un
Ġres ult
Ġcons ol
od Ã²
ex ans
Ġrec ent
ib Ã¨rt
ĠCh in
ĠCh art
lu Ã²c
olog icament
esp anh
Ġdom inat
Ġpla cas
Ġgrop es
Ġemp res
Ġfil s
Ġmen adas
Ġexp lic
ret as
Ġpresent at
Ġcast Ã¨u
ĠFranc s
Ġconqu istas
Ġfavor izar
Ġmont s
Ġponch s
Ġdub Ã¨rt
Ġcresti an
Ġaument ar
Ġadop tada
ĠÃĴ r
Ġpresid Ã©ncia
Ġfru ches
Ġcollec tiva
ĠEr n
ĠGra m
ĠLib er
ĠGer man
Ġfol cl
Ġescamb i
Ġbearn Ã©s
Ġbaiss a
Ġreda ccion
Ġdiri giguÃ¨t
aucup acion
c omp
f i
g l
g al
r ors
Ġ 85
Ġl ect
te st
Ġp Ã¯
Ġc rÃ¨
or tacions
om ica
Ġb uta
ĠC oss
ĠC Ã²n
ant h
âĢ ĵ
Ġr Ã²cas
Ġpar e
ot t
di ans
ÃŃ cias
av Ã³
Ġ19 31
Ġpo etica
Ġar riu
Ġcomp rom
Ġ18 50
Ġdon an
od in
Ġdem ission
69 7
oss a
45 8
ou v
Ġdo ctor
ros ament
Ġdire ctament
Ġvol er
Ġst res
Ġdom Ã¨ni
Ġtrob a
Ġmete or
Ġco re
Ġcr Ã©isser
Ġinf in
aur ent
Ġliber at
ĠÃĪ ran
Ġestabl ir
Ġmass as
Ġsuperi ors
ĠDem est
Ġfigu ras
Ġcomple ta
Ġdra p
Ġadap tat
Ġsobei rans
âĢĿ .<|
ĠCamb ra
Ġcinqu anta
americ an
Ġevol u
ĠLet ras
Ġcic l
Ġaga ch
esn ois
acad Ã¨mia
1 21
2 21
A ugu
F ran
j or
s eg
y er
z er
Ã ´
Ġa ic
Ã¨ its
Ã¨ van
Ġs aut
Ġc ov
Ġc ants
er os
in al
Ġm u
ra in
Ġf ert
Ġv endre
am e
gu i
ĠA th
Ġcom itat
ti Ã¨rs
ĠE p
im s
ĠM ant
Ġr aras
Ġan terior
ens as
ĠR i
ĠG aul
Ã¨s te
ĠV ath
iÃ¡ s
Ġent au
Ġcap Ã¨la
Ġli uras
Ġpre tz
ida e
Ġmar rit
ĠQu atre
Ã²l is
65 5
Ġplan as
45 5
Ġfranc s
Ġtres aur
Ġdesc riu
Ġon cle
ĠIn stitut
Ġvis it
Ġresp ondre
ĠTol on
Ġlig a
Ġnatur als
Ġtre b
Ġarrib at
Ġblan cas
Ġdich s
Ġalemand as
arqu itÃ¨cte
ĠtÃŃtol s
Ġbritan ics
Ġviol onc
Ġmateri aus
Ġconselh iÃ¨r
Ġparla va
Ġcros ats
Ġfrequ Ã©ncia
install ar
Ġapare guÃ¨ron
Ġden om
ĠDon cas
organ isme
Ġsobeiran etat
Ġcolom nas
Ġcollectiv itats
environ ament
Ġconflu isson
Ġrecer ca
ĠNas quÃ¨t
interpre tacion
4 66
c Ã¨t
c Ã²l
p at
r ent
Ġ +
Ġ uc
Ġs ir
at j
in vent
Ġm Ã¨stres
al u
Ġes tet
Ġn ol
gu s
gu Ã©s
Ġb uf
Ġcom ission
ti que
ĠM osc
ul ui
Ġr enaissenÃ§a
Ġpar ad
ap lica
ĠB abil
Ġan Ã¨t
ĠR ap
Ġin con
ma in
Ġcap abla
Ġtra m
og ia
Ġres tac
em ergÃ©ncia
Ġparti ment
Ġ18 80
Ġ18 48
Ġcar ris
esc riu
44 8
od at
89 5
ex istÃŃs
45 6
Ã²n is
Ġconst ruccions
Ġrev Ã²lta
Ġca f
Ġag rada
Ġens aj
Ġsub jÃ¨ctes
exp lica
ingÃ¼ istica
Ġrecon eguda
ĠAv esnois
Ġfis ic
Ġinternacion alament
ÃĴ r
Ġcrit Ã¨ris
Ġbra ve
Ġcombat ents
Ġmarid ar
Ġcost uma
ĠSer Ãł
Ġdeclar Ã¨t
Ġamass ada
ĠbÃ¨l ga
Ġperman enta
Ġcateg orias
Ġmad eish
ĠNeg ra
Ġtesti fiquen
Ġcenten ats
ĠTom Ãłs
ĠpluÃ¨ ja
Ġeb rieu
ĠSuc cediguÃ¨t
Ġrevira das
afond rament
ĠenqÃ¼ Ã¨ra
Ġsept entrion
0 68
A M
A d
I C
b ra
d au
e das
i i
v ador
end issatge
al ianÃ§a
Ã² ure
ĠL am
Ġv Ã²st
ol is
ro ch
ti ble
im atges
ĠM it
Ã© isher
et re
ch u
ĠB oss
ala va
ĠR em
ĠF l
id ats
Ġ19 28
tan h
Ġpo ir
and e
ĠI EO
Ġap ondre
ĠEs per
Ġsi tes
Ġav ia
Ġmar rida
Ã³ isser
Ġimp lant
Ġ18 91
59 3
69 3
Ġne er
65 3
48 6
ven ir
Ġcan ad
ord in
Ġresp ectivament
ej aire
Ġorganiz acions
ĠpaÃ¯s atge
Ġindi ana
ĠCatal unya
Ġterr Ã¨stres
Ġinc omp
Ġpremier ei
ĠTr ÃŃpol
Ġacab Ã¨t
Ġprev ei
Ġaument Ã¨t
Ġcanta ira
Ġenviron ament
ĠGal il
ĠOl iv
Ġcapaci tats
Ġcompet Ã©ncia
ĠConstantin Ã²ple
esca is
Ġremarc ar
Ġtemptat ivas
Ġchif ras
Ġgeomet ria
ĠFrancis co
ĠrevÃ² utas
O fici
b ona
n ascut
w an
z at
Ġ ×
Ġ Ã©
Ġ ilh
at ia
re ta
al fabet
Ġv ib
Ġn is
el ev
Ġdel im
ĠA cad
ĠP apa
ul tan
ada ment
ĠD un
ap as
Ġan ava
Ġan alis
ÃŃ der
ĠR io
ĠF ol
Ġpro to
Ġtra Ã§as
Ġtra dus
imp ression
Ġme me
Ġaut oct
Ã¨c res
est ina
50 9
60 8
ex ili
40 4
40 9
ed it
48 4
ne y
ĠCom m
Ġvi us
Ġcal iÃ¡
Ġcapit a
Ã²s te
Ġmod ul
Ġver teb
Ġsub t
arg ar
ĠMa ine
Ġagu esta
Ġve itura
Ġprodu ctor
Ġprepaus Ã¨t
ĠMe decina
Ġcin emat
Ġbl oc
Ġcrit icas
ĠReg im
Ġacab ada
Ġpet ita
Ġpot enci
Ġsau v
Ġelect rica
Ġdus au
Ġtele fon
Ġdiss ol
Ġbe utat
Ġorgan isme
ocrat ica
Ġdeclar acion
Ġinteg rat
ĠMes opotam
Ġinteress ant
idar itat
Ġmic ro
Mar na
Ġvas ta
ĠMinist Ã¨ri
Ġegipci ana
Ġvide oj
ĠOlimp ics
ĠGeorg ia
ĠPeit ieus
Ġdispos itiu
Ġtraject Ã²ria
Ġciviliz acions
E x
N ES
l ong
u fa
w ard
Ġ 88
Ġp ist
at aca
al em
al ien
Ġt ap
gu Ã¨
gu ai
ta in
ĠA ran
ĠA ur
ĠM alh
Ġr encont
ĠD am
ĠD im
ad eria
Ġpar lada
ĠB ell
ens ivas
ĠR af
ĠT ant
Ġ19 06
Ġsu ici
ĠJ aur
Ġcont ribucion
Ġtot au
Ġab st
Ġab ril
ida cion
50 5
Ġu Ã¨it
44 9
89 4
89 9
Ġrec lam
40 5
Ġcre iss
ĠCom te
Ġrel ief
ren Ã§
Ġele v
Ġad re
Ġad vÃ¨rs
Ġmete isses
Ġrd re
Ġcr isti
Ġart icul
Ġconstitu issi
ĠtÃ¨r Ã§
Ġten on
Ġarrib Ã¨ron
Ar mada
Ġcir const
Ġvend a
Ġnum eric
ĠprÃ²p ris
Ġsau pre
Ġparte jat
Ġpresid ents
Ġquant itats
Ġquin z
ĠJoh ann
Ġcatol ic
Ġcatol ics
Ġfran ci
ĠCros ats
Ġfilm s
Ġsubst Ãłncia
Ġjus tific
Ġcapt urat
Ġscientif icas
Ġrescont re
Ġpreced ents
Ġlun ar
Ġdifici l
asp Ã¨cte
Ġborges iÃ¡
osau res
Ãºst ria
) :
O c
i bre
o od
p t
s u
u il
u als
v eire
Ã įndia
Ġ Ã¨r
en z
Ġs Ã²m
ar istocrÃłcia
al ia
Ġf al
it ima
ĠL on
ĠL em
Ġes fÃ²rÃ§
Ġn cias
el in
Ġg or
ĠS et
ĠS NC
ĠP ra
ut or
ĠD ar
di u
Ġj ac
ĠR Ã²se
ĠF ern
Ã¡ s
ĠJ au
og l
Ġh Ã²rt
Ġh usta
Ã¨g is
Ġest ud
Ġ18 40
Ġra ion
50 4
50 8
Ġor ala
60 5
60 9
80 8
80 9
59 1
40 6
Ġoccitan istas
45 4
48 8
Ġmes urar
Ġvi rada
ĠK en
ĠK han
Ġele i
Ġass ist
Ġpopul ars
ier as
Ġcapit an
Ġprod utz
Ġpla Ã§as
Ġver da
Ġgl Ã²b
Ġof r
Ġco er
ĠIn t
Ġens ajar
Ġdev iÃ¡n
riÃ¡ n
ĠcomenÃ§ at
Ġmant uas
Ġart istic
ĠRo y
Ġsab Ã¨m
Ġsimp l
Ġsimp les
Ġsec rÃ¨t
Ġaj ust
eish en
urb an
pl omb
Ġsosten gut
Ġveg ada
Ġabandon ada
Ġdeves ida
Ġpopular itat
Ġarb it
cta v
ĠdesplaÃ§ ar
Ġpros per
ĠComun autat
ĠCant al
ĠPla Ã§a
Ġdej Ã³s
leu ve
Ġmarch ands
Ġtesti fica
Ġmediterran Ã¨u
ĠParticip Ã¨t
ĠrenfÃ²r Ã§ar
ĠTrenc avel
a xe
l atge
u alas
v etz
Î µ
Ï ĥ
es tes
Ġc Ã¨rt
Ġf at
Ġf antas
ic alas
am assa
Ġn ost
Ġn ais
ĠM Ã²rt
ot h
Ġ19 35
Ġ19 08
ac um
art icles
44 6
80 5
59 7
69 1
89 6
89 8
int ura
ĠCh ap
Ġch uc
Ġcaus ar
Ġfam osas
Ġvi Ã¨lhs
Ġdef ug
Ġob s
Ġat mosfÃ¨ra
ĠGu in
Ġaf ront
Ġtrob am
Ġmen at
Ġrealiz ats
Ġfl am
Ġfas as
Ġfi al
inat or
Ġve ituras
Ġpos terior
Ġprepaus at
Ġameric ans
Ġsin ta
Ġtal ent
Ġconserv acion
Ġdet alhs
Ġbritan icas
Ġrespons ables
Ġbalh Ã¨t
Ġdesign at
Ġmilit ant
Ġelect ric
Ġjut jament
ox id
Ġmusic al
Ġobserv ar
Ġmain atge
Ġdesapar egut
Ġlegislat ivas
Ġestatsunid enc
Ġinterpre tacion
Ġdedic ada
Ġcirc ons
Ġcot on
Ġmir alh
ĠDic cionari
Ġpent ru
ĠvÃ¨s pre
ĠGaul le
ĠMesopotam ia
' ,
c f
e iss
s as
u tada
y r
Ï Ħ
Ġ it
Ġ 33
Ġl ir
Ġm osa
Ġla va
or f
or om
Ġf ederacion
ri ment
Ġb os
ro it
ĠP ubl
Ġcon cili
ĠM c
Ġo d
Ġo v
Ġr Ã²ca
ĠD rech
ad uras
Ġpar as
Ġpas tor
ĠB asses
ot o
ĠR ay
ĠF as
ĠT Ã¨r
ĠG abri
Ġin tra
Ġ19 57
ĠN atur
Ġtra ch
Ġcomp at
Ġpre dic
50 6
60 4
Ġdon ant
ex emp
Ġrec ents
Ġtr enc
Ġrep eti
Ġpol ici
Ġpol em
Ġbas ca
48 3
Ġmil iÃ¨rs
esti m
Ã²st s
Ġlim ita
Ġsuc ced
cis me
Ġvis ibla
ure ccion
lat ion
Ġren onci
ĠVal Ã©ncia
Ġsec cions
Ġprepaus ar
ĠCatal ana
Ġsent ir
Ġadminist racion
Ġparte ja
Ġbat alh
Ġcav als
Ġapert eni
Ġacom enÃ§
ĠPel s
Ġavent ura
Ġperf eccion
cles i
reu x
ĠsÃ² cis
Ġacompanh at
Ġestend uda
Ġprigonda ment
Ġtribun al
Ġparci alament
Ġdivid it
exec ucion
Ġot ÃŃs
Ġguitar ra
Ġdiscuss ion
Ġlibert ats
Ġenvir ons
ĠLuxemb org
L os
T h
j ol
n on
Ġ 99
Ġde tz
an y
er Ãł
re a
Ġe ca
Ã¨t i
ol esc
ĠA is
Ġre mira
ĠS tan
ĠE le
Ġo u
ion e
ch ev
la b
ĠB orb
ĠF ederacion
Ġin nov
ge y
orn a
Ġent itat
ass ion
Ã¯ ca
Ġtra cha
Ġaquel eis
Ġpres s
Ġab itacions
Ġesp or
oc antas
ĠcÃ² l
Ġimp lic
Ġesc ala
60 6
80 6
49 8
49 9
ĠAn at
65 7
ilh ariÃ¡
ĠCh ab
ep res
olog ie
par ta
Ġconf ondre
Ġutiliz an
Ġconsid Ã¨ran
Ġcr isis
Ġexp rim
Ġexp ression
Ġexp los
Ġmant Ã©ner
Ġno iri
Ġconsider able
Ġbar re
Ġves on
Ġarrib an
ĠCons erv
isi ologia
Ġistor icament
Ġmat Ã¨rias
ĠVi etnam
Ġpract icament
Ġdomin anta
Ġcoll Ã²qui
Ġacc Ã¨s
ĠCan al
Ġbalh at
Ġjut ges
En ric
Ġfut ura
Ġmodific acions
ĠJul i
ĠVic tor
ĠreÃ¼n ion
Ġfortific acions
Ġbot an
Ġindepend ents
Ġreconst ru
Ġestend ut
Ġabsol ut
ĠClau de
Ġdiu ers
ĠbÃ¨s tias
Ġnaz i
Emp eraire
Ġvescom te
Ġrespect ar
Ġdecenn i
Ġcrat Ã¨r
Ġencarg at
empach ar
d ura
e it
i Ã³s
l oss
l lia
r Ã²c
Ġd ou
Ġde riva
on es
Ġa ire
Ã¨ des
ar de
at ori
is ter
Ġlo a
Ġf ina
Ġf leuve
Ġn autres
ĠA ri
Ġb assas
Ġal l
ĠB elle
Ġan teriora
Ġpr ol
Ġ19 16
Ġ19 27
ĠV Ã¨n
ĠN am
ĠN Ã²stra
ĠI t
aut ors
Ġpel lic
ost als
alh ors
Ġcar re
bre mb
ĠH al
Ġdon ava
80 4
49 5
45 1
int ens
Ġform acions
ilh at
Ġdesc riure
Ġsoci au
Ġer ror
ret ze
mes es
Ġba il
estat ua
Ġtradicion als
Ġdint ra
Ġle on
Ġle ctor
Ġvall on
Ġparticular itat
Ġfond ar
Ġdeban arÃł
rem ont
Ġestabl iment
Ġemb le
arrib a
Ġesqu ich
Ġcomerci alas
Ġquim ic
Ġescrich as
Ġoccident al
Ġunivers itats
Ġgovern ament
Ġmit ans
Ġdefinit iu
ĠSi ria
Ġjapon esa
Ã¨mi as
ĠTur quia
ĠconcÃ¨p tes
ĠavanÃ§ ada
Ġmaxim um
Ġgrav itacion
Ġargent in
Ġfacil itar
Ġproble ma
Ġreven ge
Î¿ ÏĤ
ĠCop a
Ġsequ Ã©ncia
ĠGÃł llia
Ġefec tius
ĠApol lo
Ġnue ch
Ġpartenari at
ĠtÃ²c at
2 23
3 21
F A
b iliz
d its
f ord
h r
m ina
u y
u gas
v era
Ñ Ģ
Ġ Ã²rdres
Ġd Ã¨u
en qu
Ġl emosin
te a
Ġp av
end i
Ã² dis
is at
Ġcom eta
Ãł isser
Ġpar gue
ĠB os
ct ica
ct itud
20 07
Ġin ten
ici ana
ass emblada
Ġpl uma
ĠO pausÃ¨t
Ġcar din
Ġesc ri
Ġcons ist
Ã²l h
Ġrec ampa
40 8
Ġrep legar
Ġsol ara
65 1
Ġprin c
Ġsens e
Ġtemps es
Ġad ult
Ġconst anta
Ġmus icas
Ġinter pret
Ġcos in
Ġel lip
Ġmet Ã¨t
Ġperi od
Ġpublic acions
Ġespeci al
Ġmi Ã¨ja
Ġten nis
Ġef iÃ¨ch
Ġtre bol
Ġcambi at
Ġost au
eau x
Ġprodu ire
Ġge ografia
Ġenter rat
Ġconten on
Ġcost umas
duc cions
Ġmost rÃ¨t
Ġrevolucion ari
Ġequip as
Ġobserv acions
Ġoblig atÃ²ri
ĠDom in
ĠMari e
Ġportugu esa
Ġfront al
Ġcement Ã¨ri
ĠbÃ¨s tia
ĠBourg ogne
Ġdescend ents
Ġinspir at
Ġvess ant
ĠAR N
ĠPoss ed
avitalh ament
ĠSNC F
A st
A ust
D enis
U E
o ut
s en
s Ã¨gle
Ġ 56
Ġde guda
Ġp ion
Ġs Ã¨rra
ĠL ista
Ġen j
Ġn ion
Ġn af
ant ic
Ġr ena
ĠD int
Ãł m
ap ond
ĠR ad
ct ar
ter re
ĠG rop
Ġpr Ã¨mis
ac amp
me d
Ã¨rs as
em ission
Ġab it
ĠO cean
Ġ18 66
les es
Ġra is
Ġcons ul
Ġor gans
ĠH istoire
ard ins
Ġcam ba
40 7
49 6
Ġmunicip i
Ġsol ide
65 2
Ġcre m
Ġcre ish
Ġch imp
ric e
Ġman dada
Ġcent enat
Ġcor rupcion
ĠFran k
esp el
Ġaf ect
ital ian
Ġtrabalh an
gi o
Ġcontra cte
Ġvis ible
Ġpren ent
Ġactu als
ĠRe ich
Ġbast issas
Ġindi an
ĠlingÃ¼ ista
Ġsosten guda
ĠpÃ¨r dre
Ġcros ta
Ġjut ge
Ġident itat
Ġmusic au
Ġconstitucion al
Ġminor itats
Ġmodific ar
Ġmalais ada
Ġopaus at
ĠSov ent
Ġproced iment
ĠInternacion al
Ġmonast Ã¨ri
ĠMiqu Ã¨u
ĠCalif at
ĠresÃ¨r va
ĠMic ha
Ġfotograf ias
Ġauc Ã¨ls
ĠtÃ²cat ocantas
1 33
D e
c re
s te
® n
Ġ iras
Ġd orm
Ġl ent
Ġp enda
Ġc ans
Ġc ents
at as
at ra
Ġm ilh
al o
Ġv als
Ġre ci
Ġb icicle
ĠS ur
ĠS ara
ĠS Ã¨m
Ġson da
ĠD ire
st in
la y
ĠF eder
ĠT emple
ac as
Ġap p
ari at
ond uda
ag ar
Ġentre presa
Ġac tius
Ġaut onomia
Ġest amp
Ġ18 68
Ġfin au
Ã¨ss en
48 7
Ġcaus ada
gan istan
aliz Ã¨t
ĠW al
Ġgr Ã¨gas
Ġdeb it
Ġleg end
Ġlim itats
Ġnacion alisme
Ġrepresent ada
Ġconsider adas
af ar
Ġren om
Ġfoncion aris
oni ers
Al b
Ġfus ada
Ġcant ons
Ġcat ast
Ġsent iments
Ġprim ari
Ġquarti Ã¨rs
Ġcomerci aus
ines as
ĠPol it
Ġbat alhas
Ġpossed isson
ĠComp anh
Ġvir us
Ġcomple x
Ġden onci
ĠGr Ã¨cs
Ġcell ula
gul ara
ĠAgu est
Ġip otÃ¨si
ĠCapit Ã²li
ĠMac ed
ĠÃ¨ uros
Ġram aderia
arres tar
ĠFab re
atac ar
ĠRiv er
ĠProvÃŃn cia
explor acion
Ġdign itat
Ã³r rer
Ġcomparas on
ĠJaur Ã©s
ĠVÃ¨n us
" ),
1 23
2 27
I S
O ng
a ter
b res
v Ã¨r
Ġ isser
Ġp omp
Ġc Ã¯
in cl
Ġv ul
Ġv ern
Ġen gan
gu ec
Ã¨r va
us cul
Ġdel ic
ol as
Ġ1 56
ĠS ha
ro y
ĠP ent
ĠM ala
et o
ĠD in
ĠD ie
Ġpar am
di re
ĠF lam
id rogÃ¨n
ĠG a
ge ois
Ġ19 23
Ġ19 03
ĠV as
Ġpo irÃł
Ġte matica
Ġcap itat
ass assinat
Ġar quitect
Ġpres es
Ġav esque
Ġ18 76
Ġra ment
ĠQ ing
50 3
esc laus
Ġpu Ã¨g
Ġpa is
89 7
ss e
49 4
fer ica
45 7
aquel Ãł
Ġch al
pul sion
Ġro ges
Ġcas a
ĠGu y
aci ds
Ġinter Ã©s
Ġliter aris
Ġrecon o
ĠMon te
Ġtradicion au
Ġorganiz a
Ġorganiz ats
Ġtecn ologias
Ġparticip a
Ġext rÃ¨m
Ġindi ans
Ġjog at
Ġbl ind
Ġem ig
ĠGrand s
ĠprÃ²p rias
urg ia
iste ix
Ġban l
Ġdefinit iva
Ġcaval ariÃ¡
ĠprovenÃ§ ala
Ġeiss its
Ġgrav itat
ĠHen ry
Ġjuri dica
Ġanonci Ã¨t
ĠDan em
Ġparis enc
Ġreiau mes
UR SS
ĠtelescÃ²p i
ĠSuÃ¨ cia
Ġemper aires
1 27
U c
g ran
n ar
p os
p ols
r dia
s ter
Ġ 34
Ġ 32
Ġd Ã¨
en em
Ġc la
Ġc Ã¨rta
Ġm ist
Ġm ud
Ġm istral
un ivers
it ans
Ġun if
ri Ã¨rs
ri fic
ta ire
Ġb is
Ġg olf
ĠS ob
ai x
et t
Ġal t
Ġal as
ĠB las
ĠB az
ĠLa v
Ġ19 52
ĠN aut
Ġent rÃ²
Ġcomp lic
aut onomia
Ġres um
Ġres Ã²l
Ġesp Ã²rt
Ġreg ent
Ġcons ens
50 7
Ġu Ã²us
59 2
69 2
40 3
ĠDe f
ĠÂ» ).<|
Ġcre is
ĠCh r
Ġdiv essa
esp ectacle
Ġvol Ã¨tz
Ġconf orm
54 3
54 7
enÃ§ ament
Ġer Ã¡
Ġespeci ala
Ġmajor as
ĠZ h
Ġtecn ic
ĠPu Ã¨g
acab Ã¨ron
Ġdob Ã¨rta
Ġfis icas
Ġ7 00
Ġtor res
ĠlingÃ¼ isticas
Ġnecess aris
Ġmondi au
Ġnaut ors
Ġmer av
Ġpot z
Ġespaci al
Ġviol on
ĠNacion au
Ġfot ografia
ĠprÃ² ches
Ġaument a
ĠSo Ã¯ssa
ĠAra bis
Ġcontun iar
ĠSer iÃ¡
Ġgar an
acc ent
Ġmul ti
Ġpref aci
ext ension
Ġtalh iÃ¨r
ĠÃĩ aquelÃł
Ass ociacion
Ġvolcan ica
Ġexc ell
Ġcontribu cions
ĠOn g
Ġconsac rat
ĠÃ§ o
ĠPich ona
Ġafric an
ĠCapit Ã¨t
Ġperm Ã©s
Ġmars elh
ĠOb ten
icis me
oper acions
Ġexclus ivament
Ġrepublic an
Ġvore jat
Ġfic cion
Ġbac teri
esten al
Ġrecom anda
ĠCatol ica
ĠNep t
Ġindo europ
ĠFeb us
ĠBabil Ã²nia
ĠDanem arc
% .<|
' "
8 66
c ut
r Ã¯
v ing
Ø §
Ġ ic
Ġ ign
Ġa Ã§Ã²
Ġs av
Ġm ina
ra ments
it t
Ġt ien
Ġv ign
ĠA h
ĠC arri
Ġg otic
ĠS ala
ĠS ib
ins pir
Ã© g
Ãł via
ĠF ay
Ġpro j
Ġpro ject
Ġpr end
Ġpr Ã©ner
Ġ19 04
ac ta
Ġent raÃ¯na
eu il
ĠEs qu
oc al
Ġmar ges
Ġac us
Ġac ost
Ġreg iment
Ġparti guÃ¨t
Ġ18 78
Ġ18 88
Ġ18 94
Ġser ada
60 3
60 7
ĠH omo
44 3
elh as
80 7
Ġfin anÃ§as
89 3
ĠAn ci
Ġto ur
Ġcomun s
Ġass im
Ġass ass
Ġdef un
Ġfor Ã§ada
58 4
58 6
Ġqual itats
Ġaf irm
Ġcan ons
egu r
Ġvis itar
Ġ4 7
Ġcompaus an
arn acion
ĠcÃ²r da
Ġsign ificacion
Ġmov iment
Ġint rodus
inf lu
Ġfoncion ar
Ġvic epres
Ġarrib ada
Ġvari ats
Ġlimit adas
Ġparticip at
Ġdescob Ã¨rtas
ind ica
Ġciv ilas
tim ologia
Ġmand ats
Ġterr Ã¨stras
Ġorigin au
Ġperd uda
Ġquim ics
ĠpÃ²rt s
Ġpresid enta
ĠBas tida
Ġsigu eren
ĠlÃ²n ga
ĠmiÃ¨g jorn
Ġvenc eires
rof ich
Ġfug ir
Ġracon tes
Ġaprofich Ã¨t
ĠMiqu Ã¨l
ĠPlat on
Ġespandi da
ĠOtom an
elab oracion
5 66
E v
L as
V i
c amin
e ja
Â ´
Ã ¹
Ġ ond
Ġ ille
Ġde ts
on ada
Ġp iren
Ã¨ iras
Ġs anta
Ġc uÃ¨
er d
in u
al in
or o
Ġqu ala
Ġqu Ã¯
Ġt ria
ĠL l
Ġes tiu
ri ge
Ġre Ã¯n
Ġb Ã¨las
Ġb otar
ĠC ou
Ġg at
ĠS ta
Ġmai tes
ĠR el
ab a
Ġin teriora
Ġsu pausa
ici t
me te
and as
eu f
ĠU l
ob a
aut it
Ġpres oniers
Ġac or
Ġac arn
ĠO t
Ġ18 67
Ġpu Ã²i
80 3
ex cepcion
Ġtemp les
Ġne ol
ĠAn autita
Ġpol im
Ġpass atges
Ġto ti
Ġenc reu
Ġdiv endres
ier at
Ġat Ã²ms
Ġmete issas
Ġef Ã¨it
avant atge
inh ar
Ġge ografica
Ġvict ori
Ġdim ars
Ġdemand as
iÃ¨ re
Ġprogra m
to ine
Ġdub Ã¨rta
Ġsau p
Ġempleg ar
Ġvaria das
ĠpoiriÃ¡ n
Ġliura ment
Ġpreced enta
Ġperc ors
Ġprivil Ã¨gis
Ġestrangi Ã¨rs
Ġderiv at
Ġengat jament
Ġchar te
Ġregard ant
aliment acion
Ġgasc ona
Ġbizant ina
Ġbrasil iÃ¨r
ĠCerc le
Ġaucup acion
franc Ã©s
Ġdenom inacion
9 66
O cean
c or
Ġ ondas
en adas
te ti
te la
an ava
ar et
Ġm ie
Ã² re
Ġf Ã²nts
Ġqu art
au e
Ġes quel
Ġv ot
Ġen ro
am ina
el as
ĠC alais
ĠC ate
ĠP equ
ĠM euse
ch et
Ġpar o
Ġpar rÃ²
ĠB assa
ĠF ront
ter s
ac tes
ov a
ĠN Ã²stre
ĠI eu
op inion
Ġfa una
Ġex puls
ag net
Ġh ra
ĠQu in
ult ors
Ġri bas
48 1
48 2
Ġpass ats
Ġlu chas
Ġam ino
Ġcomun itats
Ġsegu isson
Ġqui as
Ġdesvolop a
ĠCar l
Ġdeb ats
Ġbasti guÃ¨t
ĠRo an
An cian
Ġmot ors
Ġdefin ida
Ġcomb inason
eri es
Ġactiv ament
Ġnomen ar
Ġcob Ã¨rta
Ġganh at
ocup Ã¨t
Ġmanten ement
Ġpossed issi
Ġaccep tat
Ġunivers itari
unt ament
ĠSu peri
ĠLen gas
Ġlh i
Ġcapt ura
Ġapel ada
Ġfortific ada
ĠbÃ²s ques
obl ig
Ġrib os
Ġfla ca
Ġdej Ãł
edo as
Ġnavig acion
ĠpluÃ¨ jas
ĠresÃ¨r vas
Ġespecif icas
Se ine
Ġprinc essa
Ġchimp anz
Ong ria
Ġencreu ament
6 46
a ge
c ons
g re
g ada
v on
Å ¡
Ġ 37
Ġ 95
en cha
Ġa xe
Ġc od
ar p
er ar
qu en
Ġe uc
Ġla us
or es
is ica
Ġlo p
Ġt ar
Ġt Ã¯
Ġt ort
om s
au le
Ġv ath
Ġper don
am ilha
Ġn an
Ġb erb
ĠC aval
Ġcom er
le ans
Ġpar elhs
ĠB art
ĠF al
20 06
ter r
id Ã¨as
ĠN il
ĠN Ã²u
Ġte maticas
Ġau p
19 98
Ġcont ro
em en
Ġmar in
Ġmar ques
ĠO p
Ġaut omob
Ġimp er
Ġu Ã¨ch
ĠH el
44 1
Ġch au
ign on
Ġad onc
amb a
Ġrev ision
Ġesta di
ĠSon que
Ġgr oss
Ġver ai
ĠCar cin
Ġdest rus
Ġnacion alistas
exp rim
Ġret ard
Ġret orica
Ġef Ã¨ctes
Ġparticip ants
Ġconv ert
ĠAb b
inst itucion
Ġend e
Ġend acÃ²m
Ġcat ars
Ġreb ell
Ġvict Ã²rias
Ġnaut s
ĠAng lÃ©s
estudi ar
ocup a
Ġaccep tada
Ġpont s
Ġproteg it
Ġpobl at
Ġinform acion
ĠDi oc
esqu ina
Ġprofession ala
Ġglaci Ã¨rs
Ġsuperior as
Ġpoiss anÃ§as
Ġapel ats
ĠLau ra
ĠbilingÃ¼ e
Ġed itat
oqu im
Ġartifici ala
esple itacion
Ġcerem onia
Ġperp et
Ġremont ar
ĠMicha el
0 66
5 46
A s
O ccident
e Ã§
f ond
m al
n an
p id
s ud
Ġ 84
Ġ Ã¨ster
Ġd ent
on tan
es u
Ġc orn
Ġc oc
Ġc itar
at o
Ġe clesi
Ġlo as
Ġqu ista
Ġun iversitat
il d
ĠC uba
le vat
ur t
ur ala
ig re
Ġdes ert
ĠG av
Ġ19 15
ĠV ars
ĠN u
ĠJ Ã²rdi
Ġme xic
Ġcomp Ã²rta
Ġli ures
ĠfÃ²r ts
art istas
Ġ18 59
Ġ18 96
44 7
Ġch eval
88 8
Ġat mos
Ġinter net
Ġpla Ã§ar
Ãº ss
Ġgl Ã¨isas
Ġfil ogen
Ġz Ã¨ro
Ġer Ã²i
Ġliter Ãłrias
Ġten guÃ¨t
Ġdec r
Ġfas Ã¨m
Ġfem Ã¨la
ĠZ Ã¨us
Ġsimp las
Ġsegond as
ĠvÃ¨rs es
Ġmo tius
Ġmerc ats
Ġassoci ada
Ġis rael
Ġcompl Ã²t
Ġcompl Ã¨ta
ĠLu ci
ĠConst itu
Ġoccident alas
ĠEurop Ã¨u
Ġcorrespond Ã©ncia
Ġtransform at
Ġfrequ enta
Ġps eu
Ġquauqu eis
Ġsia guÃ¨t
Ġcandi d
Ġcri da
Ġmur alhas
Ġimperi au
ĠauriÃ¡ n
Is la
Ġruisseau x
ocra tes
Ġsuccess ors
Ġhtt ps
Ġpedagog ica
ĠPet it
Ġarrond iment
Ġpassej ada
Ġexemp les
Ġrapid Ãłment
Ġpeleg rin
ĠNad al
ĠCic eron
Ġprotagon ista
Ġjuris diccion
Ġuc raÃ¯n
A F
L A
c y
d os
f Ãłcia
n os
Ġs iti
in vencion
re y
or l
Ġf os
Ġqu als
Ġt retze
ri guÃ¨ron
ĠA ul
ĠC ra
ĠC ond
Ġ( .<|
ĠM and
et icas
ĠD ur
ad iÃ¨r
Ãł cias
di eu
Ġj Ã²
ĠR Ãłdio
Ġin de
Ġpr uss
ac le
ac ompanh
Ġap pel
Ġar ro
de z
ari e
op t
Ã²t les
ĠO rig
Ġven gudas
aire ben
Ġ18 82
Ġcons ult
ĠQu int
Ġpa ys
Ġter ra
40 2
49 3
49 7
ip p
th ur
Ġne ur
45 2
55 8
Ġch as
Ġch inesas
Ġtorn Ã¨
85 8
Ġfon ccion
Ġpermet rÃł
volop ament
ĠAr ts
Ġconf ond
Ġestat ua
Ġgl Ã²ria
Ġvis ibles
ang el
Ġprop osicions
Ġsab le
Ġniv Ã¨us
Ġrecon quist
Ġint Ã¨rn
Ġorganiz Ã¨t
Ġfra c
Ġpon tan
Ġpra das
ĠPr Ãºss
Ġconv ersion
Ġsal var
ĠJos ieus
Ġdirig its
Ġsent ier
ĠCor b
Ġnorm al
Ġdecis iva
ĠVer ge
ĠLi ter
Ġunivers ala
Ġflu me
Ġensenh ar
Ġdipl om
ĠcomplÃ¨x es
Ġmodern izacion
Ġneut re
Ġreven guts
Ġsubs isteix
ĠFon taine
Ġier arquia
ĠcÃł mbia
Ur gÃ¨l
Ġbandi Ã¨ra
Ġsued Ã©s
ĠSenh or
ĠGaud ÃŃ
ĠPrÃºss ia
% )
J ac
M I
a ctors
e isson
m el
m ad
u au
w in
Ġ 46
Ġ Ã¨re
Ġd ralha
Ã¨ ve
an ges
Ġs Ã¨ria
in telligÃ©ncia
Ġm Ã¨tre
Ġt ua
ĠL ud
Ġv ue
Ġv Ã©ser
gu el
ol ada
Ġre gu
Ġb endas
Ġg i
le ts
ĠM am
ot in
Ġj aci
ct ic
ig h
ass ic
Ġtra g
Ġap aricion
ari da
Ġau ien
oc acion
Ġ18 97
Ġ18 92
Ġesc ura
60 1
Ġpu jada
Ġmon ta
40 1
ĠAl pes
55 4
55 5
88 6
85 4
Ġfor est
ĠW h
Ġperson alitats
Ġcamp anal
Ġdarri ers
Ġer as
Ġnacion alista
Ġneg atiu
Ġno i
Ġsim et
ĠMon de
Ġvari acion
ĠentraÃ¯n ada
Ġev esque
Ġdob Ã¨rt
Ġmag ist
az a
ĠlingÃ¼ istics
Ġdaiss i
Ġdaiss ant
Ġpremier eis
Ġdemand at
Ġdinas tias
Ġquim ista
ĠAnd rieu
Ġcontinent ala
Ġrefus a
Ġessenci ala
Ġconstitucion ala
Ġcontinu itat
ĠFlor enÃ§a
Ġeiss ida
Ġplat af
Ġneut r
Ġdistric tes
Ġgerman ique
abandon ar
ĠKar l
Ġcalc aire
Ġtang s
ĠAust rÃłlia
Ġlabor atÃ²ri
Ġsufra gi
ctav ius
ĠNept un
3 11
3 17
3 77
A z
A isne
f ins
f ran
h Ã¨r
o ir
v ista
w iller
Ġ ult
Ġp Ã©
Ġp Ã¨rsa
Ġa inat
Ġa qÃ¼
Ġs alas
Ġs Ã²u
qu ier
in atge
is acion
au racion
ri ed
Ġg aus
ĠS art
ti f
ĠP Ã©
ĠP ag
ĠE conom
ran da
Ã²r da
ĠD is
ĠD ab
ĠLa g
Ġj ardins
ĠR ol
ĠF la
ĠF ondacion
iss ons
Ġdes ta
ĠI stÃ²ria
ĠI berica
Ġnom inacion
imp lantacion
Ġcomp ens
og un
op ausa
Ġvil le
Ġsi am
um or
Ġav ions
Ġh orn
Ġh istori
Ġ18 54
Ġ18 61
Ġesc oc
50 1
Ġser Ã¡
ĠH ug
44 2
Ġmon edas
rat rem
89 2
ult uras
Ġcl in
ĠAn na
ĠAn fÃ³s
55 6
88 5
ing s
Ġcent ri
85 6
ĠK y
Ġob ratges
ĠÃ ®n
ific adas
Ġconf igu
Ġcan cel
ĠâĢ ĺ
Ġco ire
ord an
Ġfu guet
Ġsim ultan
Ġofici alas
eng enh
ĠPr of
Ġend roit
ve ja
Ġge ografic
âĢ¦ âĢ¦
Ġmont pelh
tern itat
Ġpan or
Ġcop a
aument ar
Ġcamb ia
Ġunivers al
ĠMau rici
Ġflu eix
ĠCent ral
ĠBen lÃ¨u
Ġdesfa chas
Ġcaval iÃ¨rs
Ġprofession als
Ġmob ilizacion
Ġtop ony
Is raÃ¨l
Ġol and
Ġdesb arc
Ġair als
Ġperme ti
Ġdot at
ĠMil an
Ġenem ic
Ġfid el
Ġrememb ra
Ġlingu istica
Ġsubrev iv
Ġesca is
Ġprot oc
Ġtransmet re
Ġreparti cion
Ġerig it
ĠQuau ques
ĠPale olitic
ĠBoss Ã²st
ĠGuin Ã¨a
3 23
3 13
9 46
A T
A ri
E M
G er
a guÃ¨t
f ra
m ita
o di
p ic
s ta
z y
Ġ ion
Ġd av
te ra
Ġa tes
as e
ar tes
er et
ci clop
or y
it ius
ĠL iv
ĠL hÃ¨
Ġper ceb
am ant
Ã¨r ma
ol ina
ol itan
Ġre de
ĠC amin
Ġg am
ĠP eire
Ã§ au
ul ars
Ġal fabet
ĠD ist
Ġpar tat
ĠB erg
ens ag
ĠI ran
Ġnom adas
eu m
Ġtan h
Ġex periÃ©ncias
art icul
Ġ18 00
Ġ18 65
Ã²c an
Ã²c es
50 2
60 2
ĠH a
ĠH all
ĠH ay
Ġdon Ã¨ron
80 2
89 1
Ġlu ta
Ġlu ch
Ġch amb
88 4
Ġmil itants
ĠMar ÃŃa
Ġpla Ã§at
Ãº dia
amp s
Ġserv iguÃ¨t
Ġist Ã²rias
Ġ3 000
omp anha
Ġneg Ã²
Ġcompaus adas
Ġconsider abla
af ebl
erg Ãłs
Ġroman icas
Ġves Ã¨m
Ġprote Ã¯na
Ġcors a
apar elh
az hon
Ġfre ma
Ġcolle ccions
anc y
Ġlib e
Ġinc ap
Ġproc essus
ĠgrÃł cia
ĠTh i
ĠCor ona
Ġpen et
Ġbo ti
Ġ179 1
ĠAm eric
Ġcomunic ar
ĠDem or
Ġcomple tar
Ġprodus ÃŃs
Ġress on
Ġessenci al
Ġfabric ar
Ġavent uras
ĠPal estina
Ġindependent as
Ġtrap an
Ġdol ars
Ġmatemat ician
ĠIl las
Ġtestim Ã²ni
Ġleugi Ã¨rament
Ġminim um
Ġmis teri
urre ccion
Ġcompr endre
Ġses ilha
Ġparis enca
instru ments
Ġdaval ada
Ġaccess ible
ĠPÃ¨rs ia
Ġdivin itat
ĠCad un
Ġvest its
Ġaran Ã©s
Ġespand it
ĠSatur ne
Ġdesemp uish
ĠDani el
Ġmagaz ine
Ġdefug ir
Ġpenda it
ĠLhÃ¨ ida
3 27
7 21
7 23
7 17
8 46
P as
c op
p osicion
u at
v erg
w ell
Ġ Ã²li
Ł i
Ġl entament
on ias
Ġc il
re ts
Ġf esti
Ġt ension
om e
Ġun ivÃ¨rs
am s
ĠA Ã§Ã²
Ġb ri
ĠS Ã¨t
ĠS igu
ĠP C
ĠP Ã¨ir
Ġ( âĢ
ul es
ei a
et Ã¨t
Ġpar ent
ĠB ot
ĠB ir
Ġj on
Ġj ura
ĠR eb
ĠF e
ĠF ond
ĠT ang
Ġdes li
mi e
Ġap uÃ¨i
Ġav ion
ida da
oc s
ess as
Ġest ent
Ġ18 15
Ġ18 01
Ġesc ur
Ġcons on
80 1
Ġcl imas
ĠAn tiquitat
int rar
ep id
lu ÃŃs
Ġtorn Ã¨ron
met re
ĠMar g
Ġcapit al
Ġvol ums
ori ent
Ġtrans par
Ġdesvolop ats
Ġver tad
ĠCar los
ĠSa x
mat ics
ef ica
ang les
Ġneg ras
Ġcomb atre
Ġcer amica
anÃ§ ant
autre is
Ġfeb ri
Ġnecess ita
Ġmedi at
Ġdirig idas
Ġdomin ada
Ġvend rÃł
Ġobten guÃ¨ron
Ġcompren eson
Ġsin onim
Ġant rop
Ġquit Ã¨t
Ġenter in
Ġconserv ar
Ġnorm ala
Ġmer ce
Ġaus ir
ĠSo i
Ġdre ta
Ġabandon Ã¨t
acc el
anim al
Ġfondament ala
Ġaper ada
Ġsur plomb
ĠnÃ² bles
Ġauton Ã²ma
ĠEm ai
ĠTor re
Ġsuccess ius
ĠnuÃ¨ it
Ġproced ura
ĠVill ers
Ġprononci acion
Ġrecuper ar
ĠcompanhiÃ¡ s
estan d
Ġmis Ã¨ria
Ġdistingu ir
Ġcarg ada
Ġinsc rich
Ġresol ucion
Ġaragon Ã©s
Ġjudici ari
associ acions
ĠPed ro
Ġcuirass ats
Ġprosper itat
0 46
7 27
7 11
J o
N T
T C
c la
e on
e guts
j u
l adas
n Ã²u
p lan
r alh
u z
Ġde ten
on ar
Ġp om
Ġp ista
Ġp iano
Ġa ti
ar em
ar cas
at encion
Ġm Ã¨i
Ġm Ã²rta
un al
un ch
ic ut
ĠL us
ri ament
Ġn Ãłisser
Ġdel h
ol les
ĠA y
ĠA lav
Ġb Ã¯
Ġb lava
ĠS em
Ġr n
ĠD isc
ica go
ĠB ab
ĠR eis
ĠT our
20 04
ab u
ĠG ro
imp acte
Ġar Ãłbia
ĠU ru
Ġau x
Ġi per
ce ans
Ġh um
ĠfÃ²r tas
ĠcÃ² las
Ġaut ob
Ġ18 69
Ġ18 85
Ġcar as
Ġsitu an
Ġesc ad
est rech
est ructuras
esc ap
Ġmon ges
Ġdem ai
ed itor
ĠX av
Ġpol onesa
Ġsol eta
Ġcre ats
ĠCom enge
Ġdiv i
Ġtorn ava
Ġfar ina
Ġcal guÃ¨t
Ġpla Ã§ada
Ġemp l
ten as
Ġco Ã¯n
ord at
Ġdest ruccions
Ġexp ressions
Ġconstitu ir
Ġmaj ors
Ġclass ificat
An ti
Ġrealiz ator
Ġsab i
exp osicion
exp los
Ġfl um
li quÃ¨t
Ġcarri era
ĠZ el
Ġais ina
Ġconv ent
Ġmol t
ĠAb baye
ĠvÃ²l i
eish enÃ§a
Ġestudi ant
Ġterr or
Ġvend riÃ¡
land esa
Ġcob Ã¨rt
Ġassegu ra
Ġtransform Ã¨t
ox igÃ¨n
Ġsh ogun
ĠSoci alista
Ġsimil aras
Ġmodific acion
Ġrus ca
Ġexec utat
Ã¨b res
Ġsort ÃŃs
este la
Ġcontac tes
Ġprogress iu
ĠavanÃ§ adas
gra ph
Ġcaud s
ĠFelib rige
ĠbilingÃ¼ isme
aven idor
Ġapren e
ĠBol ÃŃ
Ġemple c
Ġaplic acions
ĠBan ca
ĠUc raÃ¯na
apr endissatge
ĠSci Ã©ncias
Ġincend i
ĠOtom ans
Ġbud get
Ġcald rÃł
Ġprojec cion
Ġferrovi aire
Ġconcurr Ã©ncia
Ġcristi anisme
Ġraion ament
ĠCate d
7 33
A p
I D
P R
f es
r ari
z an
Ð ²
Ġ 38
Ġd avan
Ġa h
as ta
Ġc y
ar que
qu Ã¨
qu etas
ci Ã¨r
in Ã²
re c
Ġm apas
is ia
Ġt ranqu
ĠL ai
Ġb atre
Ġb ien
ti fica
Ã§ ant
Ã§ ons
ĠM ire
ul aire
ad er
ur y
ap arten
Ġpas ta
av ia
ĠT un
ab ar
ĠV erc
Ġte ologia
mi ans
Ġar g
Ġar ren
eg o
ec s
Ġfa gu
Ġex ili
Ġesp ecta
Ġesp ectacles
Ġreg rop
Ġreg arda
Ġven iÃ¡n
Ġ18 64
Ġesc otar
ĠH ub
Ġtr ens
ip otÃ¨si
enh eim
Ġsol idaritat
ĠÂ» )
ĠAl ps
Ġman ip
Ġtorn eg
ĠK o
Ġass embl
Ġad ob
esp ital
Ã¼ es
58 2
98 4
enci ala
ord ar
ĠIn d
ure l
Ġpat as
Ġdev er
Ġcr omat
Ġexp lici
Ã¨x es
aud an
ĠMa o
Ġsegond ari
Ġparticip Ã¨ron
Ġcres enÃ§a
Ġocup Ã¨t
Ġfis anÃ§a
ĠsÃ¨t is
Ġmor al
Ġ9 00
Ġestudi at
Ġnecess Ãłrias
Ġfavor ables
Ġassoci ats
Ġrefer end
enn i
ĠIs ab
Ġsepar adas
Ġcob rÃŃs
Ġcertan s
Ġcomple tat
Ġcab uss
Ġdetermin at
Ġcono iss
ĠLeon ardo
Ġvenc eire
Ġsep ara
ĠAgu esta
Ġinvent at
ĠCarta ge
Ġvass aus
TA N
Ġrecens ement
Ġreial mes
ĠClar mont
elim inar
Ġepis Ã²di
Ġcalif a
Ġdestri ar
ĠCÃ²n go
G V
O n
P aul
a icÃŃ
m us
v ira
y es
Ð ½
Ġp leg
Ġla Ã¼
Ġt urb
da b
am ic
Ġn or
Ã¨r os
Ġg ess
ĠP le
ĠP ingo
Ġcon dus
ĠM entre
ĠM arais
Ġo graph
Ġal iat
Ã²r nia
ĠB ac
Ġan autita
ÃŃ bl
ĠF L
ĠT im
ab adiÃ¡
ĠG ol
ĠV Ã¨rs
Ġent ra
and o
Ġte la
ĠEn tra
ĠJ un
um at
um ul
Ġfa ct
Ġpre ten
Ġres ta
Ġreg ents
Ġ18 75
Ġ18 89
Ġ18 86
Ġ18 93
Ġra b
Ġra Ã§a
Ġter rador
Ãłn d
ilh s
ven cions
ĠCh icago
ill ust
Ġdis ques
Ġcor por
ren ca
ĠGu i
Ġrev ers
Ġinter vencion
Ġesta cions
cl au
Ġon gan
ish en
Ġz o
ord inari
ĠIn st
Ġexp le
Ġexp osicion
Ġespeci fica
Ġneg lig
Ġba ill
ĠRo ta
ĠMa xim
Ġpon ches
Ġvari anta
Ġprote ctorat
aj ud
Ġnav Ã¨th
Ġsup rimir
Ġmor ÃŃ
Ġdaiss at
ĠCol omb
Ġesper its
Ġprim ordi
Ġsepar ats
Ġsenhor iÃ¡
Ġorient al
ĠBel f
En aut
Ġgard at
Ġestran g
Ġroma in
Ġcompos icions
Ġmob il
onn ie
Ġsubst Ãłncias
Ġprec urs
ĠcomplÃ¨x a
Ġeiss it
ĠavanÃ§ ar
Ġacad Ã¨mias
ĠCab ard
Ġterm odin
Ġvid anta
Ġdescon eguda
Ġdesen ant
organ ismes
ĠRog er
Ġterritori alas
Ġegipci ans
Ġpresidenci ala
Ġcerv Ã¨l
elim inacion
escamb is
Ġdispon ible
Ġasiat ic
ĠVers alhas
Ġaust ral
ĠasteroÃ¯ de
Ġremar ca
ĠVict Ã²ria
NES CO
ĠKen ya
ĠObten guÃ¨t
Ġparo issi
Ġpontan nada
3 73
7 13
E r
T exans
h is
p ro
r itat
Ã Ģustria
Î ¼
Ñ Ĥ
Ġ Ã²s
Ġd Ã©
Ġd anÃ§as
en o
Ġde ur
Ġp Ã²st
of Ã²n
Ġc Ã¨u
Ġc icles
ar ar
Ġm eu
Ġf Ã¨us
ic acion
Ġt ib
ĠL un
Ġre ala
Ġre dre
Ġb Ã¨u
ĠS ub
ei ro
Ġr Ã²da
ad ora
ap lic
ĠB asc
ot ÃŃs
ĠR as
ĠT ru
ĠT ou
20 00
Ġdes vi
Ġin tellig
Ġ19 02
Ġpo p
Ġcap ablas
ob le
Ġmar gin
Ġ18 79
Ġ18 74
Ġ18 99
esc apar
49 1
49 2
Ġri g
Ġcre ator
aquel eis
Ġsens ible
Ġsens ibilitat
Ġtorn s
ĠMar rÃ²c
Ġat l
Ġcone isson
ori al
ĠMont b
Ġdeb ut
Ġdev Ã¨m
ĠTol os
Ġdist Ãłncias
Ġespeci alistas
Ã¨x e
Ġno tacion
Ġrap Ã²rts
Ġorganiz adas
Ġang le
ĠCons eu
Ġpra ub
Ġfis c
Ġmo di
Ġtor istas
Ġliber ar
Ġvertadi er
Ġcompl ir
Ġenf anÃ§a
Ġsent it
ĠJean ne
Ġjol s
Ġmass ac
Ġacab a
Ġreti rÃ¨t
ĠMo ul
ĠEsc riguÃ¨t
ĠAnd rÃ©
ĠGener au
Ġfru chs
Ġtalh iÃ¨rs
Ġmecan ismes
Ġindivid Ãº
len ga
Ġamass at
ĠJul es
Ġvert icala
ĠIl l
ĠBor gonha
ĠBa ish
Ġdescon egut
ĠComun ista
Ġargent ina
Ġviat jar
Ġdemen ir
ĠPremi er
Ġrecuper acion
Ġsex uala
ĠdrÃ²l le
Ġconte st
Ġdiscipl inas
Ġgalax ia
Ġabitu alament
escamb i
accep tar
Ġmanusc rit
Ġmori guÃ¨ron
ĠLar zac
ĠCÃ²r das
ĠentiÃ¨ra ment
ĠnÃŃvol s
intens itat
Ġcomplex itat
orl d
L R
f e
f s
r isson
s ens
u ro
w n
Ã ¥
Å «
Î º
Î »
Ġ 72
Ġ 54
Ġa eron
an ca
Ġc ine
Ġc endres
er es
er upcion
ra ccions
ri ana
Ġv ejaire
Ġn ada
os ar
Ġse iss
Ġ1 30
Ġ1 200
ĠC oc
ĠC Ã²sta
ant ica
ant ariÃ¡
ĠE ti
ĠE do
ĠM y
ĠM oss
Ġal u
Ġal ong
ĠD amb
ĠD Ã²na
ĠF le
iv itat
ĠG asc
ĠN ascut
Ġent end
Ġent aus
and er
imp ic
Ġau di
aut on
Ġh ilha
ĠO m
Ġest Ã¨la
Ġ18 72
Ġcar oling
Ġesc lat
if iquÃ¨t
ĠH y
Ġrec entas
enc y
Ġtr Ã¨va
Ġtr Ã²ces
Ġri tes
Ġmunicip ala
ĠAquel eis
ĠCh rist
90 5
90 8
Ġenc astre
Ġman i
Ġfar gar
Ġele ccion
Ġro Ã¯nas
ĠPar gue
Ġvol gut
Ġvol Ã¨m
Ġsoci ol
Ġperson es
bi as
bi guÃ¨t
Ġemp Ã¨ris
Ġag lomeracion
ĠIn s
Ġref Ã²rma
Ġ5 2
ej at
aur us
exp licar
exp ortacion
Ġapar ar
Ġep Ã²cas
Ġcer e
ĠpaÃ¯s atges
ĠFranc eses
Ġcamin ar
Ġdeban ament
Ġtrib ut
Ġnomen Ã¨t
rÃ² fas
ĠOr ganiz
Ġnorm alizacion
Ġdet los
ĠChar l
Ġconselh s
Ġcanta ires
Ġcamb ras
termin acion
Ġcorrespond ent
ĠPres entacion
Ġtol er
Ġrevolucion aris
Ġtransp Ã²rts
ĠtravÃ¨rs a
Ġrestau rat
Ġregular s
Ġvint ena
ĠGuilh em
ĠPel op
Ġlegis lacion
ĠMag dal
Ġinflu Ã©ncias
Ġdestin ats
Ġcontemporan Ã¨u
Ġarres tar
Ġcron icas
Ġapel at
Ġort odÃ²
Ġabs orb
Ġdig loss
Ġceleb rar
Ġip ot
Ġproclam Ã¨t
Aqu in
Ġsignific ant
Ġaculh ir
Ġestrateg ica
Ġcromp a
Ġier ogl
Ġcolom na
ĠLis bona
Ġretra ch
Ġinaugu rat
Ġprovis Ã²ri
Ġedifici s
Ġhem na
ĠAir bus
ĠÏ Ģ
escad enÃ§a
ĠmÃ¨ dias
Ġimmediat ament
ĠConserv atÃ²ri
Ġfidel itat
ÃŃbl ia
) ;
. ).<|
G u
T he
a un
h n
i Ã²de
k al
w ay
z et
Ġ 350
Ġd ucs
Ġl anc
Ġp eg
Ġs ot
Ġc Ã¨rtas
ar ab
in ent
in ha
Ġm im
is ab
is ons
Ġen erg
am ar
Ã¨r ba
us ar
el at
il o
ĠC ru
ĠC aux
ĠS ard
ĠS ou
Ġcom me
Ġcom etas
ĠM em
ia ge
et ari
Ġal fab
Ġr up
Ġr Ã²tles
ĠD ol
ad en
ĠLo ir
Ġpar eis
ĠB rion
Ġan ge
Ġan arqu
ĠF ilip
ĠF isiologia
ct as
ĠT u
ĠT ro
ĠT ors
ĠG ai
ĠG olf
iz an
ĠV o
Ġcap el
Ã¯ r
ort al
Ġcont orn
Ġvil latge
Ġpl ant
Ġex teriora
Ġmar cas
Ġ18 95
Ġ18 41
Ġra mp
Ġra cÃ²n
Ġcons um
ĠH aut
Ġmon arca
ib er
Ã¨st s
ĠAn toine
Ġtres au
90 9
Ġcaus idas
ou le
Ġman dad
Ġrel atiu
ĠK er
Ġad ara
Ġro cass
Ġro ving
ĠW est
ĠW eb
Ġtrabalh adors
gi as
Ġja zz
ĠEst rasburg
Ġer b
Ġexp ortacions
dic cions
Ġnacion als
Ġconsider ablament
Ġclass ics
cul ar
Ġmej anÃ§ant
exp le
Ġpens at
Ġrecon Ã©isser
reg acion
anÃ§ on
ĠPr uss
Ġexist issi
Ġexist issiÃ¡
ĠY o
Ġnav eg
Ġmag ma
Ġtract ar
Ġvertadi era
Ġequ ilib
ĠBo ca
Ġnomen an
Ġcerc les
Ġprom Ã²ure
Ġdim Ã¨cres
ĠOr t
ĠLu is
Ġmost rant
Ġvir tu
Ġprodus ir
Ġlarg or
Ġtele f
Ġtri onf
Ġjo en
Ġleu gier
ĠAd orna
ĠMol ac
ĠPort ugu
Ġtend rÃł
Ġconta ire
Ġangles es
escriv ans
Ġfix at
Ġcri min
Ġcircul ar
ĠlanÃ§ ament
Ġmess at
Ġportugu eses
Ġlun ara
Ġcompar ar
americ ana
Ġevol ucions
Av airon
Ġajud at
ĠJust in
ĠCalif Ã²rnia
ĠPlat a
Ġconceb ut
Ġevident ament
Ġcentr alas
Ġquoti dian
ĠRÃ²ca fu
Ġelim inar
Ġlogici al
Ġsenat ors
NS EE
Ġconclus ion
escol ans
Ġimplant at
ĠGabri el
Ger main
A li
C R
M au
S al
f at
l Ã²c
n au
n ip
r omp
Ġ á
Ġd rÃ²
Ġd Ã²na
Ġl ine
te urs
Ġc og
Ġc ert
er Ã²i
Ġm Ã²
Ġm ons
al ona
or icament
Ġf osf
Ġv ar
el ar
Ġre inÃ¨t
Ġb ess
ĠS w
ĠP Ã²rt
Ã²r ca
ch y
Ġan ient
di al
ĠR iu
av Ã¨tz
id d
id o
ĠG N
ov is
ĠN ev
Ġtra ucs
tes sa
Ġar gument
Ġ18 98
Ġ18 87
Ġpart enaris
ĠQu itament
Ġser Ã©
Ġmon op
ud it
ult or
Ġrep et
Ġbas ilica
Ġcre acions
ĠPer e
90 4
90 6
Ġcaus at
Ġdiv erg
Ġtorn ada
Ġgener aus
esti ma
Ġdep ression
Ġad olesc
esp Ã¨r
Ġpolit icament
Ġat omic
amb ient
Ġvol guÃ¨t
86 7
Ġdesvolop Ã¨ron
Ġco oper
Ġconc lu
Ġconc rÃ¨t
Ġ4 1
ille t
ĠRo azhon
ĠtÃ¨r ratrem
Ġpens an
Ġsemb lar
Ġtip ic
Ġgra d
ĠSeg ond
ĠRep ublic
ĠPu y
Ġconv iv
Ġconv ida
Ġvos es
Ġdob rir
Ġsec uritat
Ġjam ei
Ġmelhor ament
Ġbi ologia
ĠVi aur
Ġcat arisme
Ġis la
Ġterr enh
Ġviv ents
Ġus atges
arb res
urg Ã©ncia
Ġsom Ã©s
Ġdessenh ada
Ġadministrat ivas
com un
Ġjut jar
Ġgard Ã¨t
ĠSan ti
ĠrÃ¨g ne
Ġsimil ars
Ġfort una
ĠTur cs
Ġabs Ã©ncia
Ãłri us
ectiv as
lac Ã¨t
Ġinterpre tat
Ġviat j
ĠBritan ic
Ġsiste matica
Am assada
Ġfug ida
Ġescrit s
vo ir
Ġbarr Ã²c
Ġminer als
Ġsufis enta
ĠBert rand
Ġespecif ics
Ġrecomp ens
Ġconver ti
Ġreconquist ar
ĠAlav etz
9 64
E ure
O R
P ar
c arri
d essus
l Ã¨t
p he
v et
Ġd otz
Ġl anÃ§a
on de
on ian
Ġp ut
Ġa un
Ġa cid
Ġs Ã²us
Ġc Ã¨rts
at r
ci o
in hac
Ġm ala
Ġm arais
ra g
Ġlo mb
Ġf le
Ġf Ã²t
Ġt ocat
Ġun ion
am ai
gu ier
ĠA ups
Ġre ts
Ġse ca
Ġb us
ĠC inc
ĠC rim
Ġg Ã²r
ai m
Ġ( -
ĠM ich
ĠM ilh
Ġr y
ap rÃ¨p
ĠB il
ĠB ast
ĠB ach
ot ics
di er
ĠR if
ĠT op
20 05
20 09
ĠG usta
Ġ19 09
ĠN or
ĠI ves
Ã¯ stÃ²ria
Ġap licar
ec us
Ġsi gue
Ġpl antat
uc k
Ġesp ital
oc adas
Ġmar bre
Ġmar ridas
Ġreg lar
ast ics
esc at
Ġpu jar
Ġrec Ã²rd
ĠAl l
Ġto x
osa x
Ġpod ent
Ġtorn an
Ġcor reg
ian g
ev ille
99 4
95 6
Ġinter Ã¨sses
Ġins er
ĠAr m
Ġgr Ã¨u
86 3
Ġposs iblas
Ġrd s
Ġjos ieu
Ġ4 2
Ġdesp uish
Ġinst itu
Ġba chel
af ir
af ront
Ġbar rat
esta bilitat
Ġret r
ĠMon ta
ĠMon ument
Ġsemb lant
Ġfonda dor
Ġfoncion a
Ġdob rÃŃs
Ġprodu ctors
Ġquau que
ĠMe ur
Ġperd uts
han naise
Ġcort as
Ġfaci lament
manha c
ĠMan ch
Ġprecis ar
Ġdat as
Ġlic Ã¨us
Ġtransform ar
Ġfix a
Ġata quÃ¨t
ĠTer rit
Ġmur alha
Ġpert urb
ĠSp ace
Ġaten cion
agu est
even iments
Ġefica Ã§a
Ġastron autas
ĠConf ronta
Ġintellectu ala
exist isson
Ġmill enari
Ġseri Ã³s
imm igracion
Ġbomb arda
Ġquat rena
ĠfilosÃ²f s
quis icion
Ġfelib res
Ġcondem nat
Ġestre cha
ĠÅ Łi
ĠProvÃŃn cias
Ġcrist all
ĠMonts egur
ĠNig Ã¨ria
ĠBig Ã²rra
ĠRic ard
Ġdang iÃ¨r
ĠVars Ã²via
Ġ(âĢ ł
ĠCabard Ã©s
8 64
h l
h al
p i
v em
v ejatz
Ġ il
Ġd ÃŃder
on icas
te jar
an diguÃ¨t
in itat
or izont
it als
ic us
Ġv entre
el m
el lo
ĠS in
ĠS ign
ĠP om
ĠP os
Ã© ry
Ġo casion
Ġo ceans
Ã²r me
ad os
ad ia
st re
ist orian
ĠB ÃŃblia
ot as
Ġan ant
ÃŃ st
ĠF ac
ĠT ai
20 08
ab itacion
ĠG aireben
Ġamb ici
Ġamb icions
iz e
ĠV id
Ġpo etic
ĠI S
ura u
ass et
ara gon
Ġau d
ers on
Ġsi atz
Ġsa que
Ġesp ontan
Ġac Ã²rdi
Ã¨g ia
Ġreg Ã©ncia
Ġest ant
Ġimp lica
Ġra ja
bre tot
ast r
Ġser ral
od ia
ip s
Ġrep r
Ġform adas
ĠPer Ã³
Ã¨n is
Ã²n h
ing er
Ġdiv ina
olog ista
Ġgener aument
ĠFran ca
Ġele vada
Ġpubl iqu
Ġso jorn
58 1
58 7
98 6
95 4
eb as
itar isme
Ġesta bla
54 1
Ġcamp Ã¨stre
ĠEst re
Ġmen ats
Ġsign ar
Ġsign ada
Ġet rus
rim it
Ġdeth s
Ar c
Ġocup ar
Ġmol hÃ¨r
apar ar
Ġmat rim
Ġmelhor as
Ġfavor abla
Ġbl Ã²ts
ĠBo ul
Ġremp la
Ġem issions
ĠSal vador
arrib ar
esper el
lin ha
Ġpau retat
Ġut ÃŃs
Ġinform at
Ġparlament aris
Ġescol ar
Ġitalian as
enf anÃ§a
Ġcaval iÃ¨r
Ġcapt urats
Ġfinanci Ã¨ra
ĠcomplÃ¨x as
Ġopaus ats
Ġfortific at
Ġsimbol ica
ĠsÃ¨r va
Ġafric ans
Ġdistingu ÃŃs
arch ipÃ¨la
astron omia
ĠNicol au
Ġmig racions
Ġlegitim itat
ĠFon tan
Ġmagn itud
Ġlou hannaise
ĠCass ini
Ġty p
ĠBulg ars
Ġong rÃ©s
Ġtransf orma
Ġpred omin
Ġredre i
% ).<|
' Â«
0 64
5 64
D F
E d
G al
P O
R o
h Ã¨it
j avan
n aire
o in
s ec
u ti
u ch
Ġ @
Ġ Ã²r
Ġl uc
on ament
Ġp ter
an autita
Ġs org
re use
Ġt ocant
ĠL luÃŃs
Ġes m
ri min
Ġv u
ĠA us
Ġb lack
ĠC aus
Ġg ama
ĠS of
ĠP f
ĠP all
ant ena
ĠE g
Ã© li
Ġr in
Ġr ub
Ġr Ã¨ire
ĠD ub
ch n
la vas
itat ge
ĠR enat
ĠF en
ĠT est
ĠT arra
Ġdes esper
Ġin eg
Ġin ed
Ġtra duccions
Ġau rel
Ġesp essa
Ġac cedir
Ġ18 0
Ġ18 73
Ġ18 83
Ġ18 63
Ġ18 42
Ġesc l
Ġmon arqu
Ġdem an
Ġrec orre
Ġrep rodu
Ġsol ida
rar iÃ¡
Ġfam oses
Ġsegu ra
Ġass et
ev itar
esp Ã¨ra
58 3
Ġdire c
Ġtrans it
Ġaf ort
Ġon ze
ĠâĢ ¦
Ġleg eire
Ġconc er
Ġer et
Ġmen as
Ġexp edicions
Ġum id
Ġart isticas
Ġconsider ava
ann exion
An n
Ġdec oracion
Ġapar elhs
Est ats
Ġprog ression
ĠVal adas
Ġmajor itari
ĠLe e
Ġais ida
Ġdisp osicions
ĠOccitan ia
Ġtravers ar
Ġinc lu
Ġobten guda
ik a
Ġdim in
Ġfaci ada
Ġdia ble
Ġprecis as
Ġcamb as
Ġoccident au
Ġress or
Ġflu x
Ġleu giÃ¨r
Ġensenh aments
Ġpref ond
Ġtransp ort
ĠEr m
Ġcompos itors
Ġdra ma
Ġprofession al
Ġata quÃ¨ron
Ġdipl Ã²ma
Ġadap tacion
ĠTur in
Ġmalais it
vent Ã©s
Ġlit tor
ith ecus
ĠBon apar
ĠsÃ² mi
Ġimm ob
ĠRh in
ĠLin ha
Ġpersegu ir
Ġproves it
Ġriv alitat
estan h
Ġnar racion
ĠCos tat
Ġchif ra
Ġcontrarot lar
ON U
Ġfib ras
apt iste
ĠRoss elhon
ĠBulg aria
Ġaproxim ativament
Ġpropag anda
Ġadvers ari
ĠInici alament
ĠCertan ei
Ġcov id
ÃĴr dre
alien acion
Ġcirconst Ãłncias
Ġcircons cripcion
ĠforÃ§ada ment
Ġvicepres ident
Ġrebell ion
efica citat
I N
L e
L ou
O b
e te
g ment
g Ã³
i ografia
m ir
u alament
Ġl Ã²cs
Ġp Ã²ls
es telas
Ġs ans
ar ga
ar ina
at Ã²ris
qu ets
Ġm y
Ã² ch
Ã² ct
is lam
ra q
Ġf lex
Ġt ocar
ĠL ic
ĠL anas
Ġen ciclop
Ġper meses
am ics
os ex
Ġre don
Ġre ctor
Ġb ov
ĠC ron
ĠS ig
ĠM end
ĠM ot
ĠM ov
ĠM ou
ĠM ill
ĠM ath
Ġal inh
ĠD er
ĠD Ãłrius
ĠB av
ĠB ec
ĠR ock
ĠT ir
Ã¨s a
ĠI rlanda
ĠEn g
Ġap res
19 18
Ġpl ural
um iditat
ond er
Ġest Ã¨las
Ġ18 14
Ġ18 81
Ġgran it
ranc ament
ud at
ib ar
Ġcl or
Ġri bi
ĠAl ibÃ¨rt
55 1
55 3
Ġcaus adas
ep is
Ġpers ist
Ġass um
99 5
ĠÃ ģ
Ġel Ã¨its
Ġprov inci
Ġserv ar
inc ourt
ira c
Ġpublic adas
ret ot
Ġdesp uÃ¨i
ivers ari
ograf icas
Ġfu guÃ¨ron
rÃł riament
Ġind ustria
laÃ§ ament
ind ustri
ĠAv inhon
Ġmag ia
Ġni Ã§
Ġjulh Ã¨t
Ġfavor izÃ¨t
Ġrefer Ã©ncias
Ġsembla va
Ġfab ricas
ore l
Ġsepar ada
ĠTr enta
ĠAng leses
Ġrespons as
Ġcresti anas
ĠPl ana
Ġvolont aris
ext rem
Ġmodific at
ĠRegion al
Ġassai ar
ĠBes an
ĠmÃ¨t ro
Ġempach Ã¨t
Ġavant atge
Ġlaiss Ã¨t
ĠprÃ¨tz fach
Ġisol at
Ġterritori ala
ĠGir ard
Ġestrateg ic
ĠPod Ã¨tz
Ġinterven cions
Ġeste re
Ġreserv at
osau re
Ġnota bles
Ġhas Ã³
Ġexterior as
Ġrestabl ir
Ġdiscuss ions
ĠEns enh
Ġespecific ament
Ġfun er
Ġintermedi ari
Ġmiss ils
Ġnerv iÃ³s
Ġangl osax
Ġobt Ã©ner
Ġille g
ĠDioc le
Ġcil ind
Ġreferend um
A D
E T
J ean
M ichel
N O
V ila
c arnacion
i blament
m atge
v Ã¨l
w ood
Ġ >
Ġ 98
Ġp ir
Ġs inf
of Ã²ns
Ġc ourt
ar y
in ta
in Ãłria
un da
Ġf este
ĠL ap
ĠL ille
au b
Ġper form
ol ha
ĠA dam
Ġb ev
Ġb anas
ĠC art
ĠC erv
ĠS tra
ins ureccion
ai gas
ai ritz
Ġcom edi
ti ons
ĠP rim
Ã© u
ul osa
Ġr oss
Ġr Ã¨is
ĠLo Ã¯s
ap ro
ĠB ul
ĠB rit
ĠB izantin
av ion
Ġdes bremb
ĠG R
Ġent amen
and es
Ġcap a
ass at
ĠJ ol
og at
Ġpre con
ons elh
Ġres c
Ġav Ã³
Ġav Ã¨va
Ġh Ã¨t
Ġh ab
Ġh ial
Ġesp Ã¨ra
Ġ18 84
if Ã¨r
Ġtemp Ã¨sta
ĠAn ne
Ġfranc o
Ġmes as
55 7
Ġlu Ã²nh
88 1
88 7
Ã²p s
ĠK ub
Ġins Ã¨ctes
ĠÃ Ģ
Ġesta pa
Ġconf usion
Ġposs ibles
Ġmet res
Ġmen im
Ġresp ec
Ġsc Ã¨nas
Ġ5 7
ĠRo uss
Ġsubre vis
Ġclass icas
ograf ics
Ġprof e
Ġdec ret
Ġep id
alha c
Ġsegond aris
Ġdob ertura
Ġmo tiu
Ġfond ators
Ġbi ografia
ĠvÃ²l s
arr Ã¨st
Ġequ ilibri
Ġestabl iguÃ¨t
ĠRei au
Ġfen Ã¨stra
Ġesper ant
rad ura
cin as
Ġpet its
ver d
Ġinici ala
Ġquim icas
Ġescrich s
Ġcreat uras
Ġdestru cha
rom agnet
ĠgrÃ¨ vas
ĠGener alament
Ġgar ant
ĠJac k
Ġangles as
Ġdetermin ada
Ġsoviet ics
Ġquad res
roc arb
Ġreme mbre
Ġprum Ã¨ra
Ġparl adas
Ġpersegu ÃŃs
Ġdan Ã©s
Ġeste la
Ġconfir ma
Ġsequ Ã©ncias
Ġacadem ica
Ġcrat Ã¨rs
ĠPop ulara
Ġib n
Ġannex at
ĠCarn aval
ĠTib et
Ġfeu d
Ġartes an
ĠLoc alizacion
Ġdisponi bles
Il la
Ġvisig Ã²ts
Ġneer landÃ©s
Ġit iner
Ġconsult ar
Ġbaill iage
ĠSanti ago
ĠMeur the
3 12
A ut
I rlanda
V all
e qÃ¼ator
f it
f ant
h ada
j am
n ascuda
Ð º
Ġ 68
Ġ 64
Ġde tect
Ġp h
an tiquitat
Ġc urs
ci ent
ci Ã³n
Ġe qÃ¼
or quÃ¨stra
Ã² Ã§a
ent an
ent end
om enat
au re
Ġv Ã²t
Ġv otar
Ġen v
Ġen z
Ġn et
os p
Ġre iv
Ġb eure
Ġg arr
ti ma
ĠP Ã¨ira
ĠP intura
Ã§ al
ĠM iss
ĠM ing
Ã© ter
ĠD ip
ur m
ur n
Ãł der
ap licar
ĠR on
ĠR est
ĠF ai
ĠF ilh
iv ement
ig Ã¼
Ġdes enc
ĠG and
ĠG od
ĠG ama
ĠN a
Ġsus ci
Ġtra c
tes a
ĠEs parta
aut itas
Ġpl ur
Ġex acta
Ġab at
Ġimp lanta
Ġ18 51
Ġesc asenÃ§a
Ġcons ent
ĠH ist
Ġdem ografica
ĠSe p
Ġbas adas
Ġform ular
emp er
85 7
ĠK ant
Ġcal Ã§
Ġcapit alisme
ori entacion
ĠAr ron
Ġcos ti
Ġdeis har
86 2
Ġmod Ã¨sta
Ġdesvolop adas
Ġemp acha
Ġer eti
ĠIn dian
ĠÃ²b res
Ġmant Ã¨u
Ġpresent ada
Ġespeci au
Ġrepresent ats
Ġmi eg
Ġsign Ã¨t
Ġbar ons
Ġrealiz a
Ġsab iÃ¡
Ġrecon eis
ĠRe ina
Ġgra matic
Ġvari ar
Ġsegond Ãłria
ĠentraÃ¯n at
inter Ã©s
Ġsal vat
Ġpos teriora
Ġpes uc
Ġmo iss
let in
Ġtor istica
ĠVi Ã¨lh
Ġpe ti
ĠCl am
Ġespanh Ã²ls
Ġrest ric
ÃĴ lt
ĠAm or
Ġparte jar
Ġgraf ica
Ġunivers itaris
ogra ma
Ġrefus Ã¨ron
ĠPl anta
Ġurb ans
ĠrÃ¨ ina
Ġvac anÃ§as
ĠcollÃ¨g is
Ġmed alha
enf ants
Ġfondament als
Ġmultip licacion
Ġsil ex
ĠBor ges
ĠMerc uri
Ġruss as
Ġdemen iguÃ¨t
ĠcÃ²nsol s
Ġpil Ã²t
Ġclub s
Ġestrangi ers
Ġamp l
Ġremon tan
astron Ã²m
Av inhon
Ġobri Ã¨rs
Ġpresidenci alas
Ġcrom os
ĠAj untament
Ġprior itat
Ġfec ond
Ġped of
ĠUt iliz
ĠSec ret
ĠPrincip at
ĠPÃ² don
Ġsosmar ins
Ġincor por
ĠTrib unal
ĠSm ith
espanh Ã²l
ĠMosc Ã²u
Ġdissol ucion
ĠMaced Ã²nia
ĠChr istian
Ġcandid atura
Ġappel lation
Ġograph ique
ĠBonapar te
1 22
M a
P a
V D
c us
e guÃ¨ron
f ament
o da
p ort
t ics
w ig
Å Ł
Î ·
Ġd or
en ga
Ġp ei
es fÃ¨ra
Ġs ing
er ra
qu ias
ci ans
in augu
un ificar
ent atge
Ġf lo
Ġf auta
it au
Ġqu aus
ic at
Ġt ai
Ġt ust
Ġt iran
om icas
Ġv eus
Ġper cepcion
am istat
il is
ĠA im
ĠA na
Ġb Ã²ria
Ġb izantin
Ġ1 10
ĠS ic
ĠS Ã£o
ai g
le i
ran us
Ġal lu
ĠD ob
ĠR amb
ig rants
ac ost
ĠV eire
itu ir
ĠN ational
and ia
Ġdi oxid
Ġap ogÃ¨u
Ġau ie
Ġpl omb
Ġpre dec
Ġex istir
ag on
ag er
ess encial
Ġest ruct
va is
ĠQu i
ĠH ans
Ġdem onst
ex ig
Ġrep ausa
ĠDe mpÃºs
Ġma is
Ġform igas
Ġprin ces
ĠCh ile
55 2
ric an
88 2
88 3
85 3
olog ne
Ġfam ilh
up cions
Ġsos p
Ġsos car
aci tat
Ã²s is
Ġjorn adas
ĠAqu era
ĠAr thur
Ġst ria
54 2
Ġtrob Ã¨ron
Ġca una
Ġdest inacion
Ġ5 1
Ġcompaus ant
Ġmi Ã¨
Ġclass ament
Ġroman Ã©s
Ġsab la
arg am
vi ol
Ġdefin idas
ĠCal d
Ã¨ct re
ĠMi guel
Ġtecn ics
Ġprote ctor
Ġdu es
oni ana
Ġcontin ua
Ġdescob riguÃ¨t
ĠAv airon
Al pes
arr ond
Ġrefer ÃŃs
Ġviv as
Ġnove me
Ġinv ers
ĠGen Ã¨va
Ġlev ant
Ġprom ot
Ġdim en
Ġdemand an
Ġacc el
Ġbra vament
ĠCr istian
Ġdub rir
Ġcop ar
Ġprodus it
Ġindustri alas
Ġpau ra
olit ana
Ġmate matica
Ġconcent rar
Ġprogress iva
Ġbibl iot
Ġeiss idas
agu esta
ĠsÃ²r res
Ġjuri d
Ġlaiss ar
ĠLau renÃ§
ĠFre ud
Ġpractic ar
Ġpaci fic
Ġcontuni Ã¨ron
amass ada
Ġrecens ament
Ġcens ura
Ġlot jaments
Ġmetrop olitan
Ġanal isi
Ġquoti diana
Ġsoven ir
Ġrestaur ant
Ġregul acion
ĠLomb ardia
Ġolog iques
vÃ¨rn he
Ġdictat ura
Ġtrent ena
ĠWikim edia
Ġpira mida
seg on
Ġsubt rop
ĠMalh Ã²rca
ĠparrÃ² quia
Ġamino acids
ĠLaura guÃ©s
ĠCated rala
Ġmandad ÃŃs
8 77
9 33
d Ã¨t
d et
f ug
i qui
l ing
m il
o tip
t icas
u alitat
z ada
Ï ħ
Ġa guda
as as
Ġs als
ar te
ar gument
er mont
re i
Ġm un
Ġm Ã²t
om en
ĠL aurent
Ã¨r me
el eccions
ĠS ap
ĠS ac
ĠS and
ĠS tar
Ġcon eg
im an
ul Ã¨t
ei d
Ġal p
ĠD iss
ĠD arri
ĠD omb
ur Ã¨t
ĠB ret
Ġj Ã²ia
ĠR ud
ig an
ĠG PS
iz acions
ac ulh
ĠV auc
ĠN orv
Ġent itats
Ġar Ãł
Ġar ca
ort h
Ġpre g
Ġpre ocup
Ġesp ectacle
Ã³ mbia
ast res
ĠQu eb
Ġcam Ã¨ra
Ġtr in
Ġtr uca
Ġri val
ĠDe b
Ġpass adas
rÃ¨s ta
Ġregion au
Ġcor red
85 1
85 2
ert s
Ġvi king
Ġrom pre
ĠMar y
esp essor
Ġsos tien
Ġro jas
Ġdesc endent
ros es
gi guÃ¨ron
84 3
Ġtrob ats
ĠCon tes
Ġdest r
Ġmen aire
ure tat
Ġpat ir
arm onia
Ġbia isses
itud s
Ġnacion alitat
Ġneg ar
Ġbar rada
Ġsab ent
Ġcast Ã¨ls
Ġfl Ã²tas
esta di
Ġrecon quista
Ġint Ã¨rne
Ġid ro
equ ival
Ġdu ch
onda ment
Ġsec ada
Ġdeci dir
Ġinternacion als
In ternet
Ġbl Ã²t
organiz a
ĠBo da
Ġnomen ava
Ġviv iÃ¡n
ais ha
arb it
Ġespaci alas
Ġfronti Ã¨ras
Ġparla van
ades ion
uf is
Ġassegu rada
Ġinstall ar
Ġsuf ÃŃs
Ġpaus ada
Ġparlament ari
Ġdecl inason
Ġvint enat
Ġcompanh s
Ġtomb Ã¨t
Ġfondament al
ĠFer din
Ġvad ut
Ġpert ocant
Ġarch ius
avi acion
ĠPat rimÃ²ni
Ã²ss a
Ġpreced entas
inici acion
Ġteor ica
Ġsuccess ivament
Ġfid Ã¨us
Ġlengadoci ana
ĠAugu ste
Ġimag inar
Ġfief s
Ġamp le
ĠGir onda
Ġbarr Ã²ca
ĠAten encs
ĠPrin ce
ĠNeg re
Ġfres ca
Ġtab lÃ¨u
Ġtradu ctor
ĠJust ÃŃcia
Ġconn exion
Ġtransfer iment
ĠEnter in
ĠOs car
ĠVir g
Ġtest ament
Ġmeridion ala
Ġcampion at
ograph ique
engu arda
Ġdesvelop ament
ĠCiv ila
Ġevid Ã©ncia
Augu st
Ġvisit aires
urban izacion
Ġgaran tir
Ġpelegrin atge
ĠLiter atura
Ġconfigu racion
Ġcomme mor
ĠRÃ²cafu Ã²lh
Ã²ct en
6 11
G rand
I ran
L E
U S
h et
j Ã¨t
k k
m ac
n il
r era
t ura
Ġ q
Ġ 39
Ġl enta
Ġl istas
Ġp irat
es ion
end ra
Ġs illa
Ġs arr
Ġc ass
ci e
in us
Ġm Ã¯
or ics
ra ina
it ava
Ġt ent
ĠL amb
da van
Ġen te
Ġn Âº
gu en
ĠA icÃŃ
Ġb ras
Ġb oc
Ġb Ã¨c
Ġb utar
ĠS y
le ta
ti ment
ĠP ot
Ġcon ced
Ã© cia
Ġson t
Ġal h
Ġal i
ĠD ig
ĠB ag
Ġj Ã³nher
iss at
iss ari
ĠT ec
ĠT rip
ig ar
ig ada
ig eses
ĠG ers
ĠG anh
Ġpr olet
tan has
Ġpo dem
ĠN ik
Ġdi es
ob s
og Ã¨n
Ġcont ent
ce au
Ġentre pren
oc adura
ĠcÃ² di
Ġmar x
Ġ18 20
Ġ18 44
Ġ18 58
Ġgen etica
ĠSe ta
ss on
enc ara
Ġcl an
ed Ã³s
Ġsol dat
int encion
ilh ats
Ġam ar
lu ent
Ġtorn arÃł
Ġfar Ãłn
Ġat ra
ĠAr ist
56 7
86 1
84 1
84 2
84 7
mat icament
ef f
Ġdev isa
Ġ4 3
arm ament
Ġdesp ensas
uss e
Ġdist int
Ġmant unas
Ġespeci alista
Ġespeci alizats
Ġlig ason
ral op
ann i
Ġeconom ista
Ġsign ificat
Ġautre is
ĠPro c
inat ors
ĠpaÃ¯s an
Ġparticip an
oni ans
Ġev entu
Ġconv Ã©ncer
Ġmol on
Ġsal ari
Ġciv ils
Ġbi oquim
Ġcau da
Ġmondi alas
Ġop tim
Ġ179 2
Ġ179 4
air ons
Ġbra va
Ġcaracteriz ats
ĠRoma ins
ĠDem Ã²ra
Ġbalh an
ĠEsc ut
ĠEsc Ã²cia
lav atge
com unic
Ġestran h
Ġinstall acions
anim acion
Ġrestau rada
Ġregular as
Ġdeg rada
Ġmediev au
Ġconcent ra
Ġfinanci Ã¨r
Ġmultip lic
Ġtur ca
ĠOn t
arre ceb
Ġconsac rada
Ġsuccess ivas
Ġastron Ã²ms
Ġdemen icion
Ġatribu it
Ġrememb rar
Ġreconst ruccion
Ġextra ordin
espand iment
Ġoct Ã²bre
Ġproble mas
Ġregist re
Ġestrateg ia
ĠPod Ã¨m
Ġfres c
Ġconcern ÃŃs
Ġsols tici
ĠGi ov
Ġincl utz
Ġesti mat
Ġbau ma
Ġdecenn is
Ġelectron ica
ĠVern y
ĠVir gin
Ġmari dada
Ġsai que
Ġarqu itÃ¨cte
Ġrej onh
Ġdiscu tida
ĠExt ension
Ġolog ique
ĠVinc enÃ§
ĠValenci an
Ġgaulo ise
exerci ci
ĠBibl iotÃ¨ca
exemp les
ĠreÃ¯n carnacion
ĠSuperi or
Ġcheval ier
Ġnoi rir
afebl iment
ĠCrim Ã¨a
4 23
4 11
4 17
5 21
5 23
6 17
9 11
9 17
I A
M on
c rit
d Ã©
f al
l end
n um
s ur
v Ã¨t
v ath
y on
z ia
Ñ ģ
Ġ 96
Ġl ana
on di
on Ã¨s
Ġa Ã¼
Ã¨ ime
an at
an Ã©s
Ġs atges
of Ã¨rta
at ri
in nov
al ada
is can
Ġt amp
Ġt Ã©ner
ĠL ars
Ġper cep
Ġper du
Ġn il
Ġn ul
gu ments
el ada
ta van
ĠA il
ĠA ustri
Ġre cit
Ġb our
ĠC ala
Ġg reg
ĠS od
ĠS arre
ti das
ĠP Ã¨
ĠP ara
ĠP Ã²rta
ĠP tol
ĠE ur
ĠM all
ul i
ran ge
Ġson ats
Ġson ava
Ġr Ã¨stes
ch in
ĠB org
ĠB ak
di p
ĠF ilha
iss ar
iss ance
ĠT et
20 03
ĠG on
ĠG ros
ĠV in
ov er
Ġpo dava
Ã¯ cs
eu c
Ġcont ras
Ġi Ã©
Ġpre j
Ġh i
oc ent
Ġmar quÃ©s
Ġac u
Ġ18 26
Ġ18 77
Ġesc apar
Ã²l hs
esc as
esc au
Ġdon jon
od or
Ġdem es
ud ia
Ġrec erc
ult ure
enc orat
Ġtr onc
Ġsol lici
Ġcre adas
ĠCh ev
90 7
ĠCom mun
Ġcaus ant
Ġprincip ats
Ġgener als
Ġnov el
ub i
Ġfon etica
amb i
tiv ada
Ġann ad
Ġins p
Ġtrabalh at
Ġver ificar
aqu era
Ġmet on
Ġco teaux
Ġlong ors
09 7
Ġer upcion
Ġer rors
ef ectu
Ġcr us
Ġval ada
Ġdesp leg
Ġmal aut
Ġten guda
Ġbar onnie
arg at
Ġdefin icions
Ġapar elh
Ġagu Ã¨sse
Es tiu
ĠZ anz
Ġid rogÃ¨n
ĠMi quel
jec cion
ĠEstats unid
Ġocup ats
Ġocup adas
ĠFranc o
Ġost aus
Ġmarc adas
ĠVi elha
Ġanim aus
Ġorigin aris
Ġnomen adas
Ġreb utar
Ġconten guts
Ġpen j
isc op
Ġprev istas
ĠDem ocratica
Ġmarid at
Ġfer mentacion
Ġmateri au
Ġmanten gut
Ġtele vis
ĠEurop Ã¨us
Ġtir at
Ġident ificat
anim itat
Ġw ik
Ġmencion a
Ġconta ct
Ġmecan icas
Ġtrap at
Ġjus te
ĠlanÃ§ at
Ġguer ra
Ġaperten ent
Ġnucle oti
AR EP
Ġort h
gen er
Ġfeder al
ĠsÃ¨r p
Ġtit olat
Ġparl Ã¨t
Ġviat g
Ġafric ana
Ġclimat icas
Ġmeta fis
Ġsufis ent
Ġconfir mat
Ġnad ar
Ġeta pas
Ġsultan at
Ġincend iat
Ġautomat ic
Ġepis Ã²dis
Ġgasc ons
ĠDou bs
orig in
Ġteiss ut
Ġteiss uts
Ġtun Ã¨l
Ġindispens able
Ġordon Ã¨t
Ġblas on
ĠglÃ²b e
Ġsinta xi
Ġnoiri dura
Ġpellic ula
Ġinten cion
Aust rÃłlia
Ġmarselh Ã©s
ĠVerc ors
ĠFL AREP
ĠZanz ibar
0 23
0 27
0 33
4 27
4 33
5 11
5 77
6 21
6 27
6 33
8 21
8 23
8 27
8 11
8 33
8 17
9 21
9 27
B a
P D
a eron
a illes
e ter
e ma
f ons
h ara
j ust
m od
o cia
o est
p rÃ¨t
r alas
s k
t ors
u an
y en
Ġ â
Ġa das
Ġa isses
end icul
Ġs ants
Ġs Ã¨tz
Ġs arra
of ensivas
Ġc of
Ġc ari
Ġc alh
ar Ã©s
Ġf Ã²l
Ġqu Ã²
om ics
au di
ri o
Ġv Ã¯
Ġn t
Ġn asc
el ic
ta ble
Ġre le
Ġse ign
Ġb ip
Ġb Ã¨ls
ĠC ari
Ġcom mand
ro ves
ĠP ala
ant on
Ġcon ques
et an
ĠD en
ĠD iu
Ãł pols
Ãł vem
ens e
ens tein
iss y
av o
Ġdes Ã¨rts
Ġin vasion
ge b
ĠV ida
ĠN iv
ĠEn tÃł
Ġnom ada
Ġap Ã¨l
Ġli Ã¨ch
Ġpre gond
Ġav ocat
uc ar
uc le
Ã¨i res
ĠO ctavius
Ġ18 22
Ġ18 62
est rat
est endre
Ġpol its
Ġcre ant
ĠAl an
ĠAl iats
ric ana
Ġdis i
Ġtorn ant
Ġvi Ã¨lhas
Ġro d
Ġfor Ã§a
erv ille
inas ons
Ġpich Ã²t
Ġtrans e
Ġaf ich
Ġesta ble
Ġestat uts
56 3
94 1
ĠEst Ã¨ve
Ġag antar
Ġresp ira
Ġpat iguÃ¨t
Ġcr ud
avan Ã§ada
ret ament
ell acion
ubl icas
Ġmej anas
Ġcontunh an
Ġve guÃ¨ron
Ġocup an
ĠTot jorn
Ġpes ucs
ĠVi aule
ĠCatal an
arr y
Ġmondi alament
Ġop cion
ĠCol Ã³mbia
Ġcompren ent
Ġlev ada
Ġcoll Ã¨ga
Ġemb arc
pe z
Ġinici ativa
Ġmost rat
ĠSo ta
Ġcaracter istic
Ġvalor izar
ĠFin alament
ys tem
ĠPl ou
Ġpurm Ã¨rs
Ġrend ut
Ġinstall ats
establ iguÃ¨t
ocrat ic
Ġfix ar
Ġsoviet icas
Ġinteg rar
Ġorb itas
Ġcircul ara
Ġarch ite
âĢĿ ,
ĠVil an
Ġsep el
Ġrescont rar
Ġdesir Ã³s
ĠsÃ² ci
adop tar
abil itats
Ġsiste ma
ham mad
Ġemple ga
Ġpilh atge
Ġbut te
ĠtrÃ² ne
esple cha
opaus ar
Ġrefugi ats
Ġperp endicul
Ġcompeti cions
Ol iv
ĠIst oricament
Ġretrob ar
ĠAnn ibal
lov aquia
orv eg
Ġfich iÃ¨rs
Ġsindic ats
ĠTemp s
ĠVerd un
Ġfemin in
Ġteat rala
ĠFot ografia
Ġviolonc Ã¨l
alem and
ĠSet mana
Ġhra ir
Ġchimpanz Ã©s
Ġplataf orma
explos ion
Ġcere alas
ĠKub rick
ĠFerdin and
0 21
0 11
0 17
0 77
4 21
4 77
5 27
5 33
5 17
6 23
6 77
9 23
9 77
A is
B aptiste
D on
G C
f ec
g s
m ic
m ons
p ent
p inhan
r ona
Ï Į
Ġ ors
Ġd ru
Ġl Ãł
an Ã¨l
Ġc ura
Ġm oss
Ġm enÃ§
Ġla mp
al unh
ra us
Ġf aus
Ġf Ã¯
Ġf ius
om an
ĠL ec
Ġv elh
Ġen ce
Ġen riqu
Ġn Ã¯
Ġn ostal
Ġn orveg
ĠC anta
Ġg ir
ĠS or
ĠS imp
ĠS ost
ai as
ĠP av
ĠP ros
ant enat
Ġcon re
im mens
ĠM ei
ĠM aire
Ġr ars
Ã²r mes
ĠR ot
ĠT am
iv i
Ġamb ient
ac om
ĠN Ãłpols
Ġte ct
ma cia
Ġtra Ã§a
ĠEs s
Ġau b
Ġau er
ort ografia
Ġex teriors
Ġh ons
Ã¨i as
Ġac um
Ġimp uls
Ġsitu ava
Ġ" .<|
ĠH erb
Ġri d
Ġcre mat
ĠAl ba
ĠPer que
Ġpod en
Ġcor d
Ġcor atge
ian Ã§as
Ġgener alizada
Ġob jec
Ġconst ren
Ġconst ruc
ĠPar k
Ġvol ar
don esia
ific acions
Ġconf ron
56 1
56 2
94 3
Ġrepres a
Ġcontra p
Ġcompaus ar
Ġba ct
Ġmi eu
Ġten ent
Ġdec Ã¨n
Ġfl Ã²ra
ĠMa h
ĠMa jor
Ġrecon Ã³isser
tac Ã¨u
Ġmajor it
ĠÃ² sses
Ã¨ct s
Ġeg al
ĠMi k
Ġmor ÃŃs
Ġcorr enta
Ġmarc ats
ĠRom ana
Ġcat ara
Ġanim at
Ġrefer ir
Ġcrit ics
Ġviv iÃ¡
Ġcompren on
ide ologia
Ġprim Ãłria
tific acion
Ġcaracteriz an
ĠTan z
Ġreti rat
Ġmanif est
Ġsen on
ĠprÃ² chas
Ġvir t
Ġom ogen
ph in
ĠBr uss
ĠBas ilica
Ġjo guÃ¨t
Ġadministrat ius
Ġsac erd
Ġbil anÃ§
Ġroma ines
ĠMarc el
Ġfondament alas
Ġfogu Ã¨sson
Ġsel va
Ġmort alitat
Ġcono guÃ¨ron
Ġalb ums
Ġpatrim oni
Ġprigond as
Ġatac at
ĠFor um
Ġris ol
Ġperc or
ĠMerc Ã©s
ĠTorn Ã¨t
ĠcÃ¨l tas
Ġleugi Ã¨ra
Ġpedagog ic
Ġarque ologicas
Ġprefer iguÃ¨t
Ġhilh s
ĠPi emont
Ġajud Ã¨t
Ġcarg ats
Ġtanp lan
abri al
Ġbearn esa
Ġtoponim ia
Ġsed iments
ĠCir c
Ġrecors es
Ġrect an
Ġbru ch
Ġty m
impaus ar
Ġequival ent
Ġplu vi
Alex andre
Ġposse deish
Ġreag rup
Ġvalenci an
ĠrÃ² das
ĠChin Ã©s
ĠGram my
ĠPent ru
ĠOng ria
Ãłnd ria
Ġalu enh
ĠBrion nais
ĠBoca ge
Ġredon da
ĠNorv Ã¨gia
ĠEstatsunid encs
0 13
D i
T P
d y
g y
g ava
l is
p x
z en
z el
Ļ ×
Ġd urar
en y
Ġp ep
Ġp istas
Ġa ira
Ġm essa
or don
Ã² xa
it ivas
Ġt ril
Ġt igre
ri am
Ġv ÃŃ
Ġn ut
Ġn Ã²m
os h
il de
Ġse con
Ġse tanta
Ġb Ã¨ra
Ġb lo
Ġ1 05
ĠC ai
ĠC LO
ĠC ity
ĠP ess
ĠE y
im Ã¨tres
ĠM ent
ĠM ada
ĠM Ã¨stre
Ġal geb
Ã²r tan
ist o
ch on
ĠB id
ĠB ois
Ġj ou
ĠF esti
ĠF rom
iss anÃ§a
ĠT Ãł
ĠT GV
ig i
ig ht
ĠG ab
aus en
Ġamb aiss
ac o
ĠV ire
ĠI sa
Ġcap luÃ²c
Ġtra ches
Ġap lica
ĠJ ud
Ġtan b
ob t
Ġcomp tes
Ġcomp licat
og os
ec ran
Ġex cep
ag ra
Ġh eur
Ġh istoire
Ġab ol
Ġab riu
art ilhariÃ¡
Ġ18 38
if s
ast ras
ĠH ugu
Ġmon oc
Ġrec r
enh as
Ġplan h
ĠÂ» ),
ĠCh an
Ġcor te
man uel
utiliz Ã¨t
ĠFran z
Ġdef orm
ĠW orld
ĠAr geria
Ġaf ortir
Ġconf ins
Ġgrand or
Ġdeis h
ĠpÃ² di
Ġag rop
Ġsuc ce
Ġloc alament
Ġmen or
Ġval adas
Ġsc enar
04 1
Ġdesp uei
emb la
Ġespeci alizat
Ġdemor ada
Ġdemor avan
ĠcÃ²r pus
Ġva il
ĠAu de
Ġfem Ã¨las
Ġtradicion aus
Ġves iÃ¡
Ġtor istic
Ġmedi terranÃ¨a
Ġvertadi Ã¨rs
Ġdich es
urs ions
elle ment
Ġant is
Ġem erg
Ġemb ar
ĠmÃ¨s te
rad ors
ĠTo ul
estudi Ã¨
Ġsau var
ĠpÃ¨r d
ĠprÃ² vas
Ġadop tar
Ġsob retot
Ġdin osaures
Ġbr Ã¨u
Ġrecu elh
ocrat a
ĠpÃ²s can
Ġvaria bla
Ġdepend Ã©ncia
Ġgall orom
Ġinteg rada
ĠBal cans
Ġconquist Ã¨t
Ġmalais at
roma in
Ġide al
ĠreÃ¼n ir
ĠJohn son
Ġtestim Ã²nis
Ġlegislat iva
Ġefica citat
Ã¢ n
ĠRen Ã©
Ġproclam acion
Ġpil ars
rou x
Ġsignific ativa
Ġcomtes sa
Ġpartement ales
Ġaplic ada
Ġdefens as
Ġmac ed
ĠHu ang
ĠPers eguida
Ġparci ala
Ġcenten aus
Ġbacin s
ĠArn aud
Ġts un
Ġtub e
Ġmetrop Ã²li
At lantic
Ġdecid ÃŃs
Ġautomat icament
Ã©l her
engat jament
iel d
Ġirre gular
individ Ãºs
ĠasteroÃ¯ des
ĠIb n
Ġrug am
aer opÃ²rt
Ġbesti al
ĠAnton in
entraÃ¯n ament
abol icion
Ġalent ours
Ġsaun osa
ĠRoy al
Ġprol ong
ĠCompanh iÃ¡
Ġmistral enca
ĠresÃ²l vre
Ġmerav ilh
ĠPequ in
ĠnegÃ² ci
ĠPelop onÃ¨s
Ġdigloss ia
ĠSard enha
ĠTest ament
rocarb urs
Ġconeg Ã³
ĠTanz ania
Ġsecon da
3 22
9 13
9 73
A tenas
D in
E rau
P er
e il
f inat
i Ã§a
i ents
j ok
k en
n iv
r Ã¨c
u en
v iv
Ã ¸
Ï Ģ
Ð »
Ġl Ã©ser
Ġp ian
Ã¨ le
in ville
re p
re v
Ġe tern
Ġm Ã²des
it ala
Ġes fÃ²r
am on
am as
Ġn it
gu r
Ġdel la
il y
ĠA man
ĠA DN
Ġre cip
Ġre Ã¼
Ġb ou
Ġb osc
ĠC ori
Ġcom tats
ĠP in
ĠP ou
ĠP eir
Ã§ ava
Ã© es
ul ats
ul sion
et Ãłria
Ġr ara
Ġr Ã²c
ĠD eg
st as
ica p
Ġpas tre
ĠB eu
ĠB Ã¨l
ĠB asco
ĠB aisha
ĠF an
ĠF ro
ĠF Ã¨l
ĠF ort
ĠF ried
Ġdes m
Ġdes iran
iz er
ov en
Ġfo g
ĠN ai
ĠN ancy
ass ida
Ġtra Ã§at
ĠJ e
op ol
Ġav iada
uc aire
oc Ã¨n
ĠcÃ² mp
ich e
Ġ18 17
Ġra che
Ġcons erva
ĠQ in
ĠQu im
Ġrep t
Ġrep ais
ĠAn ti
Ġcre d
Ġcre issement
Ġpass Ã¨ron
Ġform avan
rÃ¨ ctament
Ġch iv
Ġch amp
Ġdis cs
Ġregion aus
Ġcal i
ub Ã¨rta
Ġcas tig
Ġdesc entr
Ġann ades
Ġann exion
95 1
Ġsoci aus
Ġpla jas
94 7
emple gar
Ġz Ã¨bres
Ġvis iblas
Ġloc alitat
Ġens aja
ĠcomenÃ§ an
ĠcomenÃ§ ava
Ġsub di
Ġmal ur
Ġespeci alas
Ġcultura us
ois es
ĠMa ch
Ġagu ent
li ers
ĠCal and
Ġgra fic
isti ques
Ġev esques
onda da
Ġsec ession
Ġpos teriorament
inst alla
Ġprepaus ada
Ġfre ja
Ġfavor ablas
Ġeleg ida
Ġsin tet
ĠEx p
rÃ² des
ĠcÃ²rs es
Ġlev ava
ĠNe ol
Ġsosten guÃ¨t
dus a
Ġpot encial
Ġcorrent ament
Ġpan at
ĠDem anda
Ġadop tÃ¨ron
Ġsant uari
Ġsom etre
Ġprodus on
Ġcab ra
rimi da
ext r
Ġpaus at
Ġpobl ament
Ġdeves its
ĠAlb Ã¨rt
Ġfilosof ic
Ġvo id
ĠCre issent
Ġsuperior itat
Ġinferi oras
Ġdestin adas
ante on
ĠFlor als
icol as
Ġmultip las
Ġtur c
Ġcalcul ar
fon taine
Ġcinqu en
ĠCer d
Ġillust rat
ĠFre ja
Ġindic ar
ĠEd ward
Ġescrit a
Ġensag es
ĠDic tion
Ġju ec
Ġcoloni au
Ġlitor au
Ġnaz is
Ġconven cions
Ġlimitrop hes
ĠGard y
Ġelectron ic
Ġsuplement aris
Ġposit iva
Ġpale ont
Ġcobr int
rast ructuras
Ġrecomp ensa
ĠpoÃ« sia
Ġcombus tion
ĠMunicip alitat
Ġdesl iu
Ġdisponi blas
Ġsosl inh
ĠAlf red
anth era
vÃ¨r b
Jac ques
ĠZel anda
Ġespecta cl
ĠEdo ard
Ġrecorre gut
ĠarÃł bias
% ),
6 73
A c
C l
C ap
C ast
H en
N icolas
U man
V C
b Ã²sc
d ÃŃs
f o
h um
k u
p ocrates
r t
y m
Î ¯
Ġ 79
Ġ 83
en v
en ch
Ã¨ xt
Ã¨ da
Ġc tes
Ġc um
Ġc Ã²t
ar l
ar en
or ada
Ã² tel
is ada
Ġf accions
it Ã©
ic es
Ġt ienne
Ġv res
el et
Ġre ctorat
Ġse guÃ¨t
Ġb ala
ĠC lap
Ġg anha
ĠS eis
ti bles
ti pe
ĠP ab
ĠP iren
ĠP ey
ant an
Ġcon tien
ĠE c
ĠE la
ĠE ric
im ont
Ã© is
Ġo dor
ran ce
Ġson das
Ġr ent
Ġr na
Ġr cis
ĠD up
ĠD aiss
ĠD VD
ad ar
ad jectiu
ĠLo p
ĠB ass
ĠB ang
Ġan am
di Ã¨r
ĠLa val
ĠR Ã²c
ĠF igu
ĠF MI
iss ements
av Ã¨
av Ã¨va
20 01
Ġamb icion
ac us
ac ompanha
ĠV Ã²l
itu de
Ġpo eta
ĠI NSEE
Ġte au
Ġdi as
Ġtra fic
Ġtra Ã¯s
Ġap assion
ĠJ on
Ġar omat
ĠU b
Ġcomp resa
op roven
ag rada
Ġesp in
Ã²t ge
ost ilitat
Ġ18 56
ĠH aw
od y
Ġter ci
enc es
Ġcl ient
ĠAn tany
Ġpol ar
Ġsol as
ĠPer pinhan
ie ta
gan ta
Ġman ja
Ġrel Ã¨us
Ġsens ib
Ġdo ctorat
Ġfar iÃ¡
Ġgener alas
Ġvi elha
ĠK enn
ĠMar x
Ġdep en
12 29
99 9
Ġins cripcion
Ġjorn au
Ġtrabalh ava
ĠMont p
Ġcamp ana
Ġca Ã§ar
94 2
Ġag ress
Ġleg at
Ġconc erto
Ġref le
Ġpat it
Ġdev Ã¨rs
ĠAques t
Ġpresent ant
Ġpresent ats
Ġmi tes
af irm
cul ara
Ġfu Ã¨lha
Ġroman ic
Ġistor ian
Ġais inas
Ġtrop ic
Ġjov ent
fici tat
Ġnav Ã¨ra
Ġdisc rimin
Ġext rÃ¨ma
Ġsup rÃ¨m
Ġess or
Ġpos cut
Ġend em
Ġsorti das
Ġapr Ã²
vir at
Ġcir con
Ġescriv ana
Ġsin teti
Ġpap e
Ġcob rir
Ġnatura us
Ġcomerci als
Ġnuc lÃ¨us
Ġautra ment
Ġfer r
Ġcresti anisme
Ġbal on
Ġconselh iÃ¨rs
Ġinici ativas
Ġelect romagnet
Ġast Ã¨ca
Ġindustri als
Ġbr un
Ġvolont ari
Ġtransform acions
ĠJac ob
Ġsac rat
Ġfrequ entas
ĠMol d
onc ourt
Ġdeves ir
ĠAlb igÃ©s
Ġescol an
Ġamor osa
Ġamor Ã³s
len ie
ĠAut or
Ġadap tada
Ġperman ents
ardi e
Ġpic ard
ĠBra y
Ġtur cs
oÃ¯ de
Ġdesserv i
Ġforn ir
Ġconstru ire
Ġacompanh ada
Ġprestigi Ã³s
Ġdistric t
Ġliqu ida
Ġaculh it
Ġvass au
Ġexcepcion ala
Ġbomb arde
Ġmeta bol
elect ricitat
ĠRes istÃ©ncia
Ġenvi at
Ġier arqu
Ġconfir mar
Ġfelib r
Ġcondam n
Ġvest it
Ġtel lenie
Ġfib ra
Occitan ia
ĠdialÃ²g s
ĠSatur n
Ġotom ana
Ġadvers aris
Ġoss i
Ġperif er
acu acion
ĠCantal ausa
Ġdiuers i
Ġbicicle ta
Ġseiss anta
Ġbachel ierat
) (
0 73
4 13
4 73
4 37
5 13
5 73
6 13
7 22
8 13
8 73
C ol
C lau
C alava
I ves
N R
a ic
c au
g ats
i Ã¨t
k ov
r Ã¡
r enh
u mb
v s
Ġ 74
Ġ 69
Ġ 58
Ġ ivern
on ics
te me
Ġp ai
Ġp Ã¨sta
Ġp omas
Ġp Ã²ple
Ġa ctitud
es fÃ²rÃ§
Ġs Ã²ls
ar es
at an
at ribu
un o
or p
or tada
Ġf isi
Ġqu o
Ġt aulas
ĠL itu
ĠL yn
ri ques
Ġv aquÃŃ
Ġen au
am n
am icas
gu ed
Ġdel ai
ĠA lain
Ġre alisme
Ġse men
Ġb lu
ĠC ord
ĠS S
ti gny
ĠP s
ĠP ons
ant rop
Ġr tes
Ġr va
Ġr ns
Ġpar adÃŃs
ap ogÃ¨u
ot ti
Ġj un
Ġj esu
quel a
ĠR ems
ĠF lo
ct ura
iv es
ab ond
ĠG om
ĠG ib
ĠG arc
ĠG arda
ĠN au
Ġent i
Ġcap lÃ²c
eu cl
eu ve
Ġar mat
Ġau vern
og lob
ec on
em it
ag or
Ġesp ec
ĠO z
Ġ18 45
Ġ18 46
Ġ18 57
Ġra mb
Ġra cinas
if er
if iqu
ast ra
Ġu Ã¨lh
ĠSe ver
ĠSe bas
ex in
ex clus
Ã¨m es
90 1
90 3
Ġcaus iguÃ¨t
Ġgu ida
Ġam er
ust rias
Ġcent rat
99 3
esp andiguÃ¨t
Ġcas c
Ġrev indic
Ġmin jar
ĠAr le
Ġestat uas
Ġmod el
Ġver b
Ġgl ori
aqu istan
Ġof rÃŃs
Ġben l
08 2
Ġsc ena
teg ia
Ã¯s ta
Ġsub ren
Ġrap roch
Ġmi x
af luent
Ġten iÃ¡n
Ġsab or
Ġapar egut
ĠMa omet
Est rasburg
Ġep ic
Ġint rar
Ar geria
Ġexist it
Ġcres ta
Ġocup Ã¨ron
Ġvall onn
Ġsal udar
Ġext Ã¨rna
Ġconqu er
ieu x
Ġfond Ã¨ron
eish ut
ĠAt lant
In ter
Ġavi at
Ġop os
Ġsent ÃŃs
Ġdamb e
pre f
Ġconten ent
ĠVen eÃ§
Ġcaracteriz adas
Ġrespons abla
Ġdre ts
Ġassegu rat
Ġfru cha
ĠMus eum
Ġpriv ats
Ġorgan ica
Ġtend Ã©ncias
Ġcaps ula
Ġdivers es
Ġvac as
Â» <|
Ġcatol icisme
Ġfran ch
Ġfran ca
Ġeng lob
Ġtruc ava
Ġarch ev
ĠCA N
Ġmultip les
Ġaten guÃ¨t
Ġaten enca
Ġdescub rir
Ġbenef icis
Ġteor icament
Ġvisc uda
ĠNov Ã¨la
Ġcultiv ada
Ġdarr Ã¨ra
Ġisol ada
Ġarre don
Ġcontre fort
Ġsubrev ida
Ġpast Ã¨l
ĠacÃ²rd s
Ġchap le
ĠpodriÃ¡ n
Ġdiplomat ica
Ġmult itud
Ġdivid ÃŃs
ĠBur Ã¨u
Ġdemocrat ic
Ġlatitud s
interess Ã¨t
ĠGÃł rdia
Ġbud gÃ¨t
Ġdioc Ã¨si
Ġrevendic acions
Ġmorf ologia
ĠrenfÃ²rÃ§ ament
Ġconfirm Ã¨t
ĠLeg ion
Ġpreci Ã³s
ĠPermet Ã¨t
ĠJov entut
Ġcombus tible
ĠTrabalh Ã¨t
ĠBai ona
Ġengenh aire
ĠCle op
ĠMong Ã²ls
ĠBarr y
Ġespir itu
ĠChart res
Ġespor tiu
Ø§ Ù
Ġfrac Ãłs
Ġjaci ments
Ġsimet ria
Ġneutr alitat
ĠEti opia
ĠMagdal ena
aragon Ã©s
Ġtyp ique
Ġaurel has
ĠQueb Ã¨c
Ġence inte
Ġheur Ã¨r
8 37
A I
A U
B eau
C E
E m
M S
O s
P roven
R E
a inat
d om
d uras
e mbre
h em
m u
m is
o ol
o cions
t in
× ķ
Ġ 67
Ġ 62
en es
en ja
en vi
Ġp oma
Ġs ig
Ġs se
Ġc ita
qu a
ci nacion
in k
in cion
Ġm eri
Ġm uish
Ġla gu
un ha
or on
is ol
Ġf alh
Ġqu er
Ġt ut
Ġt alas
Ġt acas
ĠL utz
Ġv idas
am ira
Ġn Ã²ble
gu Ã¯
gu iÃ¨r
ĠA ch
Ġre Ã§
Ġse da
Ġb if
ĠC uri
ĠP S
ĠP aire
im et
mb Ã²rd
Ġson ar
Ġal a
Ġal ig
Ġr ci
ĠD j
Ġpar i
la qu
ap re
ot ra
av re
ĠT ess
ĠG ri
ĠG el
Ã¨s ia
ĠV ist
Ġfo c
Ã©n cies
ma g
Ġnom in
ĠJ es
ĠJ ardin
de x
Ġme ma
ec os
Ġpre dat
ons o
Ġh Ã¯
Ġab itant
ina is
oc l
ĠO Ã¨st
ĠO fici
Ġven Ã§
Ġlen h
rit a
Ġaut o
Ġest ut
Ġ18 49
Ã¨u ro
Ġesc as
Ġmas c
esc Ã²las
Ġu elhs
ĠH abs
od er
Ġter rib
Ġrec ap
Ġrec Ã¨p
Ġrec ampar
Ġdeu te
Ġcre Ã¨ron
ven guda
90 2
Ġam istat
Ġman dadas
ĠK a
99 2
99 7
Ġsos c
Ġcone issiÃ¡
Ġconst ant
Ġrev irar
aci Ã¨r
98 7
95 3
95 7
ĠW ilh
ĠW ind
don c
Ġmin aire
Ġdom ani
Ġestat ges
Ġpoder oses
Ġcan als
96 1
96 2
96 7
Ġel len
Ġutiliz Ã¨t
ĠCar oling
amp le
Ġserv it
Ġconc ert
ĠIn noc
Ġvis itas
Ġmen an
Ġdesp roves
emb les
mes as
arc at
ĠRo ge
Ġpens ament
Ġ16 00
Ġgra va
inf antariÃ¡
Ġef ectivament
Ġlat ins
Ġcatal Ã²g
Ar n
qui et
Ġcel Ã¨st
Ġcel tique
Ġconv ers
Ġconv idats
Ġjov entut
ĠTot s
ĠAv er
Ġsal ut
Ġpos teriors
az ard
ĠÃ²m is
Ġfre d
Ġbi ograf
Ġdeban an
Ġdirig ent
Ġestabl idas
ĠMal ta
Ġem ission
rÃ² fa
ais inas
ide a
Ġacc entu
ĠEl isab
Ġfer ot
Ġparte jan
gar ve
Ġdre it
Ġunivers au
Ġast re
ile o
men atge
Ġut ila
gues tes
Ġobserv acion
install Ã¨ron
Ġvac a
lom er
ĠBeau mont
Ġimperi alas
Ġadap tats
Ġguer ilha
ĠPat ric
Ġnucle ars
Ġmaxim al
ĠFelip e
ĠÎ ²
Ġdesen volop
Ġcultiv at
Ã« l
Ġgerman ic
Ġisol ats
iac um
ĠRepres ent
dich es
Ġdemost rar
amass ar
Ġcoloni ala
ĠgrÃ²ss as
ĠDesc ob
Ġdiplomat ic
Ġfr Ã²nt
adap tacion
Ġefec tiu
Ġpeleg rins
Ġdinam isme
Ġregul ara
ĠTrob adors
Ġimmens a
Ġaci ds
enregist rament
ĠAper ten
Ġcinemat ografica
Ġquinz ena
Ġbatalh ier
Ġpress ions
Ġinterpret ar
Ġparam Ã¨tres
ĠRol and
Ġescoc Ã©s
ĠSigu ec
ĠPingo in
Ġfact o
Ġtermodin amica
Ġreiv indic
arrond iment
ĠGiov anni
ĠtraÃ¯s on
ĠVeneÃ§ u
ĠCleop atra
0 37
6 37
J os
P E
R hin
S anta
c ament
f us
f ol
h tt
i Ã©
l og
x ia
z t
Ġ 77
Ġ 61
en ia
en ger
Ġp ie
an onci
Ġs iv
Ġs ord
Ġc is
at ta
at ions
Ġe met
al Ã©s
al co
or ges
Ġf ost
Ġf ren
Ġf Ãłcias
Ġun eis
Ġv enta
Ġv istas
Ġv ect
Ġen rÃ¨
Ġen vas
Ġen qui
us tat
el lan
ta bla
ĠA ud
Ġre cepcion
Ġse min
Ġse cs
ĠS ai
ĠS ystem
ĠP ress
ĠD onc
Ãł b
ĠB Ã¨
ĠB orn
Ġan avan
Ġan teriors
di e
Ġj udi
ĠR ichel
ĠF i
ĠF ert
ĠF Ã²ra
ig Ã²rd
Ġdes g
ĠG relh
ĠG alhac
ge ment
tan a
iz Ã¨ron
ĠV ejatz
Ġdi da
Ġap ari
Ġar bor
ari Ã²tas
Ġtan go
op ort
Ġsi guÃ¨t
Ġesp orti
Ġentre ten
ĠfÃ²r mas
Ġreg las
Ġest rat
Ġ18 36
Ġ18 55
Ġcons ultat
ĠQu ant
esc l
ĠH auta
Ġdon ats
od es
Ġrec rut
enc l
Ġrep ar
ilh ar
Ġman car
Ġsul f
Ġcor b
Ġcor tes
ĠK ong
ĠMar ina
Ġass iri
atal an
99 1
99 6
99 8
ier enc
Ġpubl icitat
Ġcas tanh
Ġfor mi
Ġpauc s
98 3
95 2
ros cop
Ġvol d
Ġvol iÃ¡n
Ġperson au
96 3
ĠMont g
ganiz acion
Ġleg eires
09 3
Ġer ed
Ġer upcions
Ġdest ria
Ġmen ac
Ġpat ria
Ġdesp artament
uss a
Ġara b
Ġespeci aus
Ġneg ativa
ej an
An t
exp rimir
Ġdec ad
rig ht
Ġpens adas
Es per
Es tivada
Ġint rÃ¨t
Ar gent
Ar manhac
Ġsost Ã©ner
aj ust
ay e
ĠAb d
ind Ãºstria
eri te
Ġsup ression
inst itucions
Ġpes uga
ĠOccitan as
Ġdeci m
Ġliber aus
ĠÃĪ st
ĠMe mbre
Ġbl ocar
Ġorigin Ãłria
Ġpap i
Ġant ics
Ġreb ut
Ġem ocion
Ġinv est
Ġpen as
Ġbo tel
pe ut
Ġcomerci au
ĠChar le
Ġpan Ã¨ls
Ġmanif estar
ĠComp tava
red ons
Ġcorrespond on
ext rÃ¨m
Ġtransp ortar
Ġprofession au
ĠDes emp
Ġperf um
Ġsel vas
ĠTres ena
Ġimperi al
ĠSul s
ĠDo ctor
ĠLib ia
Ġpi Ã¨g
Ġvert ical
ĠCat arina
Or ganizacion
Ġcomanda da
Ġrescont res
ĠBi arn
Ġescamb iar
Ġimm ers
Ġperc entatge
Ġfeder au
gra ma
Ġremarc able
cÃ²p s
Ġrememb ran
ĠLim borg
ĠLim Ã²tges
ĠEd mond
Ġderiv ats
Ġpaci fica
Ã± a
Ġproble matica
ĠdeuriÃ¡ n
Ġtolos an
Ġdifici la
Ġsusp ren
Ġfrag ments
Ġsie unas
Ġdaval ar
Ġbate jat
Ġcondam nat
Ġsoven irs
Ġcoord inacion
Ġbod isme
Ġcoment aris
ĠIm atge
Ġgo jat
ĠcomplÃ¨t ament
ĠDivÃ¨rs ei
ĠRef orma
ĠautonÃ²m ia
Ġtreb ols
jol ais
Ġconsens us
Ġribos Ã²ma
inÃ² cci
Ġparoissi ale
ĠMoul y
Ġtoler Ãłncia
Ġalfab etic
ĠracÃ²n te
ĠniÃ§ ard
Ġveus a
Ġdestr urre
ĠTec n
ĠcÃ²t h
" ..<|
, .<|
5 37
9 37
B N
C as
C har
J ul
L uc
M os
R oss
d jok
g le
j Ã²ls
l ans
n ou
r ista
t it
v y
y o
â Ħ
Ġ 59
Ġ 81
Ġ endre
Ġd ats
Ġd uras
Ġl l
Ġl utar
Ġde ras
Ġp anta
Ġp inh
Ġp onduda
Ġa ost
Ġa mira
Ġa tanben
qu ina
in adas
al at
al cÃ²l
ra ul
ra van
Ġf Ã¨u
Ġf rich
Ġf alais
Ġf estenal
it us
Ġt imp
Ġt ud
ĠL om
ĠL Ã¨u
Ġes tiv
ri en
Ġv ici
Ġen via
Ġper pausa
ol iva
ĠA ure
ĠA mians
Ġre ce
Ġb ran
Ġb li
ĠC rit
ĠC Ã²rd
ĠC all
ai Ã¨t
Ġcom esti
ti enne
ĠP il
ĠP ir
ĠP rat
ĠP rad
Ġcon cebre
ĠM itat
ĠM aur
ut t
Ãł lia
Ġpar ta
ĠB oc
ĠB ona
Ġj ug
ĠR ess
ĠF our
ĠF orma
ct ur
ĠT ER
ter na
ĠG ant
ĠG ou
Ġpro pulsion
Ġpr er
Ġsu bl
ĠV ich
Ġent iÃ¨rs
me mb
and ona
Ġtra d
Ġtra i
ques a
ara y
ĠJ us
imp oss
Ġar ri
ĠEs tabl
Ġau gment
ob j
Ġli ard
op Ã¨a
Ġpres o
Ġav anÃ§a
Ġab adiÃ¡
ĠcÃ² ca
Ġreg n
Ġreg nat
ost ic
Ġest al
Ġ18 39
esc u
esc ut
esc and
elh or
rat ion
ud Ã©ncia
Ã²b la
Ġma ine
Ġsol ista
Ġcol Ã¨ra
Ġaqu Ã¯
ilh Ã¨u
Ġch an
ĠCom enÃ§ament
Ġcaus its
Ġpod rÃł
Ġdo bles
ĠK il
ĠK ir
esp Ã²rt
ĠGu Ã¨rras
Ġmus cles
98 1
98 2
ident ificacion
ĠAr g
Ġconf ront
lo is
Ġag ent
Ġag ant
Ġag rad
Ġpublic ament
Ġcr enh
Ġ4 50
uss y
Ġ5 3
Ġdist ant
omb e
Ġcompaus Ã¨
Ġsuperf ÃŃcias
Ġba isha
autor izacion
Ġdess us
Ġdefin its
Ġgra du
Ġcad iÃ¨ra
Ġofici Ã¨r
Ġofici als
Ġsimp at
Ġais ament
Ġcres enÃ§as
Ġmena Ã§ada
inter Ã¨ssa
apar eisson
Ġdisc ut
Ġfis ics
Ġsal on
Ġpos ca
Ġmor re
ĠVi ol
Ġanim alas
Ġdirig ÃŃs
Ġorigin alitat
Ġproc Ã©s
uÃ¨ ch
ĠBo em
Ġvend ri
ĠTh Ã©
rÃ² vas
ĠIs le
ĠIs lam
Ġpassat giÃ¨rs
tad or
Ġsepar ar
iÃ¨ ches
ĠVer da
dit ion
ĠTra dicion
Ġobl idar
ĠCo ul
ĠMo z
Ġdesign acion
Ġaument at
ĠremplaÃ§ ada
ĠBe z
ĠBe at
ĠAnd re
Ġjo guÃ¨
ĠgrÃ¨ us
Ġbr icas
Ġcommun ale
Ġfe od
ĠBu gey
Ġcav itat
ĠCast Ã¨th
Ġinform atica
Ġprepar at
Ġaper ats
Ġamass ar
Ġamass adas
ĠSch w
Ġjus ta
Ġinferi ors
ĠLib eracion
ĠFlor ida
indi ans
Ġfinanci Ã¨rs
Ġide ologia
ĠMari us
ĠSab i
rid ge
ĠOn gan
Ġduc at
apor acion
Ġcastel h
ĠPic chu
Ġintellectu al
ĠPass atge
Ġdespari Ã¨ras
ele ine
Ġprononci ar
Ġproves ir
Ġgrat ac
Ġexcepcion al
Ġaprofich ar
Ġaprofich Ã¨ron
arch iu
Ġinterven ir
Ġveget ala
Ġpropor cions
Ġtribun als
Ġvaccin s
Ġglob ala
Ġedit or
Ġislam ica
Ġfamili ar
ĠNew ton
exec utiu
Ġelabor at
Ġdivin itats
Qu entin
Ġgre don
Ġafebl iment
Ġbilin gu
ĠNig Ã¨r
Ġcondu cha
edic cion
ĠChal on
ĠCastÃ¨l nÃ²u
Ġdeleg acion
Ġmobiliz ar
Ã©t Ã©
Ġinfluenci at
Ġsusvelh ar
alb um
ĠArd ennes
quim Ã¨des
Ġusat g
Ġdrap Ã¨u
ĠvÃ²st res
Ġvideoj Ã²c
ĠPubl iquÃ¨t
ĠNatur al
Ġpolem ica
ĠAnat olia
Ġviolon ista
ĠAnci ana
Ġacarn ada
Ġesquel eta
Ġatmos ferica
ĠHug o
Ġpanor ama
ĠDemor Ã¨t
ĠMarg arida
Ġipot Ã¨sis
ĠMilh au
ĠFac ultat
ĠPf izer
ĠDiss abte
ĠGanh Ã¨t
arreceb Ã³
ĠBruss Ã¨las
ĠesfÃ²r ces
ĠWilh elm
ĠRichel ieu
âĦ ¢
A gen
B ar
B el
U ru
b ec
d im
e timologia
j amin
u ci
u aus
Å Ĥ
Ġ 66
Ġd its
Ġl ha
Ġp Ã¨ls
Ġs un
Ġs is
Ġs ession
Ġs Ã¨xe
ar ic
at ar
in an
Ġla issa
al te
un animitat
Ã² mi
is ant
ra peut
Ġt oc
ĠL ad
au ra
au rel
ri es
Ġv Ãłder
am an
il or
ol es
Ġb orsa
Ġ1 04
Ġg ens
Ġg aud
ĠS ong
ti z
ĠP rob
ĠE mb
im on
Ġr icas
ĠD us
ch ant
Ġpar f
Ġpar tatge
ĠB ala
ĠB ale
ĠB lack
ot isme
Ġj ul
ĠR oc
ĠF res
iss ada
av ans
ĠT ort
20 02
ab st
ab Ã²rd
Ã¡ ria
id Ã¨t
ac or
ac tius
ĠN an
ĠN atura
ĠI er
Ġte tra
Ã¯ tat
eu ri
Ã¨l ament
ĠJ ut
imp Ã²st
Ġar cs
Ġau cit
ec d
19 45
aut ora
Ġsi Ã¨c
Ġpl astic
um ans
Ġex isti
em igracion
ess Ã©ncia
ess ora
Ġaut an
Ġ18 27
Ġ18 52
Ġesc lai
Ġmon ge
ĠSe v
Ġcl aras
ip e
Ġrep ublicas
Ġma itas
Ġpol on
Ġpol idas
Ġsol itari
ĠAl c
emp ont
Ġam ist
Ġprincip at
Ġdo tada
Ġcor riÃ¨r
ren eson
ĠK ing
Ġcal ci
Ġob j
Ġcas ti
Ġdesc re
Ġdesc riv
Ġrev Ã¨rs
ĠAr ras
Ġperson alas
Ġja una
Ġdifer en
ĠpÃ² cha
Ġca is
ĠJo aqu
Ġleg it
Ġconc re
Ġconc ur
Ġnos ta
06 1
06 3
icul a
uss i
Ġrepresent avan
ĠRo que
Ġclass ats
An at
Ġactu aus
Ġpens ion
Ġcer ca
Ġind Ãºstria
Ġfonda dors
Ġtecn ologic
Ġve ter
isti a
Ġmemb rana
Ġmena Ã§as
ĠY onne
ril hon
In dependÃ©ncia
Ġapr Ã©s
ĠRei al
Ġespanh Ã²las
Ġespanh Ã²us
ĠTh ou
Ġcerc ava
Ġsosten guts
arqu et
ĠAm al
ĠTo tei
Ġdesign ava
Ġmost rÃ¨ron
Ġom in
ĠAnd al
Ġtri an
Ġdestru ch
Ġindustri au
Ġta ct
Ġpal estin
ĠPort amant
import ants
Ġvaria blas
ĠGal ileo
Ġmob ilitat
Af ganistan
Ġfel ibre
ĠSul tan
Ġrur alas
Ġcell ulara
Ġconquist Ã¨ron
Ġcapt urar
Ġprotest anta
ĠMes nil
Ġbibl io
Ġvit alitat
Ġexc ess
Ġlar vas
Ġteor ic
Ġcinqu ena
Ġtit ular
Ġcultiv ar
Ġlaiss at
Ġimag inari
Ġdespari Ã¨rs
aven ir
Ġredus it
Ġimpaus ar
ĠDiv ision
Ġsubrev iure
Ġcomunaut ari
ĠNeu ville
Ġred ond
ĠArn aut
Ġfras as
Ġaccess ibla
ĠBert ran
Ġradic al
Ġmetrop olitana
Ġconceb uda
âĤ¬ âĦ¢
ĠPÃ¨rs as
Ġimmedi ata
Ġ149 2
ĠdanÃ§ ar
apren e
ARN m
Ġprimit iva
estra tegia
ĠExt rach
individ Ãº
Ġvaiss Ã¨ls
imag inari
Ġafir ma
vill ers
Ġfant astic
Ġsosterran h
Ġquas iment
ĠSir ventÃ©s
ĠGre en
Ġindig Ã¨nas
ĠDor don
Ġneb ot
ĠcontrarÃ²t lar
Ġlect ors
eros ion
Ġcaf Ã¨
Ġajust ar
Ġbarre ja
Ġemble matic
Ġadult s
Ġberb Ã¨r
pid um
opt Ã¨rs
ĠSart he
ĠUru guai
Ġaux ili
ĠPle istoc
Ali ar
Ġmonop Ã²li
Ġredrei Ã§ament
ĠMov ement
extrem itat
ĠDiocle cian
Ġbibliot Ã¨cas
ĠDomb es
ĠFried rich
oglob ina
' '
4 31
4 71
6 31
9 31
E ur
F er
I G
f ants
i h
o o
r Ã²m
s borg
u er
u vi
w ald
y p
Ġ 78
Ġ xa
Ġl ion
Ġl ep
on ats
te mb
te ja
Ġp is
Ġp iv
end rÃł
Ġs Ã²rta
of Ã²na
ci al
or ci
Ġt alhas
ĠL eu
ri k
ri que
Ġv iz
Ġv Ã²ts
Ġn ou
gu Ã¨sson
os i
ĠA OC
Ġre mand
Ġre alis
Ġb of
Ġb in
Ġb eu
Ġb rig
Ġb Ã²na
Ġ1 750
ĠC ot
ĠS Ã©
ĠS ing
ĠS aul
ro w
ro qui
ti es
ti Ã©ner
ĠP it
Ġcon Ã³isser
âĢ Ķ
ĠM Ã¨ca
ĠM aquia
ul aras
ĠD est
ĠD ante
ur d
Ġpar lam
ap i
ap Ã¨la
ĠB Ã©
ĠB ut
ĠB ren
ĠB ah
ĠB onn
ĠB onne
ÃŃ m
ĠR an
ĠR Ã©
ĠT ob
ab it
ĠG es
Ġpr Ã¨st
ac Ã¨as
ĠV iu
ĠN ord
ĠJ C
ĠJ uda
ĠEs te
Ġme itat
ort s
ec tiu
op s
Ġi ber
Ġfa iss
Ġav esques
Ġesp ect
Ġesp asa
Ġest ils
Ġ18 35
alh at
Ġcons Ã¨rva
ast Ã¨l
ast icas
esc Ã©ncia
esc riguÃ¨t
Ġgen etic
Ġrep leg
Ġpol ic
Ġpol ig
Ġsol ets
Ã¨m s
Ġcre us
Ġmes ti
Ġch Ã¨c
ill ers
teri al
auc Ãłs
Ġcor ba
man ac
ert as
ier ry
Ġfon taine
Ġcapit au
Ġcas tell
ĠGu iana
fic ha
erc ul
erc ÃŃs
Ġesta gi
ĠMont re
Ġver ge
Ġtrob avan
Ġfil i
Ġleg al
Ġleg ions
ord en
ĠCon ferÃ©ncia
ĠCon quista
08 1
Ġref re
06 2
06 7
eta da
avan Ã§a
ang Ã¨li
Ġdesp iech
Ġ5 000
ius ep
Ġapar entament
Ġpens i
Ġcontunh Ã¨ron
reg at
Ġbast ison
Ġport Ã¨ron
Ġarrib ats
Ġ12 16
Ġsimp t
Ġsimp atia
Ġcatal anas
ĠPr Ã¨mis
Ġexist ent
Ġocup acion
Ġjov enÃ§a
Ġdisp ers
Ġprodu cha
Ġprepaus an
her ine
Ġdaiss an
ĠCas tan
pl ica
ĠOr leans
Ġconserv ada
Ġmer Ã§as
estudi ants
esper anÃ§a
Ġsau vat
Ġsen ador
Ġinici al
Ġvir at
Ġsob ren
Ġsom ission
ĠProven ce
Ġta xa
ĠPl ut
Ġinstall ada
ext rÃ¨ma
Ġequip ada
ĠMor van
Ġtomb as
Ġmassa is
Ġdepend enta
Ġfix ada
Ġfut urs
Ġcri mes
ĠJul ian
ĠAss emblada
Ġadap tadas
ĠCont uni
ĠFlor ian
Ġcarn iv
Ġpic ar
ĠBlan ca
ĠprÃ¨s tes
Ġcalcul s
ĠNov Ã¨l
Mar itima
Ġperc uss
Ġinvent or
ĠNorm andia
Ġparall el
Ġneut rons
Ġpedagog ia
Ġcarta gin
ĠPic ardie
Ġplus ors
Ġextra terr
Ġsiste maticament
Ġcha f
equip atge
imm ersion
Ġsemblan Ã§a
Ġensag Ã¨t
Ġbomb ard
Ġpilh ada
Ġcalc ari
Ġradi acion
Ġmig rat
ĠNeu f
Ġros eg
Ġedit ors
Ġdemocrat ica
ĠvÃ¨r b
Ġsupaus at
Ġpersp ectivas
Ġaustri an
ĠEt rus
Ġmontanh Ã³s
Ġexpaus at
Ġmestre jar
Ġcuri ositat
Ġinvesti g
Ġestric tament
Ġconcep cions
ĠDuc at
ĠCult ural
Ġtestimoni atges
Ġcodific acion
Ġrepart its
Ġcreiss enta
ĠLem Ã²tges
Ġremira ble
ĠBorb on
ĠHal ley
Alb igÃ©s
uscul a
enem ic
Ġprogram acion
Ġcontro vÃ¨rs
Ġlittor al
Ob serv
Ã²cten ent
Ġseign euri
ĠFÃ¨l ix
Ġdomani ale
ĠBoem ond
0 31
5 31
5 71
9 71
B as
E D
F I
L aurent
O S
P G
b il
c ats
e o
f ia
m Ã²rt
m artin
o Ã¯n
u its
z es
Ã ¦
Ã ®
Ġ 63
Ġ 82
Ġd Ã³
en er
en riqu
Ġl unas
on te
te ran
te ria
Ġp ans
Ġa de
Ġa test
Ã¨ d
Ã¨ ament
an alis
Ġc ta
ar at
er an
er iÃ¡
in ant
Ġe cl
Ġm aus
al et
or tava
Ġf erv
Ġt ran
au ca
Ġes b
ri Ã¨ra
Ġper ch
Ġper diguÃ¨t
am inas
Ġn s
Ġn eu
gu eren
os e
os Ã¨t
el Ã¨it
ĠA vi
Ġre alitats
Ġre quer
Ġb ilh
Ġb ric
Ġb Ã³s
ĠC eci
Ġg ah
Ġg argam
Ġcom Ã¨dia
ĠP iet
ĠP aquistan
Ġcon ne
Ã§ ants
ĠM un
ĠM assa
Ã© ger
Ġal cal
ĠD ru
Ãł r
ist ra
ch ada
Ġpar Ã©isser
la h
ĠB us
ĠB la
ĠB io
ĠB ronze
ĠR y
ĠR osa
av es
av em
20 10
id on
id Ã©ncia
ĠG ala
Ġamb edoas
ĠV ad
ĠV asco
ĠN ar
ĠN ur
ĠN ass
Ġent rar
ĠI o
ma z
Ã¯ cas
imp eri
Ġau dit
ort Ã¨t
eg al
ec lip
op Ã¨ra
Ġcont entar
Ġpre ferÃ©ncia
Ġres on
em Ã¨u
Ġav Ã¨tz
Ġh an
Ġh Ã¨sta
Ġven ga
Ġcons ec
Ġ" ,
Ġor quÃ¨stra
ĠSe dan
Ġtr ant
ed or
Ġmunicip alas
Ġcol omb
Ġcre issent
ĠPer bÃ²sc
Ġmes pres
Ġmes tier
Ġmes fis
ĠCh el
Ġcaus ÃŃs
Ġman can
ill o
Ġdis iÃ¡n
ev acuacion
Ġals aci
ub ert
Ġpolit ician
Ã²s tes
Ġins ufis
Ġjorn als
ĠAr mand
raf ia
ĠAp rofich
Ġca Ã²s
Ġof Ã¨rta
Ġmet aus
Ġz i
05 7
Ġcontra c
08 3
08 7
Ġnos te
Ġpat ÃŃs
Ġdev as
Ġras im
Ġexp licacion
Ġdrech as
dic te
Ġespeci als
Ġespeci alizada
Ġrepresent adas
ej or
ĠMa z
Ġagu esti
ĠMon tes
anci ans
Ġorganiz Ã¨ron
orti guÃ¨t
ĠSeg re
eng Ã³
Ġsimp lici
Ġautor itari
Ġcres on
Ġmena Ã§at
Ġtrop ical
Ġ17 00
Ġjog ava
Ġdece me
Ġnecess Ãłriament
Ġanim acions
Ġop ort
ĠRei ala
Ġant au
Ġemb l
ĠprÃ²p i
Ġperd Ã¨ron
Ġdemanda va
Ġvoc alas
dific acion
Ġelect rics
Ġdif i
Ġfai dits
ĠFin lÃłndia
ĠMau rice
ĠPl otin
Ġestran gier
Ġfrequ entament
Ġpref Ã¨cte
Ġuman ista
Ġpobl adas
Ġmesc lat
Ġquauqu as
Ġprofession aus
ĠMag n
ĠTer esa
ĠTer ral
Ġfort ament
ĠBeau jolais
ĠFer ri
ĠAss oci
Ġguer riÃ¨rs
ĠVil af
Ġseg ment
Ġvenc uts
ĠEstat ua
Ġcarn aval
Ġmodern itat
Ġbenef icia
ĠGo ul
ĠbÃ²s cs
cid ÃŃs
Ġinterpre tacions
Ġpreson iÃ¨rs
ĠMass ÃŃs
Ġpedagog ics
Ġpedagog icas
Ġafric anas
Ġestrangi Ã¨ra
Ġtolos enc
Ġredus ir
Ġdiu Ã¨rs
Ġresist ent
Ġconeiss Ã¨m
Ġcompr Ã©ner
atac as
Ġbanh s
acÃ²rd s
ĠGov ern
Ol impic
Ġmetall ic
Ġsed iment
ĠcÃ²m tes
ĠPeit au
Ġcobr isson
Ġail Ãł
Ġculh ida
ĠPren guÃ¨t
ĠQuau qu
ĠtelescÃ²p is
hen ko
imag inacion
Ġprep onder
Ġconsag rat
Ġconver tir
Ġgeograf ics
Ġvinh airons
Ġagra diu
Ġpesc adors
Ġnarrat or
Ġgaulo is
Ġsinc ron
Ġestet ica
Ġjac ob
Ġobs tac
chev ics
Ġlegend ari
Ġvern ac
ster dam
ĠFay ard
Ġsubreviv ents
Ġjura ment
ĠEntra Ã¯n
Ġcurs us
ĠeqÃ¼ atori
Ġperdu das
Ġbact Ã¨ris
ĠHugu es
ĠCori olis
ĠLitu Ãłnia
ĠGarc ÃŃa
ĠreÃ§ aup
0 22
0 71
4 72
6 71
6 72
8 31
8 71
9 22
I V
N L
O TAN
P ont
b el
c ant
e ans
g am
k et
l Ãł
n eg
o ar
o ge
s Ã¨t
t is
w i
Î ´
× Ļ×
Ġ Ä
Ġ Åĵ
en j
Ġl egu
as teroÃ¯
an cas
end Ã©ncia
ci r
Ġe lic
Ġe tim
Ġm essor
al p
al le
or um
Ã² te
Ã² quia
Ġf rom
it ch
ic on
Ġt ons
ri ers
Ġv od
Ġv ou
Ġv esp
Ġen onci
Ġen veja
Ã¨t s
us ions
us co
el or
Ġre ba
Ġre alista
Ġse teme
Ġb ec
Ġb oci
Ġg ro
ins cripcion
ĠP es
ĠE dicion
ĠD Ãł
ĠD ona
ĠLo vre
ch an
ch ement
ch amp
Ġpar lant
ap ert
ap rÃ²
ĠB ran
Ġan onim
ir on
ct us
ĠT ebas
ab ric
Ã¡ r
Ġdes aparicion
ĠG iusep
Ġin telligÃ©ncia
ac uÃ¨lh
ĠV e
ĠV ei
ov e
ov ent
ĠN og
ĠN eb
and ar
ĠEn aut
ĠEn viron
Ġap ropri
ĠJ og
ort ats
aut ent
Ġpl ai
ce ae
Ġsa x
Ġres tan
em as
ich on
Ġven eci
art ar
Ġlen ha
Ġ18 10
Ġcar rada
Ġesc av
ast ar
esc lat
Ġgen Ã¨r
ex terminacion
ss er
Ġma ison
Ġpol lu
Ġpol aras
Ġaqu i
ilh ada
Ġcent enari
Ġfam a
ren as
Ġtemps ada
Ġcal vin
Ġad j
Ġdef ensiva
Ġcapit ulacion
Ġso ÃŃs
Ġfor um
Ġfor esti
Ġfor Ã§at
ĠPas cas
ori etat
Ġpich Ã²ta
Ġsoci alisme
Ġpla Ã§ats
ĠMont al
tra cion
ĠSa hara
Ġprov ar
Ġag ir
Ġserv at
Ġleg ala
Ġer Ã²is
ĠIn di
ĠIn dre
Ġloc alizat
Ġval on
Ġum ids
Ġdemor Ã¨
Ġapar ent
Ġint it
Ġbast on
Ġbast ÃŃs
Ġgra p
ador es
ĠVal Ã¨ncia
ĠGran de
Ġvari at
Un ivÃ¨rs
Ġve ctor
ĠPr Ã²
Ġtrop icalas
apar Ã©ncia
Ġdisp ari
Ġsup Ã²rts
Ġparticular itats
Ġpe Ã§a
Ġfan ga
Ġinternacion aus
co ta
Ġestabl ÃŃs
ĠCl ass
Ġproc ession
ĠCas a
Ġviv i
Ġcompren iÃ¡
Ġpap autat
Ġfen Ã¨stras
Ġrason ament
Ġpot on
Ġdistin cions
Ġcu ol
Ġmanif Ã¨sta
ey ron
Ġmanten guÃ¨t
ĠAf ganistan
Ġdesign ats
Ġadop tadas
ĠremplaÃ§ ament
Ġcros adas
Ġom osex
Ġoccident aus
Ġunivers itÃłria
ves que
ki es
Ġfrequ ents
Ġrevolucion Ãłria
Ġproteg its
Ġmusic aus
Ġdeves ÃŃs
Ġdivers as
rin cip
ĠGra y
Ġamass ats
Ġdocument acion
ĠJul ien
Ġsubst itucion
ĠPat rick
reu il
ĠSab Ã¨m
Ġauton Ã²mas
Ġris cs
Ġtur tÃ¨t
Ġdescub Ã¨rtas
Ġcomand as
Ġsat ir
Ġproclam ar
ĠCant on
Ġsan gu
Ġbu Ã²u
Ġpractic at
Ġpaci ent
ĠbilingÃ¼ a
Ġaer ianas
Ġaer opÃ²rt
Ġclimat ics
integ rar
Ġvass al
Ġprevist s
Ġdam atges
Ġdemost racion
ĠSte v
Ġrepublic ans
Ġinclus ent
Ġconj ugas
ĠViv es
Ġbau Ã§
Ġjonh ent
ĠmÃ²st ras
Ġrestaur ants
Ġcarr Ã¨ra
ĠfinanÃ§ ar
ĠfinanÃ§ ament
ĠChau mont
assan ida
Ġpura ment
ĠItal ia
Ġdesira va
ĠTy cho
Ġrevisc Ã²l
estran giÃ¨r
Ġprotestant isme
ĠLiber tat
Ġfolcl Ã²re
Ġcore an
ĠvÃ²st ras
ĠOliv ier
su bretot
eiss ida
Ġrenonci ar
Ġellip tica
Ġbacteri as
Ġaup rÃ¨s
exprim ÃŃs
ĠucraÃ¯n ian
ĠintÃ¨rn es
Ġcancel ier
Ġconson antas
Ġsociol ingÃ¼istica
Ġdimin ucion
epis Ã²di
Ġgreg orian
Ġnucleoti ds
Ġdiferen tei
Ġsimplici tat
5 22
A ir
B ern
C C
E urop
S A
a guÃ¨ron
b all
d ens
e al
m ur
p le
r Ã¨sses
u mp
v au
v ard
Î ¬
Ï ī
à ¤
Ġ Ãłn
Ġ 71
Ġ 92
Ġd adas
Ġd ons
Ġp Ã©s
Ġa xes
end e
Ġc ala
Ġc ac
Ġc urat
er ror
at la
in clus
Ġm Ã¨l
Ġm als
Ġm uda
al ara
ent res
is ma
Ġf et
Ġqu ins
Ġqu alas
Ġt Ã²rt
Ġn en
Ġn Ã¨
gu erite
os id
Ã¨t ge
ĠA k
ĠA la
Ġb rieu
Ġb omba
Ġ1 40
ĠC av
ĠC aucÃłs
Ġg ab
ĠS un
ins ki
ai e
ĠP ep
ĠM eaux
ul acions
Ġr Ã²sa
ap s
ap rofich
ĠB ard
di das
ĠF ir
iss ac
ct Ã¨a
Ġdes astre
ĠV exin
ĠN antas
Ġsus presa
and ert
ĠI r
Ġte rapeut
ma il
Ġnom ats
Ġtra chs
imp er
de on
ari o
ob ratges
Ġcomp tan
19 99
19 91
Ġsi an
em ir
ag issiÃ¡
Ġmar ti
Ġmar quÃ¨ron
Ã¨g ra
Ġ18 23
Ġ18 37
Ġ18 31
Ġ18 47
alh ons
Ã²l tas
esc ultura
Ġter me
Ġrec urr
Ã²b an
Ġcl ans
ed os
ip si
ĠAn im
Ġbas ats
Ġaqu itan
Ġform ala
ĠCh ad
rÃ¨ a
Ġch ano
Ġam ors
Ġman da
ill i
Ġrel Ã²tge
Ġsens acion
Ġcor pus
olog ique
ĠK m
Ġass ab
Ġsos linha
ĠGu er
Ġdesc op
Ġdesc omp
arri u
aci Ã³
Ã²s as
ĠÃ įn
ern ic
Ġvol ant
ident ificar
ĠAr s
Ġpla c
Ġconf ronta
ĠAp ren
ten berg
Ġmet an
Ġmet als
09 1
Ġdesp assar
Ġpresent adas
Ġneg atius
oma cia
ej ant
ej ava
Ã²u vre
Ġdemor anÃ§a
Ġdemor auen
ann es
Ġclass ificada
entre pren
aur Ãł
Ġagu l
estat ge
Ġret ro
Ġsemb l
Ġcer eb
Ġint rada
Ġbast isson
inf in
Ġlat inas
Ġofici aus
Ġcres quÃ¨t
Ġev ent
ĠAb ra
onda cions
ĠOccitan ie
Ġmerc enaris
Ġfre mas
Ġbi ologica
ĠVi king
Ġjog ada
urb anisme
Ġliber ala
Ġcul tiva
Ġcau das
Ġcau matge
Ġassoci adas
Ġ25 00
Ġis las
Ġdirig ents
organiz acions
Ġcrit Ã¨ri
Ġgas es
ĠAng le
ĠChar anta
Ġfer its
ĠCo ok
Ġdia gn
Ġempleg adas
Lo ir
Ġcontinent al
Ġtri angles
Ġregim s
Ġdestru ida
Ġdestru ire
Ġinte raccions
Ġrefus at
Ġdessenh ar
ĠSh i
Ġadministrat ivement
Ġtransform ada
men ia
Ġfe bles
Ġleu g
Ġensenh Ã¨t
Ġident ic
ext ra
Ġproteg ida
vers ion
Ġmesc lar
ĠBen jamin
ĠMarc ell
ĠDes volopament
Ġminor izadas
Ġment av
Ġtruc ada
ĠJul ia
Ġsubst itu
Ġjapon eses
Ġnucle ar
ĠMari o
ĠSab er
Ġinteress at
ĠAlex ander
Ġcart il
Ġteor Ã¨ma
Ġconstru ctor
ĠmÃ¨t ges
Ġsimbol ic
ĠSam uel
encont re
Ġpersegu ida
Ġintellectu als
Ġboca ge
Ã± o
Acad emia
Ġpsic ologia
Ġimpaus at
Ġdemost rÃ¨t
Ġveget als
Ġrat ificacion
Ġradi acions
ng el
Ġimposs ibla
Ġlot issements
Ġqualqu as
ĠBat t
Ġesple itacions
Ġacadem ic
Ġsuplement Ãłrias
Ġpreserv ar
Ag Ã©ncia
Ġadul te
Ġrecer cas
Ġeneb it
Ġporg ir
ĠImp eri
Ġord inator
rÃŃ ver
Ġgeograf icas
ĠMu hammad
ĠEu ro
ĠLÃ© on
Ġsacrifici s
Aub in
Ġposse dir
Ġox igÃ¨n
evol ucions
ĠColle c
ĠColle ge
ĠErn est
Ġlect uras
Ġinfin it
Ġseptentrion ala
Ġtelefon ada
Ġvideoj Ã²cs
Ġjac es
Ġflam enc
Ġod ale
ĠRay mond
Ġinnov acions
ĠFlam enca
mete is
Ġpseu don
verg ne
ĠFond Ã¨t
Ġmediat Ã¨ca
Ġshogun at
ĠMire court
ĠYo ung
Ã©li x
Ann ibal
ĠBav iÃ¨ra
ĠArist Ã²tel
ĠPtol emÃ¨u
Ġinsp irada
Ba ins
Ġnasc uts
ĠIsa ac
ĠCaland retas
Uman itat
Ġcontrefort s
Ġlagu ens
Ãłb ria
ĠCÃ²rd oa
ĠDordon ha
ĠMaquia vÃ¨l
Observ atÃ²ri
ĠDÃł vid
0 32
4 22
4 32
5 12
6 22
8 22
8 72
8 32
9 72
A mb
I b
M arie
N orm
T T
U M
V B
c os
i tes
j og
l Ã©
m aire
o tel
o use
r Ã²va
r erie
s im
s ula
s eccion
v ic
z u
z ig
Ġ omb
Ġd ap
Ġl isi
Ġde const
an teriorament
es e
Ġs ses
Ġc ig
Ġc ias
Ġc rip
ar ai
ar ren
er na
Ġm Ã©
Ġm uta
al ent
al ianÃ§as
Ġf Ã²c
Ġf lac
ĠL ig
ĠL ors
ĠL um
Ġes lh
ri ma
ri ds
Ġv ag
Ġv Ã©ncer
am essa
Ã¨r m
il ev
ĠA uss
Ġre un
res es
Ġse v
Ġb uc
ĠC E
ĠC F
ĠC anÃ§on
Ġg os
Ġg redons
ĠS um
ins pira
ĠP Ã¨r
ĠP lo
im ir
Ġal es
Ġr tan
Ã²r ze
ĠD avant
ĠB res
ĠB le
ĠB les
Ġan tip
ens or
ala vetz
ĠF am
ĠT on
ab e
Ġdes enas
ĠG h
ĠG ay
Ġin vencion
Ġpr ison
ac es
ĠN B
ma gaz
ass im
Ġnom mer
ĠJ or
Ġar riv
Ġtan lÃ¨u
eg i
op las
op Ã¨ia
Ġcont ing
Ġi di
Ġfa ga
Ġfa Ã§ada
Ġpre ala
Ġres isti
ag ir
ag itacion
Ġesp Ã³s
oc casion
Ġmar inas
ĠO d
ess is
Ġaut orn
Ġimp acte
Ġcons e
if orm
if ics
Ġpu rific
ĠH AL
Ġgen olh
Ġprimi era
ib ia
Ġcl and
ip re
Ġpol if
emp laÃ§ament
rÃ¨ la
Ġcaus Ã¨ron
Ġgu arda
Ġam ators
ep h
Ġcomun ament
esp asa
esp ectacles
Ġcone guÃ¨ron
Ġro g
unh ic
Ġann ala
Ġdire ccions
Ġinter romp
Ġqual ificat
Ġmin uta
ĠAr c
Ġaf ranqu
Ġesta cat
Ġestat ge
Ġpoder osas
ĠMont m
Ġver itat
Ġutiliz aires
Ġgl and
Ġgl uc
Ġcamp an
Ġag lomer
05 1
ĠIn tern
Ġvis te
Ġvis ibilitat
Ġloc alitats
Ġens eguida
Ġens embles
Ġpat Ã©s
Ġexp rimir
04 2
Ġdesp la
Ġdesp ass
Ġdesp laÃ§a
ĠcomenÃ§ ada
Ġpresent arÃł
ell s
Ġcompaus ants
Ġart enh
Ġno ctur
Ġdemor an
Ġdemor arÃł
Ġmens h
An dusa
Ġsenh als
Ġroman ciÃ¨r
Ġprof essora
Ġagu estes
Ġfem es
ĠCal v
Ġint ensa
Ġport al
Ġid rog
Ġlimit acion
Ġdint rat
acab arÃł
ĠAb u
Ġjov a
Ġnav alas
Ġext rach
Ġparticular it
inst auracion
ceb ut
Ġbi arn
Ġjog ant
Ġestudi ats
Ġestudi anta
Ġassoci atiu
Ġestabl iguÃ¨ron
Ġterr assa
ĠCl unhic
Ġbl Ã²cs
Ġvend uts
Ġmont at
Ġsin ag
Ġtal ents
enn is
ĠIs la
ĠReg ions
Ġconserv ats
Ġnorm and
ĠEl s
Ġmer mar
Ġcob Ã¨rts
ĠAm assa
Ġviol enta
Ġorient au
Ġsen Ã¨stra
Ġset ze
Ġmanten on
Ġreceb on
Ġdesign ant
ĠremplaÃ§ ats
Ġmilit anta
lav ia
ĠÃĴ lt
Ġdat at
Ġjo i
Ġcab inet
Ġban ca
Ġ% .<|
Ġjut jat
Ġchin eses
Ġconquista da
Ġaur Ãłn
Ġinstall acion
Ġsuf ixe
ext raccion
Ġut ilitat
Ġequip ats
Ġequip aments
Ġinform atic
ruc tion
estend uda
Â» ,
ĠGal ÃŃcia
Ġlegis l
Ġcri me
Ġfondament au
dem n
Ġdipl omacia
Ġinteg racion
Ġfran cis
Ġdocument ari
Ġment Ãł
ĠCamp anha
Ġcono issenÃ§a
Ġmatemat ic
avi am
obten cion
Ġpi etat
Ġmalais adas
Ġvert ut
Ġol imp
Ġexc ent
ĠBra he
ĠMad eleine
Ġprestigi osa
Ġlexic ografia
Ġbre v
Ġtrauc ada
ow s
ĠpÃ²r c
ĠMat ieu
Ġarque ologics
ĠRev Ã²uta
Ġnot at
Ġnot orietat
Ġgig antas
ĠLim Ã³s
Ġcirc uit
Ġcomport aments
Ġapren guÃ¨t
Ġsex ual
ĠtÃ¨n on
ĠÃ¨ ime
Ġenqu Ã¨sta
Ġextrem itats
ĠcelÃ¨b res
Ġrepublic ana
atic an
ĠTrans il
Ġpassej ar
Ġexemp lars
Ġglob al
opaus Ã¨t
Ġislam ic
Ġconj ug
ĠDec lar
Ġredu ire
Ġposit iv
Ġmeridion al
ĠRÃ²ca guda
Ġrect angle
Ġrej Ã³nher
Ġaragon esa
Ġredig it
ĠHe in
Ġartes ans
ĠcaÃ§ aire
ĠcaÃ§ aires
Ġevid enta
ĠEspanh Ã²la
quim ia
Ġtermi Ã¨ra
Ġpec at
ĠDa una
ĠBaud oÃ¯n
Ġsaut ar
ĠGalil Ã¨u
Ġverteb rats
Ġjustific ar
Ġlir ica
ĠDint ratz
ĠRad io
Ġign or
Ġult ra
Ġdesbarc ament
mita ge
NT ech
Ġressor Ã§as
Ġfecond itat
Ġprolet ariat
ĠAil Ãł
ĠAustri ans
Ġmetafis ica
obt Ã©ner
Ġtsun ami
ĠMold Ãłvia
Ġusatg Ã¨rs
ĠPleistoc Ã¨n
0 12
0 72
4 12
5 72
5 32
6 12
6 32
7 12
9 32
C on
D P
G e
I P
N I
O V
P h
b it
d issa
f t
g ons
h ard
h all
h ique
m ei
n cia
p et
r ens
t us
u ar
u Ã²us
w er
z h
Î ³
Ġ 73
Ġ 750
Ġ 360
en ig
en gan
Ġl Ã²t
Ġl emos
te ccion
Ġp eish
Ġp ejor
es quel
end uda
Ġs avi
of t
Ġc ed
Ġc ister
ar ist
at on
at in
at Ã©nher
qu iÃ¨r
Ġm enh
Ġla v
Ã² le
Ġf ill
it Ã¨ctes
ic an
Ġt issa
Ġt aul
ĠL y
au st
Ġes tel
Ġes tius
Ġes ferica
ri ans
Ġv ala
Ġv ela
am Ãł
Ġn ip
Ġn inf
os te
il ada
Ġre actor
Ġb ad
Ġ1 25
Ġ1 35
Ġ1 250
Ġ1 642
ĠC even
Ġg ru
Ġg Ã¨ns
ĠS Ã¨
ĠS tre
ro ge
ti ans
ĠP ec
ĠP ier
ĠP anteon
ĠP anthera
ĠE f
im ne
Ġr are
Ã²r ci
ĠD ess
Ġpar s
Ġpar egut
ap ie
ĠB it
ĠB arri
Ġan Ã³ncia
di b
mp s
Ġj ot
ir ats
ĠR ena
ĠR oux
ĠF Ã²r
ĠF asi
ĠF estenal
iss ant
iss Ã¨tz
av ions
ĠT s
ĠT omb
ab itacions
Ġdes emb
ĠG anges
Ġin ci
Ġin teriors
Ġpro Ã¯
Ġpro tes
Ġpr Ã©s
Ġte olog
Ġcap tivitat
Ġcap vath
Ġdi guÃ¨ron
ĠJ ones
Ġar guments
ec tada
Ġex am
ag s
ĠfÃ²r man
ess en
ess ar
Ġest ur
Ġ18 25
Ġ18 28
Ġ18 06
Ġ18 02
alh ada
Ġsitu ar
Ġesc ar
esc lavatge
era is
Ġu es
Ġu Ã²lhs
ĠH as
ĠH ill
od ic
Ġter ro
ed y
Ġne ci
ĠAl i
Ġpass es
ĠPer igÃ²rd
ĠCh as
ĠSant as
man ia
ĠK al
ĠcÃ²p ia
ĠMar tel
Ġcal and
Ġad met
Ġad dicion
ier ats
Ġcapit alas
Ġcapit alista
Ġcapit ular
Ġpermet riÃ¡
Ġesta biliz
ific an
Ġperson als
Ġconf is
Ġconf ederacion
Ġcan au
Ãº n
Ġdesvolop an
Ġutiliz Ã¨ron
Ġleg ats
Ġpendent as
09 2
ef ici
Ġdev ers
04 3
Ġmal auts
Ġ15 20
ann ades
af ars
ois y
Ġten guts
Ġarm ats
Ġimpor tan
Ġprof iÃ¨ch
ĠMa chu
ila ter
Ġpun tas
Ġrecon egudas
Ġfonda cions
Ġeg au
ĠLe op
Ġofici Ã¨rs
Ġdob riguÃ¨t
ĠAmb Ã©
Ġext r
Ġindi fer
Ġaj an
Ġaj udats
Ġsup ortar
Ġpes te
Al ibÃ¨rt
Ġcompl it
Ġapr end
Ġop Ã¨ra
Ġlib es
Ġtrobar etz
Ġmass iu
pres ident
Ġprim itiu
Ġsepar ant
ĠAm ics
Ġaus Ã¨ls
Ġorient ada
Ġbat Ã¨sta
ĠLor ena
Ġvalor izacion
Ġrefus ar
Ġtir ant
Ġmit ic
Ġtalh ats
Ġlog ic
Ġdeves idas
Ġmesc lan
Ġprepar ada
Ġenviron n
Ġfran Ã§a
Ġglaci acion
Ġment ala
Ġexec utats
vel op
ĠFer rand
Ġtruc an
ĠAut on
Ġsubst an
Ġjus tifica
Ġpert Ã²ca
ĠCont ra
enne ment
obten guÃ¨t
Ġol ig
Ġplen ament
Ġinteress anta
Ġinteress antas
Ġtransm esa
Ġarres tada
oÃ¯ des
Ġrecone guts
ĠMedi terran
ĠNos te
ĠGo od
ĠSav Ã²ia
ĠNov a
Ġanti bi
Ġdescon egudas
ĠLin ux
ĠpÃ²r cs
jon ch
Ġruss es
Ġarque ologic
ĠAg rip
Ġintellectu au
Ġpaci f
Ġgrat u
Ġengat jat
observ acions
Ġconeish enÃ§a
Ġveget al
Ġbol egar
Ġporta van
ĠDesc ubÃ¨rta
Ġlegitim ar
Ġincl Ãºs
ĠRD A
mos henko
Ġelabor ada
ensenh ar
ĠdoÃ§ or
region al
Ġraub a
Ġefectu ar
Ġespel ir
Ġlumin osa
ĠLev at
Ġtas ca
Ġbilin gue
Ġlogici als
Ġmanusc rits
Ġsugger ÃŃs
Ġbrilh ant
ĠVinc ent
Ġsosmar in
ĠApar eis
Ġmusulman as
Ġrug bi
ĠVis ig
Ã©r ard
Ġabsoluda ment
ĠTy moshenko
ĠSup rÃ¨ma
espandi r
Ġpira m
comp reneson
Ġcomprom Ã©s
ĠFas Ã¨tz
Ġblind atge
oblig acion
ĠCorb iÃ¨ras
ĠXav ier
Ġdivi dida
Ġtorneg es
Ġassembl adas
clau de
Ġestrang iÃ¨ras
Lou is
Ġformular ul
Ġjurid ics
ĠVauc l
ĠGros claude
Ġrespira cion
Ġmajorit Ãłriament
ĠFrom ent
ogos lavia
ĠDeg un
ĠDiction naire
NR S
Mos elle
ĠsiÃ¨c le
ĠEtrus cs
ĠGiusep pe
ĠPrÃ² che
ĠmentÃł ver
8 12
9 12
A in
C A
M A
O L
d ents
f ite
f orma
f iquÃ¨t
g ames
l im
l ie
l ian
o e
o ard
o kies
p en
p Ã¨
r olh
w is
Ġ Ø
Ġ 89
Ġ qÃ¼
Ġd ita
Ġd Ã²u
Ġd rin
Ġp esa
Ġp Ã¨rsas
Ġs arc
Ġs arth
Ġs icut
Ġc im
ar ro
al on
al tern
is ions
it adas
Ġqu ich
Ġt int
Ġt uta
om ac
Ġv odat
Ġn ich
os of
Ã¨r bis
il and
il aire
il ian
ol le
ĠA w
Ġre ed
Ġse dent
Ġb ulg
ĠC rem
Ġg isc
Ġg otica
ĠS z
ĠS Ã¨gle
ĠS irac
ai ras
le z
ĠP ast
ĠP isa
Ġcon cl
et tes
et icament
Ġal iments
Ġal col
ĠD G
ĠD enis
ad ena
ad vers
st ra
ist oric
ap rov
ĠB et
ĠB uda
di vari
Ġj urada
ĠR is
ĠR ub
ĠR ug
ĠF aro
ter itat
ab itu
ĠG rim
ac cedir
ĠV atican
itu it
Ġpo ur
and in
Ġte ulat
Ã¨l is
og es
op he
aut ar
Ġsi us
Ġsi gut
Ġi as
Ġpres i
em Ãł
em ocion
Ġab il
Ġesp art
ras ins
Ġmar e
ĠO bl
Ġven er
Ġest ru
Ġ18 21
Ġ18 13
rop us
Ġcar dia
Ġesc ot
Ġesc ulturas
Ġpart ÃŃs
ĠQu er
ĠQu at
Ġu ech
Ġu mida
Ġdem ografic
Ġrec ul
ib ans
Ġcl Ã²s
Ġrep rimir
Ã¨ss i
Ġpol ite
ĠAl t
Ġform atge
ĠPer rin
Ġch amin
Ġenc lav
Ġcaus ats
Ġam iga
ep ara
Ġman cat
aliz an
ĠpÃ²t s
ĠK am
Ġass ais
Ġmus Ã¨us
Ġrei alas
ĠW e
ĠW ei
ori ala
Ġqual ificar
Ġestat istica
Ġmod alitats
Ġver gonha
Ġel i
Ġprov oc
Ġprov ocat
Ġsas ir
Ġmet au
Ġag ran
05 2
05 3
ĠIn dians
Ġvis uala
Ġresp iÃ¨ch
Ġexp ress
04 7
Ġ4 000
Ġlin h
dic ha
Ġconsider Ã¨t
ĠRo ergÃłs
Ġfu elhas
Ġbar rar
Ġsab ents
Ġapar Ã©isser
Ġep iscop
ĠRe mi
Ġind ustrias
ĠVal Ã©s
Ġves i
Ġdint ran
ĠPu ig
Ġconv ic
Ġconv idat
Ġtrop icala
ay s
Ġindi r
Ġmor alas
Ġprodu guÃ¨t
itan i
urs ion
Ġtravers ant
organiz Ã¨t
Ġvend as
Ġremp lacÃ¨t
ĠGl Ã¨isas
Ġmass iva
ĠprÃ²p ia
Ġdemand Ã¨ron
Ġdet riment
Ġperd re
Ġpet rol
ĠVer tat
Ġquarti ers
ton e
Ġviol ent
iste ish
Ġproven ent
gn on
Ġconselh iers
Ġgraf it
Ġbalh ada
Ġcaracter istics
Ġaccep tÃ¨ron
Ġcanta va
Ġsom esa
Ġclar tat
ĠPres enta
ĠSh ang
Ġger ir
Ġpal uns
Ġder ro
Ġfe bl
ĠRec on
Ġpref ondament
ĠMol iÃ¨re
Ġorgan icas
Ġsap iens
Ġtalh i
ĠCast ro
Ġmesc lada
import antas
Ġvac cinacion
Ġparlament s
ĠAlb igeses
Ġfilosof ica
Ġescol ara
vis at
Ġdepend on
ĠMag alona
Ġminor itÃłrias
Ġvo tada
Ġamass as
ĠFer ran
rac tiu
rieu x
ser rat
Ġaqueth s
Ġconsci ent
ĠPh il
ĠCA LR
Ġfol iÃ¡
Ġconsac ra
Ġestatsunid encs
Ġbre mb
ĠDu rand
Ġbord at
Ġaliment ar
Ġgerman ica
Ġextra ordinari
Ġencont rar
Ġestrangi era
Ġbu Ã²us
Ġindic an
Ġgig ants
Ġgig anta
ĠInternacion au
Ġdefend ut
Ġaer ian
Ġrecep tor
Ġriques sa
Ġec ran
Ġama gat
Ġcontre bas
Ġetn ica
Ġfrag ment
Ġnat alitat
Ġtab lÃ¨us
Ġbol eg
Ġsenhal ar
Ġmel o
Ġsalv atge
Ġvig il
Ġocean ica
Ġti jas
Ġcub e
Ġreng s
Ġvescom tat
ĠvidÃ¨ os
ampar iÃ¡
Ġdispar eguÃ¨t
Ġjosie vas
Ġdispon ibla
Ġpersec ucions
ĠVel ai
Ġdiscu tir
Ġord enat
Ġrob Ã²t
ĠPon Ã§
Ġsued esa
Ġvaiss Ã¨l
Ġalunh at
vÃ¨rn ha
ĠBrun o
Ġvinh al
Ġnarrat iva
Ġindispens abla
ĠAper aquÃŃ
ĠbrÃ¨ Ã§
Ġsatisf as
eleg it
Ġcomunica va
Ġtrent enat
fel d
ĠFland ra
Ġanterior as
ĠJohann es
Ġestud iada
Ġconsul tacion
ĠSara g
ĠLud wig
Ġhistori ques
Ġtopony me
Ġates tada
Ġange vin
ĠfÃ²t os
ĠRif t
ĠGusta ve
Ġreprodu ire
Ġcromos Ã²mas
Ġdegrada cion
Ġnorveg ian
ĠdecÃ¨n ni
ĠvÃŃ ver
ĠFesti val
ĠAtlant ics
×ķ ×
ĠHabs borg
ĠBÃ¨ ucaire
Argent ina
Jul ien
Ross elhon
imperi alisme
ĠÃįn dias
games h
A uss
A mor
F ranÃ§a
M inas
M arc
R eg
S F
S T
U NESCO
X V
d itz
e me
f Ã²ra
o ine
r Ã²p
v ant
v als
Å Ļ
ã ģ
Ġl Ã¨va
Ġp ins
Ġp ostal
Ġp Ã²nt
Ġa ter
Ġa ima
Ã¨ ge
Ġs w
Ġs Ã©nher
Ġc and
Ġc ava
Ġc Ã³rrer
er m
er esia
in cid
Ġm ors
Ġf ulh
Ġqu itat
Ġqu ilha
Ġt ire
Ġt her
Ġt inais
ĠL ys
Ġun ificat
au da
au Ã§
ri ac
Ġv ulg
Ġper diguÃ¨ron
Ġn us
ta g
ta gn
il ats
ĠA ta
Ġre als
Ġre manda
Ġb olh
Ġ1 209
ĠC f
Ġg is
ĠS enta
Ġcom ic
le m
le ga
Ġcon cas
ĠE b
im itacion
mb ert
Ġal ien
Ġal iadas
Ġr enda
Ġr uf
ur c
ion al
ch t
Ġpar roqui
ap ondre
ĠB omb
ĠLa ctÃ¨a
ĠR ig
ĠF isica
ĠT rÃłcia
20 11
ĠG ill
ĠG reg
ĠG Ã©rard
ac re
ĠV ig
ĠV aur
ĠV lad
Ġfo gal
Ġpo ire
ĠN y
ĠN ou
Ġsus cep
ĠI raq
una y
ass i
ĠEn a
Ã¨l tas
ĠJ ur
ĠJ ans
imp lica
Ġar ru
ari an
Ġli ats
19 90
Ġfa guet
ag Ã¨t
Ġh ortal
Ġab itats
uc rist
Ġesp Ã©
Ġesp essor
Ġesp rÃ²vas
Ġreg na
ĠO f
Ġ18 29
Ġ18 32
Ġ18 53
rop Ã²des
Ġsitu ant
est ile
est udia
ĠQu ora
esc ar
ĠH om
ĠH ong
Ã¨st an
ĠUn ei
Ġcl astras
ĠDe ci
ĠAn th
Ġsol aras
Ġfranc oproven
Ãłn cer
Ġcre a
ilh on
Ġlu ec
ĠCom mon
ep s
Ġman ufa
Ġregion als
Ġcent imÃ¨tres
Ġcor rÃ¨ctament
utiliz ava
Ġrom antic
ĠK n
ĠK ep
Ġsegu idas
ev er
Ġcas tanhas
Ġdesc richa
par tida
Ġpla fon
Ġconf isc
Ãº ria
uras ia
ĠMont mor
ĠMont serrat
Ġtrob ada
Ġof rir
Ġon de
Ġmet ent
Ġfil ologia
Ġz Ã¨bre
Ġleg ÃŃs
Ġconc ession
Ġ2 20
Ġ2 30
Ġdest ill
Ġmen ut
Ġens enha
Ġdev i
ret ant
Ġinf ant
Ġmal ast
Ġ15 60
Ġlig ar
Ġeconom ias
entre presas
An dal
Ġparticul aras
Ġbar ras
Ġroman in
Ġ16 48
Ã¨p ra
Ġtip ica
tar tida
orti da
Ġport ats
Ġvic e
Ġpon tet
Ġid raul
Ar ch
Ġsegond Ãłrias
Ġpag at
Ġev ocat
inter venir
ĠTot al
ind o
ĠAv ans
Ġfis ar
Ġess Ã©ncia
let xa
Ġfond Ã¨
Ġprepaus ats
itan ben
ve y
Ġdeban arÃłn
Ġcolle gi
Ġmand Ã¨ron
Ġis ot
Ã³n er
Ġinc ons
Ġorigin alas
ĠBo Ã¨mia
Ġant ologia
ĠCor int
Ġcerc aire
Ġtes aur
Ġadminist rada
Ġprom essa
Ġagric ultors
Ġconserv adors
ĠSal vat
land eses
tad ors
ils on
Ġacc Ã¨p
Ġ179 5
Ġviol ents
Ġpan te
Ġorient at
ey s
Ġbat Ã¨us
ĠMan ge
ĠSt udi
aviÃ¡ i
Ġbourg ade
ĠEurop a
ĠPre Ã¯stÃ²ria
Ġinte res
Ġrend ement
Ġquant ica
Ġfe blas
Ġpriv adas
ĠPort o
Ġpaus Ã¨t
Ġequip at
Ġmesc l
olit hique
Ġconstitucion alitat
establ iments
Esp ital
ĠDi ego
Ġpublica va
Ġmediev alas
Ġdeclar ar
Ġcatol icas
Ġvolcan icas
Ġexec u
inte raccion
Ġpert ant
ĠCamp ion
Ġjapon esas
ĠCont en
ace ae
Ġvert ic
Ġevolucion Ã¨t
ardi zacion
Or s
Or leans
ĠavanÃ§ at
ĠJapon Ã©s
Ġcron ic
Ġris ca
Ġort ografic
Ġmess atges
Ġdescub Ã¨rt
Ġduc ats
assegu ra
Ġsimbol iza
Ġmest resa
Ġfeder ala
Ġestatsunid encas
Ġprum Ã¨rs
Ġceleb rat
Ġton ic
Ġrit mes
Ġfoss il
ĠDav e
Ġenregist rat
Ġenregist rament
Ġenregist raments
Ġatribu ida
ĠPass Ã¨t
Ġimag in
Ġsignific atiu
Ġdefend uda
Ġfacil itat
Ġanonci at
Ġamp la
Ġclimat ic
Ġtolos enca
ado ira
Ġsusp ension
Ġdefens ors
ĠAqueth s
Ġses ilhas
Ġveget alas
ĠCop ernic
Ġminer al
Ġcromp at
ĠGi ul
Ġsar rar
ĠBru che
Ġfara ons
Ġperilh Ã³s
Ġabitu al
Ġcondem n
Ġmagn ific
ĠMur Ã¨th
Ġaltern ativa
ĠIst oric
Ġtax on
engat gÃ¨t
Ġendrech es
Ġmari da
adap tar
Ġrecamp ats
adre Ã§a
Ġlumin ositat
Ġbilin gua
Ġintens itat
ĠVit ru
ĠVers ailles
Ġdeleg ats
Ġrenovel ar
Ġprumi Ã¨r
ĠEug Ã¨ne
Ġpropag acion
ĠivÃ¨rn s
Ġgo jats
Ġcran i
Ġincor p
Alex Ãłndria
Com tat
Ġtestimoni atge
Ġaz ard
ĠNaz is
ĠGerman ic
ĠComm ons
Ex posicion
Ġfranci mand
ĠsÃ²m is
Ġintra das
Ġenj Ã²cs
Ġbanl Ã¨ga
Ġmist Ã¨ri
Ġhistori que
Ġpermeti Ã¡n
ĠAmeric an
ĠBolÃŃ var
Ġdeur Ãł
Ġatl Ã¨tas
ĠGasc ogne
Ġlanc Ã¨t
Ġrocass Ã³s
Ġcog n
Ġviatj aires
ĠIS BN
Ġrin oc
Ġdirec tiva
ĠLic Ã¨u
Ġsubrevis quÃ¨t
Ġdetect ar
kk ad
ĠPess amessa
ĠJes ucrist
ĠpiÃ¨g er
ĠVilaf ranca
ĠAngle terre
Norm andie
E conom
E uro
G ar
M i
M an
M or
R om
R oma
S D
U P
b u
c rip
d ols
d omÃ¨n
f ib
l it
l Ãłs
n d
n t
p Ãłnia
u te
w ai
y me
z anne
Ã Ģ
Î ®
Ġ iss
Ġ 365
Ġd ilhÃ¨u
en ats
Ġde ter
on is
Ġp iz
Ġp Ã²p
Ġp eta
Ġp legar
Ã¨ uros
er ons
er ian
at l
qu al
qu itament
re b
Ġla vetz
al th
or al
ent rÃ¨
Ġf rig
Ġf Ã²Ã§a
ic ats
Ġt als
Ġt ora
Ġt ocada
ĠL R
ĠL le
ĠL aus
ĠL Ã³
ĠL eb
ĠL ingÃ¼istica
Ġn apoleon
Ġn Ã²bla
gu ent
Ġque la
ol an
Ġre au
Ġse dus
Ġb ic
Ġb Ã²r
Ġ1 70
ĠC ob
ĠC uc
ĠC ard
Ġg in
ĠS alas
ins urreccion
ti d
ti engÃ³
ĠP ei
ĠP aus
ĠP our
ĠP Ã²ble
ĠP lin
ĠP urm
Ġcon Ã©isher
Ã§ o
ĠE qu
ĠE leg
ĠE gip
ĠM is
ĠM ard
ran ta
Ġal entorn
Ġr Ã©
ĠD je
ad ier
ch us
Ġpar al
Ġpar itat
ĠB ras
ĠB acin
Ġan alit
di os
ĠR av
av as
ĠT Ã¨n
ĠT riv
Ġdes enat
ĠG am
ĠG our
Ġin acab
Ġpro che
Ġpro pausa
Ġpr Ã¯
Ġpr Ã¨ire
ge ta
ac tiu
ĠV inci
Ġpo davan
ĠN orth
Ġcap Ã¨l
Ġdi us
Ã¨l an
ĠJ ou
imp ausa
de mpu
ari ana
ĠEs cota
og o
op ular
19 95
Ġvil Ã²ta
aut om
um en
Ġpre ocupacion
Ġpres at
em oglobina
ag arda
Ġpri ori
Ġh en
Ġesp Ã¨r
ina e
Ġmar ron
Ġac usat
ĠO c
Ġparti cion
Ġ18 09
Ġcar rats
Ġesc om
Ġesc ul
Ġesc ut
Ġesc uelh
est Ãºdia
Ġra fin
ast as
ĠH un
ĠH avre
ud s
ib ert
Ġcl ad
Ġrep ro
Ġmunicip alit
Ġsol ids
Ġpass avan
ven gut
ĠCh ipre
Ġlu i
ie v
ou ze
auc as
auc Ã¨ls
aliz acions
Ġgener ic
Ġvi ari
ĠK r
Ġsegu iguÃ¨t
ĠcÃ²p ias
Ġass auts
esp osa
cas ions
Ġro ure
Ġro ergÃłs
Ġcas te
Ã¨rn s
Ã¨rn es
arri ga
Ġsuper paus
ĠW ar
Ġsoci alistas
Ġconf ession
Ġconf eccion
Ġgrop a
Ġutiliz avan
ĠCar bon
Ġprov Ã²can
enci at
ord inator
ĠIn vent
ĠIn donesia
Ġresp Ã²n
Ġpat rons
Ġart ilhariÃ¡
Ġdemor ant
Ġmi Ã©lher
Ġrelig a
exp licacion
arg ila
Ãºs er
Ġas e
Ġint roduccion
Ġef ectiva
Ġlat z
Ġho re
Ġexist ents
acab an
aj an
Ġdescob r
ĠY ang
ĠAv eyron
Ġmag ic
Ġext Ã¨rne
Ġmat rimÃ²ni
Ġprepaus adas
Ġfre q
ĠvÃ²l en
Ġcant Ã¨t
Ġestabl its
Ġameric anas
anc ourt
ĠXIX e
Ġ13 00
Ġorigin als
Ġproc ura
Ġdomin an
ĠCas te
Ġviv aro
Ġpap Ã¨r
Ġreb Ã¨ls
Ġ11 00
Ġprom et
Ġancian ament
Ġconserv ador
Ġsosten on
Ġprim Ãłrias
Ġtemper adas
ĠEl ena
iÃ¨ na
arrib Ã¨t
Ġprev eire
ĠAng eles
Ġfer it
Ġreti rÃ¨ron
duc te
ĠComp os
Ġpron Ã³ncia
ĠMart ÃŃn
ĠAnd r
ols heim
Ġoccident als
Ġjo gu
ĠTe chn
ĠSer ra
Ġta ctica
Ġflu or
Ġcollec tius
ĠMus ic
Ġensenh at
Ġident ica
ĠCast ras
Ġfabric at
Ġgal ariÃ¡
Ġobserv at
Ġbor dada
Ġdecl ara
ĠDi ari
Ġoblig ats
iqu et
ĠfÃ²ra b
Ġdeg alhs
Ġvesti gi
Ġvaria ble
Ġenviron ada
Ġcri dar
ĠDes volop
Ġvo tacion
ĠRegion au
Ġvolcan ics
ĠBeau vais
osc ana
ĠSch ool
Ġfel en
ĠLib an
Ġperman Ã©ncia
Ġseg ons
Ġgau g
Ġcondicion at
Ġlar gas
Ġreform ar
Ġlit urg
Ġtur cas
Ġcontribu ir
Ġdig estiu
ĠcÃ¨l ta
ĠConstitucion al
Ang ieus
Ġcultiv adas
encont ra
Ġproclam at
tabl ament
Ġnot ari
Ġencont ra
Ġed itar
Ġgrat uit
Ġriv au
ĠGir ona
ĠUr gÃ¨l
ĠDan ubi
Ġcontuni acion
ĠOst au
Ġminer aus
Ġfres cas
Ġfac ultats
Ġbret ona
ĠSegu r
Ġcorre ccion
Ġmarch and
Ġborges a
Ġinsc ripcions
ĠLis zt
Ġtransfer it
ĠbÃ²rd s
Ġestrech as
pr Ã¨tz
Ġguitar rista
ĠLat ina
Ġrevendic acion
Ġafebl ida
ĠTel ev
Ġcalif at
ARN t
Ġcuri Ã³s
Ġobligat Ã²ria
Ġconfirm ada
Ġlab Ã¨l
ĠNad au
ĠMay enne
ĠUnivers ity
ĠJorn s
Ġdestac ar
Ġmaritim as
Ġestric te
Ġelector al
Ġbrilh anta
ĠGil gamesh
Ġdictat or
ĠbrÃ¨ va
ĠChamb ra
Ġader ents
ĠLang res
Ġviolonc el
Ġensaj at
Ġbicicle tas
ĠPolit ica
Uc raÃ¯na
Ġconform itat
inspir Ã¨t
ĠEsqu Ã¨ma
Ġautomob ila
ĠjÃ² gan
âĢ¦âĢ¦ âĢ¦âĢ¦
Ġdav ala
Ġboti ga
ĠBolÃŃ via
Ġdavan ci
Ġprimordi au
ĠFilip inas
Mau rici
ĠmÃ² bles
Ġambici Ã³s
Ġrepr endre
ĠBoul ogne
Ġpter osaure
ĠRest auracion
Ġmoiss als
Ġidro elect
Ġpirat as
Ġsalari ats
innov acion
Ġprej udici
Ġnostal gia
Ġpian ista
ĠDesemp uish
ĠAmal ric
ĠAprofich ant
Ġpseudon im
Ġdap asset
ĠCeven as
ĠVisig Ã²ts
fite atre
ĠSirac usa
advers ari
A V
A la
D ieu
J Ã²cs
L F
N A
N U
S I
S ud
a ctritz
a ctitud
c u
c am
f amilha
f ield
g ard
g rand
h ol
h ut
o ud
p rincip
r inas
u me
v ine
v illa
z in
Ä ĵ
Î Ń
Ù ħ
Ġ 86
Ġd as
en eb
en burg
Ġl and
Ġl Ã¨bre
Ġde tec
Ġp ul
Ġp ab
Ġa cci
Ġs oc
Ġc ranc
Ġc iment
ar itat
er tes
ci ala
in ions
re au
re vi
Ġe uros
or in
ent itat
Ġf iss
au er
Ġes f
Ġv ost
Ġen ras
am ag
Ġn er
Ġn ig
Ġn eish
Ã¨t is
ta ires
il da
ĠA mat
ĠA gn
ĠA com
Ġre aus
Ġre ga
Ġre eleccion
Ġre actors
Ġse ver
Ġb ron
Ġ1 240
ĠC H
ĠC ur
ĠC lav
ĠS ier
ĠS eth
ins on
ti e
ĠP rop
Ã§ Ãł
Ã§ ans
ĠE us
ĠE ure
ĠE rÃ²des
ĠM S
ĠM Ã³
ĠM anci
ĠM adama
Ġal ber
Ġr me
ut Ã¨n
ut ilitat
ĠD re
ĠD ama
ĠD ak
Ãł rdia
ist icament
ch is
ch os
ch Ã³
ch ard
ĠB D
ĠB ad
ĠB rig
ĠB apt
Ġan om
Ġan Ã¨l
ens on
ĠF at
ĠF ons
ĠF Ã©lix
av ag
ĠT V
ĠT amb
ĠT itan
ĠT ak
Ã¡ rias
id an
id ents
Ġdes integracion
ĠG ru
ĠG az
Ã¨s h
Ġin ca
Ġpro ce
ha k
ac k
ĠV Ã²li
ov ol
ont s
ĠN ot
Ġent ren
Ġent endre
ĠI d
Ġte ss
Ġtra jÃ¨cte
ĠJ ordan
Ġar p
ĠU NESCO
ob ert
Ġcomp rar
og on
og ats
aut ica
Ġpl umas
Ġpl urau
Ġh ec
Ġh arÃł
Ġh auta
Ġh osse
Ġentre vista
Ġmar tir
Ġaut ant
Ġest Ãł
Ġ18 19
est Ã³n
Ġra ia
Ġu eit
ĠH i
ĠH or
od ar
Ġmon tada
Ġrec or
Ġdeu tes
enc encha
Ġtr Ã¯
Ġtemp Ã¨stas
fer ic
Ġmunicip is
Ġma it
Ġaqu eras
ĠAl ci
all er
Ã²n ias
emp acha
Ġlu xe
Ġch im
ou tier
Ġam on
Ġam ena
Ġdiv er
Ġrel arg
Ġsens ibla
auc ourt
Ġgener alizacion
Ġele fants
Ġcal ma
Ġsos espÃ¨cia
inas tia
ĠPar all
ĠPas cal
ĠW il
ident ament
Ġmin ar
Ġpoder Ãł
Ġtrob adas
Ġemp ir
Ġmet od
Ġag r
Ġserv issiÃ¡
Ġleg itima
Ġlong ada
cis ion
ord s
ĠIn c
ĠCon v
egu e
Ġnos es
Ġmen ava
Ġpat rici
avan as
uss on
emb lant
ell er
Ġespeci alizadas
Ġcompaus Ã¨t
Ġdemor ats
Ġrap ide
ann y
Ġliter alament
Ġparticul a
Ġroman e
Ġsab ut
Ġapar enta
Ġapar eguda
ingÃ¼ e
Es tadi
ua y
ĠRe ctorat
Ġmajor itÃłria
Ġpon h
Ar ri
Ġmena Ã§ar
Ġconv erg
Ġactiv as
Ġprodu it
az ur
Ġtor r
Ġdeban ar
Ġminist ra
Ġge ologica
urb ir
In quisicion
Ġrefer encial
Ġop tica
ĠSol ament
Ġdaiss Ã¨ron
Ġescriv iÃ¡
uÃ¨ it
Ġtu Ã¨t
ĠTh or
ili ari
ath an
Ġreb utat
Ã²g o
ĠEra cles
Ġtes tific
Ġrt ament
Ġpint ors
Ġnorm au
iÃ¨ ja
lant ica
Ġmer m
Ġdet rÃłs
Ġ179 9
Ġcertan as
Ġcu ert
Ġparte jada
Ġdia gon
Ġgraf ias
Ġvoc al
Ġvoc au
Ġvoc able
ĠBel ize
Ġconsequ ent
ĠÃĴ me
Ġprodus iguÃ¨t
Ġjo in
Ġress ort
Ġassegu ran
Ġpurm Ã¨ras
Ġgar dian
Ġban cs
Ġrend Ã¨t
Ġlon ge
Ġgard an
Ġmul te
Ġsuf f
Ġmit ica
eras a
Ġnau a
Ġmencion ada
ĠPau lo
Ġtomb Ã¨u
Ġindivid ual
Ġindivid uala
Esc Ã²cia
ok s
ate m
ĠTer ra
ĠBeau ce
ĠCre ta
Ġtrap ats
Ġimperi aus
ĠAss ociacion
ĠMondi au
ĠGr Ã²s
Ġguer riÃ¨r
ĠtÃ¨xt s
Ġir landÃ©s
Ġevolucion at
Ġvenc ut
Ġprigond s
Ġarres tÃ¨t
oÃ¯ l
Ġbur re
agu esti
ĠsÃ² di
Ġconsac rar
Ġconsac rÃ¨t
Ġcinqu antena
ĠRen aud
Ġillust racions
ĠLin gu
Ch rist
ĠPan amÃł
Ġgarn isons
Ġminim ala
Ġindic ant
ĠDau phin
ĠDau finat
Ġgrat is
Ġredus ÃŃs
Ġredus ida
americ ans
Ġreflex ions
Ġpilh ar
Ġcritic at
aqueth s
Ġsubs ist
Ġegipci anas
Ġenvi ro
ĠtÃ²r nan
ĠTal vera
Ġfamili ala
rap ia
Ġacadem icas
Ġpend enta
Ġeire tatge
Ġendrech s
Ġabb assida
Ġsed enÃ§a
ĠPop ular
Ġbizant ins
Ġsop a
ĠFont enay
Ġdinam ic
Ġdors iÃ¨r
Ġbod ista
Ġchaus ida
Ġborg Ã©s
Ġvitic Ã²la
ĠPens i
Ġprep ara
aga ch
Ġnoir ÃŃs
OM E
Ġmanc ava
Ġjuris diccions
Ġtermi Ã¨ras
ĠLÃ© ger
Ġtim uc
Ġusat giÃ¨rs
Ġadm Ã©s
elev atge
Ġanalis is
Ġbloc atge
ĠglÃ²b es
orf isme
Ġenj Ã²c
ĠextrÃ¨m ament
Ġresum it
Ġsav ana
Ġcomer Ã§ants
Ġforest al
epid emia
ĠTun isia
auton Ã²m
ĠGN OME
equival ent
Ġconfron tacion
Ġtym ologie
Ġrept ils
ĠTradicion alament
ĠJoaqu im
ĠdÃ³ u
Ġestrangier as
ĠCollec tiu
ĠSarag ossa
ĠKep ler
ĠVitru vi
Econom ia
% ,
C ar
E ra
L es
O p
T S
U L
a ct
a Ã§Ã²
d ur
f en
g rop
h el
h ai
j Ã²l
k ai
m ol
m ing
n eu
o an
p ia
r als
u acion
Ä «
Ì Ģ
Ï į
Ñ ĥ
Ġ 94
Ġ 87
Ġd ai
en euve
Ġl len
Ġl Ã¨pra
Ġde gudas
on ima
te p
Ġp aires
Ġp uls
an na
end ut
Ġs atura
ar das
ar etz
at ics
qu ena
in j
in am
Ġm orm
al ig
ent i
ra b
ra ci
ra cha
Ġf ric
it Ã¨ron
Ġt ors
om enatge
ĠL ut
ĠL iss
Ġv ital
Ġv otat
Ġn in
os ia
Ġque l
el aire
ol adas
ĠA mar
Ġre man
Ġ1 17
Ġ1 788
Ġg n
Ġg ai
Ġg em
Ġcom arcas
ĠM emb
ia va
ran o
Ġal leg
Ġal unch
Ġr Ãł
Ġr ich
ad el
Ġpar p
Ġpar lement
la is
ĠB ed
ĠB andi
di Ã¡
ĠR at
iss aris
av on
ĠT rÃ²
ĠT ik
ĠT ourn
Ġdes man
ĠG rÃłcia
Ġin gre
Ġin ondacions
ha y
ĠV inh
ĠV oy
ĠV ez
ma gne
ura ine
ass ass
Ġdau rada
eu ge
Ã¨l ta
ara it
ĠJ ordi
ĠJ amai
Ġau dio
ob e
Ġli urar
19 75
19 96
Ġi berica
Ġpl ants
na it
Ġex amen
Ġres cÃ²n
Ġesp etat
Ġesp lend
Ġmar can
Ġven jar
ess es
ost ar
Ġest u
Ġest ile
Ġimp licat
Ġimp Ã²sts
Ġ18 34
Ġ18 33
Ġ18 43
rop Ã²li
Ġcar itat
Ġcar gar
Ġesc asses
Ġra mas
Ġor fan
Ã²l ia
cip acion
cip lin
esc ur
Ġcam ar
Ġtr ist
Ġri te
Ġri as
Ġpol s
Ġplan Ã¨ta
Ġplan tacions
ne gue
ĠAl p
ĠPer Ã³n
all on
emp l
Ġch ev
ĠCom enÃ§a
Ġenc ant
Ġam ator
Ġman jat
Ġman dib
ill ot
ill erie
Ġpod ut
Ġpod etz
teri es
ust ot
Ġcent rada
ĠK on
ĠMar cha
ĠMar guerite
Ġass aut
Ġad dit
ier i
Ġat ent
fic at
Ġrev irat
ros as
Ġins pira
ĠW end
ĠW ag
ĠW olf
ĠCar ter
ĠCar ac
lo w
Ġca isha
Ġof ensivas
Ġdens a
Ġon da
Ġer etics
ĠCon ta
ret te
ĠTol edo
Ġmant Ã¨l
Ġsub vencion
Ġum idas
Ġmal astre
ulh et
Ġcompaus anta
Ġclass ificacions
ĠAu ge
Ġdess epara
Ġrealiz acions
Ġprof Ã¨ta
Ġniv el
Ġpun k
Ġ16 30
ĠCal end
Ġtip ics
Ġgra mas
ĠPro vin
Ġfra ir
ĠÃ² mi
Ġeg alitat
ĠLe wis
Ġpon tificat
Ġ12 29
Ġvari an
eng Ã¼es
Ġautor izat
Ar b
ĠPr inc
Ġcres iÃ¡
Ġvos gi
gue z
Ġnav Ã¨ths
Ġsal at
Ġaj udas
Ġmilitar ament
inst ruccion
Ġcau f
Ġcau p
Ġcant at
Ġanim ada
Ġis pan
Ġquilom Ã¨tre
Ġterr assas
ĠCl Ã©
Ġtravers ava
Ġproc Ã¨sses
Ġdomin ar
ĠCol om
Ġtu iles
ĠTh om
Ġmass issa
Ġancian es
lam s
ĠSal on
Ġnorm ande
Ġdemand ant
Ġcombat ent
esper ela
ĠCo ca
Ġcatalan isme
Ġfigu ran
ĠSo und
Ġmesura da
Ġprodus isson
Ġcontinent alas
ĠBer engu
Ġtir s
Ġtir Ã¨t
Ġident ificats
Ġproteg idas
ĠhÃ¨ ita
ruc tiv
Ġtomb ada
alis tes
ĠSoci al
Ġvaria da
Ġdra mat
Ġgall Ã©s
Ġfondament alament
Ġdeclar at
Ġperf iÃ¨ch
Ġminor itÃłria
ĠSu per
ĠCamp s
Ġsur re
ĠPat ri
ĠPat rici
Ġnucle aras
Ġcontemporan Ã¨as
Ġvert uts
Ġnumer icas
Ġgau j
Ġauton Ã²ms
Ġacad Ã¨mia
ĠBor is
Ġinvent ada
ĠSam bre
Ġceleb racion
Ġillust ra
Ġfid Ã¨l
gra ci
ĠLaf Ã²nt
Ġpin al
Ġremarc abla
Ġatribu ÃŃs
Ġencont rÃ¨t
Ġbu roc
Ġprononci at
Ġproves ida
Ġconeish uda
Ġmagnet osfÃ¨ra
Ġtolos ana
Ġec os
oqu iÃ¡
Ġenqu ad
Ġju de
ĠdrÃ²l la
Ġclaus ura
arres tÃ¨t
Ġrar es
ĠDep utats
Ġmig racion
Ġtradu ire
Ġlan gue
Ġcorre ccions
och tit
ĠBat ista
Ãª t
Ġtub ercul
ĠvÃ¨r be
Ġbau mas
rod Ã²t
Ġesple ch
ensenh aires
ĠWilliam s
Ġelectron ics
Ġespandi r
Ġdifus ar
Ġpreserv acion
Ġrestabl iment
Ġencarg ada
Ġmetall urgia
isne y
ĠhÃ© r
Ġtas cas
ĠTel em
Ġprovis Ã²ria
Ġremont ant
ograph ie
Ġapreci at
Ġaquer it
ĠTemp liers
Ġelector ala
Ġhont s
ĠGil bert
Ġradio activitat
Ġautent ic
Ġsorn as
Ġordin ari
Ġnombr osa
ĠFrancesc o
ĠOcup a
Ã©m ia
Ġsaun Ã³s
Ġparad ox
ĠAcad Ã¨mia
Ġmicro organismes
Ġrencont re
ĠDrech es
Ġpolici Ã¨r
ĠNam ur
Ġinten cions
Ġcatast rÃ²fa
incl utz
Ġmist Ã¨ris
ĠGav audan
Ġfilogen etica
Ġpays ans
Ġsubsisteix en
ĠWh ite
ĠLag arda
accel eracion
ĠXav iÃ¨r
Anti oquiÃ¡
Ġprecurs or
Ġmodi fica
arab i
Ġtelef Ã²n
Ġá ¼
Ġdotz ena
Ġretr Ã²ba
Ġconcer tacion
Ġhial at
Ġcosti Ã¨ras
ĠSecret ari
ĠVirg ili
Ġsilla ba
ĠBag dad
ĠPara guai
Ġrid icul
ĠPab lo
Ġramb alh
ĠSebas tian
Ġdecad Ã©ncia
Ġconne ctat
eclip tica
ĠViking s
Ġaglomer acions
Ġrinoc Ã¨ros
ĠMÃ³ negue
Ġingre di
A pol
C I
L or
O uen
P o
R ei
S t
S in
U A
a x
a il
a tern
d ol
d ala
d ess
d esc
e mi
h y
i ter
i rib
l var
m it
n ois
p art
r oss
r osa
v ai
v itat
y re
Ã µ
Ã »
Ġ orm
Ġ 97
Ġ 93
Ġ Ã²ras
Ġd og
Ġd up
en ac
te ca
te ish
Ġp and
Ġa re
Ġa temp
Ã¨ dias
Ġs ch
Ġs tes
Ġs ard
Ġs urg
Ġs ism
Ġc imas
Ġc tament
ar rÃ¨sta
Ġe ur
Ġm ou
Ġla ma
al an
al ta
al atge
al ement
un k
ra ma
it is
it av
it ge
it iva
Ġt rim
Ġt Ã¨sis
Ġt umul
ĠL esp
Ġper long
Ġn ia
Ġn atius
os at
el t
Ġdel ici
il on
il Ã¨u
ĠA G
ĠA da
Ġse ten
Ġse jorn
ĠC az
Ġg ros
ĠS at
Ġcom issari
ro up
ro vis
le c
ĠP unica
Ġcon tat
ĠE S
ĠM ob
ĠM og
ul les
ei g
ran i
mb ian
Ġal ta
ĠD isney
ad issa
Ġpar a
Ġpar entat
ap era
ap acitat
ĠB is
ĠB ill
ĠB Ã¨th
ĠB urg
ĠB Ã²sc
Ġan teriorament
Ġan autit
ÃŃ lia
ir ma
ir Ãłn
ĠR ip
ĠR esp
ĠF est
iss Ã¨t
iss Ã¨a
ĠT au
ĠT exans
ig iÃ¨na
id enta
Ġdes v
ĠG at
ĠG up
Ġin noc
Ġpr Ã¨ires
ge mon
ĠV est
ĠV aud
ĠN at
ĠN um
bl au
me dia
and als
Ġte t
Ġte ologica
Ã¯ l
ĠJ ava
ĠJ Ã²ga
ari as
Ġau Ã©
ob jectius
Ġli gur
19 97
Ġcont raf
Ġcont rast
um in
um ont
Ġfa is
18 71
Ġpre gonda
Ġex acte
Ġres erva
em y
em er
ag rad
Ġav ut
Ġav ÃŃs
ina y
Ġpel atge
Ġmar rits
Ġac ced
ess enci
Ġaut s
Ġest Ã³
Ġ18 12
Ġ18 08
Ġcar s
est Ã¨la
est amp
Ġra dar
if Ã²rmes
ĠQu ar
Ġser ias
Ġu b
ĠH ann
ĠH isp
Ġdon ation
Ġdem ografia
Ġfin alitat
Ġprimi Ã¨ira
ib us
Ġtr u
Ġtr ufa
ed Ã©s
ĠDe guÃ¨t
Ã¨ss em
Ġma inat
Ġma tern
Ġsol idas
ena ga
Ġcol Ã²nia
Ġcre bar
ne ment
Ġpass Ã¨
Ġform iga
ĠPer iÃ²de
Ġmes tiÃ¨rs
ĠCh ant
ĠCh Ã¢
Ġch i
ou ver
Ġdiv orci
Ġman iera
ren ce
Ġvi ran
Ġvi rois
ĠK az
ign an
esp Ã¨ctre
Ġsos espÃ¨cias
Ġpubl icit
Ġat ge
Ġcone isser
ita tea
Ġdesc om
Ġdesc ab
Ġann iversari
ĠW o
Ġvol ent
ori aus
ori um
Ġperson aus
ĠCar olina
enÃ§ ar
Ġben edic
Ġprov ocant
Ġcontra b
Ġcontra diccion
Ġer o
occitan a
ĠCon nect
Ġconsid era
Ġloc om
Ġloc alizada
ure ccions
Ġras ic
Ġlin dal
uss es
Ġart isan
Ġno cions
Ġba teg
ĠRo dez
Ġeconom icament
Ġclass ificar
Ġsenh ore
Ġsab Ã¨tz
exp edicions
Ġdec Ã²rs
Ġfl Ã¨
Ġdefin isson
ĠMa ison
Ġrecon eishenÃ§a
Ġnatur alista
Ġnatur alisme
Ġtip icament
Ġgra u
aques t
ĠGran a
ĠPro du
Ġ12 20
Ġ12 14
ĠJoan on
Ġcel te
Ġcel Ã¨sta
Ġev Ã²ca
Ġpor tadas
inter compreneson
Ġsec ors
Ġdisp uta
Ġsup rÃ¨ma
inh ament
Ġtor rent
Ġpe atge
arr is
Ġcolle ct
Ġanim ala
Ġvertadi ers
Ġop cions
Ġop pidum
anc es
ĠCl ara
ĠCol on
Ġvend r
Ġremp laÃ§a
ĠEra u
resp ond
lam a
ix te
ensa jar
form acion
Ġacc ent
Ġacc ompanh
ĠTr in
pe ctor
air atge
ĠTo k
Ġcomunic at
ĠTra vers
Ġorient acion
Ġdub ert
Ġdub Ã¨rts
esper anto
Ġreti rament
Ġsegur itat
Ġbat uda
ĠEsc Ã²la
ue il
Ġinici au
Ġdesign ada
ĠMan if
Ġ24 0
Ġtele c
Ġjo ens
Ġlic eans
ogra mas
ĠPres ent
Ġpau ca
ite d
Ġpal mi
Ġfrequ Ã©ncias
ĠMus ica
Ġensenh aire
Ġps iqui
ĠMol ins
Ġpaus an
Ġuman itat
Ġtalh ada
Ġrem esa
ĠMor ta
Ġpobl ants
cad ura
Ġmusic alas
Ġobserv ats
establ iguÃ¨ron
tet ica
Ġconta ctar
ĠrÃ¨g lament
unt ry
Ġfran ja
Ġvolcan ic
Ġmort s
ĠAut re
Ġpert in
rac tiva
Ġdesapar Ã©isser
Ġdesapar eguÃ¨t
Ġsort issiÃ¡
Ġfinanci eras
ĠnÃ² via
Ġdarrier ei
ĠBlan cs
Ġgrav etat
Ġort ografia
ĠEm manuel
Ġpreced it
ĠCam ille
Ġforn s
ĠprÃ¨s te
Ġvisc Ã³
ly wood
Ġpost um
Ġperme te
Ġacompanh ar
Ġnu Ã²ch
ĠSam n
Ġmam el
Ġleugi ers
Ġleugi Ã¨rs
Ġpreson iÃ¨r
Ġengat jats
ĠBol chevics
Ġemple cs
Ġetn ias
lon ga
Ġcompr end
Ġpsic ologic
Ġmir alhs
Ġdeven guÃ¨t
Ġdefens iu
Ġartifici al
Ġbol as
Ġtradu ch
ĠUc raina
Ġexemp lar
ĠBri an
Ġbanh at
Ġconnect ar
Ġclav iÃ¨r
Ġconj unt
Ġfreg s
Ġmediterran Ã¨as
Ġfelib renca
ĠvÃ¨r bes
km ul
Ġsupaus ada
ĠAust ralop
ĠOlimp iada
vern ha
Ġespandi das
ĠSc enari
Ġdetalh at
ĠTen ochtit
Ġconflu ence
Ġlabor atÃ²ris
Ġeire tier
Ġvilla geois
And r
ĠAub rac
Ġredu ch
ĠLong temps
accep tacion
Ġbizant inas
orig inas
ĠSel djok
Ġdispos itius
uran i
auriÃ¡ n
ĠenqÃ¼ era
Ġquilh at
Ġcoment ari
arth eid
Ġnoir isson
Ġconstat ar
Ġprivileg iat
Ġautent ica
Ġaven idor
ĠFu guÃ¨t
Ġchival iers
Ġmong Ã²la
Ġneb ulosa
Ġresult ant
ĠcrÃ¨ a
ĠCoss ÃŃ
Ġpist ons
ĠFern ando
Ġcoer Ã©ncia
Ġafront ar
Ġrepeti cion
ĠStan ley
Ġimplic ats
ĠAri Ã¨ja
Ġall usion
Ġgovernament ala
Ġcardin al
Ġvul ner
Ġcomplic ada
Ġacost um
Ġeuc li
ĠBart ol
Ġcontro vers
Ari Ã¨ja
articul acion
Ġboti gas
Ġsurplomb ant
ĠLun Ã¨l
aplic acions
Ġcapel an
ĠPortugu Ã©s
ĠdrÃ² gas
ĠRepublic ana
ĠgÃ²r jas
Ġsaque jat
ĠPall ad
Ġitiner ari
Ġimplanta da
Ġdimen jada
ĠCala kmul
ocent ric
origin alitat
ĠSost en
Ġtect onica
ĠKenn edy
Proven Ã§a
ĠrecÃ¨p tas
ĠVeneÃ§u Ã¨la
Ġatest at
Ġchano ines
ĠIntern ational
ĠBuda p
ĠRemi remont
Ġmelo dias
Ġdeter mina
autonÃ²m ia
! )
' )
E A
S av
U l
U TC
c ast
d eu
g ov
h us
j ana
k t
l ha
m ica
p on
p ace
r ond
s Ã¨s
t y
t orn
t ual
u per
w s
y era
Ð ´
Ð ¹
Ġ 76
Ġ 91
Ġ Ã¨li
Ġ olithique
Ġd ren
Ġd Ã²si
Ġd Ã²sis
en veja
Ġl ia
Ġl imp
Ġl ex
Ġl iadas
Ġde terior
Ġde dica
on cia
on ucle
te jat
Ġp ond
Ġp acte
Ġa ura
Ġa imat
end o
Ġs aus
Ġs cep
Ġs sas
of il
Ġc ession
Ġc roc
ar quÃ¨t
ci Ã¡
ci ll
Ġe ol
Ġe timologia
Ġm auc
Ġm istica
Ġm Ã¨dia
Ġm ographique
un eis
un dat
or ra
or me
or ca
or tadas
Ã² les
ra ult
Ġf ust
Ġf Ã¨bre
it met
Ġt Ã¨st
Ġt irada
ĠL al
ĠL ub
ĠL ann
ĠL ug
ĠL itt
Ġv Ãłria
Ġper eu
Ġper cebre
gu an
gu eta
os o
os aurus
ĠA uc
ĠA gen
Ġre per
Ġse va
Ġse cas
Ġb ug
Ġ1 18
Ġ1 763
ĠC ul
ĠC ela
ĠC Ã¨rtas
ĠC PD
Ġg Ã¨n
ĠS her
ai ma
Ġcom e
ĠP iu
ĠP ira
ĠP riv
ĠP NO
Ġcon ifÃ¨rs
im ar
im Ã¨tre
Ã© o
ran g
Ġson or
et ta
et to
Ġr ond
ut te
ut in
ut ant
ĠD ion
ad s
ist Ã²rias
ch au
Ġpar ag
Ġpar alla
ap lant
Ġan ul
ens ac
ĠF Ã²rt
ĠF rÃ©
av ar
av is
av atge
ĠT at
ĠT uc
ĠT rop
ĠT Ã¨x
ĠT ay
Ġdes er
ĠG ap
ĠG Ã¼
ĠG anim
Ġin tim
Ġpro puls
aus ir
Ġamb s
Ġamb edÃ³s
Ġsu enh
ĠV esti
ov al
ĠN ap
ĠN omb
ĠN eron
Ġent res
Ã©n Ã§a
me Ã¥
ĠI ogoslavia
Ġcap Ã¨ra
Ġlei Ã§on
ass idas
Ã¯ ts
Ġtra ma
Ġap ost
Ġap artament
ara te
Ġar d
ĠU R
ĠU rosament
ob rar
ob ertura
Ġcomp dar
eg jorn
op ression
19 93
Ġcont am
Ġcont rib
Ġcont rot
Ġcont Ã¨xt
Ġvil las
Ġpl ats
Ġpl ens
Ġpre da
Ġtot is
Ġpres by
Ġav em
Ġh Ã¨i
Ġab reu
uc as
Ġesp Ã©s
ĠcÃ² sses
Ġac ÃŃ
Ġreg enta
ess at
Ġest Ãºdia
Ġ18 24
alh es
Ġcar rer
Ġesc la
Ġra Ã§as
Ġra cina
Ġcons ulta
ĠQu ich
Ġor qu
que ville
esc ot
esc amp
ĠH ou
Ġcam ion
Ġgen eal
ex periÃ©ncias
ud o
ud ic
Ġcl oqu
ed es
ip a
Ġrep rodus
Ġne o
Ġne v
ĠAn am
ĠAn des
ĠAn tartida
Ġpol vera
Ġbas ica
Ġcre mar
Ġcre tacÃ¨u
ĠPer man
Ġmes me
Ġmes prÃ¨tz
ĠCh am
Ġenc eucl
Ġgu les
ou re
Ġdiv ulg
Ġpers an
Ã²p i
Ġrel ambi
Ġpod ia
Ġtorn ats
auc es
Ġcent enas
Ġcor ala
Ġcor onat
Ġfam ina
up t
Ġk ar
Ġmil ierats
ĠMar gar
Ġcal gut
Ġcal Ã²ta
Ġass osta
Ġfon etic
Ġob riÃ¨r
Ġqui tes
Ġso relh
Ġprod urre
Ġlor rain
ĠW ood
ĠAr mor
Ġaf f
Ġsoci alizacion
cl as
Ġpla teaux
Ġtrob ant
Ġag ents
ef Ã¨ctes
Ġpat ois
Ġval er
Ġexp Ã¨rts
Ġbasti guÃ¨ron
Ġinf rar
Ġinf rastructuras
Ġmal ediccion
Ġneg ativas
Ġinst itut
Ġart istics
autor ota
Ġclass ada
aur Ã©
Ġmot te
Ġprof it
exp lic
arg ament
Ġdec orat
ingÃ¼ isme
Ġpens avan
Es parta
Ġautre jat
esta ble
esta biliz
Ġ16 10
reg adas
Ġint rÃ¨ron
anÃ§ ons
nacion ala
Ġang lo
Ġfra ccion
Ġrs an
Ġvic om
Ġarrib ant
Ġ12 10
Ġlimit Ã¨t
Ar le
Ar quimÃ¨des
ĠPu ish
Ġcel e
acab ament
ĠY an
Ġost ila
Ġjov ents
Ġ14 00
apar eis
Ġsec ond
amor f
Ġsup rimit
Ġpos ita
Ġpes ar
Al s
Ġcat ar
In terior
Ġop inion
ĠCl ermont
Ġbl aus
Ġbl ocada
ĠSol a
ĠBo y
âĢ¦ )
Ġcompren i
Ġnum Ã¨ros
ĠEx emple
ris es
Ġprom o
Ġdoc es
ĠIs land
ĠmÃ¨s me
ĠmÃ¨s cla
cin c
Ġ179 7
ĠAng ieus
Ġrespons abilitats
Ġcost um
Ġcost umi
Ġbal anÃ§
ĠMo ham
ĠComp enha
Ġom enat
Ġcanta da
Ġprodus ent
Ġgovern adors
Ġdura ble
ĠTe ut
ĠQual qu
Ġcab ras
Ġpau ras
Ġurb anas
men te
Ġ28 0
Ġabandon ats
En s
Ġestran ha
Ġbona Ã¼r
ĠAd olf
Ġinstall Ã¨t
espaci s
ĠSan cho
Ġmusic als
ĠAnt ica
tet ic
cont inent
Ġcompanh ons
alis mes
ĠMarc us
Ġdetermin ats
Ġfix acion
onn i
Ġment au
Ġeng ran
Ġvolcan isme
Ġindependent ament
Ġsubst rat
ĠlanÃ§ ada
Ġarch ipÃ¨la
Ġguer don
Ġaperten enta
ĠCort s
rof isica
ĠreÃ¼n ions
Ġcart ulaire
Ġrecone iss
Ġcontribu ÃŃs
ĠBon if
ES A
Ġproced iments
Ġavant atges
Ġip o
Ġarque olÃ²gs
ĠNarb onesa
Ġrememb res
Ġencont re
Ġimag inat
ĠAi Ã§Ã²
Ġsiste matic
Ġarre con
Ġriv aus
observ ar
Ġdispaus ar
Ġdispaus ava
Ġcot ria
Ġcoloni alas
Ġrevel at
Ġrevel Ã¨t
Ġparis encs
Ġdan esa
Ġlan gues
Ġexclus iu
Ġenvi Ã¨t
Ġinclus on
fu Ã²c
Ġstat u
Ġsalv atges
Ġlot issement
Ġcontrarot lada
orta ire
Ġrai Ã§
Ġnota bla
Ġtax as
ĠForm acion
Ġaustri ana
Ġmira cle
Ġpreserv at
Ġmontanh osas
Ġiran ian
Ġrenfor Ã§ar
ĠdanÃ§ aires
Ġporg ÃŃs
Ġasiat ics
Ġbru ta
ĠDra gon
Ġreparti das
ĠÃ©s ter
Ġabond osa
Ġvitic ole
acci o
ĠCro Ãłcia
Ġce dir
ĠVict oria
Ġdescrich as
Ġprotagon istas
ĠMir alh
Ġescand in
Ġtermi er
Ġasc ension
gh ilev
Å£ i
Ġsufra gis
Ġdomest ics
investi ment
ĠDia ghilev
Ġhu ec
ĠOcup Ã¨t
Ġritu al
ĠChart reuse
Ġempres onat
ĠMosc Ã³
ĠRap in
Ġpoir Ãłn
Ġbloc us
ĠLon ge
Ġlir ic
Ġmosa Ã¯ca
Ġexplos ion
ĠDomin ique
Ġafect at
Ġdorm ir
Ġdenonci ar
ĠSha k
Ġtour istique
influ Ã©ncias
Ġenro dat
Ġpruss iana
Ġmagist rats
Ġchamb ras
estand ard
estand ardizacion
ĠHub ble
Ġexplici tament
Ġprecurs ors
ĠIll ust
Ġaudi ovis
Ġierogl ifs
Ġrup tura
ĠOrt odÃ²
ĠJustin ian
afir mar
ĠManch oria
ĠVid al
Ġpubliqu Ã¨
ĠTarra con
Ġenciclop Ã¨dia
Ġfeste jar
Ġbev enda
ĠDip l
ĠClam enÃ§
Ġpredec essor
Ġcorred or
Ġeventu alament
aeron aus
Ġsepel it
ĠNai on
ĠClap Ãłs
pref ectura
Ġfranch im
htt p
Ġmenac Ã¨t
imposs ibilitat
Ġestal vi
aurel ha
Ġomin ids
ĠNeuf ch
enj Ã²c
ĠMontal ban
Ġconjugas on
andert al
Ġdeconst ructiv
ĠDeclar acion
ĠHein rich
Ge orges
ĠpÃ²p les
ĠTriv ala
Ġvioloncel ista
ĠManci et
Ġparag raf
Ġpresby t
" ;
' t
- -
. Â»<|
G en
I tal
L S
Q ue
a in
b os
b ury
c res
c adas
c ell
c atalan
e cci
g Ã²rd
h art
l ana
r ra
r Ã²t
r ing
s ca
u ad
u tion
u Ã¨lhs
v Ãłnia
w en
w ich
w are
y mp
y ne
Â ³
Ä į
Ġ ulh
Ġ Ã¨rsas
Ġd uretat
en eg
en berg
Ġde di
on ent
Ġp unh
Ġp neu
Ġa xi
Ã¨ dre
an gu
an Ã³ncia
end even
Ġs eng
Ġs Ã³n
Ġc itacions
Ġc odon
Ġc itada
Ġe man
Ġm Ã²l
Ã² gi
ent ra
is teri
Ġlo ps
Ġf adas
Ġf etz
Ġf osc
Ġf esten
it ana
Ġt om
Ġt illon
om on
om un
om Ã²r
ĠL ord
au Ã§ada
ri gu
ri era
Ġn ap
gu Ã¨rra
os Ã¨
us tan
us ina
ta bilitat
ta chement
ĠA mp
ĠA guÃ¨ron
ĠA mer
ĠA isne
Ġre qu
Ġre ment
Ġb eton
Ġ1 26
Ġ1 15
Ġ1 213
ĠC O
ĠC y
ĠC is
ĠC it
ĠC og
ĠC ourt
Ġg Ã¨r
Ġg res
Ġg ats
Ġg rel
ĠS ans
ĠS arn
ĠS ologne
ins p
ti ana
ĠP y
ĠP unta
Ġcon ois
ĠM J
ĠM ort
ĠM eg
ĠM ore
Ġal iada
ut re
ĠD ata
ĠD intrada
ĠD rap
ad an
st an
ĠLo x
ĠLo ing
Ġpar iet
Ġpar Ã§ans
ĠB ia
ĠB ob
ĠB ocas
ot icas
Ġan otar
ĠLa cs
mp a
ĠR osas
ĠF orn
ĠF ib
ĠF lav
ĠF amilha
ĠT rit
ĠT ex
ĠT ron
id en
id ia
ĠG alas
ĠG ust
ĠG airal
Ġin g
ĠV ass
ĠV erg
ici n
ĠN et
ĠN ag
tat ion
Ġent ier
me a
me z
Ġnom inat
ques ta
ĠJ im
Ã©s ers
imp or
ĠEs ta
Ġau ans
Ġau mens
Ġau menatge
ort ant
ec k
ec te
op ro
op tica
19 00
19 78
19 85
Ġvil atj
aut o
aut omob
Ġi Ã¯
ons e
Ġres Ã²uvre
em na
ag in
ag atge
ag regacion
Ġab rig
Ġesp at
ras borg
ĠcÃ² des
ich i
Ġreg ne
Ġimp lantacion
Ġ18 16
Ġ18 11
Ġ18 04
Ġesc ultura
Ġcons eu
esc o
esc ota
era y
Ġpu retat
ĠH ad
ĠH igh
Ġpa tes
ex paus
ex periment
ex pulsion
ss a
ĠUn s
th er
Ġne ocl
Ġbas ant
int re
int riga
Ġform ulas
Ġmes uran
ilh adas
ĠCh er
ĠCh ass
Ġam end
Ġsul pic
ron im
utiliz avan
Ġsegu its
ine ta
ĠMar ly
Ġad orn
Ġad ulta
Ġat ro
Ġat Ã²m
amb ic
Ġ* *
ĠGu ira
ĠGu ille
ĠGu atem
Ã²m na
Ġpauc as
Ġinter cal
Ġinter prÃ¨t
eb er
ori ana
Ġpich Ã²ts
Ġgrop ant
Ġdesvolop aments
Ġver ifica
Ġver ds
Ġca ge
Ġdeb utÃ¨t
amp l
eci ans
Ġag Ã¨t
emple gan
Ġco okies
ĠJo Ã£o
Ġlong itude
Ġcontra dic
ĠIn f
ĠIn g
ĠIn sc
Ġ2 28
Ġvis ions
Ġmen ora
Ġjos ivi
avan Ã§ar
Ġpresent Ã¨ron
Ġnacion alitats
Ġespeci ficitat
Ġclass at
ograf ias
Ġarm ament
Ġimpor tacions
Ġsab em
Ġdec Ã²r
Ġdec Ã¨s
Ġapar eish
ĠMa j
Ġpun te
Ġep oca
ĠMon tan
anci anas
dep artament
ĠVal Ã©ry
Ġfonda ments
Ġfoncion ari
Ġves ent
Ġ12 15
Ġautor izada
Ġpra g
Ġtecn ologicas
Ġais ada
inter pret
Ġjov en
Ġtract aments
Ġdeban ava
Ġpe Ã§as
Al f
Ġliber ada
Ġcul mina
Ġequ inÃ²cci
Ġcin etica
Ġbl Ã²g
ĠCas an
âĢ¦ ).<|
Ġmont ant
Ġmont atge
Ġremp arts
Ġant icas
ĠEx ec
Ġem ocions
Ġem magaz
rÃ² ma
ĠVen gut
Ġbo ta
Ġpint ar
Ġpint res
ĠOr gan
Ġesper anÃ§a
Ġconserv adas
Ġconserv atÃ²ri
mun d
Ġprim ats
ensa ja
rad uras
Ġcolor at
Ġnas quÃ¨ron
ĠCr isti
ĠCan on
ĠAng el
Ġveg Ã¨ron
Ġobl idat
Ġdub rÃŃs
ĠDem ai
Ġsau vament
gn ac
Ġbal n
Ġmateri ala
do as
Ġges tacion
iri es
Ġreceb Ã¨ron
Ġleng Ã¼es
Ġmost ra
ĠPre pausa
Ġdestru chs
Â° .<|
Ġflu id
Ġdessenh aire
Ġban Ã¨ra
ĠAd or
Ġident ificar
Ġtalh at
Ġessenci als
Ġmesc lant
Ġcompanh ia
are a
Ġden omin
ĠSi Ã¨is
Ġdeclar ada
Ġmur tre
Ġtrap ava
Ã¨b ra
ĠJul io
ĠAc ab
Ġalb ig
ĠCont unh
ĠCont inu
Ġcell ul
Ġflor als
Ġsort isson
ĠCort Ã©s
Ġopaus ada
Ġopaus adas
Ġopaus ants
Ġperman entas
Ġevolucion a
ĠBlan quer
ĠCA P
apel acion
ĠEm ili
Ġterm ica
Ġcontes tada
Ġinvent ar
Ġmem Ã²rias
ĠTorn at
Ġprestigi osas
ĠBa Ã¯s
Ġillust res
ali ens
Ġparall Ã¨ls
Ġcaire for
ĠPan or
iran ge
Ġprivil Ã¨gi
Ġgerman icas
lau renÃ§
ĠRev ista
Ġestim acions
Ġeduc at
Ġeduc atiu
Ġpractic ada
Ġtromp etas
isp r
Ġenl Ã²c
Ġrenov acion
Ġperm Ã¨t
Ġrecep tors
Ġx ode
Ġfemen ina
Ġriques as
Ġama gar
Ġetn icas
Ġproduc tes
Ġlingu istic
Ġdeven ir
Ġaplic at
Ġdefens or
Ġdesf avor
Ġrevel acion
ĠCop enaga
ĠLan gued
Ġenvi ar
Ġcarg adas
Ġpassej adas
Ġmel odia
ĠBri e
Ġinterior as
Ġcerem onias
ĠBru y
Ġapond ut
Ġanal og
Ġanal isa
Ġnota ble
ĠSc ott
ĠRa in
ĠPeter sborg
interess ar
Ġcondam nacion
Ġmetall ics
ĠEv identament
Ġband as
Ġrecom and
Ġacamp s
Ġmestre ja
Ġprojec cions
amer al
Ġdors ala
Ġpreci osas
Ġbandi Ã¨ras
Ġail Ãłs
Ġbro a
ĠArch ius
Ġerig ida
rut inh
Ġord inators
Ġpit agor
Ġsusvelh anÃ§a
Ġotom an
acci dent
insc riguÃ¨t
Ġconclus ions
Ġsanc Ã¨r
Ġdang ier
util itarisme
ĠpreÃ¯st orics
Ġhor ats
ĠCin quena
Ġcuirass at
Ġsosl inhar
Ġdomest ic
ĠTeod oric
Ġcicl ista
Ġcanad ian
ĠRio ja
exili Ã¨t
Ġsuici di
ĠadvÃ¨rs ari
ĠacomenÃ§ ada
Ġreconstru it
ĠNam ibia
Ġrena issent
ĠFeder ala
Ġexcell ent
ocal ipsi
Ġdefun tat
ĠOt to
Ġpolim erasa
Ġeuc ariÃ²tas
Ġeclesi astica
ĠPag an
Ġdesta ca
Ġmontpelh i
Ġmisteri Ã³s
ĠSax Ã²nia
Anti Ã²quia
Ġarg il
ĠInd ustri
ĠlaÃ¼ tiÃ¨r
Ġcine asta
Ġcooper ativa
ĠCerv antes
Ġpeti cion
inaugu racion
ĠVirgin ia
ĠlÃł mias
ĠPros per
Ġgallorom ana
ĠreÃ¼ ss
ĠBasco at
ĠQuim ia
Ġchiv au
afirm acion
Ġbombarde ments
emit Ã¨ri
Ġmix te
ink go
Ġmeri dian
Ġrecrut ament
Ġfalais es
Ġsobren omenat
Ġbric on
ĠbÃ³s tia
Ġtrant alh
infin it
Ġlegisl atura
Ġsarth ois
Ġhortal essa
ĠCommon we
ĠLÃ³ pez
Ġacci dents
ĠVoy ager
ĠWag ner
ĠTelem ac
ĠGup ta
ĠConnect icut
ĠTenochtit lan
ĠPallad io
ĠGuatem ala
3 000
A ups
B r
C al
C amp
C rotz
G M
L V
T e
b ot
b ir
c elles
e h
g ona
i Ã³
j Ãł
k es
m erc
m onda
m ile
p ont
p ing
p rimi
s ant
s ovent
v it
v il
v res
v ida
x as
Ø ±
Ġ Ã¨ri
Ġd ama
en zo
Ġl itu
Ġde du
on isme
Ġp H
Ġa x
an ma
es ter
Ġs ilici
Ġs ider
Ġc ip
Ġc ables
ar ament
er re
er rors
qu ÃŃ
ci da
Ġm ara
Ġm Ã²tle
Ġm adura
Ġm utacion
al ats
al iats
un y
Ã² Ã§
Ã² gue
it ion
it Ãł
ic ourt
Ġt ari
Ġt Ã²cas
om me
ĠL ep
Ġun ida
Ġun ics
Ġes teri
Ġes fÃ¨ra
Ġv ejatz
Ġen vÃ¨rs
Ġper g
am et
Ġn atal
ta ines
ol eta
ol ais
ĠA ge
Ġre elegit
Ġb y
Ġ1 44
Ġ1 756
Ġ1 766
Ġ1 783
Ġ1 211
ĠC la
ĠC af
ĠC iutad
Ġg az
Ġg oj
ĠS orb
ĠS Ã©nher
ins er
ai ana
ai mar
ro cin
ti Ã¨ra
ti gas
ĠP ul
ĠP Ãł
ĠP Ã²l
ĠE dip
ĠE rodÃ²t
ĠM ul
Ġo g
Ġo ch
Ġo casions
Ġr onda
ĠD E
ad ob
ad iÃ¨ra
ur p
ĠLo ve
ch ers
ch if
ap e
ap od
ap ellacion
ĠB od
Ġan Ã¨us
Ġan Ã¨ls
ĠLa w
ĠLa on
ĠLa bor
Ġj uda
Ġj urat
ĠR im
ĠR esc
ĠF is
ĠF ed
ĠF ord
iss an
av ocat
ĠT aras
ig ament
ig rats
id al
Ġdes gat
Ġdes velh
ĠG im
ĠG Ã¨li
Ġpr ost
Ġsu mer
ac Ã¨a
ĠV ival
ov ing
ĠN oy
ĠN GC
ĠN oisy
Ġsus fÃłcia
ĠI ss
Ġdi gu
Ġdi bo
Ġlei Ã§ons
ass aut
ass embl
Ġnom mat
Ġap ri
ĠJ r
ĠU A
ĠEs tela
Ġme de
eg Ã¨t
op l
op cion
19 92
Ġcont rÃłriament
Ġsi Ã¨gle
Ġfa g
ond ut
ag Ã©ncia
uc at
oc cup
Ã¨g les
Ġreg aud
ĠO ri
ĠO ise
Ġven i
art re
Ġaut ar
Ġcar p
ĠLos era
Ġra g
if e
Ġmas atges
esc art
esc ulturas
ĠH ag
ĠH erv
ĠH ind
ard ant
Ġmon etÃłria
Ġter ralha
Ġgen oci
ex ions
ib a
Ã²b i
enc ar
Ġtr omb
Ġtemp tÃ¨t
Ġrep utada
Ġne f
Ġma Ã§on
Ġpol i
Ġpol y
Ġsol ars
oss egu
Ġbas ta
Ġcre atura
Ã²rd s
Ġform ulacion
iliz ar
Ġto ut
rib uts
ĠCh ecos
Ġlu xemb
ĠCom b
Ġenc ora
ing rad
Ġrel atius
Ġrel ativitat
Ġpod rÃłn
olog istas
Ġvi elhs
ĠK an
ĠK at
ĠK os
ĠMar k
anh at
Ġdep ressions
Ġdef en
Ġdef icit
esp ect
Ġro erg
Ġro cher
amb ra
Ġdesc rip
aci l
Ġann alas
Ġins ist
ĠW ilson
par n
Ġqual ificada
Ġesta pas
Ġesta jants
Ġconf eder
ĠpÃ² le
Ġver das
Ġof fici
Ġprov ocada
Ġag ÃŃs
inc ent
Ġer udit
ĠCon ca
Ġvis u
Ġvis ual
Ġdev ant
Ġcr in
Ġcr istian
Ġpren iÃ¡
Ġexp osicions
Ġdesp end
ĠmÃ²rt as
dic acion
arc ÃŃs
Ġsub ran
ell ier
Ġ15 50
Ġlig ant
Ġinst ant
Ġdepartament al
Ġconsider avan
ĠAu ta
ĠAu vergne
Ġfu Ã²cs
Ġrealiz Ã¨ron
aud ica
Ġprof ie
Ġdec ern
Ġapar Ã©ncia
Ġpens am
estat uas
li o
Ġcer amicas
Ġorganiz ators
ĠGran ada
ĠPro g
Ġmajor al
ÃŃn ia
Ġestats un
eth oven
Ġport au
Ġfoncion an
Ġpon cha
Ġid rocarburs
eng Ã¨ni
Ġpag ats
Ġmena Ã§adas
ativ e
Ġocup ava
Ġaver Ã¨t
ien guda
ĠAb andon
Ġsec ar
Ġsal va
Ġdisp ersion
Ġindi anas
Ġciv iu
ĠtrÃ²b e
Ġfre jas
Ġfre ds
ĠVi ana
Ġfavor iza
Ġavi am
ĠJos iana
Ġequ acion
Ġbl Ã²c
Ġlib rariÃ¡
Ġvia ducte
Ġdomin ants
ĠBo iss
Ġviv enta
Ġobten guts
Ġquit as
ik i
Ġadminist racions
Ġlev Ã¨t
Ġsuperi otat
Ġbo de
Ġprom esa
ĠNe olitic
ĠReg iment
Ġconserv Ã¨t
Ġemb e
tad t
tad ura
Ġacab ats
Ġpot Ã©ncias
dit ions
Ġcertan a
ĠFel co
Ġorient acions
ĠPol onÃ©s
Ġsen escal
Ġbal Ã¨ti
Ġbat ut
ĠEsc riv
ocup an
ĠComp ta
Ġdus cas
Ġdat ar
Ġast res
Ġgovern ar
Ġdiss Ã²l
ĠPre f
Ġjo ga
Ġbr una
ĠPl essis
ĠSh ar
Ġgar das
Ġfe das
ĠAd rian
Ġpref ixe
Ġorgan ics
ĠMars elh
Ġlog icament
Ġnaiss en
ĠrÃ¨ ines
Ġfabric ants
ĠSitu acion
actu au
esqu ÃŃ
Ġdetermin ant
ĠGra v
Ġpopular ament
ĠprovenÃ§ aus
Ġglaci Ãłria
ĠSu bre
ĠBeau fort
ĠCre use
vel ines
Ġindependent ista
Ġtrap Ã¨t
ĠAss iri
Ġmatemat ics
Ġcell ular
Ġlh s
rieu c
Ġresid encial
Ġfinanci Ã¨ras
Ġdr ol
Au vÃ¨rnhe
Ã²ss es
ĠCat herine
Ġarres tats
Ġaten gut
oÃ¯ ca
Ġrecone guÃ¨t
Ġcontribu iguÃ¨t
Ġdescub Ã¨rts
Ġdesir s
Ġterm ic
Ġculmin i
dis ciplin
Ġinvent Ã¨t
ĠCamb ridge
ĠsÃ¨r vas
ĠMerc Ã©
ĠTorn am
Ġplat Ã¨u
Ġceleb rada
ĠÎ ±
Ġinterpre tada
Ġastron omia
Ġdesen aus
ow ski
ĠAls Ãłcia
erb Ã©s
Ġpin tat
umi guÃ¨t
ĠVill eneuve
Ġpil ar
ĠCI CR
ĠCarta gin
aven guda
ĠMen Ã¨rba
Ġsof re
Ġenqu era
Ġimpaus ada
Ġaplic adas
Ġminer au
Ġconcern its
elect rons
Ġsubs istÃ©ncia
Ġrevend ica
avent uras
Ġvide o
Ġred ondas
Ġconnect ats
Ġocean ic
Ġnavig ador
Ġdialect ala
Ġmult il
Ġestand ards
Ġts ar
Ġreserv ada
Ãª che
Ġnobl essa
Ġradic aus
Ġcollectiv itat
Ġvore ja
ĠRou ge
Ġfr ust
ĠMur alhas
Ġdetalh ada
Ġdifus ada
And rÃ©
Ġsuplement Ãłria
Ġredu cha
lov Ã¨n
Ġaparten on
Ġrespond Ã¨t
Ġbenefici ar
Ġiran iana
Ġexplor ator
Ġexpaus ada
Ġrenfor cÃ¨t
Ġindividu als
Ġsop ar
Ġauc Ã¨l
Ġpersec ucion
Ġmanusc rich
Ġtamb orn
Ġcro ix
Ġrenovel ament
Ġperpaus ar
Ġinfluenci ada
Ġalunh ada
ĠBlu e
Ġafir mar
Ġpig ment
Ġpig ments
lad Ã¨sh
assan idas
OM S
Ġprivileg iada
ĠMir Ã¨lha
Ġoc cup
Ġsatisf ar
Ġtrip le
ĠBaud elaire
Ġeston ant
ĠRab ast
ĠOu che
Ġtin ta
anth ropus
Ġpretz fach
Ġsir Ã²p
ĠJau fre
ĠsecrÃ¨t a
Ġsucced isson
Ġdiuers es
Ãłm ia
Ġcamba jon
sse tia
enem ics
ĠBlas on
ĠPuÃ¨g laurenÃ§
ĠSib eria
Vi elha
Ġdiplom ata
Az ur
ĠProf essor
Ġoland Ã©s
ĠBir mania
Ġanarqu istas
exple itacion
ĠPruss ians
Ġaun or
ĠSpace X
Ġetrus ca
Ġprefond or
Ġribi Ã¨ra
ĠÃģ lvar
Ġmenim osament
ĠGod olin
Ġallu vi
Ġpromot ors
ĠSod an
ĠCommun e
Don cas
ĠMik ha
Ġsucce diguÃ¨ron
ĠBang ladÃ¨sh
Ġtropic als
exclus ion
Ġpredat ors
Ġenqui ath
Ġapari cions
Ġarri us
Ġpolon esas
ĠMontre al
Ġsimpt Ã²mas
ĠContuni acion
Ġferv or
ĠChel em
Ġpollu cion
aprofich ar
Ġdiagn ostic
ĠBle ue
ĠJor ge
Ġsinag Ã²ga
Ġterro ir
Ġantibi otics
ĠPlin i
ĠSier ra
Ġtimuc ua
Ġdesman tel
ĠGanim Ã¨des
Ġomenat jar
ĠCommonwe alth
) ..<|
B u
E ug
H ilaire
I M
I X
I m
M aria
R A
S an
U t
V el
b uta
b euge
c lar
e tes
k an
m Ãłs
n orm
n ik
o ter
p lement
t Ã©
u j
u es
u vre
u mbia
v ert
w ick
y ss
Î ¸
Ù Ĩ
á »
á ¼
Ġ Ã¨ren
Ġl Ã©sers
on ents
te ta
Ġp ica
Ġp alha
Ġp ingo
Ġa ct
Ġa ce
Ã¨ me
Ã¨ irs
end acÃ²m
Ġs am
Ġc ut
Ġc ep
Ġc ian
Ġc able
Ġc lap
Ġc Ãłncer
er u
er ei
ci ana
ci Ã©ncia
ci tats
in n
in ia
Ġe ti
Ġe dific
Ġm Ã¨r
Ġm endra
Ġla ure
al gas
un ci
is ats
is ation
Ġlo is
it abla
Ġt Ã©
Ġt ura
Ġt ara
Ġt all
ĠL ass
ĠL lan
Ġun ificar
Ġv elha
Ġv Ã²uta
Ġen ig
Ġn Ã¨r
gu etas
os ion
Ã¨r gue
el on
el ef
ol ir
ĠA renas
Ġre alas
Ġb ass
Ġb abil
Ġ1 260
Ġ1 590
ĠC ara
ĠC aire
Ġg lic
Ġg Ã²ts
ĠS B
ins tein
ai i
ro z
ro ta
le var
ĠP end
ĠP ari
ant isme
ĠE ras
âĢĻ <|
ĠM inas
Ġr Ã©g
ĠD elh
ĠD rac
la ve
ap ropri
ĠB iz
ĠB and
ĠB Ã¨c
ĠB anc
ĠB isc
ot atge
Ġan ecd
ens at
ÃŃ pols
Ġj ub
ir al
ir us
Ġmai a
Ġmai res
av ana
ĠT es
ĠT ah
ĠT oscana
ab or
ab eth
id el
ĠG Ã¨n
ĠG ate
Ġin demn
Ġpr ats
ac tiva
ĠV ign
ĠV ega
ici anas
ici li
ans a
Ġpo ce
Ġpo ema
ĠN in
ĠN arcÃŃs
Ġent rada
Ã©n Ã©
and ro
ĠI g
ca zia
Ġdi p
Ġdi at
Ġdi riÃ¡
ass ai
ass iÃ¨r
Ġnom ar
Ġtra ge
Ġtra fec
ĠJ esu
Ġar te
ĠU ranus
ĠEs iÃ²de
eg ip
Ġli ames
op ard
19 74
19 81
aut ob
Ġi e
Ġfa ita
Ġpre z
Ġsa grat
Ġpres tat
Ġres ina
Ġres istiguÃ¨t
em ic
em issions
ag Ã²n
Ġh este
Ġh icar
Ġab andona
uc y
ĠcÃ² dis
Ġac onselh
Ġven j
Ġven Ã¨m
Ġimp ausa
Ġcar cin
est ruct
Ġra c
Ã²c ra
ĠQu Ã©
Ġmas queta
esc rit
Ġu Ã²i
Ġcam is
Ġmon olit
Ġdem ar
Ġter ri
ex istir
ud an
ud its
Ġrec Ã²lta
ss ion
ip ot
Ġtemp ta
Ġrep utat
Ġrep ortat
enh or
ĠAn autitas
Ġma issa
Ġbas es
int s
Ġaqu iu
Ġcre mada
Ġpass e
Ġform ava
ilh an
gon h
Ġch ab
Ġch Åĵur
ĠCom tes
ges tion
Ġenc l
Ġgu eto
ou p
Ġman Ã²bras
Ġrel ÃŃ
lu b
Ġsens es
ĠSant o
teri as
Ġcent raus
Ġfar em
olog ies
ian e
ĠK or
ĠK och
ĠMar ca
ĠMar ques
ign at
Ã¼ l
Ġso un
Ġat t
amb icion
Ġdesc ur
Ġdesc ripcions
Ġpermet rÃłn
ctu re
Ġann al
Ġinter n
ori o
ĠAr Ãłbia
Ġaf laqu
Ġesta bles
cl ass
Ġconf id
Ġdeis hÃ¨
Ġdesvolop Ã¨
Ġja un
ĠMont fer
ĠMont fort
ĠMont reuil
Ġtrob alhes
aqu is
Ġcamp anas
Ġco an
Ġcontra diccions
Ġ2 38
Ġref ug
ber int
Ġval at
Ġ3 20
Ġ3 30
emb arra
Ġespeci alitat
Ġrepresent atiu
Ġmond ina
Ġrap ro
Ġrap elar
ĠRo ca
ĠRo jas
Ġclass ar
cul es
jar iÃ¡
Ġsab a
arg ada
vi rada
Ġim ne
rig o
Ġsucc Ã©s
Es tela
Ġmov iments
Ġrecon cili
Ġ16 40
Ġret re
ĠRe al
Ġcarri eras
Ġcer ta
Ġbast ÃŃ
Ġorganiz an
ĠVal ent
ĠVal entin
ĠPro test
Ġeg alas
Ġtre p
Ġ12 26
Ġparticip ant
Ġcel Ã¨stes
Ġdu o
Ġcontin Ãº
ĠY v
ien nes
Ġtrop es
Ġsal aris
eri ans
inst itut
Ġprodu its
Al c
Al t
Al garve
Ġge org
ĠâĢĵ ,
ĠRom ieu
Ġnecess itats
Ġanim ats
Ġop inions
pa ÃŃs
ĠConselh s
Ġvend Ã¨t
Ġgas anh
Ġconserv ator
ĠSal ut
land e
isc ut
Ġnorm alas
Ġcob le
Ġesqu Ã¨ma
ĠprÃ¨p a
Ġobl iguÃ¨t
Ġdub riguÃ¨t
ĠCo alicion
Ġbal ma
Ġbal con
Ġbal anÃ§a
do ch
Ġinici at
Ġleng o
ĠMan ja
ĠSt alin
Ġelect rons
ĠAnd Ã²rra
igu Ã¨ri
Ġ26 0
Ġdiss et
ĠSer en
rom an
Ġger it
com una
Ġcommun autat
Ġsac r
En t
Ġestran giÃ¨r
ĠRec lams
Ġensenh ada
ĠAd minist
Ġorgan ic
CO R
Ġident ics
Ġtend on
ox idacion
Ġut op
Ġut ilas
Ġequip ament
Ġcav aments
Ġobserv ada
ĠPo esia
Ġdesfa chs
Ġdecl inar
alis ation
ĠMarc Ã¨u
Ġdetermin acion
ĠSoci et
estend Ã¨t
Ġdra matica
Ġsia ga
Ġperf Ã¨it
Ã²nt res
ĠPal Ã¨rme
ĠDom ingo
ĠXII e
ĠAss aiÃ¨t
Ġcontinu ar
Ġaperten on
ĠRod rÃŃ
Ġfinanci era
Ġasp Ã¨ct
Ġvert Ã¨x
roma ins
Ġnumer ics
ĠdesplaÃ§ aments
Ġbibl iografia
Ġestan h
Ġcondicion ada
Ġexc av
Ġtestim Ã²n
Ġpair s
Ġrescont rÃ¨t
Ġatac ada
Ġsil o
Ġabs ur
Ġaprof ech
Ġfol k
Ġdig ne
ĠCrist Ã²l
Ġbot on
Ġbot Ã¨t
Ġacompanh ats
Ġfeder acions
Ġajuda da
Ġapro v
Ġmam ifÃ¨r
Ġtit re
Ġtit olada
Ġdesen rot
Ġneut res
Ġdeclin Ã¨t
Ġdemen ÃŃs
Ġprefer ÃŃs
Ġreconst ruction
ĠRev ue
ĠBritan ica
Ġsan ctu
Ġcha fre
Ġterritori au
ĠMinist res
Ġjur ispr
Ġmad eis
Ã¶ n
Ġtolos encs
Ġdistingu isson
Ġdeven gut
Ġram s
ĠCos ta
ĠLan gues
Ġpast res
Ġescal iÃ¨r
ĠcelÃ¨b ras
Ġlan gu
tic o
Ġborges es
fu ga
Ġmascul ins
Ġdiplomat icas
ĠJerusal em
Ġdialect ica
Ġgeomet ricas
Ġradic ala
Ġelabor acion
Ġrespect at
ĠdoÃ§ ament
Ġdescend Ã©ncia
ĠSci ence
Ġpend ant
Ġjonh Ã¨t
And Ã²rra
Ġsuplement ari
Ġreda ctor
ĠLat in
uga wa
Ġdispar egut
Ġved Ã³
Ġdiferenci ar
ĠSuc c
rast ructura
Ġcald riÃ¡
entr isme
Ġfals a
Ġpreci osa
ĠpoÃ« ta
Ġhem nas
Ġrob Ã²ts
ĠTib Ã¨ri
Ãºst rias
ĠTrenc av
ĠGor bach
Ġreten guda
Ġescamp ilhat
ĠBess in
ĠcapÃŃtol s
Ġmarci als
sc ena
Ġdesl ot
Ġaven guda
Ġcompres as
Ġcosm ologia
Ġarist ocracia
ĠFland re
ĠErn st
Ġmu isha
Ġfert ilitat
Ġvib racion
ĠFol quet
Ġposterior as
Ġcardin au
Ġfrontal ieras
Ġestamp at
ĠWal ter
Ġvul gar
ĠDef ensa
ĠZh ou
Ġic on
Ġvot Ã¨t
ĠPequ ot
Ġoland esa
Ġincap able
Ġescad uda
Ġrab in
Ġcontest at
ĠCharl otte
Ġange vine
Ġmessat giÃ¨r
Ġconviv Ã©ncia
Ġconverti guÃ¨t
Ġcorreg ir
Ġbombarda ment
Ġbombarda ments
ĠSof ia
Ġcomedi an
Ġconsent iment
Ġpromot or
Ġdistint as
Ġextraordin Ãłria
dÃ© ric
ĠMall orca
Ġconstren chas
Ġdesliu ran
Ġdiscrimin acion
Ø§Ù Ħ
Ġsulf ur
ĠBale aras
ĠRoque bert
Ġconsec u
apert en
assim ilacion
Ġpositiv isme
arist ocracia
ĠAgrip pa
Ġpiram idas
ĠclÃ²s ca
ĠMontmor ency
ĠMard uk
ĠBapt ista
Ġsuff ixe
ĠTik al
ĠTok ugawa
ĠSarn in
ĠTrit on
ĠPanor ama
ĠLangued oc
Ġlitu an
Ġgoj ata
ĠVival di
ĠRodrÃŃ guez
) .
- ,
A er
A ul
A IEO
A dam
F ranc
I st
I SS
I FA
M al
N o
P C
e ca
e de
f il
g Ã¨
g els
h m
h ans
h ua
i Ã¨ira
l erc
l ades
m Ã©s
o at
o it
o tacion
o ccident
o eira
p ag
s ch
z il
z ir
Ġ æ
Ġ Ã¨x
on acci
te is
Ġp Ãł
Ġp ess
Ġa mi
Ġa que
end ar
Ġs assanida
Ġc ist
Ġc rop
at oire
qu atre
in on
in tellectu
Ġe min
Ġm of
al f
al di
un ir
or cion
or por
ra k
Ġf ier
ic um
Ġt if
om ieu
Ġun d
au ti
Ġes lavas
ri lat
Ġv et
Ġen Ã²rme
Ġper de
am na
am ente
os ina
ta h
ol ai
ol iv
ol elh
ol phe
ĠA ct
ĠA ix
Ġb res
Ġb arcel
Ġ1 453
ĠC ava
ĠC rac
ĠC NRS
Ġg eta
ĠS ia
ĠS aud
ĠS uf
ĠS indic
ĠS yl
ĠS idd
ĠS tone
ins Ã¨ctes
ins ky
Ġcon ti
Ġcon nait
âĢ ¢
ĠE ast
âĢĻ ,
Ġr ue
Ġr Ã¨ste
ĠD C
ĠD ed
ĠD inc
ĠD omp
ĠD af
ĠD inastia
ad orn
ad Ã©s
ur u
st att
ist re
ch io
Ġpar li
la ter
ap enadas
Ġan Ã¨ron
di ci
ĠR uf
ĠF Ã©
av ed
ct s
ĠT in
ĠT ab
20 12
ig e
id u
Ġdes gu
ĠG in
ĠG aut
ĠG ras
ĠG ris
ĠG illes
Ġpr ossegu
ac ar
ĠV esp
ov iet
ĠN SD
bl anc
Ġent ara
and ra
Ġte aun
ma terial
Ġcap d
Ġdi eta
ass ab
mi re
Ġap rop
Ġap Ã²rt
Ġap ie
Ġap Ã²st
Ġap Ã¨la
ĠJ ura
ĠJ ourn
Ġar rem
de f
Ġme c
Ġcomp Ã²rt
og h
19 39
19 89
19 94
ce y
Ġab riga
ida d
Ġesp Ã²rts
Ġentre mi
oc las
Ġac uÃ¨lh
Ġac ordat
ich es
ĠO C
ĠO ff
Ġimp opular
Ġ18 07
Ġ18 03
les a
Ġesc uras
est u
est ru
Ġcons piracion
que z
Ġser ai
esc an
ĠH ard
ĠH aute
Ġdon avan
od Ã¨rma
Ġfin as
Ġfin iguÃ¨t
ud son
Ġtr on
Ġri e
Ġma x
Ġma ish
Ġpol ara
Ġbas alt
Ġaqu Ã³
Ġcre ativitat
ĠAl en
Ġpass ions
Ġform alament
iÃ¨r es
Ġprin ci
ven guts
Ġch il
Ġch ans
ric te
Ġenc uei
Ġcaus se
gan da
ou ard
ill ard
ill usion
Ġrel at
Ġpod on
Ġpod Ã¨t
ron h
ron ter
auc Ã¨l
Ġfar ai
Ġfar gat
Ġcor ros
Ġk oin
ĠK u
ĠK ha
ĠK ay
ĠMar e
ĠMar se
ev aporacion
Ã¼ rosament
Ġso ent
Ġro Ã¯n
Ġcas as
Ġfor Ã§ats
ĠGu ad
fic ar
Ġrev Ã¨la
rob ar
ĠW ars
ĠW ang
Ġvol guÃ¨ron
erc y
rech s
Ġdom Ã¨nis
Ġdeis hat
ĠCar avag
Ġgl utÃ¨n
Ġca issa
ish na
Ġco emperaire
Ġz e
inc endi
inc apacitat
ord ats
ord ania
ĠaviÃ¡ i
ĠCon o
Ġ2 18
Ġpat rocin
Ġpren gÃ³
Ġist ori
Ġexp l
Ġgranda ment
ang Ã¨lis
Ġdesp ens
Ġ5 50
Ġmant ua
Ġinst au
Ġrepresent Ã¨t
Ġart Ã¨rias
eire tatge
Ġba ile
Ġmi elhs
af ich
ĠdivÃ¨rs a
Ġarm aments
Ġbar ca
Ġsab ers
exp ressions
Ġdec rÃ¨t
Ġcast Ã¨us
rig acion
li eu
Ġ16 60
Ġ16 22
Ã¨p tes
ĠMon uments
ĠMon tigny
Ġsemb le
rim its
rim idas
Ġ6 50
arÃł s
Ġeg als
cn ica
Ġ12 25
Ġvari ant
Ġautor izacion
Ġcambi Ã¨ron
Ġtecn icament
Ar g
Ġpag an
isti ci
ĠPr omet
Ġev itant
Ġev alu
Ġconv enc
Ġmol ts
inter seccion
ĠY ou
ĠY uan
ĠAb el
Ġtornar em
Ġsal ada
Ġmag ica
Ġext ens
Ġsup re
Ġ17 75
Ġ17 70
Ġmo cion
Ġmelhor Ã¨t
Ġbi ologic
uri e
Ġliber alas
ĠAt on
In d
ĠJos ef
Estat ut
Ġvers emblant
Ġbl in
Ġinc ont
Ġrest ren
ĠMal i
ĠEsp aci
Ġtrobar atz
Ġpap ala
Ġreb as
Ġtal on
Ġus ina
Ġposicion ament
ais ina
Ġdir Ã¨ctes
Ġprom ulg
Ġsepar acions
Ġcob Ã¨rtas
Ġacab Ã¨ron
ĠVer don
Ġviol entas
Ġfot os
ĠDem and
Ġdia pos
Ġprob abla
Ġreceb uda
ĠAf rican
Ġdesign an
ĠBe ethoven
Ġelect ricas
Ġsob iran
Ġdus ca
Ġprodus ida
Ġprodus eish
Ġpresid encial
Ġgovern aire
ĠSer bia
rom e
ĠgrÃ¨ ca
ite cus
Ġpal un
Ġabandon Ã¨ron
Ġgard Ã¨ron
[...]
