#version: 0.2
Ġ d
e n
Ġ l
Ġd e
o n
t e
Ġ p
Ġ a
a s
Ã ¨
a n
e s
en d
Ġ s
o f
x t
te xt
< |
| >
end of
endof text
. <|
Ġ c
a r
e r
a t
q u
c i
i n
r e
Ġ e
Ġ m
Ġl a
a l
u n
o r
Ã ²
en t
i s
r a
Ġl o
Ġ f
i t
Ġ qu
i c
Ġ t
o m
Ġ un
a u
ci on
Ġ es
d a
r i
Ġ v
Ġ en
Ġp er
a m
Ġ n
g u
o s
Ã¨ r
Ã¨ t
u s
Ġqu e
e l
Ġde l
t a
i l
o l
Ġ re
r es
Ġs e
Ġ b
Ġ g
in s
a i
Ġ 1
Ġc om
r o
l e
t i
an t
Ġc on
Ġ (
Ã §
â Ģ
a cion
Ġ C
âĢ Ļ
Ġl as
am ent
i m
Ġun a
Ã ©
u l
e i
i a
Ġ o
r an
m b
Ġs on
a da
e t
Ġa l
Ġ r
u t
Ġ M
Ġd ins
Ã² r
Ġ S
a d
u r
Ġ P
gu Ã¨t
i on
Ã ł
Ġlo s
L o
s t
at s
is t
c h
Ġp ar
l a
ic a
a p
Ġp as
Ġ A
o t
Ġa n
d i
L a
en s
Ã Ń
al a
m p
Ġ B
Ġ j
it at
i r
Ġm ai
qu el
is s
a v
c t
i v
te r
Ã ¡
a b
i g
i d
Ã§ a
Ġde s
Ã¨ s
Ġ in
Ġp ro
au s
Ġa mb
Ġ R
ci a
Ġp r
g e
h a
Ġdel s
Ġ G
Ġs u
Ġ 2
Ã¨ ra
t an
m ent
Ġ1 9
i z
Ġ F
Ġ T
a c
it u
i ci
o v
on t
Ġ L
Ġf o
i Ã¡
an s
Ã¨r on
Ġp o
Ġs us
t at
Ġ E
or n
Ġcom a
b l
) .<|
Ġ ent
ÃŃ s
Ã© n
m e
an d
un a
Ġ te
m a
g a
Ġc ap
c a
or s
Ġd i
Ġ V
u ra
Ġl ei
as s
Ã ¯
Ġn om
m i
ad as
Ġt ra
c ci
te s
Ġd au
qu es
Ġa p
Ġ N
Ġ D
e u
b en
Ã¨ l
E n
ar a
0 0
Ã© s
im p
Ġa r
d e
ar i
at ge
Ġt an
Ġm e
Ġa u
or t
o b
Ġcom p
Ġfo guÃ¨t
e g
an a
o g
e c
Ġ Â
Ġl i
o p
Ġcon t
Ġa quel
Ġv il
au t
er s
Ġs i
U n
Ġ J
Ã¨r s
Ġ I
E s
Ġ i
Ġp l
u m
Ġf a
Ġtan ben
on d
cci tan
c e
Ġp re
Ġt ot
Ġs a
Ġp res
Ã©n cia
on s
Ġe x
ri a
Ġ res
e m
Ġ :
a g
Ġp ri
or m
Ġa v
Ġ h
Ġa b
i da
u c
Ġes p
Ã² t
Ġent re
r as
Ã¨ i
in a
Ġp el
Ġf Ã²r
o c
Ġc Ã²
Ġm ar
Ġa c
Ã¨ g
ic h
Ã ³
Ġre g
e is
Ġv en
ar t
ai re
cion s
Ġl en
Ġpar ti
es s
r it
os t
Ġa ut
al itat
Ġes t
Ġ imp
al h
ro p
Ã¨ u
Ġc ar
Ġs itu
Ã¨ c
l es
Ġes c
es t
Ġ ra
Ġg ran
Ġcon s
Q u
Ġ1 8
i f
v a
b re
Ã² c
as t
gu Ã¨ron
Ġpar t
ran c
is ta
al s
al ament
p er
L os
Ġm as
Ġ or
qu e
Ã² l
ic s
ant s
Ġs er
acion s
Ġde i
d as
ic as
ci p
es c
er a
Ġ u
al as
o ci
Ġp u
n a
Ġ O
Ġ "
ar d
) ,
Ġd on
el h
o d
Ġc am
Ġm on
Ġde m
ent s
r at
Ġ Ã¨ra
Ġp a
Ġ ter
Ġg en
Ġf in
e x
Ġpri mi
u d
Ġre c
s s
ul t
Ġ H
Ġde u
i b
ĠfÃ²r Ã§a
Ã¨ st
Ã² b
v ol
Ġo ccitan
e d
en c
Ġt r
Ġc l
i p
un ici
unici p
Ã¨r ra
e gu
Ġte mp
t h
Ġ ri
f er
Ġ X
Ġre p
en h
Ġm unicip
Ã¨s s
e mp
Ġn e
on a
Ġm a
ion s
Ġ -
r u
Ġp ol
Ġs ol
en a
A quel
Ã¨ m
Ġs Ã¨g
Ġc ol
os s
Ġpl an
i u
Ġb as
in t
Ã²r t
Ġf ranc
Ãł n
ĠÂ «
av a
it s
Ġt res
Ġa qu
Ġlen ga
Ġc re
Ã²r d
n e
a quel
Ġp us
Ġpas s
Ġf orm
Ġm es
ĠÂ »
il iz
Ġvil a
i Ã¨r
Ġan s
r Ã¨s
Â ¿
Â ½
Ġt o
Ġ2 0
I I
ri b
ci as
os a
Ġ )
il h
Ġpr in
v en
al l
e p
ent a
g on
Ġ 3
Ã¨ n
ĠsÃ¨g le
Ã² n
Ġmunicip alitat
r Ã¨
Ġl u
Ġc h
r ic
g es
Ġen c
i e
Ġc aus
Ġ gu
g an
S e
in g
Ġa m
Ġd iv
ĠC h
o u
Ġ2 00
Ġprin cip
Ġper s
Ġm an
Ã² p
il l
Ġre l
Ġs ul
Ġpo d
l u
r on
c on
Ã§ Ã²
Ġd os
Ġs ens
L as
Ġ La
es a
Ġd is
Ġl eis
is me
te ri
Ġt orn
au c
Ġd o
Ġreg ion
us t
m et
m ens
on g
al iz
Ġaquel a
Ġc ent
p ul
Ġf ar
Ġc or
ol og
i an
m an
e v
er t
Ġu a
Ġ Lo
Ġp Ã²t
Ã³ s
r ar
Ġcom un
Ġf am
P er
end ent
it ats
ut iliz
r en
u p
Ġgen er
an ta
Ġv i
Ġ k
Ġr om
l ar
i re
Ġse gu
Ġm il
Ġtemp s
ĠcÃ² p
in e
t s
Ġe le
Ġsu d
ig n
mb re
es ti
ĠS ant
or a
Ġc al
an h
A n
Ġa ss
Ġde p
Ġa d
ĠF ran
Ġpo pul
Ġf ins
Ã¨ss er
ĠA n
Ġ Ã§Ã²
ch a
Ġimp ort
Ġde f
at al
i er
Ġn ov
u b
Ġal s
es p
Ġpol it
Ġ K
Ġter rit
Ġparti da
c as
Ġvil atge
Ġf on
Ġs os
Ġo b
Ġqu i
Ġde mp
Ã² st
j a
Ġpu bl
Ã ¼
D e
Ġcap it
Ġs o
Ġ ro
Ġa t
ĠM ar
Ġc as
am b
l an
ran s
il ha
Ġf or
Ã¨r n
Ã¨ ri
A l
er v
i cion
Ã¨ ma
Ã² ria
Ġdemp u
it a
Ġ *
Ġcon st
f ic
1 9
in as
ti v
Ġm us
Ġdes c
Ġ ont
Ġper met
Ġre v
Ã² m
Ġprimi Ã¨r
Ġ 4
Ã¨c te
e ment
en Ã§a
Ġc ult
ro b
Ġp auc
un h
ar ri
te l
a ci
ct u
p aus
Ã² s
Ġan n
D ins
ĠG u
r os
Ġpro d
Ġdi re
Ġin ter
Ġpa ÃŃs
e b
o ur
Ġl or
u da
Ġ ins
is a
Ã§ as
iss on
P as
im ent
l ic
Ġj orn
Ġsu per
Ġre i
ra da
res s
Ġpel s
er n
Ġ1 7
Ġk m
Ġv ol
Ġsitu at
di cion
or i
u cion
d on
Ġ 5
er c
id ent
Ġqu al
p ar
re ch
Ġp ich
it ar
Ġse gon
vol op
Ġm in
b alh
Ġfo guÃ¨ron
om a
Ġt rans
Ġa f
Ġes ta
Ġs oci
Ġsi eu
c l
if ic
Ã¨r an
Ġs t
A qu
Ġpers on
Ġp la
Ġa ques
Ġd om
Ġcon f
it al
Ġes tat
Ġc os
g as
ĠP ar
Ġdo as
Ġ W
ĠE s
Pas mens
Ġpod er
m in
Ġg r
Ġgran d
ra f
Ġc an
Ġde is
Ġan ci
at ura
Ġtra balh
g i
Ġg rop
iv a
Un a
it ants
om p
ist as
Ġn on
Ġ Ã¨sser
Ġenc ara
Ã º
Ġm od
Ġdes volop
ĠA l
Ã² ri
S on
ur as
Ġj a
Ġimport ant
uc cion
Ġ1 5
Ġdi fer
Ġp Ã²
Ġ1 2
Ġfranc Ã©s
Ã¨ a
ct or
et at
Ġv er
b i
c cion
g er
Ġe l
Ġ utiliz
Ġt rob
gu t
Ġp oss
l o
Ġg l
Ã¨ la
Ġe mp
en Ã§
Ġcam p
Ġc a
a qu
Ġs iÃ¡
Ġ of
Ã¨ us
Ã² ca
gan iz
t ra
ĠM ont
Ġd ens
Ġ on
Ġg ov
Ġs ov
Ġ20 1
ass a
Ġ 6
Ġrep res
t en
ar c
Ġme te
at re
Ġb en
Ġde b
am p
e ci
is h
Ġcon egu
A p
b a
Ġpro v
Ġs as
l as
ĠA r
Ġm et
u di
Ġf il
ur ant
Ġv ida
Ġa g
Ġser v
ar is
Ġab itants
Ġaqu Ã²
ĠFran Ã§a
emp le
Ġc o
Ġd arri
Ġ z
Ġ era
ta cion
Ġ ).<|
ar s
Ġqu and
at ges
in c
Ġl eg
Ġcon c
Ġl ong
Ġp endent
m at
Ġl im
Ġper i
ment s
Ġ1 6
o guÃ¨t
Ġcont ra
Ġ âĢ
Ġsu c
e us
Ġcom una
i ra
Ġ er
Ġd ab
Ġn Ã²rd
ci s
Qu e
en ci
or d
Ã² de
Ġav iÃ¡
Ġe th
o ccitan
e f
Ġcons id
Ġap rÃ¨s
e ta
ce p
Ġn os
Ġre f
Ġde st
Ġfa ch
Ġv is
qu Ã¨t
Ġlo c
Ġm en
Ġpopul acion
Ġres p
Ġr d
l ament
ar m
Aquel a
ic ul
u re
ut at
Ġ Un
Ġen s
Ġp at
Ġpubl ic
Ġde v
Ġ Ã²b
Ġr as
b er
Ġ19 9
Ġj os
Ġc r
Ġpr en
ai res
Ġv al
Ġ 7
Ġfam ilha
Ġ 8
av an
Ã¯ n
Ġ ist
Ġex p
Ġgu Ã¨rra
Ġs c
Ġgran da
Ġbas ti
os icion
art ament
an g
Ã² la
l at
re t
Ġd rech
j orn
Ãł ria
Ġparti r
Ġcos tat
Ġl in
te g
Ġdes p
ri Ã¡
us s
Ġc ada
Ġfor ma
ti u
e mb
Ġm Ã²rt
Ġb ia
Ġcaus a
Ġ Ã¨ran
ĠcÃ² n
ĠT ol
ĠE st
iv ers
ĠJ o
a iss
Ġoccitan a
itu d
Ã¯ s
Ġd ist
m es
om b
Ġcom enÃ§
ri v
i us
Ġs ist
Ġqual ques
Ġm ant
d ic
Ġpres ent
ar n
Ġsu b
o is
t ot
Ġin f
Ġ um
vol ucion
Ġann adas
Ġbia is
1 8
A ques
Ġm al
Ġm Ãł
Ġto tes
Ġde us
Ġab ans
F oguÃ¨t
Ġn acion
an as
el l
e ct
E st
u bl
t as
Ġa ra
Ġesp eci
con om
rÃ¨ p
Ġl ig
L ei
ul h
Ġn eg
Ġins t
h e
Ġrepres ent
Ġm ond
Ġ ;
Ġcomp aus
Ã¨ x
e j
i as
ĠC om
Ġar t
Ã² u
' s
en at
Ġdep artament
Ġdempu Ã¨i
u rop
Ġ1 0
at ur
Ġsuper f
Ġdem or
Ã©n cias
Ġgov Ã¨rn
Ġconst itu
ei re
er ic
Ġconsid er
il le
Ġ1 4
M as
Ġb a
Ġn o
Ġsov ent
aut or
Ġtra v
Ġra p
aquel a
r al
ra cion
Ġc i
Ġa i
Ġcult ura
an n
Ġm ens
Ġma j
Ġc Ã²r
a f
Ġe conom
Ġm i
Ġsu bre
Ġ19 6
ig ina
Ġ 9
Ġven guÃ¨t
Ġpolit ica
Ġto ta
A r
Ġ19 8
Ġcl ass
ent re
id as
ĠTol osa
. .<|
Ġt Ã¨r
Ġ19 7
Ġv a
ĠX V
og raf
ĠR o
au r
an da
Ġs ign
g ond
Ġn Ã²st
S a
c ul
Ġs enh
Ã² ra
Ġm ot
Ġlen gas
Ġli ter
Ġt en
Ã¨t z
Ġdiv Ã¨rs
Ġm ei
Ġd urant
Ġf u
Ġ1 3
olog ia
Ġa ctu
Ġpro p
Ġ19 4
Ġar m
er g
ta da
Ġpart icul
Ġimp or
Ġamb Ã©
Ġa gu
Ġdes s
j Ã¨cte
Ġse i
Ġrel ig
Ġcent re
Ġnom b
Ġb ar
Ġrom an
Ġre aliz
Ã¨l s
ĠmÃł ger
I n
j ar
ar g
au d
Ġnom bre
h as
Ġperi Ã²de
tan ta
ai ga
Ġme j
Ġpr of
iÃ¡ n
Ã²t le
Ġs ab
" .<|
ex p
ent as
ĠC on
Ġ im
Ġn iv
v i
Ġde c
ĠC ar
ĠX I
Ġc ast
Ġdon c
ri g
Ġf l
Ġg aire
Ġdef in
Ġap ar
Ġm om
Ġpre mi
Ġr en
Ġsuc c
ĠcÃ²n tra
Ġe t
ing Ã¼
Ã¨s ta
l Ã¨u
Ġp ens
Ġex emple
Ġcom b
es tat
an ha
Ãº s
Ġaut re
Ġs im
Ġf as
il a
Ġp un
Ġm ov
ĠI n
Ġa s
Ãłn ia
es ta
Ġrec on
Ġimpor tanta
Ġre t
et z
as c
u a
Ġe p
Ġsist Ã¨ma
an Ã§a
Ã¨ p
Ġcont unh
c up
r Ãł
ÃŃ cia
at a
l i
Ã¨r t
bl es
d ent
ament s
iss ion
Ã Ĵ
ab le
Ġf em
Ã¨c tes
Ġse mb
g rat
Ġpres ident
Ġn atur
Ġcar ri
Ġc er
mp Ã¨ri
ta c
A u
Ġ1 1
re g
or igina
Ġin t
Ġa le
ri m
Ġt ip
Ġb ast
Ġg ra
m and
Ġb le
an Ã§
Ġpro g
n acion
in f
Ġtra dicion
Ġmom ent
Ġ U
ĠI I
ra Ã¯n
Ġdon cas
Ġs ci
ad or
an ci
Ġor ganiz
Ġf i
Ġin d
Ġal ara
Ġpla Ã§a
ent orn
ĠpÃ² don
e iss
de p
a ques
t ar
c an
ĠM a
iss a
aut res
2 0
i guÃ¨t
Aqu Ã²
c s
ar as
Ġfa guÃ¨t
Ġe f
ant as
or ti
Ġmaj or
ÃŃ n
Ġpich on
Ġm elh
Ġan g
Ġest ats
d at
Ġso a
Ġf ra
la Ã§
Ġfon da
d es
Ġl at
Ġmov ement
Ġde ra
u g
ar Ãł
Ġtot jorn
Ġ Ã²
Ġr s
Ġde th
al ha
Ġcar ac
Ġmete is
Ġc ad
et h
ĠÂ» .<|
Ġp ort
ĠM on
Ġlu Ã²c
end re
Ġj Ã²c
Ġfon cion
r ica
e qu
Ã¨ ct
Ġe g
Ãłn cia
Ġv ic
c n
Ġ19 3
ĠG ran
Ġci utat
Ġv es
i Ã¨rs
Ġp on
Ġt re
Ġar rib
Ġof ici
Ġ id
ĠV al
v as
teri or
Ġtot as
Ġfranc esa
it z
in at
Ġli bre
Ġpa Ã¯s
i Ã¨ra
00 0
Ġsitu a
Ġv ari
is i
en g
ist ica
il itat
Ã¨m as
Ã²p a
Ġs imp
II I
ib le
ĠcomenÃ§ ament
d ia
Ġc atal
ĠcÃ²p s
Ġlim it
Ġpu Ã¨i
Ġd int
ĠR e
Ġaut or
Ġcam bi
ic ament
Ġp ra
Ġsitu ada
Ġte cn
r ich
m as
ess ion
f a
b or
Ġh o
qu i
Ġl e
Ġse gond
Ġparti cip
Ġist or
Ã Ī
Ã¨ isa
en i
at z
5 0
Ġs ost
ar ti
min ist
il la
ur Ã²pa
ĠM i
Ã¨l h
j ec
Ġp ag
Ã¨st re
b le
m er
Ap rÃ¨s
Ġv e
Ġp Ã¨
al e
ar iÃ¡
is ti
ch e
Ġme mb
Ġc el
ri as
eg on
Ġa is
ĠEst ats
Ġpro te
Ġt ant
Ġ Z
ul a
Ġv Ã¨rs
Ġex ist
l ia
Ġent raÃ¯n
f in
ut s
a j
Ãł s
r Ã¨t
Ġc res
Ġm ena
ist Ã²ria
ac ab
on i
Ġri u
Ġd u
Ġqu atre
Ġaut res
Ġcont in
Ġterrit Ã²ri
z e
Ġson que
ĠP ro
at iv
Ġmon de
di cions
Ġe v
Ġconegu t
Ġc ors
Ġo cup
er acion
Ġe urop
Ġdesvolop ament
Ġcon v
i en
u ta
Ġlin ha
u Ã¨i
Ġm ol
Ġreg ions
d u
Ġdesc ob
ubl ica
Ġp or
le g
in ter
er i
Ġent Ãł
Ġav er
Ġj unh
ĠE n
ĠÃ²b ra
te mp
Ġap rÃ¨p
aut re
a y
Ġ ost
Ġt rop
ri l
ĠC ons
Ġj ov
Ã¨l as
Ġaques ta
Ġv os
f ici
r ala
Ġd ob
Ġn av
ĠJo an
e au
Ġprimi Ã¨ra
Ġm au
Ġdis c
tel l
ress ion
Ġmemb res
at or
Ġtorn ar
Ġmus ica
Ġd ic
in d
Ġor ig
ap ar
Ġse c
Ġf is
Ġv all
Ġcam in
Ġperson as
Ġs al
Ġm ag
enc Ã¨t
Ġdis p
Ġnomb ros
Ġe xt
am or
Ġin di
Ġ Y
Ġa j
Ġsu p
er ci
Ġs Ã¨t
av ant
ĠF ranc
Ġes s
Ġp os
gu e
Ã¨t h
Ġj am
Ġper que
v an
Ġmil itar
ri p
Ġn i
Ġsi eus
Ġac tiv
Ġp aire
Ġv eire
Ġcon qu
Ġm or
Ġsol ament
v e
im a
Ġparticul ar
ins t
Ã²r ta
Ġp es
Ġm o
Ġser Ãł
le t
Ġc iv
cci dent
i eu
ĠS e
s in
Ġ Qu
ĠR ep
Â «
Ġtra ct
Ġprod u
Ã¨r as
m ar
in h
Ġm at
Ġf ond
Ġcapit ala
ti a
Ġsegon da
gu da
Ġmelh or
i ent
ivers itat
a z
av or
ce b
E mpÃ¨ri
Ġn ec
ĠL e
A mb
Ġ Ã²m
Ġqu esti
Ġm erc
Ġf ilh
Ġt or
Ġsoci etat
Ġpre paus
Ġl ingÃ¼
Ġt ard
Ġtr Ã²b
Ġf re
ta di
Ġcor r
it an
Ġb i
Ġpar lar
au me
Ġmar c
t itud
Ġ end
ti m
ud is
ĠO ccitan
t ol
ar r
u ri
Ã¨r ta
s a
Ġv Ã²l
Ġdeb an
r Ã²
Ġf eb
e an
ĠA le
Ġde ci
Ġj og
eis h
ru ct
era qu
Ġmin ist
Ġe i
Ġ ),
Ġqu il
av al
" ,
t z
atal ha
ala is
T ot
i res
ur b
rit an
ĠâĢ ĵ
au l
Ġg e
arm ada
re m
i et
Ġcol le
Ġf an
Ġaques te
Ġli ber
Ġest udi
Ġgener alament
Ġj ulh
Ġc ul
Ġf us
ch es
Ġn cia
our g
Ġde ce
Ã³ n
Ġc au
ĠC atal
Ġb lan
Ġr Ã²tle
Ġqu au
Est at
on h
Ġnec ess
Ġc ant
Ġjam ai
cci t
Ġpra ct
Ġc at
Ġf avor
et s
An sin
Ġass oci
m on
o Ã¨st
Ġa ital
Ġm and
or ia
Ġinter nacion
al itats
iss er
Ġme di
Ġan im
Ġform acion
Ġele g
h er
Ġserv ici
Ġ isa
te mbre
Ġn Ã²
ist Ã©ncia
ĠR om
Ġr ra
Ġ is
Ġt rib
is ion
Ġver tadi
Ġcomp l
al ista
Ġmon tan
E O
Ġs orti
Ġquil om
Ġre fer
Ġav i
Ġbas a
ccit Ãłnia
Ġe qu
Ġ18 7
Ġsemb la
Ġdi rig
Ã²b ra
Ġd ich
os as
ĠS ud
Ġ19 5
ĠGu Ã¨rra
Ġcre acion
ur s
l Ã©s
v ir
ĠP a
Ġesta bl
es es
Ġcont rar
Ġdece mbre
i ana
an c
Ġmon di
C om
Ġam eric
p a
ess or
Ġprop ri
Â ²
Ã¨t res
Ġo p
Ġesp Ã¨
Ġse tembre
iz acion
c o
Ġt Ã¨x
ĠfÃ²r Ã§as
Ġmar Ã§
Ġsitu acion
Ġl ors
Ġimportant as
ĠXI X
on ha
Ġen f
D emp
enh ament
j at
l or
Ġaquel es
ce d
Ġter r
i k
Ġv ers
u ment
Ġsuperf ÃŃcia
Ġc in
ĠP er
ĠPar ÃŃs
au ta
Ġsubre tot
e mbre
Ġb l
ti va
ĠC al
Ġli b
o ct
Ġ19 2
Ġtrav ers
Ġin c
ust ri
Ġv ia
Ġprod uccion
dep end
im ents
Ġesp anh
Ġorig in
Ġ19 1
Ġliter atura
x im
Ġc ir
ob re
Ġ3 0
C oma
Ġd aiss
Ġc ara
ĠR ei
u Ã¨
ÃŃ tol
Ġv iu
Ġpro c
âĢ ¦
Ġres t
Ġdom in
Ġrelig i
or ganiz
er aire
Ġap r
o re
Ġesc riv
di guÃ¨t
Ġcult ur
Ġb atalha
Ġlat in
ĠCons elh
ĠÃ²b ras
ĠRep ublica
Ġv end
Ġnom en
Ġven ir
Ġgaire ben
on ci
Ġf ab
ri u
Ãł rias
Ġs ent
Ġpremi er
ĠcÃ² s
if ica
Ġprov ÃŃn
Ã¨ is
Ġc rit
Ġv iv
ut z
Ġob ten
Ġd amb
Ġm ont
and on
Ġcomp ren
Ġt u
Ġs in
Ġre mp
ct ors
Ġtrob ar
Ġconf lic
Ġgr Ãł
Ġser iÃ¡
el le
ĠÂ» ,
Ã²n i
t re
Ġp ap
Ã¨ as
r uccion
Ġb on
Ġgener al
ar ia
il i
Ġan t
r is
Ġmil ions
Ġn um
at iva
Ġale mand
at h
Ġpun t
Ġc inc
om ia
Ġg as
Ġpon ch
Ġ2 5
Ġqu it
l am
Ġre b
e da
u ei
p re
Ġe m
Ġt al
Ġsci ent
a is
Ġro ta
Ġsim b
y e
s us
Ġfin ala
ad ors
e di
Ġjorn s
av etz
Ġ us
ar da
Ġf en
ĠcÃ²r s
r in
Ġ Ã
ti us
ĠUn its
Ġpres enta
3 0
u gu
ĠC as
aus a
Ã¨ss e
Ġjulh et
ĠI II
p l
ri Ã¨r
et as
Ã²r is
Ġj ol
Ġvic t
Ġc erc
j Ã¨ctes
s erv
en n
Ġp osicion
Ã² g
Ġtip e
iss i
a ch
Ġte s
A v
Ġin v
h i
Ġn aut
Ġal avetz
Ã²b le
Ġv in
Ġen ter
aqu Ã²
Ã¨i re
Ġm ass
Ġpr Ã²
Ġnov Ã¨la
en ari
Ġaqu ÃŃ
Ġnov embre
or g
ir en
id e
Ġcont en
rib u
ven cion
Ġad minist
ĠB o
ida ment
Ġd ir
ec cion
d uccion
Ġl ev
res p
et ats
em s
an di
Ġ19 0
Ġ ital
Ġp en
ri r
Ġsul s
Ġsuper i
it as
Ġb o
Ġpr om
ĠC ol
ac cion
aliz acion
Ġanci an
Ġag ric
ar b
Ã² ta
Ġd oc
Ġd im
Ġr t
ig a
Ġp int
Ġu Ã¨i
Aques ta
Ġ18 6
lu Ã©ncia
l ada
m ont
i x
Ġgr Ã¨c
Ġsucc Ã¨s
ĠpaÃ¯s es
Ġf ont
ĠV i
Ġesp er
Ġcons erv
Ġcol l
iv as
Ġdom eni
Ġsost en
ap on
ter n
m un
ĠgrÃł cias
l and
Ġe mb
gu lar
Ġpri m
Ġras on
p res
ess a
ult ura
Ġanci ana
ograf ia
Ġpr Ã²p
A t
Ġ ill
ĠX X
s ol
un as
Ġcan Ã§
Ġbast it
Ġa guÃ¨t
ti fic
Ġpass at
ĠtÃ¨r me
Ġquesti on
E x
E ra
is e
ĠS a
ens a
Ġtemp er
ĠnÃ²st ra
ific acion
ic le
ta d
Ġm Ã¨s
Ġpro bl
Ġpro jÃ¨cte
Aques te
1 0
Ġse par
Ġcomun as
Ġt Ã¨rra
Ġn orm
is c
ar qu
f orm
Ã¨r na
Ġdem and
Ġ '
ra d
il s
Ġpass a
Ã² na
Ġprincip ala
Ã¨i ra
mer ica
Ġd inas
en ca
el a
ĠÃ²m es
Ġd itz
at ion
Ġpich ona
ĠGran d
h an
Ġac c
d us
ĠC or
ĠC ap
t on
ci n
ĠA b
ĠJ os
p elh
Ġde cis
ĠC l
Ġdi al
Ġaquel as
Ã²l as
Ã²rd re
i Ã¨
Ġj ust
1 7
l ant
Ã¨ ria
Ġm er
Ġap eraqu
c cions
Ġc ob
iss iÃ¡
Ġvil as
Qu and
Ġcol or
ĠEs p
P endent
end a
Ġm itat
Ġper d
Es c
ĠS al
i o
itu cion
teri z
Ġtot ala
ar rib
Ġcapit Ã¨t
Ġgrand s
t Ãł
Ġn as
Ġn atura
Ġpermet Ã¨t
Ġde t
Ġac ab
Ġ18 9
ut ats
Ġ2 2
Ġpolit ic
v ar
Ġp et
Ġp ur
Ġp ot
En fin
Ġb ra
ÃĪ ra
en er
Ã¨t a
ĠG l
p e
ĠS ol
Ġa da
el ha
ron ti
Ġtr Ã²p
d it
aut ras
Ġprog ra
Â »
os es
ens enhament
ĠtrÃ²b a
al isme
Ġqu arti
Ġt ÃŃtol
ta va
ul tat
ĠI s
Ġg ent
ur g
r ats
ĠJ ean
cep cion
Ġc ort
Ġb es
Ġniv Ã¨l
Ġmajor itat
i at
i cions
Ġsenh or
Ġb ritan
Ġesp aci
Ġcarri Ã¨ra
Ġcer tan
Ġpre v
Ġvi ol
Ġes qu
Ãł cia
ĠT Ã¨rra
l os
v at
Ġcom erci
Ġaqu eu
ĠRe volucion
Ġn uc
Ġ17 9
Ġdifer ents
Ġcarac teriz
is te
om at
Ġav C
Ġaut ra
Ġdist in
ĠS anta
ĠE urÃ²pa
Ġpres Ã©ncia
Ġf ronti
e y
Ġcomb at
ĠR eg
Ġgl Ã¨isa
g at
v ille
es as
Ġr Ã¨i
Ġpro ven
Ġpr Ã¨p
ĠT h
est udi
Ġl Ã¨u
Ġv eg
ĠN acion
Ġfil os
at iu
Ã²l s
Ġresp ons
ĠN Ã²rd
1 2
au la
Ġcomun ic
t o
Ġf ot
Ġo bl
Ġnom enat
r y
Ġa us
ab la
Ġcom encÃ¨t
ĠsÃ¨g les
Ġcorr ent
Ġp an
ar ra
Ġor ient
Ġd ub
Ġmar id
Ġ18 8
ilh as
i ers
s e
Ġt Ãł
Ġse u
j as
es per
un es
Ġf er
Ġme mbre
Ġdire ccion
Ġfa ci
Ġaut ras
Ġs au
Ġc ost
ĠAn g
v er
Ġf ons
Ġtrop as
Ġre ti
Ġpar te
man ha
ai r
Ġman if
S egon
v id
Ġp Ã¨r
Ġse is
ĠR oma
Ġte atre
ult ats
vir on
Ġdinas tia
Ġcon eiss
ter ran
Ġcont r
Ã²l i
jec tiu
Ġcres ti
au x
ens ion
Ġc u
Ġdem anda
Ġs en
un s
Ġb al
Ġma teri
C h
Ã¨s i
Ġcons elh
Ġquit ament
1 5
d o
Ġd ia
Ã²st ra
Ġd ata
Ġg raf
ĠC an
Ġpar la
Ã©n er
Ġdarri Ã¨r
Ġc op
Ġb alh
rÃ¨ mi
Ġnatur al
l in
Ġe la
ĠO r
ep Ã²ca
Ġsegu r
g n
ab les
Ġse t
Ġcor resp
e guÃ¨t
as i
cl us
Ġb at
Ġg es
ĠCon st
C on
u is
Ġpro b
Ġmete issa
is on
Ġv oc
ici an
Ġimport ants
Ġmai re
Ġg anh
itu ra
ĠV er
oc up
Ġminist re
i ri
Ġcatal an
d uc
Ġcol on
Ġdifer entas
ann ada
Ġang lÃ©s
Ġbes onh
r om
Ġl et
al titud
ot ar
Ġutiliz at
gu ts
Ġterrit Ã²ris
d er
2 1
Ġmant en
2 00
g ar
v es
Ġv an
Ġv ista
Ġre ceb
iss enÃ§a
ĠF el
n as
Ġin ici
ĠP art
Ã¨ it
ad es
ĠP rÃ¨mi
Ġposs ed
ĠMont pelh
Ġp Ã²rta
es ia
Ã² me
ac tiv
on da
Ġqu im
le x
Ġp Ã²ble
ost al
Ġp Ã²rt
it or
os f
Ġpas mens
ĠD e
ĠI V
Ġlen g
Ġdes ign
Ġau ment
Ġad op
ĠP ol
Ġcaus as
Ġremp laÃ§
r ont
Ġmil it
ĠespÃ¨ cias
tÃł lia
Ġd avant
ist ÃŃs
ĠCh ar
Ġrap idament
ĠC o
Ġesc rich
ast re
S ant
Ġc ros
ativ ament
bl as
ruct ura
1 6
o ti
Ġr u
ch as
Ġgen iÃ¨r
i ans
Ġs ant
Ġm ost
Ġch in
e ti
Ã¨r ca
Ġso ta
Ġfi gu
ri guÃ¨t
Un iversitat
Ġele ct
Ġat al
Ġcas er
Ġcom te
Ġpass ar
Ġcarac ter
Ġdi f
ag ost
Ġsegu ida
f rica
o k
Ġprimi Ã¨rs
Ġben lÃ¨u
on omia
Ġv ir
Ġpr on
Ġcre at
temp s
au ment
Ġpo di
Ġac cep
ĠO ccitÃłnia
ori guÃ¨t
f Ã²r
t Ã¨t
Ġd re
Ġs ob
Ã¡ n
Ġ om
Ġc anta
ol s
iss ent
arc el
Ġconegu da
ĠC r
Ġvict Ã²ria
Ġd us
Ġ2 4
Ġd in
la v
Ġpre cis
Ġesta da
Ġnacion ala
d re
Ġson s
ĠtÃ¨x tes
A b
Ġs om
Ġcons equ
Ġ2 3
Es p
ra p
Ġarm ada
di fic
av iÃ¡
am a
ĠT r
Ã²t s
Ġemp leg
Ġespeci alament
ch s
ĠB el
and re
ĠâĢ Ķ
emb le
Ġg le
Ġ18 4
Ġmes ura
i gu
or b
Ġb ourg
Ġgran das
Ġcam b
our t
ri ure
Ã© isser
Ġo ccident
ari cion
i que
u e
ra ment
ist ic
ĠfÃ²r t
Ġval or
C al
c es
Ġun ivers
Ġprod us
Ġd at
Ġa st
il ici
Ġanci ans
Ġcontin ent
S us
Ġl arg
ci an
Ã²c s
ĠÃ² me
ĠMontpelh iÃ¨r
Ġf ai
ol a
A c
E th
ĠS t
Ġte le
Ġdi fic
Ġlig am
acab Ã¨t
Ġ2 6
Ġpres id
rit z
Ġposs ib
Ġposs ible
Ġgov ern
re d
ĠB e
Ġpart it
Ġeg alament
Ġconflic te
Ġcont un
j ada
l ica
Ġd iss
Ġt ri
ĠE urop
in acion
Ġsenh ors
g ent
o y
ĠL u
Ġdeb uta
d en
Ġd ura
Ġcl ar
Ġform at
o ta
Ġreg im
Ġdest ru
ĠM art
ter min
Ġl ic
Ġv ei
Ap rÃ¨p
Ġres s
Ġon te
Ġcontrar Ã²tle
Ġameric an
Ġcorresp ond
u f
Ġp ont
ba ye
in es
ti on
Ġass egu
ĠnÃ²st re
Ġmondi ala
Ġcara ct
Â °
on as
ig as
aques ta
Ã² des
au tat
Ġform as
Ġgrop s
Ġind ustri
Ġfeb riÃ¨r
ĠCatal onha
Ġcontr ari
ro tz
Ġoccitan s
Ġpers ona
T an
al me
A ra
2 2
ic ÃŃ
Ġg rÃ¨
Ġsol a
A ss
Ġc ab
enc s
ĠPro ven
Ġnombros es
Ġp au
Ġt Ã²ca
ĠA m
Ġ2 1
ĠdivÃ¨rs as
d s
Ġin te
alh as
ier re
Ġref us
Ġt a
Ġep Ã²ca
Ġnom s
egu t
depend Ã©ncia
iren Ã¨us
Ġf lu
ri mi
ist icas
ĠR ob
ĠL os
Ġcompaus at
Ġdess enh
ent ament
Ġt ol
Ã§ ar
Ġaquel ei
Ġpur m
Ġgent ilici
v ia
iv ament
il e
Ġrec u
c ar
Ġde guÃ¨t
al es
ĠP r
ĠB er
aut ra
Ġdon a
Ġadminist rat
ĠPart it
Ġvol ont
ef Ã¨ct
Ġb r
ab lament
Ġtrans form
Ġconsider at
D urant
Ġ urb
Ġg ar
av er
es tacion
Ġg er
Ġgen re
i ar
Ġp al
it acion
Ġb an
Ġr end
ap a
Qu al
E urÃ²pa
u ments
Ġcom mun
Ġpar r
1 3
i cia
Ġs ac
ĠM o
Ġj ut
mat ica
Ġ %
or ma
Ġre alitat
Ġab andon
Ġfem na
y s
ta das
Ġeleg it
ĠprovÃŃn cia
c le
Ġl on
an i
Ġf ru
om Ã¨n
Ġg ard
emp eraire
Ġcolle c
1 4
M al
o x
t ats
Ġ ria
Ġde r
te ct
Ġm entre
ac c
Ġest ran
Ġb e
Ġfre qu
omp anh
Ġqu ant
Ġ2 8
Ġprincip alament
q Ã¼
el s
Ġven gut
Ġl eu
Ġmunicip alitats
Ġprincip alas
Ġrel acions
Ġm Ã©s
ĠG e
esc Ã²la
Ġdem Ã²ra
Ġnombros as
arcel ona
a k
Ġb ona
Ġconqu ista
Ġre volucion
ĠB r
Ġsus tot
Ġi eu
Ġm ul
Ġpri v
per i
Ġa ur
Ġt ir
Ġan ar
Ġens enh
m en
man da
esti u
it ut
ed er
ĠLo ÃŃs
Ġpre f
Ġ 000
Ã¨r ras
Ġinst all
e dicion
Ġl es
Ġp s
Ġ2 7
Ġdemor Ã¨t
ol e
ĠM an
Ġor gan
ie us
esp aci
Ġpich ons
Ġcr isi
Ġr Ã¨sta
Ġmej ans
C O
Ã¨ va
Ġcamp s
c om
ti p
Ġpl ana
Ġmej ana
Ġsu f
Ġsi te
e xt
Ġ ident
te i
osf Ã¨ra
n et
Ġp aus
Ġt end
Ġ18 5
Ġpass atge
Ġprincip i
Ġum an
ĠentraÃ¯n Ã¨t
n om
s ion
Ġm it
Ġqu alitat
Ġb il
Ġpro teg
Ġtrans p
P uei
Ġf aire
ĠG ar
Ġform ar
Ġum ana
Ġtract at
F a
r itura
in ar
ol it
Ã¨st ra
Ġbasti da
Ġdefin it
Ġs ap
Ġt alh
Ġj o
iss es
Ġtravers at
u das
v ers
Ġm ission
Ġcon dicions
Aquel es
Ġnov Ã¨las
Ġrev ista
Demp uÃ¨i
on c
Ġlo g
Ġf e
ĠP Ã¨ire
ĠJ ac
Ġeconom ica
C ap
b la
Ġ ut
Ġm itan
Ġn aiss
ti Ã¡
gu es
Ġre m
ĠM us
C ada
ĠB ar
Ġcomp le
Ġman ca
Ġequ ip
g ip
Ġc av
ust ria
aques te
Ġl ista
Ġr Ã¨
Ġpo bl
que ta
Ġaf lu
Ã² us
Ġmus ic
Ġp eu
Ġv ist
ir as
Ġdev es
Ġpren e
asc ut
oci acion
Ġpu ei
Ġess enci
ĠGl Ã¨isa
Ġm esc
Ġf ilha
Ġrom a
Ġrom ana
Ġtrav Ã¨rs
ĠXV III
aj uda
Ġfab ric
at Ã²ri
ĠE l
ĠN ob
ri ent
Ġpres a
Ġ5 0
L eis
Ã¨r ts
Ġcom Ã¨r
Ġma te
Ġrel ativament
Ġmot s
Ġg al
Ġcap s
aquel es
Ġob serv
ĠMar s
Ġpat z
Ġbasti ment
Ã§ ada
Ġap ert
ex ic
Ġbasti r
Ġinf orm
inst all
Ġvers ion
Qual ques
V en
en is
an im
ĠC ent
ran d
Ġ2 9
ĠMar ia
Ġconstitu cion
oct obre
Ġs h
ul as
Ġsab er
a h
er as
or at
ra u
Ġdon ar
Ġdiv ers
emb lada
erg ia
esta bl
Ġjov e
Ġfen omÃ¨n
Ġm Ã¨tres
la ci
ĠB arcelona
ĠXV I
rip cion
i qu
ĠM ej
Ġmus ul
Ġn au
ce an
Ġmes es
Ġ w
an Ã§as
at ors
Ġt alha
ĠT e
imp ort
Un ion
Ġpre par
Ġdic ha
t or
te t
Ġqu asi
ĠP ort
ĠB u
Ġmau grat
Tan ben
v al
ĠP l
Ġab baye
Ġac om
Ġcre ar
Ġgener au
ĠaviÃ¡ n
Ġrelig ion
D em
Ġ 0
Ġv ac
ro g
Ġpar lament
Ġte oria
Ġest udis
ud ar
ĠM ol
ĠB as
Ġtorn Ã¨t
ĠdivÃ¨rs ei
Ġrest au
r uc
Ã¨ ca
Ġre gular
ĠS an
Ġma in
Ġmen cion
Ġse una
Ġdes fa
Ġpract ica
Ġprogra ma
ĠE dat
ard s
i quÃ¨t
k a
ĠS h
Ã¨st as
Ġistor ic
Ġfilos of
Ġqu in
Ġb or
ul ar
Ġo per
oc rat
o Ã¯
Ġe ven
ĠC ong
ĠG ener
iz ar
Ġh Ã¨
Ġl utz
Ġde cl
ra c
Ġres c
en f
in o
re l
Ġcon ta
Ġcar b
ĠAn d
Ġm origuÃ¨t
Ġt Ã¨
Ġv int
tan ha
Ġor as
Ġcoll Ã¨g
un itat
ra das
ĠS egon
ĠRom an
activ itat
ĠNob el
O r
i te
s ia
al is
id s
Ġcomp te
Ġ200 7
Ġsc enari
ĠlingÃ¼ istica
Ġobl ig
I EO
a ctu
Ã ĩ
ar e
or an
Ġv el
us ion
ch ar
Ġcomp anh
Ġpubl ica
Ġprof essor
Ġviu re
Ġt omb
Ġ1 00
Ġesc ol
lic acion
Ġmej an
Ġcad un
Ġdeban Ã¨t
Ġmontan ha
Ġital ian
es qu
er on
Ġv ent
ĠProven Ã§a
Ġp e
Ġf Ã²ra
Ġqu ia
Ġme d
Ġang les
Ġrefer Ã©ncia
Ġme can
esc riv
Ġdempu ei
Ġenf ants
gip te
in i
Ġn Ã²u
ĠP e
ĠN i
ĠCh ina
Ġconst ruccion
m ana
Ġde termin
itu cions
Ġmar ge
ex istÃ©ncia
iliz acion
Ġele ments
Ġindi vid
l om
Ġr Ã¨g
Ġsa tell
Ġann ada
Ġa th
Ġcomp os
Ġquau qu
Ġde g
ot z
Ġcar ga
Ġnov Ã¨l
Ġneg re
A m
Ġs Ã²n
ĠD ieu
Ġav ent
Ġregion al
Ġmod Ã¨l
eng ad
Ġsorti da
k i
v is
Ġp Ã²s
Ġm assa
Ġv esti
Ġv aria
st itut
ĠR am
Ġdep end
Ġmedi ev
2 5
O st
g is
Ġsi gu
est end
Ġlib res
organiz acion
Ġmilit ara
ĠcomÃ¨r ci
i riÃ¡
l er
ant in
Ġr ta
la bor
ĠB ern
Ġmant un
ĠtÃ¨r ras
Ġfi x
Ġactiv itats
1 1
? <|
i guÃ¨ron
Ġla c
et ica
ĠN e
Ġrom ans
ĠPar lament
Ġfra ire
Ġnas quÃ¨t
Ġen viron
Ġsuperf icia
Å ĵ
Ġs ia
Ġf ut
ĠS oci
Ġat au
Ġsov iet
Ġleg is
Ġactiv itat
E l
d ats
Ġ /
Ġg all
Ġam or
paus a
ut as
di r
Ġplan eta
Ġcan di
g o
r Ã©s
v Ã¨rs
Ġc aval
Ġ200 0
Ġpopul ar
Ġsign ifica
Ġprof ession
y a
Ġe les
Ġf Ãłcia
it ari
Ġen a
ur ar
reg ist
Ġproven Ã§
A merica
S itu
Ġc ri
Ġfam Ã³s
Ġrei aume
F in
d or
h n
es que
arm ai
l en
Ġd en
ist ral
ĠB re
Ġ200 6
Ġfonda ment
Ġess ent
Ġd aus
Ġa ta
un e
di o
Ġ200 8
aqu ÃŃ
ubl ic
ĠCar les
e ur
Ġcomp ta
Ġperson atge
dep endent
Ġdint re
4 0
M ar
un t
Ã²t as
Ġdon at
ĠAl b
Ġtemper atura
a te
Ġe ct
ĠP au
iv al
de m
Ġ200 9
Ġconc ent
Ġdec lar
Ã² va
ig na
ĠV I
Ġinst ru
inf luÃ©ncia
Ġblan c
i es
Ġs ta
ĠM or
ab ril
ĠT ra
Ġoccitan as
ĠX III
iÃ¨r as
ĠSegon da
' m
Ġm ob
Ġtorn armai
lic ar
Ġist Ã²ria
Ġpremi era
z a
it acions
os c
ĠC ast
Ġcat ol
Ġper f
Ġpo esia
Ġdi pl
Ġrepres enta
ĠFranc Ã©s
c k
j ament
on ia
Ġin teg
Ġcap aci
Ġmin or
Ġtrabalh s
Ġcom enc
Ġescriv an
r atge
Ġf ran
id Ã¨a
Ġap er
Ġam ass
Aqu eu
Ġsim il
ĠM in
En tre
Ã²n t
Ġrel acion
Ġlon ga
Ġr re
Ġin fer
Ġcamp anha
Ġdoc ument
E L
i rada
t t
Ġg laci
Ġor b
Ġmo dific
Ġgas con
f ica
p s
Ġm Ã²stra
al istas
Ġmes a
ĠXI V
6 0
Ġm ent
Ã¨t re
Ġcon temp
Ġr us
Ġfo gu
Ġf ort
ia da
Ġsi Ã¨is
Ġh ar
ĠAn t
aqu eu
Ġ201 0
Ġs el
Ġen g
Ã¨r o
ĠC ros
iv Ã¨rs
ib la
Ġeconom ic
inf orm
Ã¨m ia
ie f
Ã²s a
Ġvol can
ÃĴ c
ĠcanÃ§ on
Ġcomunic acion
on n
Ã¨ b
Ã² ma
Ġex ec
uc s
Ġperson atges
Ġneg oci
Ġactu ala
Ġret orn
qui tect
Ġost al
Ġcertan ei
o ul
Ã² i
it im
Ġ200 5
Ġniv Ã¨u
Ġse ctor
ĠO l
enc Ã²p
Ġale manda
v el
en as
ond re
Ġcl ima
iu tad
Ã¼ n
ific ar
Ġost als
At al
j an
Ġd a
Ġm ur
Ġqu ad
Ġcast Ã¨l
Ġm ort
ĠC R
ĠReg ion
engad Ã²c
cion ari
Ġdiv ision
ĠGu ilh
lat Ã¨rra
Ġ198 0
Ġl Ã²n
Ã§ at
ur at
Ġin dependent
ec onomia
Ġtr uc
Ġele ment
Ġ196 0
Mal grat
am in
Ġcol labor
Ġprincip al
olog ic
Ġass ai
ĠCong rÃ¨s
Ġect aras
iv Ã¨rn
og ra
Ġ197 0
Ġdeci diguÃ¨t
! <|
on im
Ġtra p
Aquel as
Ã²n ia
Ġgu Ã¨rras
ĠMar c
Ġ4 0
Ġutiliz ada
ĠPa ÃŃs
Ġcir cul
" <|
S os
Ġb Ã¨l
oc ar
ĠX II
Ġmal au
ĠdivÃ¨rs es
ĠD i
arc ass
Ġmat Ã¨ria
I s
c les
Ġ201 2
Ġfil m
Ġf el
ic les
ĠM al
ĠM ag
Ġser ia
olog ica
Ġdef ensa
Ġsub st
ĠXV II
Ġsuperi or
Ã¨ re
Ġj us
Ġcl assa
aquel as
19 9
Ġinf lu
Ġmovement s
Ġfus ion
Ġprob ablament
Ġl anÃ§
in te
Ġv ad
ro c
ĠG al
Ġmi Ã¨g
Ġet c
arrib ada
qu ia
Ġper t
Ġal b
ĠS ent
Ġimp eri
Ġele ccions
A ital
Ġqu ic
Ġse us
ĠE mpÃ¨ri
Ã²rt s
Ġcult uras
ol h
Ã²r ma
ĠP al
Ġj apon
ĠT he
Ġpl as
Ġ18 0
od on
Ġens ems
Ġs ala
Ã¨r is
Ġar b
Ġar ch
Ġprincip aus
ĠMon di
Ġr ur
iss as
Ġlong or
Ġdrech es
anci ana
it iu
us e
Ġb assa
Ġsegu ent
ific at
Ġactu al
Ġinfer i
Ġd ol
en ne
Ġs ur
Ġt op
il as
Ġven guÃ¨ron
Ġdest in
Ġada p
r us
Ġau riÃ¡
Ġh Ã¨ra
Ġfil me
Ġinst itucions
Ġcomb ats
d in
i am
Ġb Ã¨th
ad ura
ad minist
Ġrec Ã¨rca
Ġvertadi Ã¨ra
Ġdific ultats
u x
da m
Ġlig at
Ġmate mat
u cions
Ġd inc
Ġ200 4
ĠsÃ¨t ge
Ã¨ dia
Ġc ell
ĠG ra
c ta
Ã¨ mi
Ġn a
Ã¨r b
us a
ti da
Ġpar aula
ĠL engadÃ²c
Ġpre c
Ġsens a
Ġpat rim
Ġfl or
Ġaflu ent
r of
Ġn autor
gu l
im on
Ġcontin u
ĠAle manha
Ġsob ei
Ġc iutad
Ġt iÃ¨ra
ĠC arcass
ĠM au
Ġgu er
Ġcent rala
ect ura
Ġprobl Ã¨ma
Ġd Ã¨tz
Ġqu an
ol Ã²g
Ġcom enÃ§a
ras il
u v
Ġal titud
ĠB eau
ct ament
esc ritura
Ã¨lh s
Ġs ort
ci na
is mes
Ġdes apar
ac e
Ġpo Ã¨ta
me di
Ġpolit icas
Ġcan al
Ġconqu ist
ĠrÃ¨ ine
ĠtÃ¨ xt
r ÃŃs
u al
on ne
ĠG r
ĠT er
ob ten
Ġpus lÃ¨u
Ġam assa
ĠpÃ² bles
Ġ201 1
Ġsist Ã¨mas
Ġapert en
A R
es te
Ġv o
ta cions
ĠF er
Ġ18 3
Ġmod Ã¨rna
Ġarm adas
Ġofici ala
2 9
Ġ ran
Ã¨ na
un id
ab s
Ġfam ilhas
Ġv Ã²
Ġcon tac
ĠA ra
ĠB es
ĠR uss
ĠL i
ĠfÃ²r ta
ĠEsp anha
Ġp i
Ġa gut
in di
Ġr ras
Ġres id
Ġconc Ã¨p
Ġclass ica
Ġdir Ã¨ct
Ġ ir
ti r
ĠS ch
Ġcap t
Ã¯ na
Ġmon ument
ed eracion
Ġpopul acions
Ġprote ccion
s on
ri eu
Ġpo iriÃ¡
Ġparti das
Ġfin anci
Ġ199 0
Ġproc Ã¨s
d el
an te
Ġn auta
âĢ Ŀ
ĠL en
ĠI tÃłlia
Ġprote st
âĢ¦ <|
Ġnuc le
p ol
s er
res ent
Ã¨l has
aut ita
Ġpass Ã¨t
Ġactu alament
Ġmol ec
Ġgraf ia
Ã²r Ã§a
Ġcomp let
ĠJ ul
Ġas p
Ġservici s
Ġcompl Ã¨x
iÃ¨ ch
Ġquic Ã²m
Ġd r
Ġm alais
al it
Ã¨r ne
im at
Ġtot alament
Ġmar ca
Ġmet re
Ġvel oci
Ġcontemp oran
Ã¨r tas
Ġo paus
Ġfa cha
Ã²n as
Ġso as
Ġill as
8 0
ĠB al
Ġser Ãłn
Ġfas iÃ¡
Ġaperaqu ÃŃ
ar di
Ġv ert
Ġper man
ir m
iss eau
ĠV II
ĠâĢ ľ
Ġcin Ã¨ma
ĠcanÃ§ ons
r oma
Ġ Ã¨stre
qu it
in dependÃ©ncia
Ġaqu eth
Ġsoci ala
Ġport ar
Ġid e
Ġmalau tiÃ¡
2 6
N e
h on
er ie
Ġe volucion
om et
Ġcom tat
ĠC ort
ac te
ĠL or
ĠL ib
Ġjov es
Ġnum er
Ġdistin cion
E N
ar ca
Ġse g
Ġpo iss
ĠN av
Ġres istÃ©ncia
esp Ã¨
Ġprog ress
ĠpÃ¨ Ã§as
u ish
Ġpres sion
Ġven c
Ġpublic at
anci an
Ġprobl Ã¨mas
8 9
Ġs ques
tel le
Ġdesp laÃ§
Ġliber tat
v ent
Ġ ol
ĠC amp
Ġpl en
um s
Ġcons ci
Ġvi atge
Ġ6 0
ĠCarcass ona
ins ula
ĠA t
Ġpo guÃ¨t
Ġca teg
Ġtecn icas
Ġbi bl
Ġfigu ra
7 0
o w
Ġto tei
ĠLo uis
ann adas
Ġe iss
Ã² ss
Ġv it
gu das
ĠR od
ement s
Ġsimb Ã²l
Ġinte ress
o z
ic ol
Ġre Ã¼n
Ġpar c
ĠT ur
ĠD om
Ġ3 1
ĠEs c
Ġum ans
Ġnatur ala
ĠEurop Ã¨a
/ /
: //
Ġc oss
ĠP irenÃ¨us
ĠL as
Ġdon Ã¨t
ert ura
Ġanci anas
Ġz ona
Ġexist ÃŃs
R ec
o ire
u ala
Ġes tan
ĠM ai
Ġfa guÃ¨ron
Ġest ra
Ġcol ors
teri ora
Ġsegu ir
Ġtip es
O ccitÃłnia
p h
le ment
ti er
ens emble
Ġprincip au
Ġeg ip
Ġru isseau
ci tat
da da
Ġg au
Ġpri gond
oc ra
Ġcar n
Ġfin alament
Ġdarri er
Ġpren guÃ¨t
Com una
Ġpropri etat
Ġroma ine
Ġp ic
Ġcon dicion
Ġcomp et
Ġav anÃ§
Ġaut ors
Ġl Ã²c
er en
qu Ã¨ron
it i
Ġse p
ĠS u
ad Ã¨mia
ĠP rimi
Ġdes b
Ġex c
elh s
Ġtrans m
Ġmal grat
In stitut
Ġdre cha
J o
Ġl ar
Ã²r di
ens ions
f f
p ir
ti Ã¨r
Ã©n her
ĠD el
Ġ8 0
Ġfl Ã²ta
Ġtes tim
Ġcommun al
Ġveloci tat
h il
Ã¨r re
Ġcom anda
ĠprimiÃ¨r as
Ġras ons
Ġdesfa cha
an ce
ad em
ĠP re
ĠF a
Ġar res
Ġtot s
Ġpri ma
Ġmod Ã¨rn
Ġinf luÃ©ncia
ĠIn ter
ativ as
2 4
m osfÃ¨ra
o cion
t ica
Ä ĥ
ap el
ens ems
ĠF lor
Ġli ura
Ġri b
Ġform an
Ġleg ir
ĠnÃ² va
Ġscient if
L e
į n
Ġc rotz
os ament
ti qu
Ġan d
Ġter ren
Ġma qu
Ġma xim
Ġlu cha
Ġresc ont
u ma
Ġa ir
Ġc ron
ĠP res
av i
ab las
ass ociacion
ĠJ apon
Ġven on
Ġaut on
ud ats
Ġfu Ã²c
ĠLe on
Ġa tac
an al
Ġs Ã²l
ĠC A
Ġpr os
ĠV en
Ġdesvolop ar
Ġquarti Ã¨r
Ġcaser iu
Ġmul tip
Ġnaiss enÃ§a
b ia
Ġp Ã¨ira
Ġre me
ĠP at
Ġdes igna
Ġref orm
Ġfra ires
Ġvolont at
Ġa igas
ra ch
Ġr is
ĠB lan
ĠV ic
Ġap el
Ġat en
Ġserv ir
Ġsub jÃ¨cte
Ġpens ar
Ġgra v
Ġpodi Ã¡
e isson
Ġ ort
Ġm ess
Ġr ic
Ġpre ced
utiliz acion
Ġcapit Ã¨ron
Ã²ri as
ĠpÃ² u
Ġdefin icion
ĠChar les
Ġconsequ Ã©ncia
i ats
Ġ Ãł
en Ã§as
ar re
qu et
ĠP ont
Ġsu u
Ġri us
Ġcomun itat
Ġcomun autat
Ġpermet re
Ġmod ern
Ġport ugu
Ġlegis lat
administ racion
u el
Ġl it
Ġp eus
Ġt ur
ri d
gu a
Ġcon g
ĠP u
ĠN Ã²va
Ġdon adas
Ġcent ral
Ġpag inas
Ġreligi Ã³s
Ġgall o
r ant
Ġc art
ĠC entre
Ġpro jÃ¨ctes
ici ans
oc at
Ġmon eda
Ġapar eis
Ġanim als
ĠA d
id ar
eu x
Ġme m
ich el
Ġpichon as
i ot
x a
Ġs il
ri er
Ġtrabalh ar
Ġlin has
Ġdess erv
ĠpÃ¨ Ã§a
isti r
Ġfis ica
Ġciv ila
Ġcultur ala
Ġdoc uments
ĠGar ona
c ripcion
o as
Ġd ra
ai ra
Ġcom en
ac a
Ġcont ribu
fer Ã©ncia
Ġ20 21
utiliz a
Ġdesc ub
ĠtÃ¨x te
Esp anha
Ã² bre
Ġb ur
ĠM edi
ĠP aul
ĠA v
Ġdes ir
Ġsu a
egu da
Ġgener ala
Ġz Ã²na
Ġeurop Ã¨us
ĠprovÃŃn cias
h ar
n g
t om
Ġp air
ut ar
em os
Ġpolit ics
Ġben ef
ograf ica
ĠcÃ²s ta
eda g
Ġcaract Ã¨r
f Ã²rt
l aus
ĠB ra
iz ant
Ġab s
Ġfem nas
Ġfus ta
lom eracion
P ar
a gu
x e
an ar
er ia
Ã² f
Ġf orn
Ġn ascut
Ġ20 20
Ġregion alas
Ġloc ala
ber g
Ġmand at
ĠCR EO
l y
o bl
r Ã©
Ġpr Ã¨s
Ġu ei
aliz ada
Ġocup at
ĠMondi ala
P r
e ven
m ans
n es
Ġm ic
Ġm Ã¨stre
au las
ĠC at
ap aricion
Ġar r
Ġpod ers
Ġfor tific
Ġfl ors
Ġpropri et
Ġapr of
2 7
Ġd uc
Ã¨r en
ir is
ass es
Ġter m
cl am
Ġim m
Ġsimp le
quitect ura
E S
T o
f or
h s
Ġs Ã²r
Ġcre ada
Ġdarri Ã¨ra
ang le
Ġrepresent ant
Ġnomen ada
Ġcapaci tat
EL CO
Ġs ang
us atge
ul s
ĠM ari
Ġ200 2
Ġtorn a
ian as
Ġdom enis
Ġrealiz ar
Ġcad ena
v ision
Ġ Ã¯
Ġs Ã²
ĠF or
Ã¨l ha
Ġgran a
Ġrei alme
Ġdev iÃ¡
u res
Ġf ol
Ġper tot
Ġ( "
Ã§ on
ĠC ab
ĠA merica
ĠA frica
ian Ã§a
Ġcal cul
Ġpopul ara
ĠRom ans
C omp
Ġd ig
in ici
Ġun ei
ĠG er
Ġte or
Ġtra duccion
Ġconst ru
Ġlong temps
Ġvis c
Ġtecn ica
pres a
ĠRuss ia
M ai
Ġe dicion
ul g
ĠF ELCO
ass egu
Ġesc amb
Ġcons ac
ĠJo hn
Ġcompaus ada
Ġcul min
Ġlet ras
fÃ²r Ã§
Ġvesti gis
v in
Ġlong itud
Ġdemor ar
Ġquant itat
L or
d is
g ers
Ġm ans
Ġper c
ap or
Ġtot un
Ġest ar
ru p
Ãłn cias
Ġsucc ess
Ġfond at
Ġquilom Ã¨tres
Ġurb an
D el
l au
r Ã¨ron
en ge
Ġp edag
ri on
ti gi
ĠB en
An g
ĠjÃ²c s
Ġmerc at
Ġpap a
ĠMars elha
Ġm Ã¨t
is f
ĠM ad
Ġpermet ent
Ġdifer Ã©ncia
autre i
Ġfilosof ia
Ġp ost
Ġper me
Ġb ot
ro t
ro duccion
Ġcon tes
ĠM istral
Ãł ri
Ġin depend
Ġac ompanh
Ġor igina
Ġplan ta
Ġsimb ol
Ġinv ent
g in
te d
Ġm est
Ġcom and
Ġci utats
Ġfonda da
Ġistor ica
ĠremplaÃ§ at
import Ãłncia
E r
f on
Ġf eder
Ġv as
Ġv id
ĠM e
Ġam ic
Ġconegu ts
ĠEst at
Ġmontan has
ĠdirÃ¨ct ament
telle ctu
Ġ Que
Ġf iu
ob jectiu
Ġsuperf ici
Ġfas ent
Åĵ ur
Ġn u
Ġb re
ens iva
ct at
Ġh tt
Ġprincip als
Ġdire ctor
ĠPar c
ĠluÃ²c s
Ġaj uda
Ġconeiss enÃ§a
ĠGuilh Ã¨m
Ġd ot
it h
Ġn uÃ¨
il ib
Ġb les
Ã© c
et ic
iss ions
Ġ200 3
Ġrev irada
Ġpag ina
Ġcin qu
7 5
o i
ad op
Ã¯ cul
ec tiv
Ġpl at
ĠO rient
enc astre
Ġemp ach
ĠUn it
Ġart icle
Ã²u ta
Ġcatal ana
Ġlev at
Ġsigu ec
Ã² ga
ĠS av
la c
Ġpres tigi
Ġav ans
Ġdess Ãºs
Ġeurop Ã¨u
ĠsÃ¨t i
ĠCr ist
L i
b is
Ġ Ã§
en ergia
Ã¨ bre
Ġs Ã¨m
Ġm os
Ġb Ã²s
ĠC re
Ġan ti
di an
Ġap ro
Ġmes uras
ĠOccitan s
Ġjog ar
tiqu itat
F Ã²rÃ§a
Ġ Ã§a
ĠC am
ĠE r
Ġutiliz ar
Ġresp Ã¨cte
Ġef ica
Ġestats unid
Ġfonda cion
Ġnum Ã¨ro
A frica
Ã ¢
Ġc Ã¨l
Ġm am
Ġt z
Ġdes con
Ġpr um
ĠT or
Ġres ultat
Ġesc Ã²las
Ġ200 1
Ġarm as
Ġcel eb
Ġinternacion ala
Ġpossib ilitat
Ġleu gi
ogra fic
j ats
on Ã©s
an isme
ĠC omp
ad i
ap eraqu
ĠV III
Ġrap Ã²rt
Ġsost Ã¨n
Ġdura da
ĠMej ana
ci d
al i
Ġen em
Ġse mp
ĠS p
Ġpro ced
ĠR ai
ac cions
Ġav ant
Ġpens ada
arqu ia
2 3
S er
o un
Ġ Î
Ġt on
Ġt it
ir s
Ġven ent
ric ha
Ġinter pre
Ġconsider ada
Ġ194 4
Ġsimp lament
Ġsec ret
Ġquesti ons
Ġdecis ion
ĠNacion ala
Ġast ron
Ara gon
ĠgrÃ¨ ga
įn dia
f ab
Ġl exic
ra cions
Ġn otar
ol f
et te
ad oci
ĠB or
Ġpl antas
Ġob jectiu
ĠSe ine
ĠConst itucion
n at
u mi
Ġpres on
ag ÃŃs
alh s
ed at
Ã²st re
Ġmen ar
Ġmilitar as
Ġill ust
k e
us ta
ĠS imon
Ġpar all
Ġdes en
Ġpro xim
Ġcaus ida
Ġfu Ã¨lhas
ruct uras
Ġcul tiv
Ġeleg its
ĠprÃ² che
I st
l l
en ri
Ġa iga
Ġf id
Ġv otz
ĠR h
ĠG as
Ġ19 50
ov iet
art en
Ġne ut
Ġpun ts
Ġciv ilizacion
Ġleng adoci
andre ta
C ont
Ã «
Ġc aire
or gan
Ġb ord
ans ion
Ġtra uc
Ġar gent
Ġi p
ag ric
est il
Ġsci Ã©ncia
ĠRam on
e volucion
Ġp Ã²r
am ica
ei res
Ġr it
Ġpar l
Ġest ructura
Ã¨c ta
Aqu ÃŃ
Ġdist Ãłncia
Ġmarc at
ĠOccitan a
ĠAle mand
ĠespÃ¨ cia
e ctu
Ġs at
er b
Ġun ic
ab il
est ructura
enc ont
Ã¨n h
ĠAle x
Ġespanh Ã²l
Ġcaser ius
Ġcontac te
Ġsemp re
Ġb ens
Ġj uri
Ġpro clam
Ġdis cip
aliz at
Ġconstitu it
Ġdu as
Ġscient ific
Ġpedag og
Ġproxim itat
D es
e z
r Ã³s
u an
Ġf es
Ã¨g jorn
Ġtres ena
Ġvi at
ĠsiÃ¡ s
Ġdens itat
Ġ199 9
Ġnacion al
Ġcambi ament
Ġve Ã¯cul
Ġdic cionari
A S
j on
u i
Ġ Ã²rdre
es ca
ul acion
ĠS am
Ġpar ents
ĠB on
ass as
ec tac
ena issenÃ§a
aquel ei
autor itat
Ġid Ã¨as
Ġcrit ica
Ġobten guÃ¨t
Ost al
4 5
Ġde guÃ¨ron
Ġp in
Ġa icÃŃ
Ġla iss
Ġf oss
ĠC amb
Ġr uss
Ġpres ents
Ġpers egu
Ġleg enda
Est udis
Ġvari etat
Ġnav iris
ĠCas tel
Ġpriv il
Ġdecl in
d ins
Ġ y
Ġde dic
Ġt he
ai a
le y
ĠP ierre
ĠB ord
Ġmar quÃ¨t
Aquel ei
Ġrem arc
A le
C ar
M au
ĠB i
Ġar que
Ġro ge
Ġsas on
Ġvis ion
Ġcultur al
Ġsobei ran
ĠconcÃ¨p te
R ep
er gue
res a
Ġcon vencion
Ġpre m
Ġcar ta
ie ch
ill y
Ġpermet on
Ġeurop Ã¨a
Ġcolle ccion
l anta
n s
p es
Ġc m
Ġc aud
in terior
Ġpr endre
ĠL es
Ġdem en
rib ucion
Ġjorn ada
enci al
exp ression
ĠtrÃ²b an
p ira
Ġen regist
Ġg arn
ĠC es
ran ca
Ġpre fer
Ġven guda
Ã²c as
Ġcas tel
Ġ201 3
Ġdist ric
ĠCom un
ĠRei aume
Ġnuc lÃ¨u
ĠFel ip
Ġd arr
Ġf ront
ĠM ass
Ġpo Ã¨mas
ib ilitat
ou x
Ġmin im
Ġparticular ament
Ġend avant
Ġreceb Ã¨t
c Ã²p
i ques
Ġper m
Ġdel Ãł
ul ta
Ġal iment
id or
ass inat
Ġpl us
Ġac cion
est udis
Ġat ribu
Ġ201 4
Ġarrib ar
ĠJos ep
Ġcaracter isticas
Ġpoiss anÃ§a
I tÃłlia
u as
Ġ Q
en te
ta bl
Ġg laÃ§
iss ement
Ġpr Ã¨mi
ĠN ov
ĠN arb
Ġso udats
Ġ5 00
Ġaf ric
amp a
ĠcÃ²n sol
Ġrs es
Tot un
Ġleng atge
Ġger man
peri Ã©ncia
Ġreme mb
A g
r er
Ġp il
Ġa C
ĠS enat
ĠL ond
de cina
Ġtres en
Ġloc alas
Ġtract ament
Ġcost ats
4 8
o a
Ġl un
ir Ãł
Ġpr Ã¨tz
ĠE gipte
Ġdi am
Ġvi Ã¨lh
Ġdesvolop at
Ġfu guÃ¨t
Ġrecon st
Ġorganiz acion
Ġcambi ar
Ġdescob rir
Ġsuperi ora
ĠBe arn
2 8
E mp
p or
Ã £
Ġf Ã¨rre
Ã¨t as
Ġin tellectu
tan y
um an
olog icas
Ġro tacion
Ġcompaus a
Ġespanh Ã²la
Ġfont s
ĠFel ib
ĠCros ada
i ran
end as
Ġc s
it Ãłria
Ġun s
im m
ÃŃ a
ĠI X
Ġest end
Ġmas atge
Ã²b ras
ĠLo ire
esti on
esp and
Ġdivers itat
ĠlÃ²n g
Ġpatrim Ã²ni
T ra
i bles
Ġs an
at ius
Ġes tim
Ġn ot
ĠB a
ĠL in
Ġau ta
ex ist
Ġenc ont
Ã²m as
Ġz onas
Ġ7 0
ĠcomenÃ§ ar
Ġis ol
Ġorb ita
F ran
Ġm ill
Ġun e
am es
el e
ĠB ritan
ĠT arn
Ġcl ub
gon da
Ġnov Ã¨u
Ġob jÃ¨cte
ĠW ik
Ġpresent ar
Ġim ag
Ġparticip ar
Ġext ra
Ġpropri etats
Ġcir c
Esc Ã²la
terran Ã¨a
Ġcresti ans
ĠConst antin
Ġestran gi
ĠGe or
ĠBre tanha
J os
y n
as enÃ§a
Ġe duc
il les
Ġre accion
ĠM os
la va
ĠA ss
Ġin dic
Ġar re
Ã¨st res
Ġtrob at
Ġdesp ari
ĠGran da
Ġnecess ari
Ġligam s
agric ultura
ĠAlemand s
an o
Ġs iste
is p
Ġg ig
ĠP o
ĠA ut
Ġav Ã¨m
Ġest il
Ġrep ublica
Ġcre Ã¨t
Ġam ics
ĠLa f
Ġdep utats
Ġ15 0
ĠMont fÃ²rt
Ġliter ari
Ġpract ic
Ġbo ca
Ġbritan ic
Ġpron onci
Ab ans
Ġangles a
emos in
Ġl h
Ġc ha
id es
ĠR en
ors as
Ġli qu
Ġterrit ori
ress a
Ġ201 7
Ġprov es
Ġautre i
equ ip
Ġdomin acion
Ġmateri al
3 1
D os
v re
Ġde riv
Ġa ment
is m
is ans
ĠM at
ĠS er
ĠS oviet
ĠP ic
ĠA c
ĠA ugu
Ġcomp osicion
Ġpu ish
Ġpa ci
ud es
Ġtr omp
ĠCh amp
Ġprincip is
ĠmÃł gers
Ġsign ific
Ġ194 0
Ġvic ti
ĠMi Ã¨gjorn
Ġfabric acion
Ġfut ur
Ġinstru ment
re tat
Ġen l
iz at
Ġac ulh
art icle
Ġser i
Ã²m s
Ġdarri Ã¨rs
Ġliter Ãłria
Ġblan ca
Ġalemand s
Ġoccident ala
Ġrecu per
ĠMin ist
ĠInter nacion
h am
Ġcom tes
Ġo ct
ĠS i
av en
ĠN orm
Ġbas ada
Ġgener acion
Ġdep aus
Ġren ov
Ġpurm Ã¨r
e bl
p as
au gu
ĠC I
Ġtot al
Ġh ilh
ĠO ccident
aliz ar
Ġdef end
ĠRob ert
Ã ±
er ament
Ġf ief
Ġb Ã¨la
Ġpart its
Ã¯n as
Ġeconom ia
Ġquau ques
Ġlet ra
Ġbil ingÃ¼
Ġmusul mans
Ġeven iments
escriv an
A ran
P re
j ect
w w
Ġd ur
Ġl um
Ġe d
or ic
Ã¨r va
Ġb u
Ġg ents
Ġg rat
ĠM il
ĠA g
Ġri v
ne ct
Ġfam osa
Ġfon cions
Ġmet Ã²de
Ġeconom icas
Ġvari etats
Ġcant on
Ġ191 4
Ġconflic tes
Ġfaci l
9 0
E dat
b ol
r ons
Ġa mp
an e
an z
Ġf um
Ġen gat
Ġr on
ĠM as
ist ics
Ġj ur
Ġpro ble
Ġcomp ort
Ã¨n i
olog ics
ign y
Ġcal end
Ġdesp art
Ġclass as
Ġautor itats
Ġmat in
Ġvertadi Ã¨r
Ġset man
Ġgard ar
Ġcoss ÃŃ
Ġa er
Ġm ad
Ġf la
Ġre ven
Ġan onci
ab andon
ĠG rÃ¨
Ġap ren
ob serv
Ġri ba
ori as
Ġmet al
Ġcompanh iÃ¡
A d
L O
l ici
u tiu
en os
es tan
Ġre cep
Ġcon eish
ĠM ac
Ġpre t
Ġreg ist
Ġcl au
Ġcl imat
Ġtemp le
Ġsol elh
Ġsol dats
Ġfranc esas
An d
Ġpubl iquÃ¨t
ug al
Ġdint rada
Ġassoci acion
Ġperd ut
Ġassegu rar
Ġair al
. ,
6 5
M ont
Ġc ement
om ba
Ġg ras
ĠC a
ia c
ĠA s
Ġcomp ar
ce diguÃ¨t
Ġdeu riÃ¡
Ġlu Ã¨nh
Ġdev on
Ġfu g
arg ent
Ven guÃ¨t
g ica
k h
Ġ x
Ġd ont
Ġcon eis
ist an
Ġac cions
Ġesc Ã²la
Ġvi as
Ġfem en
Ġsorti r
Ġescriv ans
Ġcompos itor
Ġquauqu ei
S S
t al
Ã ¶
Ġm alh
ĠC ant
ei x
ĠL au
Ã¯ st
ĠD av
Ġmar s
ard in
mat ic
Ġdest ruccion
Ġofici alament
Ġpen insula
Ġestra teg
Ġculmin ant
ĠLond res
. "<|
3 5
Ġ &
or k
Ã² ran
ra ine
os icions
ro du
ĠA u
Ġab sol
ill on
Ġdis paus
Ġ194 5
Ġmag net
Demp u
Ġreligi osa
ĠNav arra
b o
Ġp ausa
er at
in ari
Ġf au
ur re
ab te
ĠR og
est ar
Ġri ques
Ġform ada
Ġjorn al
ctor at
Ġperi Ã²des
Ġsemb lan
Ġves ins
Ġmelhor ar
pres as
Ġbritan ica
ĠPol onha
Ġdif usion
ĠBes iÃ¨rs
ĠGrÃ¨ cia
g ne
o us
Ġm is
el les
Ġre mon
im e
ct ritz
Ġpl ena
Ġver tat
Ġlim itat
ĠmÃ²rt s
Ġlig ada
Ġrepresent acion
ĠtÃ¨r mes
Ġnomb res
Ġmilitar s
Ġtemper at
Ass emblada
ĠRai mon
c er
r Ã¨m
te ro
Ġqu ar
Ġv am
gu et
Ġesc rit
Ġesc riure
vas ion
bor g
ĠCal andreta
Ġtol os
8 5
b as
e ga
m ada
o qu
Ġs obre
in teg
Ġe c
it ant
Ġv ass
Ġn Ã²rma
Ġcon o
ist Ã¨ma
ĠL una
Ġmar it
inas on
Ġutiliz ats
Ġemp le
Ġemp eraire
Ġfas a
oct Ã²bre
Ex istÃŃs
Ġessenci alament
Ġacom encÃ¨t
F ins
k o
Ġl ud
Ġp alais
Ġre dus
Ġse x
Ġse ccion
Ġg arda
ĠG ir
ĠRo queta
Ġchin esa
A gu
e ch
f u
on or
Ġa ma
Ġa ctors
Ġv ita
Ġn ar
Ġcon cepcion
Ġcon Ã©isser
Ġcont re
ĠcÃ² st
Ġcre issenÃ§a
Al ara
Ġvol um
Ġet n
Ġdescob Ã¨rta
Ġparte ment
Ġplas er
T re
U a
Ġp ena
am eric
ĠF red
Ġdi u
Ġex cepcion
Ġpart s
Ġdiv is
Ġmerc Ã©
Ġprepaus a
To tes
m or
Ġs of
ra ccion
Ġt Ã¨n
ri da
ĠS o
iss iÃ¡n
iz ada
Ġli ure
Ġres ist
ag es
na is
Ġdem est
ill er
Ġimport Ãłncia
Ġpresent acion
Ġbar r
Ġameric ana
ĠRei alme
Ġprev ist
Ġmanif esta
ĠMart in
ocra cia
ĠBord Ã¨u
3 6
7 4
G u
Â ·
Ġ Ã¨
qu Ã©
al d
un ei
Ġg ala
ĠL ion
Ġdi fici
ĠV il
aut as
ag lomeracion
enc as
Ã¨n ge
Ġprod uc
Ġz Ã²nas
Ġref lex
Ġrealiz at
tell ig
Ġdecis ions
Ġcontun ha
A i
e a
m ai
Ġc ot
Ġt aus
Ġt ira
Ġun as
us c
Ġb omb
Ġr ts
ad o
ĠA p
En c
Ġcomp r
Ġsitu ats
int rada
Ġlim its
Ġlin gu
ois e
Ġdemand ar
Ġps ic
" )
b urg
f ort
Ġc Åĵur
Ã¨r cas
ĠG en
iz a
ĠE d
Ġra con
Ġtemp tat
Ġrev Ã¨nge
Ġsuc re
Ġdefin ir
rÃł cia
Ġtradicion ala
Ġexist isson
Ġpet r
Ġdistin gu
Ġchin Ã©s
Ġcontun i
ĠPres ident
Ġarr ond
E R
j au
Ġde j
Ġa guÃ¨ron
Ġm ir
Ġqu at
di as
ab ilitat
ig ne
ĠF il
Ġsus p
ĠD u
ĠJ er
oc as
Ġsol ucion
Ġpubl ics
Ġca ted
Ġassoci acions
Ġconsci Ã©ncia
D on
c ans
n i
o ch
Ġp ilh
as p
Ġen qu
Ġb alha
im es
Ġr ica
ĠM es
ĠF re
Ġres ultats
Ġimp aus
esc om
Ġmon ast
Ġ20 22
Ġso i
Ġmus ician
Ġset mana
g iÃ¨r
u tacion
Ġd am
Ġde ven
ad ÃŃs
Ġdi eu
Ġap lic
Ġar ti
Ġdef ens
Ġpoder Ã³s
Ġbasti ments
Ġ9 0
Ġorient ala
resent acion
Ġc ia
ar Ãłn
ĠM er
la Ã§a
ĠB ol
ĠI l
Ġ3 5
Ġens emble
Ġaj udar
Ġreti rada
Ġfru ch
Ġsatell its
Ġcomplet ament
Ġdr Ã²l
8 8
ra Ã¨l
ti as
Ġpo guÃ¨ron
og ne
ed uc
Ġcl aus
Ġcal c
anh as
Ġdef Ã²ra
Ġ4 5
Ġconsid Ã¨ra
Ġsc Ã¨na
Ġgovern ador
Ġaprof ich
A ut
P uÃ¨i
c al
Ġa ctor
an ia
at mosfÃ¨ra
is ha
Ġt au
ul ara
Ġdem ost
Ġdis on
Ġdef endre
Aqu eth
Ġ12 0
ĠU r
Ġdirig it
Ġsepar acion
Ġfilos Ã²f
ĠAng latÃ¨rra
Ġscientif ics
P ro
d ich
Ġs es
ar ch
Ã² da
ĠS au
ĠP hil
ig at
Ġ19 20
ĠT res
art in
Ġra m
Ġcal or
Ġob jÃ¨ctes
Ġsoci al
ÃĪ st
Ġorig inas
Ġcrit ic
Ġant ic
Ġant ica
Ġscient ifica
3 7
e guÃ¨ron
r icas
Î ¿
Ġs ser
om as
au tes
am ass
Ġj u
iss e
Ġdes f
ĠR os
Ġnom ena
Ġpre cip
per t
Ġcol oni
Ġman jar
Ġrev el
Ġinter ven
itar is
Ġconc ors
Ġfra g
Ġext rem
Ġprodu ch
ĠSa int
Ġveg et
Ġmarid atge
Ġdesign ar
Ġtele vision
ĠCes ar
b ert
Ã¨ ir
ar res
Ġm ac
Ġqu ora
Ġv au
am en
Ã§ an
Ġr ar
ĠP et
ĠD an
ĠD em
ob jÃ¨cte
Ġpri gonda
Ã¨n cia
tel as
Ã²s i
Ġmin utas
aqu eth
Ġ199 5
Ġsubre v
Ġclass ic
Ġrecon eiss
Ġorganiz at
Ġparticip Ã¨t
Ġress orsas
S ul
u gi
u Ã¨lh
en ha
Ġp Ã¨s
al t
it Ã¨t
Ġt os
Ġt Ã¨ma
Ġt aula
Ġes ca
ri ci
Ġr at
ab itants
and s
ce bre
Ġpre ce
Ġven guts
est Ã³
Ġcons om
ast ron
Ġmus Ã¨u
Ġrev Ã²uta
Ġpublic acion
Ġsucc ession
Ġ193 0
Ġconten gut
Ex ist
Ãĩ Ã²
O b
n er
Ġ Ã²c
te m
Ġe vol
Ġun ica
el eccion
Ġb ut
Ã²r s
ĠP an
Ġpar aulas
ĠA ires
ici s
ĠD ep
Ġme ta
Ġcomp tar
Ġav al
Ġgran as
Ã¨ss on
Ġmin er
Ġmod Ã¨rne
Ġdesvolop Ã¨t
Ġdifer ent
Ġconegu das
Ġcr omp
Ġrealiz acion
Ġorganiz ada
Ġfoncion ament
ĠEn ric
Ġtor re
ĠBu enos
Ġcollabor acion
Ġtransm ission
M on
N os
g or
l on
u it
re u
ra Ã¯na
Ġf res
Ġf ac
Ġt uc
om in
Ġb Ã¨s
Ãł dio
ĠA sia
di da
ĠB rasil
av Ã¨m
Ġtra pa
op er
op eracion
aut s
ers ion
Ġ3 00
Ġfar Ãł
Ġcomun aut
Ġconc ern
Ġarrib Ã¨t
Ġestudi ar
Ġfort al
ĠLen ga
Ġcateg oria
ĠGas con
Ã£ o
Ġarti fici
4 4
4 7
T A
i blas
el ect
Ġb ret
ti en
ĠP en
Ġpas t
av ent
ĠL im
Ġdi eus
ĠV ill
Ġra di
Ġ20 19
Ġpermet Ã¨ron
Ġsub s
rim ir
Ġescol ans
Ġsatell it
Ġdesserv ie
Ġsuperfici e
Ġhtt p
Ale manha
Ġgarn ison
6 6
r or
Ġl itor
end res
Ġn at
Ġb el
Ġb aci
Ġal ora
Ġpar is
ĠA f
ĠE m
Ġpl ans
Ġac Ã²rd
Ġesc al
Ġsol s
Ġch ar
Ġrev end
Ġinternacion al
Ġfab rica
Ġcaracter istica
Ġdiam Ã¨tre
k y
t Ã¨ron
Ġm ig
Ġt ab
au de
Ġb ol
Ġcon eguÃ¨t
Ġpo Ã¨ma
Ġtra du
ess ors
Ġcam ins
Ġtr Ã²
Ġfranc eses
ĠRo ergue
Ġpor ta
ĠprÃ²p ri
Ġjust ament
Ġmanif estacion
. ;
3 2
7 9
b Ã²l
Ġd an
te in
as a
ar o
qu is
ĠP i
ĠD on
ec tiva
Ġsi e
ex ion
Ġgr Ã²ss
Ġinst itucion
Ġno cion
Ġcel Ã¨b
ĠFranc esa
ĠMus Ã¨u
Ġsh ens
Ġcandi dat
4 3
P arti
T orn
c oma
o j
Ġp aur
un ic
Ġt ro
Ġes te
ot s
ĠL ei
Ġi ra
Ġsoci etats
gi guÃ¨t
Ġmaj ora
Ġarrib a
ruc cions
ĠcollÃ¨g i
Ġegip ci
8 3
P ierre
b ilitat
g Ã¨t
Ġl an
in v
un iversitat
or acion
Ġun itat
ta ine
ĠN eg
Ġcomp tava
Ġex clus
ess ions
rit ge
Ġman iÃ¨ra
Ġcor re
ĠW ill
ÃĴ r
eiss es
Ġdirig ida
ĠprÃ²p ria
Ġcros ada
Ġlic Ã¨u
inform acion
6 3
6 4
O C
a w
c ol
n ov
Ġf Ã²nt
it ada
ic e
us al
ai ral
ap ole
Ã¨s us
Ġac te
Ġrep ublic
int Ã¨si
Ġleg itim
Ġprop or
Ġprog rÃ¨s
Ġlimit ada
Ġaj ud
ĠpÃ¨r das
ĠLaf ont
Ġen vi
Ġg estion
ad e
ch i
di guÃ¨ron
Ġin clus
Ġi er
oc ant
Ġmar ch
ou te
Ġrom p
ĠsiÃ¡ n
Ġ199 8
Ġclass ificacion
Ġsci Ã©ncias
ril h
inst ru
Ġtrib un
Ġsuf is
Ġut il
Ġregular ament
Ġbor ges
apel an
O l
j ants
Ġd aval
en cion
on y
at ic
Ġf Ã¨sta
Ġt ras
av iÃ¡n
ab riu
Ġh on
Ġcar g
Ġrec Ã¨rcas
Ġprin ce
Ġch ap
teri ors
esp le
Ġob ri
Ġ199 7
Ġart icles
Ġdepartament s
Ġsenh al
ĠMa x
Ġ187 0
ĠPort ugal
Ġvac cin
Ġmed ish
Ġvad Ã³
Ġciutad ans
D N
c at
ar ma
Ġre is
Ġb ranca
Ġg ost
ul on
Ġal mens
Ġmas cul
rÃ¨ ma
ron ze
Ġcent rau
Ġmil i
19 0
Ġmarc ada
Ġmand ar
Ġtes ti
ĠRob Ã¨rt
Situ ada
Ġnegoci acions
8 4
Ġv ide
Ã§ ats
Ġpar ci
Ġap re
Ġpass ej
Ġpod riÃ¡
Ġcent res
ĠK ar
Ã¨rn as
Ġconf ir
ĠnÃ²st res
terior ament
jec tius
ĠentraÃ¯n ant
Ġcul te
roma ine
P irenÃ¨us
f re
t ic
v elh
z o
Ġs tat
Ã² di
Ġv ri
ĠG i
Ã¨l i
Ġau tes
ich on
Ġcent en
Ġmod Ã¨ls
Ġid Ã¨a
ĠVi ena
Ġsant at
T res
c te
r ist
u elh
on ica
or re
Ġt Ã²r
Ġv apor
Ġre d
di g
ĠV all
Ġimp oss
utiliz ar
Ġrei au
Ġaf aires
Ġesta das
Ġaques tas
ten as
eus e
Ġ187 1
Ġfogu Ã¨sse
Ġjapon Ã©s
b an
i utat
l h
u k
Ġl ectura
Ġm el
Ġb arri
Ġcon te
ĠC os
Ġr os
Ġr tas
ĠP lan
ch er
ĠL an
Ġtan p
Ġex emp
Ġtemp or
Ġqui te
Ã²m es
Ġesta cion
Ġgl ob
Ġconstitu ÃŃs
Ġ197 3
ĠCar ta
Ġdint rar
Ġocup a
Ġmol in
Ġsal v
Ġdisp osicion
Ġorigin ala
Ġcerc le
Av Ã¨m
Ġjust ÃŃcia
Ġ179 0
Ġfaci ar
Ġganh Ã¨t
Ġquad re
S as
b s
at ac
is tes
Ġv ai
im atge
ĠP as
ĠB ou
ab ri
Ġin cl
ĠJ up
ĠJ Ã²cs
Ġsol ar
Ġch if
Ã²s ta
Ġtor isme
Ġcanta ire
Ġdipl omat
4 1
x i
Ġd il
at ica
in dic
au en
Ġv ig
Ġn az
ur al
ĠP rin
Ġpar lan
Ġtra dicions
ĠJ Ã¨sus
Ġesc richa
Ġcons istÃŃs
Ġdem Ã²ran
Ġrep ression
Ġmarid Ã¨t
esper it
apole on
7 2
7 8
U Ã¨i
o ca
p el
z i
Ġp eisses
Ġc en
Ġqu ita
Ġb anh
Ġcon nect
ul at
Ġo cean
ĠS ab
ĠP el
id ion
ov ent
Ġex a
Ġrec ens
Ã¨n s
ific ada
Ġst ra
ĠAr gent
Ġpens a
Ġmerc Ã©s
Ġus atge
Ġpresid enci
Ġaur Ãł
3 3
7 6
g s
h t
h at
p us
v os
Ġc ens
Ġe dit
Ġes ti
Ġv ins
ol et
Ġan tany
Ġdes vel
Ġin terior
ĠV ar
op aus
ast on
Ġtr en
Ġcol om
Ġrei ala
ress ions
Ġon or
dic cion
Ġart istas
Ġ198 9
Ġparticip acion
inter Ã¨s
Ġnav ig
Ġital iana
Ġdial ect
Ġfronti Ã¨ra
Ġeven iment
ĠrÃ¨g las
ĠSoci etat
ĠnuÃ¨ ch
ĠJer usal
5 5
9 5
O n
b e
b on
d ar
h es
r ina
Î ±
Ġs ar
Ġs it
or ica
ra y
ĠR ev
Ġar ts
per iment
esc asenÃ§a
Ġpod Ã¨m
Ġsegu it
ell i
ĠCom ission
Ġba te
ind ustria
Ġis lam
tific at
Ġproteg ir
ĠTra ctat
Ġsel eccion
Ġmatemat icas
Jo an
ĠGascon ha
6 9
E gipte
O rient
R D
m o
t u
Ġm ult
it Ã¨r
Ġt i
ri an
Ġn ad
Ġse qu
Ġcon ven
Ġcap able
Ġbas at
Ġcor ona
Ġrei al
Ġum anas
Ġsign at
Ġistor ics
Ġobten ir
Ġconsequ Ã©ncias
ĠLor raine
Ġdiscip l
Ģ ustria
en ce
es on
Ġlo t
ĠC op
ĠB an
mi ra
ĠN eu
ĠN icol
Ġpart isans
Ġgen ier
Ġro tas
Ġtrob ava
Ġcer em
Ġrs as
Ġge omet
Ġcontrar ot
Ġdaiss ar
Ġviv ent
Ġprom ocion
Ġconserv at
Ġempleg at
Ġcarb on
ĠcollÃ¨g as
Situ at
Ġmanifesta cions
3 8
V al
c el
s i
Ã¨ ja
Ġc ub
or ta
Ġf ras
le u
Ġal iats
ut ors
ĠA quit
ĠR D
ĠR ec
ici tat
Ġent orn
Ġvil atges
Ã¨ss es
Ġenc ausa
Ġfam ili
Ġnov Ã¨ls
Ġro c
Ġqual qu
Ġfil mes
Ġref ugi
ĠCom una
Ġrap id
Ġ196 2
Au de
Ġcors es
Ġpor tada
Ġpos icions
Ġlarg ament
abs Ã©ncia
iot Ã¨ca
ĠNarb ona
h o
l s
Ġc ic
or as
Ġf ara
Ġb anc
Ġcon n
ur r
ap r
tat ge
og en
Ġpl uÃ¨
Ġdiv id
Ġins c
udi ci
Ġmant una
Ġrepresent ants
Ġint Ã¨rna
Ġsup Ã²rt
Ġjog aire
Ġacc ess
Ġpurm Ã¨ra
ĠFred eric
B en
M a
Ġl s
ar quitectura
Ġla ch
il itats
mb ia
ĠS eg
iz ont
ac Ã²rd
bl ament
Ã¨g i
esc al
esc riure
Ġdep utat
Ġcas uda
Ġver d
Ġdemor Ã¨ron
Ġcast Ã¨th
organiz ar
lant ic
Ġtir ar
Ġestan d
Ġcated rala
8 7
A f
i al
Ġp p
Ġc icle
Ġm m
Ġt s
Ġt am
gu er
el ements
ul ari
ĠM ed
ĠP alais
ot ic
ĠN o
Ġres erv
Ġac tes
Ġesc riguÃ¨t
Ã¨st ras
Ġform Ã¨t
Ġaques tes
ĠpÃ² den
Ġlimit rop
Ġprodu chs
ĠlingÃ¼ istic
Ġdial Ã¨ctes
eti cion
Ġdific ultat
ĠNe w
Ġcomenc Ã¨ron
6 2
c ap
Ã ª
Ġd ÃŃs
Ã¨ ga
Ġc lav
ic al
Ġt ub
da d
Ġv escom
Ġper ilh
Ġse m
ai ron
Ġcon j
ha c
Ġac adem
con st
Ġval ors
Ġno bl
Ġten iÃ¡
ĠCon f
Ġmelh ora
Ġpor tat
Ġdisc ors
enn es
Ġalb um
ĠvÃ² te
ilib ri
fab et
Ġsetman as
Ġgala x
5 6
A ur
m os
v o
â Ĥ
as h
Ġc erv
Ġe dicions
al la
ra i
Ġf reg
Ġper p
ĠS te
ond as
Ġac tiu
Ġra dic
Ġdem ocrat
ex ec
Ġtr enta
ep ar
Ġdeb at
ba ch
Ġmet rop
occitan isme
Ġdrech s
Ġrs a
Ġsimp la
Ġeurop Ã¨as
Ġmedi terran
Ġtrib Ãºs
ĠCal if
Ġela bor
Ġclar ament
Ġindustri ala
Ġdeg un
Ġfel ib
Ġconquist ar
Ġreflex ion
4 2
4 9
6 8
7 1
U r
en atge
Ġde h
Ġp ent
Ġp le
os au
Ġcon ceb
ei ra
ur os
Ġan c
Ġpro t
ĠV ila
ort ar
Ġh e
Ġab itu
Ġcar gat
Ġdon ada
Ġmon uments
ori ans
Ġtrans c
Ġtrans fer
ĠAl s
Ġposs ession
ĠcÃ²r das
ÃĴ C
Ġ193 9
Ġve guÃ¨t
Ġev itar
Ġterr Ã¨stra
Ġpodi Ã¡n
Ġcollec tiv
ĠBern at
Ġassai Ã¨t
obten ir
Ġcalend iÃ¨r
5 9
j adas
k m
en viron
Ġa ga
Ġe u
Ġre ina
ĠC ors
ĠC rotz
Ġpar elh
ir at
Ġsu paus
ĠT rans
Ġap ond
ĠH er
Ġch ic
Ġdifer enta
Ġresp ect
Ġ198 2
Ġcambi aments
Ġestabl it
Ġdiss abte
espÃ¨ cia
tero Ã¯
âĤ ¬
g ra
r ol
Ġs or
Ġb au
Ġcon fer
Ġcon dem
Ġan al
ĠB odon
ĠG ov
tan ben
Ġab b
emp Ã¨ri
Ġsegu enta
Ġ201 8
Ġloc al
Ġneg ra
Ã¨x te
erg Ã©ncia
Ġmag n
Ġmag erament
Ġdeban Ã¨ron
ĠNacion al
olit ic
Ġmediev ala
ĠmÃ¨t ge
ectiv ament
ĠPhil ip
Ġ ha
Ġs Ã¨r
un g
Ġlo u
Ġv ore
Ġb Ã²rd
ro d
ia das
ĠM erc
ad in
Ġ19 18
Ġent iÃ¨r
mi da
ĠD ic
em an
ag ne
Ġesp le
Ġdiv in
ĠAn s
Ġinter Ã¨s
Ġcr om
Ġpresent an
estat ut
asc uda
Ġves in
Ġanim al
Ġcerc ar
Ġcaracteriz a
Ġrestau racion
Ġtruc at
educ acion
Ġprece dent
C ons
O N
ra va
Ġf r
el es
ul l
ĠS istÃ¨ma
Lo ire
ĠB ourg
Ġtra cta
Ġesp osa
Ġra i
mat icas
Ġloc alizacion
ĠMi qu
Ġdob le
Ġdisp aricion
ĠY ork
Ġpint ura
ĠpÃ¨r da
Ġganh ar
Ġbe arn
Ġdefinit ivament
ĠCent rala
assegu rar
Ġvid Ã¨
Ġlengadoci an
Ġpetr Ã²li
7 7
S i
d al
Ï Ĥ
Ġd ents
Ġs intÃ¨si
qu ista
Ġt ala
Ġv Ã²u
Ġal tern
ĠM ichel
ĠP Ã¨rs
ens enh
ĠB ur
ĠG o
ĠF ab
ĠT al
ĠJ an
oc k
Ġgran s
Ġpers p
Ġdo Ã§
olog ias
lan da
Ġdesc end
Ġens ag
Ġ199 3
Ġmant uns
Ġfond Ã¨t
Ġdeci d
tern et
Ġbalh ar
Ġcolon ia
Ġbesonh s
Ġmem Ã²ria
ĠAugu st
3 4
8 2
O ccitan
P od
as on
Ġe ta
au di
el im
Ġcom arca
ĠC ha
ĠC lar
ĠS ar
ist oc
Ġest re
ast ic
Ã¨n as
Ġcaus it
ing ton
Ġsul tan
Ġcamp anhas
Ġ196 8
Ġim atge
Ġdec enn
ĠU c
Ġpag ar
ĠÃ įndia
Ġdub ertura
Ġelect ron
Ġreform as
Ġdot ze
Ã ¤
Ġp Ã¨l
el la
ol at
Ġse unas
ĠM el
Ã²r mas
ĠB our
ĠE x
Ġar ma
Ġfa it
ĠcÃ² la
Ġsitu adas
Ġu Ã¨lhs
ĠH enri
Ġpass ant
Ã¯s me
Ġno ta
Ġim atges
ĠPro v
Ġem ai
Ġcollec tiu
ĠOl imp
Ang latÃ¨rra
Mau grat
Ġprem sa
pira cion
ĠJup itÃ¨r
a ost
f ar
h u
Ġl is
at i
or ar
Ġv on
ĠB ru
ĠN auta
Ġesp andi
Ã²p le
Ġeconom ics
Ġmot or
Ġniv Ã¨ls
Ġdob te
aul t
Ġinc end
hi que
land Ã©s
Ġviol Ã©ncia
Ġesqu Ã¨rra
Ġcaracteriz at
Ġcresti ana
Ġinici alament
Ġrefus Ã¨t
Ġbr ut
ĠfenomÃ¨n s
Ġmain atges
ĠMedi terranÃ¨a
ĠdÃŃs er
" ).<|
6 1
S ol
Ġt ensions
ri e
Ġre tra
Ġo t
Ã¨s tes
Ġar bre
Ġh as
Ġaut omat
esc amb
ang lÃ©s
Ġconsider ar
Ġcontunh ar
reg ion
Ġdet alh
Ġpot Ã©ncia
Ġdestru it
Ġfortal esa
ĠAquit Ãłnia
m ond
Ġ Ð
Ġ ur
Ġf ic
it y
Ġper quÃ©
Ġb aiss
Ġr ti
ĠM ur
ĠP lat
ig racion
ĠF on
ĠJ ust
Ġex terior
Ã¨g le
Ġconf lu
Ġja Ã§
Ġpren guÃ¨ron
Ġfas i
Ġlat itud
Ġmost rar
ĠMej an
esqu Ã¨rra
ĠsÃ²n s
ĠvertadiÃ¨ra ment
ĠRod Ã©s
adop cion
J ean
b ar
l ig
Ġc te
at t
Ġla bor
ap rÃ¨s
ab ans
um as
Ġreg ard
Ġbas as
Ġ199 6
Ġves ina
Ġofici al
Ġminist res
Ġtrib alh
Ġdif us
Ġta x
Ġoper acions
Ġcarb Ã²ni
6 7
M artin
y l
Ġp end
qu er
Ġe ire
Ġg a
Ã© l
ĠS en
ĠR ich
ĠR ou
og rap
Ġvil la
Ã¨c s
Ġmes tiÃ¨r
Ġsegu ents
Ġat Ã©nher
Ġ4 00
Ġtrans met
Ġutiliz adas
Ġnos autres
arm as
Ġ199 1
Ġ7 5
eng at
Ġcatal ans
rad or
Ġvoc acion
ocup acion
Ġpossed ÃŃs
Rec eb
ĠPre mi
Ist Ã²ria
D ens
M e
r ena
v ament
on ic
ci t
al iment
Ġg re
ro is
ĠS ci
Ġj onh
id itat
ĠL et
ĠV ol
Ġtra par
op osicion
Ġra ub
ĠH ar
Ã²n s
Ġmus icians
Ġtrob ador
Ġlim itar
Ġsup lement
Ġend rech
Ġenf ant
Ac adÃ¨mia
l ov
v ada
Ġ Ã¨st
Ġa ustri
Ġc Ã¨rca
Ġm Ã²st
Ġun itats
Ġre du
ot Ã¨si
ĠB ert
ĠF ois
ĠH u
Se mb
Ġdemp Ãºs
Ġst as
Ġ6 00
emple c
ĠUn ion
Ġconstitu isson
Ar t
Ġef ectu
Ġcorr ents
Ġcompren e
ĠSol elh
ĠBel gica
Ġrecu Ã¨lh
ĠÃ§ ai
ĠCastel ha
S ab
i el
l ip
Ġm ira
Ġv Ã²stre
os itat
Ġ1 18
ro u
ada ma
ist oire
ĠA ust
Ã¨s is
ĠR enaissenÃ§a
Ġex erci
Ġest rech
Ġsol et
Ġnov Ã¨us
he im
ĠCom tat
Ġret rob
Ġfot ograf
Ġtri angle
Ġtransp Ã²rt
inte ress
O P
j os
r Ãłn
Ġ ÃĴ
Ġd al
an ge
Ġm ut
am par
ant ar
Ġo Ã¨st
ĠP aci
ga z
Ġpres erv
Ġcas es
Ġtrob adors
Ġdest inat
Ġara bi
Ġ197 2
Ġtradicion al
Ġef Ã¨cte
Ġreligi osas
Av iÃ¡
ĠgrÃ¨c s
Ġesper ar
ĠOr l
ĠBer lin
Ġtop onim
Ġtromp eta
Ġenl Ãł
ĠWill iam
ĠJerusal Ã¨m
3 9
5 4
A L
b al
in er
Ġre da
Ġb ac
Ġcon dam
ad Ãł
ch o
Ġsu ber
Ġor a
Ġrec entament
Ġlu char
Ġgu itar
Ġdo ct
Ġass assinat
Ġins pir
Ġens enhament
Ã¯s es
Ġparticul ara
Ġapar eguÃ¨t
Ġep is
Ġbl au
Ġsin gular
Ġfrequ ent
Ġmolec ulas
Ãłri ament
Ġtemperat uras
A lex
p r
Ġc itat
Ġc rat
Ġv est
Ġen ergia
ol on
Ã© der
ĠB ressa
Ġres tabl
Ġpri eur
Ġreg lament
if Ã¨rs
ĠO s
rat z
Ġvol iÃ¡
Ġdev ath
Ġcompaus ats
Ġsign atura
Ġim medi
Ġsucc essor
Ġrespons a
Ġcolon izacion
Ġcaract Ã¨rs
espÃ¨ cias
L u
P o
m s
o ie
u ga
Ġa im
Ġa ran
Ġc Ãł
ci li
Ġm ari
ic ala
ada p
ĠM en
ad re
iss atge
av el
id at
Ġte st
ĠD es
Ġar c
Ġesp el
ĠO tom
Ġrec amp
Ġenc arg
Ġmet all
Ġco a
Ġmen ada
Ġpat ron
Ġ199 4
Ġai Ã§Ã²
isti an
Ġfilh s
Ġparlar s
Ġmontan h
Ġveg adas
Ġindepend enta
Ġbord ure
ĠFelib ritge
R e
o ut
er ta
it ors
ic k
om ic
Ã¨r gi
Ġb ud
Ġpar lat
Ġdi guÃ¨t
Ġdi oc
ĠV ern
Ġap arten
ĠI Ã¨r
ce dir
Ġh Ã©
ĠO st
Ã¨m is
Ġref orma
Ġ196 7
ĠnÃ²st ras
Ġrealiz Ã¨t
Ġpos it
Ġfond ator
Ġdomin ant
ĠpÃ²rt as
Ġcell ulas
Ġrevend ic
5 3
f r
o te
Ġd it
in vasion
Ġf lan
Ġse d
Ġcon ca
ei r
ara is
Ġme decina
Ġentre presas
rat ges
Ġcaus Ã¨t
Ġresp ond
Ġlig adas
ral ha
Ġrealiz ada
exp ansion
ĠpÃ¨ iras
Ġdisc uss
Ġmor f
Ã³n cia
Ġviv on
Ġtu at
Ġagric Ã²la
Ġagric ultura
Ġadministrat iva
Ġbenef ici
Ġprum Ã¨r
Ġcastel han
Ġfemen in
Ġvri ulon
9 8
A ctu
P el
a ja
z ar
Ġp ale
Ġm apa
un ivÃ¨rs
Ġv ast
Ġb and
ĠC ass
ĠS il
ot te
di fici
aus s
Ġamb e
ĠG Ãł
ĠG ard
Ġte l
Ġsa g
Ġres istir
Ġh ens
ess us
Ġpass an
Ġad ul
Ġob ratge
Ġro ja
ĠAr n
Ġexp lica
Ġrap ida
Ġdefin ÃŃs
Ġcad una
Ġautor oute
Ġev ident
Ġpet it
Ġrespons able
Ġsac ri
Ġinstall at
Ġsoviet ica
Ġlum in
Ġpropor cion
5 8
n ada
u ran
Ġ Una
Ġa ja
in et
Ġf ib
Ġv iva
ĠS c
ĠL iga
ĠL emosin
Ġau ri
Ġi ran
ĠcÃ² m
est en
Ġser iÃ¡n
Ġrec om
lu b
Ġdis par
Ġcent r
ian o
Ġvi Ã¨lha
Ġaf ebl
Ġexp lor
Ġvari acions
leg ar
inh on
Ġorigin al
Ġmer idion
Ġmesc la
rog Ã¨n
Ġmencion at
ĠPe it
Ġarb res
Ġpartement ale
. -
5 1
Ã¨ ch
Ã¨ rem
Ġs ai
Ġe b
Ġqu oti
gu Ã¨sse
Ġg asc
la in
av e
ĠL is
Ġex paus
oc ada
Ġac amp
egu ts
emp ach
Ġmil a
Ġcapit ada
Ã²s e
ĠGu ill
Ġestat ut
ĠPar is
Ġloc aus
Ġ199 2
Aques tes
Ġespeci f
Ġneg res
ej ar
erg at
Ġnomb rÃ³s
ĠpaÃ¯s ans
fa ch
Ġcel Ã¨bre
Ġprote Ã¯nas
ĠvÃ²l on
Ġsent iment
Ġ179 3
Ġcolon ias
ectac le
Ġexa ctament
Receb Ã¨t
8 6
9 2
A is
R et
g ier
j ant
l ob
r ics
en tes
Ġc ur
Ġf un
Ġt as
Ġb ronze
ĠM exic
iv er
ĠT om
ac cep
ob jÃ¨ctes
Ġi b
Ġres ol
rit s
Al bi
ori ent
Ġtrob Ã¨t
arc k
Ap r
Ġjos ie
Ġef ec
Ġcant ar
Ġsorti guÃ¨t
Ġmass ÃŃs
ĠGe org
Ġmit ologia
ĠPe ter
Ġsecret ari
Ġdarr Ã¨r
Ġlud udes
Ġtos temps
Ġmili ards
4 6
n ia
Ġ Ã¨ss
Ġl Ã¨i
Ġt Ã¨mas
Ġv ed
Ġb ranc
Ġb izant
Ġcon oguÃ¨t
Ġpar ets
Ġ19 19
ĠL at
Ġtra ces
op ia
ĠJ uan
Ġpres as
em at
Ġh Ã¨it
Ġrec er
Ġrec ors
Ġcaus ir
Ġvi elh
An jau
ĠFran ce
Ġ17 89
don n
Ġdifer enci
Ġcamp ion
Ġespeci fic
Ġ197 4
Ġsign es
Ġpremi ers
Ġind ica
Ġmarc ar
ĠnÃ² ta
ĠprÃ² va
ĠfÃ²rt ament
Ġdat ant
Ġpossib la
ĠJac me
Ġoper acion
ĠNi Ã§a
Ġrur al
Ġcontinu ament
Ġpropriet ari
Ġvisc ut
ĠJosep h
8 1
T h
f is
i um
on esa
or ig
il es
Ġ19 00
Ġpri vat
ss a
Ġplan etas
ev al
Ġcal if
our s
gi Ã¨rs
Ġcr ist
Ġ194 8
exp lor
Ġren for
Ġop osicion
Ġespaci ala
Ġcomerci al
Ġreceb ut
Ġadop tat
Ġbil in
actu ala
Ġcircul acion
Ġmest re
Ġmalh um
ĠDav id
Enc ara
9 9
F o
I l
P Ã²t
k er
Ġd anÃ§
an ne
or ian
Ġt Ã¨sta
Ġen eb
ro dus
âĢ ¢
im b
ap ren
Ġin augu
ĠR N
ĠG aston
Ã¨ra ment
Ġcap ables
ĠD au
Ġar ron
de c
Ġh Ã¨r
ess e
Ġter min
Ġrep utacion
Ġpass ion
Ġcomun ista
Ġdeb ana
Ġserv ÃŃs
Ġ198 6
Ġactu au
Ġren fÃ²rÃ§
Ġassoci at
Ġcob r
Ġindivid u
Ġinstru ments
AR N
isf Ã¨ri
aperaqu ÃŃ
Ġcomport ament
c ada
d ica
j ava
l acion
Ġ Å
an tes
Ġs p
Ġs op
Ġc ima
Ġc uri
un d
ent in
ro v
ti g
Ġmai rala
iz ats
Ġte les
ĠD ou
Ġau c
ĠÂ °
Ã¨rs a
Ġex periment
Ġres ulta
ras t
Ġpel eg
Ġans in
Ġrel Ã¨u
Ġcal d
Ġsoci alas
Ġgr Ã²s
Ġprov is
ĠUn iversitat
Ġpublic ar
Ġrecon egut
Ġnatur alas
ien ne
Ġpor g
Ġdisp on
Com encÃ¨t
andi e
ĠCol l
Ġprim it
ĠCor Ã¨a
Ġprob able
Ġquim ia
anal isi
Ġenem ics
Ġrit me
Ġnobl esa
C ol
E v
I B
w a
en aris
Ġc it
in ci
Ġm issions
al icion
Ġqu Ã©
Ġen fin
gu st
Ġre pert
Ġb ul
Ġal ianÃ§a
ĠM ond
ĠA ub
Ġpro jec
ĠV ir
ĠD r
ag n
Ġest ructuras
alh on
ard o
Ġmon arquia
ĠH o
ĠH an
Ġcl ara
Ġregion ala
Ġvi en
ĠFran cis
Ġexp licar
Ġnacion alas
Ġart istica
Ġ198 5
Ġren g
Ġport ant
Ġ193 6
Ġocup ada
Ġdisp os
Â» .<|
ĠJac ques
Ġoblig at
ĠprovenÃ§ au
ĠAlb ert
inici ativa
Ġriques a
ĠProv ÃŃn
S ens
g ger
er d
in ada
om o
am er
Ġcom ent
im as
ĠM ans
id er
En ter
Ġform Ã¨ron
Ġpers ec
Ġconf irm
Ġel im
Ġ16 0
ej atz
Ġcultura u
Ġbar ris
Ġmena Ã§a
Tot as
Ġestudi ants
Ġvin ha
Fa guÃ¨t
establ iment
Ġsoviet ic
uman itat
N on
g en
in ats
Ġt ucs
au p
Ġ1 000
ran a
ran qu
Ġson at
Ã²r ra
ĠP op
ot am
ĠR a
Ġdi ri
Ã©s er
Ġcons tell
lic at
Ġsov en
Ġloc als
Ġpren on
Ġbasti das
Ġdemor ava
Ġ198 3
Ġparticul as
Ġas iat
Ġint ens
inh an
Ġdaiss a
Ġreti rar
Ġdin am
Ġlog ici
Ġconcent racion
Ġinferi ora
ĠsÃ²r re
5 2
A s
f as
u ca
en ter
Ã¨ ia
Ġla b
Ã² ia
ent r
Ġf als
Ġre ct
Ġse ctors
ĠC ir
ĠP ass
ĠF in
ĠcÃ² de
Ã¨c as
egu das
Ġman usc
Ġgr is
Ġprov o
omb ra
Ġrepresent an
Ġrepresent ar
Ġ197 5
Ġofici au
ĠentraÃ¯n ar
acab a
Ġnecess itat
Ġdirig ir
Ġvers ions
Ġnomen ats
Ġata ca
olÃ²g s
9 6
n is
s ki
Î ¹
Ġd ors
te b
Ġun es
Ġre j
Ġb ru
ul tan
Ġr isc
ĠS el
ap er
ĠR Ã²ca
ĠD o
En ric
Ġpre ci
art s
est ats
Ġrec omp
enc Ã¨ron
Ġam ont
lar s
Ġtrabalh Ã¨t
Ġjos ieus
ret z
Ġlig ats
Ġren fÃ²r
Ġrest aur
ĠÃ ī
Ġdeves it
Ġruss a
D esc
M apa
U R
l ai
an ti
it o
Ġes telas
Ġre gul
Ġb andi
Ġcon du
Ã© e
Ġr Ã¨stas
ĠM ic
Ġj ardin
Ġesp and
Ã²l ta
ed ic
Ġrep arti
Ġpol onÃ©s
Ġvi ra
Ġinter p
Ġutiliz a
Ġca Ã§a
Ġvis ita
Est udi
Ġ197 9
Ġten ir
Ġprof iech
Ġtradicion alas
Ġtecn ologia
Ġjog aires
Ġpract icas
Ġcultur alas
Ġreb at
Ġdial Ã²g
ĠCan adÃł
Ġpaus ar
Ġcandi dats
Ġimperi ala
ĠmodÃ¨rn es
ĠAlex andre
ism arck
ĠCI RD
Ġprecip itacions
5 7
h Ã¨
t ament
v ern
w e
z on
Ġa il
un ion
is an
it Ãłnia
au riÃ¡
ol ar
Ġre mont
Ġre accions
Ã§ ois
ĠC arn
ĠC iutat
ad iÃ¡
ap t
ĠA st
ĠE dicions
ĠD ec
ec ta
ing s
Ġcor on
Ġrom anas
esp eci
Ġro b
Ġ8 00
Ġ196 4
Ġ196 5
Ġdisc u
Ġprodu ches
Ġpap iÃ¨r
Ġdemand Ã¨t
Ġprecis ion
acc Ã¨s
ĠbÃ²s c
ĠÃ§a quel
' '
9 7
r ut
Ġd Ã¯
Ġm ori
or tacion
ent u
Ġqu ina
Ġt amb
da das
Ġn h
ta gon
ro vi
Ã§ ament
ĠC orn
ist at
ens is
Ġte iss
Ġpri or
Ġgen res
ex periÃ©ncia
Ġtorn at
Ġrev ira
Ġann ex
ĠMont s
Ġ201 6
Ġco ord
Ġara gon
Ġ198 1
ĠnÃ² vas
gn y
Ġom enatge
Ġcamb ra
Ġcomenc Ã¨
ĠGeor ge
Ġextrem itat
Ġbaci n
N C
b y
d ors
Ã ī
Ð °
Ġ Ã©s
ra ire
Ġf ec
ic o
Ġb od
Ġb rasil
ĠN ad
En s
eg ar
Ġcont Ã¨xte
Ġpre Ã¯st
est ra
Ġch aus
ing o
Ġpubl icas
Ã¨ri as
Ġestat jants
Ġlong as
ef Ã¨cte
Ġval ent
Ġist orians
emb l
ĠJo ana
Ġno tada
af ond
Ġ196 9
Ġnecess Ãłria
Ġdir Ã¨cte
Ġurb ana
Ġtend Ã©ncia
Ġaper at
inform acions
ng ria
Ġdesvel op
ĠPhilip pe
n ois
r ÃŃ
Î ½
en gu
Ġc ulh
un ica
or v
ra g
Ġn im
il atge
Ġre dig
Ġb lat
Ġb ois
ant at
ab at
ors a
ĠV el
eu rop
ed ia
ip Ã¨dia
Ãłn dia
Ġvol cans
Ġel as
ef i
Ġloc utors
aj udar
Ġdescob Ã¨rt
Ġfeb rier
ĠprÃ² cha
Ġbra Ã§
Ġfot bÃ²l
Ġaccep tÃ¨t
Ġadministrat iu
ĠMol in
Ġir re
Parti cip
ĠPaci fic
A P
l ad
r s
Ġde dins
Ġp ed
un ta
is la
Ġt y
Ġt ardi
Ġen qÃ¼
Ġper a
Ġn aus
gu ment
os ta
Ġb org
ĠT ar
Ġpo Ã«
ĠN apoleon
Ġex ig
em ont
Ġor d
Ġfin anÃ§
ne y
Ġele vat
An autita
Ġer ig
Ġmen Ã¨t
Ġve ge
Ġmor ir
Ġbon as
Ġinv esti
ĠAnt oni
Ġempach ar
ĠMos elle
ĠtrÃ² Ã§
Ġapre ci
B as
C er
D oas
b alha
j e
m y
u ari
Ġc ro
Ġe difici
el ev
Ġcon ferÃ©ncia
Ġson a
Ãł bia
di ana
ĠB ig
Ġpr Ã²sa
ĠE mp
ĠV ille
Ġh em
ex terior
ep t
Ġsegu ÃŃs
Ġrev istas
Ġel s
Ġ197 6
ĠRo ch
rÃł lia
ÃĴ me
Ġdob la
Ġminist Ã¨ri
Ġinternacion au
Ġdim enge
Ġw eb
ĠGener alitat
Ġrur ala
Ġportugu Ã©s
ĠBritan ics
tellig Ã©ncia
ĠCors ega
ĠGov Ã¨rn
E xt
M es
b us
u z
x emb
en ar
or tat
ol d
ĠB ay
Ġdes tac
ĠR oss
ĠN ig
ĠN imes
em isfÃ¨ri
man he
Ġmil ion
Ġ17 0
Ġperson ala
Ġmet Ã²des
Ġpresent Ã¨t
Ġmi te
Ġ196 1
Ġ193 2
Ġ193 3
vas ions
Ġpes ca
Ġtravers ada
Ġtu ar
Ġ190 1
Ġnorm alament
ĠJos Ã©
ĠSol eu
Ġada igat
Ġfer rovi
enf ant
Ġindivid Ãºs
indi vid
Ġcong rÃ¨s
Ġsie una
Ġmascul in
Ġestand ard
Ġbranc as
A DN
h en
i era
o de
Ġs Ã¯
ci Ã³
Ġf ich
it alh
Ġn acions
Ġn ue
Ġb anda
Ġg el
Ġg les
ĠA qu
ĠB ismarck
Ġdes par
Ġsu ed
ĠV ia
imp aus
ost au
Ġcar r
Ġgran ja
oss e
Ġaqu er
up cion
Ġro ck
Ġdesc ripcion
paus Ã¨t
ĠAr t
Ġfach es
Ġba ish
Ġdess epar
Ġcarri Ã¨ras
ĠMa y
Ġsin dic
Ġacab ar
Ġmateri als
Ġmob iliz
Ġcatol ica
Ġrenov el
Ġdivis ions
9 1
C re
r un
Ġ ong
Ġd anÃ§a
Ġp it
Ġa ccident
Ã¨ cia
er o
qu Ã¨stra
al ar
Ã² qui
is ca
ri ga
Ġn Ã¨u
Ġpar et
ot at
Ġdes Ã¨rt
Ġin dependÃ©ncia
ĠG au
ĠG ren
Ġsu gger
iz Ã¨t
ĠL uc
ĠJ ames
Ġab ond
Ġac tiva
Ġgen i
Ġoccitan ista
Ġtr Ã²n
Ġbas co
Ġinter medi
ĠUn ivers
Ġconstitu ida
Ġim mens
Ġbast its
Ġvari antas
Ġfilh as
Ġequ ival
Ġterr Ã¨stre
Ġdim ension
Ġsepar at
Ġacab at
onda cion
Ġaccep tar
Ġcomple ment
Ġexec utiu
Ġmolec ula
Ġvit ic
Ġcomanda ment
ĠBlan c
Ġlegislat iu
ĠArgent ina
Actu alament
ĠÃ§aquel Ãł
A ub
A sia
M an
a e
g Ã¨l
j aments
z ac
Ð ¾
Ġd ign
Ġp Ã²l
Ġm Ã²de
ri z
Ġper paus
gu s
Ġdel eg
il at
ol ing
Ġ( Â«
Ã§ adas
ĠC D
ĠC ultura
Ã© t
Ġpar iÃ¨r
ĠA quel
Ġj udici
ĠR es
Ġpr umi
ĠT ib
ĠV iv
ĠV ers
Ġh aut
Ġimp ression
Ġdem ocracia
Ġrec ob
ss es
Per met
utiliz an
Ġjorn alista
Ãº st
Ġdifer Ã©ncias
Ġemp Ã¨ri
Ġagu est
Ġfas iÃ¡n
Ġfis ician
Ġmont ar
edi fici
ĠCas tell
Ġcerc aires
Ġdial Ã¨cte
ĠSal adin
ĠSol ar
Ġpossib ilitats
Ost au
Ġinflu enci
Ġmaqu ina
Ġreconeiss enÃ§a
ĠcelÃ¨b ra
Ġtanp auc
Ġlimitrop he
Semb la
Ġteles cÃ²p
7 3
n am
y d
Ġde gut
Ġp eth
Ġs igne
qu ist
Ġla i
or di
Ġv aiss
Ġv Ã¨rb
ĠC iv
Ġr Ãłdio
ĠP ap
ĠB ulg
ĠL ar
ĠV au
ass oci
Ġap licacion
ĠI st
Ġmar itim
Ġest ric
Ġmas cle
ex c
th e
Ġform ats
An tiquitat
ĠAn n
our n
Ġpublic ada
Ġ13 0
asc o
Ġmand Ã¨t
Ġterr ens
Ġlog ica
Ġinform acions
ĠAnt Ã²ni
Ġapro xim
Ġfras a
Ġvege tacion
9 4
P lan
b at
p ren
Ġ illa
Ġa ci
Ġa ust
Ã² cia
Ġf eu
Ġqu ilh
Ġv re
im ag
Ġal unh
Ġmai r
Ġpo gut
Ġsus velh
Ġar tes
Ġcomp rÃ©s
ĠJ aume
Ġfa ctors
Ġpre p
art h
elh on
ed ura
egu r
Ġform ant
Ġch e
ron ta
up s
Ġele ctor
Ġob jectius
Ġexp edicion
Ġport Ã¨t
Ġistor icas
Ġblan cs
ĠPa Ã¯ses
Ġ192 1
Ġlev ar
Ġpint or
ĠCap it
ĠAb C
Ġfronti era
Ġveg Ã¨t
Ġflu vi
Ġdetermin ar
Ġdestin ada
equip a
Ġcomunaut ats
Ġbret on
Ġconnect ant
OP LO
N S
V os
l Ã¨us
u ro
Ġ olog
Ġm iss
is es
ra m
Ġv ess
Ġse mi
Ġb rilh
Ġo tom
Ġpar Ã§an
ĠB lu
ab ulari
id ors
iz adas
ac ci
ass an
Ġau cup
Ġaut as
ĠH e
Ġcl ergat
Ġpod Ã¨tz
auc up
ĠK h
Ġaf ir
ef iÃ¨ch
Ġloc alit
Ġresp Ã¨ct
Ġ197 8
Ġprop ag
Ġ194 7
Ġapar eisson
Ġcomb us
Ġfem in
Ġves inas
Ġautor itat
ĠentraÃ¯n Ã¨ron
Ã¨th s
Ġfeb la
Ġestudi Ã¨t
aument acion
orb ita
Ġensenh aires
Ġinferi or
Ġprotest ants
Ġcron ica
Ġtam ben
ĠÃ¨ss ers
a cha
e dicions
j Ã²us
Ġ ivÃ¨rn
Ġl us
Ã¨ ne
Ġs enat
Ġe dat
al b
is ar
is is
Ġv Ã¨s
Ġre al
ro ch
ti ci
ĠS atur
ĠP EN
ĠA mb
ot ica
mi as
eg alitat
Ġh ont
ĠfÃ²r ma
Ã³ r
Qu au
Ġdem ora
Ġrec ulh
ena y
Ġenc orat
Ġdis iÃ¡
pul s
An cian
Ġpresent as
Ġrepresent ava
ĠCom unitat
Ġ196 6
Ġten gut
Ġ11 0
inter pre
Ġtract ats
ĠnÃ² us
Ġ186 0
Ġperd Ã¨t
ĠIs raÃ¨l
Ġfronti eras
ĠVer d
ĠremplaÃ§ ar
Ġescrich es
Ġfai Ã§on
Ġglaci Ã¨r
Ġcompet Ã©ncias
Ġlar ga
even iment
Ġdistric te
Ġremon ta
Ġcontuni Ã¨t
Ġnim ai
S ei
a ga
f Ã³s
i ens
k s
Ġ Ï
te c
Ġp ig
it ler
Ġt onas
Ġv ents
il ia
Ġre cebre
ins c
ti an
ap licacion
Ġte at
op otam
Ġcons ag
Ġpart enari
na y
Ġpol ida
iu re
Ġbas c
ĠÂ» <|
Ġgener acions
cas ion
Ġcapit ani
Al s
Ġrev Ã²
Ġaf ars
Ġposs essions
Ġno ir
Ġbar b
Ġas teroÃ¯
Ġcambi Ã¨t
Ġconv er
eri ana
Ġge ograf
Ġdich as
Ġorigin ari
Ġvend ut
ation al
ĠTr enc
ĠMan uel
Ġprepar ar
Ġasp Ã¨cte
Ġmess atge
Ġsil enci
ĠCat ol
Ġfoss ils
Rep resentacion
ĠOccident ala
ocas ion
Ġconsom acion
avent ura
ĠgrÃ²ss a
Ġfara on
Fo guÃ¨ron
E P
M erc
r landa
end eman
in Ã¨t
Ġt un
il ica
ol l
Ġre ten
ĠC lub
ĠS Ã¨rgi
ĠP IB
ĠA pol
ĠB at
iv e
iz antin
Ġau te
ex emple
Ġaqu era
ĠCh al
Ġad vers
cl op
Ġca Ã§
ĠAr d
Ġdarri Ã¨ras
Ġlong s
Aques tas
entre presa
Ġ194 6
ÃĴ m
orti r
Ġlib ert
Ġespanh Ã²u
Ġdet lo
Ġcaracteriz ada
Ġvir ar
install acion
Ġmecan ica
ĠCast Ã¨l
ĠpÃ²r tan
ĠSoviet ica
Ġvicti mas
Ġracon te
Ġdeh ens
Ġpersp ectiva
f iqu
l oc
z z
Ï ģ
en au
er va
Ġt Ã²c
om ob
Ġun icament
Ġen es
am i
ĠS ants
ass ada
eu re
Ġven iÃ¡
Ġesc amp
Ġesc laus
est in
od er
Ã¼ r
Ã²s c
Ġdom ina
ĠgovÃ¨rn s
Ġconsider ats
Ġ198 7
aud s
ĠCon vencion
rÃł cias
Ġeg ala
Ġdim ensions
At au
Ġcort s
Ġaument acion
Ġacom encÃ¨ron
Ġmediev al
Ġdol or
Ġbibl iotÃ¨ca
Ġsep t
Ġcart as
Ġbur Ã¨u
Ġpropriet aris
Ġconstell acion
O M
V i
r Ã²b
Å į
es ques
qu Ã©s
Ġm endre
or don
au te
Ġv inh
Ġen vir
us at
il ar
ol i
Ġre mar
Ġcon clus
ĠM ess
ÃŃ pol
Ġsu es
ĠF ont
Ġcap ÃŃtol
ura da
ass e
ass ar
ĠN autor
ĠJ orn
ast ica
esc ad
Ġri re
aliz ats
Ġcomun istas
Ġconst at
Ġag ost
emple ga
exp edicion
Ġev id
Ġcau let
Ġcamb is
Ġlic Ã©ncia
Ġprepar acion
rel h
ĠpÃ²s te
Ġdur Ã¨t
Ġregist res
ash ington
Ġdoct rina
ĠGuill aume
S uc
f ranc
p in
s es
x ic
Ġ os
Ġd ar
Ġs ou
ci es
un i
ol ia
Ġcon cep
ĠS ec
ĠS icÃŃ
Ġan at
ig Ã¨n
Ġtot alitat
Ġmas cles
ed o
Ġrep ren
Ġman c
Ġsegu entas
Ġsos mar
tiv as
Ġdesc rich
Aqu itÃłnia
Ġpla ca
Ġutiliz acion
enci an
Ġmi ei
ĠRo ja
Ġroman ica
Ġprof essors
Ã¨is as
Ġagric Ã²las
Ġrestau rar
ĠrÃ¨g la
Ġprivil eg
isp ens
instru ment
Ġvig or
D i
E duc
J ac
M origuÃ¨t
R N
a jar
e k
j o
r ins
Â º
en cia
Ġp ura
Ġc ran
Ã¨r es
il acion
Ġb ons
ist ori
Ġpro tagon
ĠF r
ĠL omb
ĠV it
Ġra dio
Ġfin al
Ġprimi er
Ġpass ada
Ġvi atges
Ġtrans f
Ġcan on
Ġdesvolop ada
Ġprov Ã²ca
Ġsas ons
ĠAr ch
Ġconc urr
equ ilibri
Ġais it
rip cions
ĠXX I
arqu it
Ġprogra mas
Ġindustri al
anim als
Ġmaqu inas
ĠOrient ala
Ġfac ultat
' <|
C ast
D iv
P ren
R eg
Ġ orn
en regist
Ġl una
te aux
Ġp esc
es i
Ġs anc
Ġm inas
Ġla cs
ent rada
Ġn erv
Ġn Ã²rmas
el ab
Ġg o
Ġcon d
ĠC res
ĠP la
ĠB l
ĠV inc
ras burg
Ġesc ritura
ger ia
Ġfach s
Ġrepresent at
Ġrelig ions
ariÃ¡ s
Ġfavor able
Ġ195 8
Ġpint uras
Ġsosten ir
ĠEsp anh
Ġcomerci ala
Ġvoc abulari
Ġquim ica
Ġmusul man
Ãĩ a
ĠCarles manhe
Ġeng enh
Ġnucle ara
Ġprogress ivament
rup cion
Ġnar rat
Ġimposs ible
Ġnotada ment
A G
f an
j i
p o
Ġ ul
Ġl Ã¨is
ar bre
in ion
ent at
ra el
Ġf ant
da va
ri va
Ġn Ã²tas
us h
Ġg ara
Ġo c
et ics
Ġr ug
Ġr endre
ĠB au
ir ass
Ġdes emp
Ã¨s te
ĠT ot
Ġpo Ã¨tas
ĠV ent
Ġau ia
Ġh Ã¨n
Ġab itat
Ġmar ins
Ã¨g as
Ġcar e
Ġra cion
Ġor izont
ib al
Ġrep aus
Ġcre ire
ric k
ĠLa c
ert o
Ġsos terran
Ġsoci als
Ġpla ja
ĠAl bi
Ġag ra
ej ada
Ġ197 1
Ġind ispens
Ġlat ina
Ġpag ament
Ġdic tat
Ġmarc ant
Ġcompl Ã¨t
Ġmondi al
Ġdin amica
ĠmodÃ¨rn as
Ġpros p
Ġdescub Ã¨rta
ĠMad rid
Ġliqu id
Ġvicti ma
Ret rach
Ġprovo quÃ¨t
G e
G rÃłcias
J a
O Ã¨st
O fici
P auc
b ourg
g ans
Ã ¬
Ġ text
en e
Ġm Ã¨
it Ãłrias
Ġqu itar
Ġt ic
Ġt omba
au a
ri citat
el eg
Ġb esti
Ã²r as
ur ats
la p
la ck
Ġj Ã²ga
ĠG all
ĠT a
ĠT re
ĠE ug
ĠV end
Ã¯ c
Ã¯ t
Ġtra ject
Ġme dic
Ġcomp eticion
ec cions
Ã²t ges
Ġmar ci
Ġaut ent
Ġesc and
esc ala
Ġrec enta
Ã¨ss us
Ġrel ativa
Ġpoder osa
Ġco alicion
Ġdarri era
Ġ198 4
Ġbar ra
Ġorganiz ar
Ġind o
inter vencion
Ġ195 1
Ġinc or
Ġproc Ã¨ssus
Ġreligi oses
Ġnaut as
Ġtransform acion
actu al
Ġsimil ara
Ġsort it
ĠAra gon
Ġperman ent
Ġparall Ã¨l
Ġjur is
Ġdiscipl ina
ĠConf ederacion
. )
V ilatge
g et
i Ã¯
v ill
on e
Ġs oma
Ġc ai
qu im
ol o
Ġb rÃ¨
Ġb rica
ĠP on
ĠP ers
ĠP omp
ĠA ves
ĠA tenas
ab itat
Ġdes vol
Ġdes ira
ac s
Ġnom at
op Ã²rt
Ġex periÃ©ncia
Ġmar ina
art ista
Ġest on
rop ri
est re
esc ol
Ġter mi
Ġtr uf
Ġri gor
Ã¨ss a
Ã²rd res
ĠCh au
ub a
Ġcapit ar
Ġconc Ã¨rt
Ġref Ãºs
Ġfach as
Ġvis quÃ¨t
ĠUn idas
Ġrepresent acions
Ġ196 3
Ġ194 2
Ġdec or
Ġas c
Ġang l
Ġdint rÃ¨t
Ġexist Ã©ncia
Ġmol ins
Ġext ension
activ itats
Ġempleg ada
Ġregim e
install Ã¨t
ĠBern ard
Ġminor itat
Ġcontemporan Ã¨a
Ġgau lo
Ġmam ifÃ¨rs
Ġsat isf
Ġquar anta
Ġarrond issement
Exist isson
Ġromp edura
ĠCIRD ÃĴC
C l
a er
n y
t res
u le
Å £
Ġ oss
Ġd ang
Ġp ec
es ias
end rech
Ġs orn
er e
or f
ent raÃ¯n
Ġqu as
Ġt rip
ĠC Ã²r
ur itat
ĠB ai
ĠR ib
Ġtra balha
Ġpl u
Ġpre d
Ġpart enÃ§a
egu ida
Ġtrans icion
Ġsoci alista
Ġutiliz ant
Ġprov ocar
Ġdist ribu
Ġdist ribucion
Ġ194 9
Ġbar on
Ġmom ents
Ġpun ta
Ġgra matica
aques tas
Ġnav iri
Ġdisp oni
Ġmor ala
Ġpint re
Ġconeiss enÃ§as
Ġmanten ir
Ġprecis a
Ġempleg ats
Ġprec ÃŃs
ĠvÃ² tes
Ġescamb is
Ġestatsunid enca
Ġestim ada
ww w
observ acion
ĠPrin cip
ĠAls ace
Ġjosie va
G al
O ise
V a
V ista
e im
l t
m atge
Ä ı
Å ¼
en on
un ificacion
Ġt alament
ol in
Ġb enda
ran Ã§a
ut il
ĠM ong
ĠS oma
ĠA uv
ÃŃ vol
ĠB ro
ĠB ess
ĠF o
ĠD uc
ĠI tal
Ġav en
Ġlen gua
alh ar
Ġcar rat
Ġor don
Ġor den
na ise
Ġcol ons
Ġform ula
gon ha
Ġdis pausa
Ġat enh
Al b
eb as
Ġof ensiva
ber ica
Ġ197 7
ĠdivÃ¨rs eis
rÃł s
Ġmelh ors
acab ar
Ġestabl iments
Ġ191 7
Ġespaci s
Ġequip a
AS A
ectac les
ĠWik ipÃ¨dia
Ġstat ion
ĠvidÃ¨ o
istoc rÃłcia
Educ acion
9 3
A guÃ¨t
M adama
T ota
c ourt
n oc
r ent
Ġd ans
te ur
of ici
re z
ic ar
us es
ĠS r
ĠP ed
Ġpar ca
ab ol
Ã¨s ter
ĠL and
ĠN acions
Ġcomp res
og Ã¨u
Ġh or
Ġor din
esc rich
Ġsol ucions
ou v
teri e
Ġdep endent
Ġad er
ĠMar na
Ġcos m
Ġmod er
ten cion
ish er
Ġdest ri
Ġnacion au
Ġ198 8
Ġ194 1
Ġliber acion
Ġinternacion alas
Ġ190 5
Ġvoc ala
ocup ar
Ġprecis ament
qÃ¼ ator
ĠBr un
Ġpobl acion
Ġmed isha
ĠSav oie
Ġjuri dic
Ġabsol uda
Ġtemptat iva
Estudi Ã¨t
A N
E C
g el
j ac
l us
p an
un itats
ri das
Ġb er
Ġb las
Ã© g
ĠS enh
ĠB arb
iss Ã¨m
Ġdes l
ĠR u
ĠE t
ob ratge
Ġesp ir
ĠH ol
Ġsol id
Ġch ival
Ġst re
Ġgrop e
Ġeth s
Ġara bis
Ġart ista
Ġprop osicion
Ġnomb r
Ġcontin ents
Ġciv il
Ġdeci dit
ix e
Ġesper it
Ġcomunic acions
Ġcu irass
Ġpau re
Ġrend Ã¨tz
peri Ã©ncias
establ ir
Ġquin ze
ĠRoman ia
Ġtomb ar
Ġata cas
Ġsimil ar
Ġmaxim ala
Ġefica Ã§
lanta cion
espand ÃŃs
ĠRog iÃ¨r
ĠtÃ²r na
Ġconfer Ã©ncias
Ġimmedi at
Ġadul tes
ĠSicÃŃ lia
A per
D ivÃ¨rs
P a
U t
h in
x es
Ġd rap
Ġs atge
ci l
Ã² is
ent rion
Ġv Ã¨n
Ġre vol
Ġg av
ins piracion
ĠC ro
Ã© r
Ġo is
ĠS eu
ĠS uÃ¨
ĠP atz
ĠA ir
ĠR us
ac Ã²m
Ġte x
Ġdi jÃ²us
Ã¯ da
Ġcomp aras
Ġcomp lex
ĠH am
Ġsos l
Ġob t
Ġqual que
Ġdom est
Ġcos ina
Ġemp er
Ġloc au
ĠMon tanha
Ġindi g
Ġtrib Ãº
Ġ195 4
Ġbl oc
Ġtes tificat
Ġbra ces
Ġdat an
ĠgrÃ¨ va
Ġdessenh s
Ġsuf ra
Ġmusic ala
ĠpÃ²s ca
Ġresid Ã©ncia
ĠdesplaÃ§ ament
ĠAt lantic
Ġtestim oni
Ġpret end
Ġmagnet ic
integ racion
ĠcÃ²st as
Ġrar ament
Ġdil uns
ĠRich ard
Ġsacri fici
P aul
U c
a ctor
v ila
Ð ¸
Ġ âĤ¬
en ada
Ġs inc
Ġc ana
qu in
Ġm urs
un ya
Ã² via
Ġv Ã©der
gu Ã¨ri
el i
Ġin vasions
ĠL eg
Ġte orias
Ġar quitectura
op h
Ġcont ar
Ġh om
ich ona
Ġcar gas
ex erci
ip Ã¨la
Ġpass ava
Ã²n ts
Ġlu enh
Ġam ai
ĠCh amb
Ġdo bl
Ġsegu rament
ĠAn ton
tiv itat
aci d
ident itat
Ġaf ar
ific ats
Ġperson alitat
Ġco operacion
Ġsuc cediguÃ¨t
Ġer en
Ġvis ig
Ġpresent ava
Ġactu alas
Ġsab on
Ġint Ã¨rnas
Ġbast issa
aques tes
Ġ193 4
isti que
Ġciv iliz
Ġfeb le
Ġdeci diguÃ¨ron
Ġdaiss Ã¨t
ĠÃ Ģustria
Ġdir Ã¨cta
Ġital ians
Ġdecis iu
Con st
Ġabandon at
Ġpriv ada
Ġorgan ismes
Ġnegoci ar
ĠmalautiÃ¡ s
Ġarres tat
Ġdedic at
Ġgig ant
Ġlitor al
Ġflan c
A C
D eu
N as
b ra
g ia
i di
p ro
r ants
Ä ģ
Ë Ŀ
of f
Ġm Ã²da
Ġt im
cion aris
Ġper if
ĠC le
ĠC ont
Ã© m
Ã© p
et on
et ar
ch u
ĠB ri
ĠG il
Ġsu us
ment acion
ĠF ou
ac Ã²rdi
Ġent iÃ¨ra
Ã©n cer
Ġab C
Ġesc ap
Ġmon g
Ġpol ÃŃcia
ing en
Ġk g
Ġsegu retat
An t
esp andi
Ġperson al
Ġaques t
Ġja une
Ġserv isson
Ġco dific
Ġpat ri
Ġ194 3
Ġparticul ars
Ġint rodu
ativ itat
ĠCatal ans
Ġ192 6
Ġtu ats
Ġsimb Ã²ls
Ġus at
Ġvin has
Ġcertan eis
Ġprev ista
Ch ar
Ġpau res
Ġaflu ents
actu alitat
ĠveÃ¯cul s
Ġeduc acion
ĠdrÃ²l les
inv esti
Ġcen cha
ĠmÃ²st ran
ĠcÃ²m te
Äı Å¼
E E
S al
U ei
k in
v ari
Ã įndia
Ġl Ã¯
Ġa z
Ġc ra
Ġc ru
Ġm ia
Ġqu ate
Ġv Ã²stra
Ġn sol
ti ers
ant o
ĠC erc
Ġal ent
Ġr ics
ĠM ir
ch at
ĠA z
ig Ã©s
ĠG re
ĠT ri
ac u
Ġsitu acions
Ġne b
Ġcre i
Ġcor ta
Ġcomun ica
Ġrev isc
Ġ201 5
Ġconc Ã¨rts
Ġexp ansion
ret as
Ġdemor at
ĠIn ternet
rim Ã²ni
isti guÃ¨t
Ġais idament
Ġtrop a
Ġmo tiv
ĠlingÃ¼ istas
Demp uei
Ġcultur als
Ġobten gut
Ġnatura u
Ġrespons abilitat
Ġorient alas
Ġpref ectura
ĠprovenÃ§ al
Ġciutad an
ĠLi bre
Ġasp Ã¨ctes
Ġseg le
Ġegip cian
Ġatac ar
ĠSoviet ics
ĠMinist re
Ġoct obre
Ġmarit ima
Ġeta pa
Cer tan
O c
P S
P us
h ann
l Ãłndia
r um
z acion
Ð µ
Ġp eis
Ġa ctritz
Ġa eriana
Ġs sa
ar an
it uras
Ġt in
Ġen quia
Ġre ag
Ġre duccion
le v
ul ada
Ġo x
et re
ĠS on
ĠP ale
Ãł ment
ĠB izant
iss en
iv ern
Ġdes ena
Ġpro paus
ĠR ic
Ġpr at
ĠT o
Ġsi u
Ġfa ctor
em ia
ag o
Ġesc riu
est ran
Ġgran jas
Ġ18 30
ĠO n
ard ia
Ġtr ent
Ġrep art
Ġmunicip al
ill as
ev esque
Ġass emblada
ĠFran Ã§ois
Ġpopul aras
Ġtrans cripcion
Ġ15 00
Ġpublic ats
ĠCom itat
Ġpens ava
Ġcontunh Ã¨t
Ġnatur alament
Ġtradicion alament
Ġfra c
Ġpor tava
Ġpos itiu
arr y
Ġestabl ida
ĠTh omas
Ġcresti an
Ġadop tÃ¨t
Ġpobl ada
Ġmusul mana
Ġenviron at
Ġprotest ant
Ġnumer ica
Ġprigond or
Ġperme tiÃ¡
ĠChamp agne
ĠNorm andie
Ġproduc cions
Ġgalax ias
ĠColl Ã¨gi
ĠBizant ins
E i
O cup
c ont
c Ã²l
e vol
f Ã¨ra
l ats
n o
Ġd ret
te au
Ġp ira
Ġa ig
an Ã¨t
Ġs Ã²rt
of ensiva
is as
ra in
Ġt h
Ġt Ã¨si
Ġn ord
Ġn ÃŃvol
ĠC ult
ĠC our
Ġson ada
Ġr Ã²
Ġr itu
ĠM ira
ch en
Ġpar at
av italh
Ġ2 50
ĠT emp
ici cle
ĠL ang
Ġpo iri
ĠN az
ĠN ASA
Ġar ist
em in
Ġh u
Ġh er
Ġmar cha
Ġrep roduccion
Ġma gaz
oss ed
int roduccion
Ġdo Ã§a
aliz a
aliz adas
man n
Ġad m
Ġ6 5
Ġleg endas
Ġum or
Ġrealiz adas
Ġcad enas
Ġnav ala
Ġdic cionaris
Ã³n her
Ġ195 6
Ġcontrar Ã²t
Ġ191 0
Ġquarti er
ĠLu xemb
Ġabandon ar
Ġparlament Ãłria
Ġmain ats
ĠGener al
ĠGener ala
Ġmecan isme
ĠpÃ²s tes
Ġassai Ã¨ron
ĠlanÃ§ ar
Ġran donn
ĠcomplÃ¨x e
Ġcontemporan Ã¨us
Ġauton Ã²m
Comp ren
Ġcomand ant
ĠInternacion ala
Ġquat ren
Ġcrom par
ĠPremi era
Ġrepert Ã²ri
fiqu en
D els
P res
o od
o cean
s c
s h
Ġc Ã¨r
Ġc ou
ar isme
er y
Ġla ter
ent ar
Ġf Ã¨stas
Ġn es
Ġn ascuda
el ement
Ġb Ã²n
Ġb aia
Ġcom m
ĠS ir
ch el
ir ar
av esque
ĠF land
Ġpo esias
Ġtra u
ĠD ins
Ġsa un
Ġres ult
Ġcons ol
od in
od Ã²
ex ans
Ġrec ent
ib Ã¨rt
oss a
ĠCh in
lu Ã²c
olog icament
esp anh
Ġpla cas
Ġdom inat
Ġgrop es
Ġemp res
Ġfil s
Ġmen adas
Ġexp lic
Ġpresent at
In ici
Ġcast Ã¨u
Ġconqu istas
Ġfavor izar
Ġ195 9
Ġmont s
Ġponch s
Ġdub Ã¨rt
Ġaument ar
Ġadop tada
Ġpresid Ã©ncia
Ġfru ches
Ġcollec tiva
Ġfol cl
Ġescamb i
ĠBi bl
americ an
Ġbearn Ã©s
Ġbaiss a
Ġreda ccion
Ġdiri giguÃ¨t
ĠAntoni o
aucup acion
A par
C ad
P Ã¨ire
T e
f i
i i
r ors
Ġl ect
te st
Ġp Ã¯
Ġc rÃ¨
er os
er Ãł
or tacions
om ica
am o
gu i
Ġb uta
ant h
âĢ ĵ
Ġo g
Ġr Ã²cas
ut Ã¨t
ĠA is
ot t
di ans
ÃŃ cias
av Ã³
ĠT rib
ac adÃ¨mia
Ġpo etica
ĠD a
Ġar riu
de ish
Ġtan g
Ġcomp rom
Ġdon an
Ġdem ission
Ġdo ctor
Ġro t
ros ament
Ġdire ctament
Ġvol er
Ġst res
Ġdom Ã¨ni
Ġtrob a
Ġmete or
Ġco re
Ġcr Ã©isser
Ġinf in
aur ent
arg ar
ÃĪ ran
ĠFranc s
Ġliber at
Ġestabl ir
Ġ192 9
Ġmass as
Ġsuperi ors
Ġfigu ras
Ġcomple ta
Ġadap tat
Ġsobei rans
âĢĿ .<|
ĠVen Ã¨cia
Ġcinqu anta
ĠPen insula
Ġcic l
Ġaga ch
I S
c Ã¨t
e me
l oss
Ã ´
en ry
on st
Ġa ic
Ã¨ its
Ã¨ van
an y
Ġs aut
Ġc ants
in al
Ġf ert
Ġv endre
am e
Ġcom itat
ti Ã¨rs
im s
Ġr aras
ĠM u
ĠM unicip
ĠS ev
Ġan terior
ens as
ĠR ab
ĠR ed
ĠG aul
ĠL ev
iÃ¡ s
Ġent au
Ġcap Ã¨la
ĠN elli
Ġli uras
Ġpre tz
ida e
Ġmar rit
Ã²l is
Ġplan as
Ġfranc s
Ġtres aur
Ã²n is
ĠLa b
ĠLo u
Ġdesc riu
ĠW ashington
aqu ia
Ġon cle
Ġvis it
Ġresp ondre
Ġlig a
Ar rib
In ter
Ġapar eguÃ¨ron
Ġnatur als
Ġtre b
Ġarrib at
Ġblan cas
Ġdich s
Ġ195 5
Ġalemand as
ĠtÃŃtol s
Ġbritan ics
Ġviol onc
Ġmateri aus
Ġconselh iÃ¨r
Ġparla va
Ġcros ats
Ġfrequ Ã©ncia
install ar
Ġden om
organ isme
ĠCamb ra
Ġsobeiran etat
Ġevol u
ĠDep artament
Ġcolom nas
Ġcollectiv itats
environ ament
Ġconflu isson
Ġrecer ca
interpre tacion
arquit Ã¨cte
' .<|
A z
C as
L es
S anta
V ol
e das
n on
p at
t ant
Ġ +
Ġ uc
an es
Ġs ir
Ġc ov
in vent
Ġm Ã¨stres
Ġes tet
Ġn ol
gu Ã©s
Ġb ro
Ġb uf
Ġcom ission
ti que
ĠC in
ul ui
Ġr enaissenÃ§a
ĠM ons
ĠM osc
Ġpar ad
ap lica
Ġan Ã¨t
Ġin con
ĠL ong
and e
ma in
Ġcap abla
ĠN ic
og ia
Ġres tac
em ergÃ©ncia
Ġparti ment
Ġcar ris
Ġ18 50
esc riu
od at
ex istÃŃs
ven ir
ĠCh art
Ġconst ruccions
Ġrev Ã²lta
Ġca f
Ġag rada
Ġens aj
Ġsub jÃ¨ctes
exp lica
ingÃ¼ istica
Ġrecon eguda
Ġjov ent
Ġfis ic
Ġinternacion alament
Ġ195 3
Ġcrit Ã¨ris
Ġbra ve
Ġcombat ents
Ġmarid ar
Ġcost uma
ĠMart ÃŃ
Ġdeclar Ã¨t
Ġamass ada
ĠbÃ¨l ga
Ġperman enta
Ġcateg orias
ĠGer man
Ġmad eish
Ġtesti fiquen
Ġcenten ats
ĠpluÃ¨ ja
Ġeb rieu
Ġrevira das
afond rament
ĠenqÃ¼ Ã¨ra
Ġsept entrion
Suc cediguÃ¨t
ĠAves nois
A M
A ust
G er
I C
T he
V er
V aquÃŃ
c omp
d an
d au
g al
j ol
v ador
end issatge
al ianÃ§a
Ã² ure
om an
au re
Ġv Ã²st
ol is
ti ble
im atges
Ã© isher
ad uras
ala va
id ats
ĠF eb
ĠL Ã©
Ġpo ir
ĠV ath
Ġtra m
Ġap ondre
Ġsi tes
Ġav ia
Ġmar rida
Ã³ isser
Ġimp lant
Ġne er
ven Ã§
Ġ3 6
Ġcan ad
ord in
Ġresp ectivament
ej aire
Ar mada
Ġorganiz acions
ĠpaÃ¯s atge
Ġindi ana
ĠFranc esc
ĠCatal unya
Ġterr Ã¨stres
Ġ192 4
Ġinc omp
Ġpremier ei
Ġacab Ã¨t
Ġ189 0
Ġprev ei
Ġaument Ã¨t
Ġcanta ira
Dem est
Ġenviron ament
Ġcapaci tats
Ġcompet Ã©ncia
esca is
Ġremarc ar
Fran Ã§a
Ġtemptat ivas
ĠNeg ra
Ġchif ras
Ġgeomet ria
ĠrevÃ² utas
M Ã¨s
b ona
j or
n ascut
u il
w an
y r
Ġ ilh
en z
at ia
at aca
al fabet
it ament
Ġv ib
Ġn is
el in
Ġdel im
ada ment
ĠM it
ĠP apa
ap as
Ġan ava
Ġan alis
ÃŃ der
Ġpro to
tan h
ĠF ra
ĠL am
Ġtra Ã§as
Ġtra dus
imp ression
Ġme me
ĠJ u
Ġaut oct
Ã¨c res
est ina
ex ili
ss e
Ġcre iss
Ġvi us
Ġcal iÃ¡
Ġcapit a
Ã²s te
Ġmod ul
Ġver teb
ĠTol on
Ġsub t
Ġagu esta
Ġve itura
Ġprodu ctor
Ġprepaus Ã¨t
Ġcin emat
Ġcrit icas
Ġ190 7
ĠCol le
ĠJos Ã¨p
Ġacab ada
Ġpet ita
Ġpot enci
Ġsau v
Con f
Ġelect rica
Ġdus au
Ġtele fon
Ġdiss ol
Ġbe utat
Ġorgan isme
ocrat ica
Or ganiz
Mar na
Ġdeclar acion
Ġinteg rat
ĠGra m
Ġinteress ant
idar itat
Ġvas ta
ĠMe decina
ĠMinist Ã¨ri
ĠMes opotam
Ġegipci ana
Ġvide oj
ĠNicol as
ĠOlimp ics
ĠPeit ieus
Ġdispos itiu
Ġtraject Ã²ria
Ġciviliz acions
N ES
P ass
l ong
u bre
u fa
w ard
on at
Ġp ist
al em
al ien
Ġt ap
gu ai
Ġr encont
ad eria
Ġpar lada
ot o
ens ivas
ĠB aud
Ġamb ed
ĠG aud
Ġsu ici
ĠE v
ĠV an
ĠD ra
Ġcont ribucion
Ġtot au
em arc
Ġab st
Ġab ril
ida cion
Ġac ad
Ġcar re
Ġra c
Ġu Ã¨it
Ġrec lam
Ġrel ief
ren Ã§
Ġele v
Ġad re
Ġad vÃ¨rs
Ġ5 5
Ġmete isses
Ġrd re
Ġcr isti
Ġart icul
Ġconstitu issi
ĠtÃ¨r Ã§
Ġten on
ĠMa ine
Ġarrib Ã¨ron
Ġ192 5
Ġcir const
Ġvend a
Ġnum eric
ĠprÃ²p ris
ĠReg im
Ġsau pre
Ġparte jat
Ġ184 8
Ġpresid ents
Ġquant itats
Ġquin z
Ġcatol ic
Ġcatol ics
Ġfran ci
ĠCros ats
Ġfilm s
Ġsubst Ãłncia
Ġjus tific
Ġcapt urat
Ġscientif icas
Ġrescont re
Ġpreced ents
Ġlun ar
ĠConstantin Ã²ple
ĠGeor ges
Ġdifici l
asp Ã¨cte
Ġborges iÃ¡
osau res
Ãºst ria
) :
E m
u als
v eire
es tes
Ġs Ã²m
ar em
ar istocrÃłcia
at j
al ia
Ġf al
it ima
Ġes fÃ²rÃ§
Ġn cias
gu Ã¨
Ġg or
ĠM Ã©
ĠS ag
ĠP ichon
ĠB abil
Ġj ac
Ã¡ s
ĠR io
ĠD al
Ġh Ã²rt
Ġh usta
Ã¨g is
Ġest ud
Ġra ion
Ġor ala
Ġoccitan istas
Ġmes urar
Ġvi rada
Ġele i
Ġass ist
Ġpopul ars
ier as
Ġob s
Ġcapit an
Ġprod utz
Ġpla Ã§as
ĠAl f
Ġver da
Ġgl Ã²b
Ġof r
Ġco er
Ġens ajar
Ġdev iÃ¡n
riÃ¡ n
ĠcomenÃ§ at
Ġmant uas
Ġart istic
Ġsab Ã¨m
Ġ193 1
Ġ193 7
Ġ193 8
Ġsimp l
Ġsimp les
Ġsec rÃ¨t
Ġaj ust
eish en
urb an
pl omb
Ġsosten gut
Ġveg ada
Ġ188 0
ĠTr ÃŃpol
Ass ociacion
Ġabandon ada
Ġdeves ida
Ġpopular itat
Ġarb it
cta v
ĠLib er
ĠdesplaÃ§ ar
Ġpros per
ĠVic t
Ġdej Ã³s
Ġmarch ands
Ġtesti fica
leu ve
Ġmediterran Ã¨u
ĠrenfÃ²r Ã§ar
T en
a xe
l atge
u alas
v etz
Î µ
Ï ĥ
Ġ ×
on f
Ġc Ã¨rt
ar de
Ġf at
Ġf antas
ic alas
am assa
Ġn ost
Ġn ais
ĠC Ã²n
ran da
ĠM et
ĠM alh
ĠS ul
di u
ĠG or
ĠF ol
ĠT orn
ac um
ĠI b
oc ats
art icles
int ura
Ġch uc
Ġcaus ar
Ġfam osas
Ġvi Ã¨lhs
Ġdef ug
Ġat mosfÃ¨ra
Ġaf ront
Ġtrob am
Ġmen at
ĠCom m
ĠCom te
Ġbar re
Ġrealiz ats
Ġfl am
Ġfas as
Ġfi al
inat or
Ġve ituras
Ġpos terior
Ġprepaus at
Ġameric ans
Ġsin ta
Ġtal ent
Ġconserv acion
Ġdet alhs
Ġbritan icas
Ġrespons ables
Ġbalh Ã¨t
Ġdesign at
Ġmilit ant
Ġelect ric
Ġjut jament
ox id
Ġmusic al
ĠTe od
Ġmain atge
Ġdesapar egut
Ġlegislat ivas
Ġmic ro
Ġestatsunid enc
Ġinterpre tacion
Ġdedic ada
ĠComun autat
Ġcirc ons
Ġcot on
Ġmir alh
Ġpent ru
ĠvÃ¨s pre
ĠTrenc avel
ĠGaul le
ĠMesopotam ia
D ev
G rand
R o
a ge
c f
s as
u gas
u tada
Ï Ħ
Ġ it
Ġ âĢĻ
Ġl ir
es u
Ġm osa
Ġla va
Ġf ederacion
om s
ri ment
am on
ta in
ro it
Ġcon cili
Ġo d
Ġo v
et o
Ġr Ã²ca
ĠS NC
Ġpar as
Ġpas tor
ĠB oss
ĠB atalha
ĠB asses
Ġin tra
ĠV illa
ĠV iet
Ġtra ch
ĠD ani
Ġcomp at
Ġpre dic
Ġpres s
Ġdon ant
ex emp
Ġrec ents
Ġtr enc
Ġpol ici
Ġpol em
Ġbas ca
Ġmil iÃ¨rs
esti m
ĠK han
Ã²st s
Ġlim ita
Ġsuc ced
cis me
Ġvis ibla
ure ccion
lat ion
ĠRo y
Ġren onci
Ġsec cions
ĠCatal ana
Ġ192 2
Ġsent ir
Ġadminist racion
Ġparte ja
Ġbat alh
Ġcav als
Ġapert eni
Ġacom enÃ§
Ġavent ura
Ġperf eccion
cles i
ĠsÃ² cis
Ġacompanh at
Ser Ãł
Ġestend uda
ĠCant al
Ġprigonda ment
Ġtribun al
Ġparci alament
Ġdivid it
exec ucion
Ġot ÃŃs
Ġguitar ra
Ġdiscuss ion
Particip Ã¨t
Ġlibert ats
Ġenvir ons
D enis
e it
z at
Ġ Ã©
Ġde tz
Ġe ca
is at
Ã¨t i
ol esc
Ġre mira
ĠS et
ion e
ch ev
la b
ĠB ell
ĠB orb
Ġin nov
ĠR Ã²se
ĠT Ã¨r
Ġent itat
ass ion
Ã¯ ca
Ġtra cha
ĠD un
ĠD rech
og l
Ġaquel eis
Ġres Ã¨r
Ġab itacions
Ġesp or
oc antas
ĠcÃ² l
Ġimp lic
Ġesc ala
Qu an
ilh ariÃ¡
olog ie
par ta
Ġconf ondre
Ġutiliz an
ten guÃ¨t
Ġconsid Ã¨ran
Ġcr isis
Ġexp rim
Ġexp ression
Ġexp los
Ġmant Ã©ner
Ġconsider able
Ġno iri
Ġves on
Ġarrib an
isi ologia
Ġistor icament
eau x
Ġmat Ã¨rias
Ġpract icament
Ġ191 3
Ġdomin anta
Ġcoll Ã²qui
Ġacc Ã¨s
ĠCl audi
Ġbalh at
Ġ184 0
Ġjut ges
Ġobserv ar
ĠTe atre
Ġfut ura
Ġmodific acions
ĠreÃ¼n ion
Ġfortific acions
Ġbot an
Ġindepend ents
Ġreconst ru
Emp eraire
Ġestend ut
Ġabsol ut
Ġdiu ers
Don cas
ĠbÃ¨s tias
Ġnaz i
Ġvescom te
Ġrespect ar
Ġdecenn i
Ġcrat Ã¨r
Ġencarg at
empach ar
A st
c or
d ura
f el
i Ã³s
l lia
o ir
Ġd ou
Ġde riva
Ġa ire
Ã¨ des
end i
is ter
Ġlo a
Ġf ina
Ġf leuve
Ġn autres
Ã¨r ba
Ġb assas
Ġal l
ĠS m
Ġan teriora
Ġpr ol
ge y
orn a
aut ors
ĠI t
Ġpel lic
ost als
alh ors
bre mb
Ġdon ava
ed it
int ens
Ġform acions
ilh at
ep res
Ġ3 3
ĠCh ap
ĠAn dre
ĠAn cian
Ġdesc riure
Ġ4 8
Ġsoci au
Ġer ror
ret ze
mes es
Ġba il
estat ua
Au gust
Ġtradicion als
Ġdint ra
Ġle on
Ġle ctor
Ġvall on
Ġparticular itat
Ġfond ar
Ġprepaus ar
Ġdeban arÃł
rem ont
Ġestabl iment
Ġemb le
arrib a
Ġesqu ich
Ġcomerci alas
Ġquim ic
Ġescrich as
Ġoccident al
Ġunivers itats
Ġgovern ament
Ġmit ans
Ġdefinit iu
Ġjapon esa
Ã¨mi as
ĠconcÃ¨p tes
ĠavanÃ§ ada
ĠPrimi Ã¨ra
Ġmaxim um
Ġgrav itacion
ĠEr n
Ġargent in
ĠSi ria
Ġfacil itar
Ġproble ma
Ġreven ge
Î¿ ÏĤ
Ġsequ Ã©ncia
Ġefec tius
ĠGeorg ia
Ġnue ch
Ġpartenari at
ĠtÃ²c at
ĠLuxemb org
C or
E d
F A
O pausÃ¨t
P ers
b iliz
d its
f ord
g l
h r
Ñ Ģ
Ġ Ã²rdres
Ġd Ã¨u
Ġl emosin
on es
te a
Ġp av
at ori
in Ã¨a
Ã² dis
Ġcom eta
ro y
Ġo u
Ãł isser
Ġpar gue
ĠA RN
ct itud
ĠR ay
ĠF ederacion
ici ana
ĠL em
ass emblada
ĠD ar
ĠJ aur
Ġpl uma
Ġcar din
Ġesc ri
Ġcons ist
Ã²l h
Ġrec ampa
ĠH itler
Ġrep legar
Ġsol ara
Ġprin c
Ã¨n us
Ġsens e
Ġtemps es
Ġad ult
Ġconst anta
Ġmus icas
Ġcos in
Ġel lip
amp s
Ġmet Ã¨t
Ġperi od
Ġpublic acions
Ġespeci al
Ġmi Ã¨ja
Ġten nis
Ġef iÃ¨ch
Ġtre bol
Ġcambi at
Ġost au
Ġprodu ire
Ġge ografia
Ġ191 2
Ġenter rat
Ġconten on
Ġcost umas
duc cions
Ġmost rÃ¨t
Ġta ct
Ġrevolucion ari
Ġequip as
Ġobserv acions
oÃ¯ ssa
Ġoblig atÃ²ri
Ġportugu esa
Ġfront al
ĠWik im
Ġcement Ã¨ri
Agu est
ĠbÃ¨s tia
ĠBourg ogne
Ġdescend ents
ĠLet ras
Ġinspir at
ĠFrancis co
Ġvess ant
avitalh ament
U E
o di
r Ã²c
s Ã¨gle
u y
Ġde guda
Ġp ion
Ġs Ã¨rra
Ġc e
al u
Ġen j
Ġn ion
Ġn af
ant ic
Ġr ena
ut h
ĠM c
ĠS ens
ĠS up
la y
ap ond
ot h
ter re
ĠR i
Ġpr Ã¨mis
ĠF ar
ĠF orm
ĠT y
me d
Ã¨rs as
ĠI EO
Ġres Ã¨rva
em ission
ag ar
Ġab it
les es
Ġra is
Ġcons ul
Ġor gans
ard ins
Ġcam ba
ĠH istoire
Ġmunicip i
Ġsol ide
Ġcre m
Ġcre ish
Ġch imp
ric e
Ġman dada
Ġcent enat
Ġcor rupcion
esp el
ĠK en
Ġ4 4
Ġaf ect
ital ian
Ġtrabalh an
gi o
Ġcontra cte
Ġvis ible
Ġpren ent
Ġactu als
ĠIn stitut
Ġbast issas
ĠVal Ã©ncia
Ġindi an
ĠlingÃ¼ ista
Ġsosten guda
ĠpÃ¨r dre
ĠCan al
Ġcros ta
Ġjut ge
Ġident itat
Ġmusic au
Ġconstitucion al
Ġconta ct
Ġminor itats
Ġmodific ar
Ġmalais ada
Ġopaus at
Ġproced iment
ĠInternacion al
Ġmonast Ã¨ri
Ġfotograf ias
Ġauc Ã¨ls
Ġinterp ret
Nas quÃ¨t
ĠViet nam
ĠtÃ²cat ocantas
A th
V ila
a ter
j unt
m ina
p ic
v era
z er
® n
Ġ iras
Ġd orm
Ġl ent
Ġp enda
Ġc ans
Ġc ents
at as
at ra
Ġm ilh
au b
Ġv als
Ġre ci
Ġb icicle
ĠC ic
Ġson da
ĠS om
ĠP ri
ĠA ran
ac as
ov a
ĠL on
En t
ari at
ond uda
Ġentre presa
Ġac tius
Ġaut onomia
Ġest amp
Ġfin au
Ã¨ss en
Ġcaus ada
gan istan
aliz Ã¨t
Ġgr Ã¨gas
Ġdeb it
Ġleg end
Ġlim itats
Ġnacion alisme
Ġrepresent ada
Ġconsider adas
Ġ14 0
af ar
Ġren om
Ġfoncion aris
Ġ193 5
oni ers
Ġfus ada
Ġcant ons
Ġcat ast
Ġ192 8
Ġsent iments
edi r
Ġprim ari
Ġquarti Ã¨rs
Ġcomerci aus
Ġbat alhas
200 7
Ġpossed isson
Ġvir us
Ġden onci
Is raÃ¨l
Ġcell ula
gul ara
ĠGr Ã¨cs
Ġip otÃ¨si
ĠÃ¨ uros
Ġram aderia
arres tar
atac ar
ĠCop a
ĠCalif at
explor acion
Ġdign itat
ĠCapit Ã²li
Ã³r rer
Ġcomparas on
ĠSNC F
" ),
' "
F ranc
M or
P ens
c ut
s en
Ġ isser
en qu
Ġl hi
Ġp omp
Ġc Ã¯
in cl
Ġv ul
Ġv ern
Ġen gan
gu ec
us cul
Ġdel ic
ol as
Ġb os
le vat
ĠC ompanh
et t
ur n
Ġpar am
di re
ĠB elle
id rogÃ¨n
ge ois
ha el
ĠF ern
ĠF eder
ĠT el
ĠT hi
Ġpo irÃł
Ġte matica
Ġcap itat
ass assinat
ĠD ia
ĠD iv
eu f
Ġar quitect
Ġar quit
Ġpres es
Ġav esque
Ġra ment
esc laus
Ġpu Ã¨g
Ġpa is
fer ica
aquel Ãł
Ġch al
pul sion
An ti
ĠAn at
Ġro ges
Ġcas a
Ġ4 7
aci ds
Ġinter Ã©s
Ġliter aris
Ġtradicion au
Ġorganiz a
Ġorganiz ats
ĠRe ich
Ġtecn ologias
Ġparticip a
ĠCons erv
Ġext rÃ¨m
Ġindi ans
Ġjog at
Ġbl ind
Ġem ig
ĠprÃ²p rias
urg ia
iste ix
Ġban l
Ġdefinit iva
Ġcaval ariÃ¡
ĠprovenÃ§ ala
Ġeiss its
Ġgrav itat
Ġjuri dica
ĠQ ing
Ġanonci Ã¨t
ĠMac ed
Ġparis enc
Ġreiau mes
ĠGÃł llia
UR SS
ĠtelescÃ²p i
Ġemper aires
' ,
D esp
G ener
M ari
O cean
m al
n ar
p os
p ols
r Ã¯
r dia
u ch
Ġd Ã¨
Ġc la
Ġc Ã¨rta
Ġm ist
Ġm ud
Ġm istral
un ivers
Ġun if
ri Ã¨rs
el as
ta ire
Ġb is
Ġg olf
Ġal t
Ġal as
ĠP or
Ãł m
ĠB os
iv ier
ter s
ĠR ad
Ġent rÃ²
eu il
Ġcomp lic
aut onomia
Ġres um
Ġres Ã²l
Ġesp Ã²rt
Ġreg ent
Ġcons ens
Ġu Ã²us
ĠO cean
Ġcre is
ĠÂ» ).<|
Ġdiv essa
esp ectacle
Ġvol Ã¨tz
Ġconf orm
enÃ§ ament
Ġer Ã¡
Ġ7 00
Ġespeci ala
Ġmajor as
Ġtecn ic
acab Ã¨ron
Ġdob Ã¨rta
Ġfis icas
Ġtor res
ĠlingÃ¼ isticas
Ġnecess aris
Ġmondi au
Ġnaut ors
ĠprÃ² ches
Ġmer av
Ġpot z
Ġespaci al
Ġviol on
ĠNacion au
Ġfot ografia
Ġaument a
Ġcontun iar
Ġgar an
acc ent
Ġmul ti
Ġpref aci
ext ension
Ġtalh iÃ¨r
Cap itÃ¨t
Ġvolcan ica
ĠAra bis
Ġexc ell
Ġcontribu cions
Ġconsac rat
ĠÃ§ o
Ġperm Ã©s
Ġafric an
Ġmars elh
icis me
oper acions
Ġexclus ivament
Ġrepublic an
Ġvore jat
Ġfic cion
Ġbac teri
esten al
Ġrecom anda
ĠCatol ica
Ġindo europ
% .<|
A ri
B ern
B eau
I mp
J ul
S ovent
e ja
r istian
u au
v ing
Ø §
Ġ ic
Ġ ign
en em
te ti
Ġa Ã§Ã²
Ġs av
qu en
Ġm ina
or o
ra ments
it t
Ġt ien
Ġv ign
Ġg otic
ins pir
ĠS us
Ãł via
ĠA ri
Ġpro j
Ġpro ject
Ġpr end
Ġpr Ã©ner
ĠF lam
ĠT an
ac ta
Ġent raÃ¯na
ĠJ au
Ġmar ges
Ġac us
Ġac ost
Ġreg iment
Ġparti guÃ¨t
Ġser ada
elh as
Ġfin anÃ§as
Ġcomun s
Ġass im
Ġass ass
Ġdef un
Ġfor Ã§ada
Ġqual itats
Ġaf irm
Ġcan ons
Ġvis itar
arn acion
Ġcompaus an
ĠcÃ²r da
Ar n
Ġsign ificacion
Ġmov iment
Ġint rodus
inf lu
Ġfoncion ar
Ġvic epres
Ġarrib ada
Ġvari ats
Ġlimit adas
Ġparticip at
Ġdescob Ã¨rtas
ind ica
Ġciv ilas
tim ologia
Ġmand ats
Ġterr Ã¨stras
Ġorigin au
ĠGrand s
Ġperd uda
Ġ189 1
Ġsau p
Ġquim ics
ĠpÃ²rt s
Ġpresid enta
Ãĩ aquelÃł
Ġsigu eren
ĠlÃ²n ga
ĠmiÃ¨g jorn
rof ich
Ġvenc eires
adem ia
ĠMari e
Pre mi
Ġfug ir
Ġracon tes
Ġaprofich Ã¨t
ĠFab re
Ġespandi da
Alex andre
ĠOtom an
ĠOst al
ĠProvÃŃn cia
ĠApol lo
elab oracion
ĠJaur Ã©s
M arc
O ngria
P els
R ob
c amin
i bre
Â ´
Ã ¹
Ġ ond
Ġ ille
Ġde ts
on ada
Ġp iren
Ã¨ iras
Ġs anta
Ġc uÃ¨
in u
Ġqu ala
Ġqu Ã¯
Ġt ria
au le
Ġes tiu
ri ge
Ġre Ã¯n
Ġb Ã¨las
Ġb otar
Ġg at
ai x
ĠC omb
ĠS ara
Ġmai tes
Ġin teriora
ĠR af
ĠR iver
Ġsu pausa
ici t
me te
and as
ĠN am
ĠN os
ob a
aut it
Es per
Ġpres oniers
oc al
Ġac or
Ġac arn
Ġpu Ã²i
ex cepcion
Ġtemp les
Ġne ol
Ġpol im
Ġpass atges
Ġto ti
Ġenc reu
Ġdiv endres
ĠCh ab
An n
ĠFran k
ier at
Ġat Ã²ms
Ã¨rn es
ĠW al
Ġmete issas
Ġef Ã¨it
ĠMon te
avant atge
inh ar
Ġge ografica
Ġvict ori
Ġ190 8
Ġdim ars
Ġ186 6
Ġdemand as
iÃ¨ re
Ġprogra m
to ine
Ġdub Ã¨rta
Ġempleg ar
Ġvaria das
Is la
ĠGal il
ĠpoiriÃ¡ n
Ġliura ment
Ġpreced enta
Ġperc ors
Ġprivil Ã¨gis
Ġestrangi Ã¨rs
Ġderiv at
Ġengat jament
ĠDan emarc
Ġchar te
Ġregard ant
aliment acion
Ġgasc ona
Ġbizant ina
Ġbrasil iÃ¨r
Ġaucup acion
franc Ã©s
Ġdenom inacion
B a
L A
M ichel
V ic
v on
Ġ ondas
en adas
en cha
te la
an ava
ar p
ar et
at o
re y
Ġm ie
or l
Ã² re
Ġf Ã²nts
Ġqu art
Ġes quel
ri fic
Ġv ot
Ġen ro
am ina
ĠC er
ĠC alais
et Ã¨t
ĠM euse
ĠS erv
Ġpar rÃ²
ab a
ac tes
ĠN atur
ĠD am
op ro
op inion
Ġfa una
Ġex puls
ag net
Ġh ra
ult ors
ip p
Ġpass ats
Ġlu chas
Se ine
Ġam ino
Ġcomun itats
Ġsegu isson
ĠAn autita
Ġqui as
Ġdesvolop a
Ġdeb ats
Ġbasti guÃ¨t
ĠRo an
Ġmot ors
Ġdefin ida
Ġcomb inason
ĠZ h
eri es
Ġactiv ament
Ġ195 7
Ġnomen ar
ĠCl aude
Ġcob Ã¨rta
Ġganh at
ocup Ã¨t
Ġmanten ement
Ġpossed issi
Ġaccep tat
Ġunivers itari
Ġcapt ura
ĠSu peri
Ġrib as
Ġrib os
ĠVic tor
Ġapel ada
obl ig
Ġfortific ada
ĠbÃ²s ques
Ser iÃ¡
Ġfla ca
Ġdej Ãł
Ġnavig acion
ĠpluÃ¨ jas
Ġespecif icas
ĠresÃ¨r vas
Ġprinc essa
Ġchimp anz
Ġencreu ament
G l
e Ã§
f e
g ada
n an
p t
r omp
s ter
Å ¡
Ġd ent
Ġa xe
Ġc od
Ġe uc
Ġla us
or es
is ica
ra v
Ġlo p
Ġt ar
Ġt Ã¯
Ġt ort
Ġv ath
Ġper don
am ilha
Ġn an
Ġb erb
Ġcom er
le ans
ĠS tan
ĠP equ
Lo ÃŃs
Ġpar elhs
ter r
id Ã¨as
Ġte maticas
ĠN aut
Ġau p
Ġcont ro
em en
Ġmar in
Ġmar ques
Ġaut omob
Ġimp er
Ġu Ã¨ch
ib er
Ġch au
ĠLa g
ign on
Ġad onc
amb a
Ġrev ision
Ġesta di
Ġgr oss
Ġver ai
ĠâĢ ¢
Ġdest rus
ĠJo hann
Ġnacion alistas
In t
exp rim
Ġret ard
Ġret orica
Ġef Ã¨ctes
Ġparticip ants
Ġconv ert
inst itucion
Ġend e
Ġend acÃ²m
Ġcat ars
Ġ187 8
Ġ195 2
Ġ192 3
Ġreb ell
Ġvict Ã²rias
Ġnaut s
Ġ190 6
estudi ar
ocup a
Ġaccep tada
Ġpont s
Ġproteg it
Ġpobl at
Ġinform acion
esqu ina
Ġprofession ala
Ġglaci Ã¨rs
Ġsuperior as
Ġpoiss anÃ§as
ĠDom in
Ġapel ats
ĠbilingÃ¼ e
Ġed itat
oqu im
Ġartifici ala
esple itacion
Ġcerem onia
Ġperp et
Ais ne
Ġpeleg rin
Ġremont ar
ĠFeb us
ĠBabil Ã²nia
C lau
M I
N o
O ccident
T ant
c y
f es
f ond
h al
i ografia
m ad
o da
p id
s ud
z y
Ġ Ã¨ster
on tan
Ġc orn
Ġc oc
Ġc itar
qu ier
re ta
Ġe clesi
Ġlo as
Ġqu ista
Ġun iversitat
au e
ĠS ta
ĠS ib
ĠS egu
ur t
ur ala
Ġj Ã²
Ġj aci
ig re
Ġdes ert
ĠF l
ĠV Ã¨nus
Ġme xic
Ġcomp Ã²rta
Ġli ures
ĠfÃ²r ts
art istas
art icul
ss on
ĠH enry
Ġ3 2
Ġch eval
Ġat mos
ĠGu y
Ġinter net
Ġpla Ã§ar
Ãº ss
Ġgl Ã¨isas
Ġfil ogen
Ġz Ã¨ro
Ġer Ã²i
Ġliter Ãłrias
Ġten guÃ¨t
Ġsab le
Ġdec r
Ġfas Ã¨m
Ġfem Ã¨la
Ġsimp las
Ġsegond as
ĠvÃ¨rs es
Ġmo tius
Ġmerc ats
Ġassoci ada
Ġis rael
Ġcompl Ã²t
Ġcompl Ã¨ta
Ġ187 6
Ġ191 1
200 6
Ġoccident alas
ĠEurop Ã¨u
Ġcorrespond Ã©ncia
Ġtransform at
Ġfrequ enta
Ġps eu
Ġquauqu eis
Ġsia guÃ¨t
Ġcandi d
Ġcri da
Ġmur alhas
Ġimperi au
ĠauriÃ¡ n
ĠLen gas
ĠTur quia
Ġruisseau x
ocra tes
ĠPu Ã¨g
Ġsuccess ors
Ġhtt ps
Ġpedagog ica
Ġarrond iment
Ġpassej ada
Ġexemp les
Ġrapid Ãłment
ĠMiqu Ã¨l
Ġprotagon ista
Ġjuris diccion
Ġuc raÃ¯n
F orm
P rimi
S erv
c ons
d os
f Ãłcia
g re
Ġs iti
in vencion
al in
Ġf os
Ġqu als
Ġt retze
ri guÃ¨ron
il d
ol ada
Ġg i
Ġ1 19
Ġ( .<|
ĠC el
ran ge
et icas
ut or
ĠS oÃ¯ssa
ad iÃ¨r
Ãł cias
ĠB assa
Ġin de
Ġpr uss
ac le
ac ompanh
ĠL l
ĠV as
ĠV ars
Ġap pel
ĠN il
de z
op t
Ã²t les
Ġven gudas
art he
aire ben
Ġcons ult
Ġpa ys
Ġter ra
ĠH el
th ur
Ġne ur
Ġ3 4
Ġch as
Ġtorn Ã¨
Ġfon ccion
Ġpermet rÃł
volop ament
Ġconf ond
Ġestat ua
Ġgl Ã²ria
Ġvis ibles
ang el
Ġprop osicions
Ġniv Ã¨us
ĠCar l
ĠCar cin
Ġrecon quist
Ġorganiz Ã¨t
Ġpon tan
Ġpra das
Ġconv ersion
Ġsal var
rÃ² va
Ġdirig its
Ġsent ier
Ġnorm al
ĠJos ieus
Ġdecis iva
ĠAng lÃ©s
Ġchin esas
Ġunivers ala
Ġflu me
Ġensenh ar
Ġdipl om
ĠcomplÃ¨x es
Ġmodern izacion
Ġneut re
Ġreven guts
Ġsubs isteix
Ġier arquia
Ur gÃ¨l
ĠDic cionari
ĠMiqu Ã¨u
ĠcÃł mbia
Ġbandi Ã¨ra
ĠNad al
Ġsued Ã©s
ĠSuÃ¨ cia
ĠCerc le
Ãºss ia
% )
B el
D int
S egu
T ol
a un
a ctors
h Ã¨r
n os
w in
Ã Ģustria
Ġ Ã¨re
Ġd ralha
Ã¨ ve
an ges
Ġs Ã¨ria
ci ans
in telligÃ©ncia
Ġm Ã¨tre
Ġt ua
om e
Ġv ue
Ġv Ã©ser
am s
Ġre gu
Ġb ri
Ġb endas
le ts
ĠC au
ei a
ĠS ha
Ġpar o
ot in
ĠB az
ĠG av
ĠV is
ass ic
Ġtra g
Ġap aricion
eu m
Ġtan gs
Ġau ien
ĠI mp
oc acion
Ġesc ura
Ġpu jada
ĠO p
Ġmon ta
ĠH al
ĠH omo
Ġ3 7
Ġfor est
Ġperson alitats
ĠAl pes
Ġcamp anal
ĠAr ts
Ġdarri ers
Ġer as
Ġnacion alista
Ġneg atiu
Ġno i
Ġsim et
ĠMon de
Ġvari acion
ĠentraÃ¯n ada
Ġev esque
Ġdob Ã¨rt
Ġmag ist
ĠlingÃ¼ istics
Ġ192 7
Ġdaiss i
Ġdaiss ant
Ġpremier eis
Ġdemand at
Ġdinas tias
ĠAb b
Ġquim ista
Ġcontinent ala
Ġrefus a
Ġessenci ala
Ġconstitucion ala
Ġcontinu itat
Ġeiss ida
ĠPrimi Ã¨r
Ġplat af
Ġdistric tes
Ġgerman ique
abandon ar
Ġcalc aire
ÃĴr dre
Ġlabor atÃ²ri
ept un
Ġsufra gi
ctav ius
A F
C R
N orm
P l
f ins
g h
k ing
u at
v ista
w iller
Ġ ult
Ġp Ã©
Ġp Ã¨rsa
Ġa inat
Ġa qÃ¼
Ġs alas
Ġs Ã²u
is acion
it ans
au racion
ri ed
am ant
el er
Ġg aus
ĠC ond
ĠC aval
Ã²r da
ĠS ala
ad ia
ĠP Ã©
Lo c
Ġj ardins
ig h
Ġdes ta
ĠG a
ĠG abri
ĠF ay
ac amp
ĠE ra
Ġnom inacion
ĠD ie
imp lantacion
Ġar ro
Ġcomp ens
og un
op ausa
Ġvil le
Ġsi am
ĠI berica
um or
Ġav ions
Ġh orn
Ġh istori
Ġesc oc
Ġser Ã¡
ĠO b
Ġmon edas
rat rem
ult uras
Ġcl in
egu e
ou le
met re
Ġcent ri
Ġob ratges
19 18
ific adas
Ġconf igu
Ġcan cel
Ġco ire
ord an
Ġfu guet
Ġsim ultan
Ġofici alas
eng enh
ve ja
Ġend roit
Ġge ografic
âĢ¦ âĢ¦
Ġmont pelh
ĠÃ ®n
Ġ186 8
tern itat
ĠCor b
Ġpan or
Ġcop a
ĠVer ge
aument ar
Ġcamb ia
Ġunivers al
Ġflu eix
ĠPr Ãºssia
Ġdesfa chas
Am assada
Ġcaval iÃ¨rs
Ġprofession als
Ġmob ilizacion
Ġtop ony
ĠJul i
Ġol and
Ġdesb arc
ĠFlor enÃ§a
Ġair als
Ġperme ti
Ġdot at
Ġenem ic
Ġfid el
Ġrememb ra
ĠLau ra
Ġlingu istica
Ġsubrev iv
Ġesca is
Ben lÃ¨u
Ġprot oc
ĠPlat on
Ġtransmet re
Ġreparti cion
Ġerig it
A T
E M
F er
a guÃ¨t
m ita
Ġ ion
Ġd av
Ġa tes
ar tes
ci clop
in n
in atge
it ius
Ġper ceb
Ã¨r ma
ol itan
Ġre de
Ġg am
ĠC arm
ĠC uba
ul ars
Ġal fabet
ĠP eire
Ġpar tat
ens ag
ĠF al
ĠT rob
ĠT emple
ĠL hÃ¨
Ġnom adas
Ġtan h
Ġex periÃ©ncias
ess as
Ã²c an
Ã²c es
ĠO t
ĠO u
Ġdon Ã¨ron
ĠH ug
Ġ3 000
Ġlu ta
Ġlu ch
Ġch amb
Ġmil itants
Ġpla Ã§at
omp anha
Ãº dia
Son que
Ġserv iguÃ¨t
Ġist Ã²rias
Ġneg Ã²
Ġcompaus adas
Ġconsider abla
af ebl
Ar c
erg Ãłs
Ġroman icas
Ġves Ã¨m
Ġprote Ã¯na
Ġcors a
apar elh
az hon
Ġfre ma
Ġcolle ccions
Ġlib e
Ġinc ap
Ġproc essus
ĠgrÃł cia
Ġpen et
Ġbo ti
Ġ186 1
Ġcomunic ar
Ġ188 8
Ġprodus ÃŃs
ĠLu ci
Ġress on
ĠAm eric
Ġcomple tar
Ġessenci al
Ġfabric ar
Ġavent uras
ate d
Ġindependent as
Ġtrap an
ĠPal estina
Ġdol ars
Ġmatemat ician
Ġtestim Ã²ni
Ġleugi Ã¨rament
Ġneut r
Ġminim um
urre ccion
Ġmis teri
Ġcompr endre
Ġses ilha
Ġparis enca
instru ments
Ġdaval ada
Ġaccess ible
Ġdivin itat
Ġvest its
Ġaran Ã©s
Ġespand it
Ġdesemp uish
ĠPale olitic
Ġmagaz ine
Ġdefug ir
Ġpenda it
ĠLhÃ¨ ida
E t
E mai
I eu
M ant
R ev
S Ã¨m
f s
p osicion
Ġ Ã²li
Ł i
Ġl entament
Ġc il
ci ana
in ha
or ges
Ġf esti
ic ut
Ġt ension
Ġun ivÃ¨rs
Ġen v
am ar
ol and
ol ina
Ġ( âĢ
ĠC ad
ul es
ĠS ob
ur y
ĠP ra
Ġpar ent
Ġj on
Ġj ura
Ġdes li
ĠT ang
mi e
Ġap uÃ¨i
ĠN Ã²u
ĠJ Ã²rdi
Ġav ion
ida da
Ġest ent
Ġesc ur
Ġcons on
Ġcl imas
int rar
ep id
lu ÃŃs
Ġtorn Ã¨ron
Ġcapit al
Ġvol ums
Ġtrans par
Ġdesvolop ats
Ġver tad
mat ics
ef ica
ang les
Est ats
Ġneg ras
Ġ9 00
Ġcomb atre
Ġcer amica
anÃ§ ant
autre is
Ġfeb ri
Ġnecess ita
Ġmedi at
ĠnÃ² bles
Ġdirig idas
anc y
Ġ191 6
Ġdomin ada
Ġvend rÃł
Ġobten guÃ¨ron
Ġcompren eson
Ġsin onim
Ġant rop
Ġquit Ã¨t
Ġenter in
Ġ186 7
Ġconserv ar
Ġnorm ala
ĠCor ona
Ġmer ce
Ġaus ir
Ġdre ta
Ġabandon Ã¨t
anim al
ĠCent ral
Ġfondament ala
Ġaper ada
Ġsur plomb
Ġauton Ã²ma
Ġsuccess ius
ĠnuÃ¨ it
Ġproced ura
Ġprononci acion
Ġrecuper ar
ĠMil an
ĠcompanhiÃ¡ s
estan d
Ġmis Ã¨ria
Ġdistingu ir
Ġcarg ada
Ġinsc rich
ĠAust rÃłlia
Ġresol ucion
Ġaragon Ã©s
Ġjudici ari
associ acions
Ġcuirass ats
Ġprosper itat
I D
N T
c la
l adas
n Ã²u
r ari
r alh
y er
on ias
Ġp om
Ġp ista
Ġp iano
Ġa ti
ar cas
er et
at encion
qu Ã¨
qu ets
qu etas
re c
Ġm Ã¨i
Ġm Ã²rta
un al
un ch
Ã² bles
ri ament
Ġn Ãłisser
Ġdel h
ol les
Ġb Ã¯
Ġb lava
ĠC ou
Ġr n
ĠP laÃ§a
ica go
ab u
ĠR ef
ĠE le
imp acte
Ġar Ãłbia
ari da
Ġau x
Ġi per
ce ans
Ġh um
ĠfÃ²r tas
ĠcÃ² las
Ġaut ob
Ġcar as
Ġsitu an
Ġesc ad
est rech
est ructuras
Ġ18 00
Ġ18 15
esc ap
Ġmon ges
Ġdem ai
ed itor
Ġpol onesa
Ġsol eta
Ġcre ats
Ġdiv i
ĠLa v
Ġtorn ava
Ġfar ina
Ġcal guÃ¨t
Ġ4 6
Ġ4 9
Ġpla Ã§ada
Ġemp l
Ġco Ã¯n
ord at
Ġdest ruccions
Ġexp ressions
ĠCom enge
Ġconstitu ir
Ġmaj ors
Ġclass ificat
Ġrealiz ator
Ġsab i
exp osicion
exp los
Ġfl um
li quÃ¨t
Ġcarri era
Ġais ina
Ġconv ent
Ġmol t
az a
ĠvÃ²l i
eish enÃ§a
Ġestudi ant
Ġterr or
Ġvend riÃ¡
land esa
Ġcob Ã¨rt
Ġassegu ra
Ġtransform Ã¨t
ox igÃ¨n
Ġsh ogun
ĠSoci alista
Ġsimil aras
Ġmodific acion
Ġrus ca
Ã¨b res
Ġexec utat
ĠDi oc
199 8
Ġ180 1
Ġsort ÃŃs
este la
Ġcontac tes
Ġprogress iu
ĠavanÃ§ adas
ĠTor re
Ġcaud s
aven idor
ĠbilingÃ¼ isme
Ġapren e
Ġemple c
Ġaplic acions
ĠBan ca
apr endissatge
ĠPÃ¨rs ia
Ġincend i
ĠOtom ans
Ġbud get
Ġcald rÃł
Ġprojec cion
ĠMic hael
Ġferrovi aire
Quau ques
Ġconcurr Ã©ncia
ĠPed ro
ĠSenh or
Ġcristi anisme
Ġraion ament
D au
N i
N icol
R es
T C
c op
h is
m us
r enh
y es
Ð ²
Ġ ÃĪ
Ġd avan
on ar
te ra
Ġa h
as ta
Ġc y
ar que
ci Ã¨r
in Ã²
re ts
Ġm apas
is ia
Ġt ranqu
Ġen ri
Ġre Ã§
Ġb atre
Ġb ien
ti fica
Ã§ ant
Ã§ ons
ĠP le
ch et
ap arten
Ġpas ta
ĠB ab
ĠB erg
av ia
ĠE p
Ġte ologia
mi ans
ĠN u
Ġar g
Ġar ren
ec s
um ul
Ġfa gu
Ġex ili
Ġesp ecta
Ġesp ectacles
Ġreg rop
Ġreg arda
Ġven iÃ¡n
Ġesc otar
ĠH all
Ġtr ens
ip otÃ¨si
enh eim
Ġsol idaritat
Ġman ip
Ġtorn eg
ev ille
Ġass embl
Ġad ob
ĠAn tiquitat
esp ital
ĠK y
Ã¼ es
ĠGu inÃ¨a
ĠAl ps
enci ala
ord ar
ure l
Ġpat as
Ġdev er
Ġcr omat
Ġexp lici
Ã¨x es
aud an
Ġsegond ari
Ġparticip Ã¨ron
Ġcres enÃ§a
Ġocup Ã¨t
Ġfis anÃ§a
ĠsÃ¨t is
Ġmor al
ve y
Ġestudi at
Ġnecess Ãłrias
Ġfavor ables
Ġassoci ats
Ġrefer end
enn i
Ġsepar adas
Ġcob rÃŃs
Ġ189 4
Ġcertan s
Ġ188 2
200 4
Ġcab uss
Ġ185 4
Ġ185 9
Ġcomple tat
Dem or
Ġdetermin at
ĠLi ter
Ġvenc eire
Ġsep ara
Ġinvent at
ĠFelib rige
Tra balh
Ġvass aus
Ġcono iss
ĠPet it
TA N
Ġrecens ement
Ġreial mes
elim inar
Ġepis Ã²di
Ġcalif a
Jac ques
Ġdestri ar
ĠCÃ²n go
ĠBoss Ã²st
D in
G V
P R
P ont
a icÃŃ
c re
j u
v Ã¨rn
w ell
Ð ½
Ġ ÃĴc
Ġp leg
Ġla Ã¼
Ġt urb
om enat
da b
Ġn or
gu el
Ã¨r os
Ġg ess
Ġcon dus
Ġal iat
ĠM od
Ã²r nia
ĠP C
Ġan autita
ÃŃ bl
ab ar
ab adiÃ¡
ĠR eis
ĠF L
Ġte la
ĠV es
ĠV erc
Ġap p
En aut
eg o
um at
Ġfa ct
Ġres ta
oc s
Ġreg ents
Ġra b
Ġra Ã§a
Ġter rador
Ãłn d
ilh s
ven cions
ill ust
Ġdis ques
Ġcor por
ren ca
ĠMar ÃŃa
Ġrev ers
Ġinter vencion
Ġ5 6
Ġesta cions
Ġon gan
ish en
Ġz o
ord inari
Ġexp le
Ġexp osicion
Ġespeci fica
Ġneg lig
Ġba ill
Ġrecon o
Ġpon ches
Ġvari anta
Ġprote ctorat
aj ud
Ġnav Ã¨th
Ġsup rimir
Ġmor ÃŃ
ĠQu int
Ġdaiss at
Ġ186 4
Ġesper its
Ġprim ordi
Ġsepar ats
ĠAb baye
Ġsenhor iÃ¡
Ġorient al
eti cions
Ġgard at
Ġestran g
Ġroma in
Ġcompos icions
Ġmob il
onn ie
Ġsubst Ãłncias
Ġprec urs
ĠcomplÃ¨x a
Ġeiss it
ĠavanÃ§ ar
Ġterm odin
ĠCab ard
Ġvid anta
Ġdescon eguda
Ġdesen ant
organ ismes
Ġterritori alas
ĠAugu s
Agu esta
ĠIl las
Ġegipci ans
ĠKar l
Ġpresidenci ala
Ġcerv Ã¨l
elim inacion
ĠClar mont
escamb is
ĠTom Ãłs
Ġdispon ible
Ġasiat ic
ĠVers alhas
Ġaust ral
ĠasteroÃ¯ de
Ġremar ca
Ġog rap
NES CO
ĠGaud ÃŃ
Ġacad Ã¨mias
Ġpontan nada
Ġparo issi
A lav
M os
M entre
T exans
p lan
v ira
Î ¼
Ñ Ĥ
Ġ Ã²s
Ġd anÃ§as
en ga
Ġde ur
Ġp Ã²st
as e
of Ã²n
Ġc Ã¨u
Ġc icles
ar ar
Ġm eu
or y
ra ccions
Ġf Ã¨us
Ġt ib
am ic
el at
Ġre ala
Ġre dre
Ġb Ã¨u
Ġcon eisson
Ã© li
ul aire
ei ro
Ġr Ã²da
ad ora
Lo uis
ap lic
ĠA h
ot ÃŃs
Ġdes vi
Ġin tellig
ov is
Ġpo p
ĠE conom
Ġcap ablas
ort al
ob le
Ġmar gin
esc apar
ĠH ub
Ġri g
Ġcre ator
aquel eis
ĠCh icago
Ġsens ible
Ġsens ibilitat
Ġtorn s
Ġat l
ĠMar g
amb i
Ġ4 2
ori al
Ġdeb ut
Ġdev Ã¨m
ĠTol os
Ġdist Ãłncias
Ġespeci alistas
Ã¨x e
Ġno tacion
Ġrap Ã²rts
Ġorganiz adas
ĠMa o
Ġang le
Ġpra ub
ĠCons eu
Ġfis c
Ġmo di
Ġtor istas
Ġliber ar
Ġvertadi er
Ġcompl ir
Ġenf anÃ§a
Ġsent it
Ġjol s
Ġmass ac
ĠSa x
Ġacab a
Ġ189 6
Ġ179 1
Ġreti rÃ¨t
ĠPol it
Ġtol er
Ġfru chs
Ġtalh iÃ¨rs
ĠGener au
ĠAnd rieu
Ġmecan ismes
Ġindivid Ãº
len ga
Ġamass at
Ġvert icala
Ġdescon egut
Ġargent ina
Ġviat jar
Ġdemen ir
ĠComun ista
Ġrecuper acion
Ġsex uala
ĠdrÃ²l le
Ġconte st
Ġdiscipl inas
Ġgalax ia
Ġabitu alament
ĠUc raÃ¯na
escamb i
accep tar
Ġmanusc rit
Ġmori guÃ¨ron
ĠLar zac
ĠSatur ne
Ġcomplex itat
ĠentiÃ¨ra ment
ĠnÃŃvol s
intens itat
orl d
Tol osa
A j
D ab
E ure
M Ã²rt
n t
o in
r isson
s ens
s egon
z an
Ã ¥
Å «
Î º
Î »
Ġd Ã©
Ġa eron
an ca
Ġc ine
Ġc endres
er es
er upcion
ri ana
Ġv ejaire
Ġn ada
os ar
el lo
Ġse iss
ant ica
ant ariÃ¡
ĠC u
Ġal u
Ġal ong
ĠM ire
ĠS ur
ad en
ĠP h
ĠP ingo
iv i
iv itat
ĠG asc
ĠF e
ĠF ront
ĠT un
ĠT our
Ġent end
Ġent aus
and o
and er
ĠD ur
imp ic
Ġau b
Ġau di
aut on
Ġh ilha
Ġest Ã¨la
Ġcar oling
Ġesc lat
if iquÃ¨t
Ġrec entas
ĠH ay
enc y
Ġtr Ã¨va
Ġtr Ã²ces
Ġri tes
Ġmunicip ala
ĠÂ» )
Ġenc astre
Ġman i
Ġfar gar
Ġele ccion
Ġro Ã¯nas
Ġvol Ã¨m
Ġvol gut
Ġsoci ol
Aqu in
Ġperson es
Ġ12 00
bi as
bi guÃ¨t
Ġemp Ã¨ris
Ġag lomeracion
Ġer b
Ġref Ã²rma
Ġ8 5
ej at
ille t
ĠRo ta
aur us
exp licar
exp ortacion
Ġapar ar
Ġep Ã²cas
Ġcer e
ĠU l
ĠU ru
ĠpaÃ¯s atges
Ġcamin ar
ĠFranc eses
Ġdeban ament
rÃ² fas
Ġtrib ut
Ġ191 5
Ġnomen Ã¨t
Ġ190 3
Ġ186 9
Ġnorm alizacion
Esc riguÃ¨t
Ġdet los
Ġ189 2
Ġconselh s
Ġcanta ires
ĠBel f
igu ec
Ġcamb ras
termin acion
Ġcorrespond ent
Ġrevolucion aris
Ġtransp Ã²rts
ĠtravÃ¨rs a
Ġrestau rat
Ġregular s
Ġvint ena
Ġlegis lacion
ĠMag dal
Ġinflu Ã©ncias
Ġdestin ats
Ġcontemporan Ã¨u
Ġarres tar
Ġcron icas
Ġapel at
Ġort odÃ²
Ġabs orb
Ġdig loss
Ġceleb rar
Ġip ot
Ġproclam Ã¨t
Ġsignific ant
Ġaculh ir
Ġestrateg ica
Ob tenguÃ¨t
Ġcromp a
Ġier ogl
ĠPel op
Ġcolom na
Ġretra ch
ĠSci Ã©ncias
Ġinaugu rat
Ġprovis Ã²ri
Ġedifici s
Ġhem na
ĠÏ Ģ
escad enÃ§a
ĠmÃ¨ dias
Ġimmediat ament
Cad un
ĠDani el
ĠConserv atÃ²ri
Ġfidel itat
ÃŃbl ia
) ;
. ).<|
C au
C amp
D ieu
L R
N O
V Ã¨rs
f at
f ra
f ran
k al
u ti
w ay
Ġd ucs
Ġl anc
te urs
Ġs ot
Ġc Ã¨rtas
ar ab
in ent
Ġm im
is ab
ic acion
om en
Ġen erg
us ar
el ar
Ġcom me
Ġcom etas
ĠC ru
ĠC aux
ia ge
et ari
Ġal fab
Ġr up
Ġr Ã²tles
ĠS ard
Ġpar eis
ĠA ul
Ġan ge
Ġan arqu
di eu
ĠB asc
ct as
ct ic
Ã¨s a
ĠG olf
iz an
ĠF la
ĠF isiologia
ĠT ou
ĠL us
Ġcap el
Ã¯ r
ĠN eptun
ĠD os
ĠD ire
Ġcont orn
Ġvil latge
Ġpl ant
Ġex teriora
Ġmar cas
Ġra mp
Ġcons um
Ġmon arca
Ã¨st s
Ġma is
Aquel eis
Ġtres au
Ġcaus idas
Ġman dad
Ġrel atiu
ĠLo ir
Ġad ara
Ġro ving
ĠMar rÃ²c
ĠW eb
Ġtrabalh adors
gi as
Ġja zz
Ġexp ortacions
ĠEst rasburg
dic cions
18 0
Ġnacion als
Ġconsider ablament
Ġclass ics
cul ar
Ġmej anÃ§ant
exp le
ĠCar los
Ġpens at
Ġrecon Ã©isser
reg acion
anÃ§ on
Ġexist issi
Ġexist issiÃ¡
Ġnav eg
Ġmag ma
Ġtract ar
Ġvertadi era
Ġequ ilib
Ġnomen an
Ġcerc les
Av airon
Ġprom Ã²ure
Ġdim Ã¨cres
Ġmost rant
Ġvir tu
Ġprodus ir
Ġlarg or
Ġtele f
Ġtri onf
ĠPr uss
Ġleu gier
Ġtend rÃł
Ġjo en
ĠMol ac
Ġconta ire
Ġangles es
escriv ans
Ġfix at
Ġcri min
Ġcircul ar
ĠlanÃ§ ament
Ġmess at
Ġportugu eses
ĠBor gonha
Ġlun ara
Ġcompar ar
americ ana
Gu ilh
Ġevol ucions
Ġajud at
Ġconceb ut
ĠFon taine
Ġevident ament
Ġcentr alas
Ġquoti dian
Ġelim inar
Ġlogici al
ĠRÃ²ca fu
NS EE
Ġsenat ors
Ġconclus ion
escol ans
Ger main
Ġimplant at
Ġrac Ã²n
S oi
T rob
V all
e ter
f al
l Ã²c
y on
Ġd rÃ²
Ġd Ã²na
Ġl ine
Ġp ai
Ġp eg
Ġc og
Ġc ert
er Ã²i
ci o
in hac
Ġm ons
al ona
or icament
Ġf osf
Ġv ar
Ġre inÃ¨t
Ġb ess
ĠC ra
ĠC arri
Ã²r ca
Ġan ient
ĠB ir
ĠB ac
ĠB rion
av Ã¨tz
id d
id o
ĠR Ãłdio
ĠG ol
ĠG ro
ĠL un
ĠL ud
Ġtra ucs
tes sa
Ġar gument
Ġpart enaris
Ġser Ã©
Ġmon op
ud it
ult or
ip s
Ġrep et
Ġbas ilica
Ġcre acions
Ġ3 50
Ġcaus at
Ġdiv erg
Ġtorn ada
Ġgener aus
esti ma
Ġdep ression
Ġad olesc
ĠAn na
esp Ã¨r
Ġpolit icament
Ġsos c
Ġat omic
amb ient
Ġvol guÃ¨t
Ġ5 2
Ġdesvolop Ã¨ron
ĠMont b
Ġco oper
Ġconc lu
Ġconc rÃ¨t
ĠâĢ ĺ
ĠtÃ¨r ratrem
In ternet
Ġpens an
Ġsemb lar
Ġtip ic
Ġgra d
ĠZ el
Ġconv ida
Ġvos es
Ġdob rir
Ġsec uritat
Ġjam ei
Ġmelhor ament
Ġbi ologia
Ġcat arisme
Ġis la
Ġterr enh
Ġviv ents
Ġus atges
ĠBo ca
ĠCol omb
arb res
urg Ã©ncia
Ġ188 5
Ġsom Ã©s
Ġdessenh ada
Ġadministrat ivas
Ġjut jar
Ġgard Ã¨t
com un
ĠPort ugu
ĠrÃ¨g ne
Ġsimil ars
Ġfort una
ĠMau rici
ĠTur cs
ĠAd orna
Ġabs Ã©ncia
Ãłri us
ectiv as
lac Ã¨t
Ġinterpre tat
Ġviat j
ĠBritan ic
Ġsiste matica
Ġfug ida
ĠRog er
Ġescrit s
Ġbarr Ã²c
Ġminer als
Ġsufis enta
ĠCalif Ã²rnia
ĠPlat a
Ġespecif ics
Ġrecomp ens
Ġconver ti
rÃ²b a
ĠKen ya
Ġreconquist ar
2 000
C oss
c arri
d essus
l Ã¨t
l ing
Ġ il
Ġd otz
Ġl anÃ§a
Ġp ut
Ġa un
Ġa cid
Ġs Ã²us
Ġc Ã¨rts
in us
Ġm ala
Ġm arais
Ġlo mb
Ġf le
Ġf Ã²t
Ġt ocat
Ġun ion
au st
am ai
gu ier
el m
Ġre ts
Ġse ca
Ġb us
Ġg Ã²r
ant on
Ġ( -
Ġr y
ĠM am
ĠM oss
ĠM arais
ĠS ep
ap rÃ¨p
ot ics
di er
di al
ĠR iv
ĠG N
ĠT ru
ass at
Ġap licar
ort Ã¨t
ec us
Ġsi gue
Ġpl antat
ag an
uc k
Ġesp ital
oc adas
Ġmar bre
Ġmar ridas
Ġreg lar
ast ics
esc at
Ġpu jar
Ġrec Ã²rd
Ġto x
Ġto ur
osa x
Ġpod ent
Ġtorn an
Ġcor reg
ĠK er
Ġinter Ã¨sses
Ġins er
ĠPar gue
ĠW est
Ġgr Ã¨u
Ġposs e
Ġposs iblas
Ġrd s
Ġjos ieu
Ġdesp uish
Ġinst itu
Ġba chel
af ir
af ront
Ġbar rat
esta bilitat
Ġsemb lant
Ġfonda dor
Ġfoncion a
Ġdob rÃŃs
ĠRep ublic
Ġprodu ctors
Ġquau que
Ġ190 4
ĠVi aur
han naise
Ġperd uts
ĠIs ab
Ġcort as
Ġfaci lament
manha c
ĠOr t
Ġprecis ar
Ġdat as
Ġlic Ã¨us
Ġtransform ar
ĠMo ul
ĠAnd rÃ©
Ġfix a
Ġata quÃ¨t
eur the
Ġmur alha
Ġpert urb
Ġaten cion
agu est
even iments
Ġefica Ã§a
Ġastron autas
Ġintellectu ala
imm igracion
ĠBa ish
exist isson
Ġmill enari
Ġseri Ã³s
Ġbomb arda
Ġquat rena
ĠBol ÃŃ
ĠfilosÃ²f s
quis icion
Ġroc ass
Ġfelib res
Ġcondem nat
Ġestre cha
Ġcrist all
ĠÅ Łi
Ġty p
Ġdang iÃ¨r
Conf ronta
junt ament
ĠVars Ã²via
Ġ(âĢ ł
ĠCabard Ã©s
P O
P Ã²
P resentacion
l ie
n il
v em
v ejatz
z et
Ġ á
Ġd ÃŃder
on icas
on ian
Ġs Ã¨rva
ar te
in ta
Ġm u
or izont
it als
ic us
Ġes m
Ġv entre
ai m
Ã© ry
Ġo casion
Ġo ceans
ĠM ala
Ã²r me
ad os
ĠP ublic
ist orian
ch n
ĠA ur
Ġan ant
ÃŃ st
ĠB art
ab itacion
Ġamb ici
Ġamb icions
iz e
ĠF ac
ĠT im
ĠT ors
Ġpo etic
ĠV ik
ura u
ass et
ara gon
Ġau d
Ġsi atz
ĠI ran
Es qu
Ġsa que
Ġesp ontan
Ġac Ã²rdi
Ã¨g ia
Ġreg Ã©ncia
Ġest ant
Ġimp lica
Ġra ja
ast r
Ġser ral
ĠH y
ĠX av
Ġform adas
Ġ3 8
Ã¨n is
Ã²n h
Ġdiv ina
olog ista
ian g
Ġgener aument
Ġele vada
ĠFran ca
Ġpubl iqu
Ġso jorn
Ġ4 1
ĠGu i
itar isme
Ġesta bla
Ġcamp Ã¨stre
Ġmen ats
ĠRo azhon
Ġsign ar
Ġsign ada
Ġet rus
rim it
Ġdeth s
Ġocup ar
Ġmol hÃ¨r
apar ar
Ġmat rim
Ġmelhor as
Ġfavor abla
Ġbl Ã²ts
Ġremp la
Ġem issions
ĠSal vador
arrib ar
Ġ189 7
Ġ188 6
esper el
lin ha
Ġpau retat
Ġut ÃŃs
Ġinform at
Ġparlament aris
enf anÃ§a
Ġescol ar
Ġitalian as
Ġcaval iÃ¨r
Ġcapt urats
Ġfinanci Ã¨ra
ĠcomplÃ¨x as
Ġopaus ats
Ġfortific at
Ġsimbol ica
Ġafric ans
Ġdistingu ÃŃs
arch ipÃ¨la
astron omia
ĠVill ers
Ġmig racions
Ġlegitim itat
ĠCarta ge
Ġmagn itud
Ġlou hannaise
ĠCass ini
Ġong rÃ©s
ĠBulg ars
Ġtransf orma
Ġpred omin
Ġredre i
% ).<|
' Â«
A D
A us
A Ã§Ã²
B o
B ar
F ond
G aireben
L ong
M aria
N ascut
P ichon
R om
c us
e te
g ran
h Ã¨it
j avan
n aire
Ġ Ã²r
Ġl uc
te jar
Ġp ter
an diguÃ¨t
an autita
Ġs org
ci ent
Ġt ent
Ġt ocant
ri min
Ġv u
Ġb lack
Ġg ama
ant ena
ĠC rim
Ġr in
Ġr ub
Ġr Ã¨ire
ad er
la vas
ĠA y
ĠA ups
ĠB ÃŃblia
itat ge
Ġdes esper
Ġin eg
Ġin ed
ĠR ap
ĠR iu
ĠE ti
Ġtra duccions
ĠN on
ĠD esc
Ġau rel
ers on
ond er
Ġesp essa
Ġac cedir
Qu itament
od ia
Ġmon arqu
Ġdem an
Ġrec orre
ĠH aut
Ġrep r
Ġrep rodu
Ġsol ida
ev itar
rar iÃ¡
Ġfam oses
Ġsegu ra
Ġass et
ĠAn fÃ³s
esp Ã¨ra
Ġdire c
Ġtrans it
Ġaf ort
Ġon ze
Ġleg eire
Ġconc er
Ġer et
Ġmen as
Ġexp edicions
Ġum id
Ġart isticas
Ġconsider ava
ann exion
Ġdec oracion
Ġapar elhs
ÃĴ lt
Ġprog ression
ĠMa xim
Ġmajor itari
ĠVal adas
Ġais ida
Ġdisp osicions
Ġ187 2
Ġ187 9
ik a
Ġtravers ar
Ġinc lu
ore l
Ġobten guda
Ġdim in
Ġ186 5
Ġfaci ada
Ġdia ble
Ġprecis as
Ġcamb as
Ġoccident au
Ġress or
Ġflu x
Ġleu giÃ¨r
Ġensenh aments
Ġpref ond
Ġcompos itors
Ġprofession al
Ġata quÃ¨ron
Ġdipl Ã²ma
Ġadap tacion
ĠJul es
Ġmalais it
vent Ã©s
Ġlit tor
ĠPu y
Ġdra ma
Ġimm ob
ĠsÃ² mi
ith ecus
ĠSp ace
Ġpersegu ir
Ġproves it
Ġriv alitat
estan h
Ġnar racion
Ġchif ra
Ġcontrarot lar
ON U
Ġfib ras
ĠLis bona
Il la
apt iste
ĠBig Ã²rra
Ġaproxim ativament
Ġpropag anda
Ġadvers ari
ĠCÃ²r das
Certan ei
Ġcov id
alien acion
Ġcirconst Ãłncias
Ġcircons cripcion
ĠforÃ§ada ment
Ġvicepres ident
Ġrebell ion
efica citat
Alav etz
C res
D F
D amb
I N
I ves
L E
P ublic
g Ã³
m ir
n au
p i
r itat
s ec
u alament
v et
Ġl Ã²cs
Ġp Ã²ls
es telas
Ġs ans
at Ã²ris
re a
Ġm y
Ã² ct
is lam
ra q
ra ina
Ġf lex
Ġt ocar
Ġen ciclop
Ġper meses
am ics
os p
os ex
il o
Ġre don
Ġre ctor
Ġb ov
Ġal inh
ĠM y
ĠM ill
ĠS w
ĠP Ã²rt
ch y
ot as
ĠR if
ĠG ai
ĠT ro
ĠT est
ov e
ĠN ev
Ġpl ural
um iditat
Ġest Ã¨las
Ġgran it
ranc ament
ud at
ib ar
Ġtr in
Ġcl or
Ġri bi
emp er
ep is
Ġcaus adas
ing er
Ġpers ist
Ġass um
Ġ5 7
ĠEs per
ĠAl l
Ġel Ã¨its
ten cions
Ġprov inci
Ġserv ar
inc ourt
Ġpublic adas
Ġ7 2
ret ot
Ġdesp uÃ¨i
emb la
ivers ari
ograf icas
Ġfu guÃ¨ron
ĠIn d
rÃł riament
Ġind ustria
laÃ§ ament
ĠVal enci
ĠZ Ã¨us
ind ustri
apar te
Ġmag ia
Ġni Ã§
Ġjulh Ã¨t
Ġfavor izÃ¨t
Ġrefer Ã©ncias
Ġsembla va
Ġfab ricas
Ġ190 2
Ġsepar ada
Ġrespons as
ĠAng leses
Ġcresti anas
Ġvolont aris
ĠMan ch
ext rem
ĠSan ti
Ġmodific at
ĠRegion al
ĠGuilh em
Ġassai ar
ĠmÃ¨t ro
Ġempach Ã¨t
Ġavant atge
ĠRh in
Ġlaiss Ã¨t
ĠprÃ¨tz fach
Ġisol at
Ġterritori ala
Ġestrateg ic
ĠFil ip
Pro ven
Ġinterven cions
Ġeste re
Ġreserv at
osau re
Ġnota bles
Ġhas Ã³
Ġexterior as
Ġrestabl ir
Ġdiscuss ions
Ġfun er
Ġespecific ament
ĠRoss elhon
Ġintermedi ari
Ġmiss ils
Ġnerv iÃ³s
Ġangl osax
Ġobt Ã©ner
Inici alament
Ġille g
Ġcil ind
Nicol as
Ġreferend um
A ir
B r
F ot
I ran
I rlanda
O R
O s
P an
c arnacion
h l
i blament
v Ã¨l
w ood
Ġ >
Ġ @
Ġp ir
Ġs inf
of Ã²ns
Ġc ourt
ar y
ar ga
ar ina
in Ãłria
un da
Ġf este
Ġper form
ol ha
Ġb ev
Ġb anas
ins ureccion
ai gas
ai ritz
Ġcom edi
ti f
ti ons
ĠC amin
Ã© u
ul osa
Ġr oss
Ġr Ã¨is
ĠM end
ĠM ich
ur m
ur Ã¨t
ap ro
ĠB izantin
iss ons
av ion
ig Ã¼
id al
Ġdes bremb
ĠR ock
ĠG R
ĠF u
ĠF en
ĠT ai
ĠL anas
ĠL uis
iÃ¡ i
Ġent amen
Ġcap a
Ġap res
ĠD Ã²na
og at
ĠJ un
ĠI rlanda
Ġpre con
Ġav Ã³
Ġav Ã¨va
Ġh Ã¨t
Ġh ab
Ġh ial
Ġesp Ã¨ra
Qu atre
Ġ18 14
if Ã¨r
Ġtemp Ã¨sta
Ġfranc o
Ġmes as
Ġlu Ã²nh
ĠCh rist
Ã²p s
Ġins Ã¨ctes
Ġesta pa
Ġconf usion
Ġposs ibles
Ġmet res
Ġmen im
Ġresp ec
Ġsc Ã¨nas
ĠEst re
Ġsubre vis
Ġclass icas
ograf ics
Ġprof e
Ġdec ret
Ġep id
alha c
Ġsegond aris
Ġdob ertura
Ġmo tiu
Ġfond ators
Ġbi ografia
arr Ã¨st
ĠvÃ²l s
Ġequ ilibri
Ġ187 3
Ġ187 5
Ġestabl iguÃ¨t
ĠPer Ã³
Ġfen Ã¨stra
Av inhon
Ġ186 3
Ġesper ant
Ġ' '
rad ura
cin as
Ġ189 3
Ġpet its
Ġ188 9
ver d
rom agnet
200 5
Ġinici ala
Ġquim icas
Ġescrich s
Ġcreat uras
Ġ184 2
Ġdestru cha
ĠgrÃ¨ vas
Ġgar ant
Ġangles as
Ġdetermin ada
Ġsoviet ics
Ġquad res
roc arb
ĠBes an
ĠTur in
Ġreme mbre
ĠAv inhon
Ġprum Ã¨ra
Ġparl adas
Ġpersegu ÃŃs
Car les
Ġdan Ã©s
Ġeste la
Ġconfir ma
Ġsequ Ã©ncias
Ġacadem ica
ograp h
Ġcrat Ã¨rs
Ġib n
ĠProvÃŃn cias
ĠPop ulara
Ġannex at
ĠTib et
Ġfeu d
Ġartes an
Ġdisponi bles
Ġvisig Ã²ts
Ġneer landÃ©s
Ġit iner
Gener alament
Ġconsult ar
Ġbaill iage
T r
V es
b es
e qÃ¼ator
f ant
h ada
n ascuda
v Ã¨rb
Ð º
en v
Ġde tect
on ament
an tiquitat
Ġc urs
ci Ã³n
Ġe qÃ¼
or quÃ¨stra
Ã² Ã§a
ent end
Ġv Ã²t
Ġv otar
Ġen z
Ġn et
Ġre iv
Ġb eure
Ġg arr
ai g
le m
ti ma
Ã© ter
ĠM ilh
ĠM ing
ĠP all
Ãł der
ap licar
ĠA juntament
ĠB ot
iss y
iv ement
Ġdes enc
ĠR el
ĠT arra
itu ir
Ġsus ci
ĠE do
tes a
ĠD is
ĠD ol
eu c
aut itas
Ġpl ur
Ġex acta
ag er
Ġab at
Ġimp lanta
Ġesc asenÃ§a
Ġcons ent
Ġdem ografica
ĠH a
Ġbas adas
Ġform ular
Ġcal Ã§
Ġsos p
Ġcapit alisme
Ã¨rn s
Al f
Ġ4 3
Ġcos ti
Ġdeis har
Ġmod Ã¨sta
Ġdesvolop adas
Ġemp acha
ira c
Ġer eti
ef f
ĠÃ²b res
Ġmant Ã¨u
Ġpresent ada
ois es
Ġespeci au
Ġrepresent ats
Ġmi eg
Ġsign Ã¨t
Ġbar ons
Ġrealiz a
ĠCon c
ĠIn dian
Ġrecon eis
Ġgra matic
Ġvari ar
ĠRe ina
Ġsegond Ãłria
ĠentraÃ¯n at
Ġconv iv
inter Ã©s
Ġsal vat
Ġpos teriora
Ġpes uc
let in
ĠLe e
Ġtor istica
ĠOccitan ia
ĠPer e
Ġespanh Ã²ls
ĠRei au
Ġrest ric
ĠBo ul
Ġ189 9
ĠJean ne
Ġ188 7
Ġparte jar
Ġgraf ica
200 8
ĠTr enta
Ġunivers itaris
Ġrefus Ã¨ron
Ġurb ans
ĠrÃ¨ ina
ĠPl ana
Ġvac anÃ§as
ĠBas tida
enf ants
ĠcollÃ¨g is
Ġmed alha
Ġfondament als
ogra ma
Ġmultip licacion
Ġsil ex
Ġruss as
Ġdemen iguÃ¨t
ĠcÃ²nsol s
Ġpil Ã²t
ĠLin ha
Ġclub s
Ġestrangi ers
Ġamp l
Ġremon tan
astron Ã²m
Ġobri Ã¨rs
Ġpresidenci alas
Ġcrom os
ĠFon tan
ĠBert rand
orient acion
Ġprior itat
ĠMonts egur
Ġfec ond
Ġped of
Ġsosmar ins
Ġincor por
ĠPrincip at
espanh Ã²l
ĠMosc Ã²u
Ġdissol ucion
Ġcandid atura
Ġappel lation
Ġograp hique
ĠSanti ago
F el
L ev
M il
S h
S t
V D
W ik
d Ã¨t
f ament
f ug
g ment
h ara
p ort
u alitat
w ig
y o
z ada
Å Ł
Î ·
Ġp ei
es fÃ¨ra
Ġs ing
qu ias
in augu
re ux
un ificar
ent atge
Ġf lo
Ġf auta
it au
Ġqu aus
Ġt ai
Ġt ust
Ġt iran
om icas
Ġv eus
Ġper cepcion
am istat
Ã¨r me
el eccions
Ġb Ã²ria
Ġb izantin
le i
ti das
ĠC oc
ei d
ran us
Ġal lu
ĠM em
ĠM eurthe
ĠS y
ĠS em
ĠP om
ist o
ĠA ten
ĠB ec
ig rants
tan has
ac ost
ĠL ap
ĠL ille
Ġdi oxid
Ġap ogÃ¨u
ĠN or
Ġau ie
ob s
Ġcont ent
Es tiu
Ġpl omb
Ġpre dec
Ġex istir
ag on
ess encial
Ġest ruct
va is
Ġdem onst
ex ig
Ġrep ausa
Ġform igas
Ġprin ces
ric an
olog ne
Ġfam ilh
up cions
ĠAn toine
Ġnov eme
Ġsos car
Al pes
aci tat
Ã²s is
Ġjorn adas
Ġst ria
Ġtrob Ã¨ron
Ġca una
Ġdest inacion
Ġcompaus ant
Ġmi Ã¨
Ġclass ament
Ġroman Ã©s
arg am
Ġsab la
vi ol
Ġdefin idas
Ã¨ct re
Ġtecn ics
Ġprote ctor
oni ana
Ġdu es
Ġcontin ua
Ġdescob riguÃ¨t
Ġmo iss
arr ond
Ġrefer ÃŃs
Demp Ãºs
Ġviv as
Ġinv ers
Ġlev ant
Ġprom ot
Ġdim en
Ġdemand an
Ġ189 5
Ġbra vament
Â» ,
Ġdub rir
Ġcop ar
Ġ184 1
Ġprodus it
Ġindustri alas
Ġpau ra
olit ana
Ġmate matica
Ġconcent rar
Ġprogress iva
Ġbibl iot
Ġeiss idas
ĠAv airon
agu esta
ĠsÃ²r res
Ġjuri d
Ġlaiss ar
Ġpractic ar
Ġpaci fic
ĠGir ard
Ġcontuni Ã¨ron
amass ada
Ob serv
Ġrecens ament
Ġcens ura
Ġlot jaments
Ġmetrop olitan
Ġanal isi
Pod Ã¨tz
Ġquoti diana
Ġsoven ir
Ġrestaur ant
Ġregul acion
ĠNig Ã¨ria
ĠBulg aria
Ġolog iques
Ġdictat ura
Ut iliz
ĠRic ard
Ġtrent ena
Ġpira mida
ĠTrib unal
Aust rÃłlia
Ġsubt rop
ĠMalh Ã²rca
ĠMaced Ã²nia
ĠparrÃ² quia
Ġamino acids
ĠGabri el
ated rala
Ġmandad ÃŃs
1 00
A U
A tenas
B e
L uc
V iv
d et
i qui
j am
k k
m ic
t ura
Ï ħ
Ġd or
as as
Ġs als
ar gument
Ġm un
Ġm Ã²t
or om
el ada
Ġb osc
ti ment
Ġcon eg
ĠC Ã²sta
ĠC erd
im an
ul Ã¨t
Ġal p
ĠM ot
ĠM ov
ĠM and
ĠM ou
ĠS im
ĠP rim
ĠP Ã¨ir
ĠB av
ĠB rit
ĠB ach
Ġj Ã²ia
ig an
Ġdes m
ĠR on
ĠG od
iz acions
ac ulh
Ġent itats
and es
Ġtra c
Ġap rÃ²
ĠN Ã²stre
Ġar Ãł
Ġar ca
ort h
ĠI m
Ġpre g
Ġpre ocup
Ġesp ectacle
Ã³ mbia
ast res
Ġcam Ã¨ra
Ġtr uca
Ġri val
Ġpass adas
rÃ¨s ta
Ġregion au
Ġcor red
ert s
Ġrom pre
esp essor
ĠK o
Ġro jas
Ġcas c
Ġdesc endent
ros es
Aqu era
gi guÃ¨ron
Ġtrob ats
Ġ6 4
ĠAr m
Ġmen aire
arm onia
ure tat
Ġpat ir
uss e
Ġbia isses
itud s
Ġnacion alitat
Ġneg ar
ral op
Ġagu da
Ġbar rada
arg at
Ġsab ent
Ġcast Ã¨ls
Ġfl Ã²tas
esta di
Ġrecon quista
Ġint Ã¨rne
equ ival
Ġid ro
Ġdu ch
inter p
Ġsec ada
Ġdeci dir
Ġinternacion als
Ġbl Ã²t
organiz a
Ġnomen ava
Ġviv iÃ¡n
ais ha
ĠÃ ģ
arb it
Ġespaci alas
Ġfronti Ã¨ras
Ġparla van
ades ion
uf is
Ġassegu rada
Ġinstall ar
Ġsuf ÃŃs
Ġpaus ada
Ġ185 1
ĠJac k
Ġparlament ari
Ġdecl inason
Ġvint enat
Ġcompanh s
Ġtomb Ã¨t
Ġfondament al
Ġvad ut
Ġpert ocant
Ġarch ius
din and
Ã²ss a
avi acion
ĠLeon ardo
ĠPat rimÃ²ni
Ġpreced entas
inici acion
Ġteor ica
Ġsuccess ivament
Ġfid Ã¨us
Ġlengadoci ana
Ġimag inar
Ġfief s
Ġamp le
ĠGir onda
Ġbarr Ã²ca
Ġfres ca
Ġtab lÃ¨u
Ġtradu ctor
Ġconn exion
Ġtransfer iment
ĠMerc uri
ĠJust ÃŃcia
ograp hique
ĠOs car
Ġtest ament
Ġmeridion ala
Ġcampion at
ĠCarn aval
Ġdesvelop ament
engu arda
orv eg
ĠCiv ila
Ġevid Ã©ncia
Ġvisit aires
ubre tot
urban izacion
Ġgaran tir
Ġpelegrin atge
Ġconfigu racion
ĠLaura guÃ©s
Ġcomme mor
ĠRÃ²cafu Ã²lh
PÃ² don
Ã²ct en
ĠAten encs
E T
O u
O rig
P ubl
P ossed
d Ã©
h et
j Ã¨t
l end
Ġ q
Ġl enta
Ġl istas
Ġp irat
es ion
end ra
Ġs illa
Ġs arr
of ia
Ġc ass
er mont
at ri
qu ir
ci e
re use
Ġm Ã¯
or ics
ent ru
it ava
ic at
da van
Ġen te
Ġn Âº
il is
Ġb ras
Ġb oc
Ġb Ã¨c
Ġb utar
le ta
Ġcon ced
ĠC lam
Ã© cia
Ġson t
Ġal h
Ġal i
ĠM ath
ĠS ed
st re
ĠB ul
Ġj Ã³nher
iss at
iss ari
ig ar
ig ada
ig eses
ĠR ud
Ġpr olet
ĠG usta
ĠG PS
ĠT en
ĠT rip
Ġpo dem
Ġent ra
and ia
Ġdi es
ques ta
ĠD ev
ĠD omb
En tra
og Ã¨n
ce au
Ġentre pren
oc adura
ĠcÃ² di
Ġmar x
Ġgen etica
enc ara
Ġcl an
Ġsol dat
int encion
ilh ats
Ġam ar
lu ent
Ġtorn arÃł
Ġfar Ãłn
ub i
ub Ã¨rta
Ġsos tien
Ġ5 1
Ġ5 4
Ġ6 8
mat icament
arm ament
Ġdev isa
Ġdesp ensas
Ġdist int
Ġmant unas
ubl icas
Ġespeci alista
Ġespeci alizats
Ġlig ason
ann i
Ġeconom ista
ĠRo uss
Ġsign ificat
Ġautre is
inat ors
ĠpaÃ¯s an
Ġparticip an
oni ans
Ġev entu
Ġconv Ã©ncer
Ġmol on
Ġsal ari
Ġciv ils
Ġbi oquim
Ġcau da
Ġmondi alas
Ġop tim
isc op
Ġ189 8
Ġbra va
Ġcaracteriz ats
air ons
ĠRoma ins
Ġbalh an
onda ment
lav atge
Ġestran h
Ġinstall acions
com unic
anim acion
Ġrestau rada
Ġregular as
Ġdeg rada
Ġmediev au
Ġconcent ra
Ġfinanci Ã¨r
Ġmultip lic
arre ceb
Ġtur ca
Ġconsac rada
Ġsuccess ivas
Ġastron Ã²ms
ĠBon aparte
Ġdemen icion
Ġatribu it
Ġrememb rar
Ġreconst ruccion
espand iment
Ġextra ordin
Ġoct Ã²bre
Ġproble mas
Ġregist re
Ġestrateg ia
Ġfres c
Ġconcern ÃŃs
Ġsols tici
ĠNeg re
Ġincl utz
ĠPrin ce
Ġesti mat
Ġbau ma
Pod Ã¨m
Ġdecenn is
Ġelectron ica
Ġmari dada
Ġsai que
Enter in
Ġrej onh
Ġdiscu tida
Ġolog ique
ĠSec ret
Ġgaulo ise
exerci ci
exemp les
Ġarquit Ã¨cte
ĠreÃ¯n carnacion
ĠSuperi or
Ġcheval ier
Ġnoi rir
Loc alizacion
afebl iment
M i
P art
S u
c rit
e ma
f it
g ener
p ent
s ur
t ics
v ath
Ñ ģ
Ġl ana
on di
Ġa Ã¼
Ã¨ ime
an Ã©s
Ġs atges
of Ã¨rta
in ant
in nov
Ġla mp
al ada
is ons
is can
Ġt amp
Ġt Ã©ner
Ġper cep
Ġper du
Ġn il
Ġn ul
gu ments
el et
Ġre cit
Ġb our
Ġg reg
Ġson ats
Ġson ava
Ġr Ã¨stes
ĠS tra
ĠP f
ĠP ichona
ĠA ustri
ĠB il
iss ar
iss ance
Ġin tencion
ĠR as
ĠR eb
ĠT et
ov en
Ġpo dava
Ã¯ cs
ĠN ational
Ġcont ras
ĠJ ovent
Ġi Ã©
Ġpre j
Ġh i
oc ent
Ġmar quÃ©s
Ġesc apar
Ã²l hs
esc as
esc au
Ġdon jon
od or
Ġdem es
ud ia
Ġrec erc
ult ure
ĠH ans
enc orat
Ġtr onc
Ġsol lici
Ġcre adas
Ġ3 9
Ġcaus ant
ĠCh ile
Ġprincip ats
Ġgener als
Ġnov el
Ġfon etica
tiv ada
Ġann ad
Ġins p
ĠEs parta
Ġtrabalh at
Ġver ificar
aqu era
Ġmet on
Ġco teaux
Ġlong ors
Ġer upcion
Ġer rors
ef ectu
Ġcr us
Ġval ada
Ġval encian
Ġ8 4
Ġdesp leg
Ġmal aut
Ġrap roch
Ġten guda
Ġagu Ã¨sse
Ġbar onnie
Ġdefin icions
Ġapar elh
Ġid rogÃ¨n
jec cion
ĠEstats unid
Ġocup ats
Ġocup adas
Ġost aus
Ġmarc adas
Ġanim aus
Ġorigin aris
Ġnomen adas
Ġreb utar
rin cip
Ġconten guts
Ġpen j
ĠVi elha
pe z
Ġprev istas
Ġ179 2
Ġ179 4
Ġmarid at
Ġfer mentacion
Ġmateri au
Ġmanten gut
200 9
Ġom n
Ġtele vis
ĠEurop Ã¨us
Ġtir at
Ġident ificat
anim itat
Ġw ik
Ġmencion a
Ġmecan icas
Ġtrap at
Ġjus te
ĠlanÃ§ at
Ġguer ra
Ġaperten ent
AR EP
Ġnucle oti
Ġort h
Ġfeder al
Ġtit olat
Ġparl Ã¨t
Ġviat g
Ġafric ana
anz ibar
Ġclimat icas
ĠDem ocratica
Ġmeta fis
Ġsufis ent
Ġconfir mat
Ġnad ar
ĠNicol au
ĠsÃ¨r p
Ġeta pas
Ġsultan at
Ġincend iat
Ġautomat ic
Ġepis Ã²dis
Ġgasc ons
ĠDou bs
Ġteiss ut
Ġteiss uts
Ext ension
Ġtun Ã¨l
ĠVinc enÃ§
Ġindispens able
Ġordon Ã¨t
Ġblas on
ĠBibl iotÃ¨ca
ĠglÃ²b e
Ġsinta xi
Ġnoiri dura
Ġpellic ula
Ġmarselh Ã©s
ĠDioc le
ĠFL AREP
ĠVerc ors
ĠCrim Ã¨a
A icÃŃ
D ic
D im
I b
P D
S an
T er
V ill
a eron
j ust
m ac
m od
o cia
o est
r alas
r ona
v s
Ġde ten
on Ã¨s
Ġa das
Ġa isses
an at
end icul
Ġs ants
Ġs Ã¨tz
Ġs arra
of ensivas
Ġc of
Ġc ari
Ġc alh
in an
Ã² ch
Ġf Ã²l
Ġqu Ã²
om ics
ri o
Ġv Ã¯
Ġn t
Ġn asc
os h
Ã¨r m
el ic
il y
il Ãł
Ġre le
Ġse ign
Ġb ip
Ġb Ã¨ls
Ġcom mand
ro ves
ĠC art
ĠC erv
et an
ĠS ic
ĠS eta
ĠS tar
ĠS arre
ĠS Ã£o
Ãł pols
Ãł vem
ens tein
ĠB ag
ĠB ret
ĠB ak
av o
ct ar
Ġdes Ã¨rts
Ġin vasion
ĠR amb
ge b
ĠG on
ĠG ers
ĠF ondacion
ĠT rin
ĠT oul
ĠL luÃŃs
ĠE ur
ĠV auc
Ġnom ada
Ġap Ã¨l
Ġcomp eticions
Ġli Ã¨ch
Ġpre gond
Ġav ocat
uc ar
uc le
Ã¨i res
Ġac u
Ġesc lai
est rat
est endre
ĠO m
Ġpol its
Ġcre ant
ric ana
Ġdis i
Ġtorn ant
Ġvi Ã¨lhas
anh Ã¨t
ub rick
Ġro d
Ġfor Ã§a
erv ille
inas ons
Ġpich Ã²t
Ġtrans e
Ġaf ich
Ġesta ble
Ġestat uts
ĠAr thur
Ġag antar
Ġdest r
Ġresp ira
Ġpat iguÃ¨t
Ġcr ud
avan Ã§ada
ret ament
ĠEst Ã¨ve
ell acion
ĠCom mun
Ġ9 5
Ar ron
In dependÃ©ncia
Ġmej anas
Ġcontunh an
Ġve guÃ¨ron
Ġocup an
Ġpes ucs
ĠQu eb
ĠCatal an
Ġ187 4
Ġmondi alament
Ġop cion
Ġcompren ent
Ġlev ada
ĠVi Ã¨lh
ĠVi aule
Ġcoll Ã¨ga
Ġemb arc
Con c
Ġinici ativa
Ġmost rat
Ġcaracter istic
Ġvalor izar
Ġpurm Ã¨rs
Ġrend ut
ys tem
Ġinstall ats
establ iguÃ¨t
Dem Ã²ra
ocrat ic
Ġfix ar
Ġsoviet icas
Fin alament
Ġinteg rar
Ġorb itas
Ġcircul ara
âĢĿ ,
ĠEsc Ã²cia
Ġsep el
Ġrescont rar
Ġdesir Ã³s
ĠsÃ² ci
adop tar
Ist oricament
abil itats
Ġsiste ma
ham mad
Ġemple ga
ĠVil an
Ġpilh atge
Ġbut te
ĠtrÃ² ne
esple cha
opaus ar
Ġrefugi ats
Ġperp endicul
ĠJust in
lov aquia
Ġretrob ar
orv Ã¨gia
Ġfich iÃ¨rs
Ġsindic ats
Ġfemin in
ĠVerd un
Ġteat rala
Ġviolonc Ã¨l
alem and
ĠSet mana
ĠSm ith
Ġhra ir
Ġchimpanz Ã©s
Ġplataf orma
explos ion
Ġcere alas
B on
B aptiste
C iutat
D is
F ilha
G C
I A
L ista
N R
N om
P ort
d y
f ec
n um
p inhan
t ors
t icas
u mb
w n
z en
z ia
Ï Į
Ġ â
Ġ ors
Ġd ru
Ġl Ãł
an Ã¨l
Ġc ura
ar l
re p
re v
Ġm oss
Ġm enÃ§
al unh
ra us
Ġf aus
Ġf Ã¯
Ġf ius
it ala
Ġv elh
Ġen ce
Ġn Ã¯
Ġn ostal
Ġn orveg
Ã¨t ge
ta g
Ġg ir
ai as
ant an
ant enat
Ġcon re
ĠC ari
im mens
Ġr ars
ĠM all
Ã²r mes
ĠS ac
ĠS and
ch on
di p
ens e
ĠB las
ĠB arr
ĠB org
Ġj oguÃ¨t
iv ar
Ġamb ient
ĠG rop
ac om
ĠL ic
ĠL amb
Ġte ct
ma cia
ĠV in
Ġtra Ã§a
ĠD ef
Ġau er
ort ografia
Ġex teriors
Ġh ons
Ã¨i as
Ġac um
Ġac ons
Ġimp uls
Ġsitu ava
Ġesc l
Ġ18 20
Ġ18 22
Ġ18 26
Ġ" .<|
Ġri d
Ġcre mat
ĠCh ristian
Ġpod en
Ġcor d
Ġcor atge
ian Ã§as
Ġgener alizada
Ġob jec
Ġconst ren
Ġconst ruc
ĠGu er
Ġvol ar
don esia
ific acions
Ġconf ron
ĠAl ibÃ¨rt
Ġrepres a
Ġcontra p
Ġcompaus ar
Ġba ct
Ġmi eu
Ġ9 9
Ar gent
Ar geria
Ġten ent
Ġdec Ã¨n
Ġfl Ã²ra
Ġrecon Ã³isser
tac Ã¨u
Ġmajor it
ĠÃ² sses
Ã¨ct s
Ġeg al
ĠVal encian
ĠMi quel
ĠZ anzibar
ĠFranc o
Ġmor ÃŃs
Ġcorr enta
Ġmarc ats
Tot jorn
Ġcat ara
Ġanim at
ĠRom ana
Ġrefer ir
Ġcrit ics
Ġcompren on
ĠprÃ² chas
ide ologia
Ġ190 9
Ġprim Ãłria
At lantic
tific acion
Ġcaracteriz an
Ġreti rat
Ġmanif est
Ġsen on
200 3
Ġvir t
Ġom ogen
Ġadministrat ius
Ġsac erd
Ġbil anÃ§
Ġroma ines
Ġfondament alas
Ġfogu Ã¨sson
Ġsel va
Ġmort alitat
Ġalb ums
Ġpatrim oni
ph in
Ġprigond as
Ġatac at
ĠFor um
Ġperc or
ĠcÃ¨l tas
Ġleugi Ã¨ra
ĠBor ges
Ġpedagog ic
Ġarque ologicas
Ġprefer iguÃ¨t
Ġhilh s
Ġcono guÃ¨ron
Torn Ã¨t
Ġajud Ã¨t
Ġcarg ats
ĠCos tat
Ġtanp lan
abri al
vo ir
Ġbearn esa
Occitan ia
Ġtoponim ia
Ġsed iments
Ġrecors es
orig in
Ġrect an
Ġbru ch
Ġty m
impaus ar
Ġequival ent
Merc Ã©s
Ġplu vi
Ġreag rup
ĠrÃ² das
ĠChin Ã©s
Organiz acion
ĠGram my
Gl Ã¨isa
Ãłnd ria
Ġalu enh
ĠBrion nais
Ġposse deish
Ġredon da
ĠEstatsunid encs
F as
I p
P intura
R em
U S
e on
g ava
k ov
l is
m ons
p x
Ļ ×
Ġd urar
Ġp ep
Ġp istas
Ġa ira
Ġm essa
or p
or tada
Ã² xa
it ivas
Ġt ril
Ġt igre
ri am
Ġv ÃŃ
Ġn ut
Ġn Ã²m
Ġse con
Ġse tanta
Ġb Ã¨ra
Ġb lo
ĠC LO
im Ã¨tres
Ġal geb
ĠM iss
Ã²r tan
ĠS ig
ĠP eri
ĠP Ã¨ira
ĠA dam
Ġj ul
Ġj ou
ct ica
ig i
ig ht
aus en
Ġamb aiss
ĠG ros
ĠT GV
ac o
ov er
ĠL ec
Ġcap luÃ²c
Ġtra ches
Ġap lica
ĠD isc
Ġtan b
ob t
Ġcomp tes
Ġcomp licat
og os
ec ran
Ġli gu
ĠJ a
ĠI ves
Ġex cep
Ġh eur
Ġh istoire
Ġab ol
Ġab riu
art ilhariÃ¡
if s
if er
ĠO ngria
Ġmon oc
Ġrec r
Ã²b a
Ġplan h
Ġcor te
man uel
ĠLo Ã¯s
utiliz Ã¨t
Ġdef orm
Ġaf ortir
Ġconf ins
Ġgrand or
Ġdeis h
ĠpÃ² di
Ġag rop
Ġsuc ce
Ġloc alament
Ġmen or
Ġval adas
Ġsc enar
Ġdesp uei
Ġespeci alizat
Ġdemor ada
Ġdemor avan
ĠcÃ²r pus
Ġva il
Ġfem Ã¨las
Ġtradicion aus
ĠMi guel
ĠPro c
ĠEn tre
Ġtor istic
Ġmedi terranÃ¨a
Ġvertadi Ã¨rs
Ġ187 7
Ġdich es
urs ions
elle ment
Ġem erg
ĠÃ ĩ
ĠprÃ² vas
ĠCol Ã³mbia
Ġ186 2
Ġemb ar
ĠmÃ¨s te
rad ors
estudi Ã¨
Ġsau var
ĠpÃ¨r d
200 1
Ġadop tar
Ġsob retot
Ġdin osaures
Ġrecu elh
Ġbr Ã¨u
ĠBr uss
Ġ185 8
ocrat a
ĠpÃ²s can
Ġvaria bla
Ġdepend Ã©ncia
Ġinteg rada
Ġconquist Ã¨t
Ġmalais at
ĠBal cans
roma in
Ġide al
ĠreÃ¼n ir
Ġtestim Ã²nis
Ġris ol
Ġlegislat iva
Ġefica citat
Ġproclam acion
Ġpil ars
Ġsignific ativa
Ġcomtes sa
Ġpartement ales
ĠGen Ã¨va
Ġaplic ada
Ġdefens as
Ġmac ed
Ġbaci ns
ĠPi emont
Ġparci ala
ĠGi ov
Ġcenten aus
Ġts un
Ġtub e
Ġmetrop Ã²li
Ġdecid ÃŃs
Ġautomat icament
Ã©l her
engat jament
ĠVern y
ĠVir g
ĠCir c
Ġirre gular
individ Ãºs
ĠasteroÃ¯ des
ĠLomb ardia
Ġrug am
Ġbesti al
aer opÃ²rt
entraÃ¯n ament
abol icion
ĠAir bus
Ġalent ours
Ġsaun osa
ĠVict Ã²ria
Ġprol ong
Pers eguida
ĠCompanh iÃ¡
Ġmistral enca
ĠresÃ²l vre
Ġmerav ilh
ĠnegÃ² ci
ĠLiter atura
Ġdigloss ia
ĠPelop onÃ¨s
ĠSard enha
ĠBoca ge
ĠTest ament
rocarb urs
Ġconeg Ã³
Ġsecon da
E u
G en
M S
N ov
P au
R ai
R oss
U man
b res
f inat
g y
g els
i Ã©
i tes
i ents
j ok
m el
r Ã¨c
Ã ¸
Ï Ģ
Ð »
en y
en ch
Ġl Ã©ser
on de
Ġp ian
Ã¨ le
ar en
Ġe tern
Ġm Ã²des
or ada
it Ã¨ron
Ġes fÃ²r
Ġn it
Ġdel la
ta van
Ġre cip
Ġre Ã¼
Ġb ou
Ġcom tats
Ã§ ava
ĠC ai
ĠC ity
Ã© es
ul ats
ul sion
et Ãłria
Ġr ara
Ġr Ã²c
ĠP ot
ĠP ala
st as
ist Ã²
ica p
Ġpas tre
ĠA na
ĠA DN
ĠB asco
Ġdes iran
ĠR enat
ĠG ama
iz er
ĠF esti
ac us
ĠL ars
Ġfo g
ĠV ire
ass ida
Ġtra Ã§at
ĠN a
ĠN ancy
ĠN Ãłpols
ĠN orvÃ¨gia
En tÃł
Ġav iada
uc aire
oc Ã¨n
ĠcÃ² mp
ich e
Ġra che
Ġcons erva
ast ras
Ġrep t
Ġrep ais
Ġcre d
Ġcre issement
Ġpass Ã¨ron
Ġform avan
rÃ¨ ctament
Ġch iv
Ġch amp
Ġdis cs
Ġregion aus
ĠAn ne
Ġat ra
Ġdesc entr
Ġann ades
Ġann exion
Ġsoci aus
Ġpla jas
ĠPar k
Ġ6 2
emple gar
Ġz Ã¨bres
Ġvis iblas
Ġloc alitat
Ġens ages
Ġens aja
Ġ8 8
ĠcomenÃ§ an
ĠcomenÃ§ ava
Ġsub di
Ġmal ur
Ġespeci alas
Ġcultura us
Ġagu ent
In st
li ers
Ġgra fic
ĠU t
ĠMa ch
ĠMon ta
ĠMon ument
isti ques
Ġev esques
Ġsec ession
Ġpos teriorament
inst alla
Ġprepaus ada
Ġfre ja
sa ac
rÃ² des
Ġfavor ablas
Ġeleg ida
ĠCal and
Ġviv iÃ¡
Ġsin tet
ĠcÃ²rs es
Ġlev ava
Ġsosten guÃ¨t
Era u
dus a
Ġpot encial
Ġcorrent ament
Ġpan at
Ġ188 1
Ġ188 3
rom ent
onda da
Ġadop tÃ¨ron
Ġsant uari
Ġsom etre
Ġprodus on
Ġcab ra
rimi da
ext r
Ġpaus at
onc ourt
Ġpobl ament
Ġdeves its
Ġfilosof ic
oÃ¯ de
Am or
Ġsuperior itat
Ġinferi oras
Ġdestin adas
Ġvo id
ante on
ĠFlor als
Ġmultip las
Ġtur c
Ġcalcul ar
ĠJohn son
fon taine
Ġcinqu en
ĠCre issent
Ġillust rat
Ġcarta gin
Ġindic ar
ĠLau renÃ§
Ġescrit a
ĠFre ja
Ġju ec
Ġcoloni au
Ġlitor au
Ġnaz is
Ġconven cions
Ġlimitrop hes
Ġelectron ic
Ġsuplement aris
ĠHu ang
iel d
Ġposit iva
Ġpale ont
Ġcobr int
rast ructuras
Ġrecomp ensa
ĠpoÃ« sia
Ġcombus tion
Ġdisponi blas
Ġdesl iu
Ġsosl inh
anth era
ĠWikim edia
ĠPequ in
Ġespecta cl
Guilh Ã¨m
ĠZel anda
Ġrecorre gut
ĠarÃł bias
% ),
C at
L aurent
R E
R oma
V C
V eire
b Ã²sc
c au
d ÃŃs
e Ã¯
g le
i Ã§a
k en
o Ã¯n
r t
s enh
y m
Î ¯
en o
Ã¨ xt
Ã¨ da
Ġc tes
Ġc um
Ġc Ã²t
in ville
or on
is ada
ra ma
Ġf accions
ic es
Ġt ienne
Ġv res
am as
am an
gu en
Ġre ctorat
Ġse v
Ġse guÃ¨t
Ġb ala
Ġg anha
le c
ti bles
ti pe
ĠC ala
ĠC ori
ĠC lap
im ont
Ã© is
Ġo dor
ran ce
Ġson das
Ġr ent
Ġr na
Ġr cis
ĠM ada
ĠM aire
ĠS ou
ĠS ub
ad ar
ad jectiu
ĠP iren
ch in
ap i
Ġan am
di Ã¨r
ĠB id
ĠB ois
iss ements
av Ã¨
av Ã¨va
Ġamb icion
ĠF MI
ĠT ir
ac ompanha
itu de
ĠL aurent
Ġpo eta
Ġte au
Ġdi as
Ġtra fic
Ġtra Ã¯s
Ġap assion
ĠN Ã²stra
ĠD VD
ara y
Ġar omat
Ġcomp resa
ĠI S
ĠI NSEE
ons o
em ond
ag rada
Ġesp in
Ã²t ge
ost ilitat
od y
Ġter ci
ĠH ist
enc es
Ġcl ient
Ġpol ar
Ġsol as
ie ta
gan ta
Ġman ja
Ġrel Ã¨us
Ġsens ib
Ġdo ctorat
Ġgener alas
Ġvi elha
Ġcal i
An at
ĠMar y
Ġins cripcion
Ġjorn au
Ġtrabalh ava
ĠAl iats
Ġcamp ana
Ġca Ã§ar
Ġag ress
Ġleg at
Ġconc erto
Ġpat it
Ġdev Ã¨rs
Ġpresent ant
Ġpresent ats
Aques t
af irm
Ġmi tes
cul ara
Ġfu Ã¨lha
Ġroman ic
ĠMa h
ĠMa jor
Ġistor ian
ĠMi k
Ġais inas
Ġtrop ic
fici tat
Ġnav Ã¨ra
Ġdisc rimin
Ġext rÃ¨ma
Ġsup rÃ¨m
Ġess or
Ġpos cut
Ġconqu er
Ġend em
Ġsorti das
vir at
Ġcir con
Ġescriv ana
Ġsin teti
Ġpap e
ĠÃ Ģ
ĠBo da
Ġcob rir
Ġnatura us
Ġcomerci als
Ġnuc lÃ¨us
Ġautra ment
Ġfer r
Ġcresti anisme
Ġbal on
Ġconselh iÃ¨rs
Ġinici ativas
Ġelect romagnet
Ġ184 4
Ġast Ã¨ca
Ġindustri als
Ġvolont ari
Ġbr un
Ġtransform acions
Ġsac rat
Ġfrequ entas
Ġdeves ir
ĠPl anta
Ġescol an
ĠNe ol
Ġamor osa
Ġamor Ã³s
len ie
ĠTra balh
ĠMarc el
Ġadap tada
ardi e
Ġperman ents
Ġpic ard
Le on
Ġtur cs
Ġdesserv i
Ġforn ir
Ġconstru ire
Ġacompanh ada
Ġprestigi Ã³s
Ġdistric t
Ġliqu ida
Ġaculh it
ĠAu de
Ġvass au
Ġexcepcion ala
Ġbomb arde
Ġmeta bol
elect ricitat
Ġenvi at
Ġier arqu
Ġconfir mar
On t
Af ganistan
Ġfelib r
Ġcondam n
Ġvest it
Ġtel lenie
Ġfib ra
ĠdialÃ²g s
Ġotom ana
ĠSatur n
Ġadvers aris
Ge orges
Ġoss i
Const itu
Ġperif er
Char les
acu acion
ĠRoy al
Ġdiuers i
Ġbicicle ta
opro venÃ§
Ġseiss anta
Ġbachel ierat
istÃ² tel
) (
B i
C alava
E la
F on
F lor
G ar
I V
P at
S ign
S ota
T T
U ru
a ic
f us
h um
o ol
r Ã¡
Ġ ivern
on ics
te me
Ġp Ã¨sta
Ġp omas
Ġp Ã²ple
Ġa ctitud
es fÃ²rÃ§
Ġs Ã²ls
at an
at ribu
qu a
un o
or tava
Ġf isi
it Ã©
Ġqu o
Ġqu er
Ġt aulas
ri ma
Ġv aquÃŃ
Ġen au
am icas
gu ed
gu iÃ¨r
Ġdel ai
ta ble
il de
Ġre alisme
res enh
Ġse men
Ġb lu
ant rop
Ġcon tien
Ġr tes
Ġr va
Ġr ns
ĠM Ã¨stre
ĠS S
ĠS ebas
ĠP av
ĠP asc
ĠP tol
Ġpar adÃŃs
ap ogÃ¨u
ot ti
ĠB aisha
Ġj un
Ġj esu
iss anÃ§a
iv es
ab ond
ĠR et
ĠR ems
ĠF ort
ĠT u
ĠT anz
Ġent i
Ġcap lÃ²c
ĠN ik
ĠD eb
eu cl
eu ve
Ġar mat
de mp
Ġau vern
ort ats
og lob
ec on
op ol
ĠI ll
em it
ag or
Ġesp ec
Ġra mb
Ġra cinas
Ġ18 17
if iqu
Ġu Ã¨lh
od es
ex in
ex clus
Ġrep eti
Ã¨m es
Ġcaus iguÃ¨t
Ġgu ida
Ġam er
ust rias
Ġcent rat
ĠLo p
Per que
An tany
esp andiguÃ¨t
ĠK enn
Ġcas tig
Ġrev indic
Ġmin jar
Ġestat uas
ĠW orld
Ġmod el
ĠAl ba
Ġver b
Ġgl ori
aqu istan
Ġof rÃŃs
ĠMont p
Ġben l
Ġsc ena
teg ia
Ã¯s ta
Ġsub ren
Est rasburg
af luent
Ġmi x
Ġten iÃ¡n
In s
Ġsab or
Ġapar egut
Ġep ic
Ġint rar
Ġexist it
Ġcres ta
Ġocup Ã¨ron
Ġvall onn
Ġsal udar
Ġext Ã¨rna
ieu x
Ġfond Ã¨ron
eish ut
Ġavi at
Ġop os
ĠPer pinhan
Ġsent ÃŃs
Ġdamb e
Ġant is
pre f
Ġconten ent
Â» <|
Ġcaracteriz adas
Ġrespons abla
Ġ188 4
Ġdre ts
tion naire
Ġassegu rat
Ġfru cha
Ġpriv ats
Ġorgan ica
Ġtend Ã©ncias
ĠJac ob
ĠMus eum
Ġcaps ula
Ġdivers es
Dem anda
Ġvac as
ĠMol d
ĠAlb igÃ©s
Ġcatol icisme
Ġfran ch
Ġfran ca
Ġeng lob
Ġtruc ava
Ġarch ev
ĠAt lant
ĠCA N
Ġmultip les
Ġaten guÃ¨t
Ġaten enca
Ġdescub rir
Ġbenef icis
ĠBra y
Ġteor icament
Ġvisc uda
ĠEr m
Ġcultiv ada
Ġdarr Ã¨ra
ĠQ in
Ġisol ada
Ġarre don
Ġcontre fort
Ġsubrev ida
Ġpast Ã¨l
ĠacÃ²rd s
Ġchap le
ĠpodriÃ¡ n
Ġdiplomat ica
Ġmult itud
Ġdivid ÃŃs
Ġdemocrat ic
Ġlatitud s
interess Ã¨t
Ġbud gÃ¨t
Ġdioc Ã¨si
Ġrevendic acions
Ġmorf ologia
ĠGÃł rdia
ĠrenfÃ²rÃ§ ament
ĠVir gin
Ġconfirm Ã¨t
Ġpreci Ã³s
ĠRes istÃ©ncia
Permet Ã¨t
Ġcombus tible
Ġengenh aire
ĠMong Ã²ls
Ġespir itu
Ġfrac Ãłs
Ġespor tiu
ĠCic eron
Ø§ Ù
eÃ§ u
Ġjaci ments
Ġsimet ria
Ġneutr alitat
Trabalh Ã¨t
ĠAugus te
ĠMagdal ena
Ġtyp ique
aragon Ã©s
Ġaurel has
ĠJovent ut
Ġence inte
Ġheur Ã¨r
C E
M o
M us
P E
P u
R en
R hin
S iguec
a inat
a illes
d om
d uras
e il
g ats
h y
m u
m il
n d
o cions
r ista
r isti
w are
y en
z el
× ķ
Ġ ÃĪst
en ia
Ġp oma
Ġs ig
Ġs se
Ġc ita
er iÃ¡
ci nacion
in cion
Ġm eri
Ġm uish
Ġla gu
un ha
is ol
Ġf alh
Ġt ut
Ġt alas
Ġt acas
au ra
Ġv idas
am n
am ira
Ġn Ã²ble
gu Ã¯
Ġse da
Ġb if
ti gny
ant Ã¨t
ĠC ron
ĠC ord
im et
mb Ã²rd
Ġson ar
Ġal a
Ġal ig
Ġr ci
ĠP S
ĠP ab
ĠP ess
Ġpar i
ap re
iss abte
av re
ab st
Ã¨s ia
ĠR ot
ĠR Ã²c
ĠG and
ĠF au
ĠT op
ĠL iv
ĠL itu
ĠL utz
Ġfo c
Ã©n cies
ma g
ĠV a
Ġnom in
ques a
ĠD ist
de x
Ġme ma
ec os
op s
op atra
ĠJ e
ĠJ es
Ġpre dat
Ġh Ã¯
Ġab itant
ina is
oc l
Ġven Ã§
rit a
Ġaut o
Ġest ut
Ã¨u ro
Ġesc as
ast ra
Ġmas c
esc Ã²las
Ġu elhs
Ġter rib
Ġrec Ã¨p
Ġrec ampar
ĠH ugu
ĠH erb
Ġdeu te
ip e
Ġcre Ã¨ron
ĠÂ» ),
ven guda
ep h
Ġam istat
ĠCh an
ĠCh ev
Ġman dadas
ĠK ant
ĠMar x
Ġconst ant
Ġrev irar
aci n
aci Ã¨r
don c
Ġ5 8
Ġmin aire
Ġdom ani
Ġestat ges
Ġpoder oses
Ġcan als
Ġel len
Ġutiliz Ã¨t
amp le
ĠAr geria
Ġserv it
Ġconc ert
Ġ16 00
Ġvis itas
Ġmen an
Ġdesp roves
emb les
mes as
Ar ch
ĠCar oling
Ġpens ament
ĠIn st
Ġgra va
inf antariÃ¡
Ġef ectivament
Ġlat ins
Ġcatal Ã²g
qui et
Ġcel Ã¨st
Ġcel tique
Ġconv ers
Ġconv idats
Ġsal ut
Ġpos teriors
az ard
ĠÃ²m is
Ġfre d
Ġbi ograf
Ġdeban an
rÃ² fa
Ġdirig ent
Ġestabl idas
uÃ¨ ch
Ġem ission
ais inas
ide a
Ġacc entu
Ġfer ot
Ġparte jan
gar ve
Ġdre it
Ġ184 5
Ġunivers au
Ġast re
ile o
men atge
Ġ185 6
Ġut ila
gues tes
Ġobserv acion
install Ã¨ron
Ġvac a
ĠBas ilica
lom er
Ġimperi alas
Ġadap tats
Ġguer ilha
ĠFer dinand
Ġnucle ars
Ġmaxim al
ĠVen eÃ§u
ĠÎ ²
Ġdesen volop
Ġcultiv at
Ã« l
Car ta
Ġgerman ic
Ġisol ats
ĠRen Ã©
Ġdemost rar
dich es
amass ar
Ġcoloni ala
ĠgrÃ²ss as
Ġdiplomat ic
ĠSeg ond
Ġfr Ã²nt
ĠBur Ã¨u
adap tacion
Ġefec tiu
Ġpeleg rins
Ġdinam isme
Ġregul ara
Ġimmens a
Ġaci ds
enregist rament
ĠLeg ion
ĠAnton in
Ġjovent ut
Ġcinemat ografica
Ġquinz ena
Ġpress ions
Ġbatalh ier
ĠCantal ausa
Ġinterpret ar
Ġparam Ã¨tres
Ann ibal
Ġescoc Ã©s
vey ron
Ġfact o
Ġtermodin amica
ĠPingo in
Fot ografia
Ġreiv indic
arrond iment
ĠtraÃ¯s on
5 00
A I
C an
D aiss
J ust
M ars
b aud
c ament
h ans
h tt
l og
t it
x ia
z t
en ger
en vi
Ġp ie
an onci
Ġs iv
Ġs ord
Ġc is
at ar
at ta
in k
Ġe met
al Ã©s
al co
or ci
Ġf ost
Ġf ren
Ġf Ãłcias
Ġun eis
ri k
Ġv enta
Ġv istas
Ġv ect
Ġen rÃ¨
Ġen vas
Ġen qui
os tat
us tat
el eracion
ta bla
ol es
Ġre cepcion
Ġse min
Ġse cs
ti enne
ĠS ystem
ĠP ros
Ãł b
ĠA i
Ġan avan
Ġan teriors
ĠB ut
Ġj udi
ig Ã²rd
Ġdes g
ge ment
ĠG ab
ĠG arc
ĠG relh
ĠG alhac
tan a
iz Ã¨ron
ĠF ert
ĠT ess
ĠT ok
ĠL yn
Ġdi da
Ġap ari
ĠD ip
Ġar bor
ari Ã²tas
Ġtan go
ec n
Ġsi guÃ¨t
ĠJ ud
Es tivada
Ġesp orti
ĠfÃ²r mas
Ġreg las
Ġlen h
Ġest rat
Ġcons ultat
Qu entin
esc l
ĠO z
ĠO Ã¨st
ĠO ctavius
Ġdon ats
Ġrec ap
Ġrec rut
ĠH auta
ĠH abs
enc l
Ġrep ar
ilh ar
ilh elm
Ġman car
Ġsul f
Ġcor b
Ġcor tes
Ġass iri
Ġdep en
atal an
ier enc
Ġpubl icitat
Ġcas ti
Ġfor mi
Al ibÃ¨rt
fic acion
Ġpauc s
ros cop
Ġvol d
Ġvol iÃ¡n
Ġperson au
Ġ6 9
arc at
ĠAr c
Ġleg eires
ĠâĢ ¦
Ġer ed
Ġer upcions
Ġdest ria
Ġmen ac
Ġpat ria
Ġval enci
Ġ7 4
Ġ7 9
Ġdesp artament
uss a
Ġara b
Ġespeci aus
Ġneg ativa
ej an
Ar manhac
ĠRo ge
exp rimir
Ġdec ad
rig ht
Ġpens adas
ĠIn noc
Au vÃ¨rn
Ġint rÃ¨t
ĠMa omet
Ġsost Ã©ner
aj ust
eri te
ind Ãºstria
Ġsup ression
inst itucions
Ġpes uga
ĠQu im
ĠOccitan as
Ġdeci m
Ġliber aus
Ġbl ocar
Ġorigin Ãłria
Ġpap i
Ġant ics
Ġreb ut
Ġem ocion
Ġinv est
Ġpen as
Ġbo tel
ĠAb d
pe ut
Ġcomerci au
Ġpan Ã¨ls
Ġmanif estar
Cal d
red ons
Ġcorrespond on
ĠPr of
ext rÃ¨m
Ġ185 5
Ġtransp ortar
ĠAnd al
Ġprofession au
Ġperf um
Ġsel vas
Ġimperi al
ĠTer rit
Ġ183 8
Ġpi Ã¨g
Ġvert ical
Ġcomanda da
Ġrescont res
Ġimm ers
Ġescamb iar
Ġperc entatge
Ġfeder au
Des emp
Ġremarc able
cÃ²p s
Ġrememb ran
Ġderiv ats
Ġpaci fica
Ġproble matica
iac um
Ġtolos an
Ġdifici la
ĠEd ward
Ġsusp ren
Ġfrag ments
ĠLim borg
ĠLim Ã²tges
Ġsie unas
Ġdaval ar
Ġbate jat
Ġcondam nat
ĠGard y
Ġcoment aris
Ġsoven irs
Ġcoord inacion
Ġbod isme
ĠAnn ibal
Ġgo jat
ĠcomplÃ¨t ament
ĠBai ona
DivÃ¨rs ei
ĠautonÃ²m ia
Ġtreb ols
ĠChart res
jol ais
Ġconsens us
Ġribos Ã²ma
inÃ² cci
Ġparoissi ale
Ġtoler Ãłncia
Ġalfab etic
ĠracÃ²n te
ĠniÃ§ ard
Ġveus a
Ġdestr urre
ĠcÃ²t h
" ..<|
, .<|
B N
E g
F u
G rop
P ol
P resent
R ei
d jok
j Ã²ls
t in
v y
Ã Ģ
â Ħ
Ġ endre
Ġd ats
Ġd uras
en es
en ja
Ġl l
Ġl utar
Ġde ras
Ġp anta
Ġp inh
Ġp onduda
Ġa ost
Ġa mira
Ġa tanben
end rÃł
Ġs Ã¨rb
at ions
qu ina
in adas
al te
al at
al cÃ²l
or ge
ra ul
ra van
Ġf Ã¨u
Ġf rich
Ġf alais
Ġf estenal
it us
Ġt imp
Ġt ud
Ġes tiv
ri en
Ġv ici
Ġen via
Ġper pausa
Ã¨t s
ol iva
Ġre ce
Ġb ran
Ġb li
ai d
ai Ã¨t
Ġcom esti
Ġcon cebre
ĠS in
ĠS od
ad issa
ĠP ir
ĠP ou
ĠP eir
Ãł lia
ap Ã¨la
ĠA ch
ĠA mians
ot ra
di e
ĠB Ã¨
Ġj ug
ter na
Ġpro pulsion
ĠR est
Ġpr er
ĠG el
ĠG ib
Ġsu bl
Ġent iÃ¨rs
me mb
and ona
Ġtra d
ĠN an
ĠD er
ĠD ig
ĠD oas
ĠD Ãłrius
En viron
imp oss
Ġar ri
Ġau gment
ob j
Ġli ard
op Ã¨a
ĠJ on
ĠJ ardin
Ġpres o
Ġav anÃ§a
Ġab adiÃ¡
ĠcÃ² ca
Ġreg n
Ġreg nat
ost ic
Ġest al
esc u
esc ut
esc and
elh or
rat ion
ud Ã©ncia
ĠH aw
Ã²b la
Ġma ine
Ġsol ista
Ġcol Ã¨ra
Ġaqu Ã¯
ilh Ã¨u
Ġch an
Ġcaus its
Ġpod rÃł
Ġdo bles
ĠFran z
esp Ã²rt
ĠK ong
Ġcas tanh
Ġmus cles
Ġ4 50
ĠGu Ã¨rras
ident ificacion
Ġconf ront
lo is
Ġ6 7
Ġag ent
Ġag rad
Ġpublic ament
Ġcr enh
Ġ8 3
uss y
Ġdist ant
omb e
arn Ã©s
Ġcompaus Ã¨
Ġsuperf ÃŃcias
Ġba isha
autor izacion
Ġdess us
Ġsab iÃ¡
ĠCon tes
Ġdefin its
Ġgra p
Ġgra du
Ġcad iÃ¨ra
Ġofici Ã¨r
Ġofici als
Ġsimp at
Ġais ament
Ġcres enÃ§as
Ġmena Ã§ada
inter Ã¨ssa
ĠEn c
Ġdisc ut
apar eisson
Ġfis ics
Ġsal on
Ġpos ca
Ġmor re
rÃ² vas
Ġanim alas
Ġdirig ÃŃs
Com enÃ§ament
Ġorigin alitat
Ġproc Ã©s
Ġvend ri
Ġpassat giÃ¨rs
tad or
Ġsepar ar
iÃ¨ ches
dit ion
ĠIs le
ĠIs lam
Ġobl idar
Ġdesign acion
Ġaument at
ĠremplaÃ§ ada
ĠChar le
Ġ184 6
ĠgrÃ¨ us
Ġbr icas
Ġcommun ale
Ġjo guÃ¨
Ġfe od
Ġcav itat
Ġinform atica
Ġprepar at
ĠBu gey
ĠAlb Ã¨rt
Ġaper ats
Ġamass ar
Ġamass adas
ĠMal ta
Ġjus ta
Ġinferi ors
indi ans
Ġfinanci Ã¨rs
Ġide ologia
ĠLib ia
ĠPre Ã¯st
rid ge
ichel ieu
Ġduc at
apor acion
ĠFelip e
Ġintellectu al
ele ine
Ġdespari Ã¨ras
Ġprononci ar
Ġproves ir
ĠPic chu
Ġgrat ac
ĠdeuriÃ¡ n
Ġexcepcion al
Ġaprofich ar
Ġaprofich Ã¨ron
arch iu
Ġinterven ir
Ġveget ala
Ġpropor cions
Ġtribun als
Ġvaccin s
Ġglob ala
Ġedit or
On gan
Ġislam ica
Ġfamili ar
ĠNew ton
exec utiu
Ġelabor at
Ġdivin itats
Ġgre don
Sab i
Ġafebl iment
Ġbilin gu
Ġcondu cha
edic cion
Ġmobiliz ar
Ġdeleg acion
Ã©t Ã©
Ġinfluenci at
Ġsusvelh ar
alb um
ĠChal on
ĠArd ennes
quim Ã¨des
Ġdrap Ã¨u
Ġusat g
ĠSev er
ĠvÃ²st res
Ġvideoj Ã²c
Ġpolem ica
Ġviolon ista
Ġacarn ada
Ġesquel eta
Ġatmos ferica
ried rich
Ġpanor ama
ĠTrob adors
ĠRef orma
Ġipot Ã¨sis
ĠFac ultat
Publ iquÃ¨t
arreceb Ã³
ĠQueb Ã¨c
ĠesfÃ²r ces
ĠTanz ania
âĦ ¢
A im
B arcelona
E ur
G anhÃ¨t
R ef
S im
S eis
T Ãł
U l
X V
b ec
d im
e timologia
f ol
j amin
l ans
n ou
s k
u aus
Å Ĥ
Ġd its
Ġl ha
Ġp Ã¨ls
Ġs un
Ġs is
Ġs ession
Ġs Ã¨xe
ar ai
re i
Ġla issa
al et
un animitat
Ã² mi
is ant
ra peut
Ġt oc
au rel
Ġv Ãłder
os i
el lan
il or
il Ã¨u
res es
Ġb orsa
Ġg ens
Ġg aud
ĠC Ã²rd
ĠC atedrala
Ġr icas
ĠS Ã¨t
ĠS ong
ĠS ultan
ĠS arthe
ĠP s
ĠP il
ĠP ress
ĠP rad
ĠP ey
Ġpar f
Ġpar tatge
ĠA man
ĠA lan
ĠA lain
ot isme
ĠB ass
ĠB ang
ĠB ale
iss ada
av ans
Ã¡ ria
ab Ã²rd
id Ã¨t
ĠG om
ĠF Ã¨l
ĠT ER
ac or
ac tius
ĠE y
ĠE ss
Ġte tra
ĠV o
ĠV ich
ĠD j
eu ri
Ã¨l ament
imp Ã²st
Ġar cs
Ġau cit
ort s
ec d
op ort
aut ora
Ġsi Ã¨c
Ġpl astic
um ans
Ġex isti
em igracion
Ġentre ten
ess Ã©ncia
ess ora
Ġaut an
ast ar
Ġmon ge
Ġcl aras
Ġrep ublicas
emp ont
Ġma itas
Ġpol on
Ġpol idas
Ġsol itari
ep pe
Ġam ist
Ġprincip at
ĠLa val
Ġdo tada
Ġfar iÃ¡
Ġcor riÃ¨r
ren eson
Ġcal ci
Ġob j
ĠMar ina
Al iar
Ġdesc re
Ġdesc riv
Ġrev Ã¨rs
erc ul
Ġperson alas
ĠW ilhelm
Ġja una
Ġdifer en
ĠpÃ² cha
Ġca is
ĠMont g
ĠAr g
Ġfil i
Ġleg it
Ġconc re
Ġconc ur
Ġnos ta
icul a
uss i
Ġrepresent avan
Ġclass ats
Ġactu aus
In di
Ġpens ion
Ġcer ca
Ġind Ãºstria
Ġfonda dors
Ġves iÃ¡
Ġtecn ologic
Ġve ter
Ġmemb rana
Ġmena Ã§as
ril hon
ĠY onne
Ġespanh Ã²las
Ġespanh Ã²us
Ġapr Ã©s
pl ica
Ġcerc ava
Ġsosten guts
arqu et
ĠVer da
Ġdesign ava
Ġmost rÃ¨ron
Ġom in
ĠBe z
Ġtri an
Ġdestru ch
Ġindustri au
ĠAm or
Ġpal estin
import ants
ĠPort amant
Ġvaria blas
Ġmob ilitat
Ġfel ibre
Ġrur alas
Ġcell ulara
Ã¨rb as
Ġconquist Ã¨ron
Ġ183 6
ĠSch w
Ġcapt urar
Ġprotest anta
Ġbibl io
Ġvit alitat
Ġexc ess
Ġlar vas
Comp tava
Ġteor ic
Ġcinqu ena
oun d
Ġtit ular
Ġcultiv ar
Ġlaiss at
Mau rici
Ġimag inari
Ġdespari Ã¨rs
aven ir
Ġredus it
ĠFre ud
Ġimpaus ar
Ġsubrev iure
Ġcomunaut ari
Ġred ond
Ġfras as
Ġaccess ibla
Ġradic al
Ġmetrop olitana
Ġconceb uda
âĤ¬ âĦ¢
ĠPÃ¨rs as
Ġimmedi ata
ĠdanÃ§ ar
apren e
ARN m
Ġprimit iva
estra tegia
individ Ãº
Ġvaiss Ã¨ls
imag inari
Ġafir ma
ĠCastÃ¨l nÃ²u
Ġfant astic
Ġsosterran h
Ġquas iment
ĠAuv Ã¨rn
Alb igÃ©s
Ġindig Ã¨nas
Ġneb ot
ĠcontrarÃ²t lar
ĠSir ventÃ©s
Ġlect ors
eros ion
Ġcaf Ã¨
ĠAlf red
Ġbarre ja
Ġemble matic
Ġadult s
ĠAnat olia
Mari e
Ġberb Ã¨r
pid um
opt Ã¨rs
ĠHug o
Ġaux ili
ĠPle istoc
Ġmonop Ã²li
Ġredrei Ã§ament
ĠEti opia
extrem itat
Ġbibliot Ã¨cas
ĠDomb es
ĠPf izer
ĠBruss Ã¨las
oglob ina
B er
C I
C inc
D ec
E D
H enri
I G
P os
f ants
h ana
h em
m is
r Ã²m
w ald
Ġ xa
Ġl ion
on ats
te mb
te ja
Ġp is
Ġp iv
Ã¨ d
Ġs Ã²rta
of t
of Ã²na
ar ro
ci al
al o
al ric
Ġt alhas
Ġes b
ri es
Ġv iz
Ġv Ã²ts
am inas
Ġn ou
gu Ã¨sson
us ions
Ġre mand
Ġre alis
Ġb of
Ġb in
Ġb eu
Ġb rig
Ġb Ã²na
ro qui
ro ux
ti z
ti es
ti Ã©ner
Ġcon Ã³isser
âĢ Ķ
ul aras
ĠM Ã¨ca
ĠS or
ur d
ĠP ens
ĠP ara
ch an
Ġpar lam
ĠA OC
ÃŃ m
ĠB orn
ir on
ab ric
ĠR y
Ġpr Ã¨st
ĠG ou
ĠF ro
ac Ã¨as
ĠE th
ĠN au
ĠN ai
ĠN ord
ĠD or
Ġme itat
eg un
ec tiu
ĠI er
Es tabl
Ġi ber
Ġfa iss
em as
Ġav esques
Ġesp ect
Ġesp asa
Ã³ u
Ġest ils
alh at
est ru
Ġcons Ã¨rva
ast Ã¨l
ast icas
esc Ã©ncia
esc riguÃ¨t
Ġgen etic
Ġrep leg
Ġpol ic
Ġpol ig
Ġsol ets
Ã¨m s
Ġcre us
Ġmes ti
Ġch Ã¨c
teri al
auc Ãłs
Ġcor ba
man ac
ert as
ier ry
ub ert
ĠK a
ĠK ir
Ġfon taine
Ġcapit au
Ġcas tell
fic ha
Ġ5 3
Ġ5 000
erc ÃŃs
Ġesta gi
ĠW ind
Ġ12 16
Ġver ge
Ġtrob avan
Ġleg al
Ġleg ions
ord en
eta da
Ġref re
avan Ã§a
ang Ã¨li
Ġdesp iech
Ġ14 92
Ġno ct
In terior
Ġapar entament
Ġpens i
Ġret ro
Ġcontunh Ã¨ron
reg at
Ġbast ison
inf in
Ġport Ã¨ron
Ġarrib ats
Ġsimp t
Ġsimp atia
Ġcatal anas
Ġexist ent
Ġocup acion
Ġjov enÃ§a
Ġdisp ers
Ġprodu cha
Ġprepaus an
rÃ² che
her ine
Ġdaiss an
ĠRei al
Ġconserv ada
Ġmer Ã§as
Esc ut
ĠTh ou
estudi ants
esper anÃ§a
Ġsau vat
Ġsen ador
ĠOr leans
Ġinici al
Ġvir at
Ġsob ren
ĠCr istian
Ġsom ission
ĠBe at
ĠProven ce
Ġta xa
Ġinstall ada
ext rÃ¨ma
Ġ185 7
Ġequip ada
ĠEl isab
Ġtomb as
Ġmassa is
Ġdepend enta
Ġfix ada
Ġfut urs
Ġcri mes
Mar itima
ĠMor van
Ġadap tadas
Ġ183 9
ĠLib eracion
Ġcarn iv
Ġpic ar
Jo hn
ĠFlor ida
ĠprÃ¨s tes
Ġcalcul s
Ġperc uss
Ġinvent or
Ġparall el
Ġneut rons
Ġpedagog ia
Ġplus ors
imm ersion
Ġextra terr
Ġsiste maticament
Ġcha f
equip atge
ĠPic ardie
ĠNorm andia
Ã± a
Ġsemblan Ã§a
Ġbomb ard
Ġpilh ada
Ġcalc ari
ĠTres ena
Ġradi acion
Ġmig rat
Ġros eg
Ġedit ors
Ġdemocrat ica
Ġsupaus at
Ġpersp ectivas
Ġensag Ã¨t
Ġaustri an
Ġmontanh Ã³s
Ġexpaus at
Ġmestre jar
Ġcuri ositat
ĠPass atge
Ġinvesti g
Ext rach
ĠAquel a
Ġestric tament
Ġconcep cions
vill ers
ĠEt rus
Ġtestimoni atges
Ġcodific acion
Ġrepart its
ĠCult ural
ĠTemp s
Ġcreiss enta
Ġremira ble
ĠBorb on
uscul a
enem ic
Ġprogram acion
ĠNatur al
Ġcontro vÃ¨rs
Demor Ã¨t
ĠMarg arida
Ġlittor al
ĠMilh au
ĠMov ement
Ã²cten ent
Ġseign euri
ĠGiov anni
Ġdomani ale
0 3
A la
H er
J ol
L im
M embre
O S
P G
P entru
S in
b il
f ia
f ont
m Ã²rt
m artin
o o
o ar
p le
u its
w s
z es
Ã ¦
Ã ®
en j
Ġl unas
te ran
te ria
Ġp ans
Ġa de
Ġa test
Ã¨ ament
an alis
Ġc ta
ar at
Ġe cl
Ġm aus
al p
Ġf erv
it ch
Ġt ran
au ca
ri Ã¨ra
Ġper ch
Ġper diguÃ¨t
Ġn s
Ġn eu
gu eren
os e
os Ã¨t
el Ã¨it
Ġre alitats
Ġre quer
Ġb ilh
Ġb ric
Ġb Ã³s
Ġg ah
Ġg argam
Ġcom Ã¨dia
Ġcon ne
Ã§ ants
Ã© ger
Ġal cal
ĠM assa
ĠM aur
ĠP od
Ãł r
ist ra
ch ant
ch ada
Ġpar Ã©isser
ĠA ver
ĠB ala
ĠB ren
ĠB ah
ĠB onn
av es
av em
id on
id Ã©ncia
ĠR oc
ĠG ay
ĠF as
ĠF our
ĠF oguÃ¨t
ĠT ob
ĠL om
ĠE c
Ġent rar
ĠV ida
Ã¯ cas
Ġtra i
ĠN atura
ĠD iu
ĠD up
ĠD esp
ĠD ordon
imp eri
Ġar qu
Ġau dit
eg al
ec lip
op Ã¨ra
op ular
Ġcont entar
Ġpre ferÃ©ncia
Ġres on
em Ã¨u
Ġav Ã¨tz
Ġh an
Ġh Ã¨sta
Ġven ga
Ġcons ec
Ġ18 27
Ġor quÃ¨stra
ed or
Ġtr ant
Ġmunicip alas
Ġcol omb
Ġaqu i
Ġcre issent
Ġmes pres
Ġmes tier
Ġmes fis
Ġcaus ÃŃs
ĠCh el
Ġman can
ill o
Ġdis iÃ¡n
ev acuacion
Ġals aci
Ġpolit ician
Ã²s tes
ĠGu iana
Ġins ufis
Ġjorn als
Ġ17 00
Ġ17 50
Ġ5 9
Ġpla c
raf ia
ĠAl c
Ġca Ã²s
Ġof Ã¨rta
Ġ6 1
Ġ6 3
ĠAr le
ĠAr ras
Ġmet aus
Ġz i
Ġcontra c
Ġnos te
Ġpat ÃŃs
Ġdev as
Ġras im
Ġ8 1
Ġ8 2
Ġexp licacion
Ġdrech as
dic te
Ġespeci als
Ġespeci alizada
Ġrepresent adas
ej or
Ġagu esti
anci ans
Ġorganiz Ã¨ron
orti guÃ¨t
eng Ã³
Ġsimp lici
Ġautor itari
Ġcres on
Ġmena Ã§at
ĠEn t
Ġtrop ical
ĠQu atre
Ġjog ava
Ġdece me
Ġnecess Ãłriament
Ġanim acions
Ġop ort
ĠRei ala
Ġant au
Ġemb l
ĠprÃ²p i
Ġperd Ã¨ron
ĠTh Ã©
Ġconeiss Ã¨m
Ġdemanda va
Ġvoc alas
Ġelect rics
Ġdif i
Ġ184 9
Ġfai dits
ĠPr Ã¨mis
ĠMo z
Ġestran gier
Ġfrequ entament
Ġpref Ã¨cte
Ġuman ista
Ġpobl adas
Ġmesc lat
ĠPl ou
Ġquauqu as
Ġprofession aus
Ġfort ament
Ġguer riÃ¨rs
ĠBeau mont
ĠBeau jolais
ĠTer ral
Ġnucle ar
Ġseg ment
Ġvenc uts
Ġcarn aval
ĠBlan ca
Ġmodern itat
Ġbenef icia
ĠMari us
ĠbÃ²s cs
cid ÃŃs
Ġinterpre tacions
Ġpreson iÃ¨rs
Cont uni
Ġpedagog ics
Ġpedagog icas
ĠMass ÃŃs
Ġafric anas
Ag en
Ġestrangi Ã¨ra
ĠAss emblada
Ġtolos enc
Ġredus ir
Ġdiu Ã¨rs
Ġresist ent
Ġcompr Ã©ner
ĠEd mond
Ol impic
atac as
Ġbanh s
ĠSeg re
acÃ²rd s
gra ma
Sab Ã¨m
Ġmetall ic
Ġsed iment
ĠArn aud
ĠcÃ²m tes
ĠPeit au
Ġcobr isson
ĠDo ctor
Ġail Ãł
Ġculh ida
hen ko
ĠtelescÃ²p is
imag inacion
Ġprep onder
Ġconsag rat
Ġconver tir
Ġgeograf ics
Ġvinh airons
Ġpesc adors
Ġnarrat or
Ġagra diu
Ġgaulo is
ĠDuc at
Pa ÃŃs
Ġsinc ron
ĠCle opatra
ĠGre en
Ġestet ica
Ġambed oas
Ġjac ob
Ġobs tac
Ġajust ar
chev ics
ĠLem Ã²tges
Ġlegend ari
Ġvern ac
ster dam
Ġsubreviv ents
Ġjura ment
ĠreÃ§ aup
ĠUru guai
ĠMoul y
Ġcurs us
ĠeqÃ¼ atori
ĠEdo ard
ĠSed an
Entra Ã¯n
Ġperdu das
Ġbact Ã¨ris
C A
D onc
E conom
E urop
F I
N L
O TAN
c ant
d ens
e ans
k u
l Ãł
n eg
o ge
o tel
r era
s Ã¨t
s ubretot
u er
y p
Î ´
× Ļ×
Ġ Åĵ
Ġl egu
on te
Ġp h
as teroÃ¯
an cas
end Ã©ncia
er an
ci r
Ġe lic
Ġe tim
Ġm essor
or um
Ã² quia
it adas
ic on
Ġt ons
ri que
Ġv od
Ġv ou
Ġv esp
Ġen onci
Ġen veja
us co
el or
il ian
Ġre ba
Ġre alista
Ġse teme
Ġb ec
Ġb oci
Ġg ro
ins cripcion
Ġcon cl
ĠC aus
ut t
ĠS hi
ĠP in
ĠP Ã²
ĠP rom
ch ement
Ġpar lant
la ise
ap ert
ap rÃ²
Ġan onim
ĠB io
ĠB onne
ĠB ronze
ir ats
ct us
Ã¡ r
Ġdes aparicion
Ġin telligÃ©ncia
ĠR osa
ĠR oland
ĠR ichelieu
ĠG ala
ĠF le
ĠT ort
ĠT ak
ac uÃ¨lh
and ar
Ġap ropri
ĠD ru
aut ent
Un ivÃ¨rs
ce ae
Ġsa x
Ġres tan
Ġven eci
art ar
Ġlen ha
Ġcar rada
Ġesc av
Qu ant
Ġ18 10
esc lat
Ġgen Ã¨r
ex terminacion
ss er
ib ert
Ġma ison
Ġpol lu
Ġpol aras
ilh ada
Ġman da
Ġcent enari
ĠLo vre
Ġfam a
ren as
Ġtemps ada
Ġcal vin
Ġdef ensiva
ĠK ing
Ġcapit ulacion
Ġso ÃŃs
Ġfor um
Ġfor esti
Ġfor Ã§at
ori etat
Ġpich Ã²ta
Ġsoci alisme
Ġpla Ã§ats
tra cion
Ġ6 6
Ap rofich
Ġprov ar
Ġag ir
Ġserv at
Ġleg ala
Ġer Ã²is
Ġloc alizat
Ġval on
Ġ7 7
Ġum ids
Ġdemor Ã¨
ĠRo que
Ġapar ent
Ġapar eiss
ĠIn s
Ġint it
Ġint Ã¨rnes
Ġbast on
Ġbast ÃŃs
ador es
eiss ida
ĠGran de
Ġvari at
Ġve ctor
ĠEn aut
Ġtrop icalas
apar Ã©ncia
Ġdisp ari
Ġsup Ã²rts
Ġparticular itats
Ġfan ga
Ġinternacion aus
Ġestabl ÃŃs
co ta
Ġproc ession
Ġviv i
Ġpap autat
Ġfen Ã¨stras
Ġrason ament
Ġpot on
Ġdistin cions
Ġmanif Ã¨sta
Ġconeiss iÃ¡
Ġcu ol
Ch rist
uis ha
Ġmanten guÃ¨t
Ġdesign ats
Ġadop tadas
ĠremplaÃ§ ament
Ġcros adas
Ġom osex
Ġoccident aus
Ġunivers itÃłria
Ġfrequ ents
Ġrevolucion Ãłria
Ġproteg its
Ġmusic aus
Ġdeves ÃŃs
Ġdivers as
Ġpe Ã§a
Ġamass ats
Ġdocument acion
ĠMag n
Ġsubst itucion
199 9
ĠGal ileo
ĠGra y
Ġ183 5
ĠJul ien
Ġauton Ã²mas
Ġris cs
Ġtur tÃ¨t
Ġdescub Ã¨rtas
To tei
Ġcomand as
oun g
Ġsat ir
Ġproclam ar
ĠNov Ã¨la
Ġsan gu
Ġpractic at
Ġpaci ent
ĠbilingÃ¼ a
Ġbu Ã²u
Ġaer ianas
Ġaer opÃ²rt
Ġclimat ics
integ rar
Ġvass al
Ġprevist s
ĠVil af
Ġdam atges
Ġdemost racion
reu il
Ġrepublic ans
Ġinclus ent
ĠPas cas
Ġconj ugas
Ġbau Ã§
Ġjonh ent
ĠmÃ²st ras
Ġrestaur ants
ĠfinanÃ§ ar
ĠfinanÃ§ ament
ĠNig Ã¨r
Ġcarr Ã¨ra
ĠViv es
assan ida
Ġpura ment
Pren guÃ¨t
Ġdesira va
ĠItal ia
Ġrevisc Ã²l
estran giÃ¨r
Ġprotestant isme
Ġfolcl Ã²re
Ġcore an
ĠvÃ²st ras
Ġrenonci ar
Ġellip tica
Ġbacteri as
Ġaup rÃ¨s
exprim ÃŃs
ĠucraÃ¯n ian
ĠFay ard
Ġcancel ier
Ġconson antas
Ġsociol ingÃ¼istica
Ġdimin ucion
epis Ã²di
Air bus
Ġgreg orian
Ġnucleoti ds
Argent ina
ĠCori olis
ĠLitu Ãłnia
Ġdiferen tei
Ġsimplici tat
A in
C a
C rotz
D om
D ess
F ilh
F orma
I m
L Ã¨u
N Ã²stra
O p
S A
S imon
a guÃ¨ron
b it
b all
e o
h it
m ur
r Ã¨sses
s borg
v au
v ard
w i
z u
Î ¬
Ï ī
à ¤
Ġ Ãłn
Ġd adas
Ġd ons
on ch
Ġp Ã©s
Ġa xes
Ġc ala
Ġc ac
Ġc urat
ar Ã©s
er ror
at la
in clus
Ġm Ã¨l
Ġm als
Ġm uda
al ara
Ã² te
Ġf et
Ġqu ins
Ġqu alas
Ġt Ã²rt
ri ers
Ġv Ã¨r
Ġn en
Ġn Ã¨
gu erite
os id
Ġb rieu
Ġb omba
Ġg ab
ins ki
ai e
ĠC i
ĠC ot
ĠC aucÃłs
ul i
ul acions
Ġr Ã²sa
ĠM un
ĠS ing
ĠP ons
ĠP aire
ĠP rat
ĠP aquistan
Ãł vid
Lo ir
Ġpar ta
ap s
ap rofich
ĠA ud
di das
ĠB Ã©
ĠB ran
ĠB Ã¨l
ĠB oc
ĠB lack
ct Ã¨a
Ġdes ag
Ġdes astre
ĠR an
ĠR Ã©
ĠG ri
ĠG ant
ĠG arda
ĠF i
ĠF ai
ĠF ir
ĠT ebas
Ġsus presa
and ert
Ġte rapeut
ma il
ĠV exin
Ġnom ats
Ġtra chs
ĠN ur
ĠN iv
ĠD im
ĠD ub
imp er
de on
ari o
ob ratges
Ġcomp tan
Ġsi an
ĠJ us
ag issiÃ¡
Ġmar ti
Ġmar quÃ¨ron
Ã¨g ra
Ġven er
alh ons
Ã²l tas
esc ultura
Ġ" ,
Ġter me
Ġrec urr
ib ia
Ġcl ans
ip si
Ġbas ats
Ġaqu itan
Ġform ala
ep ara
rÃ¨ a
Ġch ano
Ġam ors
ill i
ill ers
Ġrel Ã²tge
Ġsens acion
Ġcor pus
olog ique
ĠLo c
An ciana
Ġass ab
ĠAn ti
ĠK m
ĠK il
ĠK ubrick
Ġsos linha
19 45
Ġdesc op
Ġdesc omp
arri u
aci Ã³
Ã²s as
ern ic
Ġvol ant
ident ificar
oma cia
Ġconf ronta
Ġposs edir
ĠMont re
ten berg
ĠAr mand
Ġmet an
Ġmet als
Ġdesp assar
ius eppe
Ġpresent adas
Ġneg atius
ej ant
ej ava
Ã²u vre
Ġdemor anÃ§a
Ġdemor auen
ann es
Ġ9 6
Ġclass ificada
entre pren
aur Ãł
erg ne
Ġagu l
estat ge
ĠIn dre
Ġsemb l
Ġcer eb
Ġint rada
Ġbast isson
Ġlat inas
Ġofici aus
Ġcres quÃ¨t
Ġev ent
Ġmerc enaris
Ġfre mas
Ġbi ologica
Ġjog ada
urb anisme
Ġliber ala
Ġcul tiva
Ġcau das
Ġcau matge
Ġassoci adas
Ġis las
Ġdirig ents
ĠPer bÃ²sc
organiz acions
Ġcrit Ã¨ri
Ġcompren iÃ¡
Ġgas es
Ġ25 00
ĠÃ įn
ĠCas tan
Ġfer its
ĠAng le
Ġdia gn
onda cions
ĠChar l
ok s
Ġempleg adas
Ġcontinent al
Ac ademia
Ġtri angles
Ġregim s
Ġdestru ida
Ġdestru ire
ĠProven Ã§
Ġinte raccions
Ġrefus at
Ġdessenh ar
Ġadministrat ivement
Ġtransform ada
Ġleu g
Ġensenh Ã¨t
men ia
Ġident ic
Ġproteg ida
vers ion
Ġfe bles
Ġmesc lar
ĠPl otin
oÃ¯ des
Ġminor izadas
Ġment av
Ġtruc ada
Ġsubst itu
Ġjapon eses
ĠFer ri
Ġinteress at
ng el
Par ÃŃs
ĠCat arina
Ġteor Ã¨ma
Ġconstru ctor
ĠmÃ¨t ges
Ġsimbol ic
encont re
Ġpersegu ida
Ag Ã©ncia
Ġintellectu als
Ġboca ge
Ã± o
Ġpsic ologia
Ġimpaus at
Ġdemost rÃ¨t
Ġveget als
Ġrat ificacion
Ġradi acions
Ġimposs ibla
Ġlot issements
ĠNeu f
ĠNeu ville
Ġqualqu as
Ġacadem ic
ĠGov ern
Ġesple itacions
Ġsuplement Ãłrias
Ġpreserv ar
Ġadul te
Ġrecer cas
Ġeneb it
Ġporg ir
rÃŃ ver
Ġord inator
Aub in
ĠIst Ã²ria
Quau qu
Ġgeograf icas
ĠChau mont
Ġsacrifici s
Ġox igÃ¨n
evol ucions
Ġlect uras
Ġinfin it
aquia vÃ¨l
Ġseptentrion ala
ĠColle ge
Ġtelefon ada
Ġvideoj Ã²cs
Ġjac es
Ġflam enc
Ġod ale
Ġinnov acions
mete is
Ba ins
Ġpseu don
ĠImp eri
Ġmediat Ã¨ca
Ġshogun at
Ã©li x
Fond Ã¨t
Proven Ã§a
Fel ip
Observ atÃ²ri
Ġinsp irada
Ġnasc uts
Rai mon
Uman itat
ĠCaland retas
Ġcontrefort s
Ġlagu ens
Ãłb ria
ĠGarc ÃŃa
C o
C orn
C entre
E ug
F ont
P rob
P ichona
S av
T P
V B
V is
b el
e h
f t
f Ã²ra
j og
m aire
o e
o use
r erie
s u
s ula
s eccion
t us
z h
Ġ Ä
Ġ omb
Ġd ap
Ġl ep
Ġl isi
Ġde const
an teriorament
es e
end uda
Ġs ses
Ġc ig
Ġc ias
Ġc rip
ar ren
at in
Ġm Ã©
Ġm uta
Ġla v
al ent
al le
al ban
al ianÃ§as
Ã² le
ra ci
Ġf Ã²c
Ġf lac
ic an
om Ãłs
au da
Ġes lh
ri ds
Ġv ag
Ġv ota
Ġv Ã©ncer
am Ãł
am essa
ol eta
Ġre un
Ġb uc
Ġg os
Ġg redons
ins pira
Ġcon eguÃ¨ron
ĠC E
im ir
et n
Ġal es
Ġr tan
ĠM eaux
Ã²r ze
ĠS Ã©
ĠS af
ur c
Ġpar s
la h
ĠA gust
Ġan tip
ens or
ala vetz
ĠB res
ĠB eu
ĠB les
ĠB att
iss ant
av iam
ab e
Ġdes enas
Ġin vencion
ĠR em
Ġpr ison
ĠG oul
ac es
ĠL ad
ĠL ista
ma gaz
ĠV os
ass im
Ġnom mer
Ġar riv
Ġtan lÃ¨u
ort ant
eg i
op las
op Ã¨ia
Ġcont ing
Ġi di
Ġpl ai
Ġfa ga
Ġfa Ã§ada
Ġpre ala
Ġres isti
em ir
ag ir
ag itacion
Ġesp Ã³s
oc casion
Ġmar inas
ess is
Ġaut orn
Ġimp acte
Ġcons e
if orm
if ics
Ġpu rific
Ġgen olh
Ġprimi era
Ġcl and
ip re
emp laÃ§ament
Ġpol if
rÃ¨ la
Ġcaus Ã¨ron
Ġgu arda
Ġam ators
Ġcomun ament
An dusa
esp asa
esp ectacles
Ġso Ã¯
Ġro g
unh ic
Ġann ala
Ġdire ccions
Ġinter romp
Ġqual ificat
Ġmin uta
Ġesta cat
Ġestat ge
Ġpoder osas
Ãº n
Ġver itat
Ġutiliz aires
Ġgl and
Ġgl uc
Ġcamp an
Ġag lomer
Ġref le
Ġvis te
Ġvis ibilitat
Ġloc alitats
Ġens eguida
Ġens embles
Ġpat Ã©s
Ġ7 50
Ġexp rimir
Ġdesp la
Ġdesp ass
Ġdesp laÃ§a
ĠJo aqu
ĠcomenÃ§ ada
Ġpresent arÃł
ell s
Ġcompaus ants
Ġart enh
Ġdemor an
Ġdemor arÃł
Ġmens h
Ġ9 2
Ġsenh als
Ġagu estes
Ġroman ciÃ¨r
Ġprof essora
Ġfem es
Ġint ensa
20 10
Ġport al
Ġid rog
Ġlimit acion
Ġdint rat
rÃ¨t a
acab arÃł
Ġjov a
Ġnav alas
Ġext rach
Ġparticular it
inst auracion
ĠQu i
ĠQu and
ceb ut
Ġjog ant
Ġestudi ats
Ġestudi anta
Ġassoci atiu
Ġestabl iguÃ¨ron
Com tat
Ġterr assa
Ġbl Ã²cs
Ġvend uts
Ġmont at
Ġsin ag
Ġtal ents
ĠCas a
enn is
Ġconserv ats
Ex posicion
Ġnorm and
ĠCl unhic
Ġmer mar
Ġcob Ã¨rts
Ġviol enta
Ġorient au
Ġsen Ã¨stra
Ġset ze
Ġmanten on
200 2
Ġreceb on
Ġdesign ant
ĠremplaÃ§ ats
Ġmilit anta
ĠCo ul
Ġchin eses
lav ia
Ġdat at
Ġcab inet
Ġban ca
Ġjut jat
Ġ% .<|
Ġconquista da
Ġaur Ãłn
Ġinstall acion
Ġsuf ixe
ext ra
ext raccion
Ġjo i
Ġut ilitat
Ġequip ats
Ġequip aments
Ġinform atic
ruc tion
Or s
estend uda
Ġlegis l
Ġcri me
Ġfondament au
dem n
Ġdipl omacia
Ġinteg racion
Ġfran cis
Ġdocument ari
Ġment Ãł
ĠGal ÃŃcia
Ġmatemat ic
ĠMau rice
uv re
obten cion
Ġpi etat
Ġmalais adas
Ġvert ut
Ġol imp
ow s
Ġexc ent
ĠMad eleine
Ġbre v
Ġprestigi osa
Ġapro v
Ġlexic ografia
Ġtrauc ada
ĠpÃ²r c
Ġarque ologics
ĠNov Ã¨l
Ġnot at
Ġnot orietat
Ġcirc uit
Ġgig antas
Ġcomport aments
Ġapren guÃ¨t
Ġcono issenÃ§a
Ġsex ual
ĠtÃ¨n on
ĠÃ¨ ime
Ġenqu Ã¨sta
ĠMes nil
Ġextrem itats
ĠcelÃ¨b res
Ġrepublic ana
atic an
Ġpassej ar
Ġexemp lars
Ġglob al
opaus Ã¨t
Ġislam ic
Ġconj ug
ĠSte v
Ġredu ire
Ġposit iv
Ġmeridion al
Ġrect angle
Ġrej Ã³nher
Ġaragon esa
Ġredig it
Ġartes ans
ĠcaÃ§ aire
ĠcaÃ§ aires
Ġevid enta
ĠEspanh Ã²la
quim ia
Ġtermi Ã¨ra
Ġpec at
Ġsaut ar
Ġverteb rats
Ġjustific ar
ĠLiber tat
Ġlir ica
ĠRay mond
Bern ard
Ġign or
ĠFlam enca
Premi era
Clau di
ĠHal ley
Ġdesbarc ament
mita ge
NT ech
ĠMire court
Ġressor Ã§as
Ġfecond itat
orom ana
ĠBav iÃ¨ra
Ġprolet ariat
ĠAustri ans
Ġmetafis ica
ĠDiocle cian
obt Ã©ner
Ġtsun ami
resenh as
Ġusatg Ã¨rs
ĠCÃ²rd oa
ĠPleistoc Ã¨n
Ġnoct ur
0 1
A ilÃł
C ic
D P
E uro
F re
G ran
M A
M art
M inas
P la
R ap
S ent
S eg
S ost
S ud
V ejatz
c tiu
d ents
d issa
h ard
h all
m ei
m art
n cia
u ar
u Ã²us
Î ³
Ġ Ã¨r
en ig
en gan
Ġl Ã²t
Ġl emos
te ccion
Ġp eish
Ġp ejor
as ka
es quel
end e
Ġs avi
Ġc ed
Ġc ister
ar ist
at Ã©nher
qu iÃ¨r
in am
Ġm enh
or al
Ġf ill
Ġt issa
Ġt aul
Ġes tel
Ġes tius
Ġes ferica
ri ans
Ġv ala
Ġv ela
Ġn ip
Ġn inf
os te
il ada
il and
Ġre actor
Ġg ru
Ġg Ã¨ns
ro ge
ti ans
ĠC all
ĠC anta
ĠC oma
ĠC even
im ne
et tes
Ġr are
Ã²r ci
ĠS aul
ĠS tre
ĠP it
ĠP ep
ĠP uÃ¨i
ĠP iet
ĠP anteon
Ġpar egut
ap ie
ĠA mp
ĠA uss
Ġan Ã³ncia
di b
mp s
ĠB it
ĠB us
ĠB ard
ĠB ona
Ġj ot
iss Ã¨tz
av ions
ab itacions
ig er
Ġdes emb
Ġin ci
Ġin teriors
Ġpro Ã¯
Ġpro tes
ĠR oux
Ġpr Ã©s
ha k
Ġ2 20
ĠF ot
ĠF riedrich
ĠL y
ĠL ai
Ġte olog
ma z
Ġcap tivitat
Ġcap vath
Ġdi guÃ¨ron
ĠN antas
ĠD ante
Ġar guments
ec tada
ĠJ uda
ĠI p
Ġex am
ag s
ĠfÃ²r man
ess en
ess ar
Ġest ur
alh ada
Ġsitu ar
Ġesc ar
Ġ18 23
ast it
esc lavatge
era is
Ġu es
Ġu Ã²lhs
od ic
Ġter ro
ed y
ed oas
Ġne ci
Ġpass es
Ġ3 60
man ia
ĠcÃ²p ia
Ġcal and
Ġad met
Ġad dicion
ier ats
Ġcapit alas
Ġcapit alista
Ġcapit ular
Ġpermet riÃ¡
Ġrev out
Ġesta biliz
cl aude
ific an
Ġperson als
Ġconf is
Ġconf ederacion
Ġcan au
Ġdesvolop an
Ġ12 50
Ġutiliz Ã¨ron
Ġleg ats
Ġpendent as
ef ici
Ġdev ers
Ġ7 1
Ġ7 8
ret ant
Ġmal auts
ann ades
af ars
Ġ9 8
Ar ri
Ar le
Ġten guts
Ġarm ats
Ġimpor tan
Ġprof iÃ¨ch
ĠCon ferÃ©ncia
ila ter
Ġpun tas
Ġrecon eguts
Ġrecon egudas
ĠMa z
Ġfonda cions
Ġeg au
Ġofici Ã¨rs
Ġdob riguÃ¨t
Ġext r
Ġindi fer
Ġaj an
Ġaj udats
Ġsup ortar
Ġpes te
ĠOccitan ie
Ġcompl it
Ġop Ã¨ra
ĠCal v
Ġlib es
Ġapr end
Ġtrobar etz
Ġmass iu
Ġprim itiu
pres ident
ĠSa hara
Ġsepar ant
ĠReg ions
Ġaus Ã¨ls
Ġorient ada
Ġbat Ã¨sta
ĠChar anta
Ġ184 7
Ġvalor izacion
Ġinte rac
Ġrefus ar
Ġtir ant
Ġ185 2
Ġmit ic
Ġtalh ats
Ġlog ic
Ġdeves idas
Ġmesc lan
Ġprepar ada
oÃ¯ na
Ġenviron n
Ġfran Ã§a
Ġglaci acion
Ġment ala
Ġexec utats
Ġtruc an
Ġsubst an
Ġjus tifica
Ġpert Ã²ca
Ġ180 2
enne ment
ĠTer esa
obten guÃ¨t
ĠJul ia
Ġol ig
Ġplen ament
ow n
Ġinteress anta
Ġinteress antas
Ġtransm esa
Ġarres tada
ĠPat ric
ĠMedi terran
ĠBra he
ĠSav Ã²ia
Ġanti bi
Ġdescon egudas
ĠpÃ²r cs
ĠAlex ander
jon ch
ĠSam uel
Ġruss es
Ġarque ologic
Ġintellectu au
Tra dicion
Ġpaci f
Ġgrat u
Ġengat jat
observ acions
Ġconeish enÃ§a
Ġveget al
Ġbol egar
Ġporta van
Ġlegitim ar
Ġincl Ãºs
ĠRD A
mos henko
Ġelabor ada
ĠTrans il
ensenh ar
ĠdoÃ§ or
region al
Ġraub a
ĠBert ran
Ġefectu ar
Ġespel ir
Ġlumin osa
Ġtas ca
Ġbilin gue
Ġlogici als
Ġmanusc rits
Ġsugger ÃŃs
Ġbrilh ant
Ġsosmar in
Ġmusulman as
Ġrug bi
Ġabsoluda ment
Ã©r ard
Uc raÃ¯na
Ant oni
espandi r
Ġpira m
Ġcomprom Ã©s
comp reneson
ĠIb n
ĠSup rÃ¨ma
Ġblind atge
oblig acion
Dint ratz
ĠVis ig
Ġult ra
ĠCorb iÃ¨ras
Ġdivi dida
Ġtorneg es
Ġassembl adas
Ġestrang iÃ¨ras
Mos elle
Ġformular ul
Ġjurid ics
Ġrespira cion
NR S
Ġmajorit Ãłriament
ĠGros claude
ogos lavia
Ross elhon
ĠPtol emÃ¨u
ĠMold Ãłvia
ĠHugu es
ĠsiÃ¨c le
ĠEtrus cs
ĠDordon ha
ĠmentÃł ver
A h
A ul
A uss
D ist
D egun
G r
I ll
I matge
L ai
L et
L ors
M ol
N I
R amon
S uls
U M
U NESCO
V ad
V ist
d ols
e al
f ons
f orma
f iquÃ¨t
f ite
g ames
i Ã²de
l im
l Ã©
l ian
p Ã¨
p et
r ens
r olh
s ta
w is
Ġ Ø
Ġ qÃ¼
Ġd ita
Ġd Ã²u
Ġd rin
on ga
Ġp esa
Ġp Ã¨rsas
end ut
Ġs arc
Ġs arth
Ġs icut
Ġc im
al tern
is ma
is ions
Ġqu ich
Ġt int
Ġt uta
om ac
au Ã§
ri ac
Ġv odat
Ġper g
Ġn ich
ta gn
il aire
ol le
Ġre ed
Ġse dent
Ġb ad
Ġb ulg
Ġg isc
Ġg otica
ai ras
le z
ĠC F
ĠC oss
ĠC eci
et icament
Ġal iments
Ġal col
ĠS z
ĠS un
ĠS um
ad ena
ad vers
ĠP isa
ist oric
ch is
ch amp
la qu
ap rov
ĠA gu
di vari
ĠB ed
Ġj urada
iss ac
ter itat
ab re
ab itu
ĠR ena
ĠF igu
ĠF estenal
ĠF roment
ac cedir
itu it
Ġpo ur
ĠE uro
and in
una y
Ġte ulat
ĠV oy
ĠN as
ĠN ass
ĠN og
ĠN eb
ĠD G
ĠD en
ĠD eu
Ã¨l is
ari e
op he
aut ar
Ġsi us
Ġsi gut
ĠJ ut
ĠJ ones
ĠI r
Ġi as
Ġpres i
em Ãł
em ocion
Ġab il
Ġesp art
ras ins
Ġmar e
Ġest ru
rop us
Ġcar dia
Ġesc ot
Ġesc ulturas
Ġpart ÃŃs
Ġu ech
Ġu mida
ĠO rig
Ġdem ografic
Ġrec ul
ib ans
Ġcl Ã²s
Ġrep rimir
Ã¨ss i
Ġpol ite
Ġform atge
Ġch amin
Ġcaus ats
Ġam iga
Ġman cat
ill iam
aliz an
ĠpÃ²t s
ire m
ĠSant as
An fÃ³s
Ġass ais
ĠK al
Ġmus Ã¨us
Ġ4 000
Ġrei alas
ori ala
Ġqual ificar
Ġestat istica
ĠEs te
Ġmod alitats
ĠAl i
Ġ12 5
Ġver gonha
Ġel i
lo w
Ap ol
Ġprov oc
Ġprov ocat
Ġsas ir
Ġmet au
Ġag ran
Ġ16 42
Ġvis uala
Ġresp iÃ¨ch
Ġexp ress
Ġlin h
dic ha
Ġconsider Ã¨t
ĠRo ergÃłs
Ġfu elhas
Ġbar rar
In d
Ġsab ents
Ġapar Ã©isser
Ġren gs
ĠIn dians
Ġep iscop
Ġind ustrias
Ġves i
ĠVal Ã©s
Ġdint ran
ĠRe mi
Ġconv ic
Ġconv idat
ay s
Ġtrop icala
Ġindi r
ĠY oung
Ġmor alas
ĠQu er
Ġprodu guÃ¨t
itan i
arr is
Estat ua
urs ion
ĠPer rin
ĠPer igÃ²rd
Ġtravers ant
organiz Ã¨t
Ġvend as
Ġremp lacÃ¨t
hi te
Ġmass iva
ĠprÃ²p ia
Ġdemand Ã¨ron
ĠAb ra
Ġperd re
Ġdet riment
ĠGl Ã¨isas
Ġquarti ers
Ġviol ent
iste ish
Ġproven ent
Ġconselh iers
Ġgraf it
Ġbalh ada
gn on
ĠCo ok
Ġcaracter istics
ok ies
Ġaccep tÃ¨ron
Ġcanta va
Ġsom esa
Ġclar tat
Ġger ir
Ġpal uns
Ġder ro
Ġpref ondament
Ġorgan icas
Ġsap iens
Ġtalh i
Ġfe bl
Ġmesc lada
import antas
Ġvac cinacion
Ġparlament s
Ġfilosof ica
Ġescol ara
ĠRam s
Ġdepend on
ĠAlb igeses
Ġminor itÃłrias
Ġamass as
199 0
Ġvo tada
Ġ183 7
rieu x
ser rat
Ġaqueth s
ĠLor ena
Ġconsci ent
ĠPat rick
Ġfol iÃ¡
Ġconsac ra
Ġbre mb
Ġestatsunid encs
Ġbord at
Ġaliment ar
ĠNov a
Ġgerman ica
Ġencont rar
Ġextra ordinari
Ġestrangi era
Ġindic an
Ġgig ants
Ġgig anta
ĠInternacion au
Ġdefend ut
Ġbu Ã²us
Ġaer ian
Ġrecep tor
Ġriques sa
Ġec ran
Ġama gat
Ġcontre bas
Ġetn ica
Ġpetr ol
Ġfrag ment
Ġnat alitat
Ġtab lÃ¨us
Ġbol eg
ĠDon cas
Ġsenhal ar
Ġmel o
Ġsalv atge
Ġvig il
Ġocean ica
Ġti jas
Ġcub e
Ġvescom tat
Ġconj unt
ĠvidÃ¨ os
ampar iÃ¡
Ġdispar eguÃ¨t
Ġjosie vas
Ġdispon ibla
Ġpersec ucions
Desc ubÃ¨rta
Ġrob Ã²t
Ġdiscu tir
ĠVel ai
Ġord enat
Ġsued esa
Ġvaiss Ã¨l
Ġalunh at
rÃ²b an
Ġvinh al
Ġnarrat iva
Ġindispens abla
eleg it
ĠbrÃ¨ Ã§
Ġsatisf as
Aper aquÃŃ
Ġcomunica va
Ġtrent enat
ĠFland ra
ĠDa una
ĠMu hammad
Ġanterior as
ĠLÃ© on
Ġestud iada
Ġconsul tacion
ĠRad io
Ari Ã¨ja
Jul ien
ĠSara g
ĠNos te
Ġhistori ques
Ġtopony me
Ġates tada
Ġange vin
ĠfÃ²t os
Ġreprodu ire
ĠRif t
Ġcromos Ã²mas
Lev at
Ġdegrada cion
ĠVauc l
Ġnorveg ian
ĠdecÃ¨n ni
ĠvÃŃ ver
ĠAtlant ics
×ķ ×
ĠFÃ¨l ix
imperi alisme
ĠÃįn dias
games h
0 5
A vi
B re
B al
E f
E p
F au
I P
J Ã²cs
O L
O V
S F
S T
V inc
b Ã¨rt
b uta
c ats
d itz
i Ã¨t
o ine
r Ã²p
u ci
v iv
v als
w ai
y me
Å Ļ
ã ģ
en ats
Ġl Ã¨va
Ġp ins
Ġp ostal
Ġp Ã²nt
Ġa ter
Ġa ima
Ã¨ ge
an na
Ġs w
Ġs Ã©nher
Ġc and
Ġc ava
Ġc Ã³rrer
er ons
er esia
at on
ci ll
in cid
Ġm ors
Ġf ulh
it te
Ġqu itat
Ġqu ilha
Ġt ire
Ġt her
Ġt inais
Ġun ificat
Ġv ulg
Ġper diguÃ¨ron
Ġn us
os ia
il ats
Ġre als
Ġre manda
Ġb olh
Ġg is
Ġcom ic
ro vis
le ga
Ġcon cas
âĢ ľ
im ar
im itacion
Ġal ien
Ġal iadas
Ġr enda
Ã²r n
ĠP anthera
ion al
st in
Ġpar roqui
la is
ap ondre
ĠB le
ĠB arry
ĠG rim
Ġ2 30
ĠF isica
ĠT ecn
ac re
ĠL eu
ĠL eis
ĠL ys
Ġfo gal
Ġsus cep
ĠV asco
ĠV atican
ass i
ĠN y
ĠN om
Ã¨l tas
imp lica
Ġar ru
ari an
og es
Ġli ats
Un ei
ĠJ C
ĠJ ur
ĠI raq
Ġfa guet
ag Ã¨t
Ġh ortal
Ġab itats
uc rist
Ġesp Ã©
Ġesp essor
Ġesp rÃ²vas
Ġreg na
rop Ã²des
Ġsitu ant
est ile
est udia
Ġ18 25
ast as
esc ar
ĠO d
ĠH ill
Ã¨st an
Ġcl astras
Ġsol aras
Ġfranc oprovenÃ§
Ãłn cer
Ġcre a
ilh on
ep s
Ġlu ec
ĠCh ad
Ġman ufa
ĠLa ctÃ¨a
Ġregion als
Ġcent imÃ¨tres
Ġcor rÃ¨ctament
ev er
utiliz ava
Ġrom antic
Ġsegu idas
ĠAn th
Ġat rac
ĠMar tel
Ġcas tanhas
19 00
Ġdesc richa
par tida
Ġpla fon
Ġconf isc
ĠW e
Ãº ria
uras ia
Ġ15 60
Ġtrob ada
Ġof rir
ĠMont mor
Ġon de
Ġmet ent
Ġfil ologia
Ġz Ã¨bre
Ġleg ÃŃs
Ġconc ession
Ġdest ill
Ġmen ut
Ġens enha
Ġdev i
Ġ7 3
ois y
Ġinf ant
Ġmal ast
Ġlig ar
ĠCom mon
Ġeconom ias
Ar quimÃ¨des
entre presas
Ġparticul aras
Ġbar ras
Ġroman in
ĠIn tern
Ã¨p ra
Ġtip ica
tar tida
ĠMa chu
orti da
Ġport ats
Ġvic e
Ġpon tet
Ġid raul
Ġsegond Ãłrias
Ġpag at
isti a
Ġev ocat
inter venir
ind o
Ġfis ar
Ġess Ã©ncia
let xa
Ġfond Ã¨
ĠLe op
Ġprepaus ats
itan ben
Ġdeban arÃłn
Ġcolle gi
Ã³n er
Ġmand Ã¨ron
Ġis ot
Ġinc ons
Ġorigin alas
Ġant ologia
Ġcerc aire
Ġtes aur
Ġadminist rada
Ġprom essa
Ġagric ultors
Ġconserv adors
land eses
tad ors
ils on
Ġacc Ã¨p
ĠCor int
iÃ¨ ja
Esc Ã²cia
ĠSal vat
ĠIs la
Ġviol ents
ey s
Ġpan te
Ġorient at
Ġbat Ã¨us
Esp ital
aviÃ¡ i
Ġbourg ade
Ġinte res
Ġrend ement
Ġquant ica
Ġpriv adas
Ġpaus Ã¨t
olit hique
Ġfe blas
Ġequip at
Ġmesc l
Ġconstitucion alitat
establ iments
Or leans
Ġpublica va
Ġmediev alas
Ġdeclar ar
Ġcatol icas
Ġvolcan icas
Ġexec u
vel op
ĠMarc ell
inte raccion
Ġpert ant
Ġjapon esas
ace ae
Ġ183 1
ĠJul ian
ardi zacion
Ġvert ic
Ġevolucion Ã¨t
ĠavanÃ§ at
Ġcron ic
ĠJapon Ã©s
ĠCA LR
Ġris ca
Ġort ografic
Ġmess atges
Ġdescub Ã¨rt
Ġduc ats
ĠMari o
assegu ra
Ġsimbol iza
Ġmest resa
Ġfeder ala
Ġestatsunid encas
Ġprum Ã¨rs
Ġceleb rat
Ġton ic
Ġrit mes
Ġfoss il
Ġenregist rat
Ġenregist rament
Ġenregist raments
Ġatribu ida
ĠAut on
Ġsignific atiu
Ġdefend uda
ĠAg rip
Ġfacil itat
Ġamp la
Ġanonci at
Ġclimat ic
And al
Ġtolos enca
ado ira
Ġsusp ension
Ġdefens ors
Ġses ilhas
Ġveget alas
Ġminer al
Ġcromp at
ĠLim Ã³s
ĠAf ganistan
ĠSab er
Ġsar rar
Ġfara ons
Ġperilh Ã³s
Ġabitu al
Ġcondem n
Ġmagn ific
Ġaltern ativa
Ġtax on
engat gÃ¨t
Ġendrech es
ĠÃĴ lt
Alex Ãłndria
Ġmari da
adap tar
adre Ã§a
Ġrecamp ats
Ġlumin ositat
Ġbilin gua
Ġintens itat
ĠFin lÃłndia
Ens enh
Ġrenovel ar
Ġdeleg ats
Ġprumi Ã¨r
ĠVers ailles
ĠHe in
Ġpropag acion
ĠivÃ¨rn s
Ġcran i
Ġgo jats
Ġincor p
Ġtestimoni atge
Ġaz ard
ĠNaz is
ĠMunicip alitat
ĠGerman ic
Ġfranci mand
ĠsÃ²m is
ĠComm ons
Ġintra das
Ġenj Ã²cs
Ġbanl Ã¨ga
Ġmist Ã¨ri
Rob Ã¨rt
Norm andie
Ġhistori que
Ġpermeti Ã¡n
ĠAmeric an
Ġdeur Ãł
Ġatl Ã¨tas
ĠGasc ogne
Ġlanc Ã¨t
Ġcog n
Ġviatj aires
Ġrocass Ã³s
Ġrin oc
Ġdirec tiva
Ġsubrevis quÃ¨t
Ġdetect ar
kk ad
ĠFesti val
ĠJes ucrist
ĠHabs borg
ĠpiÃ¨g er
ĠBÃ¨ ucaire
ĠPreÃ¯st Ã²ria
Econom ia
ĠAngle terre
A lan
A dam
C ors
D issabte
E qu
M et
S D
S p
T Ã¨n
U P
V an
c rip
d omÃ¨n
f ib
h ol
i h
l ut
l Ãłs
o an
o ud
p Ãłnia
u te
u me
v ic
z in
z ig
z anne
Î ®
Ġ iss
Ġd ilhÃ¨u
en eb
Ġde ter
Ġp iz
Ġp Ã²p
Ġp eta
Ġp legar
Ã¨ uros
qu al
Ġm Ã²bles
Ġla vetz
al th
or in
ent rÃ¨
ra b
ra ct
Ġf rig
Ġf Ã²Ã§a
ic ats
Ġt als
Ġt ora
Ġt ocada
au er
Ġn apoleon
Ġn Ã²bla
Ġque la
el on
el ef
ta h
Ġre au
Ġse dus
Ġb ic
Ġg in
ins on
ins urreccion
ti d
ti e
Ġcon ques
Ġcon Ã©isher
ĠC rem
ran ta
Ġal entorn
Ġr Ã©
ĠS ap
ĠS irac
ad ier
ĠP Ã²rta
Lo u
ch t
ch us
Ġpar al
Ġpar itat
Ġpar eiss
Ġan alit
di os
ĠB ras
ĠB ast
av as
id an
Ġdes n
Ġdes enat
Ġin acab
Ġpro che
Ġpro pausa
ĠR ub
ĠR ug
Ġpr Ã¯
Ġpr Ã¨ire
ge ta
ĠF res
ĠT s
ĠT riv
ac k
ac tiu
ĠL R
ĠL le
ĠL um
Ġpo davan
ĠE gip
and Ã¨t
Ġcap Ã¨l
Ġdi us
ĠV inci
Ã¯ tat
ĠN ar
ĠN ep
Ã¨l an
imp ausa
ari ana
Ġvil Ã²ta
aut om
Es s
Es tadi
Es parta
um en
Ġpre ocupacion
Ġpres at
em oglobina
ag arda
Ġpri ori
Ġh en
Ġesp Ã¨r
ina e
Ġmar ron
Ġac usat
Ġparti cion
ess on
Ġcar rats
Ġesc om
Ġesc ul
Ġesc ut
Ġesc uelh
est Ãºdia
Ġra fin
Ġ18 21
Ġ18 13
Ġ18 29
Ġ18 28
cip acion
ud s
ĠH as
ĠH un
ĠH ong
ĠH avre
Ġcl ad
Ġmunicip alit
ru vi
Ġsol ids
int re
Ġpass avan
ven gut
ep ler
Ġ3 65
Ġlu i
Ġenc lav
ie v
ou ze
auc as
auc Ã¨ls
aliz acions
Ġgener ic
Ġvi ari
Ġvi king
Ġsegu iguÃ¨t
ĠcÃ²p ias
Ġass auts
esp osa
cas ions
Ġro ure
Ġro ergÃłs
Ġcas te
arri Ã¨r
arri ga
Ġsuper paus
Ġsoci alistas
Ġconf ession
Ġconf eccion
ĠW ei
Ġgrop a
ĠAl t
Ġ15 20
Ġutiliz avan
ĠMont serrat
Ġprov Ã²can
ĠAr istÃ²tel
enci at
ord inator
Ġresp Ã²n
Ġpat rons
ret te
Ġart ilhariÃ¡
Ġ10 5
Ġdemor ant
Ġmi Ã©lher
Ġ13 5
Ġ13 00
Ġrelig a
arg ila
exp licacion
ĠCar bon
Ãºs er
Ġas e
Ġ11 00
Ġint roduccion
Ġef ectiva
Ġlat z
Ġho re
Ġexist ents
aj an
acab an
Ġdescob r
Ġmag ic
Ġext Ã¨rne
ĠQu in
Ġmat rimÃ²ni
Amb Ã©
Ġprepaus adas
Ġfre q
uri e
ĠvÃ²l en
Ġcant Ã¨t
Ġestabl its
anc ourt
Ġameric anas
ĠXIX e
Ġorigin als
Ġproc ura
Ġdomin an
Ġviv aro
Ġpap Ã¨r
Ġreb Ã¨ls
ĠCas te
ĠBo Ã¨mia
Ġprom et
Ġancian ament
Ġconserv ador
Ġsosten on
Ġprim Ãłrias
Ġtemper adas
iÃ¨ na
arrib Ã¨t
Ġprev eire
Ġ179 5
Ġfer it
ĠAng eles
Ġreti rÃ¨ron
duc te
Ġpron Ã³ncia
ols heim
Ġoccident als
ĠSt udi
ĠEurop a
ĠAm ics
Ġflu or
Ġcollec tius
Ġensenh at
ĠMan ge
Ġident ica
Ġ185 3
Ġjo gu
Ġfabric at
Ġgal ariÃ¡
Ġobserv at
iqu et
ĠTe chn
Ġbor dada
Ġdecl ara
Ġoblig ats
ĠfÃ²ra b
Ġdeg alhs
Ġvesti gi
Ġvaria ble
Ġenviron ada
Ġcri dar
osc ana
ĠCast ro
Ġvolcan ics
ĠRegion au
Ġfel en
199 1
Ġ180 6
Ġarch i
Ã¨rb is
ĠBeau vais
Ġvo tacion
Ġ183 2
ĠSch ool
Ġperman Ã©ncia
quit ament
Ġseg ons
ĠCamp ion
Ġgau g
Ġcondicion at
Ġlar gas
Ġreform ar
Ġlit urg
Ġtur cas
ĠPu ig
Ġcontribu ir
Ġdig estiu
Ang ieus
ĠcÃ¨l ta
ĠComp os
ĠConstitucion al
Ġcultiv adas
encont ra
Ġproclam at
tabl ament
Ġnot ari
Ġencont ra
Ġimag in
ĠAut or
Ġed itar
Ġgrat uit
Ġriv au
And Ã²rra
Ġcontuni acion
Aqueth s
Ġ120 9
ĠUr gÃ¨l
ĠDan ubi
Ġminer aus
Ġfres cas
Ġfac ultats
Ġbret ona
Ġcorre ccion
Ġmarch and
Ġborges a
Ol ivier
ĠGi ul
Ġinsc ripcions
Ġtransfer it
ĠbÃ²rd s
ĠBru che
ĠMur Ã¨th
Ġestrech as
Ġguitar rista
pr Ã¨tz
Ġrevendic acion
Ġafebl ida
ĠLat ina
Ġcalif at
ARN t
Ġcuri Ã³s
Ġobligat Ã²ria
Ġconfirm ada
Ġlab Ã¨l
Ġdestac ar
ĠMay enne
ĠUnivers ity
Ġmaritim as
Ġestric te
Ġelector al
Ġbrilh anta
Ġdictat or
ĠbrÃ¨ va
ĠPon Ã§
Ġader ents
ĠChamb ra
ĠLang res
Pres enta
Ġviolonc el
Ġensaj at
Ġtact ica
Ġbicicle tas
Ġconform itat
inspir Ã¨t
Premi er
Ġautomob ila
ĠjÃ² gan
âĢ¦âĢ¦ âĢ¦âĢ¦
Ġdav ala
Ġboti ga
Ġdavan ci
Ġprimordi au
Ġambici Ã³s
Ġpter osaure
Ġrepr endre
Ġmoiss als
Ġidro elect
Ġpirat as
Ġsalari ats
innov acion
Ġprej udici
Ġnostal gia
Ġpian ista
ĠPess amessa
Desemp uish
ĠVilaf ranca
Ġpseudon im
Ġdap asset
ĠCeven as
ĠVisig Ã²ts
fite atre
advers ari
ĠSirac usa
0 4
C C
C Ã²sta
D avant
E mb
I d
L F
M er
N A
S I
S au
S ch
V Ã²l
a ctritz
a ctitud
c am
f en
f amilha
f ield
g ard
g rand
h el
p rincip
r inas
s im
v ine
Ä ĵ
Î Ń
Ù ħ
Ġd as
Ġd Ã³u
Ġl and
Ġl Ã¨bre
Ġde tec
on is
Ġp ul
Ġp ab
Ġa cci
Ġs oc
Ġc ranc
Ġc iment
Ġc roc
ar es
ar itat
er tes
in ions
re b
Ġe uros
ent itat
Ġf iss
Ġf rom
om enatge
Ġes f
ri gu
Ġv ost
Ġen ras
Ġn er
Ġn eish
Ã¨t is
il da
Ġre aus
Ġre ga
Ġre eleccion
Ġre actors
Ġse ver
Ġb ron
ti engÃ³
Ã§ o
Ã§ Ãł
Ã§ ans
ĠC H
ĠC av
ĠC ard
ĠC anÃ§on
ran o
et to
Ġal ber
Ġr me
ut on
ut Ã¨n
ut ilitat
ĠM itat
ĠM ard
ĠM asc
ĠS Ã¨
ĠS imp
ĠP ec
ĠP ast
Ãł rdia
ist icament
ch os
ch Ã³
ĠA w
ĠA gn
Ġan om
Ġan Ã¨l
ens on
ĠB arri
ĠB uda
ĠB acin
av ag
iv iÃ¨r
Ã¡ rias
id ents
Ġdes integracion
Ã¨s h
Ġin ca
Ġpro ce
ĠR is
ĠR av
ĠR ig
ĠG reg
ĠG az
ĠG anges
ĠF aro
ĠT rÃłcia
ĠT elev
ov ol
ĠL Ã³
ĠE b
ĠE g
Ġent ren
Ġent endre
Ġte ss
ĠV aur
Ġtra jÃ¨cte
ĠD enis
Ġar p
ob ertura
Ġcomp rar
og o
og on
og ats
aut ica
Ġpl umas
Ġpl urau
um es
Ġh ec
Ġh arÃł
Ġh auta
Ġh osse
Ġentre vista
Ġmar tir
Ġaut ant
Ġest Ãł
est Ã³n
Ġra ia
Qu ora
cip lin
Ġu eit
ĠO N
od ar
Ġmon tada
Ġrec or
ĠH AL
Ġdeu tes
enc encha
Ġtr Ã¯
ip ot
Ġtemp Ã¨stas
fer ic
Ġmunicip is
emp l
emp acha
Ġma it
Ġaqu eras
all er
Ã²n ias
Ġlu xe
Ġch im
Ġam on
Ġam ena
Ġdiv er
ĠCh ipre
ou tier
Ġrel arg
Ġsens ibla
auc ourt
ert uras
Ġgener alizacion
lar acion
Ġele fants
Ġcal ma
ĠK n
Ġsos espÃ¨cia
inas tia
ident ament
Ġmin ar
Ġaf ranqu
Ġpoder Ãł
ĠAl ci
Ġ12 40
Ġtrob adas
Ġemp ir
Ġmet od
Ġag r
Ġserv issiÃ¡
Ġleg itima
Ġlong ada
Ġ16 48
ord s
Ġnos es
Ġmen ava
Ġpat rici
avan as
uss on
emb lant
ell er
Ġespeci alizadas
Ġcompaus Ã¨t
Ġdemor ats
Ġrap ide
ann y
Sa int
Ġliter alament
Ġparticul a
Ġroman e
In quisicion
Ġsab ut
vi rada
Ġapar enta
Ġapar eguda
ingÃ¼ e
ĠIn donesia
ÃĴ s
Ġmajor itÃłria
ĠMon tes
Ġmena Ã§ar
Ġconv erg
ĠY ang
Ġactiv as
Ġprodu it
az ur
Ġtor r
Ġdeban ar
Ġminist ra
urb ir
Ġge ologica
Ġrefer encial
Ġop tica
Ġdaiss Ã¨ron
uÃ¨ it
Ġtu Ã¨t
ili ari
ath an
Ġreb utat
Ã²g o
Ġtes tific
Ġrt ament
Ġpint ors
ix te
Ġnorm au
lant ica
Ġmer m
Ġdet rÃłs
Ġcertan as
12 29
Ġparte jada
Ġcu ert
Ch amp
Ġdia gon
Ġgraf ias
Ġvoc au
Ġvoc able
Ġconsequ ent
rap ia
Ġprodus iguÃ¨t
ĠMart ÃŃn
Ġress ort
Ġassegu ran
Ġpurm Ã¨ras
Ġgar dian
Ġban cs
Ġrend Ã¨t
Ġlon ge
Ġgard an
Ġmul te
Ġsuf f
Ġmit ica
olit ica
Ġjo in
eras a
Ġnau a
ĠPort o
ĠMol iÃ¨re
Ġmencion ada
ĠSh ang
oÃ¯ l
Ġtomb Ã¨u
Ġindivid ual
Ġindivid uala
Am assa
ate m
ĠPau lo
Ġtrap ats
ĠDi ari
ĠDi ego
ĠMag alona
Ġimperi aus
ĠMondi au
Ġguer riÃ¨r
ĠBeau ce
ĠtÃ¨xt s
ĠFer rand
Ġir landÃ©s
Ġevolucion at
Ġvenc ut
Ġprigond s
Ġarres tÃ¨t
Ġbur re
agu esti
ĠsÃ² di
Ġconsac rar
Ġconsac rÃ¨t
Ġcinqu antena
Ġillust racions
Ġgarn isons
Ġminim ala
ĠLin gu
ĠLin ux
Ġindic ant
ĠSer ra
Ġgrat is
And r
ĠCant on
Ġredus ÃŃs
Ġredus ida
americ ans
Ġreflex ions
Ġpilh ar
Ġcritic at
aqueth s
Ġsubs ist
Ġegipci anas
Ġenvi ro
ĠtÃ²r nan
Ġfamili ala
Ġacadem icas
Ġabb assida
ĠTal vera
Ġpend enta
Ġeire tatge
ĠPremi er
Ġendrech s
Ġsed enÃ§a
Ġbizant ins
ĠDau phin
ĠDau finat
Ġsop a
Ġdinam ic
Ġdors iÃ¨r
Desc ob
apt ista
Ġbod ista
Ġchaus ida
Ġborg Ã©s
elev atge
Ġvitic Ã²la
Ġprep ara
aga ch
Ġnoir ÃŃs
OM E
ĠJorn s
Ġmanc ava
ĠVinc ent
ĠEug Ã¨ne
Ġjuris diccions
Ġtermi Ã¨ras
orf isme
Ġbloc atge
Ġtim uc
Ġusat giÃ¨rs
Ġadm Ã©s
Ġanalis is
Pass Ã¨t
ĠglÃ²b es
ĠErn est
Ġenj Ã²c
ĠextrÃ¨m ament
Ġresum it
Ġsav ana
Ġcomer Ã§ants
Ġforest al
epid emia
auton Ã²m
ĠLud wig
Esqu Ã¨ma
ĠFilip inas
equival ent
ĠLic Ã¨u
Ġconfron tacion
Ġtym ologie
Ġrept ils
Ġestrangier as
Aprofich ant
ĠSarag ossa
% ,
A V
B lan
B ourg
D er
D av
E le
F an
G ard
H ar
L eu
N B
O f
P laÃ§a
S o
S Ã¨rgi
S egur
T S
U L
U ranus
a x
a ct
a Ã§Ã²
b u
d ol
g rop
j Ã²l
m ol
o ard
p en
p ia
p he
r als
r osa
u acion
u mp
v illa
Ä «
Ì Ģ
Ï į
Ñ ĥ
Ġd ai
en ac
en burg
en euve
Ġl len
Ġl Ã¨pra
Ġde gudas
on ima
te p
Ġp aires
Ġp uls
Ġs atura
at l
at ics
at jar
ci ala
in j
in itat
re au
Ġm orm
al ig
or oman
ra cha
Ġf ric
Ġt ors
Ġt umul
Ġv ital
Ġv otat
Ġn in
Ġque l
el d
el aire
ol adas
Ġre man
Ġg n
Ġg ai
Ġg em
Ġcom arcas
ia va
ran i
mb ert
et ta
Ġal leg
Ġal unch
Ġr Ãł
ĠM anci
ĠM aquiavÃ¨l
ĠS enta
ĠS ound
ĠP es
ĠP lo
ĠP ubl
ch ard
Ġpar p
Ġpar lement
ĠA k
ot an
ĠB D
ĠB ad
iss aris
av on
ct ura
ab it
Ġdes man
Ġin gre
Ġin tencions
Ġin ondacions
aus ir
ha y
ĠG iuseppe
ĠF at
ĠF lo
ĠF Ã©lix
ĠL ut
ĠL eb
ĠE ric
ĠE dicion
ma gne
ĠV lad
ura ine
ass ass
ass idas
Ġdau rada
ĠD in
ĠD ob
ĠD Ãłvid
eu ge
Ã¨l ta
En a
ara it
Ġau dio
Ġli urar
ĠJ ans
Ġi berica
Ġpl ants
um in
Ġpre ten
Ġex amen
ag at
Ġesp etat
Ġesp lend
Ġmar can
Ġac adÃ¨mia
ich i
Ġven jar
ess es
ost ar
Ġest u
Ġest ile
Ġimp licat
Ġimp Ã²sts
rop Ã²li
Ġcar itat
Ġcar gar
Ġesc asses
Ġra mas
Ġ18 19
Ġor fan
Ã²l ia
esc ur
na it
Ġcam ar
ĠH or
Ġtr ist
Ġri te
Ġri as
Ġpol s
Ġplan Ã¨ta
Ġplan tacions
Ġch ev
Ġenc ant
Ġam ator
Ġman jat
Ġman dib
ill ot
ill erie
Ġpod ut
Ġpod etz
teri es
ust ot
Ġcent rada
Ġass aut
Ġad dit
ĠK am
Ġat ent
Al t
fic at
Ġrev irat
ros as
Ġins pira
ĠW ar
ĠW il
ĠW hite
Ġca isha
Ġof ensivas
Ġdens a
Ġon da
ĠAr s
Ġ16 30
Ġer etics
Ġloc om
ret ar
Ġmant Ã¨l
Ġsub vencion
Ġum idas
Ġmal astre
ulh et
Ġcompaus anta
Ġclass ificacions
Ġdess epara
Ġrealiz acions
Ġprof Ã¨ta
Ġniv el
Ġpun k
Ġret rÃ²ba
Ġtip ics
Ġgra mas
ĠU NESCO
Ġfra ir
ĠÃ² mi
Ġeg alitat
Ġpon h
Ġpon tificat
Ġvari an
eng Ã¼es
Ġautor izat
ĠPro vin
Ġvos gi
Ġnav Ã¨ths
Ġsal at
Ġaj udas
gue z
Ġmilitar ament
inst ruccion
Ã³n egue
Ġcau f
Ġcau p
Ġcant at
Ġanim ada
Ġis pan
Ġquilom Ã¨tre
Ġterr assas
Ġtravers ava
Ġproc Ã¨sses
Ġdomin ar
Ġescriv iÃ¡
Ġtu iles
lam s
Ġmass issa
Ġancian es
Ġnorm ande
Ġdemand ant
Ġcombat ent
esper ela
lin i
Ġvoc al
Ġcatalan isme
Ġfigu ran
ok a
Ġmesura da
Ġprodus isson
Ġcontinent alas
Ac om
ĠAm alric
ĠPr inc
acc eleracion
ak i
Ġtir s
Ġtir Ã¨t
Ġident ificats
Ġproteg idas
ĠMus ic
ruc tiv
ĠhÃ¨ ita
Ġresc Ã²n
ĠAnd r
alis tes
Ġtomb ada
Ġvaria da
ĠSoci al
Ġgall Ã©s
Ġfondament alament
Ġdeclar at
Ġperf iÃ¨ch
Ġminor itÃłria
199 7
Ġsur re
Ġnucle aras
Ġcontemporan Ã¨as
Ġvert uts
ĠLib an
Ġnumer icas
Ġgau j
ĠFlor ian
Ġauton Ã²ms
Ġdra mat
Par all
ĠBen jamin
Ġinvent ada
ĠCre ta
Ġceleb racion
Ġillust ra
Ġfid Ã¨l
Des volop
ĠSam bre
Ġpin al
Ġremarc abla
Ġatribu ÃŃs
Ġencont rÃ¨t
ĠAss oci
Ġprononci at
Ġproves ida
ĠMat ieu
Ġbu roc
Ġconeish uda
And rÃ©
ĠAu ge
Ġmagnet osfÃ¨ra
Ġtolos ana
oqu iÃ¡
Ġec os
ĠGir ona
ĠDu rand
och tit
Ġenqu ad
ĠdrÃ²l la
Ġclaus ura
Ġju de
arres tÃ¨t
Ġrar es
ĠPan amÃł
ĠDep utats
Ġmig racion
Ġtradu ire
Ġlan gue
Ġcorre ccions
Ãª t
Ġtub ercul
gra ci
Ġbau mas
rod Ã²t
Ġesple ch
ensenh aires
Ġelectron ics
Ġespandi r
Ġdifus ar
Ġpreserv acion
Ġrestabl iment
Ġencarg ada
Ġmetall urgia
ĠhÃ© r
ĠArn aut
Ġtas cas
Ġprovis Ã²ria
ĠRÃ²ca guda
Ġremont ant
ĠNad au
Ġapreci at
Ġaquer it
ĠvÃ¨rb e
Ġelector ala
Ġhont s
Ġradio activitat
ĠTot al
Ġautent ic
Ġsorn as
Ġordin ari
ĠBrun o
Ġnombr osa
Ã©m ia
ĠTemp liers
Ġsaun Ã³s
Ġparad ox
ĠLÃ© ger
ĠFrancesc o
ĠColle ctiu
Ġrencont re
ĠBaud oÃ¯n
Ġmicro organismes
Ġpolici Ã¨r
ĠDrech es
ĠTy moshenko
Ġcatast rÃ²fa
incl utz
Anti oquiÃ¡
Ġmist Ã¨ris
Arn aut
ĠLag arda
Clau de
Ġfilogen etica
Ġpays ans
Ġsubsisteix en
ĠGav audan
Ġprecurs or
Ġmodi fica
ĠTun isia
arab i
Ġtelef Ã²n
Ġdotz ena
ĠGN OME
Ġá ¼
ĠVik ings
ĠXav ier
Ġconcer tacion
Ġhial at
ograph ie
Ġcosti Ã¨ras
ĠBoul ogne
Ġsilla ba
Ġorth ograp
ĠBag dad
Ġrid icul
Ip ocrates
ĠSebas tian
Ġramb alh
Ġdecad Ã©ncia
Ġconne ctat
eclip tica
Ġaglomer acions
Tradicion alament
Ġrinoc Ã¨ros
Ġingre di
C u
C lar
C atal
C erc
C omb
F or
H itler
I X
I tal
J an
L is
M istral
U A
U TC
a tern
d ala
d ess
d esc
h ai
i rib
k et
l var
m it
n eu
p art
s tein
v ai
Ã µ
Ã »
Ġ orm
Ġ Ã²ras
Ġd og
Ġd up
te ca
te ish
Ġp and
Ġa re
Ġa temp
Ã¨ dias
Ġs ch
Ġs tes
Ġs ard
Ġs urg
Ġs ism
of il
Ġc imas
Ġc tament
ar rÃ¨sta
Ġe ur
Ġm ou
Ġla ma
al an
al ta
al atge
al ement
un k
or alitat
or tadas
Ã² les
ent an
is teri
it av
it iva
ic um
Ġt rim
Ġt Ã¨sis
om er
Ġper long
Ġn ia
Ġn atius
os at
el t
Ġdel ici
ol let
Ġse ten
Ġse jorn
Ġg ros
Ġcom issari
ro w
ro up
Ġcon tat
ĠC f
ĠC uc
ĠC az
ei g
mb ian
Ġal ta
ĠM og
ĠM adama
ĠS alas
ĠS Ã¨gle
ad io
ĠP ei
ĠP ich
ĠP unica
ĠP ossed
Ġpar a
Ġpar entat
ap era
ap acitat
ĠA veyron
Ġan teriorament
Ġan autit
ÃŃ lia
ĠB et
ĠB rig
ir ma
iss Ã¨a
av ar
iv et
ig iÃ¨na
id enta
Ġdes v
Ġdes er
Ġin noc
ĠR ip
Ġpr Ã¨ires
ge mon
ĠG up
ĠG our
ĠF est
ĠT V
ĠT ik
ĠT ourn
ĠT exans
ov al
ĠL iss
ĠE rau
bl au
me dia
and als
Ġte t
Ġte ologica
ĠV ez
ĠV idal
ass iÃ¨r
Ã¯ l
ĠN ag
ĠN ou
ĠN orth
ĠD ama
ĠD ak
ĠD rag
ari as
Ġau Ã©
ob jectius
ec k
Ġcont raf
Ġcont rast
ĠJ ov
ĠJ ordan
ĠI o
ĠI saac
um ont
Ġfa is
ond ut
Ġpre gonda
Ġex acte
Ġres erva
em er
ag ner
Ġav ut
Ġav ÃŃs
Ġesp at
ina y
Ġpel atge
Ġmar rits
Ġac ced
ess enci
rit ica
Ġaut s
Ġest r
Ġest Ã³
Ġcar s
est Ã¨la
est amp
Ġra dar
Ġ18 12
if Ã²rmes
Ġser ias
Ġdon ation
Ġdem ografia
Ġfin alitat
Ġprimi Ã¨ira
ib us
ed Ã©s
Ġtr u
Ġtr ufa
Ġrep ro
Ġrep eticion
Ã¨ss em
Ġma inat
Ġma tern
Ġsol idas
ena ga
Ġcol Ã²nia
Ġcre bar
ne ment
Ġpass Ã¨
Ġform iga
Ġmes tiÃ¨rs
all on
Ġch i
Ġdiv orci
ou ver
Ġman iera
ren ce
Ġvi ran
Ġvi rois
ign an
An na
ier i
ier ra
esp Ã¨ctre
ĠK och
Ġsos espÃ¨cias
Ġpubl icit
De f
De guÃ¨t
Ġat ge
ĠMar cha
Al garve
ita tea
19 13
19 11
19 78
Ġdesc om
Ġdesc ab
Ġann iversari
Ġvol ent
ori aus
ori um
Ġperson aus
ĠW end
Ġ12 20
Ġ12 14
Ġ12 29
enÃ§ ar
Ġben edic
Ġprov ocant
Ġcontra b
Ġcontra diccion
cis ion
occitan a
Ġconsid era
Ġloc alizada
ure ccions
Ġras ic
Ġ8 9
Ġlin dal
uss es
uss ia
Ġart isan
Ġba teg
Ġno cions
Ġeconom icament
Ar g
Ġclass ificar
ĠRo dez
aur Ã©
Ġsenh ore
arg ament
Ġsab Ã¨tz
exp edicions
Ġdec Ã²rs
ĠCar olina
Ġfl Ã¨
Ġdefin isson
Ġrecon eishenÃ§a
Ġnatur alista
Ġnatur alisme
Au gus
Ġtip icament
aques t
Ġcel te
Ġcel Ã¨sta
Ġev Ã²ca
ien Ã²r
Ġpor tadas
inter compreneson
Ġsec ors
Ġdisp uta
Ġsup rÃ¨ma
inh ament
Ġtor rent
Ġcolle ct
Ġanim ala
ĠnÃ² via
Ġvertadi ers
anc es
Ġop cions
Ġop pidum
âĢ¦ )
Ġvend r
Ġremp laÃ§a
lam a
Av ans
ĠBo emond
resp ond
ensa jar
isc ut
Ġacc ent
Ġacc ompanh
Ġacc eler
ton e
ĠAb u
pe ctor
Ġcomunic at
Ġorient acion
Ġdub Ã¨rts
esper anto
Ġreti rament
air atge
Ġsegur itat
Ġbat uda
Ġinici au
Ġdesign ada
ue il
Ġtele c
Ġlic eans
Ġpau ca
ĠBer engu
Ġpal mi
Ġfrequ Ã©ncias
Ġensenh aire
Ġps iqui
Ġpaus an
Ġuman itat
Ġtalh ada
Ġjo ens
Ġrem esa
Ġpobl ants
Ġmusic alas
Ġobserv ats
establ iguÃ¨ron
tet ica
ite d
Ġpe atge
ĠrÃ¨g lament
Situ acion
unt ry
Ġfran ja
Ġvolcan ic
Ġmort s
ogra mas
Ġpert in
Ġsort issiÃ¡
Ġdesapar eguÃ¨t
Ġdesapar Ã©isser
ĠGr Ã²s
ĠTer ra
ĠFer ran
Ġfinanci eras
ĠCamp s
Ġdarrier ei
Jo ana
ĠPat ri
ĠBlan cs
Ġgrav etat
Ġort ografia
Ġpreced it
Ġforn s
ly wood
ĠprÃ¨s te
Ġvisc Ã³
Ġperme te
Ġacompanh ar
Ġnu Ã²ch
Ġleugi ers
Ġleugi Ã¨rs
Ġpreson iÃ¨r
Cont en
ĠSam n
ĠBi arn
Fran Ã§ois
Ġengat jats
Ġemple cs
Ġetn ias
Ġcompr end
Ġpsic ologic
Ġmir alhs
Ġdeven guÃ¨t
Ġdefens iu
ĠBol chevics
lon ga
Ġartifici al
Ġbol as
Ġtradu ch
Ġexemp lar
Ġbanh at
Ġconnect ar
Ma x
Ġclav iÃ¨r
Ġfreg s
Ġmediterran Ã¨as
Ġfelib renca
km ul
Ġsupaus ada
ĠEx p
ĠOlimp iada
Ġespandi das
Sol ament
Ġdetalh at
Ġconflu ence
Ġlabor atÃ²ris
Ġeire tier
Ġvilla geois
Ġredu ch
ĠWilliam s
uran i
ĠLis zt
accep tacion
Ġbizant inas
orig inas
Ġdispos itius
Ġcoment ari
ĠSel djok
auriÃ¡ n
ĠenqÃ¼ era
ĠvÃ¨rb es
Ġquilh at
arth eid
Ġnoir isson
Ġconstat ar
Ġprivileg iat
Ġautent ica
Ġaven idor
Ġchival iers
ĠGil gamesh
Ġmong Ã²la
Ġneb ulosa
Ġresult ant
ĠcrÃ¨ a
Az ur
Ġpist ons
Ġcoer Ã©ncia
Ġafront ar
Ġimplic ats
Ġall usion
Ġgovernament ala
Ġcardin al
Ġcontact ar
Ġvul ner
Ġcomplic ada
Ġacost um
Vic t
Ġeuc li
Ġcontro vers
articul acion
Ġboti gas
Ġsurplomb ant
aplic acions
Ġcapel an
ĠdrÃ² gas
ĠgÃ²r jas
ĠRepublic ana
ĠBolÃŃ var
ĠBolÃŃ via
Ġsaque jat
Ġitiner ari
ĠDis ney
Ġimplanta da
Ġdimen jada
Ou en
ĠGusta ve
ocent ric
Ġtect onica
origin alitat
Ġligu r
ĠKenn edy
ĠPab lo
ĠrecÃ¨p tas
ĠVeneÃ§u Ã¨la
ĠRest auracion
Ġatest at
Ġchano ines
ĠJoaqu im
Cic eron
ĠRemi remont
Ġmelo dias
Ġdeter mina
Ġarchi tect
autonÃ²m ia
! )
' )
0 7
A ups
B las
B ord
D us
F ar
J og
P et
P rof
R A
R a
R os
S am
T or
U rosament
c u
c res
c ast
c ell
d eu
g ov
g hil
j ana
l it
l ha
m ica
r ond
r ing
t y
t is
t ual
u es
u vi
v ant
v itat
y re
Â ³
Ð ´
Ð ¹
Ġ Ã¨li
Ġ olithique
Ġd ren
Ġd Ã²si
Ġd Ã²sis
en berg
en veja
Ġl ia
Ġl imp
Ġl ex
Ġl iadas
Ġde terior
Ġde dica
on ent
on cia
on na
on ucle
te le
te jat
Ġp acte
Ġa ura
Ġa imat
es ch
Ġs aus
Ġs cep
Ġs sas
Ġc ession
Ġc edir
ar quÃ¨t
qu ena
ci da
ci Ã¡
Ġe ol
Ġe timologia
Ġm auc
Ġm istica
Ġm Ã¨dia
Ġm ographique
un eis
or is
or ca
is er
ra di
ra ult
Ġf ust
Ġf Ã¨bre
it is
it met
Ġt Ã¨st
Ġt irada
Ġv Ãłria
Ġper eu
Ġper cebre
gu an
gu ent
gu eta
os aurus
ol an
Ġre per
res enta
Ġse va
Ġse cas
Ġb ug
Ġg Ã¨n
Ġcom e
ro z
Ġcon ifÃ¨rs
ĠC ur
ĠC PD
im Ã¨tre
Ã© o
ul les
ran g
Ġson or
Ġr ond
ut re
ĠM S
ĠM oy
ĠM oder
ĠM Ã³negue
ad s
ad el
ĠP ent
ĠP ag
ĠP ier
ĠP NO
ist Ã²rias
Ġpar e
Ġpar ag
Ġpar alla
ap lant
ĠA G
ĠA la
ĠA mat
ĠA mar
Ġan ul
di Ã¡
ens ac
ĠB ill
ĠB omb
ĠB urg
ĠB Ã²sc
ir Ãłn
av is
av atge
Ġin g
Ġin tim
Ġpro puls
Ġamb s
ĠG am
ĠG ap
ĠG ru
ĠG Ã©rard
Ġsu enh
ĠF ons
ĠL ingÃ¼istica
ĠL itt
ĠE us
ĠE ure
Ã©n Ã§a
me Ã¥
Ġcap Ã¨ra
ĠV inh
Ġlei Ã§on
Ã¯ ts
Ġtra ma
Ġap ost
Ġap artament
ĠD E
Ġar d
ob rar
Ġcomp dar
eg jorn
op ression
Ġcont am
Ġcont rib
Ġcont rot
Ġcont Ã¨xt
Ġvil las
ĠJ ou
Ġpl ats
Ġpl ens
Ġfa g
Ġpre da
Ġtot is
Ġpres by
Ġav em
Ġh Ã¨i
uc as
Ġesp Ã©s
ĠcÃ² sses
Ġac ÃŃ
Ġreg enta
ess at
Ġest Ãºdia
alh es
Ġcar rer
Ġesc la
Ġra Ã§as
Ġra cina
Ġcons ulta
Ġor qu
que ville
esc amp
ĠO ng
elh i
Ġcam ion
Ġgen eal
ex periÃ©ncias
ĠH ann
ed es
Ġcl oqu
ip a
Ġrep rodus
Ġne o
Ġne v
Ġpol vera
Ġbas ica
Ġcre mar
Ġcre tacÃ¨u
Ġmes me
Ġmes prÃ¨tz
Ġenc eucl
Ġgu les
Ġam end
Ġdiv ulg
ĠCh as
ou p
ou re
Ġpers an
Ã²p i
Ġrel ambi
Ġpod ia
Ġtorn ats
auc es
Ġcent enas
Ġcor ala
Ġfam ina
up t
Ġk ar
Ġmil ierats
ine ta
Ġcal gut
Ġcal Ã²ta
Ġass osta
ĠAn des
Ġfon etic
Ġob riÃ¨r
Ġqui tes
Ġso relh
19 20
19 12
19 75
19 85
Ġprod urre
Ġlor rain
Ġ17 63
Ġaf f
Ġsoci alizacion
cl as
Ġpla teaux
ĠW o
ĠW olf
ĠW ood
ĠEs qu
ĠAl p
Ġ12 10
Ġtrob ant
Ap ren
ĠAr mor
Ġag ents
ef Ã¨ctes
Ġpat ois
Ġval er
Ġ8 7
Ġexp Ã¨rts
Ġbasti guÃ¨ron
ĠTol edo
Ġinf rar
Ġinf rastructuras
Ġmal ediccion
Ġneg ativas
Ġinst itut
Ġart istics
Ġ14 00
autor ota
Ġclass ada
Ġmot te
Ġprof it
exp lic
ĠCon nect
Ġdec orat
ingÃ¼ isme
Ġpens avan
Ġautre jat
esta ble
esta biliz
reg adas
Ġint rÃ¨ron
Ġgra u
anÃ§ ons
nacion ala
20 11
Ġang lo
Ġfra ccion
Ġrs an
Ġvic om
ĠGran a
Ġarrib ant
Ġlimit Ã¨t
ĠRe ctorat
Ġcel e
Ġcres iÃ¡
acab ament
Ġost ila
Ġjov ents
apar eis
Ġsec ond
amor f
Ġsup rimit
Ġpos ita
Ġpes ar
Ġcat ar
Ġop inion
ĠPer Ã³n
Ġbl aus
Ġbl ocada
Ġcompren i
ris es
Ġnum Ã¨ros
ĠBo y
andi Ã¨ra
Ġdoc es
Ex emple
ĠmÃ¨s me
ĠmÃ¨s cla
form acion
cin c
ĠCl ass
ĠCl ermont
Ġ179 7
Ġ179 9
ĠTh or
Ġrespons abilitats
Ġcost umi
ĠAng ieus
Ġbal anÃ§
ĠCo ca
Ġom enat
Ġcanta da
Ġ24 0
ue ch
Ġprodus ent
Ġgovern adors
Ġdura ble
Ġcab ras
Ġpau ras
Ġurb anas
Ġabandon ats
acc eler
Ġestran ha
Ġ28 0
Ġbona Ã¼r
men te
Ġinstall Ã¨t
espaci s
Ġmusic als
ĠTe ut
tet ic
alis mes
Ġcompanh ons
Ġdetermin ats
Ġfix acion
ĠCast ras
Ġment au
ĠAnt ica
Ġeng ran
Ġvolcan isme
onn i
ĠOl ivier
Ġindependent ament
Ġsubst rat
199 6
ĠlanÃ§ ada
Ġ180 8
Ġ180 9
Ġarch ipÃ¨la
rof isica
Ġguer don
Ġaperten enta
Ġ183 4
ĠCort s
ĠreÃ¼n ions
Ġcart ulaire
Ġcontribu ÃŃs
ES A
Ġproced iments
Ġavant atges
Ġip o
Ġarque olÃ²gs
Ġrememb res
Tra vers
Ġencont re
Ġimag inat
Jos eph
Ġarre con
Ġsiste matic
ĠRen aud
Ġriv aus
observ ar
Ġdispaus ar
Ġdispaus ava
fu Ã²c
ĠVil atge
Ai Ã§Ã²
Ġcot ria
Ġcoloni alas
Ġrevel at
Ġrevel Ã¨t
Ġparis encs
Ġdan esa
Ġlan gues
Ġexclus iu
Ġenvi Ã¨t
Ġinclus on
Ġstat u
Ġsalv atges
ĠRev Ã²uta
Ġlot issement
ĠCop ernic
Ġcontrarot lada
orta ire
Ġrai Ã§
ĠGo od
Ġnota bla
Ġtax as
Ġaustri ana
Ġmira cle
Ġpreserv at
Ġmontanh osas
Ġiran ian
Ġrenfor Ã§ar
ĠdanÃ§ aires
Ġporg ÃŃs
Ġasiat ics
Ġbru ta
Ġreparti das
Ġcoron at
ĠÃ©s ter
Ġabond osa
Ġvitic ole
acci o
ĠBat ista
Ġdescrich as
Ġprotagon istas
Ġescand in
Ġtermi er
Ġasc ension
Å£ i
Ġdomest ics
Ġbloc us
Ġsufra gis
investi ment
ĠMir alh
Ocup Ã¨t
Ġritu al
Ġhu ec
Ġempres onat
ĠChart reuse
Ġpoir Ãłn
Ġambed Ã³s
ĠDra gon
Ġlir ic
Ġmosa Ã¯ca
Ġexplos ion
Ġafect at
Ġdorm ir
Ġdenonci ar
Franc Ã©s
Pens i
influ Ã©ncias
Ġenro dat
Primi Ã¨r
Ġpruss iana
Ġmagist rats
Ġchamb ras
estand ard
estand ardizacion
Ġenri qu
Ġexplici tament
Ġprecurs ors
Ġaudi ovis
Ġierogl ifs
Ġrup tura
ĠPortugu Ã©s
Ġtour istique
afir mar
ĠOrt odÃ²
Ġpubliqu Ã¨
ĠRap in
Ġenciclop Ã¨dia
Ġfeste jar
Ġbev enda
ĠTarra con
Ġpredec essor
Ġcorred or
ĠTen ochtit
Ġeventu alament
aeron aus
Ġsepel it
ĠClap Ãłs
ĠPasc al
pref ectura
Ġfranch im
htt p
Ġmenac Ã¨t
Fu guÃ¨t
imposs ibilitat
Ġestal vi
aurel ha
Ġomin ids
enj Ã²c
Ġconjugas on
andert al
Ġdeconst ructiv
ĠIntern ational
ĠpÃ²p les
ĠTriv ala
Ġvioloncel ista
ghil ev
Ġparag raf
Ġpresby t
" ;
' t
- -
. Â»<|
0 2
A guÃ¨ron
A donc
C r
C Ã¨rtas
G M
G ra
J Ã²ga
L S
L eg
O ctavius
P alais
P uish
P hil
R og
V el
b Ã©s
b ury
c adas
c atalan
d ur
e cci
g Ã²rd
h us
l ib
o at
r ra
r Ã²t
t orn
u j
u ad
u Ã¨lhs
v ida
v Ãłnia
w en
w ich
y era
Ä į
á »
Ġ ulh
Ġ Ã¨rsas
Ġd uretat
en eg
Ġde di
Ġp unh
Ġp eticion
Ġp neu
Ġa xi
Ã¨ dre
an Ã³ncia
es ar
end even
Ġs eng
Ġs Ã³n
Ġc itacions
Ġc odon
Ġc itada
ar das
ci en
Ġe man
Ġe dific
Ġm ara
Ġm Ã²l
al f
un y
Ã² gi
ent on
Ġlo ps
Ġf adas
Ġf etz
Ġf osc
Ġf esten
it ge
Ġt om
Ġt illon
om on
om un
om Ã²r
om me
au Ã§ada
ri era
Ġn ap
gu Ã¨rra
os Ã¨
us ina
ta bilitat
ta chement
Ġre qu
Ġre ment
Ġb eton
Ġg Ã¨r
Ġg res
Ġg ats
Ġg rel
ins p
ai ma
ti ana
Ġcon ois
ĠC O
Ġal iada
ut an
ut ant
ĠM eg
ĠS at
ĠS itu
ĠS uc
ĠS arn
ĠS eth
ĠS eren
ĠS ologne
ad an
ad ob
ad iÃ¨ra
ur p
ĠP Ã²ble
ĠP urm
st an
Ġpar iet
Ġpar Ã§ans
ĠA ques
ĠA th
ĠA mer
ot icas
Ġan otar
mp a
ĠB ob
ĠB ocas
ĠB rian
ĠB rie
id en
id el
id ia
ĠG at
ĠG alas
ĠG Ã¼
ĠG airal
ĠF am
ĠF rÃ©
ĠT at
ĠT uc
ĠT ex
ĠT ron
ĠT omb
ac ar
ici n
ĠL al
ĠL aus
ĠL ub
ĠL ug
tat ion
ĠE S
ĠE rÃ²des
Ġent ier
me a
me z
ĠV erg
ĠV aud
Ġnom inat
ĠD re
En g
Ã©s ers
imp or
Ġau ans
Ġau mens
Ġau menatge
op tica
Ġvil atj
aut o
aut omob
ĠJ ava
ĠI ogoslavia
Es tela
Ġi Ã¯
um er
Ġres Ã²uvre
em ac
em na
ag in
ag rad
Ġab rig
ras borg
ĠcÃ² des
ich es
Ġreg ne
Ġimp lantacion
Ġesc ultura
Ġcons eu
Qu in
Ġ18 16
Ġ18 24
esc o
esc ota
era y
Ġpu retat
ĠO fici
elh ar
Ġpa tes
ex paus
ex periment
ex pulsion
ud o
ĠH isp
ĠH igh
ib a
th er
Ġne ocl
oss egu
Ġbas ant
int riga
Ġform ulas
Ġmes uran
iliz ar
ilh adas
Ġsul pic
ron im
ĠLa cs
ust racion
ĠLo ing
utiliz avan
Ġsegu its
An ne
Ġad orn
Ġad ulta
ĠK on
ĠK az
Ġat ro
Ġat Ã²m
amb ra
amb ic
Ġ* *
Ã²m na
Ġpauc as
ĠGu atem
Ġinter cal
eb er
ori ana
erc y
Ġpich Ã²ts
ĠPar ti
Ġgrop ant
Ġdesvolop aments
Ġ12 15
Ġ12 13
Ġver ifica
Ġver ds
Ġca ge
ĠMont alban
Ġdeb utÃ¨t
eci ans
Ġag Ã¨t
emple gan
Ġco okies
Ġlong itude
Ġ16 10
Ġcontra dic
Ġvis ions
Ġmen ora
Ġjos ivi
avan Ã§ar
Ġpresent Ã¨ron
Ġnacion alitats
Ġespeci ficitat
Ã¨x tes
Ġ9 4
Ġclass at
ograf ias
Ġarm ament
Ġimpor tacions
Ġsab em
Ġdec Ã²r
Ġdec Ã¨s
Ġapar eish
Ġpun te
Ġep oca
Ġ11 7
ĠU R
anci anas
dep artament
Ġfonda ments
Ġfoncion ari
Ġves ent
ĠVal Ã¨ncia
Ġautor izada
Ġpra g
Ġtecn ologicas
Ġais ada
Ġjov en
ĠQu ich
Ġtract aments
Ġdeban ava
rÃ² ma
Ġliber ada
Ġcul mina
Ġequ inÃ²cci
Ġcin etica
Ġbl Ã²g
âĢ¦ ).<|
Ġmont ant
Ġmont atge
Ġremp arts
Ġant icas
Ġem ocions
Ġem magaz
Ġbo ta
Ġpint ar
Ġpint res
Ġesper anÃ§a
Ġconserv adas
Ġconserv atÃ²ri
mun d
Ġprim ats
ensa ja
rad uras
Ġcolor at
Esc riv
Ġnas quÃ¨ron
Ġ22 8
ĠIs land
Ġveg Ã¨ron
Ġobl idat
Ġdub rÃŃs
Ġsau vament
Ġbal n
Ġmateri ala
do as
gn ac
Ġges tacion
iri es
Ġreceb Ã¨ron
Ġleng Ã¼es
Ġmost ra
ĠCr isti
rap Ã¨u
ĠBel ize
Ġdestru chs
Â° .<|
Ġflu id
Ġdessenh aire
Ġban Ã¨ra
Ġident ificar
Ġtalh at
Ġessenci als
Ġmesc lant
ĠEl ena
Ven gut
ĠMol ins
are a
Ġcompanh ia
Ġpe Ã§as
Ġgall oromana
Ġden omin
Ġdeclar ada
Ã¨b ra
Ġmur tre
Ġtrap ava
Is ab
199 4
199 5
Ġalb ig
Ġcell ul
Ġflor als
Ġsort isson
ĠJul io
Ġopaus ada
Ġopaus adas
Ġopaus ants
Ġperman entas
Ġevolucion a
apel acion
ĠBlan quer
Ġmem Ã²rias
Ġterm ica
dis ciplin
lau renÃ§
Ġcontes tada
Ġinvent ar
Ġprestigi osas
Ġmam el
ĠComp enha
ali ens
Ġillust res
Ġparall Ã¨ls
Ġcaire for
Ġprivil Ã¨gi
Rep resent
Ġperm Ã¨t
ĠNarb onesa
Ġgerman icas
iran ge
Ġestim acions
ĠBa Ã¯s
Ġeduc at
Ġeduc atiu
isp r
ĠLaf Ã²nt
Ġpractic ada
ĠAc adÃ¨mia
Ġtromp etas
Ġenl Ã²c
Ġrenov acion
Ġrecep tors
Ġx ode
Ġfemen ina
Ġriques as
Ġama gar
Ġetn icas
Ġproduc tes
Ġlingu istic
Ġdeven ir
Ġaplic at
Ġdefens or
Ġdesf avor
Ġrevel acion
ĠEm manuel
Ġenvi ar
Ġcarg adas
Ġpassej adas
Ġmel odia
ĠLan gued
Ġinterior as
Ġcerem onias
Ġapond ut
Ġanal og
Ġanal isa
ĠDic tionnaire
ĠUc raina
Ġnota ble
interess ar
Ġcondam nacion
ĠDes volopament
Ġmetall ics
Ġband as
Ġacamp s
ĠPeter sborg
Ġmestre ja
Ġprojec cions
amer al
Ġdors ala
Ġpreci osas
Ġbandi Ã¨ras
Ġail Ãłs
ĠDec laracion
rut inh
ĠpreÃ¯st orics
Ġord inators
Ġerig ida
Ġpit agor
Ġsusvelh anÃ§a
Ġotom an
acci dent
insc riguÃ¨t
Ġconclus ions
Ġsanc Ã¨r
Ġdang ier
util itarisme
Ġhor ats
Ġcuirass at
Ġsosl inhar
Ġdomest ic
Ġcicl ista
Ġbro a
ĠCin quena
Ġcanad ian
exili Ã¨t
Ġsuici di
ĠadvÃ¨rs ari
ĠRio ja
ĠacomenÃ§ ada
Ġreconstru it
fel d
Ġrena issent
ĠTy cho
ĠFeder ala
Anti Ã²quia
Ġexcell ent
Ġdefun tat
ĠNam ur
ocal ipsi
Ġpolim erasa
Ġeuc ariÃ²tas
Ġeclesi astica
Ġdesta ca
Ġmontpelh i
Ġmisteri Ã³s
Ġarg il
ĠlaÃ¼ tiÃ¨r
ĠHub ble
Ġcine asta
ĠLun Ã¨l
Ġcooper ativa
ĠXav iÃ¨r
Long temps
ĠInd ustri
inaugu racion
ĠSecret ari
ĠCerv antes
ĠlÃł mias
ĠPeri Ã²de
ĠreÃ¼ ss
ĠBasco at
Ġchiv au
ĠCala kmul
afirm acion
Ġbombarde ments
emit Ã¨ri
Ġmix te
Ġmeri dian
ink go
Ġrecrut ament
ĠQuim ia
Ġfalais es
infin it
Ġsobren omenat
Ġbric on
ĠbÃ³s tia
Ġtrant alh
Ġlegisl atura
Ġsarth ois
Vinc ent
Ġhortal essa
ĠCommon we
Ġacci dents
ĠBuda p
ĠManci et
ĠGup ta
Augus te
ĠConnect icut
ĠGuatem ala
B C
C el
C op
H ilaire
I o
J amai
L V
M ag
O d
O m
P Ã¨
P ES
T omÃłs
V end
b os
b ir
e tes
h art
h ua
i ter
i Ã³
k t
k es
m erc
m Ãłs
m ile
n oy
o tacion
p ont
p ing
p rimi
s ant
s ovent
u tion
v res
Ø ±
Ġ Ã¨ri
Ġd ama
en zo
Ġl itu
Ġl hs
Ġde du
Ġp H
Ġp ond
Ġa x
an ma
es ter
end o
end ar
Ġs ilici
Ġs ider
Ġc ip
Ġc ables
ar etz
er rors
qu ÃŃ
Ġm Ã²
Ġm Ã²tle
Ġm adura
Ġm utacion
al ats
al iats
or me
or ama
Ã² Ã§
Ã² gue
ent ra
it ion
it Ãł
it ana
Ġt ari
Ġt Ã²cas
Ġun ida
Ġun ics
Ġes teri
Ġes fÃ¨ra
Ġv ejatz
Ġen vÃ¨rs
am et
Ġn atal
os ina
ta ines
ol ais
Ġre elegit
Ġb y
Ġg az
Ġg oj
ins er
ai ana
ai mar
ro ta
ro cin
ti Ã¨ra
ĠC ourt
ei gne
Ġo ch
Ġo casions
Ġr onda
ĠM ey
ĠS ai
ĠS ans
ad ian
ĠP ul
ĠP Ãł
ĠP agan
ch ers
ch if
ap e
ap ellacion
ĠA ge
Ġan Ã¨us
Ġan Ã¨ls
ĠB od
Ġj uda
Ġj urat
iss an
av ocat
ig ament
ig rats
Ġdes gat
Ġdes velh
ĠR at
ĠR osas
Ġpr ost
Ġsu mer
tan s
ĠF ed
ĠT aras
ĠT rÃ²
ac Ã¨a
ov ing
ĠL esp
Ġsus fÃłcia
orn s
Ġcap er
Ġdi at
Ġdi gu
Ġdi bo
ĠV ig
ĠV iana
Ġlei Ã§ons
ass aut
ass embl
Ġnom mat
Ġap ri
ĠN ap
ĠN eron
ĠN oisy
ĠD ion
ara te
Ġme de
eg Ã¨t
op l
op cion
Ġcont rÃłriament
Ġsi Ã¨gle
ĠJ r
ons e
ag Ã©ncia
oc cup
Ã¨g les
ich ard
Ġreg aud
Ġven i
Ġaut ar
Ġcar p
Ġra g
Qu Ã²
if e
Ġmas atges
esc art
esc ulturas
ĠO ise
ard ant
Ġmon etÃłria
Ġter ralha
Ġgen oci
ex ions
ud ic
ĠH i
ib on
enc ar
Ġtr omb
Ġtemp tÃ¨t
Ġrep utada
Ġne f
Ġma Ã§on
Ġpol i
Ġpol y
Ġsol ars
Ġbas ta
Ġcre atura
Ã²rd s
Ġform ulacion
Ġto ut
rib uts
Ġlu xemb
Ġenc ora
ing rad
ĠCh Ã¢
Ġrel atius
Ġrel ativitat
Ġpod rÃłn
ust ra
olog istas
Ġvi elhs
ign ac
anh at
Ġdep ressions
Ġdef en
Ġdef icit
esp ect
Ġro erg
Ġro cher
ĠMar ly
ĠMar guerite
Al c
19 89
19 74
Ġdesc rip
Ġann alas
ĠGu ille
Ġins ist
Ġ17 88
Ġ17 83
Ġ17 56
ori o
Ġqual ificada
par n
Ġesta pas
Ġesta jants
Ġconf eder
ĠW ilson
Ġ15 50
ĠpÃ² le
Ġ12 11
Ġver das
Ġof fici
arc ÃŃs
amp l
Ġprov ocada
Ġag ÃŃs
Ġer udit
Ġvis u
Ġvis ual
Ġdev ant
Ġcr in
Ġcr istian
Ġ7 6
Ġ8 6
Ġexp osicions
Ġdesp end
ĠmÃ²rt as
dic acion
Ġsub ran
ell ier
Ġlig ant
Ġinst ant
Ġdepartament al
Ġconsider avan
Ġ9 3
Ġfu Ã²cs
Ġrealiz Ã¨ron
aud ica
Ġprof ie
Ġdec ern
Ġapar Ã©ncia
Ġpens am
estat uas
Ġrecon eguÃ¨t
li o
Ġcer amicas
ĠU A
Ġorganiz ators
ĠMa j
Ġmajor al
ÃŃn ia
Ġestats un
eth oven
Ġport au
Ġfoncion an
ĠGran ada
Ġpon cha
Ġid rocarburs
ĠVal Ã©ry
eng Ã¨ni
Ġpag ats
Ġmena Ã§adas
ativ e
Ġocup ava
ien guda
Ġaver Ã¨t
ay e
Ġsec ar
Ġsal va
Ġdisp ersion
Ġindi anas
Ġciv iu
ĠRep resent
ĠtrÃ²b e
Ġfre jas
Ġfre ds
Ġfavor iza
Ġavi am
Ġequ acion
Ġbl Ã²c
Ġlib rariÃ¡
Ġvia ducte
Ġdomin ants
Ġviv enta
Ġobten guts
Ġquit as
ĠCas an
hi o
Ġadminist racions
Ġlev Ã¨t
Ġsuperi otat
Ġbo de
Ġprom esa
ĠCol om
Ġconserv Ã¨t
Ġemb e
Ex p
tad t
tad ura
ĠCl Ã©
ĠCl ara
ĠSal on
Ġacab ats
Ġpot Ã©ncias
dit ions
Ġcertan a
ĠReg iment
Ġorient acions
Ġsen escal
Ġbal Ã¨ti
Ġbat ut
ĠConst itu
ocup an
ĠFel co
ĠPol onÃ©s
oti p
Ġdus cas
Ab andon
Ġ184 3
Ġdat ar
Ġast res
Ġgovern ar
Ġdiss Ã²l
ĠLos era
Ġbr una
Ġgar das
ĠMo ham
Ġpref ixe
Ġorgan ics
Ġjo ga
Ġlog icament
Ġfe das
Ġnaiss en
ĠrÃ¨ ines
Ġfabric ants
anim Ã¨des
oÃ¯ ca
actu au
esqu ÃŃ
Ġdetermin ant
ĠNe olitic
Ġpopular ament
ĠprovenÃ§ aus
ĠMor ta
Ġglaci Ãłria
vel ines
Ġindependent ista
Ġtrap Ã¨t
ĠMarc us
199 3
Ġmatemat ics
Ġcell ular
Ġ183 3
Ġresid encial
rieu c
Ġfinanci Ã¨ras
ow ski
Ã²ss es
ĠEsc Ã²la
Ġarres tats
Ġaten gut
Ġcontribu iguÃ¨t
Ġdescub Ã¨rts
Ġdesir s
Ġterm ic
Ġculmin i
Ġpost um
Ġinvent Ã¨t
Ġplat Ã¨u
ĠCre use
Ġceleb rada
ĠÎ ±
Ġinterpre tada
Ġastron omia
umi guÃ¨t
Ġdesen aus
Cont unh
ĠBon if
Ġpin tat
ĠCamb ridge
Ġpil ar
ĠAss iri
aven guda
ĠCI CR
Pre pausa
ĠAg en
Ad minist
Ġsof re
Ġenqu era
Ġimpaus ada
Ġaplic adas
Aut or
Ġminer au
Ġconcern its
elect rons
avent uras
Ġsubs istÃ©ncia
Ġrevend ica
Torn am
Ġvide o
Ġred ondas
ĠCarta gin
Ġconnect ats
Ġocean ic
Ġnavig ador
Ġdialect ala
On or
Ġmult il
Ġestand ards
Ġts ar
Ġreserv ada
Ãª che
Ġnobl essa
Ġradic aus
ĠAls Ãłcia
Ġcollectiv itat
ĠsÃ¨r vas
Ġvore ja
Ġdetalh ada
ĠMur alhas
Ġdifus ada
Ġsuplement Ãłria
lov Ã¨n
Ġredu cha
ĠMen Ã¨rba
Ġaparten on
Ġrespond Ã¨t
Ġbenefici ar
ĠSc enari
ĠSc ott
Ġiran iana
Ġexplor ator
Ġexpaus ada
Ġrenfor cÃ¨t
Ġindividu als
Ġsop ar
Ġauc Ã¨l
ĠAub rac
agn y
Ġpersec ucion
Ġmanusc rich
lad Ã¨sh
Ġcro ix
Ġrenovel ament
Ġperpaus ar
Ġinfluenci ada
Ġalunh ada
assan idas
Ġafir mar
Ġpig ment
Ġpig ments
OM S
Vi elha
ĠFont enay
Ġprivileg iada
Ġoc cup
Ġeston ant
Ġsatisf ar
Ġtrip le
ĠAuv ergne
Aper ten
ĠGil bert
Ġtin ta
cont inent
anth ropus
ĠRab ast
Ġpretz fach
Ġsir Ã²p
sse tia
ĠsecrÃ¨t a
Ġsucced isson
Ġdiuers es
Ġcamba jon
ĠLon ge
ĠFern ando
enem ics
ĠJau fre
Rob ert
ĠDomin ique
Primi Ã¨ra
Ġdiplom ata
Ġoland Ã©s
ĠOt to
ĠOu che
Ġanarqu istas
exple itacion
ĠPruss ians
Ġaun or
Ġetrus ca
Ġprefond or
Ġribi Ã¨ra
Ġmenim osament
Ġallu vi
Ġpromot ors
Ib n
ĠCommun e
Ġsucce diguÃ¨ron
Ġtropic als
exclus ion
Ġpredat ors
Ġenqui ath
Ġapari cions
AuvÃ¨rn he
ĠSod an
Ġarri us
Ġpolon esas
Ġsimpt Ã²mas
Ġferv or
ĠChel em
Ġpollu cion
aprofich ar
ĠMontre al
Ġdiagn ostic
Ġsinag Ã²ga
Sost en
Ġterro ir
Ġantibi otics
ĠVoy ager
ĠBle ue
ĠLÃ³ pez
Ġtimuc ua
Dav id
Ġdesman tel
Ġomenat jar
ĠTenochtit lan
ĠCommonwe alth
) ..<|
1 19
1 20
A er
A ure
B es
C am
D ep
E A
E c
H am
I M
J C
M ala
S oci
T rans
V Ã²li
b ot
b euge
c elles
f o
g ona
i Ã¨ira
n orm
n ik
o h
o it
p lement
s eg
u mbia
v it
v ie
w ick
x as
y mp
Î ¸
Ù Ĩ
á ¼
Ġ 00
Ġ Ã¨ren
Ġl Ã©sers
on ents
te ta
Ġp ica
Ġp alha
Ġp ingo
Ġa ct
Ġa ce
Ã¨ me
Ã¨ irs
end acÃ²m
Ġs am
Ġc ep
Ġc ian
Ġc able
Ġc lap
Ġc Ãłncer
ar ament
er ra
er ei
ci Ã©ncia
ci tats
in ia
Ġe ti
Ġm Ã¨r
Ġm endra
Ġm uisha
Ġla ure
al g
al m
al on
al gas
un ci
or cion
is ats
is ation
Ġlo is
it abla
Ġt Ã©
Ġt ura
Ġt ara
Ġt all
Ġun ificar
Ġv elha
Ġv Ã²uta
Ġen ig
Ġn Ã¨r
gu etas
os o
os ion
Ã¨r gue
us tan
ol ir
Ġre alas
Ġb ass
Ġb abil
Ġg lic
Ġg Ã²ts
ins tein
ai i
le var
ant isme
Ġcon ti
ĠC y
ĠC is
ĠC aire
ĠC af
ĠC lav
âĢĻ <|
et ts
Ġr Ã©g
ĠM ei
ĠM ore
Ã²r das
ĠS os
ĠS art
ĠS her
ĠS orb
ĠP Ã²l
ĠP iu
ĠP unta
ĠP rÃ²che
st ra
ist re
la ve
ap ropri
ĠA ug
ĠA ton
ĠA dor
ot atge
Ġan ecd
ens at
ÃŃ pols
ĠB iz
ĠB and
ĠB isc
Ġj ub
ir al
ir us
Ġmai a
Ġmai res
quel a
av ana
ab eth
ig e
Ġin demn
ĠR aci
Ġpr ats
ĠG Ã¨n
ĠG ate
ĠG rÃłcia
ĠF amilha
ĠT rop
ĠT oscana
ac tiva
ici anas
ici li
ĠL er
ĠL ig
ĠL ass
ĠL ord
ans a
Ġpo ce
Ġpo ema
Ġent rada
Ã©n Ã©
and ra
and ro
ca zia
Ġdi p
Ġdi riÃ¡
ass ai
Ġnom ar
Ġtra ge
Ġtra fec
ĠN at
ĠN GC
Ġar te
eg ip
ec te
Ġli ames
op ard
aut ob
ĠJ esu
Ġi e
Ġfa ita
Ġpre z
Ġsa grat
Ġpres tat
Ġres ina
Ġres istiguÃ¨t
em issions
ag Ã²n
Ġh este
Ġh icar
Ġab andona
uc y
ĠcÃ² dis
Ġven j
Ġven Ã¨m
rit on
Ġimp ausa
Ġcar cin
est ruct
Ġ18 11
Ã²c ra
Ġmas queta
esc rit
Ġu Ã²i
Ġcam is
Ġdem ar
Ġter ri
ex istir
ud an
ud its
Ġrec Ã²lta
ss ion
ĠH ag
ĠH ou
Ġtemp ta
Ġrep utat
Ġrep ortat
Ġma issa
Ġbas es
int s
Ġaqu iu
Ġcre mada
Ġpass e
Ġform ava
ilh an
gon h
Ġ3 20
Ġ3 30
Ġch ab
Ġch Åĵur
ges tion
Ġgu eto
gan y
ĠCh ecos
Ġman Ã²bras
Ġrel ÃŃ
Ġsens es
ĠLa on
teri as
Ġcent raus
Ġfar em
olog ies
ian e
ĠLo ve
ign at
esti gis
ĠAn autitas
ĠK an
ĠK os
Ã¼ l
De ci
Ġso un
Ġat t
amb icion
fic ar
19 10
Ġdesc ur
Ġdesc ripcions
Ġpermet rÃłn
ctu re
Ġann al
Ġinter n
Ġ17 66
Ġ5 50
rech s
Ġesta bles
cl ass
Ġconf id
ĠW agner
Ġdeis hÃ¨
Ġdesvolop Ã¨
Ġja un
Ġ15 5
Ġ12 60
Ġ12 26
Ġtrob alhes
Ġcamp anas
aqu is
ĠMont fort
ĠAr Ãłbia
Ġco an
Ġ16 40
Ġcontra diccions
Ġref ug
ber int
Ġval at
emb arra
Ġespeci alitat
Ġrepresent atiu
Ġmond ina
ĠCom tes
Ġ14 4
Ġrap elar
Ġ9 7
Ġclass ar
ĠRo ca
cul es
In vent
arg ada
Ġsab a
ĠCon ca
Ġim ne
rig o
Ġsucc Ã©s
Ġmov iments
Ġrecon cili
Ġret re
Ġcarri eras
Ġcer ta
Au vern
Ġ11 5
Ġbast ÃŃ
Ġorganiz an
Ġeg alas
Ġtre p
ĠRe al
Ġparticip ant
Ġcel Ã¨stes
Ġdu o
Ġcontin Ãº
ien nes
eri ans
ĠEn ter
Ġtrop es
Ġsal aris
Ġext rac
inst itut
Ġprodu its
ĠâĢĵ ,
Ġge org
Ġnecess itats
Ġanim ats
Com enÃ§a
pa ÃŃs
Ġop inions
Ġvend Ã¨t
Ġconserv ator
land e
Ġnorm alas
Ġcob le
Ġesqu Ã¨ma
ĠprÃ¨p a
Ġobl iguÃ¨t
Ġdub riguÃ¨t
Ġbal ma
Ġbal con
Ġbal anÃ§a
do ch
rom e
rom an
Ġinici at
Ġleng o
ĠCo alicion
Ġelect rons
ok u
Ġ23 8
Esp aci
igu Ã¨ri
Ac c
Ġ26 0
Ġdiss et
Ass aiÃ¨t
Ġger it
Qual qu
Ġcommun autat
ox idacion
Ġestran giÃ¨r
Ġensenh ada
Ġorgan ic
CO R
com una
Ġident ics
Ġtend on
Ġut op
Ġut ilas
ĠMus ica
Ġequip ament
Ġcav aments
Ġobserv ada
ĠPl essis
Dem ai
Ġdesfa chs
Ġdecl inar
alis ation
Ġdetermin acion
estend Ã¨t
Ġsia ga
ĠSoci et
ival di
Ġperf Ã¨it
Ã²nt res
ĠXII e
Ġ180 4
Ġcontinu ar
Ġaperten on
Ġfinanci era
Ġasp Ã¨ct
Ġvert Ã¨x
roma ins
Ġnumer ics
ĠdesplaÃ§ aments
Ġbibl iografia
Ġestan h
Ġcondicion ada
Ġexc av
Ġtestim Ã²n
Ġrescont rÃ¨t
Ġatac ada
ĠPat rici
Ġsil o
Ġdra matica
Ġpair s
Ġabs ur
Ġaprof ech
Ġfol k
Ġfol os
Ġdig ne
Ġbot on
Ġbot Ã¨t
Ġacompanh ats
Ġfeder acions
Ġajuda da
Ġmam ifÃ¨r
oun dat
Ġtit re
Ġtit olada
Ġdesen rot
Ġneut res
Cont inu
Ġdeclin Ã¨t
Ġdemen ÃŃs
Ġprefer ÃŃs
Ġreconst ruction
Ġsan ctu
ĠBritan ica
Ġcha fre
Ġterritori au
ĠMinist res
Ġjur ispr
Ġaer op
Ġmad eis
And rieu
Ã¶ n
Ġtolos encs
fu ga
Ġdistingu isson
Ġdeven gut
Ġram s
Ġpast res
Ġescal iÃ¨r
ĠcelÃ¨b ras
Ġlan gu
Ġborges es
Ġmascul ins
ĠCos ta
ĠLan gues
Ġdiplomat icas
Ġdialect ica
ĠJerusal em
Ġgeomet ricas
Ġradic ala
Ġelabor acion
Ġrespect at
ĠdoÃ§ ament
Ġdescend Ã©ncia
ĠBru y
Ġpend ant
ĠSci ence
Ġjonh Ã¨t
Ġsuplement ari
ĠAust ralop
Ġreda ctor
uga wa
Ġdispar egut
Ġved Ã³
Ġdiferenci ar
rast ructura
Ġcald riÃ¡
Ev identament
ĠRa in
entr isme
Ġfals a
Ġpreci osa
Ġrob Ã²ts
Ġtamb orn
rÃŃ guez
ĠpoÃ« ta
Ġhem nas
Ãºst rias
ĠBlu e
ĠTrenc av
Ġreten guda
Ġescamp ilhat
ĠcapÃŃtol s
ĠArch ius
Reg ion
Ġmarci als
ĠBess in
Ġaven guda
Ġcompres as
Ġcosm ologia
Ġdesl ot
Ocup a
Ġarist ocracia
sc ena
ĠFland re
Ġfert ilitat
ĠMosc Ã³
Ver tat
Ġvib racion
ĠVict oria
Ġposterior as
ĠErn st
Ġcardin au
Ġfrontal ieras
Ġestamp at
Ġvul gar
Ġic on
Ġvot Ã¨t
ĠPequ ot
ĠJohann es
ĠSib eria
ĠPuÃ¨g laurenÃ§
ĠSha k
Ġoland esa
Ġincap able
Ġescad uda
Ġrab in
ĠSax Ã²nia
ĠPolit ica
Ġcontest at
Ġange vine
Ġmessat giÃ¨r
Ġconverti guÃ¨t
Ġcorreg ir
Ġbombarda ment
Ġbombarda ments
ĠManch oria
Ġcomedi an
ĠPall adio
Ġconsent iment
Ġconviv Ã©ncia
Ġpromot or
ĠÃģ lvar
Orig ina
dÃ© ric
ĠClam enÃ§
Ġdistint as
Ġextraordin Ãłria
ĠJustin ian
ĠMall orca
ĠDef ensa
Ġconstren chas
ĠVirg ili
Ġdesliu ran
ĠMik ha
Ġdiscrimin acion
Fon taine
Ø§Ù Ħ
ĠPros per
ĠTok ugawa
Ġsulf ur
ĠBale aras
ĠPara guai
ĠNai on
Ġconsec u
Contuni acion
apert en
ĠNeuf ch
assim ilacion
Ġpositiv isme
arist ocracia
Ġpiram idas
ĠclÃ²s ca
ĠMontmor ency
ĠHein rich
Ġsuff ixe
ĠTik al
ĠSarn in
ĠLangued oc
Ġlitu an
Ġgoj ata
) .
- ,
3 00
A IEO
B ru
C ela
C amin
D ata
H el
I SS
I FA
M en
M ei
M edi
N omb
P C
S up
T ur
V iu
V illa
c lar
c ession
e ca
e mi
f il
g na
h m
h or
i enta
j Ãł
j atz
k an
l erc
l ades
m ot
m Ã©s
n ier
o ter
o ccident
o eira
p ag
s ch
t Ã©
u et
z il
Ġ æ
Ġ Ã¨x
Ġ ÃĪra
on ge
on isme
te is
Ġp Ãł
Ġp ess
Ġa y
Ġa mi
Ġa que
an an
Ġs assanida
Ġc ist
Ġc rop
er re
er Ã¡
at oire
at rena
qu atre
in on
in os
in tellectu
Ġe min
Ġm of
al di
un ir
or por
ra k
Ġf ier
Ġf eda
ic ourt
Ġt if
om ieu
Ġun d
au ti
au ban
Ġes lavas
ri lat
Ġv et
Ġen Ã²rme
Ġper de
am na
am ente
ol y
ol ai
ol phe
Ġb res
Ġb arcel
Ġb roc
Ġg eta
ins Ã¨ctes
ins ky
ti gas
Ġcon nait
ĠC og
ĠC lu
ĠC inc
ĠC rac
ĠC NRS
âĢĻ ,
Ġr Ã¨ste
ut te
ĠM ul
ĠS B
ĠS aud
ĠS oul
ad Ã©s
ur u
ĠP our
ĠP ira
st att
ch io
Ġpar li
la ter
ap enadas
ĠA per
Ġan Ã¨ron
ĠB is
ĠB ia
ĠB Ã¨c
ĠB aptista
av ed
id u
id Ã¨
Ġdes gu
Ġpr ossegu
ĠG in
Ġ2 18
ĠF Ã²ra
ĠT on
ĠT ay
ĠT itan
ĠT ah
ĠL lan
ĠL ann
ĠE rac
orn ament
bl anc
Ġent ara
Ġte aun
ma terial
Ġcap d
Ġdi eta
ĠV est
ass Ã¨t
ass ab
mi re
Ġap rop
Ġap Ã²rt
Ġap ie
Ġap Ã²st
Ġap Ã¨la
ĠN ot
ĠN oy
ĠN SD
ĠD C
ĠD ela
ĠD rac
Ġar rem
Ġme c
Ġcomp Ã²rt
eg en
og h
ce y
Ġex cl
Ġab riga
ida d
Ġesp Ã²rts
Ġentre mi
oc las
Ġac uÃ¨lh
Ġac ordat
Ġimp opular
les a
Ġesc uras
est u
est as
Ġra j
Ġcons piracion
que z
Ġser ai
esc an
esc ot
Ġu b
ĠO C
Ġdon avan
od ore
od Ã¨rma
Ġmon olit
Ġfin as
Ġfin iguÃ¨t
ud son
ĠH on
ĠH ad
Ġtr on
Ġri e
Ġma x
Ġma ish
Ġpol ara
Ġbas alt
Ġaqu Ã³
Ġcre ativitat
Ġpass ions
Ġform alament
iÃ¨r es
Ġprin ci
ven guts
Ġch il
Ġch ans
ric te
Ġenc l
Ġenc uei
Ġcaus se
gan da
ĠCh i
ĠCh er
ĠCh am
ou ard
ill ard
ill usion
Ġrel at
Ġpod on
Ġpod Ã¨t
ron h
ron ter
ĠLa w
auc Ã¨l
ust au
Ġfar ai
Ġfar gat
Ġcor ros
ev aporacion
ert ot
Ġk oin
ĠSant o
An ton
ĠAn tartida
esp e
Ã¼ rosament
Ġso ent
Ġro Ã¯n
ĠMar e
ĠMar ques
ĠMar se
ĠMar gar
Ġcas as
Ġfor Ã§ats
Ġrev Ã¨la
ĠGu ad
eb a
Ġ17 75
Ġvol guÃ¨ron
Ġdom Ã¨nis
ĠW ars
ĠEs tela
Ġdeis hat
ĠAl en
Ġ15 90
Ġgl utÃ¨n
Ġca issa
ish na
Ġag antÃ¨t
Ġco emperaire
Ġz e
inc endi
inc apacitat
Ġ16 22
ord ats
ord ania
ĠaviÃ¡ i
Ġpat rocin
Ġpren gÃ³
Ġist ori
Ġexp l
Ġgranda ment
ang Ã¨lis
lat a
Ġdesp ens
ĠJo Ã£o
Ġmant ua
18 71
Ġinst au
Ġrepresent Ã¨t
Ã¨x as
Ġart Ã¨rias
eire tatge
Ġ14 53
Ġba ile
af ich
Ġmi elhs
Ġ9 1
ĠdivÃ¨rs a
Ġarm aments
Ġbar ca
In dre
Ġsab ers
exp ressions
ĠCon v
Ġdec rÃ¨t
ĠCar ter
Ġcast Ã¨us
rig acion
Ã¨p tes
li eu
Ġsemb le
rim its
rim idas
ug n
arÃł s
Ġeg als
cn ica
ĠVal entin
Ġvari ant
Ġautor izacion
Ġcambi Ã¨ron
Ġtecn icament
Ġpag an
isti ci
Ġev itant
Ġev alu
Ġconv enc
Ġmol ts
leg it
inter seccion
Ġtornar em
Ġsal ada
Ġmag ica
Ġext ens
ĠY an
ĠY ou
Ġsup re
Ġmo cion
Ġmelhor Ã¨t
ĠLe wis
Ġbi ologic
Tot s
Ġliber alas
Estat ut
ĠRom ieu
Ġvers emblant
ĠPer man
Ġbl in
Ġinc ont
Ġrest ren
ĠConselh s
Ġtrobar atz
Ġpap ala
Ġreb as
eda da
Ġem or
Ġtal on
ais ina
Ġus ina
Ġposicion ament
Ġdir Ã¨ctes
Ġprom ulg
At las
Ġsepar acions
Ġcob Ã¨rtas
ĠSal ut
Ġacab Ã¨ron
Ġviol entas
Ġfot os
ĠAng el
Ġdia pos
Ġprob abla
Ġreceb uda
Ġdesign an
Ġru e
Ġelect ricas
Ġsob iran
Ġdus ca
Ġprodus ida
Ġprodus eish
Ac ab
Ġpresid encial
Ġgovern aire
ĠgrÃ¨ ca
Ġpal un
Ġabandon Ã¨ron
Ġgard Ã¨ron
Ġmul tim
Ġfe me
Ġcav ar
Ġessenci alas
ĠMars elh
anim acions
import ant
ĠSh ar
Ġfilosof icas
ite cus
Ġoblig acions
escriv ana
Ġfix e
ĠSoci au
Ġinteg rats
ĠAnt ilhas
ĠCros adas
Ġexec ucion
itim s
Ġcollabor Ã¨t
ĠMarc Ã¨u
Ġvad uda
Ġplas ma
Ġ180 7
Ġarb rilhon
Ġguer ilhas
Ġpi emont
Ġmalais ida
roma ines
Ġide ologica
ĠCort Ã©s
ĠCamp anha
Ã²ss as
ĠRod rÃŃguez
ĠDom ingo
Ġort ografica
Ġmodern izar
Ġlit re
Ġlit osfÃ¨ra
Ġdesir ar
Ġimm erg
ĠsÃ² ja
Comp ta
Ġcomand ar
Ġfeder alisme
Ġmos queta
Ġapro vada
ĠCam ille
Ġastron omic
ĠBor is
Ġparall Ã¨las
enri qu
ĠCamb rai
Ġremarc at
Ġarque ologica
Ġliqu ids
Ġderiv ada
Ġseri osament
Ġed itats
Ġbu fa
Ġengat jada
Ġcompar at
ĠDav e
Ġemple gan
Ġlud ut
Ġama g
Ġetn ic
Ġexcepcion au
Ġlingu istique
ĠFil os
ĠDu rance
Ġpilh atges
ĠMer idion
Aut re
amass an
gor it
Ġescal p
Torn at
Ġtribun aus
fre do
Ġcen ter
Ġesti g
Ġdialect alas
ĠRev ue
Ġnad au
Ġcerv Ã¨th
Ġanc essor
Ġapond ent
Ġvore jada
ensenh aire
ĠJan eiro
Ġpend ÃŃs
Ġeire tiers
Ġga elic
ĠRou ge
engat jar
Ġsingular itat
Ġespel iguÃ¨t
ĠVern et
Ġaparten ent
ĠOst au
Ġlumin Ã³s
Ġcrist als
Ġeneb ida
imb ab
Ġinaugu rada
ĠPop ular
Ġrestaur Ã¨t
ĠAst Ã¨cas
Ġcoron ament
ĠpreÃ¯st oric
Ġculh ir
Ġinvesti ments
Ġfich as
Ġgel ada
Ġsindic at
ĠGau le
Ġprumi er
ourn al
Ġaci Ã¨r
Ġvess ants
insc riu
Ġbarb ars
Ġengenh aires
Ġdesemp uÃ¨i
Ġbarra ge
vill iers
ĠAuv ern
escrich es
Ġespir ala
Ġpretend ents
ivern acle
ĠCult urala
Ġlater als
Apar eis
Ġpist on
Ġreclam a
Ġjustific acion
acum ulacion
Ġpastor ala
Ġdetz enat
ĠTÃ¨r Ã§
Ġgravitacion ala
Ġperiod ic
Ġcatast rof
enqu Ã¨sta
Ġblind ats
ĠAri Ã¨ja
ĠcuÃ¨ cha
ĠWal ter
ĠGalil Ã¨u
ĠZh ou
Ġtort ura
ĠStan ley
ĠDomin ic
ĠPeire gÃ²rd
Ġchamb ra
abu Ã²u
ĠcoÃ¯n ci
ĠcoÃ¯n cidÃŃs
Ġregrop a
Ġrecono issenÃ§a
Ġintellig ent
Ġequilib rat
Ġcert itud
Ġdiverg Ã©ncias
Ġrecompens at
Ġlomb ard
arte ment
Ġrub rica
ĠSpace X
Public acion
Ġbov ins
Ġassum ir
industri alizacion
Pan orama
Ġdesbremb ar
Ġmieg jorn
ĠGod olin
ĠaprÃ² chi
Ġpreocup acions
Ġconced it
comunic acion
Ġcommand erie
ĠVilan Ã²va
Ġnut ri
Ġvail et
Ġaviada ment
ĠcÃ²mp te
Ġespectacl Ã³s
Ġmetabol isme
Ġauvern hat
mil odon
Ġesporti va
Ġformi guier
Ġvalenci ana
otra mar
dim ension
Ġconcre ti
Ġexcess iva
Ġpercuss ions
ĠBren ne
EntraÃ¯n Ã¨t
Ġboci n
ĠRoque bert
Op Ã¨ra
Vad ut
ĠAgrip pa
Ġincorp orat
Ġdavanci Ã¨rs
ĠMard uk
avag gio
ĠrÃł dios
ĠFat im
graci adament
ĠDrag ons
Ġcontradic t
ĠUR SS
ibon acci
ĠGÃ¨n oa
ĠErac les
Ġteaun euf
ĠNSD AP
" :
1 50
A iga
A guestes
B A
B at
B ou
B andiÃ¨ra
C D
C arri
D et
D ona
E do
G i
G randa
I t
L ib
L engadÃ²c
M arcel
P I
P rop
P rog
Q V
R esp
R eb
R oy
T emp
V ar
V ei
a qÃ¼
b r
b et
b run
c ent
c ab
d ut
e de
e ille
f ix
g Ã¨
g acion
h im
j eu
k ina
l op
l iÃ¨r
m ant
m Ã¡n
r d
u tes
v istas
v ry
w er
x Ã²r
y ne
z ir
Ä ±
Ð ¼
Ù Ī
Ġ ranc
Ġd ard
Ġd Ã¨lta
en ian
Ġl em
Ġde teccion
on ville
te ts
Ġp ant
Ġp eti
Ġa ch
Ġa gan
an gu
end au
Ġs Ã¨c
Ġs unt
Ġc edit
Ġc emitÃ¨ri
er ius
er gias
at raccion
at rÃ²ba
ci das
in gu
in vÃ¨rs
Ġe te
Ġe mer
al ie
or da
or icas
Ã² gas
ent i
ent resenhas
ra is
ra fic
Ġf alha
it ara
Ġqu es
Ġt utas
Ġt Ã¨sts
au pre
da e
ri i
Ġv Ã²ste
Ġv itatge
am ont
am eron
Ġn ob
Ġn orma
gu ar
gu em
os os
Ġque u
ta ca
ol er
Ġb la
Ġb riu
Ġb asses
Ġb aias
Ġg otas
Ġcom arc
ant os
Ġcon ica
âĢ ĺ
ĠC it
ĠC ig
ĠC iutad
ul us
Ġson an
et Ã¨u
Ġal ter
Ġr ol
Ġr ge
Ġr ich
Ġr enh
ĠM ant
ĠM ort
ĠM inas
ĠM ener
ĠS anc
ĠS Ã¡n
ĠS Ã©nher
ĠS ierra
ad is
ĠP y
ĠP Ã¨
ĠP riv
ist ar
Ġpar ier
Ġpar isi
Ġpar eguÃ¨t
ap p
ap ari
ap artheid
ĠA ct
ĠA ward
ĠA renas
ot ball
ÃŃ o
ĠB eng
Ġj onc
av ski
ct s
iv re
id em
Ġdes per
Ġdes ox
Ġin cis
Ġin jeccion
Ġin just
aus ida
ĠR im
ĠR uf
ĠG ent
iz ier
ĠF Ã©
ĠF ord
ĠF oundat
ĠF ibonacci
ĠT am
ĠT ana
ici na
ont s
ont ori
Ġpo ble
Ġpo emas
Ã©n guer
ĠV ign
Ġnom ent
Ġtra dition
tes i
ĠN arcÃŃs
ĠD emp
ĠD je
ĠD inastia
ara g
Ġar ger
Ġau jÃ²ls
ob es
ob ri
ec ourt
op lan
Ġcont enci
ĠJ im
ĠJ ura
ĠJ aval
um virat
Ġpre tencions
Ġtot z
Ġsa geta
ag rop
ag antar
Ġav an
uc l
Ġesp arn
oc Ã²l
Ġest rÃ²fas
Ġesc apa
Ġesc acs
est au
Ġgran es
Ġcons omat
Ġpart isan
Ġser Ã¡n
ĠO ri
Ġpa ga
Ġfin it
ult ur
ĠH ur
ĠH ot
ĠH ind
ed s
enc ourt
Ġcl ari
egu de
Ġrep Ã²rt
Ġrep ress
Ġpol lin
Ġpol ival
Ġplan ificacion
Ġ3 40
Ã¨n t
Ġlu x
Ġenc anta
Ġenc laus
Ġgu an
ĠCh ant
ĠCh ass
ou e
Ġman Ã²bra
Ġman ual
Ã²p ia
Ġdis ent
Ġtorn am
Ġdo Ã§as
Ġfar macia
Ġk arma
Ġrom avatge
lar ic
Ġsegu idors
Ġele ctors
esti us
An Ã¨t
An im
An autit
Ġass ol
Ġass ag
Ġdep int
Ġad jac
Ġdef alh
ub ad
ĠK ui
ĠK epler
Ġsos cripcion
Ġcas Ã¨t
amb ul
Al ba
ita te
fic cion
19 14
Ġdesc riguÃ¨t
Ġdesc olon
Ġpermet en
Ġpermet an
Ġrev Ã²ltas
tel la
paus ada
Ġjorn alisme
don ne
Ġst rias
Ġpla que
gi ers
Ġgrop adas
ĠAl iar
Ġja unas
Ġ12 6
Ġ12 25
aqu i
ĠMont reuil
Ġ6 50
arc s
Ġprov Ã¨rbis
Ġco efici
inc orpor
Ġ16 60
Ġcontra ct
cis a
Ġref ort
Ġvis itants
Ġresp ir
Ġresp ectu
Ġresp ecta
arm adas
Ġpat i
Ġcr Ã²s
Ġpren iÃ¡
Ġval d
Ġ7 000
Ã¯n s
ang o
lat iu
Ġdesp assa
ĠEst udi
ĠcomenÃ§ ant
ĠcomenÃ§ aments
[...]
