{"<|endoftext|>":0,"!":1,"\"":2,"#":3,"$":4,"%":5,"&":6,"'":7,"(":8,")":9,"*":10,"+":11,",":12,"-":13,".":14,"/":15,"0":16,"1":17,"2":18,"3":19,"4":20,"5":21,"6":22,"7":23,"8":24,"9":25,":":26,";":27,"<":28,"=":29,">":30,"?":31,"@":32,"A":33,"B":34,"C":35,"D":36,"E":37,"F":38,"G":39,"H":40,"I":41,"J":42,"K":43,"L":44,"M":45,"N":46,"O":47,"P":48,"Q":49,"R":50,"S":51,"T":52,"U":53,"V":54,"W":55,"X":56,"Y":57,"Z":58,"[":59,"\\":60,"]":61,"^":62,"_":63,"`":64,"a":65,"b":66,"c":67,"d":68,"e":69,"f":70,"g":71,"h":72,"i":73,"j":74,"k":75,"l":76,"m":77,"n":78,"o":79,"p":80,"q":81,"r":82,"s":83,"t":84,"u":85,"v":86,"w":87,"x":88,"y":89,"z":90,"{":91,"|":92,"}":93,"~":94,"¡":95,"¢":96,"£":97,"¤":98,"¥":99,"¦":100,"§":101,"¨":102,"©":103,"ª":104,"«":105,"¬":106,"®":107,"¯":108,"°":109,"±":110,"²":111,"³":112,"´":113,"µ":114,"¶":115,"·":116,"¸":117,"¹":118,"º":119,"»":120,"¼":121,"½":122,"¾":123,"¿":124,"À":125,"Á":126,"Â":127,"Ã":128,"Ä":129,"Å":130,"Æ":131,"Ç":132,"È":133,"É":134,"Ê":135,"Ë":136,"Ì":137,"Í":138,"Î":139,"Ï":140,"Ð":141,"Ñ":142,"Ò":143,"Ó":144,"Ô":145,"Õ":146,"Ö":147,"×":148,"Ø":149,"Ù":150,"Ú":151,"Û":152,"Ü":153,"Ý":154,"Þ":155,"ß":156,"à":157,"á":158,"â":159,"ã":160,"ä":161,"å":162,"æ":163,"ç":164,"è":165,"é":166,"ê":167,"ë":168,"ì":169,"í":170,"î":171,"ï":172,"ð":173,"ñ":174,"ò":175,"ó":176,"ô":177,"õ":178,"ö":179,"÷":180,"ø":181,"ù":182,"ú":183,"û":184,"ü":185,"ý":186,"þ":187,"ÿ":188,"Ā":189,"ā":190,"Ă":191,"ă":192,"Ą":193,"ą":194,"Ć":195,"ć":196,"Ĉ":197,"ĉ":198,"Ċ":199,"ċ":200,"Č":201,"č":202,"Ď":203,"ď":204,"Đ":205,"đ":206,"Ē":207,"ē":208,"Ĕ":209,"ĕ":210,"Ė":211,"ė":212,"Ę":213,"ę":214,"Ě":215,"ě":216,"Ĝ":217,"ĝ":218,"Ğ":219,"ğ":220,"Ġ":221,"ġ":222,"Ģ":223,"ģ":224,"Ĥ":225,"ĥ":226,"Ħ":227,"ħ":228,"Ĩ":229,"ĩ":230,"Ī":231,"ī":232,"Ĭ":233,"ĭ":234,"Į":235,"į":236,"İ":237,"ı":238,"Ĳ":239,"ĳ":240,"Ĵ":241,"ĵ":242,"Ķ":243,"ķ":244,"ĸ":245,"Ĺ":246,"ĺ":247,"Ļ":248,"ļ":249,"Ľ":250,"ľ":251,"Ŀ":252,"ŀ":253,"Ł":254,"ł":255,"Ń":256,"Ġd":257,"en":258,"Ġl":259,"Ġde":260,"on":261,"te":262,"Ġp":263,"Ġa":264,"as":265,"Ã¨":266,"an":267,"es":268,"end":269,"Ġs":270,"of":271,"xt":272,"text":273,"<|":274,"|>":275,"endof":276,"endoftext":277,".<|":278,"Ġc":279,"ar":280,"er":281,"at":282,"qu":283,"ci":284,"in":285,"re":286,"Ġe":287,"Ġm":288,"Ġla":289,"al":290,"un":291,"or":292,"Ã²":293,"ent":294,"is":295,"ra":296,"Ġlo":297,"Ġf":298,"it":299,"Ġqu":300,"ic":301,"Ġt":302,"om":303,"ĠL":304,"Ġun":305,"au":306,"cion":307,"Ġes":308,"da":309,"ri":310,"Ġv":311,"Ġen":312,"Ġper":313,"am":314,"Ġn":315,"gu":316,"os":317,"Ã¨r":318,"Ã¨t":319,"us":320,"Ġque":321,"el":322,"Ġdel":323,"ta":324,"il":325,"ol":326,"ĠA":327,"Ġre":328,"res":329,"Ġse":330,"Ġb":331,"Ġ1":332,"ĠC":333,"Ġg":334,"ĠS":335,"ins":336,"ai":337,"Ġcom":338,"ro":339,"le":340,"ti":341,"ĠP":342,"ant":343,"Ġcon":344,"Ġ(":345,"Ã§":346,"âĢ":347,"ĠE":348,"acion":349,"âĢĻ":350,"Ġlas":351,"ament":352,"im":353,"ĠM":354,"Ġuna":355,"Ã©":356,"ul":357,"ei":358,"ia":359,"Ġo":360,"ran":361,"mb":362,"Ġson":363,"ada":364,"et":365,"Ġal":366,"Ġr":367,"ut":368,"Ġdins":369,"Ã²r":370,"ĠD":371,"ad":372,"ur":373,"guÃ¨t":374,"ion":375,"Ãł":376,"Ġlos":377,"st":378,"ats":379,"ist":380,"ĠLo":381,"ch":382,"Ġpar":383,"la":384,"ica":385,"ap":386,"Ġpas":387,"ĠB":388,"ot":389,"Ġan":390,"di":391,"ens":392,"ÃŃ":393,"ĠLa":394,"ala":395,"mp":396,"Ġj":397,"itat":398,"ir":399,"Ġmai":400,"quel":401,"ĠR":402,"ĠF":403,"iss":404,"av":405,"ct":406,"ĠT":407,"iv":408,"20":409,"ter":410,"ab":411,"Ã¡":412,"ig":413,"id":414,"Ã§a":415,"Ġdes":416,"ĠG":417,"Ã¨s":418,"Ġin":419,"Ġpro":420,"aus":421,"Ġamb":422,"cia":423,"Ġpr":424,"ge":425,"ha":426,"Ġdels":427,"Ġ19":428,"Ġsu":429,"Ã¨ra":430,"tan":431,"ment":432,"iz":433,"ac":434,"ĠV":435,"itu":436,"ici":437,"ov":438,"ont":439,"Ġfo":440,"iÃ¡":441,"ans":442,"Ã¨ron":443,"Ġpo":444,"ĠN":445,"Ġsus":446,"tat":447,"orn":448,"Ġcoma":449,"bl":450,"00":451,").<|":452,"Ġent":453,"ÃŃs":454,"Ã©n":455,"me":456,"and":457,"ĠI":458,"una":459,"Ġte":460,"ma":461,"ga":462,"Ġcap":463,"ca":464,"ors":465,"Ġdi":466,"ura":467,"Ġlei":468,"ass":469,"ĠEn":470,"Ã¯":471,"Ġnom":472,"mi":473,"adas":474,"Ġtra":475,"cci":476,"tes":477,"Ġdau":478,"ques":479,"Ġap":480,"eu":481,"ben":482,"ĠÂ":483,"Ã¨l":484,"ara":485,"ĠJ":486,"Ã©s":487,"imp":488,"Ġar":489,"de":490,"ari":491,"ĠU":492,"atge":493,"ĠEs":494,"Ġtan":495,"Ġme":496,"Ġau":497,"ort":498,"ob":499,"Ġcomp":500,"ĠfoguÃ¨t":501,"eg":502,"ana":503,"og":504,"ec":505,"Ġli":506,"op":507,"19":508,"Ġcont":509,"Ġaquel":510,"Ġvil":511,"aut":512,"ers":513,"Ġsi":514,"Ã¨rs":515,"Ġi":516,"Ġpl":517,"um":518,"25":519,"Ġfa":520,"18":521,"30":522,"Ġtanben":523,"ond":524,"ccitan":525,"ce":526,"Ġpre":527,"Ġtot":528,"Ġsa":529,"Ġpres":530,"Ã©ncia":531,"na":532,"Ġ20":533,"79":534,"24":535,"26":536,"ons":537,"Ġex":538,"ria":539,"Ġres":540,"14":541,"em":542,"29":543,"Ġ:":544,"ag":545,"Ġpri":546,"28":547,"75":548,"orm":549,"Ġav":550,"Ġh":551,"Ġab":552,"15":553,"16":554,"ida":555,"uc":556,"78":557,"35":558,"70":559,"10":560,"Ġesp":561,"36":562,"76":563,"Ã²t":564,"74":565,"34":566,"38":567,"Ġentre":568,"39":569,"ras":570,"Ã¨i":571,"ina":572,"Ġpel":573,"ĠfÃ²r":574,"oc":575,"ĠcÃ²":576,"Ġmar":577,"Ġac":578,"Ã¨g":579,"ich":580,"Ã³":581,"Ġreg":582,"eis":583,"ĠO":584,"Ġven":585,"art":586,"aire":587,"cions":588,"Ġlen":589,"Ġparti":590,"ess":591,"rit":592,"ost":593,"Ġaut":594,"alitat":595,"Ġest":596,"Ġimp":597,"Ġ18":598,"alh":599,"rop":600,"Ã¨u":601,"Ġcar":602,"Ġsitu":603,"Ã¨c":604,"les":605,"Ġesc":606,"est":607,"ĠLos":608,"Ġra":609,"Ġgran":610,"Ġcons":611,"ĠQ":612,"if":613,"Ġ\"":614,"va":615,"bre":616,"Ã²c":617,"ast":618,"guÃ¨ron":619,"Ġpart":620,"ranc":621,"ista":622,"als":623,"alament":624,"ĠQu":625,"per":626,"50":627,"Ġmas":628,"Ġor":629,"que":630,"Ã²l":631,"ics":632,"ants":633,"Ġser":634,"acions":635,"Ġdei":636,"das":637,"icas":638,"cip":639,"esc":640,"era":641,"Ġu":642,"alas":643,"oci":644,"60":645,"Ġpu":646,"ĠH":647,"ard":648,"),":649,"Ġdon":650,"44":651,"elh":652,"od":653,"Ġcam":654,"Ġmon":655,"Ġdem":656,"80":657,"ents":658,"rat":659,"ĠÃ¨ra":660,"59":661,"69":662,"Ġpa":663,"Ġter":664,"Ġgen":665,"Ġfin":666,"89":667,"21":668,"ĠSe":669,"Ġprimi":670,"ex":671,"ĠÂ«":672,"ud":673,"Ġrec":674,"ult":675,"40":676,"Ġdeu":677,"ib":678,"ss":679,"ĠfÃ²rÃ§a":680,"Ã¨st":681,"Ã²b":682,"49":683,"vol":684,"Ġoccitan":685,"ĠUn":686,"enc":687,"Ġtr":688,"Ġcl":689,"ed":690,"ip":691,"unici":692,"unicip":693,"Ã¨rra":694,"ĠX":695,"Ġtemp":696,"th":697,"Ġri":698,"fer":699,"Ġrep":700,"enh":701,"Ġmunicip":702,"Ġne":703,"ĠDe":704,"Ã¨ss":705,"ĠAn":706,"ona":707,"gut":708,"Ġma":709,"ions":710,"Ġ-":711,"ĠAquel":712,"23":713,"ru":714,"27":715,"Ġpol":716,"Ġsol":717,"65":718,"ena":719,"68":720,"Ã¨m":721,"ĠsÃ¨g":722,"Ġcol":723,"Ġplan":724,"oss":725,"iu":726,"45":727,"Ġbas":728,"int":729,"Ã²rt":730,"ĠÂ»":731,"11":732,"Ġfranc":733,"Ãłn":734,"48":735,"ava":736,"its":737,"Ġtres":738,"Ġaqu":739,"Ġlenga":740,"Ġcre":741,"ne":742,"Ã²rd":743,"ĠAl":744,"aquel":745,"Ġpus":746,"Ġpass":747,"Ġform":748,"ĠPer":749,"Ġmes":750,"iliz":751,"Ġvila":752,"iÃ¨r":753,"Ġans":754,"rÃ¨s":755,"Â½":756,"Â¿":757,"Ġto":758,"rib":759,"II":760,"cias":761,"osa":762,"Ġ)":763,"33":764,"ilh":765,"Ġprin":766,"all":767,"ven":768,"ĠCh":769,"17":770,"22":771,"enta":772,"gon":773,"55":774,"Ã¨n":775,"ĠsÃ¨gle":776,"66":777,"Ã²n":778,"Ġmunicipalitat":779,"emp":780,"rÃ¨":781,"Ġlu":782,"Ġch":783,"ric":784,"88":785,"90":786,"ĠCom":787,"ges":788,"ie":789,"Ġenc":790,"Ġcaus":791,"gan":792,"Ġgu":793,"ing":794,"ĠLas":795,"ou":796,"Ġam":797,"Ġdiv":798,"13":799,"77":800,"ep":801,"Ġprincip":802,"Ġpers":803,"mpu":804,"Ġman":805,"Ã²p":806,"ill":807,"Ġrel":808,"Ġsul":809,"Ġpod":810,"lu":811,"ron":812,"con":813,"Ã§Ã²":814,"Ġdos":815,"Ġsens":816,"esa":817,"ĠSant":818,"Ġdis":819,"Ġleis":820,"isme":821,"teri":822,"Ġtorn":823,"auc":824,"Ġdo":825,"Ġregion":826,"ust":827,"met":828,"mens":829,"ong":830,"aliz":831,"Ġaquela":832,"Ġcent":833,"pul":834,"Ġfar":835,"Ġcor":836,"85":837,"olog":838,"46":839,"ian":840,"man":841,"Ġ200":842,"Ġua":843,"ĠpÃ²t":844,"Ã³s":845,"rar":846,"Ġcomun":847,"ert":848,"Ġfam":849,"endent":850,"itats":851,"utiliz":852,"ren":853,"Ġgener":854,"up":855,"anta":856,"Ġvi":857,"Ġk":858,"Ġrom":859,"ĠK":860,"ire":861,"73":862,"lar":863,"ĠFran":864,"Ġmil":865,"Ġtemps":866,"Ġsegu":867,"ine":868,"ĠcÃ²p":869,"Ġele":870,"Ġsud":871,"ĠMar":872,"mbre":873,"ign":874,"esti":875,"ora":876,"Ġcal":877,"anh":878,"Ġass":879,"Ġdep":880,"12":881,"ev":882,"Ġad":883,"Ġpopul":884,"Ġfins":885,"Ã¨sser":886,"ĠÃ§Ã²":887,"cha":888,"Ġimport":889,"Ġdef":890,"atal":891,"99":892,"ier":893,"Ġnov":894,"Ġals":895,"ub":896,"esp":897,"Ġpolit":898,"Ġterrit":899,"Ġpartida":900,"cas":901,"Ġvilatge":902,"Ġfon":903,"Ġsos":904,"Ġob":905,"Ġqui":906,"Ã²st":907,"ja":908,"Ġpubl":909,"Ã¼":910,"Ġcapit":911,"Ġso":912,"Ġat":913,"Ġcone":914,"Ġro":915,"Ġcas":916,"amb":917,"rans":918,"ilha":919,"Ġfor":920,"64":921,"Ã¨rn":922,"Ã¨ri":923,"lan":924,"58":925,"erv":926,"icion":927,"Ã¨ma":928,"Ã²ria":929,"Ġdempu":930,"ita":931,"Ġ*":932,"ĠGu":933,"Ġconst":934,"fic":935,"inas":936,"ĠPar":937,"tiv":938,"Ġmus":939,"Ġdesc":940,"Ġont":941,"Ġpermet":942,"Ġrev":943,"Ã²m":944,"ĠprimiÃ¨r":945,"Ã¨cte":946,"ement":947,"ĠDins":948,"ĠPas":949,"enÃ§a":950,"Ġcult":951,"rob":952,"Ġpauc":953,"unh":954,"arri":955,"tel":956,"aci":957,"37":958,"ctu":959,"paus":960,"Ã²s":961,"Ġann":962,"98":963,"95":964,"ros":965,"Ġprod":966,"Ġdire":967,"Ġinter":968,"ĠpaÃŃs":969,"our":970,"Ġlor":971,"uda":972,"31":973,"Ġins":974,"ĠÃ":975,"isa":976,"Ã§as":977,"isson":978,"iment":979,"lic":980,"Ġjorn":981,"Ġsuper":982,"Ġrei":983,"rada":984,"ress":985,"Ġpels":986,"ĠW":987,"ern":988,"Ġkm":989,"Ġvol":990,"Ġsituat":991,"eb":992,"dicion":993,"par":994,"ori":995,"ucion":996,"don":997,"ident":998,"Ġqual":999,"erc":1000,"rech":1001,"Ġpich":1002,"itar":1003,"ĠAqu":1004,"Ġsegon":1005,"volop":1006,"Ġmin":1007,"balh":1008,"ĠfoguÃ¨ron":1009,"ĠAr":1010,"Ġtrans":1011,"71":1012,"Ġaf":1013,"Ġesta":1014,"Ġsoci":1015,"Ġsieu":1016,"cl":1017,"ific":1018,"Ã¨ran":1019,"Ġst":1020,"Ġperson":1021,"Ġdom":1022,"Ġpla":1023,"Ġaques":1024,"Ġconf":1025,"ital":1026,"Ġestat":1027,"Ġcos":1028,"ĠSon":1029,"gas":1030,"ĠPasmens":1031,"Ġdoas":1032,"56":1033,"Ġpoder":1034,"72":1035,"min":1036,"Ġgr":1037,"Ġgrand":1038,"raf":1039,"Ġcan":1040,"Ġdeis":1041,"86":1042,"Ġanci":1043,"atura":1044,"Ġtrabalh":1045,"32":1046,"gi":1047,"Ġgrop":1048,"iva":1049,"itants":1050,"istas":1051,"Ġnon":1052,"ĠÃ¨sser":1053,"ĠUna":1054,"Ġencara":1055,"Ġmod":1056,"Ãº":1057,"Ġdesvolop":1058,"ĠAp":1059,"54":1060,"Ã²ri":1061,"uras":1062,"Ġja":1063,"Ġimportant":1064,"96":1065,"uccion":1066,"Ġdifer":1067,"ĠpÃ²":1068,"ĠfrancÃ©s":1069,"84":1070,"Ã¨a":1071,"ĠMont":1072,"ctor":1073,"etat":1074,"Ġver":1075,"bi":1076,"ccion":1077,"ger":1078,"Ġel":1079,"Ġutiliz":1080,"ĠCar":1081,"Ġtrob":1082,"ts":1083,"Ġposs":1084,"lo":1085,"Ġgl":1086,"Ã¨la":1087,"Ġemp":1088,"aqu":1089,"enÃ§":1090,"Ġcamp":1091,"Ġca":1092,"ĠsiÃ¡":1093,"ĠFo":1094,"Ġof":1095,"Ã¨us":1096,"Ã²ca":1097,"94":1098,"ganiz":1099,"tra":1100,"Ġdens":1101,"Ġon":1102,"Ġgov":1103,"Ġsov":1104,"assa":1105,"ĠâĢ":1106,"Ġrepres":1107,"ten":1108,"ĠSa":1109,"Ġmete":1110,"atre":1111,"Ġben":1112,"ĠFranÃ§a":1113,"Ġdeb":1114,"amp":1115,"ĠEst":1116,"ish":1117,"las":1118,"eci":1119,"ba":1120,"Ġprov":1121,"Ġsas":1122,"Ġmet":1123,"udi":1124,"Ġfil":1125,"urant":1126,"Ġvida":1127,"Ġag":1128,"Ġserv":1129,"Ġabitants":1130,"ĠaquÃ²":1131,"aris":1132,"emple":1133,"Ġco":1134,"Ġdarri":1135,"Ġz":1136,"Ġera":1137,"tacion":1138,"Ġ).<|":1139,"Ġquand":1140,"atges":1141,"inc":1142,"ĠJo":1143,"Ġleg":1144,"Ġconc":1145,"Ġlong":1146,"Ġpendent":1147,"mat":1148,"Ġlim":1149,"ars":1150,"Ġperi":1151,"05":1152,"ments":1153,"09":1154,"Ġcontra":1155,"Ġsuc":1156,"Ġcomuna":1157,"ira":1158,"Ġer":1159,"Ġdab":1160,"ĠnÃ²rd":1161,"cis":1162,"eus":1163,"enci":1164,"ord":1165,"Ã²de":1166,"ĠaviÃ¡":1167,"Ġeth":1168,"occitan":1169,"ĠIn":1170,"ĠCon":1171,"egu":1172,"Ġ2":1173,"08":1174,"Ġconsid":1175,"ĠaprÃ¨s":1176,"cep":1177,"ĠQue":1178,"Ġnos":1179,"Ġref":1180,"Ġdest":1181,"Ġfach":1182,"Ġvis":1183,"quÃ¨t":1184,"Ġloc":1185,"Ġmen":1186,"ĠAquela":1187,"Ġpopulacion":1188,"Ġresp":1189,"06":1190,"Ġrd":1191,"lament":1192,"ef":1193,"icul":1194,"utat":1195,"ure":1196,"Ġens":1197,"Ġpat":1198,"Ġpublic":1199,"Ġdev":1200,"ĠÃ²b":1201,"Ġras":1202,"eta":1203,"ber":1204,"Ġjos":1205,"Ġcr":1206,"Ġpren":1207,"aires":1208,"Ġval":1209,"Ġfamilha":1210,"avan":1211,"Ã¯n":1212,"Ġist":1213,"Ġexp":1214,"ĠguÃ¨rra":1215,"Ġsc":1216,"Ġgranda":1217,"Ġbasti":1218,"osicion":1219,"artament":1220,"ang":1221,"ĠLei":1222,"Ã²la":1223,"04":1224,"lat":1225,"Ġ4":1226,"ret":1227,"ĠMas":1228,"ĠTol":1229,"Ġdrech":1230,"arm":1231,"jorn":1232,"Ãłria":1233,"Ġpartir":1234,"Ġcostat":1235,"Ġ;":1236,"Ġlin":1237,"Ġ3":1238,"teg":1239,"Ġdesp":1240,"riÃ¡":1241,"uss":1242,"Ġcada":1243,"Ġforma":1244,"tiu":1245,"ĠmÃ²rt":1246,"Ġbia":1247,"Ġ5":1248,"Ġcausa":1249,"emb":1250,"ĠÃ¨ran":1251,"ĠcÃ²n":1252,"ivers":1253,"aiss":1254,"mes":1255,"Ġoccitana":1256,"itud":1257,"Ã¯s":1258,"Ġdist":1259,"omp":1260,"ĠcomenÃ§":1261,"riv":1262,"ius":1263,"Ġsist":1264,"Ġqualques":1265,"ĠFoguÃ¨t":1266,"Ġmant":1267,"dic":1268,"arc":1269,"ĠAques":1270,"Ġpresent":1271,"tot":1272,"Ġsub":1273,"Ġinf":1274,"Ġum":1275,"volucion":1276,"Ġannadas":1277,"Ġbiais":1278,"Ġmal":1279,"ĠmÃł":1280,"Ġtotes":1281,"Ġdeus":1282,"Ġabans":1283,"Ġnacion":1284,"anas":1285,"ell":1286,"ubl":1287,"tas":1288,"ect":1289,"Ġara":1290,"Ġ15":1291,"Ġespeci":1292,"conom":1293,"rÃ¨p":1294,"Ġlig":1295,"ulh":1296,"Ġneg":1297,"Ġinst":1298,"oma":1299,"Ġrepresent":1300,"he":1301,"Ġmond":1302,"omb":1303,"Ġcompaus":1304,"Ã¨x":1305,"67":1306,"ias":1307,"ej":1308,"Ġart":1309,"Ã²u":1310,"'s":1311,"enat":1312,"Ġdepartament":1313,"Ġno":1314,"ĠdempuÃ¨i":1315,"urop":1316,"atur":1317,"Ġsuperf":1318,"83":1319,"Ġdemor":1320,"Ã©ncias":1321,"ĠgovÃ¨rn":1322,"Ġconstitu":1323,"63":1324,"eire":1325,"Ġconsider":1326,"ille":1327,"ĠTolosa":1328,"Ġba":1329,"61":1330,"Ġsovent":1331,"autor":1332,"62":1333,"Ġtrav":1334,"Ġrap":1335,"aquela":1336,"ral":1337,"racion":1338,"47":1339,"Ġci":1340,"arn":1341,"ĠRo":1342,"Ġai":1343,"eric":1344,"Ġcultura":1345,"ann":1346,"Ġmens":1347,"Ġmaj":1348,"ĠcÃ²r":1349,"Ġeconom":1350,"Ġmi":1351,"43":1352,"Ġsubre":1353,"87":1354,"igina":1355,"ĠvenguÃ¨t":1356,"Ġpolitica":1357,"Ġtota":1358,"Ġclass":1359,"entre":1360,"guda":1361,"idas":1362,"..<|":1363,"82":1364,"ĠtÃ¨r":1365,"ĠXV":1366,"An":1367,"97":1368,"Ġva":1369,"ograf":1370,"af":1371,"ois":1372,"81":1373,"aur":1374,"anda":1375,"Ġsign":1376,"41":1377,"gond":1378,"ĠnÃ²st":1379,"cul":1380,"93":1381,"Ġsenh":1382,"Ã²ra":1383,"Ġmot":1384,"Ġlengas":1385,"Ġliter":1386,"Ġten":1387,"Ã¨tz":1388,"ĠdivÃ¨rs":1389,"42":1390,"ĠAu":1391,"Ġmei":1392,"Ġdurant":1393,"Ġfu":1394,"91":1395,"ologia":1396,"Ġactu":1397,"Ġprop":1398,"Ġarm":1399,"tada":1400,"Ġparticul":1401,"Ġimpor":1402,"ĠambÃ©":1403,"Ġdess":1404,"jÃ¨cte":1405,"Ġsei":1406,"53":1407,"Ġrelig":1408,"Ġcentre":1409,"Ġnomb":1410,"erg":1411,"Ġbar":1412,"Ġroman":1413,"Ġrealiz":1414,"Ã¨ls":1415,"ĠmÃłger":1416,"jar":1417,"51":1418,"aud":1419,"Ġnombre":1420,"ĠperiÃ²de":1421,"tanta":1422,"57":1423,"aiga":1424,"Ġmej":1425,"Ġ10":1426,"Ġprof":1427,"iÃ¡n":1428,"Ã²tle":1429,"has":1430,"Ġsab":1431,"\".<|":1432,"exp":1433,"entas":1434,"arg":1435,"vi":1436,"Ġim":1437,"Ġniv":1438,"ĠXI":1439,"Ġdec":1440,"Ġcast":1441,"Ġdonc":1442,"92":1443,"rig":1444,"Ġfl":1445,"Ġgaire":1446,"Ġdefin":1447,"Ġapar":1448,"Ġmom":1449,"ĠMa":1450,"Ġagu":1451,"Ġpremi":1452,"Ġren":1453,"Ġsucc":1454,"ĠcÃ²ntra":1455,"Ġet":1456,"000":1457,"ingÃ¼":1458,"Ã¨sta":1459,"lÃ¨u":1460,"Ġpens":1461,"Ġexemple":1462,"Ġcomb":1463,"estat":1464,"Es":1465,"anha":1466,"li":1467,"Ãºs":1468,"Ġautre":1469,"Ġsim":1470,"Ġfas":1471,"ila":1472,"Ġpun":1473,"Ġmov":1474,"Ġas":1475,"Ãłnia":1476,"esta":1477,"Ġrecon":1478,"Est":1479,"ua":1480,"Ġimportanta":1481,"52":1482,"Ġ16":1483,"Ġret":1484,"etz":1485,"Ġep":1486,"ĠsistÃ¨ma":1487,"anÃ§a":1488,"rÃł":1489,"Ã¨p":1490,"ĠMon":1491,"Ġcontunh":1492,"cup":1493,"ÃŃcia":1494,"Ġconegut":1495,"ata":1496,"Ã¨rt":1497,"bles":1498,"dent":1499,"aments":1500,"ĠRe":1501,"ission":1502,"able":1503,"Ġfem":1504,"Ã¨ctes":1505,"Ġsemb":1506,"grat":1507,"ĠCal":1508,"Ġpresident":1509,"Ġnatur":1510,"Ġcarri":1511,"01":1512,"Ġcer":1513,"mpÃ¨ri":1514,"07":1515,"tac":1516,"reg":1517,"origina":1518,"Ġint":1519,"Ġale":1520,"rim":1521,"Ġtip":1522,"Ġbast":1523,"Ġgra":1524,"ĠII":1525,"mand":1526,"Ġble":1527,"Ġ6":1528,"anÃ§":1529,"Ġprog":1530,"nacion":1531,"inf":1532,"Ġtradicion":1533,"Ġmoment":1534,"asc":1535,"raÃ¯n":1536,"Ġdoncas":1537,"Ġsci":1538,"03":1539,"ador":1540,"anci":1541,"Ġorganiz":1542,"Ġfi":1543,"Ġind":1544,"cs":1545,"Ġalara":1546,"ĠplaÃ§a":1547,"entorn":1548,"ĠpÃ²don":1549,"dep":1550,"aques":1551,"tar":1552,"issa":1553,"can":1554,"ĠAquÃ²":1555,"autres":1556,"ĠVal":1557,"iguÃ¨t":1558,"ĠGran":1559,"ĠfaguÃ¨t":1560,"aras":1561,"ĠPro":1562,"Ġef":1563,"orti":1564,"antas":1565,"Ġmajor":1566,"ÃŃn":1567,"Ġpichon":1568,"Ġmelh":1569,"Ġang":1570,"Ġestats":1571,"dat":1572,"Ġsoa":1573,"Ġfra":1574,"laÃ§":1575,"ĠZ":1576,"des":1577,"Ġfonda":1578,"Ġlat":1579,"Ġmovement":1580,"Ġdera":1581,"arÃł":1582,"Ġtotjorn":1583,"ĠÃ²":1584,"Ġrs":1585,"Ġdeth":1586,"ĠSeg":1587,"alha":1588,"Ġcarac":1589,"Ġmeteis":1590,"Ġcad":1591,"eth":1592,"ĠÂ».<|":1593,"Ġport":1594,"ĠluÃ²c":1595,"endre":1596,"ĠjÃ²c":1597,"Ġfoncion":1598,"rica":1599,"Ã¨ct":1600,"Ġeg":1601,"Ãłncia":1602,"Ġvic":1603,"ĠRep":1604,"cn":1605,"ug":1606,"Ġciutat":1607,"Ġves":1608,"iÃ¨rs":1609,"ĠLe":1610,"Ġpon":1611,"Ġtre":1612,"Ġarrib":1613,"Ġofici":1614,"vas":1615,"Ġid":1616,"Ġ12":1617,"ĠJoan":1618,"equ":1619,"terior":1620,"ĠCons":1621,"Ġtotas":1622,"Ġfrancesa":1623,"itz":1624,"inat":1625,"Ġlibre":1626,"ĠpaÃ¯s":1627,"iÃ¨ra":1628,"Ġsitua":1629,"Ġvari":1630,"ĠMi":1631,"Un":1632,"isi":1633,"eng":1634,"istica":1635,"ilitat":1636,"Ã¨mas":1637,"Ã²pa":1638,"Ġsimp":1639,"ible":1640,"ĠcomenÃ§ament":1641,"dia":1642,"Ġcatal":1643,"ĠcÃ²ps":1644,"Ġlimit":1645,"ĠpuÃ¨i":1646,"III":1647,"Ġdint":1648,"Ġautor":1649,"Ġcambi":1650,"icament":1651,"02":1652,"Ġpra":1653,"Ġsituada":1654,"Ġtecn":1655,"rich":1656,"mas":1657,"Ar":1658,"ession":1659,"fa":1660,"Ġle":1661,"qui":1662,"ĠAprÃ¨s":1663,"bor":1664,"Ġho":1665,"Ġsegond":1666,"Ġparticip":1667,"Ġistor":1668,"Ã¨isa":1669,"eni":1670,"atz":1671,"Ġsost":1672,"minist":1673,"illa":1674,"urÃ²pa":1675,"Ã¨lh":1676,"jec":1677,"Ġpag":1678,"Ã¨stre":1679,"ble":1680,"mer":1681,"ĠPu":1682,"Ġ8":1683,"Ġve":1684,"ĠEstats":1685,"isti":1686,"ĠpÃ¨":1687,"ariÃ¡":1688,"ale":1689,"che":1690,"Ġmemb":1691,"Ġcel":1692,"rias":1693,"Ġais":1694,"Ġprote":1695,"Ġtant":1696,"fin":1697,"ula":1698,"ĠPr":1699,"ĠvÃ¨rs":1700,"Ġexist":1701,"lia":1702,"ĠentraÃ¯n":1703,"uts":1704,"Ãłs":1705,"rÃ¨t":1706,"Ġcres":1707,"Ġmena":1708,"istÃ²ria":1709,"acab":1710,"aj":1711,"Ġriu":1712,"Ġdu":1713,"oni":1714,"Ġquatre":1715,"Ġautres":1716,"Ġcontin":1717,"ĠCap":1718,"ĠterritÃ²ri":1719,"ze":1720,"Ġsonque":1721,"ativ":1722,"Ġmonde":1723,"dicions":1724,"Ġev":1725,"Ġcors":1726,"Ġocup":1727,"eracion":1728,"Ġeurop":1729,"Ġdesvolopament":1730,"Ġconv":1731,"ĠAns":1732,"Ġlinha":1733,"Ġmol":1734,"Ġregions":1735,"du":1736,"Ġdescob":1737,"ublica":1738,"Ġpor":1739,"leg":1740,"inter":1741,"uta":1742,"ĠY":1743,"Ġaver":1744,"ien":1745,"ĠentÃł":1746,"Ġjunh":1747,"ĠFranc":1748,"ĠÃ²bra":1749,"temp":1750,"ĠaprÃ¨p":1751,"autre":1752,"Ġost":1753,"Ġtrop":1754,"ay":1755,"ril":1756,"ĠAb":1757,"Ġjov":1758,"Ã¨las":1759,"Ġaquesta":1760,"Ġvos":1761,"gue":1762,"fici":1763,"rala":1764,"Ġdob":1765,"Ġnav":1766,"ĠAmb":1767,"Ġ14":1768,"ĠprimiÃ¨ra":1769,"onda":1770,"ĠTot":1771,"eau":1772,"Ġmau":1773,"apar":1774,"Ġdisc":1775,"tell":1776,"ression":1777,"Ġmembres":1778,"ator":1779,"Ġtornar":1780,"Ġmusica":1781,"Ġdic":1782,"ind":1783,"Ġorig":1784,"ĠAv":1785,"Ġsec":1786,"Ġfis":1787,"Ġvall":1788,"Ġcamin":1789,"Ġpersonas":1790,"Ġsal":1791,"Ġmag":1792,"eri":1793,"encÃ¨t":1794,"Ġdisp":1795,"Ġnombros":1796,"Ġext":1797,"amor":1798,"ĠAle":1799,"Ġindi":1800,"Ġaj":1801,"Ġsup":1802,"ĠsÃ¨t":1803,"avant":1804,"erci":1805,"Ġess":1806,"Ġ7":1807,"Ġpos":1808,"Ã¨th":1809,"Ġjam":1810,"Ġperque":1811,"Ġmilitar":1812,"rip":1813,"Ġni":1814,"Ġsieus":1815,"Ġactiv":1816,"Ġpaire":1817,"Ġveire":1818,"Ġconqu":1819,"Ġmor":1820,"Ġ17":1821,"Ġsolament":1822,"ima":1823,"Ġparticular":1824,"van":1825,"inst":1826,"Ã²rta":1827,"Ġpes":1828,"Ġmo":1829,"ĠserÃł":1830,"issenÃ§a":1831,"Ġciv":1832,"let":1833,"ccident":1834,"ieu":1835,"mar":1836,"ĠOccitan":1837,"Ġ9":1838,"Ġtract":1839,"Ġprodu":1840,"inh":1841,"Ã¨ras":1842,"Ġmat":1843,"az":1844,"Ġfond":1845,"Ġcapitala":1846,"tia":1847,"Ġsegonda":1848,"Ġmelhor":1849,"ient":1850,"iversitat":1851,"avor":1852,"ceb":1853,"Ġnec":1854,"ĠÃ²m":1855,"Ġquesti":1856,"Ġmerc":1857,"Ġfilh":1858,"Ġtor":1859,"Ġsocietat":1860,"isser":1861,"Ġprepaus":1862,"ĠlingÃ¼":1863,"Ġtard":1864,"ĠtrÃ²b":1865,"Ġfre":1866,"tadi":1867,"Ġcorr":1868,"itan":1869,"Ġbi":1870,"Ġparlar":1871,"aume":1872,"Ġmarc":1873,"tim":1874,"titud":1875,"Ġend":1876,"udis":1877,"EmpÃ¨ri":1878,"ĠVi":1879,"ve":1880,"tol":1881,"Ã¨rta":1882,"sa":1883,"ĠvÃ²l":1884,"Ġdeban":1885,"Ġfeb":1886,"Ġpe":1887,"Ġdeci":1888,"Ġjog":1889,"eish":1890,"ruct":1891,"eraqu":1892,"Ġminist":1893,"Al":1894,"Ġei":1895,"uri":1896,"Ġ),":1897,"Ġquil":1898,"ean":1899,"aval":1900,"arti":1901,"tz":1902,"atalha":1903,"\",":1904,"alais":1905,"Ġge":1906,"urb":1907,"ritan":1908,"ĠâĢĵ":1909,"ires":1910,"aul":1911,"ĠCatal":1912,"armada":1913,"arr":1914,"rem":1915,"ĠRom":1916,"Ġcolle":1917,"Ġfan":1918,"Ġaqueste":1919,"Ġliber":1920,"Ġestudi":1921,"Ġgeneralament":1922,"Ġjulh":1923,"Ġcul":1924,"Ġfus":1925,"ches":1926,"Ã²va":1927,"Ġncia":1928,"ourg":1929,"Ġdece":1930,"ĠPa":1931,"ets":1932,"ĠÃĪ":1933,"Ġcau":1934,"ĠAt":1935,"Ġblan":1936,"ĠrÃ²tle":1937,"Ġquau":1938,"onh":1939,"Ġnecess":1940,"Ġcant":1941,"ĠAnsin":1942,"Ġjamai":1943,"ccit":1944,"Ġpract":1945,"Ġcat":1946,"Ġfavor":1947,"Ġassoci":1948,"oÃ¨st":1949,"Ġaital":1950,"Ġmand":1951,"oria":1952,"Ġinternacion":1953,"alitats":1954,"Ġmedi":1955,"Ġanim":1956,"Ġformacion":1957,"Ġeleg":1958,"Ġservici":1959,"Ġisa":1960,"tembre":1961,"istÃ©ncia":1962,"her":1963,"Ġ25":1964,"Ġrra":1965,"Ġis":1966,"Ġtrib":1967,"ision":1968,"Ġvertadi":1969,"Ġcompl":1970,"alista":1971,"Ġmontan":1972,"Ġsorti":1973,"Ã²ta":1974,"Ã³n":1975,"In":1976,"ĠGuÃ¨rra":1977,"Ġquilom":1978,"EO":1979,"Ġapr":1980,"Ġrefer":1981,"Ġavi":1982,"ĠJos":1983,"Ġbasa":1984,"ccitÃłnia":1985,"Ġequ":1986,"ĠSud":1987,"Ġsembla":1988,"Ġdirig":1989,"Ã²bra":1990,"mon":1991,"Ġdich":1992,"osas":1993,"Ġcreacion":1994,"Estat":1995,"urs":1996,"co":1997,"lÃ©s":1998,"vir":1999,"Ġestabl":2000,"eses":2001,"Ġcontrar":2002,"Ġdecembre":2003,"Ġmondi":2004,"ĠMe":2005,"Ġameric":2006,"essor":2007,"Ġpropri":2008,"Ã¨tres":2009,"Ġop":2010,"Â²":2011,"anc":2012,"ĠComa":2013,"ĠespÃ¨":2014,"ĠParÃŃs":2015,"pa":2016,"Ġsetembre":2017,"izacion":2018,"ĠXIX":2019,"ĠtÃ¨x":2020,"ĠfÃ²rÃ§as":2021,"ĠmarÃ§":2022,"Ġsituacion":2023,"Ġlors":2024,"Ġimportantas":2025,"onha":2026,"Ġenf":2027,"Ġterr":2028,"enhament":2029,"jat":2030,"lor":2031,"Ġaqueles":2032,"ced":2033,"Ġvers":2034,"Ġ13":2035,"ument":2036,"ĠsuperfÃŃcia":2037,"Ġcin":2038,"auta":2039,"ĠCl":2040,"ĠRei":2041,"Ġsubretot":2042,"Ġbl":2043,"tiva":2044,"Ġlib":2045,"iana":2046,"ĠSol":2047,"oct":2048,"Ġ30":2049,"Ġtravers":2050,"Ġinc":2051,"ustri":2052,"Ġvia":2053,"Ġproduccion":2054,"depend":2055,"iments":2056,"Ġespanh":2057,"Ġorigin":2058,"Ġliteratura":2059,"iet":2060,"xim":2061,"ĠConselh":2062,"Ġcir":2063,"obre":2064,"Ġdaiss":2065,"Ġcara":2066,"ÃŃtol":2067,"Ġviu":2068,"Ġproc":2069,"Ġrest":2070,"Ġdomin":2071,"Ġreligi":2072,"organiz":2073,"eraire":2074,"Ġescriv":2075,"ĠCol":2076,"diguÃ¨t":2077,"Ġcultur":2078,"Ġbatalha":2079,"Ġlatin":2080,"uÃ¨":2081,"ĠÂ»,":2082,"ĠRepublica":2083,"ĠCas":2084,"ĠBo":2085,"Ġ'":2086,"ĠÃ²bras":2087,"Ġvend":2088,"ĠMal":2089,"Ġnomen":2090,"Ġvenir":2091,"Ġgaireben":2092,"onci":2093,"Ġfab":2094,"riu":2095,"Ãłrias":2096,"Ġsent":2097,"ĠEsp":2098,"Ġpremier":2099,"ÃĴ":2100,"ĠcÃ²s":2101,"Ã¨is":2102,"ifica":2103,"ĠprovÃŃn":2104,"âĢ¦":2105,"Ġcrit":2106,"Ġviv":2107,"utz":2108,"ĠDempu":2109,"Ġobten":2110,"ore":2111,"Ġdamb":2112,"Ġmont":2113,"andon":2114,"Ġcompren":2115,"Ġtu":2116,"Ġnove":2117,"Ġsin":2118,"ctors":2119,"Ġremp":2120,"Ġtrobar":2121,"Ġconflic":2122,"ĠgrÃł":2123,"ĠseriÃ¡":2124,"elle":2125,"Ã²ni":2126,"Ġpap":2127,"Ã¨as":2128,"ĠTh":2129,"ruccion":2130,"ili":2131,"Ġant":2132,"Ġgeneral":2133,"ĠFa":2134,"Ġmilions":2135,"Ġnum":2136,"Ġbon":2137,"ativa":2138,"Ġalemand":2139,"ath":2140,"Ġpunt":2141,"pl":2142,"Ġcinc":2143,"omia":2144,"Ġgas":2145,"Ġponch":2146,"Ġquit":2147,"ĠEx":2148,"ris":2149,"Ġreb":2150,"issi":2151,"tre":2152,"Ġem":2153,"Ġtal":2154,"pre":2155,"Ġscient":2156,"Ġrota":2157,"Ġsimb":2158,"rÃ²":2159,"ik":2160,"sus":2161,"Ġfinala":2162,"adors":2163,"Ġjorns":2164,"avetz":2165,"Ġus":2166,"arda":2167,"ĠCor":2168,"Ġfen":2169,"ĠcÃ²rs":2170,"tius":2171,"ĠIII":2172,"ĠUnits":2173,"issiÃ¡":2174,"Ġpresenta":2175,"ausa":2176,"Ã¨sse":2177,"Ġjulhet":2178,"ĠJean":2179,"riÃ¨r":2180,"etas":2181,"Ã²ris":2182,"Ġjol":2183,"Ġvict":2184,"Ġcerc":2185,"jÃ¨ctes":2186,"aria":2187,"serv":2188,"enn":2189,"Ġposicion":2190,"Ã²g":2191,"Ġ11":2192,"ĠEra":2193,"Ã¨ire":2194,"Ġtipe":2195,"ye":2196,"Ġtes":2197,"ĠGl":2198,"guts":2199,"Ġinv":2200,"Ġnaut":2201,"Ġalavetz":2202,"ais":2203,"Ã²ble":2204,"Ġvin":2205,"Ġenter":2206,"aquÃ²":2207,"Ġmass":2208,"ĠnovÃ¨la":2209,"enari":2210,"ĠaquÃŃ":2211,"Ġnovembre":2212,"iren":2213,"ide":2214,"Ġconten":2215,"ribu":2216,"org":2217,"vencion":2218,"Ġadminist":2219,"ĠGen":2220,"idament":2221,"Ġdir":2222,"eccion":2223,"ach":2224,"duccion":2225,"Ġlev":2226,"resp":2227,"ĠVen":2228,"etats":2229,"ems":2230,"andi":2231,"Ġital":2232,"Ġpen":2233,"rir":2234,"Ġsuls":2235,"Ġsuperi":2236,"itas":2237,"Ġbo":2238,"Ġprom":2239,"accion":2240,"alizacion":2241,"Ġancian":2242,"Ġagric":2243,"Ġdoc":2244,"arb":2245,"ĠAquesta":2246,"Ġdim":2247,"Ġrt":2248,"iga":2249,"ĠGrand":2250,"Ġpint":2251,"ĠIs":2252,"ĠuÃ¨i":2253,"ĠOr":2254,"luÃ©ncia":2255,"lada":2256,"mont":2257,"ĠNe":2258,"lam":2259,"ĠgrÃ¨c":2260,"ĠsuccÃ¨s":2261,"ĠpaÃ¯ses":2262,"ĠReg":2263,"pres":2264,"Ġfont":2265,"Ġesper":2266,"Ġconserv":2267,"Ġcoll":2268,"ivas":2269,"ĠXX":2270,"Ġdomeni":2271,"Ġsosten":2272,"ix":2273,"ĠLu":2274,"gular":2275,"ĠSal":2276,"tern":2277,"mun":2278,"ĠAqueste":2279,"ĠgrÃłcias":2280,"Ġemb":2281,"Ġprim":2282,"Ġrason":2283,"apon":2284,"essa":2285,"ultura":2286,"Ġanciana":2287,"ografia":2288,"ĠprÃ²p":2289,"Ġill":2290,"ĠQuand":2291,"unas":2292,"ise":2293,"ĠDel":2294,"ĠcanÃ§":2295,"Ġbastit":2296,"ĠaguÃ¨t":2297,"tific":2298,"Ġpassat":2299,"ĠtÃ¨rme":2300,"Ġquestion":2301,"io":2302,"ensa":2303,"Ġtemper":2304,"ĠnÃ²stra":2305,"land":2306,"ificacion":2307,"icle":2308,"tad":2309,"ique":2310,"ĠmÃ¨s":2311,"Ġprobl":2312,"ĠprojÃ¨cte":2313,"ĠConst":2314,"isc":2315,"Ġsepar":2316,"Ġcomunas":2317,"ĠtÃ¨rra":2318,"Ġnorm":2319,"form":2320,"Ã¨rna":2321,"Ġdemand":2322,"sol":2323,"arqu":2324,"rad":2325,"ils":2326,"Ġpassa":2327,"ĠSanta":2328,"Ã²na":2329,"Ġprincipala":2330,"Ã¨ira":2331,"merica":2332,"Ġdinas":2333,"enca":2334,"ĠÃ²mes":2335,"Ġditz":2336,"dus":2337,"ation":2338,"Ġpichona":2339,"ĠPendent":2340,"Ġacc":2341,"ĠTr":2342,"cin":2343,"ĠEl":2344,"pelh":2345,"Ġdecis":2346,"Ġdial":2347,"Ġaquelas":2348,"Ã²las":2349,"Ã²rdre":2350,"iÃ¨":2351,"Ġjust":2352,"lant":2353,"Ã¨ria":2354,"Ġmer":2355,"Ġaperaqu":2356,"ccions":2357,"pe":2358,"Ġcob":2359,"Ġvilas":2360,"Ġcolor":2361,"Ġdet":2362,"enda":2363,"Ġmitat":2364,"Ġperd":2365,"itucion":2366,"teriz":2367,"Ġtotala":2368,"arrib":2369,"ĠcapitÃ¨t":2370,"Ġgrands":2371,"han":2372,"tÃł":2373,"Ġnas":2374,"Ġnatura":2375,"ĠpermetÃ¨t":2376,"Ġacab":2377,"utats":2378,"Ġpolitic":2379,"Ġpet":2380,"Ġpur":2381,"Ġpot":2382,"Ġ179":2383,"air":2384,"ĠVer":2385,"ĠEnfin":2386,"var":2387,"Ġbra":2388,"Ã¨ta":2389,"ĠAm":2390,"Ġada":2391,"elha":2392,"ronti":2393,"ela":2394,"ĠtrÃ²p":2395,"dit":2396,"ĠEurÃ²pa":2397,"autras":2398,"Ġprogra":2399,"oses":2400,"tava":2401,"ensenhament":2402,"ĠtrÃ²ba":2403,"alisme":2404,"Ġquarti":2405,"ĠtÃŃtol":2406,"ultat":2407,"iers":2408,"Ġgent":2409,"urg":2410,"isses":2411,"cepcion":2412,"ĠRevolucion":2413,"Ġcort":2414,"Ġbes":2415,"ĠTo":2416,"ĠTÃ¨rra":2417,"ĠnivÃ¨l":2418,"Ġmajoritat":2419,"icions":2420,"Ġsenhor":2421,"ĠCr":2422,"ton":2423,"Ġbritan":2424,"Ġespaci":2425,"ĠcarriÃ¨ra":2426,"Ġcertan":2427,"Ġprev":2428,"Ġviol":2429,"Ġesqu":2430,"Ãłcia":2431,"ĠÃĪra":2432,"se":2433,"Ġcomerci":2434,"Ġaqueu":2435,"los":2436,"vat":2437,"Ġnuc":2438,"Ġdiferents":2439,"Ġcaracteriz":2440,"iste":2441,"omat":2442,"ĠCan":2443,"ĠavC":2444,"Ġautra":2445,"Ġdistin":2446,"ville":2447,"ĠpresÃ©ncia":2448,"iat":2449,"Ġfronti":2450,"ĠTan":2451,"gat":2452,"Ġcombat":2453,"ines":2454,"ĠglÃ¨isa":2455,"ĠrÃ¨i":2456,"Ġproven":2457,"ĠprÃ¨p":2458,"ĠNacion":2459,"ĠAng":2460,"estudi":2461,"ĠlÃ¨u":2462,"Ġveg":2463,"Ġfilos":2464,"atiu":2465,"Ã²ls":2466,"Ġrespons":2467,"ĠNÃ²rd":2468,"to":2469,"aula":2470,"ĠPart":2471,"Ġcomunic":2472,"ĠTra":2473,"rats":2474,"Ġfot":2475,"Ġobl":2476,"Ġnomenat":2477,"ĠChar":2478,"Ġaus":2479,"ĠRoma":2480,"abla":2481,"ĠcomencÃ¨t":2482,"ĠsÃ¨gles":2483,"ĠSegon":2484,"Ġcorrent":2485,"Ġpan":2486,"ĠFel":2487,"Ġorient":2488,"Ġdub":2489,"ĠDem":2490,"Ġmarid":2491,"ilhas":2492,"ĠtÃł":2493,"Ġseu":2494,"jas":2495,"esper":2496,"arra":2497,"unes":2498,"Ġcu":2499,"Ġfer":2500,"Ġmembre":2501,"Ġdireccion":2502,"ĠCo":2503,"Ġfaci":2504,"Ġautras":2505,"Ġsau":2506,"Ġcost":2507,"ver":2508,"Ġfons":2509,"Ġtropas":2510,"gn":2511,"Ġreti":2512,"Ġparte":2513,"manha":2514,"Ġmanif":2515,"ĠLi":2516,"vid":2517,"ĠpÃ¨r":2518,"aux":2519,"Ġseis":2520,"Ġteatre":2521,"ultats":2522,"viron":2523,"Ġdinastia":2524,"ugu":2525,"ĠPol":2526,"terran":2527,"Ġcontr":2528,"Ã²li":2529,"jectiu":2530,"Ġcresti":2531,"ension":2532,"Ġdemanda":2533,"Ġsen":2534,"uns":2535,"Ġbal":2536,"Ġmateri":2537,"Ã¨si":2538,"Ġconselh":2539,"Ġquitament":2540,"do":2541,"ey":2542,"Ġdia":2543,"Ã²stra":2544,"Ġdata":2545,"Ġgraf":2546,"Ġparla":2547,"Ã©ner":2548,"ĠdarriÃ¨r":2549,"Ġcop":2550,"Ġbalh":2551,"rÃ¨mi":2552,"Ġnatural":2553,"ison":2554,"Ġela":2555,"epÃ²ca":2556,"Ġsegur":2557,"ables":2558,"Ġset":2559,"Ġcorresp":2560,"clus":2561,"Ġbat":2562,"Ġges":2563,"ry":2564,"Ġprob":2565,"Ġmeteissa":2566,"Ġvoc":2567,"ĠMo":2568,"ician":2569,"ĠEsc":2570,"Ġimportants":2571,"asi":2572,"Ġmaire":2573,"ĠprÃ²":2574,"Ġganh":2575,"itura":2576,"ĠMontpelh":2577,"ĠPrÃ¨mi":2578,"ocup":2579,"Ġmanten":2580,"Ġministre":2581,"Ġcatalan":2582,"duc":2583,"gar":2584,"Ġcolon":2585,"Ġdiferentas":2586,"annada":2587,"ĠanglÃ©s":2588,"Ġbesonh":2589,"iri":2590,"Ġlet":2591,"altitud":2592,"Ã²me":2593,"Ġutilizat":2594,"lin":2595,"otar":2596,"ĠterritÃ²ris":2597,"der":2598,"ue":2599,"Ġvan":2600,"Ġvista":2601,"Ġreceb":2602,"nas":2603,"Ġinici":2604,"ades":2605,"Ã¨it":2606,"issent":2607,"Ġpossed":2608,"ĠpÃ²rta":2609,"activ":2610,"Ġquim":2611,"ĠOccitÃłnia":2612,"ĠpÃ²ble":2613,"ĠIV":2614,"ĠComp":2615,"ostal":2616,"ĠpÃ²rt":2617,"itor":2618,"osf":2619,"ĠMai":2620,"ĠAf":2621,"Ġpasmens":2622,"Ġleng":2623,"ĠBel":2624,"Ġdesign":2625,"Ġaument":2626,"Ġadop":2627,"Ġcausas":2628,"ĠremplaÃ§":2629,"ront":2630,"ĠMan":2631,"Ġmilit":2632,"ĠespÃ¨cias":2633,"tÃłlia":2634,"ĠLor":2635,"Ã²us":2636,"dific":2637,"Ġdavant":2638,"istÃŃs":2639,"Ġrapidament":2640,"esia":2641,"ĠRob":2642,"Ġescrich":2643,"astre":2644,"Ġcros":2645,"ativament":2646,"blas":2647,"ructura":2648,"chas":2649,"ĠgeniÃ¨r":2650,"ians":2651,"Ġsant":2652,"Ġmost":2653,"Ã¨rca":2654,"ĠBe":2655,"Ġsota":2656,"Ġfigu":2657,"riguÃ¨t":2658,"ĠSt":2659,"Ġelect":2660,"Ġatal":2661,"Ġcaser":2662,"ĠSo":2663,"Ġcomte":2664,"Ġpassar":2665,"Ġcaracter":2666,"Ġdif":2667,"agost":2668,"Ġseguida":2669,"ĠEth":2670,"ĠprimiÃ¨rs":2671,"ĠbenlÃ¨u":2672,"Ġ24":2673,"onomia":2674,"Ġvir":2675,"Ġpron":2676,"Ġcomple":2677,"Ġcreat":2678,"temps":2679,"aument":2680,"ĠMart":2681,"lav":2682,"Ġpodi":2683,"Ġaccep":2684,"origuÃ¨t":2685,"fÃ²r":2686,"tÃ¨t":2687,"Ġdre":2688,"Ġsob":2689,"Ã¡n":2690,"Ġom":2691,"Ġcanta":2692,"ĠAnd":2693,"esas":2694,"Ġconeguda":2695,"ĠGe":2696,"ĠvictÃ²ria":2697,"Ġdus":2698,"ph":2699,"Ġdin":2700,"arcel":2701,"Ġprecis":2702,"Ġestada":2703,"Ġnacionala":2704,"Ġsons":2705,"Universitat":2706,"ĠtÃ¨xtes":2707,"Ġsom":2708,"chs":2709,"Ġconsequ":2710,"Ġarmada":2711,"uf":2712,"ols":2713,"aviÃ¡":2714,"ĠMontpelhiÃ¨r":2715,"ama":2716,"ĠBr":2717,"Ã²ts":2718,"Ġempleg":2719,"Ġespecialament":2720,"andre":2721,"ĠÃĴ":2722,"ĠâĢĶ":2723,"emble":2724,"Ġgle":2725,"Ġmesura":2726,"Ġbourg":2727,"Ġgrandas":2728,"Ġcamb":2729,"ourt":2730,"Lo":2731,"riure":2732,"Ã©isser":2733,"Ġoccident":2734,"aricion":2735,"rament":2736,"istic":2737,"ĠfÃ²rt":2738,"Ġvalor":2739,"ces":2740,"orb":2741,"Ġunivers":2742,"tion":2743,"Ġprodus":2744,"igu":2745,"Ġ26":2746,"Ġdat":2747,"Ġast":2748,"ilici":2749,"Ġancians":2750,"Ġcontinent":2751,"Ġlarg":2752,"cian":2753,"Ã²cs":2754,"ĠÃ²me":2755,"Ġtele":2756,"Ġdific":2757,"Ġligam":2758,"acabÃ¨t":2759,"red":2760,"Ġpresid":2761,"ritz":2762,"Ġpossib":2763,"Ġpossible":2764,"Ġgovern":2765,"Ġfai":2766,"ĠSus":2767,"ĠPÃ¨ire":2768,"ĠLoÃŃs":2769,"Ġpartit":2770,"ĠAprÃ¨p":2771,"Ġegalament":2772,"Ġconflicte":2773,"Ġ21":2774,"ĠAra":2775,"ĠEurop":2776,"ĠBer":2777,"ĠFin":2778,"Ġcontun":2779,"ĠCatalonha":2780,"jada":2781,"lica":2782,"inacion":2783,"Ġtri":2784,"ĠMau":2785,"ĠBas":2786,"Ġsenhors":2787,"gent":2788,"Ġ22":2789,"Ġdiss":2790,"tip":2791,"Ġdebuta":2792,"den":2793,"Ġdura":2794,"Ġclar":2795,"ĠPre":2796,"Ġjo":2797,"Ġformat":2798,"ĠProven":2799,"Ġregim":2800,"Ġdestru":2801,"ĠTe":2802,"termin":2803,"Ġlic":2804,"Ġvei":2805,"ĠSer":2806,"ogra":2807,"Ġbe":2808,"Ġress":2809,"Ġonte":2810,"ĠcontrarÃ²tle":2811,"Ġamerican":2812,"Ġcorrespond":2813,"Ġpont":2814,"ĠDurant":2815,"baye":2816,"rom":2817,"ola":2818,"ĠnÃ²stre":2819,"Ġmondiala":2820,"Ġcaract":2821,"igas":2822,"Ġassegu":2823,"aquesta":2824,"onas":2825,"Ã²des":2826,"autat":2827,"Ġformas":2828,"Ġgrops":2829,"Ġindustri":2830,"ĠfebriÃ¨r":2831,"Ġcontrari":2832,"rotz":2833,"Ġoccitans":2834,"Ġpersona":2835,"Â°":2836,"alme":2837,"gudas":2838,"ĠPres":2839,"ĠQual":2840,"icÃŃ":2841,"ĠgrÃ¨":2842,"Ġsola":2843,"ys":2844,"Ġcab":2845,"Ġbr":2846,"encs":2847,"Ġnombroses":2848,"Ġpau":2849,"ĠtÃ²ca":2850,"ĠdivÃ¨rsas":2851,"Ġinte":2852,"alhas":2853,"ierre":2854,"Ġrefus":2855,"ds":2856,"Ġta":2857,"tadas":2858,"ĠPl":2859,"Ġru":2860,"ĠepÃ²ca":2861,"ĠPartit":2862,"Ġnoms":2863,"dependÃ©ncia":2864,"irenÃ¨us":2865,"via":2866,"Ġflu":2867,"rimi":2868,"isticas":2869,"Ġcompausat":2870,"Ġdessenh":2871,"car":2872,"entament":2873,"Ġtol":2874,"Ã§ar":2875,"Ġaquelei":2876,"Ġpurm":2877,"Ġgentilici":2878,"ĠSh":2879,"ivament":2880,"Ġrecu":2881,"ile":2882,"ĠdeguÃ¨t":2883,"autra":2884,"Ġdona":2885,"Ġadministrat":2886,"Ġvolont":2887,"efÃ¨ct":2888,"ĠGlÃ¨isa":2889,"ales":2890,"ablament":2891,"Ġtransform":2892,"Ġconsiderat":2893,"ĠGener":2894,"ka":2895,"Ġurb":2896,"Ġgar":2897,"aver":2898,"eti":2899,"estacion":2900,"Ġger":2901,"ĠJac":2902,"Ġgenre":2903,"ite":2904,"ves":2905,"Ġpal":2906,"itacion":2907,"Ġban":2908,"Ġrend":2909,"com":2910,"uments":2911,"Ġcommun":2912,"Ġparr":2913,"apa":2914,"ĠBarcel":2915,"Ġ%":2916,"Ġsac":2917,"Ġjut":2918,"matica":2919,"cle":2920,"men":2921,"Ġ28":2922,"orma":2923,"Ġrealitat":2924,"ĠLou":2925,"Ġabandon":2926,"Ġfemna":2927,"En":2928,"icia":2929,"Ġelegit":2930,"ĠprovÃŃncia":2931,"Ġlon":2932,"Ġfru":2933,"Ġgard":2934,"emperaire":2935,"Ġcollec":2936,"egut":2937,"tats":2938,"Ġria":2939,"Ġder":2940,"Ġmentre":2941,"acc":2942,"Ġestran":2943,"Ġchin":2944,"ki":2945,"Ġfrequ":2946,"ĠMus":2947,"Ġquant":2948,"omÃ¨n":2949,"Ġprincipalament":2950,"qÃ¼":2951,"Ġfe":2952,"Ġvengut":2953,"Ġleu":2954,"ani":2955,"dir":2956,"Ġmunicipalitats":2957,"Ġprincipalas":2958,"Ġrelacions":2959,"cass":2960,"ĠmÃ©s":2961,"escÃ²la":2962,"ĠdemÃ²ra":2963,"Ġnombrosas":2964,"Ġbona":2965,"ĠGar":2966,"Ġconquista":2967,"Ġrevolucion":2968,"Ġsustot":2969,"Ġieu":2970,"Ġmul":2971,"Ġpriv":2972,"peri":2973,"ĠComuna":2974,"Ġaur":2975,"Ġtir":2976,"ĠBar":2977,"ĠRec":2978,"EurÃ²pa":2979,"Ġanar":2980,"Ġensenh":2981,"ĠBarcelona":2982,"ĠLeis":2983,"manda":2984,"ĠMaria":2985,"estiu":2986,"ĠPuei":2987,"itut":2988,"eder":2989,"ĠAd":2990,"Ġpref":2991,"Ġ000":2992,"Ã¨rras":2993,"Ġinstall":2994,"edicion":2995,"Ġles":2996,"Ġps":2997,"ole":2998,"ĠdemorÃ¨t":2999,"ĠMol":3000,"Ġorgan":3001,"ieus":3002,"espaci":3003,"Ġpichons":3004,"Ġcrisi":3005,"Ã¨va":3006,"ĠCada":3007,"ĠrÃ¨sta":3008,"Ġmejans":3009,"ĠPort":3010,"ĠAqueles":3011,"Ġcamps":3012,"net":3013,"ĠAs":3014,"ĠNi":3015,"Ġplana":3016,"Ġmejana":3017,"Ġsuf":3018,"Ġsite":3019,"ĠDempuÃ¨i":3020,"CO":3021,"Ġ23":3022,"Ġident":3023,"osfÃ¨ra":3024,"ext":3025,"tei":3026,"Ġpaus":3027,"inar":3028,"Ġtend":3029,"Ġpassatge":3030,"Ġprincipi":3031,"ĠMars":3032,"Ġuman":3033,"ĠentraÃ¯nÃ¨t":3034,"nom":3035,"Ġmit":3036,"Ġqualitat":3037,"Ġbil":3038,"ĠBu":3039,"Ġproteg":3040,"Ġtransp":3041,"Ġfaire":3042,"ĠSan":3043,"Ġformar":3044,"Ġumana":3045,"Ġtractat":3046,"ritura":3047,"sion":3048,"Ã¨stra":3049,"Ġbastida":3050,"Ġdefinit":3051,"oti":3052,"vers":3053,"Ġsap":3054,"Ġtalh":3055,"ĠCent":3056,"Ġtraversat":3057,"ox":3058,"udas":3059,"Ġmission":3060,"ĠPe":3061,"Ġcondicions":3062,"ĠnovÃ¨las":3063,"Ġrevista":3064,"Ġlog":3065,"Ġeconomica":3066,"bla":3067,"Ġut":3068,"Ġmitan":3069,"rau":3070,"Ġnaiss":3071,"tiÃ¡":3072,"ĠÃĩ":3073,"gues":3074,"Ġrem":3075,"ĠEr":3076,"ĠRam":3077,"Ġmanca":3078,"Ġequip":3079,"gip":3080,"Ġ50":3081,"Ġsh":3082,"Ġcav":3083,"ustria":3084,"aqueste":3085,"iar":3086,"Ġlista":3087,"onc":3088,"tect":3089,"ĠMor":3090,"ĠrÃ¨":3091,"Ġpobl":3092,"queta":3093,"Ġaflu":3094,"cad":3095,"ya":3096,"Ġ29":3097,"Ġmusic":3098,"Ġpeu":3099,"Ġvist":3100,"iras":3101,"Ġdeves":3102,"Ġprene":3103,"ascut":3104,"ĠQualques":3105,"ĠCast":3106,"ĠMej":3107,"ociacion":3108,"Ġpuei":3109,"ĠXVIII":3110,"Ġessenci":3111,"Ġmesc":3112,"Ġfilha":3113,"Ġroma":3114,"Ġromana":3115,"ĠtravÃ¨rs":3116,"ajuda":3117,"Ġfabric":3118,"atÃ²ri":3119,"ĠNob":3120,"ino":3121,"rient":3122,"Ġpresa":3123,"ĠCarles":3124,"Ã¨rts":3125,"olit":3126,"ĠcomÃ¨r":3127,"ĠBen":3128,"ĠBern":3129,"Ġmate":3130,"Ġrelativament":3131,"Ġmots":3132,"Ġgal":3133,"Ġcaps":3134,"aqueles":3135,"Ġobserv":3136,"Ġpatz":3137,"Ġbastiment":3138,"dre":3139,"Ã§ada":3140,"Ġapert":3141,"exic":3142,"Ġbastir":3143,"Ġinform":3144,"install":3145,"Ġversion":3146,"eda":3147,"enis":3148,"anim":3149,"Ġconstitucion":3150,"octobre":3151,"ulas":3152,"Ġsaber":3153,"eras":3154,"ĠPo":3155,"ĠDieu":3156,"Ġdonar":3157,"Ġdivers":3158,"emblada":3159,"ergia":3160,"establ":3161,"Ġjove":3162,"ĠfenomÃ¨n":3163,"ĠTanben":3164,"ĠmÃ¨tres":3165,"laci":3166,"ĠXVI":3167,"ripcion":3168,"ĠRoman":3169,"ators":3170,"Ġmusul":3171,"Ġnau":3172,"cean":3173,"Ġmeses":3174,"Ġw":3175,"anÃ§as":3176,"Ġtalha":3177,"import":3178,"Ġprepar":3179,"Union":3180,"Ġdicha":3181,"tor":3182,"Ġquasi":3183,"ĠCong":3184,"lex":3185,"Ġmaugrat":3186,"ah":3187,"orat":3188,"Ġabbaye":3189,"Ġacom":3190,"Ġcrear":3191,"Ġgenerau":3192,"ĠaviÃ¡n":3193,"Ġreligion":3194,"ini":3195,"Ġvac":3196,"Ġparlament":3197,"Ġteoria":3198,"Ġestudis":3199,"udar":3200,"ĠAnt":3201,"ĠtornÃ¨t":3202,"ĠdivÃ¨rsei":3203,"Ġrestau":3204,"Ã¨ca":3205,"Ġregular":3206,"ĠEdat":3207,"Ġmencion":3208,"Ġseuna":3209,"Ġdesfa":3210,"Ġmain":3211,"Ġpractica":3212,"Ġprograma":3213,"ards":3214,"iquÃ¨t":3215,"tet":3216,"ĠPau":3217,"Ã¨stas":3218,"ĠAlb":3219,"Ġistoric":3220,"Ġfilosof":3221,"Ġbor":3222,"ular":3223,"Ġoper":3224,"ĠChina":3225,"Ġ2007":3226,"Ġquin":3227,"ocrat":3228,"Ġeven":3229,"Ġ100":3230,"izar":3231,"ĠhÃ¨":3232,"ĠProvenÃ§a":3233,"cont":3234,"ruc":3235,"Ġlutz":3236,"Ġdecl":3237,"val":3238,"Ġconta":3239,"Ġcarb":3240,"ĠmoriguÃ¨t":3241,"ĠtÃ¨":3242,"Ġvint":3243,"ĠSitu":3244,"tanha":3245,"Ġoras":3246,"ĠGuilh":3247,"Esp":3248,"ĠcollÃ¨g":3249,"ĠNobel":3250,"rel":3251,"unitat":3252,"radas":3253,"ĠDi":3254,"activitat":3255,"Ġvel":3256,"ids":3257,"Ġcompte":3258,"Ġscenari":3259,"ĠlingÃ¼istica":3260,"Ġoblig":3261,"actu":3262,"usion":3263,"char":3264,"Ġcompanh":3265,"Ġpublica":3266,"Ġprofessor":3267,"Ġapare":3268,"Ġviure":3269,"Ġtomb":3270,"789":3271,"Ġescol":3272,"licacion":3273,"Ġmejan":3274,"Ġcadun":3275,"ĠdebanÃ¨t":3276,"Ġmontanha":3277,"Ġitalian":3278,"iqu":3279,"esqu":3280,"alis":3281,"Ġvent":3282,"ĠJoh":3283,"go":3284,"ĠfÃ²ra":3285,"Ġquia":3286,"ĠEntre":3287,"Ġmed":3288,"Ġangles":3289,"ĠreferÃ©ncia":3290,"enf":3291,"are":3292,"Ġmecan":3293,"escriv":3294,"ĠMarc":3295,"Ġdempuei":3296,"Ġenfants":3297,"gipte":3298,"bas":3299,"ĠnÃ²u":3300,"Ġconstruccion":3301,"mana":3302,"Ġdetermin":3303,"eron":3304,"ĠPel":3305,"ĠBre":3306,"itucions":3307,"Ġmarge":3308,"existÃ©ncia":3309,"ilizacion":3310,"Ġelements":3311,"Ġindivid":3312,"ĠrÃ¨g":3313,"Ġsatell":3314,"Ġannada":3315,"Esc":3316,"Ġath":3317,"Ġcompos":3318,"Ġquauqu":3319,"IEO":3320,"vis":3321,"Ġdeg":3322,"ĠSoci":3323,"rog":3324,"otz":3325,"Ġcarga":3326,"ĠnovÃ¨l":3327,"Ġnegre":3328,"lom":3329,"ĠsÃ²n":3330,"rand":3331,"Ġavent":3332,"Ġregional":3333,"ĠmodÃ¨l":3334,"engad":3335,"Ġsortida":3336,"ĠpÃ²s":3337,"Ġmassa":3338,"Ġvesti":3339,"Ġvaria":3340,"stitut":3341,"Ġ2000":3342,"Ġ2006":3343,"Ġdepend":3344,"Ġmediev":3345,"gis":3346,"Ġsigu":3347,"estend":3348,"Ġlibres":3349,"organizacion":3350,"Ġmilitara":3351,"ĠcomÃ¨rci":3352,"ler":3353,"oran":3354,"antin":3355,"Ġrta":3356,"labor":3357,"Ġmantun":3358,"ĠtÃ¨rras":3359,"Ġfix":3360,"ĠSegonda":3361,"Ġactivitats":3362,"?<|":3363,"iriÃ¡":3364,"Â»":3365,"Ġ27":3366,"Ġdra":3367,"Ġlac":3368,"etica":3369,"Ġromans":3370,"ĠParlament":3371,"Ġfraire":3372,"ĠnasquÃ¨t":3373,"Ġenviron":3374,"Ġ2008":3375,"ompanh":3376,"Ġsuperficia":3377,"iguÃ¨ron":3378,"vÃ¨rs":3379,"Åĵ":3380,"Ġsia":3381,"Ġfut":3382,"ĠGal":3383,"ĠOl":3384,"Ġatau":3385,"Ġlegis":3386,"ĠFrancÃ©s":3387,"Ġactivitat":3388,"dats":3389,"oy":3390,"Ġ/":3391,"Ġgall":3392,"Ġamor":3393,"pausa":3394,"rin":3395,"utas":3396,"dio":3397,"Ġplaneta":3398,"Ġcandi":3399,"rÃ©s":3400,"Ġcaval":3401,"ĠGra":3402,"Ġpopular":3403,"Ġsignifica":3404,"Ġprofession":3405,"Ġeles":3406,"ĠfÃłcia":3407,"itari":3408,"Ġena":3409,"urar":3410,"regist":3411,"ĠprovenÃ§":3412,"Ġcri":3413,"une":3414,"ĠSos":3415,"ĠfamÃ³s":3416,"Ġreiaume":3417,"armai":3418,"Ġden":3419,"ĠSi":3420,"ĠSim":3421,"istral":3422,"Ġ2009":3423,"Ġfondament":3424,"Ġessent":3425,"Ġdaus":3426,"Ġata":3427,"ĠVI":3428,"aquÃŃ":3429,"Ġsoviet":3430,"ublic":3431,"ak":3432,"200":3433,"Ġcompta":3434,"Ġpersonatge":3435,"dependent":3436,"Ġdintre":3437,"America":3438,"len":3439,"unt":3440,"Ã²tas":3441,"Ġdonat":3442,"Ġtemperatura":3443,"Ġect":3444,"ĠMin":3445,"ival":3446,"igna":3447,"dem":3448,"ĠXIII":3449,"Ġconcent":3450,"Ġdeclar":3451,"Ġinstru":3452,"influÃ©ncia":3453,"ok":3454,"Ġsta":3455,"abril":3456,"Ġoccitanas":3457,"iÃ¨ras":3458,"Ġblanc":3459,"'m":3460,"Ass":3461,"ate":3462,"Ġmob":3463,"Ġtornarmai":3464,"licar":3465,"ĠistÃ²ria":3466,"Ġpremiera":3467,"za":3468,"itacions":3469,"ĠDes":3470,"ĠAqueu":3471,"Ġcatol":3472,"onia":3473,"Ġperf":3474,"Ġpoesia":3475,"Ġdipl":3476,"Ġrepresenta":3477,"jament":3478,"ĠMag":3479,"Ġinteg":3480,"Ġcapaci":3481,"Ġminor":3482,"Ġtrabalhs":3483,"Ġcomenc":3484,"Ġescrivan":3485,"cles":3486,"ratge":3487,"esque":3488,"Ġfran":3489,"Ġvo":3490,"ĠThe":3491,"idÃ¨a":3492,"Ġaper":3493,"Ġ2010":3494,"Ġamass":3495,"Ġsimil":3496,"ck":3497,"Ã²nt":3498,"Ġrelacion":3499,"Ġ2005":3500,"Ġlonga":3501,"ĠSent":3502,"Ġrre":3503,"Ġinfer":3504,"Ġcampanha":3505,"ĠXIV":3506,"Ġdocument":3507,"fica":3508,"ps":3509,"ĠCros":3510,"Ġglaci":3511,"ĠPrimi":3512,"Ġmodific":3513,"ĠPaÃŃs":3514,"ĠAtal":3515,"Ġgascon":3516,"EL":3517,"onn":3518,"ĠmÃ²stra":3519,"alistas":3520,"Ġorb":3521,"Ġmesa":3522,"Ġment":3523,"icles":3524,"Ã¨tre":3525,"Ġcontemp":3526,"Ġrus":3527,"ĠTer":3528,"Ġfogu":3529,"Ġsel":3530,"Ã²i":3531,"Ġfort":3532,"ĠSu":3533,"iada":3534,"ĠsiÃ¨is":3535,"Ġhar":3536,"350":3537,"aqueu":3538,"ĠRegion":3539,"irada":3540,"Ġeng":3541,"Ã¨ro":3542,"ivÃ¨rs":3543,"Ġ1980":3544,"ibla":3545,"Ġeconomic":3546,"inform":3547,"ĠLengad":3548,"ĠCR":3549,"ucs":3550,"Ã¨mia":3551,"ief":3552,"Ã²sa":3553,"Ġvolcan":3554,"ĠMalgrat":3555,"ĠcanÃ§on":3556,"Ġcomunicacion":3557,"ĠCongrÃ¨s":3558,"Ã²ma":3559,"ĠBeau":3560,"Ġexec":3561,"Ġpersonatges":3562,"Ġnegoci":3563,"Ġactuala":3564,"Ġretorn":3565,"quitect":3566,"Ġostal":3567,"Ġcertanei":3568,"itim":3569,"ĠCre":3570,"ĠnivÃ¨u":3571,"Ġsector":3572,"ĠEmpÃ¨ri":3573,"ĠTres":3574,"encÃ²p":3575,"ĠAquelas":3576,"Ġalemanda":3577,"La":3578,"vel":3579,"ĠFer":3580,"ondre":3581,"Ġclima":3582,"iutad":3583,"Ã¼n":3584,"ificar":3585,"Ġostals":3586,"jan":3587,"son":3588,"Ġ40":3589,"Ġda":3590,"Ġmur":3591,"Ġquad":3592,"osc":3593,"ĠAital":3594,"Ġ1970":3595,"Ġ1960":3596,"Ã¯na":3597,"ĠcastÃ¨l":3598,"Ġmort":3599,"Ġ2012":3600,"dor":3601,"cionari":3602,"ĠPal":3603,"urat":3604,"Ġdivision":3605,"latÃ¨rra":3606,"ĠlÃ²n":3607,"Ã§at":3608,"Ġindependent":3609,"economia":3610,"Ġtruc":3611,"Ġelement":3612,"amin":3613,"Ġcollabor":3614,"Ġprincipal":3615,"ologic":3616,"Ġassai":3617,"Ġectaras":3618,"tacions":3619,"ĠAut":3620,"ĠDom":3621,"ivÃ¨rn":3622,"ĠXII":3623,"ĠdecidiguÃ¨t":3624,"!<|":3625,"onim":3626,"Ġtrap":3627,"Ã²nia":3628,"ĠguÃ¨rras":3629,"Ġutilizada":3630,"Ġcircul":3631,"\"<|":3632,"Ã¨b":3633,"ĠbÃ¨l":3634,"ĠSch":3635,"ocar":3636,"Ġmalau":3637,"ĠdivÃ¨rses":3638,"ĠAlemanha":3639,"Af":3640,"Ġfel":3641,"ĠJul":3642,"ĠXVII":3643,"ĠmatÃ¨ria":3644,"tt":3645,"750":3646,"Ġfilm":3647,"inte":3648,"Ġseria":3649,"ologica":3650,"Ġdefensa":3651,"Ġsubst":3652,"Ġsuperior":3653,"Ã¨re":3654,"ĠBal":3655,"Ġjus":3656,"Ġclassa":3657,"aquelas":3658,"Ġ2004":3659,"Ġinflu":3660,"Ġmovements":3661,"Ġfusion":3662,"Ġprobablament":3663,"ĠlanÃ§":3664,"Ġvad":3665,"ĠmiÃ¨g":3666,"Ġetc":3667,"arribada":3668,"Ġpert":3669,"ĠCamp":3670,"Ġcono":3671,"Ġimperi":3672,"Ġeleccions":3673,"har":3674,"Ġquic":3675,"ĠAss":3676,"Ġseus":3677,"issas":3678,"ĠItÃłlia":3679,"Ã²rts":3680,"Ġculturas":3681,"Ġ0":3682,"ĠAc":3683,"ĠSul":3684,"tida":3685,"Ġalb":3686,"Ã²rma":3687,"Ġjapon":3688,"Ġplas":3689,"odon":3690,"Ġensems":3691,"ĠMondi":3692,"Ġsala":3693,"Ã¨ris":3694,"Ġarb":3695,"Ġarch":3696,"Ġprincipaus":3697,"Ġrur":3698,"ĠDo":3699,"ĠCarcass":3700,"Ġlongor":3701,"ĠInter":3702,"Ġdreches":3703,"anciana":3704,"Ost":3705,"itiu":3706,"use":3707,"Ġbassa":3708,"ĠBes":3709,"ĠRuss":3710,"ĠGr":3711,"Ġseguent":3712,"ificat":3713,"Ġactual":3714,"ĠEspanha":3715,"Ġinferi":3716,"ĠLengadÃ²c":3717,"Ġdol":3718,"Ġsur":3719,"Ġtop":3720,"ĠLib":3721,"ilas":3722,"ĠVic":3723,"ĠvenguÃ¨ron":3724,"Ġdestin":3725,"Ġadap":3726,"quia":3727,"omet":3728,"ĠauriÃ¡":3729,"ĠhÃ¨ra":3730,"Ġfilme":3731,"Ġinstitucions":3732,"Ġcombats":3733,"din":3734,"ĠLen":3735,"ĠbÃ¨th":3736,"administ":3737,"ĠrecÃ¨rca":3738,"ĠvertadiÃ¨ra":3739,"Ġdificultats":3740,"ante":3741,"dam":3742,"ĠCont":3743,"Ġligat":3744,"Ġmatemat":3745,"rus":3746,"ucions":3747,"Ġdinc":3748,"ĠsÃ¨tge":3749,"ĠLouis":3750,"cta":3751,"enas":3752,"enne":3753,"Ã¨dia":3754,"Ġcell":3755,"avi":3756,"Ã¨mi":3757,"Ġna":3758,"Ġparaula":3759,"Ġprec":3760,"Ġsensa":3761,"ĠâĢľ":3762,"Ġpatrim":3763,"Ġflor":3764,"Ġafluent":3765,"uÃ¨i":3766,"Ġlh":3767,"Ġnautor":3768,"gul":3769,"ĠDon":3770,"Ġcontinu":3771,"Ġsobei":3772,"Ġciutad":3773,"ĠtiÃ¨ra":3774,"Ġ1990":3775,"Ġ2011":3776,"Ġguer":3777,"Ġcentrala":3778,"ectura":3779,"ĠproblÃ¨ma":3780,"ĠdÃ¨tz":3781,"rac":3782,"olÃ²g":3783,"ĠcomenÃ§a":3784,"rasil":3785,"ĠLeon":3786,"edi":3787,"ual":3788,"cina":3789,"ismes":3790,"Ġaltitud":3791,"ctament":3792,"abs":3793,"Ġdesapar":3794,"escritura":3795,"Ã¨lhs":3796,"Ġsort":3797,"ĠFlor":3798,"ace":3799,"ĠpoÃ¨ta":3800,"medi":3801,"Ġpoliticas":3802,"Ġcanal":3803,"Ġconquist":3804,"ĠrÃ¨ine":3805,"ĠtÃ¨xt":3806,"rÃŃs":3807,"este":3808,"obten":3809,"ĠpuslÃ¨u":3810,"Ġamassa":3811,"ĠpÃ²bles":3812,"ĠsistÃ¨mas":3813,"Ġaperten":3814,"ĠmodÃ¨rna":3815,"Ġarmadas":3816,"Ġoficiala":3817,"Ġran":3818,"Ã¨na":3819,"unid":3820,"Ġquan":3821,"ĠTur":3822,"Ġfamilhas":3823,"179":3824,"ies":3825,"ĠvÃ²":3826,"tir":3827,"Ġcontac":3828,"ĠNav":3829,"ĠfÃ²rta":3830,"Ġagut":3831,"indi":3832,"rieu":3833,"Ġrras":3834,"Ġresid":3835,"ĠconcÃ¨p":3836,"Ġclassica":3837,"ĠdirÃ¨ct":3838,"Ġir":3839,"Ġpi":3840,"ĠPat":3841,"Ġcapt":3842,"Ġmonument":3843,"ederacion":3844,"Ġpopulacions":3845,"Ġproteccion":3846,"olh":3847,"ĠRod":3848,"ĠpoiriÃ¡":3849,"Ġpartidas":3850,"Ġfinanci":3851,"ĠprocÃ¨s":3852,"Ġnauta":3853,"ĠCort":3854,"Ġprotest":3855,"âĢ¦<|":3856,"Ġnucle":3857,"ser":3858,"usa":3859,"Ã¨lhas":3860,"autita":3861,"ĠpassÃ¨t":3862,"Ġactualament":3863,"Ġmolec":3864,"Ġgrafia":3865,"onne":3866,"Ã²rÃ§a":3867,"Ġcomplet":3868,"Ġservicis":3869,"ĠcomplÃ¨x":3870,"iÃ¨ch":3871,"ĠquicÃ²m":3872,"ĠCarcassona":3873,"eur":3874,"Ġdr":3875,"Ġmalais":3876,"Ã¨rne":3877,"imat":3878,"Ġtotalament":3879,"Ġmarca":3880,"Ġmetre":3881,"Ġasp":3882,"Ġveloci":3883,"Ġcontemporan":3884,"reu":3885,"Ã¨rtas":3886,"Ġopaus":3887,"Ġfacha":3888,"Ã²nas":3889,"Ġsoas":3890,"Ġillas":3891,"ĠCharles":3892,"Ara":3893,"Ġ60":3894,"alit":3895,"250":3896,"ĠserÃłn":3897,"ĠfasiÃ¡":3898,"ĠaperaquÃŃ":3899,"Is":3900,"del":3901,"Ġvert":3902,"Ġperman":3903,"ĠPaul":3904,"irm":3905,"isseau":3906,"ĠVII":3907,"ĠcinÃ¨ma":3908,"ĠcanÃ§ons":3909,"roma":3910,"vent":3911,"ĠÃ¨stre":3912,"independÃ©ncia":3913,"ĠPont":3914,"âĢĿ":3915,"ĠVil":3916,"Ġaqueth":3917,"Ġsociala":3918,"Ġportar":3919,"Ġide":3920,"ĠmalautiÃ¡":3921,"AR":3922,"erie":3923,"Ġevolucion":3924,"Ġcomtat":3925,"acte":3926,"Ġjoves":3927,"Ġnumer":3928,"Ġdistincion":3929,"Au":3930,"Ġseg":3931,"ĠMes":3932,"Ġpoiss":3933,"ĠresistÃ©ncia":3934,"espÃ¨":3935,"Ġprogress":3936,"ĠpÃ¨Ã§as":3937,"arca":3938,"ĠSov":3939,"Ġpression":3940,"Ġvenc":3941,"Ġpublicat":3942,"ancian":3943,"ĠproblÃ¨mas":3944,"EN":3945,"Ġsques":3946,"ĠIl":3947,"360":3948,"telle":3949,"ĠdesplaÃ§":3950,"Ġlibertat":3951,"Ġol":3952,"Ġ31":3953,"roc":3954,"Ġplen":3955,"ums":3956,"Ġconsci":3957,"Ġviatge":3958,"insula":3959,"ĠMari":3960,"adura":3961,"ĠpoguÃ¨t":3962,"340":3963,"Ġcateg":3964,"Ġtecnicas":3965,"Ġbibl":3966,"Ġfigura":3967,"ĠSab":3968,"380":3969,"Ġtotei":3970,"annadas":3971,"Ġeiss":3972,"Ã²ss":3973,"Ġvit":3974,"ĠCat":3975,"ĠPh":3976,"ĠPirenÃ¨us":3977,"ements":3978,"ĠsimbÃ²l":3979,"Ġinteress":3980,"rof":3981,"icol":3982,"ĠreÃ¼n":3983,"Ġparc":3984,"Ġumans":3985,"Ġnaturala":3986,"ĠEuropÃ¨a":3987,"//":3988,"://":3989,"Ġcoss":3990,"tier":3991,"240":3992,"Ġestra":3993,"ĠdonÃ¨t":3994,"ertura":3995,"Ġancianas":3996,"Ġzona":3997,"ĠexistÃŃs":3998,"uala":3999,"Ġestan":4000,"ĠnÃ²":4001,"ĠfaguÃ¨ron":4002,"Ġcolors":4003,"teriora":4004,"Ġseguir":4005,"ĠEstat":4006,"Ġtipes":4007,"ĠGuilhÃ¨m":4008,"tica":4009,"ardi":4010,"dada":4011,"lement":4012,"ensemble":4013,"180":4014,"Ġprincipau":4015,"Ġegip":4016,"Ġruisseau":4017,"ĠJohn":4018,"Or":4019,"Ġ80":4020,"citat":4021,"ĠCentre":4022,"Ġgau":4023,"Ġprigond":4024,"ocra":4025,"Ġcarn":4026,"Ġfinalament":4027,"Ġdarrier":4028,"ĠprenguÃ¨t":4029,"Ġproprietat":4030,"Ġromaine":4031,"Ġpic":4032,"quÃ¨ron":4033,"Ġcondicion":4034,"ĠTre":4035,"Ġcompet":4036,"260":4037,"ĠavanÃ§":4038,"160":4039,"Ġautors":4040,"ĠlÃ²c":4041,"iti":4042,"ĠBlan":4043,"Ġexc":4044,"Ġtransm":4045,"Ġmalgrat":4046,"Ġdrecha":4047,"Ġlar":4048,"ĠSp":4049,"Ã²rdi":4050,"ensions":4051,"150":4052,"elhs":4053,"ĠLes":4054,"Ġsep":4055,"tiÃ¨r":4056,"ĠBra":4057,"209":4058,"Ã©nher":4059,"ĠJapon":4060,"780":4061,"ĠflÃ²ta":4062,"Ġtestim":4063,"Ġcommunal":4064,"Ġvelocitat":4065,"176":4066,"bis":4067,"bia":4068,"Ġpair":4069,"Ã¨rre":4070,"ĠCA":4071,"Ġcomanda":4072,"ĠprimiÃ¨ras":4073,"Ġrasons":4074,"Ġdesfacha":4075,"100":4076,"ance":4077,"Ġdesb":4078,"Ġarres":4079,"Ġtots":4080,"Ġprima":4081,"ĠmodÃ¨rn":4082,"ĠinfluÃ©ncia":4083,"ativas":4084,"hon":4085,"mosfÃ¨ra":4086,"Äĥ":4087,"ĠnÃ²va":4088,"tiqu":4089,"apel":4090,"ensems":4091,"ĠRai":4092,"ĠNÃ²va":4093,"Ġliura":4094,"Ġforman":4095,"Ġlegir":4096,"Ġscientif":4097,"įn":4098,"Ġcrotz":4099,"osament":4100,"Ġand":4101,"ĠGer":4102,"Ġrescont":4103,"Ġterren":4104,"Ġmaqu":4105,"Ġmaxim":4106,"Ġlucha":4107,"uma":4108,"Ġair":4109,"Ġcron":4110,"dag":4111,"ablas":4112,"associacion":4113,"Ġvenon":4114,"Ġauton":4115,"udats":4116,"ĠfuÃ²c":4117,"xa":4118,"Ġatac":4119,"ĠsÃ²l":4120,"Ġpros":4121,"Ġdesvolopar":4122,"ĠquartiÃ¨r":4123,"Ġcaseriu":4124,"Ġmultip":4125,"ĠnaissenÃ§a":4126,"xe":4127,"ĠpÃ¨ira":4128,"Ġreme":4129,"ĠFor":4130,"Ġdesigna":4131,"Ġreform":4132,"Ġfraires":4133,"Ġvolontat":4134,"ocion":4135,"Ġaigas":4136,"ĠMistral":4137,"Ġris":4138,"Ġapel":4139,"788":4140,"365":4141,"Ġacad":4142,"Ġaten":4143,"Ġservir":4144,"ĠsubjÃ¨cte":4145,"Ġpensar":4146,"Ġgrav":4147,"ĠpodiÃ¡":4148,"Ġort":4149,"enÃ§as":4150,"anal":4151,"Ġmess":4152,"ĠEm":4153,"Ġric":4154,"Ġpreced":4155,"utilizacion":4156,"ĠcapitÃ¨ron":4157,"Ã²rias":4158,"ĠpÃ²u":4159,"Ġdefinicion":4160,"Institut":4161,"ĠconsequÃ©ncia":4162,"gen":4163,"iats":4164,"oire":4165,"ĠÃł":4166,"Ġsuu":4167,"ichel":4168,"Ġrius":4169,"Ġcomunitat":4170,"Ġcomunautat":4171,"Ġpermetre":4172,"Ġmodern":4173,"Ġportugu":4174,"ĠAlex":4175,"Ġlegislat":4176,"administracion":4177,"iot":4178,"mor":4179,"Ġlit":4180,"Ġpeus":4181,"quet":4182,"Ġtur":4183,"rid":4184,"gua":4185,"ĠCab":4186,"Ġdonadas":4187,"Ġcentral":4188,"Ġpaginas":4189,"ĠreligiÃ³s":4190,"Ġgallo":4191,"oÃ¯":4192,"Ġcart":4193,"rach":4194,"ĠprojÃ¨ctes":4195,"icians":4196,"190":4197,"ocat":4198,"Ġmoneda":4199,"Ġapareis":4200,"Ġanimals":4201,"ĠGarona":4202,"oz":4203,"rant":4204,"ĠPlan":4205,"idar":4206,"eux":4207,"Ġpichonas":4208,"cripcion":4209,"uel":4210,"Ġsil":4211,"rier":4212,"756":4213,"740":4214,"Ġtrabalhar":4215,"Ġlinhas":4216,"Ġdesserv":4217,"Ġrecone":4218,"istir":4219,"ĠpÃ¨Ã§a":4220,"Ġfisica":4221,"Ġcivila":4222,"Ġculturala":4223,"Ġdocuments":4224,"ĠRussia":4225,"entacion":4226,"aira":4227,"Ġcomen":4228,"Ġcontribu":4229,"Ġ2021":4230,"140":4231,"Ġabs":4232,"ĠOn":4233,"ferÃ©ncia":4234,"utiliza":4235,"Ġdescub":4236,"ĠtÃ¨xte":4237,"Ã²bre":4238,"Ġbur":4239,"Ġdesir":4240,"Ġsua":4241,"aca":4242,"755":4243,"Ġgenerala":4244,"ĠzÃ²na":4245,"ĠeuropÃ¨us":4246,"ĠprovÃŃncias":4247,"iam":4248,"pir":4249,"tom":4250,"arre":4251,"ĠCam":4252,"utar":4253,"Ġpolitics":4254,"Ġbenef":4255,"eguda":4256,"ografica":4257,"ĠcÃ²sta":4258,"ĠcaractÃ¨r":4259,"ĠCREO":4260,"be":4261,"fÃ²rt":4262,"itÃłnia":4263,"izant":4264,"emos":4265,"290":4266,"785":4267,"349":4268,"390":4269,"Ġfemnas":4270,"Ġfusta":4271,"ĠAfrica":4272,"lomeracion":4273,"300":4274,"Ã²f":4275,"Ġforn":4276,"Ġnascut":4277,"ĠMad":4278,"ĠDos":4279,"Ġ2020":4280,"348":4281,"395":4282,"Ġregionalas":4283,"Ġlocala":4284,"Ġmandat":4285,"ĠRamon":4286,"OccitÃłnia":4287,"agu":4288,"for":4289,"laus":4290,"mans":4291,"nes":4292,"uish":4293,"vin":4294,"ĠFÃ²rÃ§a":4295,"ĠprÃ¨s":4296,"Ġuei":4297,"alizada":4298,"Ġ2002":4299,"Ġocupat":4300,"ĠMedi":4301,"ĠMondiala":4302,"rÃ©":4303,"anar":4304,"Ġmic":4305,"ĠmÃ¨stre":4306,"aulas":4307,"ĠAmerica":4308,"aparicion":4309,"ĠNos":4310,"Ġarr":4311,"Ġpoders":4312,"Ġfortific":4313,"Ġflors":4314,"Ġaprof":4315,"Ġpropriet":4316,"ĠMarselha":4317,"Ġduc":4318,"eria":4319,"ith":4320,"Ã¨ren":4321,"iris":4322,"ĠFEL":4323,"185":4324,"760":4325,"clam":4326,"Ġsimple":4327,"ĠSimon":4328,"quitectura":4329,"ĠsÃ²r":4330,"ĠBon":4331,"280":4332,"758":4333,"768":4334,"388":4335,"Ġterm":4336,"Ġcreada":4337,"ĠdarriÃ¨ra":4338,"berg":4339,"angle":4340,"Ġrepresentant":4341,"Ġnomenada":4342,"Ġcapacitat":4343,"Ġsang":4344,"usatge":4345,"Ġcong":4346,"265":4347,"759":4348,"105":4349,"Ġtorna":4350,"ianas":4351,"Ġdomenis":4352,"Ġrealizar":4353,"Ġcadena":4354,"ĠRomans":4355,"119":4356,"ES":4357,"even":4358,"vision":4359,"ĠÃ¯":4360,"ĠsÃ²":4361,"ĠBi":4362,"ĠTor":4363,"ĠGo":4364,"Ã¨lha":4365,"355":4366,"748":4367,"Ġgrana":4368,"Ġreialme":4369,"ĠdeviÃ¡":4370,"Ġfol":4371,"Ġpertot":4372,"Ġ(\"":4373,"Ã§on":4374,"ĠBor":4375,"188":4376,"295":4377,"109":4378,"745":4379,"ianÃ§a":4380,"Ġcalcul":4381,"Ġpopulara":4382,"presa":4383,"ĠFELCO":4384,"Ġdig":4385,"inici":4386,"Ġunei":4387,"Ġteor":4388,"Ġtraduccion":4389,"259":4390,"169":4391,"749":4392,"345":4393,"399":4394,"ĠOrient":4395,"ĠHen":4396,"Ġconstru":4397,"Ġlongtemps":4398,"Ġvisc":4399,"Ġtecnica":4400,"ĠCrist":4401,"124":4402,"ff":4403,"Ġedicion":4404,"ulg":4405,"asses":4406,"assegu":4407,"189":4408,"269":4409,"289":4410,"166":4411,"Ġescamb":4412,"Ġconsac":4413,"ĠWik":4414,"Ġcompausada":4415,"Ġculmin":4416,"Ġletras":4417,"fÃ²rÃ§":4418,"Ġvestigis":4419,"114":4420,"gers":4421,"ly":4422,"ures":4423,"enge":4424,"ĠPierre":4425,"255":4426,"258":4427,"359":4428,"Ġlongitud":4429,"Ġdemorar":4430,"Ġquantitat":4431,"dis":4432,"eren":4433,"Ġmans":4434,"ĠSav":4435,"apor":4436,"ĠNov":4437,"Ġtotun":4438,"369":4439,"766":4440,"389":4441,"Ġestar":4442,"rup":4443,"Ãłncias":4444,"Ġimm":4445,"Ġsuccess":4446,"Ġfondat":4447,"ĠquilomÃ¨tres":4448,"ĠFelip":4449,"Ġurban":4450,"279":4451,"rÃ¨ron":4452,"ilib":4453,"ĠAgu":4454,"tigi":4455,"205":4456,"705":4457,"385":4458,"Ġ2003":4459,"ĠjÃ²cs":4460,"Ġmercat":4461,"Ġpedag":4462,"Ġpapa":4463,"Espanha":4464,"Mar":4465,"ĠmÃ¨t":4466,"isf":4467,"Ġperc":4468,"rot":4469,"ĠJu":4470,"309":4471,"285":4472,"709":4473,"769":4474,"Ġ2001":4475,"Ġpermetent":4476,"ĠdiferÃ©ncia":4477,"autrei":4478,"Ġfilosofia":4479,"115":4480,"Ġpost":4481,"rion":4482,"Ġperme":4483,"Ġbot":4484,"Ġcontes":4485,"Ãłri":4486,"208":4487,"Ġindepend":4488,"284":4489,"765":4490,"Ġacompanh":4491,"Ġorigina":4492,"Ġplanta":4493,"Ġsimbol":4494,"Ġinvent":4495,"379":4496,"ted":4497,"Ġmest":4498,"Ġcomand":4499,"ctat":4500,"256":4501,"299":4502,"708":4503,"104":4504,"108":4505,"364":4506,"346":4507,"386":4508,"ĠParc":4509,"Ġciutats":4510,"Ġfondada":4511,"Ġistorica":4512,"ĠremplaÃ§at":4513,"importÃłncia":4514,"779":4515,"Ġfeder":4516,"Ġvas":4517,"Ġvid":4518,"Ġnu":4519,"roduccion":4520,"204":4521,"ĠNo":4522,"356":4523,"368":4524,"Ġamic":4525,"Ġconeguts":4526,"Ġmontanhas":4527,"ĠdirÃ¨ctament":4528,"tellectu":4529,"700":4530,"fon":4531,"Ġfiu":4532,"ĠCamb":4533,"mpre":4534,"Ġmem":4535,"objectiu":4536,"308":4537,"786":4538,"706":4539,"366":4540,"398":4541,"Ġsuperfici":4542,"Ġfasent":4543,"Åĵur":4544,"219":4545,"224":4546,"ensiva":4547,"305":4548,"268":4549,"298":4550,"286":4551,"Ġhtt":4552,"165":4553,"394":4554,"396":4555,"Ġprincipals":4556,"ĠconeissenÃ§a":4557,"Ġdirector":4558,"ĠluÃ²cs":4559,"Ġajuda":4560,"ĠOccitans":4561,"215":4562,"Ġdot":4563,"ĠsÃ¨r":4564,"ĠnuÃ¨":4565,"Ġbles":4566,"etic":4567,"issions":4568,"206":4569,"186":4570,"266":4571,"288":4572,"783":4573,"704":4574,"744":4575,"384":4576,"213":4577,"Ġrevirada":4578,"Ġpagina":4579,"Ġcinqu":4580,"214":4581,"ĠMerc":4582,"Ã©c":4583,"adop":4584,"ĠTorn":4585,"Ġ1944":4586,"Ã¯cul":4587,"ectiv":4588,"Ġplat":4589,"164":4590,"168":4591,"784":4592,"358":4593,"ĠUnit":4594,"encastre":4595,"Ġempach":4596,"Ġarticle":4597,"Ã²uta":4598,"Ġcatalana":4599,"Ġlevat":4600,"Ġsiguec":4601,"Ã²ga":4602,"ĠSam":4603,"lac":4604,"Ġprestigi":4605,"264":4606,"Ġavans":4607,"746":4608,"ĠdessÃºs":4609,"ĠeuropÃ¨u":4610,"ĠsÃ¨ti":4611,"714":4612,"gin":4613,"iques":4614,"ĠÃ§":4615,"energia":4616,"Ã¨bre":4617,"ĠsÃ¨m":4618,"Ġmos":4619,"ĠbÃ²s":4620,"Ġanti":4621,"dian":4622,"ĠVIII":4623,"Ġapro":4624,"296":4625,"344":4626,"Ġmesuras":4627,"Ã¨nh":4628,"Ġjogar":4629,"ÃĴc":4630,"tiquitat":4631,"ke":4632,"obl":4633,"ĠÃ§a":4634,"ĠCer":4635,"ĠMil":4636,"ĠBord":4637,"ĠGas":4638,"254":4639,"754":4640,"Ġutilizar":4641,"ĠrespÃ¨cte":4642,"Ġefica":4643,"Ġestatsunid":4644,"Ġfondacion":4645,"ĠJosep":4646,"ĠnumÃ¨ro":4647,"719":4648,"vre":4649,"Ã¢":4650,"ĠcÃ¨l":4651,"Ġmam":4652,"Ġtz":4653,"ĠBa":4654,"Ġdescon":4655,"Ġprum":4656,"Ġ1950":4657,"ĠNorm":4658,"184":4659,"Ġresultat":4660,"106":4661,"ĠescÃ²las":4662,"Ġarmas":4663,"Ġceleb":4664,"Ġinternacionala":4665,"ĠGeor":4666,"Ġpossibilitat":4667,"ografic":4668,"Ġleugi":4669,"319":4670,"jats":4671,"anisme":4672,"aperaqu":4673,"ĠrapÃ²rt":4674,"Ġdurada":4675,"ĠMejana":4676,"315":4677,"724":4678,"715":4679,"onÃ©s":4680,"Ġenem":4681,"Ġproced":4682,"Ġ1999":4683,"accions":4684,"306":4685,"294":4686,"Ġavant":4687,"acin":4688,"Ġpensada":4689,"ĠsostÃ¨n":4690,"ĠCastel":4691,"ĠConstitucion":4692,"arquia":4693,"324":4694,"314":4695,"ĠÎ":4696,"cid":4697,"Ġton":4698,"Ġtit":4699,"irs":4700,"ĠRen":4701,"304":4702,"354":4703,"Ġvenent":4704,"richa":4705,"Ġinterpre":4706,"Ġconsiderada":4707,"Ġsimplament":4708,"Ġsecret":4709,"Ġquestions":4710,"Ġdecision":4711,"ĠNacionala":4712,"Ġastron":4713,"ĠgrÃ¨ga":4714,"įndia":4715,"Ġlexic":4716,"racions":4717,"Ġnotar":4718,"olf":4719,"adoci":4720,"Ġparl":4721,"Ġplantas":4722,"ĠSeine":4723,"Ġobjectiu":4724,"Aragon":4725,"fab":4726,"nat":4727,"ota":4728,"ette":4729,"Ġpreson":4730,"agÃŃs":4731,"764":4732,"alhs":4733,"211":4734,"217":4735,"edat":4736,"Ã²stre":4737,"Ġmenar":4738,"Ġmilitaras":4739,"Ġillust":4740,"ali":4741,"ĠPich":4742,"ĠMos":4743,"Ġparall":4744,"ĠRh":4745,"Ġdesen":4746,"Ġproxim":4747,"787":4748,"ĠComun":4749,"Ġcausida":4750,"Ang":4751,"ĠfuÃ¨lhas":4752,"ructuras":4753,"Ġcultiv":4754,"Ġelegits":4755,"ĠprÃ²che":4756,"Ġaiga":4757,"Ġfid":4758,"ĠLin":4759,"Ġvotz":4760,"Ġbre":4761,"ĠDu":4762,"167":4763,"Ġneut":4764,"Ġpunts":4765,"Ġcivilizacion":4766,"ĠOccitana":4767,"Ġlengadoci":4768,"andreta":4769,"Ã«":4770,"Ġcaire":4771,"Ġbord":4772,"ĠCes":4773,"stÃ²ria":4774,"ansion":4775,"Ġtrauc":4776,"Ġargent":4777,"Ġip":4778,"agric":4779,"estil":4780,"273":4781,"ĠAquÃŃ":4782,"ĠsciÃ©ncia":4783,"Africa":4784,"500":4785,"ectu":4786,"gra":4787,"ow":4788,"ĠpÃ²r":4789,"organ":4790,"amica":4791,"eires":4792,"Ġrit":4793,"arten":4794,"Ġestructura":4795,"Ã¨cta":4796,"ĠAls":4797,"ĠConf":4798,"ĠdistÃłncia":4799,"ĠAlemand":4800,"Ġmarcat":4801,"ĠespÃ¨cia":4802,"yn":4803,"Ġsat":4804,"erb":4805,"Ġunic":4806,"Ġsempre":4807,"adi":4808,"abil":4809,"763":4810,"estructura":4811,"encont":4812,"ĠespanhÃ²l":4813,"Ġcaserius":4814,"Ġcontacte":4815,"Ch":4816,"kh":4817,"usta":4818,"Ġbens":4819,"ĠMass":4820,"Ġjuri":4821,"Ġproclam":4822,"187":4823,"ĠAquelei":4824,"Ġdiscip":4825,"alizat":4826,"Ġconstituit":4827,"ĠAugu":4828,"Ġduas":4829,"Ġscientific":4830,"Ġpedagog":4831,"Ġproximitat":4832,"ez":4833,"rÃ³s":4834,"Ġfes":4835,"ĠLaf":4836,"assas":4837,"Ã¨gjorn":4838,"Ġtresena":4839,"ĠChamp":4840,"Ġviat":4841,"ĠsiÃ¡s":4842,"Ġdensitat":4843,"Ġnacional":4844,"Ġcambiament":4845,"ĠveÃ¯cul":4846,"Ġdiccionari":4847,"ĠConstantin":4848,"jon":4849,"pol":4850,"ĠÃ²rdre":4851,"esca":4852,"ĠPan":4853,"ulacion":4854,"Ġparents":4855,"ectac":4856,"701":4857,"enaissenÃ§a":4858,"aquelei":4859,"autoritat":4860,"ĠidÃ¨as":4861,"Ġcritica":4862,"ĠobtenguÃ¨t":4863,"AS":4864,"iran":4865,"ĠdeguÃ¨ron":4866,"Ġpin":4867,"ĠaicÃŃ":4868,"Ġlaiss":4869,"Ġfoss":4870,"ilip":4871,"Ġruss":4872,"Ġpresents":4873,"707":4874,"101":4875,"363":4876,"387":4877,"Ġpersegu":4878,"Ġlegenda":4879,"Ġvarietat":4880,"Ġnaviris":4881,"Ġprivil":4882,"Ġdeclin":4883,"dins":4884,"Ġdedic":4885,"Ġthe":4886,"aia":4887,"ley":4888,"ĠEgipte":4889,"ĠDav":4890,"207":4891,"753":4892,"747":4893,"343":4894,"347":4895,"ĠmarquÃ¨t":4896,"ĠAbans":4897,"ĠRobert":4898,"Ġremarc":4899,"Ġy":4900,"ĠLond":4901,"ĠMat":4902,"Ġarque":4903,"Ġroge":4904,"Ġsason":4905,"Ġvision":4906,"Ġcultural":4907,"ĠBearn":4908,"Ġsobeiran":4909,"ĠconcÃ¨pte":4910,"evolucion":4911,"umi":4912,"Ġconvencion":4913,"ĠVill":4914,"Ġprem":4915,"743":4916,"383":4917,"Ġcarta":4918,"237":4919,"iech":4920,"Ġpermeton":4921,"ĠeuropÃ¨a":4922,"Ġcolleccion":4923,"ĠReiaume":4924,"Ġcm":4925,"Ġcaud":4926,"interior":4927,"els":4928,"203":4929,"Ġprendre":4930,"ĠNarb":4931,"307":4932,"757":4933,"Ġdemen":4934,"231":4935,"ribucion":4936,"Ġjornada":4937,"encial":4938,"expression":4939,"ĠTotun":4940,"ĠtrÃ²ban":4941,"pira":4942,"ergue":4943,"Ġenregist":4944,"Ġgarn":4945,"ranca":4946,"issiÃ¡n":4947,"202":4948,"302":4949,"Ġprefer":4950,"Ġ2013":4951,"751":4952,"752":4953,"Ġvenguda":4954,"Ã²cas":4955,"oux":4956,"Ġcastel":4957,"Ġdistric":4958,"Estudis":4959,"ĠnuclÃ¨u":4960,"Ġdarr":4961,"Ġfront":4962,"ĠPic":4963,"issement":4964,"ĠTarn":4965,"ĠpoÃ¨mas":4966,"ĠEnric":4967,"263":4968,"293":4969,"781":4970,"742":4971,"397":4972,"ibilitat":4973,"277":4974,"Ġminim":4975,"Ġparticularament":4976,"Ġendavant":4977,"ĠrecebÃ¨t":4978,"cÃ²p":4979,"rer":4980,"ĠdelÃł":4981,"ĠCant":4982,"ĠSenat":4983,"uls":4984,"ulta":4985,"Ġaliment":4986,"idor":4987,"assinat":4988,"Ġ2014":4989,"261":4990,"163":4991,"357":4992,"103":4993,"341":4994,"Ġaccion":4995,"estudis":4996,"illy":4997,"Ġatribu":4998,"ĠGranda":4999,"Ġarribar":5000,"Ġcaracteristicas":5001,"ĠpoissanÃ§a":5002,"ĠRaimon":5003,"ui":5004,"isha":5005,"tabl":5006,"ĠCa":5007,"ĠglaÃ§":5008,"ĠprÃ¨mi":5009,"Ġ1940":5010,"199":5011,"Ġplus":5012,"257":5013,"181":5014,"183":5015,"790":5016,"291":5017,"297":5018,"272":5019,"Ġsoudats":5020,"Ġafric":5021,"Ġ500":5022,"ĠcÃ²nsol":5023,"Ġrses":5024,"Ġlengatge":5025,"Ġgerman":5026,"periÃ©ncia":5027,"Ġrememb":5028,"Ġpil":5029,"ĠaC":5030,"ĠLoire":5031,"Ġ1914":5032,"decina":5033,"303":5034,"249":5035,"352":5036,"392":5037,"393":5038,"233":5039,"Ġtresen":5040,"ampa":5041,"Ġlocalas":5042,"Ġtractament":5043,"ĠFelib":5044,"Ġcostats":5045,"Aqu":5046,"lau":5047,"Ġlun":5048,"irÃł":5049,"ĠprÃ¨tz":5050,"ĠIX":5051,"Ġdiam":5052,"162":5053,"353":5054,"703":5055,"107":5056,"367":5057,"767":5058,"ĠviÃ¨lh":5059,"Ġdesvolopat":5060,"ĠfuguÃ¨t":5061,"Ġreconst":5062,"Ġorganizacion":5063,"Ġcambiar":5064,"Ġdescobrir":5065,"Ġextra":5066,"Ġsuperiora":5067,"ĠCrosada":5068,"cal":5069,"por":5070,"Ã£":5071,"ĠfÃ¨rre":5072,"Ã¨tas":5073,"ĠAg":5074,"Ġ150":5075,"Ġintellectu":5076,"tany":5077,"uman":5078,"182":5079,"145":5080,"362":5081,"381":5082,"212":5083,"ologicas":5084,"Ġrotacion":5085,"ĠMontfÃ²rt":5086,"Ġcompausa":5087,"ĠMiÃ¨gjorn":5088,"ĠPuÃ¨i":5089,"ĠespanhÃ²la":5090,"Ġfonts":5091,"bo":5092,"mo":5093,"ano":5094,"endas":5095,"Ġcs":5096,"itÃłria":5097,"Ġuns":5098,"ĠPass":5099,"ÃŃa":5100,"ĠRog":5101,"ĠRev":5102,"ĠEnc":5103,"267":5104,"287":5105,"351":5106,"102":5107,"361":5108,"391":5109,"Ġestend":5110,"Ġmasatge":5111,"Ã²bras":5112,"271":5113,"estion":5114,"espand":5115,"Ġdiversitat":5116,"ĠlÃ²ng":5117,"ĠpatrimÃ²ni":5118,"ibles":5119,"lanta":5120,"ÃĪ":5121,"ente":5122,"atius":5123,"ĠLau":5124,"Ġestim":5125,"Ġnot":5126,"ĠBritan":5127,"ĠFre":5128,"ĠVol":5129,"Ġauta":5130,"253":5131,"248":5132,"148":5133,"283":5134,"158":5135,"382":5136,"exist":5137,"Ġencont":5138,"Ã²mas":5139,"Ġzonas":5140,"ĠcomenÃ§ar":5141,"ĠCalandreta":5142,"Ġisol":5143,"ĠBretanha":5144,"Ġorbita":5145,"600":5146,"hs":5147,"Ġsan":5148,"Ġmill":5149,"Ġune":5150,"ames":5151,"195":5152,"149":5153,"282":5154,"741":5155,"Ġclub":5156,"gonda":5157,"ĠnovÃ¨u":5158,"ĠobjÃ¨cte":5159,"Ġpresentar":5160,"Ġimag":5161,"Ġparticipar":5162,"Ġproprietats":5163,"terranÃ¨a":5164,"Ġcrestians":5165,"Ġestrangi":5166,"pas":5167,"asenÃ§a":5168,"Ġeduc":5169,"ĠAi":5170,"Ġreaccion":5171,"Ġbu":5172,"lava":5173,"Ġindic":5174,"301":5175,"262":5176,"281":5177,"Ã¨stres":5178,"Ġtrobat":5179,"Ġdespari":5180,"Ġnecessari":5181,"Ġligams":5182,"agricultura":5183,"ĠAlemands":5184,"Ġsiste":5185,"isans":5186,"ele":5187,"illes":5188,"Ġgig":5189,"198":5190,"244":5191,"245":5192,"146":5193,"ĠavÃ¨m":5194,"159":5195,"Ġestil":5196,"Ġrepublica":5197,"232":5198,"ĠcreÃ¨t":5199,"Ġamics":5200,"Ġdeputats":5201,"Ġliterari":5202,"Ġpractic":5203,"Ġboca":5204,"Ġbritanic":5205,"Ġprononci":5206,"Ġanglesa":5207,"emosin":5208,"ko":5209,"Ġcha":5210,"ĠLim":5211,"resa":5212,"rou":5213,"ĠEd":5214,"ides":5215,"orsas":5216,"Ġliqu":5217,"251":5218,"252":5219,"Ġ2017":5220,"154":5221,"782":5222,"Ġterritori":5223,"ressa":5224,"Ġproves":5225,"Ġautrei":5226,"equip":5227,"Ġcirc":5228,"Ġdominacion":5229,"Ġmaterial":5230,"EscÃ²la":5231,"ebl":5232,"Ġderiv":5233,"Ġament":5234,"201":5235,"Ġcomposicion":5236,"196":5237,"246":5238,"342":5239,"Ġpuish":5240,"Ġpaci":5241,"udes":5242,"Ġtromp":5243,"Ġprincipis":5244,"ĠmÃłgers":5245,"Ġsignific":5246,"Ġvicti":5247,"ĠCapit":5248,"Ġfabricacion":5249,"Ġfutur":5250,"ĠMinist":5251,"Ġinstrument":5252,"400":5253,"469":5254,"retat":5255,"isp":5256,"Ġenl":5257,"ĠCI":5258,"izat":5259,"156":5260,"161":5261,"702":5262,"Ġaculh":5263,"article":5264,"Ġseri":5265,"Ã²ms":5266,"ĠdarriÃ¨rs":5267,"ĠliterÃłria":5268,"Ġblanca":5269,"Ġalemands":5270,"Ġoccidentala":5271,"ĠPremi":5272,"Ġrecuper":5273,"ĠInternacion":5274,"459":5275,"489":5276,"Ġ&":5277,"ĠLuna":5278,"Ġcomtes":5279,"ĠMac":5280,"Ġoct":5281,"Ġarre":5282,"Ġbasada":5283,"Ġgeneracion":5284,"Ġdepaus":5285,"Ġrenov":5286,"ĠpurmÃ¨r":5287,"ĠSoviet":5288,"augu":5289,"imm":5290,"ĠDau":5291,"ĠFred":5292,"Ġtotal":5293,"799":5294,"292":5295,"Ġhilh":5296,"762":5297,"ĠOccident":5298,"alizar":5299,"Ġdefend":5300,"669":5301,"Ã±":5302,"erament":5303,"Ġfief":5304,"Ġperm":5305,"ĠbÃ¨la":5306,"155":5307,"Ġpartits":5308,"ĠCarta":5309,"Ã¯nas":5310,"Ġeconomia":5311,"Ġquauques":5312,"Ġletra":5313,"ĠbilingÃ¼":5314,"Ġmusulmans":5315,"Ġeveniments":5316,"escrivan":5317,"ĠLondres":5318,"644":5319,"689":5320,"bol":5321,"ject":5322,"ww":5323,"Ġdur":5324,"Ġlum":5325,"Ġed":5326,"Ġgents":5327,"Ġgrat":5328,"ĠMer":5329,"aven":5330,"194":5331,"795":5332,"Ġriv":5333,"Ġfamosa":5334,"Ġfoncions":5335,"ĠmetÃ²de":5336,"Ġeconomicas":5337,"Ġvarietats":5338,"Ġcanton":5339,"Ġconflictes":5340,"Ġfacil":5341,"ĠPolonha":5342,"659":5343,"649":5344,"889":5345,"rons":5346,"uas":5347,"oric":5348,"Ġfum":5349,"Ġengat":5350,"Ġron":5351,"istics":5352,"Ġjur":5353,"ĠFins":5354,"ĠGrÃ¨":5355,"Ġproble":5356,"Ġcomport":5357,"761":5358,"Ġrib":5359,"nect":5360,"Ã¨ni":5361,"ologics":5362,"igny":5363,"Ġcalend":5364,"Ġdespart":5365,"Ġclassas":5366,"ugal":5367,"Ġautoritats":5368,"Ġmatin":5369,"ĠvertadiÃ¨r":5370,"ĠVenguÃ¨t":5371,"Ġsetman":5372,"Ġgardar":5373,"ĠBesiÃ¨rs":5374,"ĠcossÃŃ":5375,"559":5376,"pes":5377,"Ġaer":5378,"Ġmad":5379,"Ġfla":5380,"Ġreven":5381,"ĠSau":5382,"Ġanonci":5383,"abandon":5384,"Ġ1945":5385,"Ġapren":5386,"observ":5387,"798":5388,"Ġriba":5389,"337":5390,"orias":5391,"Ġmetal":5392,"ĠcompanhiÃ¡":5393,"Am":5394,"Edat":5395,"gne":5396,"lici":5397,"utiu":5398,"enos":5399,"Ġamp":5400,"estan":5401,"guet":5402,"Ġrecep":5403,"Ġconeish":5404,"isse":5405,"ĠGir":5406,"ĠUr":5407,"Ġcompar":5408,"Ġpret":5409,"Ġregist":5410,"Ġclau":5411,"Ġclimat":5412,"Ġtemple":5413,"Ġsolelh":5414,"Ġsoldats":5415,"Ġfrancesas":5416,"ĠluÃ¨nh":5417,"ĠpubliquÃ¨t":5418,"Ġdintrada":5419,"Ġassociacion":5420,"Ġperdut":5421,"ĠMartin":5422,"Ġassegurar":5423,"Ġairal":5424,".,":5425,"eguÃ¨t":5426,"ane":5427,"Ġcement":5428,"omba":5429,"Ġgras":5430,"iac":5431,"cediguÃ¨t":5432,"ĠdeuriÃ¡":5433,"Ġdevon":5434,"Ġfug":5435,"argent":5436,"ĠBordÃ¨u":5437,"544":5438,"569":5439,"549":5440,"800":5441,"844":5442,"859":5443,"869":5444,"gica":5445,"tal":5446,"Ġx":5447,"Ġdont":5448,"Ġconeis":5449,"eix":5450,"ĠRos":5451,"Ġaccions":5452,"ĠescÃ²la":5453,"Ġvias":5454,"Ġfemen":5455,"Ġsortir":5456,"Ġescrivans":5457,"ĠPresident":5458,"Ġcompositor":5459,"Ġquauquei":5460,"589":5461,"849":5462,"Aran":5463,"SS":5464,"sia":5465,"Ã¶":5466,"Ġ70":5467,"Ġmalh":5468,"ĠMen":5469,"istan":5470,"ĠBol":5471,"144":5472,"Ġmars":5473,"ardin":5474,"222":5475,"matic":5476,"Ġdestruccion":5477,"Ġoficialament":5478,"ĠExistÃŃs":5479,"Ġpeninsula":5480,"Ostal":5481,"ĠNavarra":5482,"Ġestrateg":5483,"Ġculminant":5484,".\"<|":5485,"Ã²ran":5486,"raine":5487,"osicions":5488,"ĠCi":5489,"Ġ1920":5490,"Ġabsol":5491,"Ġdispaus":5492,"ĠRepres":5493,"Ġmagnet":5494,"Ġreligiosa":5495,"Ale":5496,"ech":5497,"Ġpausa":5498,"erat":5499,"inari":5500,"Ġmis":5501,"Ġfau":5502,"urre":5503,"abte":5504,"ĠUa":5505,"243":5506,"estar":5507,"Ġriques":5508,"ĠAlara":5509,"Ġformada":5510,"illon":5511,"Ġjornal":5512,"ctorat":5513,"ĠperiÃ²des":5514,"Ġsemblan":5515,"Ġvesins":5516,"Ġmelhorar":5517,"presas":5518,"Ġbritanica":5519,"Ġdifusion":5520,"ĠGrÃ¨cia":5521,"900":5522,"ItÃłlia":5523,"rÃ¨m":5524,"elles":5525,"Ġremon":5526,"ĠPla":5527,"ctritz":5528,"Ġplena":5529,"796":5530,"Ġvertat":5531,"Ġlimitat":5532,"ĠmÃ²rts":5533,"Ġligada":5534,"Ġrepresentacion":5535,"ĠtÃ¨rmes":5536,"Ġnombres":5537,"Ġmilitars":5538,"Ġtemperat":5539,"ĠRobÃ¨rt":5540,"450":5541,"cer":5542,"ea":5543,"ham":5544,"Ġquar":5545,"Ġvam":5546,"ĠSens":5547,"Ġescrit":5548,"Ġescriure":5549,"vasion":5550,"borg":5551,"ĠTotes":5552,"Ġtolos":5553,"Assemblada":5554,"944":5555,"Acad":5556,"LO":5557,"mada":5558,"vo":5559,"tero":5560,"Ġsobre":5561,"integ":5562,"Ġec":5563,"ork":5564,"ism":5565,"Ġvass":5566,"ĠnÃ²rma":5567,"istÃ¨ma":5568,"Ġmarit":5569,"333":5570,"inason":5571,"Ġutilizats":5572,"Ġemple":5573,"Ġemperaire":5574,"ĠRoqueta":5575,"Ġfasa":5576,"octÃ²bre":5577,"Ġessencialament":5578,"ĠacomencÃ¨t":5579,"480":5580,"949":5581,"Ġlud":5582,"Ġpalais":5583,"itant":5584,"ĠLion":5585,"Ġredus":5586,"Ġsex":5587,"Ġseccion":5588,"Ġgarda":5589,"241":5590,"Ġchinesa":5591,"959":5592,"969":5593,"989":5594,"ega":5595,"Ġ90":5596,"Ġama":5597,"Ġactors":5598,"Ġvita":5599,"Ġnar":5600,"Ġconcepcion":5601,"ĠconÃ©isser":5602,"iza":5603,"ĠJer":5604,"193":5605,"Ġcontre":5606,"794":5607,"ĠcÃ²st":5608,"ĠcreissenÃ§a":5609,"ĠWill":5610,"Ġvolum":5611,"Ġetn":5612,"ĠdescobÃ¨rta":5613,"ĠClau":5614,"ĠReialme":5615,"Ġpartement":5616,"Ġplaser":5617,"hi":5618,"onor":5619,"Ġpena":5620,"rida":5621,"americ":5622,"ĠPet":5623,"Ġdiu":5624,"242":5625,"Ġexcepcion":5626,"Ġparts":5627,"Ġdivis":5628,"137":5629,"ĠmercÃ©":5630,"Ġprepausa":5631,"Sant":5632,"lon":5633,"uÃ¨lh":5634,"Ġsof":5635,"unei":5636,"raccion":5637,"ĠtÃ¨n":5638,"mpÃºs":5639,"izada":5640,"Ġliure":5641,"nais":5642,"Ġresist":5643,"Ġdemest":5644,"ĠimportÃłncia":5645,"Ġconeiss":5646,"Ġensag":5647,"Ġpresentacion":5648,"Ġbarr":5649,"Ġamericana":5650,"Ġprevist":5651,"Ġmanifesta":5652,"ocracia":5653,"460":5654,"aw":5655,"Â«":5656,"ĠÃ¨":5657,"Ġgala":5658,"dias":5659,"Ġdifici":5660,"autas":5661,"147":5662,"aglomeracion":5663,"encas":5664,"Ã¨nge":5665,"Ġproduc":5666,"ĠzÃ²nas":5667,"Ġreflex":5668,"Ġrealizat":5669,"ĠMax":5670,"tellig":5671,"Ġdecisions":5672,"Ġcontunha":5673,"089":5674,"650":5675,"cat":5676,"giÃ¨r":5677,"Ġcot":5678,"quÃ©":5679,"Ġtaus":5680,"Ġtira":5681,"Ġunas":5682,"Ġbomb":5683,"rodu":5684,"Ġrts":5685,"ado":5686,"Ġcompr":5687,"Ġsituats":5688,"intrada":5689,"Ġlimits":5690,"Ġlingu":5691,"Ġdemandar":5692,"Ġpsic":5693,"ĠCesar":5694,"burg":5695,"ky":5696,"rol":5697,"Â·":5698,"ĠcÅĵur":5699,"Ã¨rcas":5700,"ĠDan":5701,"Ġ1930":5702,"143":5703,"ĠOb":5704,"Ġracon":5705,"Ġtemptat":5706,"ĠrevÃ¨nge":5707,"Ġsucre":5708,"Ġdefinir":5709,"rÃłcia":5710,"Ġtradicionala":5711,"Ġexistisson":5712,"Ġdistingu":5713,"Ġcontuni":5714,"ĠchinÃ©s":5715,"ĠÃĩÃ²":5716,"Ġarrond":5717,"\")":5718,"044":5719,"059":5720,"069":5721,"049":5722,"660":5723,"680":5724,"jau":5725,"oqu":5726,"ugi":5727,"Ġdej":5728,"ĠaguÃ¨ron":5729,"Ġmir":5730,"Ġquat":5731,"tien":5732,"ĠPod":5733,"abilitat":5734,"igne":5735,"Ġsusp":5736,"ocas":5737,"Ġsolucion":5738,"Ġpublics":5739,"Ġcated":5740,"ĠSaint":5741,"Ġassociacions":5742,"ĠExist":5743,"ĠconsciÃ©ncia":5744,"640":5745,"cans":5746,"Ġpilh":5747,"ald":5748,"ung":5749,"Ġenqu":5750,"ĠAten":5751,"Ġbalha":5752,"Ġrica":5753,"Ġ2022":5754,"Ġresultats":5755,"Ġimpaus":5756,"escom":5757,"Ġmonast":5758,"117":5759,"173":5760,"131":5761,"Ġsoi":5762,"ĠParti":5763,"Ġmusician":5764,"ĠAnglatÃ¨rra":5765,"Ġsetmana":5766,"ĠLenga":5767,"540":5768,"880":5769,"ER":5770,"utacion":5771,"Ġdam":5772,"Ġdeven":5773,"usc":5774,"ĠDic":5775,"ĠBrasil":5776,"Ġju":5777,"Ġdieu":5778,"Ġaplic":5779,"Ġarti":5780,"247":5781,"157":5782,"113":5783,"Ġdefens":5784,"ĠpoderÃ³s":5785,"Ġbastiments":5786,"oise":5787,"Ġorientala":5788,"850":5789,"asp":5790,"Ġcia":5791,"imes":5792,"331":5793,"177":5794,"ĠAqueth":5795,"Ġensemble":5796,"Ġajudar":5797,"Ġretirada":5798,"Ġfruch":5799,"Ġsatellits":5800,"Ġcompletament":5801,"ĠdrÃ²l":5802,"550":5803,"840":5804,"bs":5805,"dich":5806,"fort":5807,"ni":5808,"arÃłn":5809,"raÃ¨l":5810,"tias":5811,"ĠPi":5812,"Ġ1995":5813,"ĠpoguÃ¨ron":5814,"ogne":5815,"151":5816,"Ġclaus":5817,"educ":5818,"171":5819,"anhas":5820,"ĠdefÃ²ra":5821,"ĠconsidÃ¨ra":5822,"ĠscÃ¨na":5823,"Ġgovernador":5824,"Ġaprofich":5825,"580":5826,"dal":5827,"Ġactor":5828,"atmosfÃ¨ra":5829,"Ġtau":5830,"ĠPen":5831,"ulara":5832,"197":5833,"ĠOst":5834,"Ġdemost":5835,"172":5836,"Ġdison":5837,"Ġdefendre":5838,"Ġdirigit":5839,"Ġseparacion":5840,"ĠfilosÃ²f":5841,"Ġscientifics":5842,"560":5843,"860":5844,"ner":5845,"Ġ45":5846,"Ġses":5847,"Ã²da":5848,"ĠSte":5849,"igat":5850,"Ġdesf":5851,"192":5852,"Ġram":5853,"332":5854,"ĠKar":5855,"Ġcalor":5856,"ĠobjÃ¨ctes":5857,"Ġsocial":5858,"Ġoriginas":5859,"Ġcritic":5860,"Ġantic":5861,"Ġantica":5862,"Ġscientifica":5863,"ĠLafont":5864,"ricas":5865,"Î¿":5866,"Ġsser":5867,"arch":5868,"omas":5869,"amass":5870,"ĠCos":5871,"ĠBou":5872,"Ġnomena":5873,"191":5874,"Ġprecip":5875,"152":5876,"pert":5877,"Ġcoloni":5878,"112":5879,"Ġmanjar":5880,"Ġcalc":5881,"Ġrevel":5882,"Ġinterven":5883,"itaris":5884,"Ġconcors":5885,"Ġfrag":5886,"Ġextrem":5887,"Ġproduch":5888,"Ġveget":5889,"Ġmaridatge":5890,"Ġdesignar":5891,"Ġtelevision":5892,"ĠMusÃ¨u":5893,"ĠGascon":5894,"Ã¨ir":5895,"arres":5896,"Ġmac":5897,"Ġquora":5898,"autes":5899,"rici":5900,"Ġvau":5901,"amen":5902,"Ã§an":5903,"Ġrar":5904,"ĠDiv":5905,"adÃŃs":5906,"objÃ¨cte":5907,"Ġprigonda":5908,"153":5909,"Ã¨ncia":5910,"telas":5911,"Ã²si":5912,"Ġminutas":5913,"aqueth":5914,"Ġsubrev":5915,"Ġclassic":5916,"Ġorganizat":5917,"ĠparticipÃ¨t":5918,"ĠPrin":5919,"Ġressorsas":5920,"ĠBuenos":5921,"enha":5922,"ĠpÃ¨s":5923,"Ġtos":5924,"ĠtÃ¨ma":5925,"Ġtaula":5926,"Ġesca":5927,"ĠCop":5928,"Ġrat":5929,"abitants":5930,"ands":5931,"cebre":5932,"Ġprece":5933,"Ġvenguts":5934,"estÃ³":5935,"Ġconsom":5936,"astron":5937,"edo":5938,"111":5939,"ĠmusÃ¨u":5940,"ĠrevÃ²uta":5941,"Ġpublicacion":5942,"Ġsuccession":5943,"Ġcontengut":5944,"ĠAsia":5945,"ĠSituada":5946,"950":5947,"uit":5948,"ĠÃ²c":5949,"Ġevol":5950,"alt":5951,"Ġunica":5952,"eleccion":5953,"ĠAires":5954,"Ġbut":5955,"ĠSas":5956,"ime":5957,"Ã²rs":5958,"Ġparaulas":5959,"dida":5960,"Ġ1997":5961,"icis":5962,"ĠNeg":5963,"Ġmeta":5964,"Ġcomptar":5965,"793":5966,"141":5967,"Ġaval":5968,"Ġgranas":5969,"Ã¨sson":5970,"Ġconegudas":5971,"Ġminer":5972,"ĠmodÃ¨rne":5973,"ĠdesvolopÃ¨t":5974,"Ġdiferent":5975,"Ġcromp":5976,"Ġ300":5977,"Ġrealizacion":5978,"Ġorganizada":5979,"Ġfoncionament":5980,"Ġtorre":5981,"Ġcollaboracion":5982,"Ġtransmission":5983,"Av":5984,"cte":5985,"raÃ¯na":5986,"Ġfres":5987,"Ġfac":5988,"Ġtuc":5989,"ĠbÃ¨s":5990,"ulon":5991,"Ãłdio":5992,"avÃ¨m":5993,"Ġ1998":5994,"Ġtrapa":5995,"oper":5996,"operacion":5997,"auts":5998,"ersion":5999,"132":6000,"ĠfarÃł":6001,"Ġcomunaut":6002,"Ġconcern":6003,"ĠarribÃ¨t":6004,"Ġestudiar":6005,"Ġfortal":6006,"Ġcategoria":6007,"Ã£o":6008,"Ġartifici":6009,"960":6010,"940":6011,"990":6012,"TA":6013,"gor":6014,"iblas":6015,"tem":6016,"asa":6017,"aro":6018,"ĠLan":6019,"elect":6020,"Ġbret":6021,"Ġpast":6022,"ĠNicol":6023,"Ġdieus":6024,"Ġ2019":6025,"797":6026,"Ġradi":6027,"ĠDep":6028,"737":6029,"ĠpermetÃ¨ron":6030,"Ġsubs":6031,"ĠRoergue":6032,"rimir":6033,"Ġescolans":6034,"Ġsatellit":6035,"Ġdesservie":6036,"Ġsuperficie":6037,"Ġhttp":6038,"Ġgarnison":6039,"980":6040,"ror":6041,"zo":6042,"Ġlitor":6043,"endres":6044,"Ġnat":6045,"Ġbel":6046,"leu":6047,"Ġalora":6048,"Ġparis":6049,"Ġplans":6050,"ĠacÃ²rd":6051,"Ġ1870":6052,"Ġescal":6053,"Ġsols":6054,"Ġchar":6055,"iller":6056,"Ġrevend":6057,"ĠFrancesa":6058,"Ġinternacional":6059,"Ġfabrica":6060,"Ġcaracteristica":6061,"ĠPortugal":6062,"ĠdiamÃ¨tre":6063,"col":6064,"tÃ¨ron":6065,"Ġdan":6066,"Ġmig":6067,"Ġtab":6068,"Ġbol":6069,"ĠRes":6070,"avent":6071,"ĠpoÃ¨ma":6072,"Ġtradu":6073,"Ġsie":6074,"792":6075,"essors":6076,"Ġcamins":6077,"ĠSegu":6078,"ĠtrÃ²":6079,"Ġfranceses":6080,"771":6081,"ĠconeguÃ¨t":6082,"Ġporta":6083,"ĠAvÃ¨m":6084,"ĠprÃ²pri":6085,"Ġjustament":6086,"Ġmanifestacion":6087,".;":6088,"465":6089,"bÃ²l":6090,"ania":6091,"ice":6092,"ĠPalais":6093,"dig":6094,"ĠGi":6095,"ĠVila":6096,"ĠNeu":6097,"ĠJup":6098,"ectiva":6099,"ĠHo":6100,"777":6101,"ĠgrÃ²ss":6102,"Ġinstitucion":6103,"Ġnocion":6104,"ĠcelÃ¨b":6105,"Ġshens":6106,"Ġcandidat":6107,"060":6108,"coma":6109,"Ġpaur":6110,"Ġeste":6111,"ĠEmp":6112,"Ġ1973":6113,"Ġira":6114,"142":6115,"ĠHu":6116,"exion":6117,"685":6118,"Ġsocietats":6119,"giguÃ¨t":6120,"Ġmajora":6121,"Ġarriba":6122,"ruccions":6123,"ĠcollÃ¨gi":6124,"Ġegipci":6125,"099":6126,"bilitat":6127,"nov":6128,"Ġlan":6129,"inv":6130,"universitat":6131,"oracion":6132,"Ġunitat":6133,"taine":6134,"airal":6135,"ĠDesc":6136,"ĠVar":6137,"Ġcomptava":6138,"791":6139,"Ġexclus":6140,"essions":6141,"ritge":6142,"688":6143,"ĠmaniÃ¨ra":6144,"Ġcorre":6145,"ĠâĢ¢":6146,"Ġdirigida":6147,"ĠprÃ²pria":6148,"Ġcrosada":6149,"ĠlicÃ¨u":6150,"informacion":6151,"050":6152,"ĠfÃ²nt":6153,"usal":6154,"chi":6155,"cher":6156,"apole":6157,"Ã¨sus":6158,"Ġ1989":6159,"ĠVall":6160,"ĠNon":6161,"Ġacte":6162,"artin":6163,"Ġrepublic":6164,"intÃ¨si":6165,"773":6166,"Ġlegitim":6167,"Ġpropor":6168,"ĠprogrÃ¨s":6169,"Ġlimitada":6170,"Ġajud":6171,"ĠpÃ¨rdas":6172,"ĠSituat":6173,"080":6174,"040":6175,"090":6176,"gÃ¨t":6177,"tic":6178,"onica":6179,"arma":6180,"Ġenvi":6181,"Ġgestion":6182,"diguÃ¨ron":6183,"ĠFon":6184,"Ġinclus":6185,"Ġier":6186,"ocant":6187,"Ġmarch":6188,"Ġromp":6189,"ĠsiÃ¡n":6190,"Ġclassificacion":6191,"ĠsciÃ©ncias":6192,"rilh":6193,"instru":6194,"Ġtribun":6195,"Ġsufis":6196,"Ġutil":6197,"Ġregularament":6198,"Ġborges":6199,"apelan":6200,"665":6201,"645":6202,"648":6203,"bert":6204,"fu":6205,"ho":6206,"jants":6207,"Ġdaval":6208,"atic":6209,"indic":6210,"und":6211,"ĠfÃ¨sta":6212,"Ġtras":6213,"ĠRet":6214,"aviÃ¡n":6215,"abriu":6216,"Ġ1918":6217,"ĠJan":6218,"Ġhon":6219,"Ġ1871":6220,"Ġcarg":6221,"ĠrecÃ¨rcas":6222,"Ġprince":6223,"Ġchap":6224,"teriors":6225,"esple":6226,"Ġobri":6227,"Ġarticles":6228,"Ġdepartaments":6229,"Ġsenhal":6230,"Ġ1790":6231,"Ġvaccin":6232,"Ġmedish":6233,"ĠvadÃ³":6234,"Ġciutadans":6235,"ĠFrederic":6236,"DN":6237,"ng":6238,"uei":6239,"quis":6240,"Ġreis":6241,"Ġbranca":6242,"Ġgost":6243,"ĠPers":6244,"Ġalmens":6245,"ĠBan":6246,"Ã¯ss":6247,"ĠJÃ¨sus":6248,"Ġmascul":6249,"rÃ¨ma":6250,"772":6251,"ronze":6252,"Ġcentrau":6253,"731":6254,"Ġmili":6255,"Ġmarcada":6256,"Ġmandar":6257,"Ġtesti":6258,"Ġnegociacions":6259,"848":6260,"OC":6261,"fre":6262,"unic":6263,"Ġvide":6264,"Ã§ats":6265,"ĠMed":6266,"ĠMichel":6267,"Ġparci":6268,"ĠFab":6269,"ĠTrans":6270,"Ġapre":6271,"684":6272,"Ġpassej":6273,"ĠpodriÃ¡":6274,"Ġcentres":6275,"Ã¨rnas":6276,"ĠArgent":6277,"Ġconfir":6278,"ĠnÃ²stres":6279,"teriorament":6280,"jectius":6281,"ĠentraÃ¯nant":6282,"Ġculte":6283,"romaine":6284,"545":6285,"velh":6286,"Ġstat":6287,"Ã²di":6288,"Ġvri":6289,"Ã¨li":6290,"ĠUÃ¨i":6291,"Ġautes":6292,"oute":6293,"Ġcenten":6294,"ĠmodÃ¨ls":6295,"ĠidÃ¨a":6296,"ĠViena":6297,"Ġsantat":6298,"548":6299,"845":6300,"ls":6301,"ns":6302,"uelh":6303,"ĠtÃ²r":6304,"auen":6305,"Ġvapor":6306,"Ġred":6307,"ĠJÃ²cs":6308,"ĠUc":6309,"emia":6310,"Ġimposs":6311,"utilizar":6312,"Ġreiau":6313,"Ġafaires":6314,"Ġestadas":6315,"Ġaquestas":6316,"euse":6317,"ĠfoguÃ¨sse":6318,"ĠjaponÃ©s":6319,"588":6320,"865":6321,"855":6322,"PirenÃ¨us":6323,"xi":6324,"Ġlectura":6325,"Ġmel":6326,"Ġbarri":6327,"Ġconte":6328,"Ġros":6329,"Ġrtas":6330,"Ġtanp":6331,"Ġexemp":6332,"Ġtempor":6333,"732":6334,"Ġquite":6335,"Ã²mes":6336,"Ġestacion":6337,"Ġglob":6338,"ĠconstituÃŃs":6339,"Ġdintrar":6340,"Ġocupa":6341,"Ġmolin":6342,"Ġsalv":6343,"Ġdisposicion":6344,"Ġoriginala":6345,"Ġcercle":6346,"ĠjustÃŃcia":6347,"Ġfaciar":6348,"ĠganhÃ¨t":6349,"ĠBernat":6350,"ĠSocietat":6351,"Ġquadre":6352,"565":6353,"ban":6354,"atac":6355,"istes":6356,"Ġvai":6357,"Ġbacin":6358,"imatge":6359,"ĠBri":6360,"ĠBourg":6361,"Ġincl":6362,"ĠHer":6363,"Ġsolar":6364,"Ġchif":6365,"Ã²sta":6366,"Ġtorisme":6367,"ĠTractat":6368,"Ġcantaire":6369,"Ġdiplomat":6370,"ĠGasconha":6371,"965":6372,"hat":6373,"oa":6374,"vos":6375,"zi":6376,"Ġdil":6377,"atica":6378,"Ġvig":6379,"Ġnaz":6380,"ĠCors":6381,"ural":6382,"Ġparlan":6383,"ĠBodon":6384,"Ġtradicions":6385,"Ġescricha":6386,"ĠconsistÃŃs":6387,"ĠdemÃ²ran":6388,"Ġrepression":6389,"ĠmaridÃ¨t":6390,"esperit":6391,"ĠJerusal":6392,"apoleon":6393,"pel":6394,"ony":6395,"Ġcen":6396,"itada":6397,"Ġquita":6398,"omin":6399,"Ġbanh":6400,"Ġconnect":6401,"ulat":6402,"Ġocean":6403,"idion":6404,"Ġ1962":6405,"Ġexa":6406,"Ġrecens":6407,"686":6408,"Ã¨ns":6409,"ificada":6410,"Ġstra":6411,"Ġpensa":6412,"ĠmercÃ©s":6413,"Ġpeisses":6414,"Ġusatge":6415,"Ġpresidenci":6416,"ĠaurÃł":6417,"ht":6418,"pus":6419,"tu":6420,"Ġcens":6421,"Ġedit":6422,"Ġesti":6423,"Ġvins":6424,"ĠCrotz":6425,"Ġantany":6426,"ĠTal":6427,"Ġdesvel":6428,"Ġinterior":6429,"ĠJust":6430,"opaus":6431,"aston":6432,"Ġtren":6433,"Ġcolom":6434,"ĠComission":6435,"Ġreiala":6436,"ressions":6437,"Ġonor":6438,"diccion":6439,"Ġartistas":6440,"Ġparticipacion":6441,"interÃ¨s":6442,"Ġnavig":6443,"Ġitaliana":6444,"Ġdialect":6445,"ĠfrontiÃ¨ra":6446,"Ġeveniment":6447,"ĠrÃ¨glas":6448,"ĠnuÃ¨ch":6449,"948":6450,"988":6451,"bon":6452,"lh":6453,"ll":6454,"oj":6455,"rina":6456,"uk":6457,"Î±":6458,"tein":6459,"Ġsar":6460,"Ġsit":6461,"orica":6462,"ray":6463,"Ġsequ":6464,"Ġarts":6465,"periment":6466,"escasenÃ§a":6467,"ĠpodÃ¨m":6468,"Ġseguit":6469,"elli":6470,"Ġbate":6471,"ĠMiqu":6472,"industria":6473,"Ġislam":6474,"tificat":6475,"Ġprotegir":6476,"Ġseleccion":6477,"Ġmatematicas":6478,"ĠHenri":6479,"ĠNarbona":6480,"945":6481,"955":6482,"RD":6483,"cel":6484,"och":6485,"Ã¨ja":6486,"Ġsor":6487,"Ġmult":6488,"itÃ¨r":6489,"Ġti":6490,"Ġnad":6491,"Ġconven":6492,"apr":6493,"Ġ1982":6494,"Ġcapable":6495,"Ġbasat":6496,"Ġcorona":6497,"Ġreial":6498,"Ġumanas":6499,"Ġsignat":6500,"Ġistorics":6501,"Ġobtenir":6502,"ĠLorraine":6503,"ĠconsequÃ©ncias":6504,"Ġdiscipl":6505,"ĠAugust":6506,"Alemanha":6507,"Ġ35":6508,"Ģustria":6509,"Ġlot":6510,"olet":6511,"ĠTom":6512,"mira":6513,"Ġpartisans":6514,"Ġgenier":6515,"683":6516,"Ġrotas":6517,"ĠArn":6518,"Ġtrobava":6519,"Ġcerem":6520,"Ġrsas":6521,"Ġgeomet":6522,"Ġcontrarot":6523,"Ġdaissar":6524,"Ġvivent":6525,"Ġpromocion":6526,"Ġconservat":6527,"Ġemplegat":6528,"Ġcarbon":6529,"ĠcollÃ¨gas":6530,"Ġmanifestacions":6531,"cap":6532,"eson":6533,"Ġcub":6534,"Ġfras":6535,"Ġtro":6536,"ĠLet":6537,"ĠCha":6538,"ĠMel":6539,"Ġaliats":6540,"utors":6541,"ĠBru":6542,"ĠRD":6543,"icitat":6544,"Ġentorn":6545,"ogen":6546,"Ġvilatges":6547,"Ã¨sses":6548,"Ġencausa":6549,"464":6550,"Ġfamili":6551,"ĠnovÃ¨ls":6552,"Ġqualqu":6553,"Ġfilmes":6554,"Ġrefugi":6555,"Ġrapid":6556,"ĠProv":6557,"Ġcorses":6558,"Ġportada":6559,"Ġposicions":6560,"ĠNew":6561,"Ġlargament":6562,"absÃ©ncia":6563,"iotÃ¨ca":6564,"Emp":6565,"si":6566,"ence":6567,"Ġcic":6568,"Ġfara":6569,"guer":6570,"Ġbanc":6571,"ĠClar":6572,"ĠSÃ¨r":6573,"Ġconn":6574,"urr":6575,"tatge":6576,"ĠpluÃ¨":6577,"Ġdivid":6578,"Ġinsc":6579,"udici":6580,"Ġmantuna":6581,"Ġrepresentants":6582,"Ġreng":6583,"ĠintÃ¨rna":6584,"ĠsupÃ²rt":6585,"Ġjogaire":6586,"Ġaccess":6587,"Ġpetr":6588,"ĠpurmÃ¨ra":6589,"Ġestand":6590,"ĠCiutat":6591,"088":6592,"oul":6593,"Ġls":6594,"arquitectura":6595,"Ġlach":6596,"ilitats":6597,"mbia":6598,"ĠBat":6599,"izont":6600,"acÃ²rd":6601,"blament":6602,"Ã¨gi":6603,"Ġdeputat":6604,"Ġcasuda":6605,"ĠÃįndia":6606,"ĠdemorÃ¨ron":6607,"ĠcastÃ¨th":6608,"organizar":6609,"lantic":6610,"Ġtirar":6611,"Aude":6612,"Ġcatedrala":6613,"ĠJupitÃ¨r":6614,"065":6615,"045":6616,"055":6617,"bat":6618,"dar":6619,"ial":6620,"Ġpp":6621,"Ġcicle":6622,"Ġmm":6623,"oras":6624,"rap":6625,"Ġts":6626,"Ġtam":6627,"elements":6628,"ĠSar":6629,"ĠSistÃ¨ma":6630,"ulari":6631,"ĠBur":6632,"ĠBert":6633,"ots":6634,"otic":6635,"Ġ1939":6636,"Ġreserv":6637,"Ġactes":6638,"ĠescriguÃ¨t":6639,"escal":6640,"escriure":6641,"Ã¨stras":6642,"ĠformÃ¨t":6643,"Ġaquestes":6644,"ĠpÃ²den":6645,"Ġverd":6646,"ĠCalif":6647,"Ġlimitrop":6648,"Ġproduchs":6649,"ĠlingÃ¼istic":6650,"ĠdialÃ¨ctes":6651,"Ġdificultat":6652,"ĠcomencÃ¨ron":6653,"048":6654,"rist":6655,"Ãª":6656,"ĠdÃŃs":6657,"Ã¨ga":6658,"Ġclav":6659,"orta":6660,"ical":6661,"Ġtub":6662,"Ġvescom":6663,"Ġperilh":6664,"Ġsem":6665,"airon":6666,"Ġconj":6667,"abri":6668,"Ġ1993":6669,"ĠresÃ¨r":6670,"const":6671,"Ġvalors":6672,"Ġnobl":6673,"ĠteniÃ¡":6674,"Ġmelhora":6675,"Ġportat":6676,"Ġdiscors":6677,"ennes":6678,"Ġalbum":6679,"ĠvÃ²te":6680,"ĠPhilip":6681,"ilibri":6682,"fabet":6683,"Ġsetmanas":6684,"Ġgalax":6685,"mos":6686,"âĤ":6687,"ash":6688,"Ġcerv":6689,"Ġedicions":6690,"rai":6691,"Ġfreg":6692,"ĠLis":6693,"dad":6694,"Ġperp":6695,"ĠSen":6696,"ull":6697,"ĠViv":6698,"ondas":6699,"Ġactiu":6700,"Ġradic":6701,"ĠHar":6702,"Ġdemocrat":6703,"exec":6704,"Ġtrenta":6705,"Ġdebat":6706,"Ġmetrop":6707,"occitanisme":6708,"Ġdrechs":6709,"Ġrsa":6710,"Ġsimpla":6711,"ĠeuropÃ¨as":6712,"Ġmediterran":6713,"ĠtribÃºs":6714,"Ġelabor":6715,"Ġclarament":6716,"Ġindustriala":6717,"Ġdegun":6718,"Ġfelib":6719,"Ġconquistar":6720,"Ġreflexion":6721,"encion":6722,"enatge":6723,"Ġdeh":6724,"Ġpent":6725,"Ġple":6726,"anz":6727,"ĠvÃ¨r":6728,"osau":6729,"ĠPlat":6730,"Ġconceb":6731,"eira":6732,"uros":6733,"ĠBour":6734,"Ġanc":6735,"ĠGov":6736,"Ġprot":6737,"Ġtang":6738,"Ġhe":6739,"Ġabitu":6740,"Ġcargat":6741,"Ġdonada":6742,"Ġmonuments":6743,"ĠSemb":6744,"orians":6745,"Ġtransfer":6746,"Ġpossession":6747,"bach":6748,"ĠcÃ²rdas":6749,"ĠveguÃ¨t":6750,"Ġevitar":6751,"ĠterrÃ¨stra":6752,"ĠpodiÃ¡n":6753,"Ġcollectiv":6754,"ĠassaiÃ¨t":6755,"obtenir":6756,"ĠcalendiÃ¨r":6757,"Egipte":6758,"ON":6759,"hes":6760,"jadas":6761,"km":6762,"environ":6763,"Ġaga":6764,"Ġeu":6765,"Ġreina":6766,"ĠCres":6767,"Ġparelh":6768,"irat":6769,"ĠRich":6770,"Ġsupaus":6771,"Ġapond":6772,"Ġcompeti":6773,"Ġchic":6774,"Ġdiferenta":6775,"Ġrespect":6776,"Ġcambiaments":6777,"Ġestablit":6778,"ĠNacional":6779,"Ġdissabte":6780,"espÃ¨cia":6781,"teroÃ¯":6782,"âĤ¬":6783,"585":6784,"ous":6785,"Ġbau":6786,"rod":6787,"Ġconfer":6788,"Ġcondem":6789,"Ġanal":6790,"ĠGard":6791,"hac":6792,"tanben":6793,"Ġ2018":6794,"empÃ¨ri":6795,"Ġseguenta":6796,"642":6797,"Ġtransc":6798,"Ġlocal":6799,"Ġnegra":6800,"Ã¨xte":6801,"ergÃ©ncia":6802,"Ġmagn":6803,"Ġmagerament":6804,"ĠdebanÃ¨ron":6805,"olitic":6806,"Ġmedievala":6807,"ĠDoas":6808,"ĠmÃ¨tge":6809,"ectivament":6810,"Ġha":6811,"Ġlou":6812,"Ġvore":6813,"ĠbÃ²rd":6814,"ĠPÃ¨rs":6815,"iadas":6816,"adin":6817,"ĠRou":6818,"Ġ1968":6819,"ĠentiÃ¨r":6820,"mida":6821,"ortar":6822,"eman":6823,"Ġesple":6824,"666":6825,"Ġdivin":6826,"372":6827,"ĠinterÃ¨s":6828,"ĠÃī":6829,"ĠAquitÃłnia":6830,"Ġcrom":6831,"Ġpresentan":6832,"estatut":6833,"ascuda":6834,"Ġvesin":6835,"Ġanimal":6836,"Ġcercar":6837,"Ġcaracteriza":6838,"Ġrestauracion":6839,"Ġtrucat":6840,"Ġacadem":6841,"educacion":6842,"Ġprecedent":6843,"Orient":6844,"anne":6845,"quista":6846,"rava":6847,"Ġfr":6848,"ĠCad":6849,"ĠMur":6850,"Ġ1996":6851,"Ġesposa":6852,"Ġrai":6853,"664":6854,"epar":6855,"maticas":6856,"Ġlocalizacion":6857,"ĠYork":6858,"Ġdoble":6859,"Ġdisparicion":6860,"Ġpintura":6861,"ĠpÃ¨rda":6862,"Ġganhar":6863,"Ġbearn":6864,"Ġdefinitivament":6865,"ĠCentrala":6866,"assegurar":6867,"ĠvidÃ¨":6868,"Ġlengadocian":6869,"ĠpetrÃ²li":6870,"At":6871,"ÏĤ":6872,"Ġdents":6873,"ĠsintÃ¨si":6874,"Ġtala":6875,"ĠvÃ²u":6876,"Ġaltern":6877,"ĠDens":6878,"ensenh":6879,"agne":6880,"ock":6881,"Ġgrans":6882,"682":6883,"Ġpersp":6884,"ĠdoÃ§":6885,"ologias":6886,"landa":6887,"Ġdescend":6888,"Ġmantuns":6889,"ĠfondÃ¨t":6890,"Ġdecid":6891,"ternet":6892,"Ġbalhar":6893,"Ġcolonia":6894,"Ġbesonhs":6895,"ĠmemÃ²ria":6896,"ĠWilliam":6897,"hu":6898,"oca":6899,"Ġeta":6900,"alla":6901,"eles":6902,"elim":6903,"olat":6904,"ĠAust":6905,"Ġcomarca":6906,"ĠMic":6907,"etn":6908,"istoc":6909,"Ġestre":6910,"astic":6911,"687":6912,"Ã¨nas":6913,"Ġcausit":6914,"ington":6915,"Ġsultan":6916,"Ġcampanhas":6917,"Ġimatge":6918,"Ġdecenn":6919,"Ġpagar":6920,"Ġdubertura":6921,"Ġelectron":6922,"ĠMaugrat":6923,"Ġreformas":6924,"Ġdotze":6925,"320":6926,"Ol":6927,"Pierre":6928,"Ã¤":6929,"ĠpÃ¨l":6930,"ason":6931,"Ġseunas":6932,"Ã²rmas":6933,"ĠFil":6934,"Ġ1994":6935,"ĠVern":6936,"ĠNauta":6937,"Ġtracta":6938,"ĠJa":6939,"Ġarma":6940,"Ġfait":6941,"ĠcÃ²la":6942,"Ġsituadas":6943,"ĠuÃ¨lhs":6944,"Ġpassant":6945,"Ã¯sme":6946,"Ġnota":6947,"Ġimatges":6948,"Ġemai":6949,"Loire":6950,"Ġcollectiu":6951,"ĠOlimp":6952,"ĠAlexandre":6953,"Ġpremsa":6954,"piracion":6955,"985":6956,"Ab":6957,"aost":6958,"vern":6959,"Ġlis":6960,"orar":6961,"Ġvon":6962,"ĠSci":6963,"Ġ1991":6964,"ages":6965,"Ġespandi":6966,"Ã²ple":6967,"371":6968,"ĠArt":6969,"Ġeconomics":6970,"Ġmotor":6971,"ĠnivÃ¨ls":6972,"Ġdobte":6973,"ault":6974,"Ġincend":6975,"landÃ©s":6976,"ĠviolÃ©ncia":6977,"ĠesquÃ¨rra":6978,"Ġcaracterizat":6979,"Ġcrestiana":6980,"Ġinicialament":6981,"Ġbrut":6982,"ĠrefusÃ¨t":6983,"ĠfenomÃ¨ns":6984,"Ġmainatges":6985,"ĠRodÃ©s":6986,"ĠMediterranÃ¨a":6987,"ĠdÃŃser":6988,"\").<|":6989,"bar":6990,"far":6991,"ĠÐ":6992,"Ġtensions":6993,"Ġretra":6994,"ĠSc":6995,"Ġot":6996,"ĠDec":6997,"Ã¨stes":6998,"Ġ1972":6999,"ĠEnter":7000,"Ã¯st":7001,"Ġarbre":7002,"Ġhas":7003,"ĠOs":7004,"Ġautomat":7005,"escamb":7006,"anglÃ©s":7007,"Ġconsiderar":7008,"Ġcontunhar":7009,"region":7010,"ĠPaÃ¯s":7011,"Ġdetalh":7012,"ĠpotÃ©ncia":7013,"Ġdestruit":7014,"ĠCastelha":7015,"ĠDavid":7016,"Ġfortalesa":7017,"mond":7018,"ux":7019,"Ġur":7020,"orre":7021,"Ġfic":7022,"ity":7023,"ĠperquÃ©":7024,"Ġbaiss":7025,"Ġrti":7026,"ĠRa":7027,"ĠTen":7028,"igracion":7029,"ĠGaston":7030,"ĠIst":7031,"Ġexterior":7032,"Ã¨gle":7033,"590":7034,"681":7035,"663":7036,"ĠGuill":7037,"Ġconflu":7038,"ĠjaÃ§":7039,"ĠprenguÃ¨ron":7040,"Ġfasi":7041,"Ġlatitud":7042,"ĠBelgica":7043,"Ġmostrar":7044,"ĠMejan":7045,"esquÃ¨rra":7046,"ĠsÃ²ns":7047,"ĠvertadiÃ¨rament":7048,"adopcion":7049,"lig":7050,"yl":7051,"Ġcte":7052,"ero":7053,"quer":7054,"Ġlabor":7055,"aprÃ¨s":7056,"abans":7057,"005":7058,"umas":7059,"Ġregard":7060,"Ġbasas":7061,"Ġ400":7062,"Ġvesina":7063,"Ġoficial":7064,"Ġministres":7065,"Ġtribalh":7066,"Ġdifus":7067,"Ġtax":7068,"ĠJacques":7069,"ĠReceb":7070,"ĠPeter":7071,"Ġoperacions":7072,"ĠcarbÃ²ni":7073,"AnglatÃ¨rra":7074,"vament":7075,"Ġpend":7076,"Ġeire":7077,"Ġga":7078,"ĠSil":7079,"Ã©l":7080,"ĠRiv":7081,"ĠForm":7082,"Ġ1900":7083,"Ġvilla":7084,"Ã¨cs":7085,"ĠmestiÃ¨r":7086,"ĠComtat":7087,"Ġseguents":7088,"ĠatÃ©nher":7089,"Ġtransmet":7090,"Ġutilizadas":7091,"Ġnosautres":7092,"armas":7093,"engat":7094,"Ġcatalans":7095,"rador":7096,"Ġvocacion":7097,"ocupacion":7098,"ĠpossedÃŃs":7099,"Qu":7100,"jos":7101,"rs":7102,"rena":7103,"cit":7104,"aliment":7105,"Ġgre":7106,"rois":7107,"Ġjonh":7108,"iditat":7109,"Ġtrapar":7110,"oposicion":7111,"Ġraub":7112,"Ã²ns":7113,"Ġmusicians":7114,"Ġtrobador":7115,"Ġlimitar":7116,"And":7117,"ĠAviÃ¡":7118,"Ġsuplement":7119,"Ġendrech":7120,"Ġenfant":7121,"ĠSolelh":7122,"ĠCanad":7123,"ĠBerlin":7124,"ĠJacme":7125,"Sa":7126,"vada":7127,"ĠÃ¨st":7128,"ĠdempÃºs":7129,"Ġaustri":7130,"ĠcÃ¨rca":7131,"ĠmÃ²st":7132,"Ġunitats":7133,"ella":7134,"ĠAub":7135,"Ġredu":7136,"otÃ¨si":7137,"ĠUnion":7138,"661":7139,"667":7140,"Ġstas":7141,"ĠFois":7142,"emplec":7143,"Ġconstituisson":7144,"Ġ600":7145,"Ġefectu":7146,"Ġcorrents":7147,"ÃĴC":7148,"Ġcomprene":7149,"ĠrecuÃ¨lh":7150,"ĠÃ§ai":7151,"ĠJerusalÃ¨m":7152,"El":7153,"OP":7154,"lip":7155,"onic":7156,"iner":7157,"Ġmira":7158,"ĠvÃ²stre":7159,"ositat":7160,"ĠPaci":7161,"adama":7162,"istoire":7163,"ĠRenaissenÃ§a":7164,"Ã¨sis":7165,"Ġ1919":7166,"ĠVir":7167,"Ġexerci":7168,"Ġestrech":7169,"Ġsolet":7170,"ĠnovÃ¨us":7171,"heim":7172,"Ġretrob":7173,"Ġfotograf":7174,"ĠGeorg":7175,"Ġtriangle":7176,"ĠtranspÃ²rt":7177,"interess":7178,"085":7179,"120":7180,"220":7181,"235":7182,"238":7183,"dan":7184,"rÃłn":7185,"Ġdal":7186,"Ġmut":7187,"antar":7188,"ĠMond":7189,"ĠoÃ¨st":7190,"ade":7191,"cho":7192,"ĠGÃł":7193,"Ġ1974":7194,"ĠIÃ¨r":7195,"gaz":7196,"Ġpreserv":7197,"ĠUniversitat":7198,"ĠAnn":7199,"ĠFrancis":7200,"Ġcases":7201,"Ġtrobadors":7202,"Ġdestinat":7203,"Ġarabi":7204,"Ġtradicional":7205,"ĠefÃ¨cte":7206,"Ġreligiosas":7207,"ĠOrl":7208,"ĠgrÃ¨cs":7209,"Ġesperar":7210,"Ġtoponim":7211,"ĠJuan":7212,"ÃĪst":7213,"Ġtrompeta":7214,"ĠenlÃł":7215,"AcadÃ¨mia":7216,"135":7217,"136":7218,"138":7219,"318":7220,"334":7221,"bal":7222,"lov":7223,"pr":7224,"itÃ¨cte":7225,"ampar":7226,"ĠActu":7227,"Ġreda":7228,"Ġbac":7229,"Ġcondam":7230,"Ġ1967":7231,"Ġsuber":7232,"Ġora":7233,"440":7234,"Ġrecentament":7235,"Ġluchar":7236,"Ġguitar":7237,"Ġdoct":7238,"467":7239,"Ġassassinat":7240,"Ġinspir":7241,"Ġensenhament":7242,"Ġparticulara":7243,"Ġepis":7244,"Ġblau":7245,"Ġsingular":7246,"ĠapareguÃ¨t":7247,"Ġmoleculas":7248,"Ãłriament":7249,"ĠJoseph":7250,"Ġtemperaturas":7251,"125":7252,"118":7253,"128":7254,"134":7255,"325":7256,"ĠÅ":7257,"Ġaim":7258,"Ġcitat":7259,"Ġcrat":7260,"ĠLat":7261,"Ġvest":7262,"Ġenergia":7263,"ĠEt":7264,"Ã©der":7265,"ĠBressa":7266,"Ġrestabl":7267,"Ġprieur":7268,"Ġreglament":7269,"ifÃ¨rs":7270,"ratz":7271,"ĠvoliÃ¡":7272,"ĠApr":7273,"Ġdevath":7274,"Ġcompausats":7275,"Ġsignatura":7276,"Ġimmedi":7277,"Ġsuccessor":7278,"Ġresponsa":7279,"Ġcolonizacion":7280,"ĠcaractÃ¨rs":7281,"espÃ¨cias":7282,"ĠFelibritge":7283,"174":7284,"139":7285,"218":7286,"226":7287,"229":7288,"275":7289,"216":7290,"278":7291,"276":7292,"239":7293,"326":7294,"336":7295,"338":7296,"cada":7297,"iel":7298,"ms":7299,"Ġaran":7300,"ange":7301,"ĠcÃł":7302,"cili":7303,"Ġmari":7304,"icala":7305,"omo":7306,"adap":7307,"ĠBl":7308,"issatge":7309,"avel":7310,"idat":7311,"Ġtest":7312,"Ġauri":7313,"Ġespel":7314,"ĠOtom":7315,"Ġrecamp":7316,"Ġencarg":7317,"Ġmetall":7318,"Ġcoa":7319,"Ġmenada":7320,"Ġpatron":7321,"ĠaiÃ§Ã²":7322,"istian":7323,"Ġfilhs":7324,"Ġparlars":7325,"Ġmontanh":7326,"Ġvegadas":7327,"Ġindependenta":7328,"Ġbordure":7329,"126":7330,"175":7331,"116":7332,"234":7333,"378":7334,"339":7335,"720":7336,"AL":7337,"Ag":7338,"oie":7339,"uga":7340,"isne":7341,"itors":7342,"omic":7343,"Ġbud":7344,"Ġ149":7345,"ĠEv":7346,"Ġparlat":7347,"Ġ1985":7348,"Ġ1983":7349,"Ġ1992":7350,"ĠdiguÃ¨t":7351,"Ġdioc":7352,"Ġaparten":7353,"cedir":7354,"ĠhÃ©":7355,"Ġabb":7356,"Ġreforma":7357,"ĠnÃ²stras":7358,"ĠrealizÃ¨t":7359,"Ġposit":7360,"Ġfondator":7361,"Ġdominant":7362,"ĠColl":7363,"ĠpÃ²rtas":7364,"Ġcellulas":7365,"Ġrevendic":7366,"178":7367,"225":7368,"228":7369,"236":7370,"328":7371,"375":7372,"316":7373,"374":7374,"fr":7375,"Ġdit":7376,"invasion":7377,"Ġflan":7378,"ĠLiga":7379,"ĠLemosin":7380,"Ġsed":7381,"ĠCass":7382,"Ġconca":7383,"ĠMexic":7384,"ranÃ§a":7385,"adre":7386,"Ġ1948":7387,"arais":7388,"Ġmedecina":7389,"Ġentrepresas":7390,"ĠHan":7391,"ratges":7392,"Ã¨mis":7393,"ĠcausÃ¨t":7394,"Ġrespond":7395,"Ġligadas":7396,"ralha":7397,"Ġrealizada":7398,"expansion":7399,"ĠpÃ¨iras":7400,"Ġdiscuss":7401,"Ġmorf":7402,"Ã³ncia":7403,"Ġvivon":7404,"Ġtuat":7405,"ĠagricÃ²la":7406,"Ġagricultura":7407,"Ġ1793":7408,"Ġadministrativa":7409,"ĠAntoni":7410,"ĠAlbert":7411,"Ġbenefici":7412,"ĠprumÃ¨r":7413,"Ġcastelhan":7414,"Ġfemenin":7415,"Ġvriulon":7416,"ĠSÃ¨rgi":7417,"129":7418,"274":7419,"329":7420,"335":7421,"376":7422,"620":7423,"718":7424,"726":7425,"776":7426,"739":7427,"zar":7428,"one":7429,"Ġpale":7430,"Ã¨ch":7431,"erta":7432,"Ġmapa":7433,"univÃ¨rs":7434,"rian":7435,"Ġvast":7436,"guÃ¨sse":7437,"Ġband":7438,"ĠCorn":7439,"otte":7440,"difici":7441,"auss":7442,"Ġambe":7443,"Ġ1986":7444,"ĠVos":7445,"ĠNapoleon":7446,"Ġtel":7447,"ĠEns":7448,"Ġsag":7449,"Ġresistir":7450,"Ġhens":7451,"essus":7452,"esten":7453,"690":7454,"Ġpassan":7455,"Ġadul":7456,"Ġobratge":7457,"Ġroja":7458,"Ġexplica":7459,"ĠAquestes":7460,"Ġrapida":7461,"ĠdefinÃŃs":7462,"Ġcaduna":7463,"Ġautoroute":7464,"Ġevident":7465,"ĠTotas":7466,"Ġpetit":7467,"Ġresponsable":7468,"Ġsacri":7469,"Ġinstallat":7470,"Ġsovietica":7471,"Ġlumin":7472,"Ġproporcion":7473,"775":7474,"716":7475,"778":7476,"735":7477,"734":7478,"ium":7479,"Ġaja":7480,"ati":7481,"inet":7482,"Ġfib":7483,"ĠLong":7484,"Ġviva":7485,"ĠCir":7486,"ĠClu":7487,"ĠPop":7488,"eir":7489,"ĠVau":7490,"Ġiran":7491,"ĠcÃ²m":7492,"ĠseriÃ¡n":7493,"Ġrecom":7494,"Ġdispar":7495,"Ġcentr":7496,"iano":7497,"ĠviÃ¨lha":7498,"ĠParis":7499,"Ġafebl":7500,"Ġexplor":7501,"Ġvariacions":7502,"legar":7503,"inhon":7504,"Ġoriginal":7505,"Ġmeridion":7506,"ĠPeit":7507,"Ġmescla":7508,"Ġmencionat":7509,"rogÃ¨n":7510,"Ġarbres":7511,"ĠEncara":7512,"Ġpartementale":7513,"ĠProvÃŃn":7514,"ĠRecebÃ¨t":7515,".-":7516,"110":7517,"725":7518,"729":7519,"728":7520,"736":7521,"774":7522,"738":7523,"Martin":7524,"gier":7525,"ote":7526,"Ã¨rem":7527,"Ġsai":7528,"Ġeb":7529,"Ġquoti":7530,"ĠLev":7531,"Ġ1789":7532,"Ġgasc":7533,"ĠPÃ²t":7534,"ĠDr":7535,"lain":7536,"Ġexpaus":7537,"ocada":7538,"Ġacamp":7539,"empach":7540,"Ġmila":7541,"Ġcapitada":7542,"Ã²se":7543,"Ġestatut":7544,"Ġlocaus":7545,"Ġespecif":7546,"Ġnegres":7547,"ejar":7548,"ĠnombrÃ³s":7549,"ergat":7550,"ĠpaÃ¯sans":7551,"fach":7552,"ĠcelÃ¨bre":7553,"ĠproteÃ¯nas":7554,"ĠvÃ²lon":7555,"Ġsentiment":7556,"Ġcolonias":7557,"ĠNiÃ§a":7558,"ectacle":7559,"Ġexactament":7560,"130":7561,"958":7562,"Ur":7563,"jant":7564,"rics":7565,"onesa":7566,"Ġcur":7567,"ises":7568,"Ġtas":7569,"Ġbronze":7570,"rov":7571,"ĠDou":7572,"Ġ1936":7573,"accep":7574,"objÃ¨ctes":7575,"Ġib":7576,"Ġresol":7577,"rits":7578,"ĠComencÃ¨t":7579,"ĠtrobÃ¨t":7580,"Ġjosie":7581,"Ġefec":7582,"Ġcantar":7583,"ĠsortiguÃ¨t":7584,"ĠmassÃŃs":7585,"Ġmitologia":7586,"Ġsecretari":7587,"ĠdarrÃ¨r":7588,"Ġlududes":7589,"Ġtostemps":7590,"Ġmiliards":7591,"310":7592,"ker":7593,"ĠÃ¨ss":7594,"Ġ65":7595,"ĠlÃ¨i":7596,"inada":7597,"ĠtÃ¨mas":7598,"Ġved":7599,"ĠnÃ²ta":7600,"Ġbranc":7601,"Ġbizant":7602,"ĠCau":7603,"ĠDeu":7604,"Ġparets":7605,"ĠRN":7606,"ĠRÃ²ca":7607,"ĠTel":7608,"ĠprÃ²va":7609,"Ġ1975":7610,"Ġ1901":7611,"Ġtraces":7612,"ĠÂ°":7613,"Ġpresas":7614,"emat":7615,"ĠhÃ¨it":7616,"Ġrecer":7617,"Ġrecors":7618,"Ġcausir":7619,"Ġvielh":7620,"ĠFrance":7621,"donn":7622,"Ġdiferenci":7623,"Ġcampion":7624,"ĠEstudi":7625,"arck":7626,"Ġespecific":7627,"Anjau":7628,"Ġsignes":7629,"Ġpremiers":7630,"Ġindica":7631,"Ġmarcar":7632,"ĠCorÃ¨a":7633,"ĠfÃ²rtament":7634,"Ġdatant":7635,"Ġpossibla":7636,"Ġoperacion":7637,"ĠconoguÃ¨t":7638,"Ġrural":7639,"Ġcontinuament":7640,"Ġproprietari":7641,"Ġviscut":7642,"ĠPichon":7643,"330":7644,"Aur":7645,"fis":7646,"ski":7647,"entes":7648,"antes":7649,"esn":7650,"orig":7651,"iles":7652,"ĠServ":7653,"ĠVa":7654,"opia":7655,"Ġprivat":7656,"Ġplanetas":7657,"Ġcalif":7658,"giÃ¨rs":7659,"Ġcrist":7660,"explor":7661,"Ġrenfor":7662,"Ġoposicion":7663,"Ġespaciala":7664,"Ġcomercial":7665,"Ġrecebut":7666,"Ġadoptat":7667,"Ġbilin":7668,"actuala":7669,"Ġcirculacion":7670,"Ġmestre":7671,"Ġmalhum":7672,"ĠCanadÃł":7673,"230":7674,"210":7675,"oi":7676,"wa":7677,"ĠdanÃ§":7678,"orian":7679,"Ġfun":7680,"ĠtÃ¨sta":7681,"Ġeneb":7682,"Ġ160":7683,"rodus":7684,"tig":7685,"apren":7686,"ĠGau":7687,"Ġinaugu":7688,"Ġ1932":7689,"Ã¨rament":7690,"ĠVille":7691,"008":7692,"009":7693,"Ġcapables":7694,"Ġarron":7695,"dec":7696,"ĠhÃ¨r":7697,"esse":7698,"Ġtermin":7699,"Ġreputacion":7700,"Ġpassion":7701,"Ġcomunista":7702,"ours":7703,"Ġdebana":7704,"ĠservÃŃs":7705,"Ġactuau":7706,"ĠrenfÃ²rÃ§":7707,"Ġassociat":7708,"Ġcobr":7709,"Ġindividu":7710,"Ġinstruments":7711,"ARN":7712,"isfÃ¨ri":7713,"ĠGeorge":7714,"aperaquÃŃ":7715,"Ġcomportament":7716,"ĠRepresentacion":7717,"170":7718,"aja":7719,"dica":7720,"java":7721,"lacion":7722,"mai":7723,"Ġsp":7724,"Ġsop":7725,"Ġcit":7726,"Ġcima":7727,"Ġcuri":7728,"entar":7729,"ĠSel":7730,"ĠSuc":7731,"ĠMans":7732,"ranqu":7733,"diana":7734,"Ġmairala":7735,"Ġ1979":7736,"Ġ1965":7737,"izats":7738,"004":7739,"Ġteles":7740,"Ġarc":7741,"Ġauc":7742,"Ã¨rsa":7743,"Ġexperiment":7744,"Ġresulta":7745,"rast":7746,"Ġpeleg":7747,"598":7748,"Ġansin":7749,"ĠrelÃ¨u":7750,"Ġvien":7751,"Ġcald":7752,"Ġsocialas":7753,"ĠgrÃ²s":7754,"Ġprovis":7755,"Ġpublicar":7756,"Ġreconegut":7757,"Ġnaturalas":7758,"Ġporg":7759,"ienne":7760,"Ġdispon":7761,"ĠFaguÃ¨t":7762,"andie":7763,"Ġprimit":7764,"Ġprobable":7765,"Ġquimia":7766,"ĠBernard":7767,"analisi":7768,"Ġenemics":7769,"Ġritme":7770,"Ġnoblesa":7771,"370":7772,"730":7773,"770":7774,"lob":7775,"Ġ75":7776,"inci":7777,"inats":7778,"Ġmissions":7779,"alicion":7780,"entin":7781,"ĠquÃ©":7782,"Ġenfin":7783,"Ġrepert":7784,"Ġbul":7785,"Ġ1000":7786,"ĠEdicions":7787,"ĠMapa":7788,"ĠalianÃ§a":7789,"Ġprojec":7790,"Ġ1964":7791,"ĠVend":7792,"006":7793,"ĠJames":7794,"Ġestructuras":7795,"alhon":7796,"Ġmonarquia":7797,"490":7798,"Ġclara":7799,"Ġregionala":7800,"Ġexplicar":7801,"Ġnacionalas":7802,"Ġartistica":7803,"Ġportant":7804,"Ġocupada":7805,"Ġdispos":7806,"Ġobligat":7807,"Â».<|":7808,"ĠprovenÃ§au":7809,"iniciativa":7810,"Ġriquesa":7811,"270":7812,"IB":7813,"gger":7814,"ks":7815,"enaris":7816,"imas":7817,"ider":7818,"Ġ1981":7819,"ĠVes":7820,"ĠImp":7821,"ĠformÃ¨ron":7822,"Ġpersec":7823,"eval":7824,"Ġconfirm":7825,"ĠMonts":7826,"Ġelim":7827,"ejatz":7828,"Ġculturau":7829,"Ġbarris":7830,"ĠmenaÃ§a":7831,"Ġestudiants":7832,"ĠJosÃ©":7833,"Ġvinha":7834,"establiment":7835,"Ġsovietic":7836,"umanitat":7837,"415":7838,"476":7839,"nada":7840,"uran":7841,"uca":7842,"entr":7843,"Ġtucs":7844,"rana":7845,"Ġsonat":7846,"Ã²rra":7847,"otam":7848,"ĠFont":7849,"ĠVel":7850,"ĠNig":7851,"Ġdiri":7852,"Ã©ser":7853,"Ġarqu":7854,"Ġconstell":7855,"licat":7856,"Ġsoven":7857,"Ġlocals":7858,"Ġprenon":7859,"Ġbastidas":7860,"Ġdemorava":7861,"Ġparticulas":7862,"Ġasiat":7863,"Ġintens":7864,"inhan":7865,"Ġdaissa":7866,"Ġretirar":7867,"Ġdinam":7868,"Ġlogici":7869,"Ġconcentracion":7870,"Ġinferiora":7871,"ĠVilatge":7872,"ĠsÃ²rre":7873,"ĠPremiera":7874,"ĠParticip":7875,"058":7876,"420":7877,"419":7878,"414":7879,"475":7880,"438":7881,"439":7882,"king":7883,"we":7884,"enter":7885,"onat":7886,"Ã¨ia":7887,"Ġlab":7888,"Ã²ia":7889,"Ġfals":7890,"ĠLuc":7891,"amer":7892,"Ġrect":7893,"Ġsectors":7894,"ĠBig":7895,"ave":7896,"Ġ1969":7897,"agn":7898,"ĠcÃ²de":7899,"Ã¨cas":7900,"595":7901,"Ġmanusc":7902,"Ġprovo":7903,"ĠJoana":7904,"egudas":7905,"Ġrepresentan":7906,"Ġrepresentar":7907,"Ġoficiau":7908,"ĠentraÃ¯nar":7909,"acaba":7910,"Ġnecessitat":7911,"Ġdirigir":7912,"Ġversions":7913,"Ġnomenats":7914,"gny":7915,"ĠMolin":7916,"Ġataca":7917,"olÃ²gs":7918,"095":7919,"479":7920,"478":7921,"628":7922,"710":7923,"Occitan":7924,"nis":7925,"pret":7926,"Î¹":7927,"Ġdors":7928,"teb":7929,"entat":7930,"isan":7931,"ĠLeg":7932,"Ġunes":7933,"ĠAst":7934,"Ġrej":7935,"Ġbru":7936,"Ġrisc":7937,"ĠBism":7938,"ĠVia":7939,"ĠNad":7940,"Ġpreci":7941,"estats":7942,"Ġrecomp":7943,"encÃ¨ron":7944,"Ġamont":7945,"lars":7946,"ĠtrabalhÃ¨t":7947,"Ġjosieus":7948,"Ġligats":7949,"ĠrenfÃ²r":7950,"Ġrestaur":7951,"ĠCastell":7952,"Ġdevesit":7953,"Ġrussa":7954,"ĠCIRD":7955,"098":7956,"425":7957,"418":7958,"426":7959,"416":7960,"436":7961,"619":7962,"618":7963,"626":7964,"634":7965,"874":7966,"bus":7967,"Ġestelas":7968,"Ġregul":7969,"Ġbandi":7970,"Ġcondu":7971,"ĠMet":7972,"Ã©e":7973,"ĠrÃ¨stas":7974,"ĠDra":7975,"apt":7976,"aper":7977,"Ġjardin":7978,"Ġespand":7979,"Ã²lta":7980,"edic":7981,"Ġreparti":7982,"ĠpolonÃ©s":7983,"ingo":7984,"463":7985,"Ġvira":7986,"Ġutiliza":7987,"ĠcaÃ§a":7988,"Ġvisita":7989,"ombra":7990,"Ġtenir":7991,"Ġprofiech":7992,"Ġtradicionalas":7993,"Ġtecnologia":7994,"Ġjogaires":7995,"Ġpracticas":7996,"Ġculturalas":7997,"Ġrebat":7998,"ĠdialÃ²g":7999,"Ġpausar":8000,"Ġcandidats":8001,"Ġimperiala":8002,"ĠmodÃ¨rnes":8003,"Ġprecipitacions":8004,"ĠPhilippe":8005,"ĠBismarck":8006,"424":8007,"429":8008,"428":8009,"435":8010,"474":8011,"434":8012,"625":8013,"679":8014,"624":8015,"614":8016,"629":8017,"675":8018,"616":8019,"638":8020,"639":8021,"UR":8022,"hÃ¨":8023,"tament":8024,"Ġail":8025,"union":8026,"ito":8027,"auriÃ¡":8028,"olar":8029,"ĠAj":8030,"Ġremont":8031,"Ġreaccions":8032,"ĠSei":8033,"Ã§ois":8034,"istat":8035,"ĠBay":8036,"ĠFra":8037,"Ġ1976":8038,"acad":8039,"ecta":8040,"445":8041,"461":8042,"Ġromanas":8043,"especi":8044,"Ġ800":8045,"Ġdiscu":8046,"Ġproduches":8047,"ĠpapiÃ¨r":8048,"ĠdemandÃ¨t":8049,"Ġprecision":8050,"ograph":8051,"accÃ¨s":8052,"ĠbÃ²sc":8053,"ĠÃ§aquel":8054,"ĠSembla":8055,"615":8056,"678":8057,"635":8058,"636":8059,"676":8060,"674":8061,"ĠdÃ¯":8062,"Ġmori":8063,"entu":8064,"Ġquina":8065,"ico":8066,"Ġtamb":8067,"dadas":8068,"Ġnh":8069,"tagon":8070,"rovi":8071,"Ã§ament":8072,"imb":8073,"adiÃ¡":8074,"ensis":8075,"ĠRoss":8076,"Ġ1978":8077,"Ġ1921":8078,"Ġ1933":8079,"Ġ1961":8080,"Ġteiss":8081,"Ġ2016":8082,"Ġprior":8083,"arts":8084,"Ġgenres":8085,"experiÃ©ncia":8086,"Ġtornat":8087,"ĠKh":8088,"Ġrevira":8089,"Ġannex":8090,"Ġcoord":8091,"Ġaragon":8092,"Ġomenatge":8093,"Ġcambra":8094,"ĠcomencÃ¨":8095,"ĠnÃ²vas":8096,"Ġextremitat":8097,"879":8098,"NC":8099,"dors":8100,"je":8101,"Ð°":8102,"ĠÃ©s":8103,"engu":8104,"Ġcro":8105,"unta":8106,"ortacion":8107,"Ġfec":8108,"Ġredig":8109,"Ġbod":8110,"Ġbrasil":8111,"ĠBau":8112,"ĠTar":8113,"ĠVit":8114,"ĠVers":8115,"ĠcontÃ¨xte":8116,"Ġcarr":8117,"estra":8118,"ĠHe":8119,"695":8120,"ĠChal":8121,"Ġchaus":8122,"Ġpublicas":8123,"Ã¨rias":8124,"Ġestatjants":8125,"Ġlongas":8126,"efÃ¨cte":8127,"Ġvalent":8128,"Ġistorians":8129,"embl":8130,"Ġnotada":8131,"afond":8132,"ĠnecessÃłria":8133,"Ġ''":8134,"ĠdirÃ¨cte":8135,"Ġurbana":8136,"ĠtendÃ©ncia":8137,"ĠAntÃ²ni":8138,"Ġaperat":8139,"informacions":8140,"ĠCorsega":8141,"Ġdesvelop":8142,"fas":8143,"oun":8144,"Î½":8145,"Ġculh":8146,"Ġnim":8147,"Ġblat":8148,"Ġbois":8149,"ĠSants":8150,"antat":8151,"abat":8152,"ĠNimes":8153,"europ":8154,"Ġ1860":8155,"599":8156,"698":8157,"ipÃ¨dia":8158,"Ãłndia":8159,"662":8160,"Ġvolcans":8161,"Ġelas":8162,"Ġlocutors":8163,"efi":8164,"ĠMay":8165,"ajudar":8166,"ĠdescobÃ¨rt":8167,"Ġfebrier":8168,"ĠIsraÃ¨l":8169,"ĠSaladin":8170,"ĠbraÃ§":8171,"ĠfotbÃ²l":8172,"ĠprÃ²cha":8173,"ĠacceptÃ¨t":8174,"Ġadministratiu":8175,"Ġirre":8176,"ĠPacific":8177,"518":8178,"578":8179,"by":8180,"xemb":8181,"Ġdedins":8182,"Ġped":8183,"anti":8184,"unica":8185,"isla":8186,"Ġty":8187,"Ġtardi":8188,"riz":8189,"ĠenqÃ¼":8190,"Ġpera":8191,"Ġnaus":8192,"gument":8193,"olon":8194,"Ġbro":8195,"Ġborg":8196,"ĠTrob":8197,"Ġ1946":8198,"ĠVista":8199,"ĠpoÃ«":8200,"orsa":8201,"Ġexig":8202,"emont":8203,"ĠfinanÃ§":8204,"ĠUnivers":8205,"Ġelevat":8206,"ĠArch":8207,"Ġerig":8208,"ĠmenÃ¨t":8209,"ĠRoch":8210,"Ġvege":8211,"Ġmorir":8212,"Albi":8213,"Ġbonas":8214,"Ġinvesti":8215,"ĠGeneralitat":8216,"ĠCastÃ¨l":8217,"ĠBlanc":8218,"Ġempachar":8219,"ĠMoselle":8220,"ĠBritanics":8221,"ĠtrÃ²Ã§":8222,"Ġapreci":8223,"ĠArgentina":8224,"ĠGuillaume":8225,"529":8226,"535":8227,"820":8228,"819":8229,"825":8230,"826":8231,"814":8232,"828":8233,"815":8234,"836":8235,"834":8236,"838":8237,"839":8238,"balha":8239,"my":8240,"rut":8241,"uari":8242,"Ġedifici":8243,"rie":8244,"Ġdeleg":8245,"ĠconferÃ©ncia":8246,"ĠExt":8247,"Ġsona":8248,"ĠBulg":8249,"ĠTa":8250,"ĠprÃ²sa":8251,"ĠNas":8252,"ĠJorn":8253,"ĠJaume":8254,"Ġhem":8255,"Ġord":8256,"exterior":8257,"ĠAncian":8258,"ĠseguÃŃs":8259,"Ġrob":8260,"Ġrevistas":8261,"Ġels":8262,"Anautita":8263,"rÃłlia":8264,"Ġdobla":8265,"ĠministÃ¨ri":8266,"Ġinternacionau":8267,"Ġdimenge":8268,"Ġweb":8269,"Ġrurala":8270,"ĠportuguÃ©s":8271,"telligÃ©ncia":8272,"ĠGovÃ¨rn":8273,"ĠPaÃ¯ses":8274,"520":8275,"519":8276,"525":8277,"526":8278,"514":8279,"515":8280,"516":8281,"536":8282,"574":8283,"534":8284,"630":8285,"818":8286,"824":8287,"829":8288,"875":8289,"816":8290,"878":8291,"835":8292,"876":8293,"Se":8294,"rÃŃ":8295,"quist":8296,"orv":8297,"ortat":8298,"itament":8299,"ĠLar":8300,"ĠCD":8301,"ĠCultura":8302,"ĠPren":8303,"Ãłbia":8304,"Ġdestac":8305,"ĠGren":8306,"emisfÃ¨ri":8307,"ĠQuau":8308,"890":8309,"ĠAlbi":8310,"ĠPermet":8311,"462":8312,"manhe":8313,"Ġmilion":8314,"Ġpersonala":8315,"ĠApol":8316,"ĠCarn":8317,"ĠmetÃ²des":8318,"ĠpresentÃ¨t":8319,"Ġmite":8320,"vasions":8321,"Ġpesca":8322,"ĠSoleu":8323,"Ġtraversada":8324,"Ġtuar":8325,"Ġnormalament":8326,"Ġadaigat":8327,"Ġferrovi":8328,"enfant":8329,"ĠindividÃºs":8330,"individ":8331,"ĠcongrÃ¨s":8332,"Ġsieuna":8333,"Ġmasculin":8334,"Ġestandard":8335,"ĠActualament":8336,"Ġbrancas":8337,"579":8338,"524":8339,"528":8340,"575":8341,"538":8342,"539":8343,"926":8344,"ADN":8345,"iera":8346,"zac":8347,"ĠsÃ¯":8348,"ciÃ³":8349,"isca":8350,"Ġfich":8351,"italh":8352,"aup":8353,"Ġnacions":8354,"Ġnue":8355,"Ġbanda":8356,"Ġgel":8357,"Ġgles":8358,"ĠPon":8359,"ĠTib":8360,"Ġdespar":8361,"Ġ1987":8362,"Ġsued":8363,"impaus":8364,"ostau":8365,"Ġgranja":8366,"osse":8367,"Ġaquer":8368,"upcion":8369,"Ġrock":8370,"641":8371,"Ġdescripcion":8372,"pausÃ¨t":8373,"Ġfaches":8374,"Ġbaish":8375,"Ġdessepar":8376,"ĠcarriÃ¨ras":8377,"Ġsindic":8378,"Ġacabar":8379,"Ġmaterials":8380,"ĠCarlesmanhe":8381,"Ġmobiliz":8382,"Ġcatolica":8383,"Ġrenovel":8384,"Ġdivisions":8385,"470":8386,"410":8387,"576":8388,"920":8389,"zon":8390,"Ġong":8391,"ĠdanÃ§a":8392,"Ġpit":8393,"Ġaccident":8394,"Ã¨cia":8395,"quÃ¨stra":8396,"Ã²qui":8397,"ĠnÃ¨u":8398,"oling":8399,"ĠSatur":8400,"ĠPap":8401,"ĠMess":8402,"Ġparet":8403,"otat":8404,"ĠFar":8405,"ĠdesÃ¨rt":8406,"ĠindependÃ©ncia":8407,"Ġsugger":8408,"izÃ¨t":8409,"ĠUt":8410,"Ġabond":8411,"Ġactiva":8412,"Ġgeni":8413,"Ġoccitanista":8414,"ĠtrÃ²n":8415,"edia":8416,"Ġbasco":8417,"Ġintermedi":8418,"Ġconstituida":8419,"Ġimmens":8420,"Ġbastits":8421,"Ġvariantas":8422,"ondacion":8423,"Ġfilhas":8424,"Ġequival":8425,"ĠterrÃ¨stre":8426,"Ġdimension":8427,"Ġseparat":8428,"Ġacabat":8429,"Ġcomplement":8430,"Ġacceptar":8431,"Ġexecutiu":8432,"Ġmolecula":8433,"Ġvitic":8434,"Ġcomandament":8435,"Ġlegislatiu":8436,"ĠÃ§aquelÃł":8437,"430":8438,"610":8439,"915":8440,"916":8441,"978":8442,"938":8443,"939":8444,"AP":8445,"IstÃ²ria":8446,"gÃ¨l":8447,"jaments":8448,"pren":8449,"yd":8450,"Ð¾":8451,"Ġ48":8452,"Ġdign":8453,"ĠpÃ²l":8454,"ĠmÃ²de":8455,"Ġperpaus":8456,"ilat":8457,"ĠAir":8458,"ĠCiv":8459,"ĠCerc":8460,"Ġ(Â«":8461,"Ã§adas":8462,"Ã©t":8463,"ĠpariÃ¨r":8464,"Ġjudici":8465,"Ġprumi":8466,"Ġ1947":8467,"Ġhaut":8468,"Ġimpression":8469,"ardo":8470,"Ġdemocracia":8471,"Ġrecob":8472,"ĠChau":8473,"utilizan":8474,"643":8475,"647":8476,"Ġjornalista":8477,"Ãºst":8478,"ĠdiferÃ©ncias":8479,"ĠempÃ¨ri":8480,"Ġaguest":8481,"ĠfasiÃ¡n":8482,"Ġfisician":8483,"ĠSolar":8484,"Ġmontar":8485,"Ġcercaires":8486,"ĠdialÃ¨cte":8487,"Ġpossibilitats":8488,"Ġinfluenci":8489,"edifici":8490,"Ġmaquina":8491,"ĠreconeissenÃ§a":8492,"ĠcelÃ¨bra":8493,"Ġtanpauc":8494,"Ġlimitrophe":8495,"ĠtelescÃ²p":8496,"925":8497,"979":8498,"914":8499,"928":8500,"975":8501,"936":8502,"974":8503,"iens":8504,"jo":8505,"nia":8506,"uv":8507,"enar":8508,"Ġdegut":8509,"Ġpeth":8510,"Ġsigne":8511,"Ġlai":8512,"ordi":8513,"Ġvaiss":8514,"ĠSec":8515,"ĠPus":8516,"ĠrÃłdio":8517,"ĠFr":8518,"ĠTemp":8519,"Ġ1917":8520,"Ġ1966":8521,"associ":8522,"Ġaplicacion":8523,"ĠJov":8524,"egar":8525,"Ġmaritim":8526,"Ġestric":8527,"Ġmascle":8528,"exc":8529,"the":8530,"Ġformats":8531,"ĠComunitat":8532,"ourn":8533,"Ġgris":8534,"Ġpublicada":8535,"retz":8536,"ĠmandÃ¨t":8537,"Ġterrens":8538,"ĠVerd":8539,"Ġlogica":8540,"Ġinformacions":8541,"Ġaproxim":8542,"Ġfrasa":8543,"Ġvegetacion":8544,"670":8545,"919":8546,"918":8547,"924":8548,"929":8549,"935":8550,"976":8551,"934":8552,"hen":8553,"ode":8554,"Ġilla":8555,"Ġaci":8556,"Ġaust":8557,"alar":8558,"Ã²cia":8559,"Ġfeu":8560,"Ġquilh":8561,"ĠLomb":8562,"ĠCÃ²r":8563,"ĠSenh":8564,"Ġcoment":8565,"ĠPens":8566,"ĠEug":8567,"imag":8568,"Ġalunh":8569,"ĠDesp":8570,"ĠBlu":8571,"Ġmair":8572,"ĠRic":8573,"Ġpogut":8574,"Ġsusvelh":8575,"Ġartes":8576,"ĠcomprÃ©s":8577,"Ġfactors":8578,"Ġprep":8579,"elhon":8580,"edura":8581,"Ġformant":8582,"Ġche":8583,"ronta":8584,"ups":8585,"Ġelector":8586,"Ġobjectius":8587,"Ġexpedicion":8588,"ĠportÃ¨t":8589,"Ġistoricas":8590,"ĠAbC":8591,"Ġblancs":8592,"Ġlevar":8593,"Ġpintor":8594,"ĠTrenc":8595,"Ġfrontiera":8596,"ĠvegÃ¨t":8597,"ĠManuel":8598,"ĠÃĴm":8599,"Ġfluvi":8600,"Ġdeterminar":8601,"Ġdestinada":8602,"equipa":8603,"ĠPrincip":8604,"Ġcomunautats":8605,"Ġbreton":8606,"Ġconnectant":8607,"OPLO":8608,"Asia":8609,"lÃ¨us":8610,"zz":8611,"Ġolog":8612,"Ġmiss":8613,"Ġvess":8614,"ilia":8615,"old":8616,"Ġsemi":8617,"Ġbrilh":8618,"ĠPublic":8619,"Ġotom":8620,"ĠparÃ§an":8621,"abulari":8622,"idors":8623,"ĠGor":8624,"Ġ1958":8625,"Ġ1971":8626,"izadas":8627,"acci":8628,"ĠVan":8629,"ĠVent":8630,"ĠVinc":8631,"ĠIm":8632,"Ġaucup":8633,"Ã³r":8634,"Ġautas":8635,"Ġclergat":8636,"ĠpodÃ¨tz":8637,"aucup":8638,"Ġafir":8639,"Ġlocalit":8640,"ĠrespÃ¨ct":8641,"efiÃ¨ch":8642,"Antiquitat":8643,"Ġpropag":8644,"Ġcombus":8645,"Ġfemin":8646,"Ġvesinas":8647,"Ġautoritat":8648,"ĠentraÃ¯nÃ¨ron":8649,"Ã¨ths":8650,"Ġfebla":8651,"ĠestudiÃ¨t":8652,"ĠAtau":8653,"ĠTota":8654,"aumentacion":8655,"orbita":8656,"Ġensenhaires":8657,"Ġapareisson":8658,"Ġinferior":8659,"Ġprotestants":8660,"Ġcronica":8661,"Ġtamben":8662,"ĠÃ¨ssers":8663,"830":8664,"aga":8665,"edicions":8666,"jÃ²us":8667,"ĠivÃ¨rn":8668,"Ġlus":8669,"Ã¨ne":8670,"Ġsenat":8671,"inÃ¨t":8672,"Ġedat":8673,"isar":8674,"isis":8675,"ĠvÃ¨s":8676,"ami":8677,"ĠnÃ²us":8678,"oll":8679,"ĠAz":8680,"Ġreal":8681,"tici":8682,"ĠPEN":8683,"otica":8684,"ĠNautor":8685,"mias":8686,"egalitat":8687,"Ġhont":8688,"ĠfÃ²rma":8689,"arth":8690,"Ġdemora":8691,"Ġreculh":8692,"enay":8693,"Ġencorat":8694,"ĠdisiÃ¡":8695,"puls":8696,"ĠAquestas":8697,"Ġpresentas":8698,"Ġrepresentava":8699,"Ġtengut":8700,"asco":8701,"Art":8702,"interpre":8703,"Ġtractats":8704,"ĠperdÃ¨t":8705,"Ġfrontieras":8706,"ĠremplaÃ§ar":8707,"Ġescriches":8708,"ĠfaiÃ§on":8709,"ĠglaciÃ¨r":8710,"ĠCatol":8711,"ĠcompetÃ©ncias":8712,"Ġlarga":8713,"eveniment":8714,"Ġdistricte":8715,"Ġremonta":8716,"ĠcontuniÃ¨t":8717,"ĠClub":8718,"Ġnimai":8719,"870":8720,"NS":8721,"acha":8722,"fÃ³s":8723,"vÃ¨rn":8724,"ĠÏ":8725,"Ġ55":8726,"tec":8727,"Ġpig":8728,"alb":8729,"itÃ¨t":8730,"itler":8731,"Ġtonas":8732,"riga":8733,"Ġvents":8734,"Ġrecebre":8735,"insc":8736,"tian":8737,"aplicacion":8738,"ÃŃpol":8739,"ĠLac":8740,"Ġ1910":8741,"Ġteat":8742,"opotam":8743,"nay":8744,"Ġconsag":8745,"Ġpartenari":8746,"Ġpolida":8747,"iure":8748,"Ġbasc":8749,"ĠÂ»<|":8750,"Ġgeneracions":8751,"casion":8752,"Ġcapitani":8753,"ĠrevÃ²":8754,"ĠArd":8755,"Ġafars":8756,"Ġpossessions":8757,"ĠFoguÃ¨ron":8758,"ĠConvencion":8759,"Ġnoir":8760,"Ġbarb":8761,"ĠasteroÃ¯":8762,"ĠValenci":8763,"ĠcambiÃ¨t":8764,"Ġconver":8765,"eriana":8766,"Ġgeograf":8767,"Ġdichas":8768,"Ġoriginari":8769,"Ġvendut":8770,"ational":8771,"ĠLibre":8772,"ĠBrun":8773,"Ġpreparar":8774,"ĠaspÃ¨cte":8775,"Ġmessatge":8776,"Ġsilenci":8777,"ĠWikipÃ¨dia":8778,"Ġfossils":8779,"ĠOccidentala":8780,"ocasion":8781,"Ġconsomacion":8782,"aventura":8783,"ĠgrÃ²ssa":8784,"Ġfaraon":8785,"810":8786,"EP":8787,"lad":8788,"run":8789,"rlanda":8790,"ses":8791,"endeman":8792,"Ġtun":8793,"ilica":8794,"Ġreten":8795,"ĠPIB":8796,"ĠMu":8797,"ĠMÃ¨s":8798,"ĠMoriguÃ¨t":8799,"utÃ¨t":8800,"issÃ¨m":8801,"Ġ1905":8802,"izantin":8803,"assan":8804,"Ġaute":8805,"exemple":8806,"Ġaquera":8807,"Ġadvers":8808,"clop":8809,"ĠcaÃ§":8810,"ĠdarriÃ¨ras":8811,"Ġlongs":8812,"entrepresa":8813,"ortir":8814,"Ġlibert":8815,"ĠespanhÃ²u":8816,"Ġdetlo":8817,"Ġcaracterizada":8818,"Ġvirar":8819,"installacion":8820,"Ġmecanica":8821,"ĠpÃ²rtan":8822,"Ġvictimas":8823,"ĠSovietica":8824,"Ġraconte":8825,"Ġdehens":8826,"Ġperspectiva":8827,"530":8828,"510":8829,"ae":8830,"fan":8831,"fiqu":8832,"lai":8833,"Ïģ":8834,"enau":8835,"esques":8836,"erva":8837,"quÃ©s":8838,"ĠtÃ²c":8839,"omob":8840,"Ġunicament":8841,"Ġenes":8842,"ĠCro":8843,"Ġgo":8844,"ĠSicÃŃ":8845,"roven":8846,"laÃ§a":8847,"ĠRib":8848,"ĠGrÃł":8849,"Ġ1984":8850,"ĠNep":8851,"ĠveniÃ¡":8852,"Ġescamp":8853,"Ġesclaus":8854,"estin":8855,"Ã¼r":8856,"Ã²sc":8857,"Ġdomina":8858,"ĠgovÃ¨rns":8859,"Ġconsiderats":8860,"auds":8861,"Ġegala":8862,"Ġdimensions":8863,"Ġcorts":8864,"Ġaumentacion":8865,"ĠÃĩa":8866,"ĠacomencÃ¨ron":8867,"Ġmedieval":8868,"Ġdolor":8869,"ĠbibliotÃ¨ca":8870,"Ġsept":8871,"Ġcartas":8872,"ĠburÃ¨u":8873,"Ġproprietaris":8874,"ĠRogiÃ¨r":8875,"Ġconstellacion":8876,"570":8877,"OM":8878,"Åį":8879,"Ġce":8880,"Ġmendre":8881,"Ġvinh":8882,"Ġenvir":8883,"usat":8884,"ilar":8885,"ĠAR":8886,"Ġremar":8887,"Ġ155":8888,"ĠPor":8889,"ĠPoss":8890,"ĠPauc":8891,"Ġconclus":8892,"ĠEu":8893,"ĠMunicip":8894,"ĠBro":8895,"ĠBess":8896,"ĠRu":8897,"ĠGall":8898,"Ġsues":8899,"ĠcapÃŃtol":8900,"urada":8901,"astica":8902,"escad":8903,"Ġrire":8904,"alizats":8905,"Ġcomunistas":8906,"Ġconstat":8907,"ĠWash":8908,"Ġagost":8909,"emplega":8910,"expedicion":8911,"Ġevid":8912,"Ġcaulet":8913,"ÃĴme":8914,"ĠThomas":8915,"Ġcambis":8916,"ĠlicÃ©ncia":8917,"Ġfrequent":8918,"Ġpreparacion":8919,"relh":8920,"ĠpÃ²ste":8921,"Ostau":8922,"ĠVict":8923,"ĠdurÃ¨t":8924,"Ġregistres":8925,"ĠExistisson":8926,"ĠAtenas":8927,"Ġdoctrina":8928,"910":8929,"franc":8930,"gia":8931,"pin":8932,"xic":8933,"Ġos":8934,"Ġ49":8935,"Ġdar":8936,"Ġsou":8937,"att":8938,"cies":8939,"rez":8940,"ĠLand":8941,"aute":8942,"olia":8943,"ĠCic":8944,"ĠPÃ²":8945,"Ġconcep":8946,"ĠLoc":8947,"Ġanat":8948,"ĠFau":8949,"igÃ¨n":8950,"Ġ1949":8951,"Ġ1942":8952,"Ġ1951":8953,"Ġtotalitat":8954,"Ġmascles":8955,"Ã²ba":8956,"Ġrepren":8957,"Ġmanc":8958,"Ġseguentas":8959,"uba":8960,"Ġsosmar":8961,"tivas":8962,"Ġdescrich":8963,"Ġplaca":8964,"Ġutilizacion":8965,"ĠRoja":8966,"Ġmiei":8967,"Ġromanica":8968,"Ġprofessors":8969,"Ã¨isas":8970,"ĠagricÃ²las":8971,"ĠXXI":8972,"ĠTrabalh":8973,"Ġrestaurar":8974,"ĠrÃ¨gla":8975,"Ġprivileg":8976,"ispens":8977,"instrument":8978,"Ġvigor":8979,"ĠRichard":8980,"ĠGrÃłcias":8981,"ĠWashington":8982,"'<|":8983,"020":8984,"025":8985,"018":8986,"015":8987,"036":8988,"076":8989,"074":8990,"034":8991,"038":8992,"468":8993,"ajar":8994,"rins":8995,"Âº":8996,"Ġpura":8997,"Ġcran":8998,"Ã¨res":8999,"ilacion":9000,"Ġbons":9001,"ĠPomp":9002,"ĠMod":9003,"istori":9004,"ĠBai":9005,"issen":9006,"ĠGil":9007,"Ġprotagon":9008,"Ġ1926":9009,"Ġ1988":9010,"Ġ1963":9011,"ĠIb":9012,"Ġradio":9013,"Ġfinal":9014,"Ġprimier":9015,"Ġpassada":9016,"Ġviatges":9017,"Ġtransf":9018,"Ġcanon":9019,"Ġdesvolopada":9020,"ĠprovÃ²ca":9021,"Ġsasons":9022,"Ġagra":9023,"Ġconcurr":9024,"ĠConc":9025,"equilibri":9026,"Ġaisit":9027,"ripcions":9028,"Ġprogramas":9029,"Ġindustrial":9030,"animals":9031,"ĠPrimiÃ¨ra":9032,"Ġmaquinas":9033,"ĠMadrid":9034,"ĠOrientala":9035,"Ġfacultat":9036,"ĠRetrach":9037,"019":9038,"079":9039,"024":9040,"026":9041,"014":9042,"029":9043,"028":9044,"075":9045,"016":9046,"078":9047,"035":9048,"039":9049,"668":9050,"930":9051,"bes":9052,"bourg":9053,"ek":9054,"iÃ¯":9055,"po":9056,"Ġorn":9057,"Ġ44":9058,"enregist":9059,"Ġluna":9060,"teaux":9061,"Ġpesc":9062,"Ġsanc":9063,"cil":9064,"Ġminas":9065,"Ġlacs":9066,"entrada":9067,"raire":9068,"Ġtic":9069,"Ġnerv":9070,"ĠnÃ²rmas":9071,"elab":9072,"ĠApar":9073,"ĠMir":9074,"Ġ1943":9075,"Ġ1941":9076,"ĠNic":9077,"assada":9078,"rasburg":9079,"Ġescritura":9080,"ĠHam":9081,"ĠDev":9082,"geria":9083,"Ġfachs":9084,"Ġrepresentat":9085,"Ġreligions":9086,"Ġindo":9087,"ariÃ¡s":9088,"Ġfavorable":9089,"ĠEspanh":9090,"Ġpinturas":9091,"Ġsostenir":9092,"ĠDels":9093,"Ġcomerciala":9094,"Ġvocabulari":9095,"Ġquimica":9096,"ĠRomania":9097,"Ġmusulman":9098,"Ġengenh":9099,"Ġnucleara":9100,"Ġprogressivament":9101,"rupcion":9102,"Ġnarrat":9103,"Ã¯ssa":9104,"Ġimpossible":9105,"Ġnotadament":9106,"970":9107,"gans":9108,"ji":9109,"vill":9110,"Ġul":9111,"ĠlÃ¨is":9112,"arbre":9113,"inion":9114,"rael":9115,"Ġfant":9116,"aua":9117,"ĠnÃ²tas":9118,"ĠCle":9119,"ĠCour":9120,"Ġgara":9121,"ĠSuÃ¨":9122,"Ġoc":9123,"etics":9124,"Ġrendre":9125,"Ġrug":9126,"chat":9127,"irass":9128,"Ġdesemp":9129,"Ġ1913":9130,"Ġ1954":9131,"ĠpoÃ¨tas":9132,"ĠItal":9133,"Ã¯c":9134,"eure":9135,"Ġauia":9136,"ĠhÃ¨n":9137,"Ġabitat":9138,"Ġmarins":9139,"Ã¨gas":9140,"Ġcare":9141,"Ġracion":9142,"Ġorizont":9143,"escol":9144,"ĠHol":9145,"ibal":9146,"Ġrepaus":9147,"Ġcreire":9148,"rick":9149,"Ġsosterran":9150,"Ġsocials":9151,"Ġplaja":9152,"ejada":9153,"Ġindispens":9154,"Ġlatina":9155,"Ġpagament":9156,"Ġdictat":9157,"Ġmarcant":9158,"ĠcomplÃ¨t":9159,"Ġmondial":9160,"ducacion":9161,"Ġdinamica":9162,"ĠAragon":9163,"ĠmodÃ¨rnas":9164,"Ġprosp":9165,"ĠdescubÃ¨rta":9166,"Ġliquid":9167,"Ġvictima":9168,"ĠOstal":9169,"ĠprovoquÃ¨t":9170,"AG":9171,"aer":9172,"court":9173,"Ã¬":9174,"Ġtext":9175,"ĠâĢĻ":9176,"encia":9177,"ere":9178,"ĠmÃ¨":9179,"ram":9180,"itÃłrias":9181,"Ġquitar":9182,"Ġtomba":9183,"dava":9184,"ricitat":9185,"osta":9186,"ĠAper":9187,"Ġbesti":9188,"ĠCu":9189,"Ã²ras":9190,"urats":9191,"lap":9192,"lack":9193,"ĠjÃ²ga":9194,"ĠRus":9195,"ĠVis":9196,"Ã¯t":9197,"Ġtraject":9198,"Ġmedic":9199,"eccions":9200,"Ã²tges":9201,"Ġmarci":9202,"Ġautent":9203,"Ġescand":9204,"escala":9205,"Ġrecenta":9206,"Ã¨ssus":9207,"Ġrelativa":9208,"erto":9209,"ĠÃĢustria":9210,"Ġpoderosa":9211,"Ġcoalicion":9212,"Ġdarriera":9213,"ĠInici":9214,"Ġbarra":9215,"ĠMontanha":9216,"Ġorganizar":9217,"Ġangl":9218,"intervencion":9219,"ĠJosÃ¨p":9220,"Ġincor":9221,"ĠprocÃ¨ssus":9222,"Ġreligioses":9223,"Ġnautas":9224,"Ġtransformacion":9225,"actual":9226,"Ġsimilara":9227,"Ġsortit":9228,"Ġpermanent":9229,"ĠGeorges":9230,"ĠparallÃ¨l":9231,"ĠConfederacion":9232,"Ġjuris":9233,"Ġdisciplina":9234,"Ġcompeticion":9235,"ĠCIRDÃĴC":9236,".)":9237,"Mont":9238,"OÃ¨st":9239,"get":9240,"sc":9241,"Ġsoma":9242,"quim":9243,"uni":9244,"ĠbrÃ¨":9245,"Ġbrica":9246,"ĠSoma":9247,"ĠFou":9248,"abitat":9249,"Ġdesvol":9250,"Ġdesira":9251,"Ġ1934":9252,"Ġ1977":9253,"acs":9254,"Ġnomat":9255,"opÃ²rt":9256,"Ġplu":9257,"ĠexperiÃ©ncia":9258,"Ġmarina":9259,"artista":9260,"ropri":9261,"estre":9262,"Ġtermi":9263,"ĠUnidas":9264,"Ġtruf":9265,"Ġrigor":9266,"Ã¨ssa":9267,"ĠAnton":9268,"Ã²rdres":9269,"Ġcapitar":9270,"ĠconcÃ¨rt":9271,"ĠInternet":9272,"ĠrefÃºs":9273,"Ġfachas":9274,"ĠvisquÃ¨t":9275,"Ġrepresentacions":9276,"Ġdecor":9277,"Ġasc":9278,"ĠdintrÃ¨t":9279,"ĠexistÃ©ncia":9280,"Ġmolins":9281,"Ġextension":9282,"activitats":9283,"Ġemplegada":9284,"Ġregime":9285,"installÃ¨t":9286,"Ġminoritat":9287,"ĠcontemporanÃ¨a":9288,"Ġgaulo":9289,"ĠmamifÃ¨rs":9290,"Ġsatisf":9291,"Ġquaranta":9292,"Ġarrondissement":9293,"Ġrompedura":9294,"gh":9295,"idi":9296,"tres":9297,"xes":9298,"Å£":9299,"Ġoss":9300,"Ġdang":9301,"ene":9302,"Ġpec":9303,"esias":9304,"endrech":9305,"Ġsorn":9306,"entraÃ¯n":9307,"Ġquas":9308,"Ġtrip":9309,"ĠLÃ©":9310,"riva":9311,"oli":9312,"ĠPed":9313,"ĠDuc":9314,"uritat":9315,"ĠBarb":9316,"Ġdesl":9317,"Ġ1925":9318,"Ġtrabalha":9319,"oph":9320,"Ġpred":9321,"ĠpartenÃ§a":9322,"Ġorden":9323,"ĠFranÃ§ois":9324,"Ġtransicion":9325,"Ġsocialista":9326,"Ġutilizant":9327,"Ġprovocar":9328,"Ġdistribu":9329,"Ġdistribucion":9330,"Ġbaron":9331,"Ġmoments":9332,"Ġpunta":9333,"Ġgramatica":9334,"aquestas":9335,"Ġnaviri":9336,"Ġdisponi":9337,"Ġmorala":9338,"Ġpintre":9339,"Ġmantenir":9340,"Ġprecisa":9341,"Ġemplegats":9342,"ĠÃĴc":9343,"ĠprecÃŃs":9344,"ĠvÃ²tes":9345,"Ġescambis":9346,"Ġestatsunidenca":9347,"ĠAlsace":9348,"AquitÃłnia":9349,"Ġestimada":9350,"www":9351,"observacion":9352,"ĠconeissenÃ§as":9353,"Ġjosieva":9354,"868":9355,"Alex":9356,"Com":9357,"Oise":9358,"Val":9359,"eim":9360,"gel":9361,"sh":9362,"Äı":9363,"Å¼":9364,"unificacion":9365,"Ġtalament":9366,"guÃ¨ri":9367,"Ġbenda":9368,"ĠSr":9369,"ĠSir":9370,"ĠSeu":9371,"Ġcond":9372,"ĠMÃ©":9373,"ĠMons":9374,"ĠMong":9375,"Ã©r":9376,"util":9377,"ĠBatalha":9378,"ÃŃvol":9379,"Ġ1924":9380,"Ġ1956":9381,"003":9382,"asse":9383,"ĠpreÃ¯st":9384,"naise":9385,"Ġaven":9386,"ocats":9387,"Ġlengua":9388,"alhar":9389,"Ġcarrat":9390,"Ġordon":9391,"sses":9392,"656":9393,"Ġcolons":9394,"Ġformula":9395,"ĠChamb":9396,"gonha":9397,"Ġdispausa":9398,"Ġatenh":9399,"ĠArrib":9400,"Ġofensiva":9401,"berica":9402,"ĠdivÃ¨rseis":9403,"rÃłs":9404,"Ġmelhors":9405,"acabar":9406,"Ġestabliments":9407,"Ġespacis":9408,"Ġequipa":9409,"ectacles":9410,"ASA":9411,"Ġstation":9412,"ĠvidÃ¨o":9413,"istocrÃłcia":9414,"ĠEstudiÃ¨t":9415,"ĠSicÃŃlia":9416,"010":9417,"Educacion":9418,"Sus":9419,"hin":9420,"noc":9421,"Ġdans":9422,"teur":9423,"ofici":9424,"icar":9425,"riqu":9426,"uses":9427,"eleg":9428,"ĠAguÃ¨t":9429,"ĠCult":9430,"ĠEi":9431,"ĠMira":9432,"ĠDa":9433,"Ġparca":9434,"ĠBarr":9435,"ĠFu":9436,"ĠFeb":9437,"ĠTri":9438,"ĠTrib":9439,"Ã¨ster":9440,"ĠNom":9441,"ĠNacions":9442,"001":9443,"Ġcompres":9444,"ogÃ¨u":9445,"Ġhor":9446,"Ġ1830":9447,"Ġordin":9448,"escrich":9449,"444":9450,"Ġsolucions":9451,"453":9452,"terie":9453,"ĠMarna":9454,"Ġdependent":9455,"Ġader":9456,"Ġcosm":9457,"Ġmoder":9458,"isher":9459,"Ġdestri":9460,"Ġnacionau":9461,"Ġliberacion":9462,"Ġinternacionalas":9463,"Ġvocala":9464,"ocupar":9465,"ĠCompren":9466,"Ġprecisament":9467,"qÃ¼ator":9468,"Ġsufra":9469,"Ġpoblacion":9470,"Ġmedisha":9471,"ĠSavoie":9472,"Ġjuridic":9473,"Ġabsoluda":9474,"Ġtemptativa":9475,"056":9476,"568":9477,"EC":9478,"lt":9479,"no":9480,"pan":9481,"unitats":9482,"entut":9483,"Ġtim":9484,"ridas":9485,"Ġber":9486,"Ġblas":9487,"ĠCin":9488,"ĠRed":9489,"ĠTy":9490,"ive":9491,"abol":9492,"Ġ1959":9493,"007":9494,"obratge":9495,"Ġespir":9496,"Ġ1890":9497,"Ġsolid":9498,"Ġchival":9499,"Ġstre":9500,"Ġgrope":9501,"Ġeths":9502,"Ġarabis":9503,"Ġartista":9504,"Ġproposicion":9505,"Ġnombr":9506,"Ġcontinents":9507,"Ġcivil":9508,"Ġdecidit":9509,"ĠAtlantic":9510,"Ġesperit":9511,"ixe":9512,"Ġcomunicacions":9513,"Ġcuirass":9514,"Ġpaure":9515,"ĠrendÃ¨tz":9516,"periÃ©ncias":9517,"establir":9518,"Ġquinze":9519,"Ġtombar":9520,"Ġatacas":9521,"Ġsimilar":9522,"Ġmaximala":9523,"ĠeficaÃ§":9524,"espandÃŃs":9525,"ĠtÃ²rna":9526,"ĠconferÃ©ncias":9527,"etnam":9528,"Ġimmediat":9529,"ĠAntonio":9530,"Ġadultes":9531,"070":9532,"096":9533,"Madama":9534,"cÃ²n":9535,"jac":9536,"ny":9537,"ule":9538,"anes":9539,"esi":9540,"Ġsatge":9541,"quin":9542,"Ã²is":9543,"entrion":9544,"ĠvÃ¨n":9545,"Ġrevol":9546,"Ġ120":9547,"Ġgav":9548,"ĠSag":9549,"inspiracion":9550,"ĠPatz":9551,"Ġois":9552,"ĠDivÃ¨rs":9553,"ĠBaud":9554,"ĠRef":9555,"ĠGre":9556,"Ġ1929":9557,"acÃ²m":9558,"Ġtex":9559,"ĠdijÃ²us":9560,"Ã¯da":9561,"ĠUei":9562,"Ġcomparas":9563,"Ġhom":9564,"594":9565,"Ġsosl":9566,"Ġobt":9567,"Ġqualque":9568,"Ġdomest":9569,"Ġcosina":9570,"Ġemper":9571,"eguida":9572,"Ġlocau":9573,"ĠtribÃº":9574,"Ġtestificat":9575,"ĠVenÃ¨cia":9576,"Ġbraces":9577,"Ġdatan":9578,"ĠTeatre":9579,"ĠgrÃ¨va":9580,"Ġdessenhs":9581,"Ġmusicala":9582,"ĠpÃ²sca":9583,"ĠresidÃ©ncia":9584,"ĠdesplaÃ§ament":9585,"Ġtestimoni":9586,"lantacion":9587,"Ġpretend":9588,"Ġmagnetic":9589,"integracion":9590,"ĠcÃ²stas":9591,"Ġrarament":9592,"ĠNicolas":9593,"Ġdiluns":9594,"Ġsacrifici":9595,"086":9596,"Aub":9597,"Il":9598,"actor":9599,"lus":9600,"loc":9601,"vila":9602,"Ð¸":9603,"ĠâĤ¬":9604,"Ġsinc":9605,"Ġcana":9606,"Ġmurs":9607,"unya":9608,"Ã²via":9609,"Ġvre":9610,"ĠvÃ©der":9611,"eli":9612,"ĠSup":9613,"Ġinvasions":9614,"Ġ1912":9615,"ĠNelli":9616,"Ġteorias":9617,"Ġarquitectura":9618,"Ġcontar":9619,"Ġcargas":9620,"exerci":9621,"ipÃ¨la":9622,"ĠAlf":9623,"Ġpassava":9624,"Ã²nts":9625,"Ġluenh":9626,"Ġamai":9627,"Ġdobl":9628,"Ġcoron":9629,"Ġsegurament":9630,"tivitat":9631,"acid":9632,"identitat":9633,"Ġafar":9634,"ificats":9635,"Ġpersonalitat":9636,"Ġcooperacion":9637,"ĠsuccediguÃ¨t":9638,"Ġeren":9639,"Ġvisig":9640,"Ġpresentava":9641,"Ġactualas":9642,"Ġsabon":9643,"ĠintÃ¨rnas":9644,"Ġbastissa":9645,"aquestes":9646,"istique":9647,"Ġindig":9648,"Ġciviliz":9649,"Ġfeble":9650,"ĠdecidiguÃ¨ron":9651,"Ġ250":9652,"ĠdaissÃ¨t":9653,"ĠdirÃ¨cta":9654,"Ġitalians":9655,"Ġdecisiu":9656,"Ġabandonat":9657,"Ġprivada":9658,"Ġorganismes":9659,"Ġnegociar":9660,"ĠmalautiÃ¡s":9661,"Ġarrestat":9662,"ĠBibl":9663,"ĠCertan":9664,"Ġdedicat":9665,"Ġgigant":9666,"Ġlitoral":9667,"ĠCollÃ¨gi":9668,"Ġflanc":9669,"030":9670,"968":9671,"AN":9672,"rants":9673,"Äģ":9674,"ËĿ":9675,"enada":9676,"onf":9677,"off":9678,"Ġcra":9679,"ĠmÃ²da":9680,"cionaris":9681,"Ġperif":9682,"Ã©p":9683,"ĠDor":9684,"chel":9685,"Ġsuus":9686,"mentacion":9687,"acu":9688,"acÃ²rdi":9689,"ĠentiÃ¨ra":9690,"Ã©ncer":9691,"ĠabC":9692,"Ġeston":9693,"Ġescap":9694,"ĠHitler":9695,"Ġmong":9696,"ĠpolÃŃcia":9697,"654":9698,"ingen":9699,"Ġkg":9700,"Ġseguretat":9701,"espandi":9702,"Ġpersonal":9703,"Ġaquest":9704,"Ġjaune":9705,"Ġposse":9706,"aquia":9707,"Ġservisson":9708,"Ġcodific":9709,"Ġpatri":9710,"Ġparticulars":9711,"Ġintrodu":9712,"ativitat":9713,"ĠFrancesc":9714,"ĠCatalans":9715,"ĠDempuei":9716,"Ġtuats":9717,"ĠsimbÃ²ls":9718,"Ġusat":9719,"Ġvinhas":9720,"Ġcertaneis":9721,"Ġprevista":9722,"Ġpaures":9723,"Ġafluents":9724,"actualitat":9725,"ĠPrimiÃ¨r":9726,"ĠveÃ¯culs":9727,"Ġeducacion":9728,"ĠMinistre":9729,"ĠdrÃ²lles":9730,"investi":9731,"Ġcencha":9732,"ĠmÃ²stran":9733,"ĠcÃ²mte":9734,"ÄıÅ¼":9735,"'.<|":9736,"EE":9737,"kin":9738,"vari":9739,"enon":9740,"ĠlÃ¯":9741,"Ġaz":9742,"Ġcru":9743,"Ġcou":9744,"Ġmia":9745,"Ġquate":9746,"ĠLang":9747,"ĠvÃ²stra":9748,"Ġnsol":9749,"olo":9750,"olin":9751,"ĠPri":9752,"ĠPale":9753,"anto":9754,"etar":9755,"Ġalent":9756,"Ġrics":9757,"uth":9758,"ĠDal":9759,"ĠDia":9760,"ĠDani":9761,"ĠRab":9762,"igÃ©s":9763,"Ġ1922":9764,"ĠVaquÃŃ":9765,"assar":9766,"Ġ2015":9767,"ĠOu":9768,"Ġsituacions":9769,"ĠQuan":9770,"596":9771,"694":9772,"Ġneb":9773,"658":9774,"485":9775,"Ġcrei":9776,"Ġcorta":9777,"Ġcomunica":9778,"Ġrot":9779,"Ġrevisc":9780,"ĠconcÃ¨rts":9781,"Ġexpansion":9782,"Ġdemorat":9783,"rimÃ²ni":9784,"istiguÃ¨t":9785,"Ġaisidament":9786,"Ġtropa":9787,"Ġmotiv":9788,"ĠlingÃ¼istas":9789,"Ġculturals":9790,"Ġobtengut":9791,"ĠLuxemb":9792,"Ġnaturau":9793,"Ġresponsabilitat":9794,"Ġorientalas":9795,"Ġprefectura":9796,"ĠprovenÃ§al":9797,"Ġciutadan":9798,"ĠaspÃ¨ctes":9799,"Ġsegle":9800,"Ġegipcian":9801,"Ġatacar":9802,"ĠChampagne":9803,"Ġoctobre":9804,"ĠSovietics":9805,"Ġmaritima":9806,"ĠClaudi":9807,"Ġetapa":9808,"054":9809,"084":9810,"094":9811,"AC":9812,"PS":9813,"lÃłndia":9814,"rum":9815,"zacion":9816,"Ðµ":9817,"Ġdret":9818,"Ġpeis":9819,"Ġactritz":9820,"Ġaeriana":9821,"Ġssa":9822,"ery":9823,"ituras":9824,"Ġth":9825,"Ġtin":9826,"Ġenquia":9827,"Ġreag":9828,"Ġreduccion":9829,"ĠCel":9830,"lev":9831,"tiers":9832,"ulada":9833,"Ġox":9834,"Ãłment":9835,"ĠBizant":9836,"ĠLab":9837,"ivern":9838,"Ġdesena":9839,"ĠGaud":9840,"Ġpropaus":9841,"Ġprat":9842,"Ġ1937":9843,"Ġ1953":9844,"ĠEnt":9845,"Ġsiu":9846,"Ġfactor":9847,"Ġhu":9848,"ĠOcup":9849,"Ġescriu":9850,"estran":9851,"Ġgranjas":9852,"ardia":9853,"696":9854,"699":9855,"Ġtrent":9856,"Ġrepart":9857,"Ġmunicipal":9858,"ĠComitat":9859,"Ġassemblada":9860,"evesque":9861,"Ġpopularas":9862,"Ġroc":9863,"Ġtranscripcion":9864,"Ġpublicats":9865,"Ġ1500":9866,"Ġpensava":9867,"ĠcontunhÃ¨t":9868,"Ġnaturalament":9869,"Ġtradicionalament":9870,"Ġportava":9871,"Ġpositiu":9872,"Ġestablida":9873,"ĠadoptÃ¨t":9874,"ĠTeod":9875,"ĠGeneral":9876,"Ġpoblada":9877,"Ġmusulmana":9878,"Ġenvironat":9879,"Ġprotestant":9880,"Ġnumerica":9881,"Ġprigondor":9882,"ĠWikim":9883,"ĠpermetiÃ¡":9884,"ĠNormandie":9885,"Ġproduccions":9886,"ĠDepartament":9887,"Ġgalaxias":9888,"ĠBizantins":9889,"evol":9890,"fÃ¨ra":9891,"lats":9892,"Ãī":9893,"onst":9894,"teau":9895,"Ġpira":9896,"Ġaig":9897,"anÃ¨t":9898,"ĠsÃ²rt":9899,"ofensiva":9900,"aran":9901,"isas":9902,"ick":9903,"ĠtÃ¨si":9904,"Ġnord":9905,"ĠnÃŃvol":9906,"ĠSm":9907,"ĠSom":9908,"Ã©m":9909,"Ġsonada":9910,"eton":9911,"Ġritu":9912,"chen":9913,"Ġparat":9914,"avitalh":9915,"Ġ1938":9916,"Ġ1955":9917,"Ġ1907":9918,"ĠVilla":9919,"icicle":9920,"Ġpoiri":9921,"ĠNaz":9922,"ĠNASA":9923,"Ġarist":9924,"deish":9925,"emin":9926,"ago":9927,"Ġher":9928,"Ġmarcha":9929,"Ġreproduccion":9930,"Ġmagaz":9931,"introduccion":9932,"illas":9933,"ĠdoÃ§a":9934,"aliza":9935,"alizadas":9936,"mann":9937,"Ġadm":9938,"Ġlegendas":9939,"Ġvalenci":9940,"Ġumor":9941,"Ġrealizadas":9942,"Ġcadenas":9943,"Ġnavala":9944,"Ġdiccionaris":9945,"Ã³nher":9946,"ĠcontrarÃ²t":9947,"ĠColle":9948,"Ġquartier":9949,"ĠMartÃŃ":9950,"ĠGenerala":9951,"Ġabandonar":9952,"ĠparlamentÃłria":9953,"Ġmainats":9954,"Ġmecanisme":9955,"ĠpÃ²stes":9956,"ĠassaiÃ¨ron":9957,"ĠlanÃ§ar":9958,"Ġrandonn":9959,"ĠcomplÃ¨xe":9960,"ĠcontemporanÃ¨us":9961,"ĠautonÃ²m":9962,"Ġcomandant":9963,"ĠInternacionala":9964,"Ġquatren":9965,"ĠPeninsula":9966,"Ġcrompar":9967,"ĠrepertÃ²ri":9968,"fiquen":9969,"fel":9970,"ocean":9971,"tant":9972,"Ġ36":9973,"ĠcÃ¨r":9974,"Ġcai":9975,"arisme":9976,"Ġlater":9977,"ĠfÃ¨stas":9978,"amo":9979,"Ġnes":9980,"Ġnascuda":9981,"ush":9982,"element":9983,"ĠbÃ²n":9984,"Ġbaia":9985,"Ġcomm":9986,"ĠrÃ²":9987,"irar":9988,"ĠFot":9989,"ĠFland":9990,"avesque":9991,"Ġ1911":9992,"Ġpoesias":9993,"002":9994,"Ġtrau":9995,"Ġsaun":9996,"Ġresult":9997,"Ġconsol":9998,"odÃ²":9999,"exans":10000,"Ġrecent":10001,"ibÃ¨rt":10002,"ĠChin":10003,"ĠChart":10004,"luÃ²c":10005,"ologicament":10006,"espanh":10007,"Ġdominat":10008,"Ġplacas":10009,"Ġgropes":10010,"Ġempres":10011,"Ġfils":10012,"Ġmenadas":10013,"Ġexplic":10014,"retas":10015,"Ġpresentat":10016,"ĠcastÃ¨u":10017,"ĠFrancs":10018,"Ġconquistas":10019,"Ġfavorizar":10020,"Ġmonts":10021,"Ġponchs":10022,"ĠdubÃ¨rt":10023,"Ġcrestian":10024,"Ġaumentar":10025,"Ġadoptada":10026,"ĠÃĴr":10027,"ĠpresidÃ©ncia":10028,"Ġfruches":10029,"Ġcollectiva":10030,"ĠErn":10031,"ĠGram":10032,"ĠLiber":10033,"ĠGerman":10034,"Ġfolcl":10035,"Ġescambi":10036,"ĠbearnÃ©s":10037,"Ġbaissa":10038,"Ġredaccion":10039,"ĠdirigiguÃ¨t":10040,"aucupacion":10041,"comp":10042,"fi":10043,"gl":10044,"gal":10045,"rors":10046,"Ġ85":10047,"Ġlect":10048,"test":10049,"ĠpÃ¯":10050,"ĠcrÃ¨":10051,"ortacions":10052,"omica":10053,"Ġbuta":10054,"ĠCoss":10055,"ĠCÃ²n":10056,"anth":10057,"âĢĵ":10058,"ĠrÃ²cas":10059,"Ġpare":10060,"ott":10061,"dians":10062,"ÃŃcias":10063,"avÃ³":10064,"Ġ1931":10065,"Ġpoetica":10066,"Ġarriu":10067,"Ġcomprom":10068,"Ġ1850":10069,"Ġdonan":10070,"odin":10071,"Ġdemission":10072,"697":10073,"ossa":10074,"458":10075,"ouv":10076,"Ġdoctor":10077,"rosament":10078,"Ġdirectament":10079,"Ġvoler":10080,"Ġstres":10081,"ĠdomÃ¨ni":10082,"Ġtroba":10083,"Ġmeteor":10084,"Ġcore":10085,"ĠcrÃ©isser":10086,"Ġinfin":10087,"aurent":10088,"Ġliberat":10089,"ĠÃĪran":10090,"Ġestablir":10091,"Ġmassas":10092,"Ġsuperiors":10093,"ĠDemest":10094,"Ġfiguras":10095,"Ġcompleta":10096,"Ġdrap":10097,"Ġadaptat":10098,"Ġsobeirans":10099,"âĢĿ.<|":10100,"ĠCambra":10101,"Ġcinquanta":10102,"american":10103,"Ġevolu":10104,"ĠLetras":10105,"Ġcicl":10106,"Ġagach":10107,"esnois":10108,"acadÃ¨mia":10109,"121":10110,"221":10111,"Augu":10112,"Fran":10113,"jor":10114,"seg":10115,"yer":10116,"zer":10117,"Ã´":10118,"Ġaic":10119,"Ã¨its":10120,"Ã¨van":10121,"Ġsaut":10122,"Ġcov":10123,"Ġcants":10124,"eros":10125,"inal":10126,"Ġmu":10127,"rain":10128,"Ġfert":10129,"Ġvendre":10130,"ame":10131,"gui":10132,"ĠAth":10133,"Ġcomitat":10134,"tiÃ¨rs":10135,"ĠEp":10136,"ims":10137,"ĠMant":10138,"Ġraras":10139,"Ġanterior":10140,"ensas":10141,"ĠRi":10142,"ĠGaul":10143,"Ã¨ste":10144,"ĠVath":10145,"iÃ¡s":10146,"Ġentau":10147,"ĠcapÃ¨la":10148,"Ġliuras":10149,"Ġpretz":10150,"idae":10151,"Ġmarrit":10152,"ĠQuatre":10153,"Ã²lis":10154,"655":10155,"Ġplanas":10156,"455":10157,"Ġfrancs":10158,"Ġtresaur":10159,"Ġdescriu":10160,"Ġoncle":10161,"ĠInstitut":10162,"Ġvisit":10163,"Ġrespondre":10164,"ĠTolon":10165,"Ġliga":10166,"Ġnaturals":10167,"Ġtreb":10168,"Ġarribat":10169,"Ġblancas":10170,"Ġdichs":10171,"Ġalemandas":10172,"arquitÃ¨cte":10173,"ĠtÃŃtols":10174,"Ġbritanics":10175,"Ġviolonc":10176,"Ġmateriaus":10177,"ĠconselhiÃ¨r":10178,"Ġparlava":10179,"Ġcrosats":10180,"ĠfrequÃ©ncia":10181,"installar":10182,"ĠapareguÃ¨ron":10183,"Ġdenom":10184,"ĠDoncas":10185,"organisme":10186,"Ġsobeiranetat":10187,"Ġcolomnas":10188,"Ġcollectivitats":10189,"environament":10190,"Ġconfluisson":10191,"Ġrecerca":10192,"ĠNasquÃ¨t":10193,"interpretacion":10194,"466":10195,"cÃ¨t":10196,"cÃ²l":10197,"pat":10198,"rent":10199,"Ġ+":10200,"Ġuc":10201,"Ġsir":10202,"atj":10203,"invent":10204,"ĠmÃ¨stres":10205,"alu":10206,"Ġestet":10207,"Ġnol":10208,"gus":10209,"guÃ©s":10210,"Ġbuf":10211,"Ġcomission":10212,"tique":10213,"ĠMosc":10214,"ului":10215,"ĠrenaissenÃ§a":10216,"Ġparad":10217,"aplica":10218,"ĠBabil":10219,"ĠanÃ¨t":10220,"ĠRap":10221,"Ġincon":10222,"main":10223,"Ġcapabla":10224,"Ġtram":10225,"ogia":10226,"Ġrestac":10227,"emergÃ©ncia":10228,"Ġpartiment":10229,"Ġ1880":10230,"Ġ1848":10231,"Ġcarris":10232,"escriu":10233,"448":10234,"odat":10235,"895":10236,"existÃŃs":10237,"456":10238,"Ã²nis":10239,"Ġconstruccions":10240,"ĠrevÃ²lta":10241,"Ġcaf":10242,"Ġagrada":10243,"Ġensaj":10244,"ĠsubjÃ¨ctes":10245,"explica":10246,"ingÃ¼istica":10247,"Ġreconeguda":10248,"ĠAvesnois":10249,"Ġfisic":10250,"Ġinternacionalament":10251,"ÃĴr":10252,"ĠcritÃ¨ris":10253,"Ġbrave":10254,"Ġcombatents":10255,"Ġmaridar":10256,"Ġcostuma":10257,"ĠSerÃł":10258,"ĠdeclarÃ¨t":10259,"Ġamassada":10260,"ĠbÃ¨lga":10261,"Ġpermanenta":10262,"Ġcategorias":10263,"Ġmadeish":10264,"ĠNegra":10265,"Ġtestifiquen":10266,"Ġcentenats":10267,"ĠTomÃłs":10268,"ĠpluÃ¨ja":10269,"Ġebrieu":10270,"ĠSuccediguÃ¨t":10271,"Ġreviradas":10272,"afondrament":10273,"ĠenqÃ¼Ã¨ra":10274,"Ġseptentrion":10275,"068":10276,"AM":10277,"Ad":10278,"IC":10279,"bra":10280,"dau":10281,"edas":10282,"ii":10283,"vador":10284,"endissatge":10285,"alianÃ§a":10286,"Ã²ure":10287,"ĠLam":10288,"ĠvÃ²st":10289,"olis":10290,"roch":10291,"tible":10292,"imatges":10293,"ĠMit":10294,"Ã©isher":10295,"etre":10296,"chu":10297,"ĠBoss":10298,"alava":10299,"ĠRem":10300,"ĠFl":10301,"idats":10302,"Ġ1928":10303,"tanh":10304,"Ġpoir":10305,"ande":10306,"ĠIEO":10307,"Ġapondre":10308,"ĠEsper":10309,"Ġsites":10310,"Ġavia":10311,"Ġmarrida":10312,"Ã³isser":10313,"Ġimplant":10314,"Ġ1891":10315,"593":10316,"693":10317,"Ġneer":10318,"653":10319,"486":10320,"venir":10321,"Ġcanad":10322,"ordin":10323,"Ġrespectivament":10324,"ejaire":10325,"Ġorganizacions":10326,"ĠpaÃ¯satge":10327,"Ġindiana":10328,"ĠCatalunya":10329,"ĠterrÃ¨stres":10330,"Ġincomp":10331,"Ġpremierei":10332,"ĠTrÃŃpol":10333,"ĠacabÃ¨t":10334,"Ġprevei":10335,"ĠaumentÃ¨t":10336,"Ġcantaira":10337,"Ġenvironament":10338,"ĠGalil":10339,"ĠOliv":10340,"Ġcapacitats":10341,"ĠcompetÃ©ncia":10342,"ĠConstantinÃ²ple":10343,"escais":10344,"Ġremarcar":10345,"Ġtemptativas":10346,"Ġchifras":10347,"Ġgeometria":10348,"ĠFrancisco":10349,"ĠrevÃ²utas":10350,"Ofici":10351,"bona":10352,"nascut":10353,"wan":10354,"zat":10355,"Ġ×":10356,"ĠÃ©":10357,"Ġilh":10358,"atia":10359,"reta":10360,"alfabet":10361,"Ġvib":10362,"Ġnis":10363,"elev":10364,"Ġdelim":10365,"ĠAcad":10366,"ĠPapa":10367,"ultan":10368,"adament":10369,"ĠDun":10370,"apas":10371,"Ġanava":10372,"Ġanalis":10373,"ÃŃder":10374,"ĠRio":10375,"ĠFol":10376,"Ġproto":10377,"ĠtraÃ§as":10378,"Ġtradus":10379,"impression":10380,"Ġmeme":10381,"Ġautoct":10382,"Ã¨cres":10383,"estina":10384,"509":10385,"608":10386,"exili":10387,"404":10388,"409":10389,"edit":10390,"484":10391,"ney":10392,"ĠComm":10393,"Ġvius":10394,"ĠcaliÃ¡":10395,"Ġcapita":10396,"Ã²ste":10397,"Ġmodul":10398,"Ġverteb":10399,"Ġsubt":10400,"argar":10401,"ĠMaine":10402,"Ġaguesta":10403,"Ġveitura":10404,"Ġproductor":10405,"ĠprepausÃ¨t":10406,"ĠMedecina":10407,"Ġcinemat":10408,"Ġbloc":10409,"Ġcriticas":10410,"ĠRegim":10411,"Ġacabada":10412,"Ġpetita":10413,"Ġpotenci":10414,"Ġsauv":10415,"Ġelectrica":10416,"Ġdusau":10417,"Ġtelefon":10418,"Ġdissol":10419,"Ġbeutat":10420,"Ġorganisme":10421,"ocratica":10422,"Ġdeclaracion":10423,"Ġintegrat":10424,"ĠMesopotam":10425,"Ġinteressant":10426,"idaritat":10427,"Ġmicro":10428,"Marna":10429,"Ġvasta":10430,"ĠMinistÃ¨ri":10431,"Ġegipciana":10432,"Ġvideoj":10433,"ĠOlimpics":10434,"ĠGeorgia":10435,"ĠPeitieus":10436,"Ġdispositiu":10437,"ĠtrajectÃ²ria":10438,"Ġcivilizacions":10439,"Ex":10440,"NES":10441,"long":10442,"ufa":10443,"ward":10444,"Ġ88":10445,"Ġpist":10446,"ataca":10447,"alem":10448,"alien":10449,"Ġtap":10450,"guÃ¨":10451,"guai":10452,"tain":10453,"ĠAran":10454,"ĠAur":10455,"ĠMalh":10456,"Ġrencont":10457,"ĠDam":10458,"ĠDim":10459,"aderia":10460,"Ġparlada":10461,"ĠBell":10462,"ensivas":10463,"ĠRaf":10464,"ĠTant":10465,"Ġ1906":10466,"Ġsuici":10467,"ĠJaur":10468,"Ġcontribucion":10469,"Ġtotau":10470,"Ġabst":10471,"Ġabril":10472,"idacion":10473,"505":10474,"ĠuÃ¨it":10475,"449":10476,"894":10477,"899":10478,"Ġreclam":10479,"405":10480,"Ġcreiss":10481,"ĠComte":10482,"Ġrelief":10483,"renÃ§":10484,"Ġelev":10485,"Ġadre":10486,"ĠadvÃ¨rs":10487,"Ġmeteisses":10488,"Ġrdre":10489,"Ġcristi":10490,"Ġarticul":10491,"Ġconstituissi":10492,"ĠtÃ¨rÃ§":10493,"Ġtenon":10494,"ĠarribÃ¨ron":10495,"Armada":10496,"Ġcirconst":10497,"Ġvenda":10498,"Ġnumeric":10499,"ĠprÃ²pris":10500,"Ġsaupre":10501,"Ġpartejat":10502,"Ġpresidents":10503,"Ġquantitats":10504,"Ġquinz":10505,"ĠJohann":10506,"Ġcatolic":10507,"Ġcatolics":10508,"Ġfranci":10509,"ĠCrosats":10510,"Ġfilms":10511,"ĠsubstÃłncia":10512,"Ġjustific":10513,"Ġcapturat":10514,"Ġscientificas":10515,"Ġrescontre":10516,"Ġprecedents":10517,"Ġlunar":10518,"Ġdificil":10519,"aspÃ¨cte":10520,"ĠborgesiÃ¡":10521,"osaures":10522,"Ãºstria":10523,"):":10524,"Oc":10525,"ibre":10526,"ood":10527,"pt":10528,"su":10529,"uil":10530,"uals":10531,"veire":10532,"Ãįndia":10533,"ĠÃ¨r":10534,"enz":10535,"ĠsÃ²m":10536,"aristocrÃłcia":10537,"alia":10538,"Ġfal":10539,"itima":10540,"ĠLon":10541,"ĠLem":10542,"ĠesfÃ²rÃ§":10543,"Ġncias":10544,"elin":10545,"Ġgor":10546,"ĠSet":10547,"ĠSNC":10548,"ĠPra":10549,"utor":10550,"ĠDar":10551,"diu":10552,"Ġjac":10553,"ĠRÃ²se":10554,"ĠFern":10555,"Ã¡s":10556,"ĠJau":10557,"ogl":10558,"ĠhÃ²rt":10559,"Ġhusta":10560,"Ã¨gis":10561,"Ġestud":10562,"Ġ1840":10563,"Ġraion":10564,"504":10565,"508":10566,"Ġorala":10567,"605":10568,"609":10569,"808":10570,"809":10571,"591":10572,"406":10573,"Ġoccitanistas":10574,"454":10575,"488":10576,"Ġmesurar":10577,"Ġvirada":10578,"ĠKen":10579,"ĠKhan":10580,"Ġelei":10581,"Ġassist":10582,"Ġpopulars":10583,"ieras":10584,"Ġcapitan":10585,"Ġprodutz":10586,"ĠplaÃ§as":10587,"Ġverda":10588,"ĠglÃ²b":10589,"Ġofr":10590,"Ġcoer":10591,"ĠInt":10592,"Ġensajar":10593,"ĠdeviÃ¡n":10594,"riÃ¡n":10595,"ĠcomenÃ§at":10596,"Ġmantuas":10597,"Ġartistic":10598,"ĠRoy":10599,"ĠsabÃ¨m":10600,"Ġsimpl":10601,"Ġsimples":10602,"ĠsecrÃ¨t":10603,"Ġajust":10604,"eishen":10605,"urban":10606,"plomb":10607,"Ġsostengut":10608,"Ġvegada":10609,"Ġabandonada":10610,"Ġdevesida":10611,"Ġpopularitat":10612,"Ġarbit":10613,"ctav":10614,"ĠdesplaÃ§ar":10615,"Ġprosper":10616,"ĠComunautat":10617,"ĠCantal":10618,"ĠPlaÃ§a":10619,"ĠdejÃ³s":10620,"leuve":10621,"Ġmarchands":10622,"Ġtestifica":10623,"ĠmediterranÃ¨u":10624,"ĠParticipÃ¨t":10625,"ĠrenfÃ²rÃ§ar":10626,"ĠTrencavel":10627,"axe":10628,"latge":10629,"ualas":10630,"vetz":10631,"Îµ":10632,"Ïĥ":10633,"estes":10634,"ĠcÃ¨rt":10635,"Ġfat":10636,"Ġfantas":10637,"icalas":10638,"amassa":10639,"Ġnost":10640,"Ġnais":10641,"ĠMÃ²rt":10642,"oth":10643,"Ġ1935":10644,"Ġ1908":10645,"acum":10646,"articles":10647,"446":10648,"805":10649,"597":10650,"691":10651,"896":10652,"898":10653,"intura":10654,"ĠChap":10655,"Ġchuc":10656,"Ġcausar":10657,"Ġfamosas":10658,"ĠviÃ¨lhs":10659,"Ġdefug":10660,"Ġobs":10661,"ĠatmosfÃ¨ra":10662,"ĠGuin":10663,"Ġafront":10664,"Ġtrobam":10665,"Ġmenat":10666,"Ġrealizats":10667,"Ġflam":10668,"Ġfasas":10669,"Ġfial":10670,"inator":10671,"Ġveituras":10672,"Ġposterior":10673,"Ġprepausat":10674,"Ġamericans":10675,"Ġsinta":10676,"Ġtalent":10677,"Ġconservacion":10678,"Ġdetalhs":10679,"Ġbritanicas":10680,"Ġresponsables":10681,"ĠbalhÃ¨t":10682,"Ġdesignat":10683,"Ġmilitant":10684,"Ġelectric":10685,"Ġjutjament":10686,"oxid":10687,"Ġmusical":10688,"Ġobservar":10689,"Ġmainatge":10690,"Ġdesaparegut":10691,"Ġlegislativas":10692,"Ġestatsunidenc":10693,"Ġinterpretacion":10694,"Ġdedicada":10695,"Ġcircons":10696,"Ġcoton":10697,"Ġmiralh":10698,"ĠDiccionari":10699,"Ġpentru":10700,"ĠvÃ¨spre":10701,"ĠGaulle":10702,"ĠMesopotamia":10703,"',":10704,"cf":10705,"eiss":10706,"sas":10707,"utada":10708,"yr":10709,"ÏĦ":10710,"Ġit":10711,"Ġ33":10712,"Ġlir":10713,"Ġmosa":10714,"Ġlava":10715,"orf":10716,"orom":10717,"Ġfederacion":10718,"riment":10719,"Ġbos":10720,"roit":10721,"ĠPubl":10722,"Ġconcili":10723,"ĠMc":10724,"Ġod":10725,"Ġov":10726,"ĠrÃ²ca":10727,"ĠDrech":10728,"aduras":10729,"Ġparas":10730,"Ġpastor":10731,"ĠBasses":10732,"oto":10733,"ĠRay":10734,"ĠFas":10735,"ĠTÃ¨r":10736,"ĠGabri":10737,"Ġintra":10738,"Ġ1957":10739,"ĠNatur":10740,"Ġtrach":10741,"Ġcompat":10742,"Ġpredic":10743,"506":10744,"604":10745,"Ġdonant":10746,"exemp":10747,"Ġrecents":10748,"Ġtrenc":10749,"Ġrepeti":10750,"Ġpolici":10751,"Ġpolem":10752,"Ġbasca":10753,"483":10754,"ĠmiliÃ¨rs":10755,"estim":10756,"Ã²sts":10757,"Ġlimita":10758,"Ġsucced":10759,"cisme":10760,"Ġvisibla":10761,"ureccion":10762,"lation":10763,"Ġrenonci":10764,"ĠValÃ©ncia":10765,"Ġseccions":10766,"Ġprepausar":10767,"ĠCatalana":10768,"Ġsentir":10769,"Ġadministracion":10770,"Ġparteja":10771,"Ġbatalh":10772,"Ġcavals":10773,"Ġaperteni":10774,"ĠacomenÃ§":10775,"ĠPels":10776,"Ġaventura":10777,"Ġperfeccion":10778,"clesi":10779,"reux":10780,"ĠsÃ²cis":10781,"Ġacompanhat":10782,"Ġestenduda":10783,"Ġprigondament":10784,"Ġtribunal":10785,"Ġparcialament":10786,"Ġdividit":10787,"execucion":10788,"ĠotÃŃs":10789,"Ġguitarra":10790,"Ġdiscussion":10791,"Ġlibertats":10792,"Ġenvirons":10793,"ĠLuxemborg":10794,"Los":10795,"Th":10796,"jol":10797,"non":10798,"Ġ99":10799,"Ġdetz":10800,"any":10801,"erÃł":10802,"rea":10803,"Ġeca":10804,"Ã¨ti":10805,"olesc":10806,"ĠAis":10807,"Ġremira":10808,"ĠStan":10809,"ĠEle":10810,"Ġou":10811,"ione":10812,"chev":10813,"lab":10814,"ĠBorb":10815,"ĠFederacion":10816,"Ġinnov":10817,"gey":10818,"orna":10819,"Ġentitat":10820,"assion":10821,"Ã¯ca":10822,"Ġtracha":10823,"Ġaqueleis":10824,"Ġpress":10825,"Ġabitacions":10826,"Ġespor":10827,"ocantas":10828,"ĠcÃ²l":10829,"Ġimplic":10830,"Ġescala":10831,"606":10832,"806":10833,"498":10834,"499":10835,"ĠAnat":10836,"657":10837,"ilhariÃ¡":10838,"ĠChab":10839,"epres":10840,"ologie":10841,"parta":10842,"Ġconfondre":10843,"Ġutilizan":10844,"ĠconsidÃ¨ran":10845,"Ġcrisis":10846,"Ġexprim":10847,"Ġexpression":10848,"Ġexplos":10849,"ĠmantÃ©ner":10850,"Ġnoiri":10851,"Ġconsiderable":10852,"Ġbarre":10853,"Ġveson":10854,"Ġarriban":10855,"ĠConserv":10856,"isiologia":10857,"Ġistoricament":10858,"ĠmatÃ¨rias":10859,"ĠVietnam":10860,"Ġpracticament":10861,"Ġdominanta":10862,"ĠcollÃ²qui":10863,"ĠaccÃ¨s":10864,"ĠCanal":10865,"Ġbalhat":10866,"Ġjutges":10867,"Enric":10868,"Ġfutura":10869,"Ġmodificacions":10870,"ĠJuli":10871,"ĠVictor":10872,"ĠreÃ¼nion":10873,"Ġfortificacions":10874,"Ġbotan":10875,"Ġindependents":10876,"Ġreconstru":10877,"Ġestendut":10878,"Ġabsolut":10879,"ĠClaude":10880,"Ġdiuers":10881,"ĠbÃ¨stias":10882,"Ġnazi":10883,"Emperaire":10884,"Ġvescomte":10885,"Ġrespectar":10886,"Ġdecenni":10887,"ĠcratÃ¨r":10888,"Ġencargat":10889,"empachar":10890,"dura":10891,"eit":10892,"iÃ³s":10893,"loss":10894,"llia":10895,"rÃ²c":10896,"Ġdou":10897,"Ġderiva":10898,"ones":10899,"Ġaire":10900,"Ã¨des":10901,"arde":10902,"atori":10903,"ister":10904,"Ġloa":10905,"Ġfina":10906,"Ġfleuve":10907,"Ġnautres":10908,"ĠAri":10909,"Ġbassas":10910,"Ġall":10911,"ĠBelle":10912,"Ġanteriora":10913,"Ġprol":10914,"Ġ1916":10915,"Ġ1927":10916,"ĠVÃ¨n":10917,"ĠNam":10918,"ĠNÃ²stra":10919,"ĠIt":10920,"autors":10921,"Ġpellic":10922,"ostals":10923,"alhors":10924,"Ġcarre":10925,"bremb":10926,"ĠHal":10927,"Ġdonava":10928,"804":10929,"495":10930,"451":10931,"intens":10932,"Ġformacions":10933,"ilhat":10934,"Ġdescriure":10935,"Ġsociau":10936,"Ġerror":10937,"retze":10938,"meses":10939,"Ġbail":10940,"estatua":10941,"Ġtradicionals":10942,"Ġdintra":10943,"Ġleon":10944,"Ġlector":10945,"Ġvallon":10946,"Ġparticularitat":10947,"Ġfondar":10948,"ĠdebanarÃł":10949,"remont":10950,"Ġestabliment":10951,"Ġemble":10952,"arriba":10953,"Ġesquich":10954,"Ġcomercialas":10955,"Ġquimic":10956,"Ġescrichas":10957,"Ġoccidental":10958,"Ġuniversitats":10959,"Ġgovernament":10960,"Ġmitans":10961,"Ġdefinitiu":10962,"ĠSiria":10963,"Ġjaponesa":10964,"Ã¨mias":10965,"ĠTurquia":10966,"ĠconcÃ¨ptes":10967,"ĠavanÃ§ada":10968,"Ġmaximum":10969,"Ġgravitacion":10970,"Ġargentin":10971,"Ġfacilitar":10972,"Ġproblema":10973,"Ġrevenge":10974,"Î¿ÏĤ":10975,"ĠCopa":10976,"ĠsequÃ©ncia":10977,"ĠGÃłllia":10978,"Ġefectius":10979,"ĠApollo":10980,"Ġnuech":10981,"Ġpartenariat":10982,"ĠtÃ²cat":10983,"223":10984,"321":10985,"FA":10986,"biliz":10987,"dits":10988,"ford":10989,"hr":10990,"mina":10991,"uy":10992,"ugas":10993,"vera":10994,"ÑĢ":10995,"ĠÃ²rdres":10996,"ĠdÃ¨u":10997,"enqu":10998,"Ġlemosin":10999,"tea":11000,"Ġpav":11001,"endi":11002,"Ã²dis":11003,"isat":11004,"Ġcometa":11005,"Ãłisser":11006,"Ġpargue":11007,"ĠBos":11008,"ctica":11009,"ctitud":11010,"2007":11011,"Ġinten":11012,"iciana":11013,"assemblada":11014,"Ġpluma":11015,"ĠOpausÃ¨t":11016,"Ġcardin":11017,"Ġescri":11018,"Ġconsist":11019,"Ã²lh":11020,"Ġrecampa":11021,"408":11022,"Ġreplegar":11023,"Ġsolara":11024,"651":11025,"Ġprinc":11026,"Ġsense":11027,"Ġtempses":11028,"Ġadult":11029,"Ġconstanta":11030,"Ġmusicas":11031,"Ġinterpret":11032,"Ġcosin":11033,"Ġellip":11034,"ĠmetÃ¨t":11035,"Ġperiod":11036,"Ġpublicacions":11037,"Ġespecial":11038,"ĠmiÃ¨ja":11039,"Ġtennis":11040,"ĠefiÃ¨ch":11041,"Ġtrebol":11042,"Ġcambiat":11043,"Ġostau":11044,"eaux":11045,"Ġproduire":11046,"Ġgeografia":11047,"Ġenterrat":11048,"Ġcontenon":11049,"Ġcostumas":11050,"duccions":11051,"ĠmostrÃ¨t":11052,"Ġrevolucionari":11053,"Ġequipas":11054,"Ġobservacions":11055,"ĠobligatÃ²ri":11056,"ĠDomin":11057,"ĠMarie":11058,"Ġportuguesa":11059,"Ġfrontal":11060,"ĠcementÃ¨ri":11061,"ĠbÃ¨stia":11062,"ĠBourgogne":11063,"Ġdescendents":11064,"Ġinspirat":11065,"Ġvessant":11066,"ĠARN":11067,"ĠPossed":11068,"avitalhament":11069,"ĠSNCF":11070,"Ast":11071,"Aust":11072,"Denis":11073,"UE":11074,"out":11075,"sen":11076,"sÃ¨gle":11077,"Ġ56":11078,"Ġdeguda":11079,"Ġpion":11080,"ĠsÃ¨rra":11081,"ĠLista":11082,"Ġenj":11083,"Ġnion":11084,"Ġnaf":11085,"antic":11086,"Ġrena":11087,"ĠDint":11088,"Ãłm":11089,"apond":11090,"ĠRad":11091,"ctar":11092,"terre":11093,"ĠGrop":11094,"ĠprÃ¨mis":11095,"acamp":11096,"med":11097,"Ã¨rsas":11098,"emission":11099,"Ġabit":11100,"ĠOcean":11101,"Ġ1866":11102,"leses":11103,"Ġrais":11104,"Ġconsul":11105,"Ġorgans":11106,"ĠHistoire":11107,"ardins":11108,"Ġcamba":11109,"407":11110,"496":11111,"Ġmunicipi":11112,"Ġsolide":11113,"652":11114,"Ġcrem":11115,"Ġcreish":11116,"Ġchimp":11117,"rice":11118,"Ġmandada":11119,"Ġcentenat":11120,"Ġcorrupcion":11121,"ĠFrank":11122,"espel":11123,"Ġafect":11124,"italian":11125,"Ġtrabalhan":11126,"gio":11127,"Ġcontracte":11128,"Ġvisible":11129,"Ġprenent":11130,"Ġactuals":11131,"ĠReich":11132,"Ġbastissas":11133,"Ġindian":11134,"ĠlingÃ¼ista":11135,"Ġsostenguda":11136,"ĠpÃ¨rdre":11137,"Ġcrosta":11138,"Ġjutge":11139,"Ġidentitat":11140,"Ġmusicau":11141,"Ġconstitucional":11142,"Ġminoritats":11143,"Ġmodificar":11144,"Ġmalaisada":11145,"Ġopausat":11146,"ĠSovent":11147,"Ġprocediment":11148,"ĠInternacional":11149,"ĠmonastÃ¨ri":11150,"ĠMiquÃ¨u":11151,"ĠCalifat":11152,"ĠresÃ¨rva":11153,"ĠMicha":11154,"Ġfotografias":11155,"ĠaucÃ¨ls":11156,"ĠtÃ²catocantas":11157,"133":11158,"De":11159,"cre":11160,"ste":11161,"®n":11162,"Ġiras":11163,"Ġdorm":11164,"Ġlent":11165,"Ġpenda":11166,"Ġcans":11167,"Ġcents":11168,"atas":11169,"atra":11170,"Ġmilh":11171,"alo":11172,"Ġvals":11173,"Ġreci":11174,"Ġbicicle":11175,"ĠSur":11176,"ĠSara":11177,"ĠSÃ¨m":11178,"Ġsonda":11179,"ĠDire":11180,"stin":11181,"lay":11182,"ĠFeder":11183,"ĠTemple":11184,"acas":11185,"Ġapp":11186,"ariat":11187,"onduda":11188,"agar":11189,"Ġentrepresa":11190,"Ġactius":11191,"Ġautonomia":11192,"Ġestamp":11193,"Ġ1868":11194,"Ġfinau":11195,"Ã¨ssen":11196,"487":11197,"Ġcausada":11198,"ganistan":11199,"alizÃ¨t":11200,"ĠWal":11201,"ĠgrÃ¨gas":11202,"Ġdebit":11203,"Ġlegend":11204,"Ġlimitats":11205,"Ġnacionalisme":11206,"Ġrepresentada":11207,"Ġconsideradas":11208,"afar":11209,"Ġrenom":11210,"Ġfoncionaris":11211,"oniers":11212,"Alb":11213,"Ġfusada":11214,"Ġcantons":11215,"Ġcatast":11216,"Ġsentiments":11217,"Ġprimari":11218,"ĠquartiÃ¨rs":11219,"Ġcomerciaus":11220,"inesas":11221,"ĠPolit":11222,"Ġbatalhas":11223,"Ġpossedisson":11224,"ĠCompanh":11225,"Ġvirus":11226,"Ġcomplex":11227,"Ġdenonci":11228,"ĠGrÃ¨cs":11229,"Ġcellula":11230,"gulara":11231,"ĠAguest":11232,"ĠipotÃ¨si":11233,"ĠCapitÃ²li":11234,"ĠMaced":11235,"ĠÃ¨uros":11236,"Ġramaderia":11237,"arrestar":11238,"ĠFabre":11239,"atacar":11240,"ĠRiver":11241,"ĠProvÃŃncia":11242,"exploracion":11243,"Ġdignitat":11244,"Ã³rrer":11245,"Ġcomparason":11246,"ĠJaurÃ©s":11247,"ĠVÃ¨nus":11248,"\"),":11249,"123":11250,"227":11251,"IS":11252,"Ong":11253,"ater":11254,"bres":11255,"vÃ¨r":11256,"Ġisser":11257,"Ġpomp":11258,"ĠcÃ¯":11259,"incl":11260,"Ġvul":11261,"Ġvern":11262,"Ġengan":11263,"guec":11264,"Ã¨rva":11265,"uscul":11266,"Ġdelic":11267,"olas":11268,"Ġ156":11269,"ĠSha":11270,"roy":11271,"ĠPent":11272,"ĠMala":11273,"eto":11274,"ĠDin":11275,"ĠDie":11276,"Ġparam":11277,"dire":11278,"ĠFlam":11279,"idrogÃ¨n":11280,"ĠGa":11281,"geois":11282,"Ġ1923":11283,"Ġ1903":11284,"ĠVas":11285,"ĠpoirÃł":11286,"Ġtematica":11287,"Ġcapitat":11288,"assassinat":11289,"Ġarquitect":11290,"Ġpreses":11291,"Ġavesque":11292,"Ġ1876":11293,"Ġrament":11294,"ĠQing":11295,"503":11296,"esclaus":11297,"ĠpuÃ¨g":11298,"Ġpais":11299,"897":11300,"sse":11301,"494":11302,"ferica":11303,"457":11304,"aquelÃł":11305,"Ġchal":11306,"pulsion":11307,"Ġroges":11308,"Ġcasa":11309,"ĠGuy":11310,"acids":11311,"ĠinterÃ©s":11312,"Ġliteraris":11313,"Ġrecono":11314,"ĠMonte":11315,"Ġtradicionau":11316,"Ġorganiza":11317,"Ġorganizats":11318,"Ġtecnologias":11319,"Ġparticipa":11320,"ĠextrÃ¨m":11321,"Ġindians":11322,"Ġjogat":11323,"Ġblind":11324,"Ġemig":11325,"ĠGrands":11326,"ĠprÃ²prias":11327,"urgia":11328,"isteix":11329,"Ġbanl":11330,"Ġdefinitiva":11331,"ĠcavalariÃ¡":11332,"ĠprovenÃ§ala":11333,"Ġeissits":11334,"Ġgravitat":11335,"ĠHenry":11336,"Ġjuridica":11337,"ĠanonciÃ¨t":11338,"ĠDanem":11339,"Ġparisenc":11340,"Ġreiaumes":11341,"URSS":11342,"ĠtelescÃ²pi":11343,"ĠSuÃ¨cia":11344,"Ġemperaires":11345,"127":11346,"Uc":11347,"gran":11348,"nar":11349,"pos":11350,"pols":11351,"rdia":11352,"ster":11353,"Ġ34":11354,"Ġ32":11355,"ĠdÃ¨":11356,"enem":11357,"Ġcla":11358,"ĠcÃ¨rta":11359,"Ġmist":11360,"Ġmud":11361,"Ġmistral":11362,"univers":11363,"itans":11364,"Ġunif":11365,"riÃ¨rs":11366,"rific":11367,"taire":11368,"Ġbis":11369,"Ġgolf":11370,"ĠSob":11371,"aix":11372,"ett":11373,"Ġalt":11374,"Ġalas":11375,"ĠBlas":11376,"ĠBaz":11377,"ĠLav":11378,"Ġ1952":11379,"ĠNaut":11380,"ĠentrÃ²":11381,"Ġcomplic":11382,"autonomia":11383,"Ġresum":11384,"ĠresÃ²l":11385,"ĠespÃ²rt":11386,"Ġregent":11387,"Ġconsens":11388,"507":11389,"ĠuÃ²us":11390,"592":11391,"692":11392,"403":11393,"ĠDef":11394,"ĠÂ»).<|":11395,"Ġcreis":11396,"ĠChr":11397,"Ġdivessa":11398,"espectacle":11399,"ĠvolÃ¨tz":11400,"Ġconform":11401,"543":11402,"547":11403,"enÃ§ament":11404,"ĠerÃ¡":11405,"Ġespeciala":11406,"Ġmajoras":11407,"ĠZh":11408,"Ġtecnic":11409,"ĠPuÃ¨g":11410,"acabÃ¨ron":11411,"ĠdobÃ¨rta":11412,"Ġfisicas":11413,"Ġ700":11414,"Ġtorres":11415,"ĠlingÃ¼isticas":11416,"Ġnecessaris":11417,"Ġmondiau":11418,"Ġnautors":11419,"Ġmerav":11420,"Ġpotz":11421,"Ġespacial":11422,"Ġviolon":11423,"ĠNacionau":11424,"Ġfotografia":11425,"ĠprÃ²ches":11426,"Ġaumenta":11427,"ĠSoÃ¯ssa":11428,"ĠArabis":11429,"Ġcontuniar":11430,"ĠSeriÃ¡":11431,"Ġgaran":11432,"accent":11433,"Ġmulti":11434,"Ġprefaci":11435,"extension":11436,"ĠtalhiÃ¨r":11437,"ĠÃĩaquelÃł":11438,"Associacion":11439,"Ġvolcanica":11440,"Ġexcell":11441,"Ġcontribucions":11442,"ĠOng":11443,"Ġconsacrat":11444,"ĠÃ§o":11445,"ĠPichona":11446,"Ġafrican":11447,"ĠCapitÃ¨t":11448,"ĠpermÃ©s":11449,"Ġmarselh":11450,"ĠObten":11451,"icisme":11452,"operacions":11453,"Ġexclusivament":11454,"Ġrepublican":11455,"Ġvorejat":11456,"Ġficcion":11457,"Ġbacteri":11458,"estenal":11459,"Ġrecomanda":11460,"ĠCatolica":11461,"ĠNept":11462,"Ġindoeurop":11463,"ĠFebus":11464,"ĠBabilÃ²nia":11465,"ĠDanemarc":11466,"%.<|":11467,"'\"":11468,"866":11469,"cut":11470,"rÃ¯":11471,"ving":11472,"Ø§":11473,"Ġic":11474,"Ġign":11475,"ĠaÃ§Ã²":11476,"Ġsav":11477,"Ġmina":11478,"raments":11479,"itt":11480,"Ġtien":11481,"Ġvign":11482,"ĠAh":11483,"ĠCarri":11484,"Ġgotic":11485,"ĠSala":11486,"ĠSib":11487,"inspir":11488,"Ã©g":11489,"Ãłvia":11490,"ĠFay":11491,"Ġproj":11492,"Ġproject":11493,"Ġprend":11494,"ĠprÃ©ner":11495,"Ġ1904":11496,"acta":11497,"ĠentraÃ¯na":11498,"euil":11499,"ĠEsqu":11500,"ocal":11501,"Ġmarges":11502,"Ġacus":11503,"Ġacost":11504,"Ġregiment":11505,"ĠpartiguÃ¨t":11506,"Ġ1878":11507,"Ġ1888":11508,"Ġ1894":11509,"Ġserada":11510,"603":11511,"607":11512,"ĠHomo":11513,"443":11514,"elhas":11515,"807":11516,"ĠfinanÃ§as":11517,"893":11518,"ĠAnci":11519,"Ġtour":11520,"Ġcomuns":11521,"Ġassim":11522,"Ġassass":11523,"Ġdefun":11524,"ĠforÃ§ada":11525,"584":11526,"586":11527,"Ġqualitats":11528,"Ġafirm":11529,"Ġcanons":11530,"egur":11531,"Ġvisitar":11532,"Ġ47":11533,"Ġcompausan":11534,"arnacion":11535,"ĠcÃ²rda":11536,"Ġsignificacion":11537,"Ġmoviment":11538,"Ġintrodus":11539,"influ":11540,"Ġfoncionar":11541,"Ġvicepres":11542,"Ġarribada":11543,"Ġvariats":11544,"Ġlimitadas":11545,"Ġparticipat":11546,"ĠdescobÃ¨rtas":11547,"indica":11548,"Ġcivilas":11549,"timologia":11550,"Ġmandats":11551,"ĠterrÃ¨stras":11552,"Ġoriginau":11553,"Ġperduda":11554,"Ġquimics":11555,"ĠpÃ²rts":11556,"Ġpresidenta":11557,"ĠBastida":11558,"Ġsigueren":11559,"ĠlÃ²nga":11560,"ĠmiÃ¨gjorn":11561,"Ġvenceires":11562,"rofich":11563,"Ġfugir":11564,"Ġracontes":11565,"ĠaprofichÃ¨t":11566,"ĠMiquÃ¨l":11567,"ĠPlaton":11568,"Ġespandida":11569,"ĠOtoman":11570,"elaboracion":11571,"566":11572,"Ev":11573,"Las":11574,"Vi":11575,"camin":11576,"eja":11577,"Â´":11578,"Ã¹":11579,"Ġond":11580,"Ġille":11581,"Ġdets":11582,"onada":11583,"Ġpiren":11584,"Ã¨iras":11585,"Ġsanta":11586,"ĠcuÃ¨":11587,"erd":11588,"inu":11589,"alin":11590,"oro":11591,"Ġquala":11592,"ĠquÃ¯":11593,"Ġtria":11594,"ĠLl":11595,"Ġestiu":11596,"rige":11597,"ĠreÃ¯n":11598,"ĠbÃ¨las":11599,"Ġbotar":11600,"ĠCou":11601,"Ġgat":11602,"ĠSta":11603,"Ġmaites":11604,"ĠRel":11605,"aba":11606,"Ġinteriora":11607,"Ġsupausa":11608,"icit":11609,"mete":11610,"andas":11611,"euf":11612,"ĠUl":11613,"oba":11614,"autit":11615,"Ġpresoniers":11616,"Ġacor":11617,"Ġacarn":11618,"ĠOt":11619,"Ġ1867":11620,"ĠpuÃ²i":11621,"803":11622,"excepcion":11623,"Ġtemples":11624,"Ġneol":11625,"ĠAnautita":11626,"Ġpolim":11627,"Ġpassatges":11628,"Ġtoti":11629,"Ġencreu":11630,"Ġdivendres":11631,"ierat":11632,"ĠatÃ²ms":11633,"Ġmeteissas":11634,"ĠefÃ¨it":11635,"avantatge":11636,"inhar":11637,"Ġgeografica":11638,"Ġvictori":11639,"Ġdimars":11640,"Ġdemandas":11641,"iÃ¨re":11642,"Ġprogram":11643,"toine":11644,"ĠdubÃ¨rta":11645,"Ġsaup":11646,"Ġemplegar":11647,"Ġvariadas":11648,"ĠpoiriÃ¡n":11649,"Ġliurament":11650,"Ġprecedenta":11651,"Ġpercors":11652,"ĠprivilÃ¨gis":11653,"ĠestrangiÃ¨rs":11654,"Ġderivat":11655,"Ġengatjament":11656,"Ġcharte":11657,"Ġregardant":11658,"alimentacion":11659,"Ġgascona":11660,"Ġbizantina":11661,"ĠbrasiliÃ¨r":11662,"ĠCercle":11663,"Ġaucupacion":11664,"francÃ©s":11665,"Ġdenominacion":11666,"966":11667,"Ocean":11668,"cor":11669,"Ġondas":11670,"enadas":11671,"teti":11672,"tela":11673,"anava":11674,"aret":11675,"Ġmie":11676,"Ã²re":11677,"ĠfÃ²nts":11678,"Ġquart":11679,"aue":11680,"Ġesquel":11681,"Ġvot":11682,"Ġenro":11683,"amina":11684,"elas":11685,"ĠCalais":11686,"ĠCate":11687,"ĠPequ":11688,"ĠMeuse":11689,"chet":11690,"Ġparo":11691,"ĠparrÃ²":11692,"ĠBassa":11693,"ĠFront":11694,"ters":11695,"actes":11696,"ova":11697,"ĠNÃ²stre":11698,"ĠIeu":11699,"opinion":11700,"Ġfauna":11701,"Ġexpuls":11702,"agnet":11703,"Ġhra":11704,"ĠQuin":11705,"ultors":11706,"Ġribas":11707,"481":11708,"482":11709,"Ġpassats":11710,"Ġluchas":11711,"Ġamino":11712,"Ġcomunitats":11713,"Ġseguisson":11714,"Ġquias":11715,"Ġdesvolopa":11716,"ĠCarl":11717,"Ġdebats":11718,"ĠbastiguÃ¨t":11719,"ĠRoan":11720,"Ancian":11721,"Ġmotors":11722,"Ġdefinida":11723,"Ġcombinason":11724,"eries":11725,"Ġactivament":11726,"Ġnomenar":11727,"ĠcobÃ¨rta":11728,"Ġganhat":11729,"ocupÃ¨t":11730,"Ġmantenement":11731,"Ġpossedissi":11732,"Ġacceptat":11733,"Ġuniversitari":11734,"untament":11735,"ĠSuperi":11736,"ĠLengas":11737,"Ġlhi":11738,"Ġcaptura":11739,"Ġapelada":11740,"Ġfortificada":11741,"ĠbÃ²sques":11742,"oblig":11743,"Ġribos":11744,"Ġflaca":11745,"ĠdejÃł":11746,"edoas":11747,"Ġnavigacion":11748,"ĠpluÃ¨jas":11749,"ĠresÃ¨rvas":11750,"Ġespecificas":11751,"Seine":11752,"Ġprincessa":11753,"Ġchimpanz":11754,"Ongria":11755,"Ġencreuament":11756,"646":11757,"age":11758,"cons":11759,"gre":11760,"gada":11761,"von":11762,"Å¡":11763,"Ġ37":11764,"Ġ95":11765,"encha":11766,"Ġaxe":11767,"Ġcod":11768,"arp":11769,"erar":11770,"quen":11771,"Ġeuc":11772,"Ġlaus":11773,"ores":11774,"isica":11775,"Ġlop":11776,"Ġtar":11777,"ĠtÃ¯":11778,"Ġtort":11779,"oms":11780,"aule":11781,"Ġvath":11782,"Ġperdon":11783,"amilha":11784,"Ġnan":11785,"Ġberb":11786,"ĠCaval":11787,"Ġcomer":11788,"leans":11789,"Ġparelhs":11790,"ĠBart":11791,"ĠFal":11792,"2006":11793,"terr":11794,"idÃ¨as":11795,"ĠNil":11796,"ĠNÃ²u":11797,"Ġtematicas":11798,"Ġaup":11799,"1998":11800,"Ġcontro":11801,"emen":11802,"Ġmarin":11803,"Ġmarques":11804,"ĠOp":11805,"Ġautomob":11806,"Ġimper":11807,"ĠuÃ¨ch":11808,"ĠHel":11809,"441":11810,"Ġchau":11811,"ignon":11812,"Ġadonc":11813,"amba":11814,"Ġrevision":11815,"Ġestadi":11816,"ĠSonque":11817,"Ġgross":11818,"Ġverai":11819,"ĠCarcin":11820,"Ġdestrus":11821,"Ġnacionalistas":11822,"exprim":11823,"Ġretard":11824,"Ġretorica":11825,"ĠefÃ¨ctes":11826,"Ġparticipants":11827,"Ġconvert":11828,"ĠAbb":11829,"institucion":11830,"Ġende":11831,"ĠendacÃ²m":11832,"Ġcatars":11833,"Ġrebell":11834,"ĠvictÃ²rias":11835,"Ġnauts":11836,"ĠAnglÃ©s":11837,"estudiar":11838,"ocupa":11839,"Ġacceptada":11840,"Ġponts":11841,"Ġprotegit":11842,"Ġpoblat":11843,"Ġinformacion":11844,"ĠDioc":11845,"esquina":11846,"Ġprofessionala":11847,"ĠglaciÃ¨rs":11848,"Ġsuperioras":11849,"ĠpoissanÃ§as":11850,"Ġapelats":11851,"ĠLaura":11852,"ĠbilingÃ¼e":11853,"Ġeditat":11854,"oquim":11855,"Ġartificiala":11856,"espleitacion":11857,"Ġceremonia":11858,"Ġperpet":11859,"Ġremontar":11860,"ĠMichael":11861,"066":11862,"546":11863,"As":11864,"Occident":11865,"eÃ§":11866,"fond":11867,"mal":11868,"nan":11869,"pid":11870,"sud":11871,"Ġ84":11872,"ĠÃ¨ster":11873,"Ġdent":11874,"ontan":11875,"esu":11876,"Ġcorn":11877,"Ġcoc":11878,"Ġcitar":11879,"ato":11880,"Ġeclesi":11881,"Ġloas":11882,"Ġquista":11883,"Ġuniversitat":11884,"ild":11885,"ĠCuba":11886,"levat":11887,"urt":11888,"urala":11889,"igre":11890,"Ġdesert":11891,"ĠGav":11892,"Ġ1915":11893,"ĠVars":11894,"ĠNu":11895,"ĠJÃ²rdi":11896,"Ġmexic":11897,"ĠcompÃ²rta":11898,"Ġliures":11899,"ĠfÃ²rts":11900,"artistas":11901,"Ġ1859":11902,"Ġ1896":11903,"447":11904,"Ġcheval":11905,"888":11906,"Ġatmos":11907,"Ġinternet":11908,"ĠplaÃ§ar":11909,"Ãºss":11910,"ĠglÃ¨isas":11911,"Ġfilogen":11912,"ĠzÃ¨ro":11913,"ĠerÃ²i":11914,"ĠliterÃłrias":11915,"ĠtenguÃ¨t":11916,"Ġdecr":11917,"ĠfasÃ¨m":11918,"ĠfemÃ¨la":11919,"ĠZÃ¨us":11920,"Ġsimplas":11921,"Ġsegondas":11922,"ĠvÃ¨rses":11923,"Ġmotius":11924,"Ġmercats":11925,"Ġassociada":11926,"Ġisrael":11927,"ĠcomplÃ²t":11928,"ĠcomplÃ¨ta":11929,"ĠLuci":11930,"ĠConstitu":11931,"Ġoccidentalas":11932,"ĠEuropÃ¨u":11933,"ĠcorrespondÃ©ncia":11934,"Ġtransformat":11935,"Ġfrequenta":11936,"Ġpseu":11937,"Ġquauqueis":11938,"ĠsiaguÃ¨t":11939,"Ġcandid":11940,"Ġcrida":11941,"Ġmuralhas":11942,"Ġimperiau":11943,"ĠauriÃ¡n":11944,"Isla":11945,"Ġruisseaux":11946,"ocrates":11947,"Ġsuccessors":11948,"Ġhttps":11949,"Ġpedagogica":11950,"ĠPetit":11951,"Ġarrondiment":11952,"Ġpassejada":11953,"Ġexemples":11954,"ĠrapidÃłment":11955,"Ġpelegrin":11956,"ĠNadal":11957,"ĠCiceron":11958,"Ġprotagonista":11959,"Ġjurisdiccion":11960,"ĠucraÃ¯n":11961,"AF":11962,"LA":11963,"cy":11964,"dos":11965,"fÃłcia":11966,"nos":11967,"Ġsiti":11968,"invencion":11969,"rey":11970,"orl":11971,"Ġfos":11972,"Ġquals":11973,"Ġtretze":11974,"riguÃ¨ron":11975,"ĠAul":11976,"ĠCra":11977,"ĠCond":11978,"Ġ(.<|":11979,"ĠMand":11980,"eticas":11981,"ĠDur":11982,"adiÃ¨r":11983,"Ãłcias":11984,"dieu":11985,"ĠjÃ²":11986,"ĠRÃłdio":11987,"Ġinde":11988,"Ġpruss":11989,"acle":11990,"acompanh":11991,"Ġappel":11992,"Ġarro":11993,"dez":11994,"arie":11995,"opt":11996,"Ã²tles":11997,"ĠOrig":11998,"Ġvengudas":11999,"aireben":12000,"Ġ1882":12001,"Ġconsult":12002,"ĠQuint":12003,"Ġpays":12004,"Ġterra":12005,"402":12006,"493":12007,"497":12008,"ipp":12009,"thur":12010,"Ġneur":12011,"452":12012,"558":12013,"Ġchas":12014,"Ġchinesas":12015,"ĠtornÃ¨":12016,"858":12017,"Ġfonccion":12018,"ĠpermetrÃł":12019,"volopament":12020,"ĠArts":12021,"Ġconfond":12022,"Ġestatua":12023,"ĠglÃ²ria":12024,"Ġvisibles":12025,"angel":12026,"Ġproposicions":12027,"Ġsable":12028,"ĠnivÃ¨us":12029,"Ġreconquist":12030,"ĠintÃ¨rn":12031,"ĠorganizÃ¨t":12032,"Ġfrac":12033,"Ġpontan":12034,"Ġpradas":12035,"ĠPrÃºss":12036,"Ġconversion":12037,"Ġsalvar":12038,"ĠJosieus":12039,"Ġdirigits":12040,"Ġsentier":12041,"ĠCorb":12042,"Ġnormal":12043,"Ġdecisiva":12044,"ĠVerge":12045,"ĠLiter":12046,"Ġuniversala":12047,"Ġflume":12048,"Ġensenhar":12049,"Ġdiplom":12050,"ĠcomplÃ¨xes":12051,"Ġmodernizacion":12052,"Ġneutre":12053,"Ġrevenguts":12054,"Ġsubsisteix":12055,"ĠFontaine":12056,"Ġierarquia":12057,"ĠcÃłmbia":12058,"UrgÃ¨l":12059,"ĠbandiÃ¨ra":12060,"ĠsuedÃ©s":12061,"ĠSenhor":12062,"ĠGaudÃŃ":12063,"ĠPrÃºssia":12064,"%)":12065,"Jac":12066,"MI":12067,"actors":12068,"eisson":12069,"mel":12070,"mad":12071,"uau":12072,"win":12073,"Ġ46":12074,"ĠÃ¨re":12075,"Ġdralha":12076,"Ã¨ve":12077,"anges":12078,"ĠsÃ¨ria":12079,"intelligÃ©ncia":12080,"ĠmÃ¨tre":12081,"Ġtua":12082,"ĠLud":12083,"Ġvue":12084,"ĠvÃ©ser":12085,"guel":12086,"olada":12087,"Ġregu":12088,"Ġbendas":12089,"Ġgi":12090,"lets":12091,"ĠMam":12092,"otin":12093,"Ġjaci":12094,"ctic":12095,"igh":12096,"assic":12097,"Ġtrag":12098,"Ġaparicion":12099,"arida":12100,"Ġauien":12101,"ocacion":12102,"Ġ1897":12103,"Ġ1892":12104,"Ġescura":12105,"601":12106,"Ġpujada":12107,"Ġmonta":12108,"401":12109,"ĠAlpes":12110,"554":12111,"555":12112,"886":12113,"854":12114,"Ġforest":12115,"ĠWh":12116,"Ġpersonalitats":12117,"Ġcampanal":12118,"Ġdarriers":12119,"Ġeras":12120,"Ġnacionalista":12121,"Ġnegatiu":12122,"Ġnoi":12123,"Ġsimet":12124,"ĠMonde":12125,"Ġvariacion":12126,"ĠentraÃ¯nada":12127,"Ġevesque":12128,"ĠdobÃ¨rt":12129,"Ġmagist":12130,"aza":12131,"ĠlingÃ¼istics":12132,"Ġdaissi":12133,"Ġdaissant":12134,"Ġpremiereis":12135,"Ġdemandat":12136,"Ġdinastias":12137,"Ġquimista":12138,"ĠAndrieu":12139,"Ġcontinentala":12140,"Ġrefusa":12141,"Ġessenciala":12142,"Ġconstitucionala":12143,"Ġcontinuitat":12144,"ĠFlorenÃ§a":12145,"Ġeissida":12146,"Ġplataf":12147,"Ġneutr":12148,"Ġdistrictes":12149,"Ġgermanique":12150,"abandonar":12151,"ĠKarl":12152,"Ġcalcaire":12153,"Ġtangs":12154,"ĠAustrÃłlia":12155,"ĠlaboratÃ²ri":12156,"Ġsufragi":12157,"ctavius":12158,"ĠNeptun":12159,"311":12160,"317":12161,"377":12162,"Az":12163,"Aisne":12164,"fins":12165,"fran":12166,"hÃ¨r":12167,"oir":12168,"vista":12169,"willer":12170,"Ġult":12171,"ĠpÃ©":12172,"ĠpÃ¨rsa":12173,"Ġainat":12174,"ĠaqÃ¼":12175,"Ġsalas":12176,"ĠsÃ²u":12177,"quier":12178,"inatge":12179,"isacion":12180,"auracion":12181,"ried":12182,"Ġgaus":12183,"ĠSart":12184,"tif":12185,"ĠPÃ©":12186,"ĠPag":12187,"ĠEconom":12188,"randa":12189,"Ã²rda":12190,"ĠDis":12191,"ĠDab":12192,"ĠLag":12193,"Ġjardins":12194,"ĠRol":12195,"ĠFla":12196,"ĠFondacion":12197,"issons":12198,"Ġdesta":12199,"ĠIstÃ²ria":12200,"ĠIberica":12201,"Ġnominacion":12202,"implantacion":12203,"Ġcompens":12204,"ogun":12205,"opausa":12206,"Ġville":12207,"Ġsiam":12208,"umor":12209,"Ġavions":12210,"Ġhorn":12211,"Ġhistori":12212,"Ġ1854":12213,"Ġ1861":12214,"Ġescoc":12215,"501":12216,"ĠserÃ¡":12217,"ĠHug":12218,"442":12219,"Ġmonedas":12220,"ratrem":12221,"892":12222,"ulturas":12223,"Ġclin":12224,"ĠAnna":12225,"ĠAnfÃ³s":12226,"556":12227,"885":12228,"ings":12229,"Ġcentri":12230,"856":12231,"ĠKy":12232,"Ġobratges":12233,"ĠÃ®n":12234,"ificadas":12235,"Ġconfigu":12236,"Ġcancel":12237,"ĠâĢĺ":12238,"Ġcoire":12239,"ordan":12240,"Ġfuguet":12241,"Ġsimultan":12242,"Ġoficialas":12243,"engenh":12244,"ĠProf":12245,"Ġendroit":12246,"veja":12247,"Ġgeografic":12248,"âĢ¦âĢ¦":12249,"Ġmontpelh":12250,"ternitat":12251,"Ġpanor":12252,"Ġcopa":12253,"aumentar":12254,"Ġcambia":12255,"Ġuniversal":12256,"ĠMaurici":12257,"Ġflueix":12258,"ĠCentral":12259,"ĠBenlÃ¨u":12260,"Ġdesfachas":12261,"ĠcavaliÃ¨rs":12262,"Ġprofessionals":12263,"Ġmobilizacion":12264,"Ġtopony":12265,"IsraÃ¨l":12266,"Ġoland":12267,"Ġdesbarc":12268,"Ġairals":12269,"Ġpermeti":12270,"Ġdotat":12271,"ĠMilan":12272,"Ġenemic":12273,"Ġfidel":12274,"Ġremembra":12275,"Ġlinguistica":12276,"Ġsubreviv":12277,"Ġescais":12278,"Ġprotoc":12279,"Ġtransmetre":12280,"Ġreparticion":12281,"Ġerigit":12282,"ĠQuauques":12283,"ĠPaleolitic":12284,"ĠBossÃ²st":12285,"ĠGuinÃ¨a":12286,"323":12287,"313":12288,"946":12289,"AT":12290,"Ari":12291,"EM":12292,"Ger":12293,"aguÃ¨t":12294,"fra":12295,"mita":12296,"odi":12297,"pic":12298,"sta":12299,"zy":12300,"Ġion":12301,"Ġdav":12302,"tera":12303,"Ġates":12304,"ase":12305,"artes":12306,"eret":12307,"ciclop":12308,"ory":12309,"itius":12310,"ĠLiv":12311,"ĠLhÃ¨":12312,"Ġperceb":12313,"amant":12314,"Ã¨rma":12315,"olina":12316,"olitan":12317,"Ġrede":12318,"ĠCamin":12319,"Ġgam":12320,"ĠPeire":12321,"Ã§au":12322,"ulars":12323,"Ġalfabet":12324,"ĠDist":12325,"Ġpartat":12326,"ĠBerg":12327,"ensag":12328,"ĠIran":12329,"Ġnomadas":12330,"eum":12331,"Ġtanh":12332,"ĠexperiÃ©ncias":12333,"articul":12334,"Ġ1800":12335,"Ġ1865":12336,"Ã²can":12337,"Ã²ces":12338,"502":12339,"602":12340,"ĠHa":12341,"ĠHall":12342,"ĠHay":12343,"ĠdonÃ¨ron":12344,"802":12345,"891":12346,"Ġluta":12347,"Ġluch":12348,"Ġchamb":12349,"884":12350,"Ġmilitants":12351,"ĠMarÃŃa":12352,"ĠplaÃ§at":12353,"Ãºdia":12354,"amps":12355,"ĠserviguÃ¨t":12356,"ĠistÃ²rias":12357,"Ġ3000":12358,"ompanha":12359,"ĠnegÃ²":12360,"Ġcompausadas":12361,"Ġconsiderabla":12362,"afebl":12363,"ergÃłs":12364,"Ġromanicas":12365,"ĠvesÃ¨m":12366,"ĠproteÃ¯na":12367,"Ġcorsa":12368,"aparelh":12369,"azhon":12370,"Ġfrema":12371,"Ġcolleccions":12372,"ancy":12373,"Ġlibe":12374,"Ġincap":12375,"Ġprocessus":12376,"ĠgrÃłcia":12377,"ĠThi":12378,"ĠCorona":12379,"Ġpenet":12380,"Ġboti":12381,"Ġ1791":12382,"ĠAmeric":12383,"Ġcomunicar":12384,"ĠDemor":12385,"Ġcompletar":12386,"ĠprodusÃŃs":12387,"Ġresson":12388,"Ġessencial":12389,"Ġfabricar":12390,"Ġaventuras":12391,"ĠPalestina":12392,"Ġindependentas":12393,"Ġtrapan":12394,"Ġdolars":12395,"Ġmatematician":12396,"ĠIllas":12397,"ĠtestimÃ²ni":12398,"ĠleugiÃ¨rament":12399,"Ġminimum":12400,"Ġmisteri":12401,"urreccion":12402,"Ġcomprendre":12403,"Ġsesilha":12404,"Ġparisenca":12405,"instruments":12406,"Ġdavalada":12407,"Ġaccessible":12408,"ĠPÃ¨rsia":12409,"Ġdivinitat":12410,"ĠCadun":12411,"Ġvestits":12412,"ĠaranÃ©s":12413,"Ġespandit":12414,"ĠSaturne":12415,"Ġdesempuish":12416,"ĠDaniel":12417,"Ġmagazine":12418,"Ġdefugir":12419,"Ġpendait":12420,"ĠLhÃ¨ida":12421,"327":12422,"721":12423,"723":12424,"717":12425,"846":12426,"Pas":12427,"cop":12428,"posicion":12429,"uat":12430,"verg":12431,"well":12432,"ĠÃ²li":12433,"Łi":12434,"Ġlentament":12435,"onias":12436,"Ġcil":12437,"rets":12438,"Ġfesti":12439,"Ġtension":12440,"ome":12441,"ĠunivÃ¨rs":12442,"ams":12443,"ĠAÃ§Ã²":12444,"Ġbri":12445,"ĠSÃ¨t":12446,"ĠSigu":12447,"ĠPC":12448,"ĠPÃ¨ir":12449,"Ġ(âĢ":12450,"ules":12451,"eia":12452,"etÃ¨t":12453,"Ġparent":12454,"ĠBot":12455,"ĠBir":12456,"Ġjon":12457,"Ġjura":12458,"ĠReb":12459,"ĠFe":12460,"ĠFond":12461,"ĠTang":12462,"Ġdesli":12463,"mie":12464,"ĠapuÃ¨i":12465,"Ġavion":12466,"idada":12467,"ocs":12468,"essas":12469,"Ġestent":12470,"Ġ1815":12471,"Ġ1801":12472,"Ġescur":12473,"Ġconson":12474,"801":12475,"Ġclimas":12476,"ĠAntiquitat":12477,"intrar":12478,"epid":12479,"luÃŃs":12480,"ĠtornÃ¨ron":12481,"metre":12482,"ĠMarg":12483,"Ġcapital":12484,"Ġvolums":12485,"orient":12486,"Ġtranspar":12487,"Ġdesvolopats":12488,"Ġvertad":12489,"ĠCarlos":12490,"ĠSax":12491,"matics":12492,"efica":12493,"angles":12494,"Ġnegras":12495,"Ġcombatre":12496,"Ġceramica":12497,"anÃ§ant":12498,"autreis":12499,"Ġfebri":12500,"Ġnecessita":12501,"Ġmediat":12502,"Ġdirigidas":12503,"Ġdominada":12504,"ĠvendrÃł":12505,"ĠobtenguÃ¨ron":12506,"Ġcompreneson":12507,"Ġsinonim":12508,"Ġantrop":12509,"ĠquitÃ¨t":12510,"Ġenterin":12511,"Ġconservar":12512,"Ġnormala":12513,"Ġmerce":12514,"Ġausir":12515,"ĠSoi":12516,"Ġdreta":12517,"ĠabandonÃ¨t":12518,"accel":12519,"animal":12520,"Ġfondamentala":12521,"Ġaperada":12522,"Ġsurplomb":12523,"ĠnÃ²bles":12524,"ĠautonÃ²ma":12525,"ĠEmai":12526,"ĠTorre":12527,"Ġsuccessius":12528,"ĠnuÃ¨it":12529,"Ġprocedura":12530,"ĠVillers":12531,"Ġprononciacion":12532,"Ġrecuperar":12533,"ĠcompanhiÃ¡s":12534,"estand":12535,"ĠmisÃ¨ria":12536,"Ġdistinguir":12537,"Ġcargada":12538,"Ġinscrich":12539,"Ġresolucion":12540,"ĠaragonÃ©s":12541,"Ġjudiciari":12542,"associacions":12543,"ĠPedro":12544,"Ġcuirassats":12545,"Ġprosperitat":12546,"046":12547,"727":12548,"711":12549,"Jo":12550,"NT":12551,"TC":12552,"cla":12553,"eon":12554,"eguts":12555,"ju":12556,"ladas":12557,"nÃ²u":12558,"plan":12559,"ralh":12560,"uz":12561,"Ġdeten":12562,"onar":12563,"Ġpom":12564,"Ġpista":12565,"Ġpiano":12566,"Ġati":12567,"arem":12568,"arcas":12569,"atencion":12570,"ĠmÃ¨i":12571,"ĠmÃ²rta":12572,"unal":12573,"unch":12574,"icut":12575,"ĠLus":12576,"riament":12577,"ĠnÃłisser":12578,"Ġdelh":12579,"olles":12580,"ĠAy":12581,"ĠAlav":12582,"ĠbÃ¯":12583,"Ġblava":12584,"ĠSem":12585,"Ġrn":12586,"ĠDisc":12587,"icago":12588,"ĠBab":12589,"ĠReis":12590,"ĠTour":12591,"2004":12592,"abu":12593,"ĠGro":12594,"impacte":12595,"ĠarÃłbia":12596,"ĠUru":12597,"Ġaux":12598,"Ġiper":12599,"ceans":12600,"Ġhum":12601,"ĠfÃ²rtas":12602,"ĠcÃ²las":12603,"Ġautob":12604,"Ġ1869":12605,"Ġ1885":12606,"Ġcaras":12607,"Ġsituan":12608,"Ġescad":12609,"estrech":12610,"estructuras":12611,"escap":12612,"Ġmonges":12613,"Ġdemai":12614,"editor":12615,"ĠXav":12616,"Ġpolonesa":12617,"Ġsoleta":12618,"Ġcreats":12619,"ĠComenge":12620,"Ġdivi":12621,"Ġtornava":12622,"Ġfarina":12623,"ĠcalguÃ¨t":12624,"ĠplaÃ§ada":12625,"Ġempl":12626,"tenas":12627,"ĠcoÃ¯n":12628,"ordat":12629,"Ġdestruccions":12630,"Ġexpressions":12631,"Ġconstituir":12632,"Ġmajors":12633,"Ġclassificat":12634,"Anti":12635,"Ġrealizator":12636,"Ġsabi":12637,"exposicion":12638,"explos":12639,"Ġflum":12640,"liquÃ¨t":12641,"Ġcarriera":12642,"ĠZel":12643,"Ġaisina":12644,"Ġconvent":12645,"Ġmolt":12646,"ĠAbbaye":12647,"ĠvÃ²li":12648,"eishenÃ§a":12649,"Ġestudiant":12650,"Ġterror":12651,"ĠvendriÃ¡":12652,"landesa":12653,"ĠcobÃ¨rt":12654,"Ġassegura":12655,"ĠtransformÃ¨t":12656,"oxigÃ¨n":12657,"Ġshogun":12658,"ĠSocialista":12659,"Ġsimilaras":12660,"Ġmodificacion":12661,"Ġrusca":12662,"Ġexecutat":12663,"Ã¨bres":12664,"ĠsortÃŃs":12665,"estela":12666,"Ġcontactes":12667,"Ġprogressiu":12668,"ĠavanÃ§adas":12669,"graph":12670,"Ġcauds":12671,"ĠFelibrige":12672,"ĠbilingÃ¼isme":12673,"avenidor":12674,"Ġaprene":12675,"ĠBolÃŃ":12676,"Ġemplec":12677,"Ġaplicacions":12678,"ĠBanca":12679,"ĠUcraÃ¯na":12680,"aprendissatge":12681,"ĠSciÃ©ncias":12682,"Ġincendi":12683,"ĠOtomans":12684,"Ġbudget":12685,"ĠcaldrÃł":12686,"Ġprojeccion":12687,"Ġferroviaire":12688,"ĠconcurrÃ©ncia":12689,"Ġcristianisme":12690,"Ġraionament":12691,"ĠCated":12692,"733":12693,"Ap":12694,"ID":12695,"PR":12696,"fes":12697,"rari":12698,"zan":12699,"Ð²":12700,"Ġ38":12701,"Ġdavan":12702,"Ġah":12703,"asta":12704,"Ġcy":12705,"arque":12706,"quÃ¨":12707,"quetas":12708,"ciÃ¨r":12709,"inÃ²":12710,"rec":12711,"Ġmapas":12712,"isia":12713,"Ġtranqu":12714,"ĠLai":12715,"Ġbatre":12716,"Ġbien":12717,"tifica":12718,"Ã§ant":12719,"Ã§ons":12720,"ĠMire":12721,"ulaire":12722,"ader":12723,"ury":12724,"aparten":12725,"Ġpasta":12726,"avia":12727,"ĠTun":12728,"abar":12729,"ĠVerc":12730,"Ġteologia":12731,"mians":12732,"Ġarg":12733,"Ġarren":12734,"ego":12735,"ecs":12736,"Ġfagu":12737,"Ġexili":12738,"Ġespecta":12739,"Ġespectacles":12740,"Ġregrop":12741,"Ġregarda":12742,"ĠveniÃ¡n":12743,"Ġ1864":12744,"Ġescotar":12745,"ĠHub":12746,"Ġtrens":12747,"ipotÃ¨si":12748,"enheim":12749,"Ġsolidaritat":12750,"ĠÂ»)":12751,"ĠAlps":12752,"Ġmanip":12753,"Ġtorneg":12754,"ĠKo":12755,"Ġassembl":12756,"Ġadob":12757,"espital":12758,"Ã¼es":12759,"582":12760,"984":12761,"enciala":12762,"ordar":12763,"ĠInd":12764,"urel":12765,"Ġpatas":12766,"Ġdever":12767,"Ġcromat":12768,"Ġexplici":12769,"Ã¨xes":12770,"audan":12771,"ĠMao":12772,"Ġsegondari":12773,"ĠparticipÃ¨ron":12774,"ĠcresenÃ§a":12775,"ĠocupÃ¨t":12776,"ĠfisanÃ§a":12777,"ĠsÃ¨tis":12778,"Ġmoral":12779,"Ġ900":12780,"Ġestudiat":12781,"ĠnecessÃłrias":12782,"Ġfavorables":12783,"Ġassociats":12784,"Ġreferend":12785,"enni":12786,"ĠIsab":12787,"Ġseparadas":12788,"ĠcobrÃŃs":12789,"Ġcertans":12790,"Ġcompletat":12791,"Ġcabuss":12792,"Ġdeterminat":12793,"Ġconoiss":12794,"ĠLeonardo":12795,"Ġvenceire":12796,"Ġsepara":12797,"ĠAguesta":12798,"Ġinventat":12799,"ĠCartage":12800,"Ġvassaus":12801,"TAN":12802,"Ġrecensement":12803,"Ġreialmes":12804,"ĠClarmont":12805,"eliminar":12806,"ĠepisÃ²di":12807,"Ġcalifa":12808,"Ġdestriar":12809,"ĠCÃ²ngo":12810,"GV":12811,"On":12812,"Paul":12813,"aicÃŃ":12814,"mus":12815,"vira":12816,"yes":12817,"Ð½":12818,"Ġpleg":12819,"ĠlaÃ¼":12820,"Ġturb":12821,"dab":12822,"amic":12823,"Ġnor":12824,"Ã¨ros":12825,"Ġgess":12826,"ĠPle":12827,"ĠPingo":12828,"Ġcondus":12829,"ĠMentre":12830,"ĠMarais":12831,"Ġograph":12832,"Ġaliat":12833,"Ã²rnia":12834,"ĠBac":12835,"Ġanautita":12836,"ÃŃbl":12837,"ĠFL":12838,"ĠTim":12839,"abadiÃ¡":12840,"ĠGol":12841,"ĠVÃ¨rs":12842,"Ġentra":12843,"ando":12844,"Ġtela":12845,"ĠEntra":12846,"ĠJun":12847,"umat":12848,"umul":12849,"Ġfact":12850,"Ġpreten":12851,"Ġresta":12852,"Ġregents":12853,"Ġ1875":12854,"Ġ1889":12855,"Ġ1886":12856,"Ġ1893":12857,"Ġrab":12858,"ĠraÃ§a":12859,"Ġterrador":12860,"Ãłnd":12861,"ilhs":12862,"vencions":12863,"ĠChicago":12864,"illust":12865,"Ġdisques":12866,"Ġcorpor":12867,"renca":12868,"ĠGui":12869,"Ġrevers":12870,"Ġintervencion":12871,"Ġestacions":12872,"clau":12873,"Ġongan":12874,"ishen":12875,"Ġzo":12876,"ordinari":12877,"ĠInst":12878,"Ġexple":12879,"Ġexposicion":12880,"Ġespecifica":12881,"Ġneglig":12882,"Ġbaill":12883,"ĠRota":12884,"ĠMaxim":12885,"Ġponches":12886,"Ġvarianta":12887,"Ġprotectorat":12888,"ajud":12889,"ĠnavÃ¨th":12890,"Ġsuprimir":12891,"ĠmorÃŃ":12892,"Ġdaissat":12893,"ĠColomb":12894,"Ġesperits":12895,"Ġprimordi":12896,"Ġseparats":12897,"ĠsenhoriÃ¡":12898,"Ġoriental":12899,"ĠBelf":12900,"Enaut":12901,"Ġgardat":12902,"Ġestrang":12903,"Ġromain":12904,"Ġcomposicions":12905,"Ġmobil":12906,"onnie":12907,"ĠsubstÃłncias":12908,"Ġprecurs":12909,"ĠcomplÃ¨xa":12910,"Ġeissit":12911,"ĠavanÃ§ar":12912,"ĠacadÃ¨mias":12913,"ĠCabard":12914,"Ġtermodin":12915,"Ġvidanta":12916,"Ġdesconeguda":12917,"Ġdesenant":12918,"organismes":12919,"ĠRoger":12920,"Ġterritorialas":12921,"Ġegipcians":12922,"Ġpresidenciala":12923,"ĠcervÃ¨l":12924,"eliminacion":12925,"escambis":12926,"Ġdisponible":12927,"Ġasiatic":12928,"ĠVersalhas":12929,"Ġaustral":12930,"ĠasteroÃ¯de":12931,"Ġremarca":12932,"ĠVictÃ²ria":12933,"NESCO":12934,"ĠKenya":12935,"ĠObtenguÃ¨t":12936,"Ġparoissi":12937,"Ġpontannada":12938,"373":12939,"713":12940,"Er":12941,"Texans":12942,"his":12943,"pro":12944,"ritat":12945,"ÃĢustria":12946,"Î¼":12947,"ÑĤ":12948,"ĠÃ²s":12949,"ĠdÃ©":12950,"ĠdanÃ§as":12951,"eno":12952,"Ġdeur":12953,"ĠpÃ²st":12954,"ofÃ²n":12955,"ĠcÃ¨u":12956,"Ġcicles":12957,"arar":12958,"Ġmeu":12959,"ĠfÃ¨us":12960,"icacion":12961,"Ġtib":12962,"ĠLun":12963,"Ġreala":12964,"Ġredre":12965,"ĠbÃ¨u":12966,"ĠSub":12967,"eiro":12968,"ĠrÃ²da":12969,"adora":12970,"aplic":12971,"ĠBasc":12972,"otÃŃs":12973,"ĠRas":12974,"ĠTru":12975,"ĠTou":12976,"2000":12977,"Ġdesvi":12978,"Ġintellig":12979,"Ġ1902":12980,"Ġpop":12981,"Ġcapablas":12982,"oble":12983,"Ġmargin":12984,"Ġ1879":12985,"Ġ1874":12986,"Ġ1899":12987,"escapar":12988,"491":12989,"492":12990,"Ġrig":12991,"Ġcreator":12992,"aqueleis":12993,"Ġsensible":12994,"Ġsensibilitat":12995,"Ġtorns":12996,"ĠMarrÃ²c":12997,"Ġatl":12998,"Ġconeisson":12999,"orial":13000,"ĠMontb":13001,"Ġdebut":13002,"ĠdevÃ¨m":13003,"ĠTolos":13004,"ĠdistÃłncias":13005,"Ġespecialistas":13006,"Ã¨xe":13007,"Ġnotacion":13008,"ĠrapÃ²rts":13009,"Ġorganizadas":13010,"Ġangle":13011,"ĠConseu":13012,"Ġpraub":13013,"Ġfisc":13014,"Ġmodi":13015,"Ġtoristas":13016,"Ġliberar":13017,"Ġvertadier":13018,"Ġcomplir":13019,"ĠenfanÃ§a":13020,"Ġsentit":13021,"ĠJeanne":13022,"Ġjols":13023,"Ġmassac":13024,"Ġacaba":13025,"ĠretirÃ¨t":13026,"ĠMoul":13027,"ĠEscriguÃ¨t":13028,"ĠAndrÃ©":13029,"ĠGenerau":13030,"Ġfruchs":13031,"ĠtalhiÃ¨rs":13032,"Ġmecanismes":13033,"ĠindividÃº":13034,"lenga":13035,"Ġamassat":13036,"ĠJules":13037,"Ġverticala":13038,"ĠIll":13039,"ĠBorgonha":13040,"ĠBaish":13041,"Ġdesconegut":13042,"ĠComunista":13043,"Ġargentina":13044,"Ġviatjar":13045,"Ġdemenir":13046,"ĠPremier":13047,"Ġrecuperacion":13048,"Ġsexuala":13049,"ĠdrÃ²lle":13050,"Ġcontest":13051,"Ġdisciplinas":13052,"Ġgalaxia":13053,"Ġabitualament":13054,"escambi":13055,"acceptar":13056,"Ġmanuscrit":13057,"ĠmoriguÃ¨ron":13058,"ĠLarzac":13059,"ĠCÃ²rdas":13060,"ĠentiÃ¨rament":13061,"ĠnÃŃvols":13062,"intensitat":13063,"Ġcomplexitat":13064,"orld":13065,"LR":13066,"fe":13067,"fs":13068,"risson":13069,"sens":13070,"uro":13071,"wn":13072,"Ã¥":13073,"Å«":13074,"Îº":13075,"Î»":13076,"Ġ72":13077,"Ġ54":13078,"Ġaeron":13079,"anca":13080,"Ġcine":13081,"Ġcendres":13082,"eres":13083,"erupcion":13084,"raccions":13085,"riana":13086,"Ġvejaire":13087,"Ġnada":13088,"osar":13089,"Ġseiss":13090,"Ġ130":13091,"Ġ1200":13092,"ĠCoc":13093,"ĠCÃ²sta":13094,"antica":13095,"antariÃ¡":13096,"ĠEti":13097,"ĠEdo":13098,"ĠMy":13099,"ĠMoss":13100,"Ġalu":13101,"Ġalong":13102,"ĠDamb":13103,"ĠDÃ²na":13104,"ĠFle":13105,"ivitat":13106,"ĠGasc":13107,"ĠNascut":13108,"Ġentend":13109,"Ġentaus":13110,"ander":13111,"impic":13112,"Ġaudi":13113,"auton":13114,"Ġhilha":13115,"ĠOm":13116,"ĠestÃ¨la":13117,"Ġ1872":13118,"Ġcaroling":13119,"Ġesclat":13120,"ifiquÃ¨t":13121,"ĠHy":13122,"Ġrecentas":13123,"ency":13124,"ĠtrÃ¨va":13125,"ĠtrÃ²ces":13126,"Ġrites":13127,"Ġmunicipala":13128,"ĠAqueleis":13129,"ĠChrist":13130,"905":13131,"908":13132,"Ġencastre":13133,"Ġmani":13134,"Ġfargar":13135,"Ġeleccion":13136,"ĠroÃ¯nas":13137,"ĠPargue":13138,"Ġvolgut":13139,"ĠvolÃ¨m":13140,"Ġsociol":13141,"Ġpersones":13142,"bias":13143,"biguÃ¨t":13144,"ĠempÃ¨ris":13145,"Ġaglomeracion":13146,"ĠIns":13147,"ĠrefÃ²rma":13148,"Ġ52":13149,"ejat":13150,"aurus":13151,"explicar":13152,"exportacion":13153,"Ġaparar":13154,"ĠepÃ²cas":13155,"Ġcere":13156,"ĠpaÃ¯satges":13157,"ĠFranceses":13158,"Ġcaminar":13159,"Ġdebanament":13160,"Ġtribut":13161,"ĠnomenÃ¨t":13162,"rÃ²fas":13163,"ĠOrganiz":13164,"Ġnormalizacion":13165,"Ġdetlos":13166,"ĠCharl":13167,"Ġconselhs":13168,"Ġcantaires":13169,"Ġcambras":13170,"terminacion":13171,"Ġcorrespondent":13172,"ĠPresentacion":13173,"Ġtoler":13174,"Ġrevolucionaris":13175,"ĠtranspÃ²rts":13176,"ĠtravÃ¨rsa":13177,"Ġrestaurat":13178,"Ġregulars":13179,"Ġvintena":13180,"ĠGuilhem":13181,"ĠPelop":13182,"Ġlegislacion":13183,"ĠMagdal":13184,"ĠinfluÃ©ncias":13185,"Ġdestinats":13186,"ĠcontemporanÃ¨u":13187,"Ġarrestar":13188,"Ġcronicas":13189,"Ġapelat":13190,"ĠortodÃ²":13191,"Ġabsorb":13192,"Ġdigloss":13193,"Ġcelebrar":13194,"Ġipot":13195,"ĠproclamÃ¨t":13196,"Aquin":13197,"Ġsignificant":13198,"Ġaculhir":13199,"Ġestrategica":13200,"Ġcrompa":13201,"Ġierogl":13202,"Ġcolomna":13203,"ĠLisbona":13204,"Ġretrach":13205,"Ġinaugurat":13206,"ĠprovisÃ²ri":13207,"Ġedificis":13208,"Ġhemna":13209,"ĠAirbus":13210,"ĠÏĢ":13211,"escadenÃ§a":13212,"ĠmÃ¨dias":13213,"Ġimmediatament":13214,"ĠConservatÃ²ri":13215,"Ġfidelitat":13216,"ÃŃblia":13217,");":13218,".).<|":13219,"Gu":13220,"The":13221,"aun":13222,"hn":13223,"iÃ²de":13224,"kal":13225,"way":13226,"zet":13227,"Ġ350":13228,"Ġducs":13229,"Ġlanc":13230,"Ġpeg":13231,"Ġsot":13232,"ĠcÃ¨rtas":13233,"arab":13234,"inent":13235,"inha":13236,"Ġmim":13237,"isab":13238,"isons":13239,"Ġenerg":13240,"amar":13241,"Ã¨rba":13242,"usar":13243,"elat":13244,"ilo":13245,"ĠCru":13246,"ĠCaux":13247,"ĠSard":13248,"ĠSou":13249,"Ġcomme":13250,"Ġcometas":13251,"ĠMem":13252,"iage":13253,"etari":13254,"Ġalfab":13255,"Ġrup":13256,"ĠrÃ²tles":13257,"ĠDol":13258,"aden":13259,"ĠLoir":13260,"Ġpareis":13261,"ĠBrion":13262,"Ġange":13263,"Ġanarqu":13264,"ĠFilip":13265,"ĠFisiologia":13266,"ctas":13267,"ĠTu":13268,"ĠTro":13269,"ĠTors":13270,"ĠGai":13271,"ĠGolf":13272,"izan":13273,"ĠVo":13274,"Ġcapel":13275,"Ã¯r":13276,"ortal":13277,"Ġcontorn":13278,"Ġvillatge":13279,"Ġplant":13280,"Ġexteriora":13281,"Ġmarcas":13282,"Ġ1895":13283,"Ġ1841":13284,"Ġramp":13285,"ĠracÃ²n":13286,"Ġconsum":13287,"ĠHaut":13288,"Ġmonarca":13289,"iber":13290,"Ã¨sts":13291,"ĠAntoine":13292,"Ġtresau":13293,"909":13294,"Ġcausidas":13295,"oule":13296,"Ġmandad":13297,"Ġrelatiu":13298,"ĠKer":13299,"Ġadara":13300,"Ġrocass":13301,"Ġroving":13302,"ĠWest":13303,"ĠWeb":13304,"Ġtrabalhadors":13305,"gias":13306,"Ġjazz":13307,"ĠEstrasburg":13308,"Ġerb":13309,"Ġexportacions":13310,"diccions":13311,"Ġnacionals":13312,"Ġconsiderablament":13313,"Ġclassics":13314,"cular":13315,"ĠmejanÃ§ant":13316,"exple":13317,"Ġpensat":13318,"ĠreconÃ©isser":13319,"regacion":13320,"anÃ§on":13321,"ĠPruss":13322,"Ġexistissi":13323,"ĠexistissiÃ¡":13324,"ĠYo":13325,"Ġnaveg":13326,"Ġmagma":13327,"Ġtractar":13328,"Ġvertadiera":13329,"Ġequilib":13330,"ĠBoca":13331,"Ġnomenan":13332,"Ġcercles":13333,"ĠpromÃ²ure":13334,"ĠdimÃ¨cres":13335,"ĠOrt":13336,"ĠLuis":13337,"Ġmostrant":13338,"Ġvirtu":13339,"Ġprodusir":13340,"Ġlargor":13341,"Ġtelef":13342,"Ġtrionf":13343,"Ġjoen":13344,"Ġleugier":13345,"ĠAdorna":13346,"ĠMolac":13347,"ĠPortugu":13348,"ĠtendrÃł":13349,"Ġcontaire":13350,"Ġangleses":13351,"escrivans":13352,"Ġfixat":13353,"Ġcrimin":13354,"Ġcircular":13355,"ĠlanÃ§ament":13356,"Ġmessat":13357,"Ġportugueses":13358,"Ġlunara":13359,"Ġcomparar":13360,"americana":13361,"Ġevolucions":13362,"Avairon":13363,"Ġajudat":13364,"ĠJustin":13365,"ĠCalifÃ²rnia":13366,"ĠPlata":13367,"Ġconcebut":13368,"Ġevidentament":13369,"Ġcentralas":13370,"Ġquotidian":13371,"ĠRÃ²cafu":13372,"Ġeliminar":13373,"Ġlogicial":13374,"Ġsenators":13375,"NSEE":13376,"Ġconclusion":13377,"escolans":13378,"Ġimplantat":13379,"ĠGabriel":13380,"Germain":13381,"Ali":13382,"CR":13383,"Mau":13384,"Sal":13385,"fat":13386,"lÃ²c":13387,"nau":13388,"nip":13389,"romp":13390,"Ġá":13391,"ĠdrÃ²":13392,"ĠdÃ²na":13393,"Ġline":13394,"teurs":13395,"Ġcog":13396,"Ġcert":13397,"erÃ²i":13398,"ĠmÃ²":13399,"Ġmons":13400,"alona":13401,"oricament":13402,"Ġfosf":13403,"Ġvar":13404,"elar":13405,"ĠreinÃ¨t":13406,"Ġbess":13407,"ĠSw":13408,"ĠPÃ²rt":13409,"Ã²rca":13410,"chy":13411,"Ġanient":13412,"dial":13413,"ĠRiu":13414,"avÃ¨tz":13415,"idd":13416,"ido":13417,"ĠGN":13418,"ovis":13419,"ĠNev":13420,"Ġtraucs":13421,"tessa":13422,"Ġargument":13423,"Ġ1898":13424,"Ġ1887":13425,"Ġpartenaris":13426,"ĠQuitament":13427,"ĠserÃ©":13428,"Ġmonop":13429,"udit":13430,"ultor":13431,"Ġrepet":13432,"Ġbasilica":13433,"Ġcreacions":13434,"ĠPere":13435,"904":13436,"906":13437,"Ġcausat":13438,"Ġdiverg":13439,"Ġtornada":13440,"Ġgeneraus":13441,"estima":13442,"Ġdepression":13443,"Ġadolesc":13444,"espÃ¨r":13445,"Ġpoliticament":13446,"Ġatomic":13447,"ambient":13448,"ĠvolguÃ¨t":13449,"867":13450,"ĠdesvolopÃ¨ron":13451,"Ġcooper":13452,"Ġconclu":13453,"ĠconcrÃ¨t":13454,"Ġ41":13455,"illet":13456,"ĠRoazhon":13457,"ĠtÃ¨rratrem":13458,"Ġpensan":13459,"Ġsemblar":13460,"Ġtipic":13461,"Ġgrad":13462,"ĠSegond":13463,"ĠRepublic":13464,"ĠPuy":13465,"Ġconviv":13466,"Ġconvida":13467,"Ġvoses":13468,"Ġdobrir":13469,"Ġsecuritat":13470,"Ġjamei":13471,"Ġmelhorament":13472,"Ġbiologia":13473,"ĠViaur":13474,"Ġcatarisme":13475,"Ġisla":13476,"Ġterrenh":13477,"Ġvivents":13478,"Ġusatges":13479,"arbres":13480,"urgÃ©ncia":13481,"ĠsomÃ©s":13482,"Ġdessenhada":13483,"Ġadministrativas":13484,"comun":13485,"Ġjutjar":13486,"ĠgardÃ¨t":13487,"ĠSanti":13488,"ĠrÃ¨gne":13489,"Ġsimilars":13490,"Ġfortuna":13491,"ĠTurcs":13492,"ĠabsÃ©ncia":13493,"Ãłrius":13494,"ectivas":13495,"lacÃ¨t":13496,"Ġinterpretat":13497,"Ġviatj":13498,"ĠBritanic":13499,"Ġsistematica":13500,"Amassada":13501,"Ġfugida":13502,"Ġescrits":13503,"voir":13504,"ĠbarrÃ²c":13505,"Ġminerals":13506,"Ġsufisenta":13507,"ĠBertrand":13508,"Ġespecifics":13509,"Ġrecompens":13510,"Ġconverti":13511,"Ġreconquistar":13512,"ĠAlavetz":13513,"964":13514,"Eure":13515,"OR":13516,"Par":13517,"carri":13518,"dessus":13519,"lÃ¨t":13520,"phe":13521,"vet":13522,"Ġdotz":13523,"ĠlanÃ§a":13524,"onde":13525,"onian":13526,"Ġput":13527,"Ġaun":13528,"Ġacid":13529,"ĠsÃ²us":13530,"ĠcÃ¨rts":13531,"atr":13532,"cio":13533,"inhac":13534,"Ġmala":13535,"Ġmarais":13536,"rag":13537,"Ġlomb":13538,"Ġfle":13539,"ĠfÃ²t":13540,"Ġtocat":13541,"Ġunion":13542,"amai":13543,"guier":13544,"ĠAups":13545,"Ġrets":13546,"Ġseca":13547,"Ġbus":13548,"ĠCinc":13549,"ĠCrim":13550,"ĠgÃ²r":13551,"aim":13552,"Ġ(-":13553,"ĠMich":13554,"ĠMilh":13555,"Ġry":13556,"aprÃ¨p":13557,"ĠBil":13558,"ĠBast":13559,"ĠBach":13560,"otics":13561,"dier":13562,"ĠRif":13563,"ĠTop":13564,"2005":13565,"2009":13566,"ĠGusta":13567,"Ġ1909":13568,"ĠNor":13569,"ĠIves":13570,"Ã¯stÃ²ria":13571,"Ġaplicar":13572,"ecus":13573,"Ġsigue":13574,"Ġplantat":13575,"uck":13576,"Ġespital":13577,"ocadas":13578,"Ġmarbre":13579,"Ġmarridas":13580,"Ġreglar":13581,"astics":13582,"escat":13583,"Ġpujar":13584,"ĠrecÃ²rd":13585,"ĠAll":13586,"Ġtox":13587,"osax":13588,"Ġpodent":13589,"Ġtornan":13590,"Ġcorreg":13591,"iang":13592,"eville":13593,"994":13594,"956":13595,"ĠinterÃ¨sses":13596,"Ġinser":13597,"ĠArm":13598,"ĠgrÃ¨u":13599,"863":13600,"Ġpossiblas":13601,"Ġrds":13602,"Ġjosieu":13603,"Ġ42":13604,"Ġdespuish":13605,"Ġinstitu":13606,"Ġbachel":13607,"afir":13608,"afront":13609,"Ġbarrat":13610,"estabilitat":13611,"Ġretr":13612,"ĠMonta":13613,"ĠMonument":13614,"Ġsemblant":13615,"Ġfondador":13616,"Ġfonciona":13617,"ĠdobrÃŃs":13618,"Ġproductors":13619,"Ġquauque":13620,"ĠMeur":13621,"Ġperduts":13622,"hannaise":13623,"Ġcortas":13624,"Ġfacilament":13625,"manhac":13626,"ĠManch":13627,"Ġprecisar":13628,"Ġdatas":13629,"ĠlicÃ¨us":13630,"Ġtransformar":13631,"Ġfixa":13632,"ĠataquÃ¨t":13633,"ĠTerrit":13634,"Ġmuralha":13635,"Ġperturb":13636,"ĠSpace":13637,"Ġatencion":13638,"aguest":13639,"eveniments":13640,"ĠeficaÃ§a":13641,"Ġastronautas":13642,"ĠConfronta":13643,"Ġintellectuala":13644,"existisson":13645,"Ġmillenari":13646,"ĠseriÃ³s":13647,"immigracion":13648,"Ġbombarda":13649,"Ġquatrena":13650,"ĠfilosÃ²fs":13651,"quisicion":13652,"Ġfelibres":13653,"Ġcondemnat":13654,"Ġestrecha":13655,"ĠÅŁi":13656,"ĠProvÃŃncias":13657,"Ġcristall":13658,"ĠMontsegur":13659,"ĠNigÃ¨ria":13660,"ĠBigÃ²rra":13661,"ĠRicard":13662,"ĠdangiÃ¨r":13663,"ĠVarsÃ²via":13664,"Ġ(âĢł":13665,"ĠCabardÃ©s":13666,"864":13667,"hl":13668,"hal":13669,"pi":13670,"vem":13671,"vejatz":13672,"Ġil":13673,"ĠdÃŃder":13674,"onicas":13675,"tejar":13676,"andiguÃ¨t":13677,"initat":13678,"orizont":13679,"itals":13680,"icus":13681,"Ġventre":13682,"elm":13683,"ello":13684,"ĠSin":13685,"ĠSign":13686,"ĠPom":13687,"ĠPos":13688,"Ã©ry":13689,"Ġocasion":13690,"Ġoceans":13691,"Ã²rme":13692,"ados":13693,"adia":13694,"stre":13695,"istorian":13696,"ĠBÃŃblia":13697,"otas":13698,"Ġanant":13699,"ÃŃst":13700,"ĠFac":13701,"ĠTai":13702,"2008":13703,"abitacion":13704,"ĠGaireben":13705,"Ġambici":13706,"Ġambicions":13707,"ize":13708,"ĠVid":13709,"Ġpoetic":13710,"ĠIS":13711,"urau":13712,"asset":13713,"aragon":13714,"Ġaud":13715,"erson":13716,"Ġsiatz":13717,"Ġsaque":13718,"Ġespontan":13719,"ĠacÃ²rdi":13720,"Ã¨gia":13721,"ĠregÃ©ncia":13722,"Ġestant":13723,"Ġimplica":13724,"Ġraja":13725,"bretot":13726,"astr":13727,"Ġserral":13728,"odia":13729,"ips":13730,"Ġrepr":13731,"Ġformadas":13732,"ĠPerÃ³":13733,"Ã¨nis":13734,"Ã²nh":13735,"inger":13736,"Ġdivina":13737,"ologista":13738,"Ġgeneraument":13739,"ĠFranca":13740,"Ġelevada":13741,"Ġpubliqu":13742,"Ġsojorn":13743,"581":13744,"587":13745,"986":13746,"954":13747,"ebas":13748,"itarisme":13749,"Ġestabla":13750,"541":13751,"ĠcampÃ¨stre":13752,"ĠEstre":13753,"Ġmenats":13754,"Ġsignar":13755,"Ġsignada":13756,"Ġetrus":13757,"rimit":13758,"Ġdeths":13759,"Arc":13760,"Ġocupar":13761,"ĠmolhÃ¨r":13762,"aparar":13763,"Ġmatrim":13764,"Ġmelhoras":13765,"Ġfavorabla":13766,"ĠblÃ²ts":13767,"ĠBoul":13768,"Ġrempla":13769,"Ġemissions":13770,"ĠSalvador":13771,"arribar":13772,"esperel":13773,"linha":13774,"Ġpauretat":13775,"ĠutÃŃs":13776,"Ġinformat":13777,"Ġparlamentaris":13778,"Ġescolar":13779,"Ġitalianas":13780,"enfanÃ§a":13781,"ĠcavaliÃ¨r":13782,"Ġcapturats":13783,"ĠfinanciÃ¨ra":13784,"ĠcomplÃ¨xas":13785,"Ġopausats":13786,"Ġfortificat":13787,"Ġsimbolica":13788,"ĠsÃ¨rva":13789,"Ġafricans":13790,"ĠdistinguÃŃs":13791,"archipÃ¨la":13792,"astronomia":13793,"ĠNicolau":13794,"Ġmigracions":13795,"Ġlegitimitat":13796,"ĠFontan":13797,"Ġmagnitud":13798,"Ġlouhannaise":13799,"ĠCassini":13800,"Ġtyp":13801,"ĠBulgars":13802,"ĠongrÃ©s":13803,"Ġtransforma":13804,"Ġpredomin":13805,"Ġredrei":13806,"%).<|":13807,"'Â«":13808,"064":13809,"564":13810,"DF":13811,"Ed":13812,"Gal":13813,"PO":13814,"Ro":13815,"hÃ¨it":13816,"javan":13817,"naire":13818,"oin":13819,"sec":13820,"uti":13821,"uch":13822,"Ġ@":13823,"ĠÃ²r":13824,"Ġluc":13825,"onament":13826,"Ġpter":13827,"anautita":13828,"Ġsorg":13829,"reuse":13830,"Ġtocant":13831,"ĠLluÃŃs":13832,"Ġesm":13833,"rimin":13834,"Ġvu":13835,"ĠAus":13836,"Ġblack":13837,"ĠCaus":13838,"Ġgama":13839,"ĠSof":13840,"ĠPf":13841,"ĠPall":13842,"antena":13843,"ĠEg":13844,"Ã©li":13845,"Ġrin":13846,"Ġrub":13847,"ĠrÃ¨ire":13848,"ĠDub":13849,"chn":13850,"lavas":13851,"itatge":13852,"ĠRenat":13853,"ĠFen":13854,"ĠTest":13855,"ĠTarra":13856,"Ġdesesper":13857,"Ġineg":13858,"Ġined":13859,"Ġtraduccions":13860,"Ġaurel":13861,"Ġespessa":13862,"Ġaccedir":13863,"Ġ180":13864,"Ġ1873":13865,"Ġ1883":13866,"Ġ1863":13867,"Ġ1842":13868,"Ġescl":13869,"Ġmonarqu":13870,"Ġdeman":13871,"Ġrecorre":13872,"Ġreprodu":13873,"Ġsolida":13874,"rariÃ¡":13875,"Ġfamoses":13876,"Ġsegura":13877,"Ġasset":13878,"evitar":13879,"espÃ¨ra":13880,"583":13881,"Ġdirec":13882,"Ġtransit":13883,"Ġafort":13884,"Ġonze":13885,"ĠâĢ¦":13886,"Ġlegeire":13887,"Ġconcer":13888,"Ġeret":13889,"Ġmenas":13890,"Ġexpedicions":13891,"Ġumid":13892,"Ġartisticas":13893,"Ġconsiderava":13894,"annexion":13895,"Ann":13896,"Ġdecoracion":13897,"Ġaparelhs":13898,"Estats":13899,"Ġprogression":13900,"ĠValadas":13901,"Ġmajoritari":13902,"ĠLee":13903,"Ġaisida":13904,"Ġdisposicions":13905,"ĠOccitania":13906,"Ġtraversar":13907,"Ġinclu":13908,"Ġobtenguda":13909,"ika":13910,"Ġdimin":13911,"Ġfaciada":13912,"Ġdiable":13913,"Ġprecisas":13914,"Ġcambas":13915,"Ġoccidentau":13916,"Ġressor":13917,"Ġflux":13918,"ĠleugiÃ¨r":13919,"Ġensenhaments":13920,"Ġprefond":13921,"Ġtransport":13922,"ĠErm":13923,"Ġcompositors":13924,"Ġdrama":13925,"Ġprofessional":13926,"ĠataquÃ¨ron":13927,"ĠdiplÃ²ma":13928,"Ġadaptacion":13929,"ĠTurin":13930,"Ġmalaisit":13931,"ventÃ©s":13932,"Ġlittor":13933,"ithecus":13934,"ĠBonapar":13935,"ĠsÃ²mi":13936,"Ġimmob":13937,"ĠRhin":13938,"ĠLinha":13939,"Ġperseguir":13940,"Ġprovesit":13941,"Ġrivalitat":13942,"estanh":13943,"Ġnarracion":13944,"ĠCostat":13945,"Ġchifra":13946,"Ġcontrarotlar":13947,"ONU":13948,"Ġfibras":13949,"aptiste":13950,"ĠRosselhon":13951,"ĠBulgaria":13952,"Ġaproximativament":13953,"Ġpropaganda":13954,"Ġadversari":13955,"ĠInicialament":13956,"ĠCertanei":13957,"Ġcovid":13958,"ÃĴrdre":13959,"alienacion":13960,"ĠcirconstÃłncias":13961,"Ġcirconscripcion":13962,"ĠforÃ§adament":13963,"Ġvicepresident":13964,"Ġrebellion":13965,"eficacitat":13966,"IN":13967,"Le":13968,"Lou":13969,"Ob":13970,"ete":13971,"gment":13972,"gÃ³":13973,"iografia":13974,"mir":13975,"ualament":13976,"ĠlÃ²cs":13977,"ĠpÃ²ls":13978,"estelas":13979,"Ġsans":13980,"arga":13981,"arina":13982,"atÃ²ris":13983,"quets":13984,"Ġmy":13985,"Ã²ch":13986,"Ã²ct":13987,"islam":13988,"raq":13989,"Ġflex":13990,"Ġtocar":13991,"ĠLic":13992,"ĠLanas":13993,"Ġenciclop":13994,"Ġpermeses":13995,"amics":13996,"osex":13997,"Ġredon":13998,"Ġrector":13999,"Ġbov":14000,"ĠCron":14001,"ĠSig":14002,"ĠMend":14003,"ĠMot":14004,"ĠMov":14005,"ĠMou":14006,"ĠMill":14007,"ĠMath":14008,"Ġalinh":14009,"ĠDer":14010,"ĠDÃłrius":14011,"ĠBav":14012,"ĠBec":14013,"ĠRock":14014,"ĠTir":14015,"Ã¨sa":14016,"ĠIrlanda":14017,"ĠEng":14018,"Ġapres":14019,"1918":14020,"Ġplural":14021,"umiditat":14022,"onder":14023,"ĠestÃ¨las":14024,"Ġ1814":14025,"Ġ1881":14026,"Ġgranit":14027,"rancament":14028,"udat":14029,"ibar":14030,"Ġclor":14031,"Ġribi":14032,"ĠAlibÃ¨rt":14033,"551":14034,"553":14035,"Ġcausadas":14036,"epis":14037,"Ġpersist":14038,"Ġassum":14039,"995":14040,"ĠÃģ":14041,"ĠelÃ¨its":14042,"Ġprovinci":14043,"Ġservar":14044,"incourt":14045,"irac":14046,"Ġpublicadas":14047,"retot":14048,"ĠdespuÃ¨i":14049,"iversari":14050,"ograficas":14051,"ĠfuguÃ¨ron":14052,"rÃłriament":14053,"Ġindustria":14054,"laÃ§ament":14055,"industri":14056,"ĠAvinhon":14057,"Ġmagia":14058,"ĠniÃ§":14059,"ĠjulhÃ¨t":14060,"ĠfavorizÃ¨t":14061,"ĠreferÃ©ncias":14062,"Ġsemblava":14063,"Ġfabricas":14064,"orel":14065,"Ġseparada":14066,"ĠTrenta":14067,"ĠAngleses":14068,"Ġresponsas":14069,"Ġcrestianas":14070,"ĠPlana":14071,"Ġvolontaris":14072,"extrem":14073,"Ġmodificat":14074,"ĠRegional":14075,"Ġassaiar":14076,"ĠBesan":14077,"ĠmÃ¨tro":14078,"ĠempachÃ¨t":14079,"Ġavantatge":14080,"ĠlaissÃ¨t":14081,"ĠprÃ¨tzfach":14082,"Ġisolat":14083,"Ġterritoriala":14084,"ĠGirard":14085,"Ġestrategic":14086,"ĠPodÃ¨tz":14087,"Ġintervencions":14088,"Ġestere":14089,"Ġreservat":14090,"osaure":14091,"Ġnotables":14092,"ĠhasÃ³":14093,"Ġexterioras":14094,"Ġrestablir":14095,"Ġdiscussions":14096,"ĠEnsenh":14097,"Ġespecificament":14098,"Ġfuner":14099,"Ġintermediari":14100,"Ġmissils":14101,"ĠnerviÃ³s":14102,"Ġanglosax":14103,"ĠobtÃ©ner":14104,"Ġilleg":14105,"ĠDiocle":14106,"Ġcilind":14107,"Ġreferendum":14108,"AD":14109,"ET":14110,"Jean":14111,"Michel":14112,"NO":14113,"Vila":14114,"carnacion":14115,"iblament":14116,"matge":14117,"vÃ¨l":14118,"wood":14119,"Ġ>":14120,"Ġ98":14121,"Ġpir":14122,"Ġsinf":14123,"ofÃ²ns":14124,"Ġcourt":14125,"ary":14126,"inta":14127,"inÃłria":14128,"unda":14129,"Ġfeste":14130,"ĠLap":14131,"ĠLille":14132,"aub":14133,"Ġperform":14134,"olha":14135,"ĠAdam":14136,"Ġbev":14137,"Ġbanas":14138,"ĠCart":14139,"ĠCerv":14140,"ĠStra":14141,"insureccion":14142,"aigas":14143,"airitz":14144,"Ġcomedi":14145,"tions":14146,"ĠPrim":14147,"Ã©u":14148,"ulosa":14149,"Ġross":14150,"ĠrÃ¨is":14151,"ĠLoÃ¯s":14152,"apro":14153,"ĠBul":14154,"ĠBrit":14155,"ĠBizantin":14156,"avion":14157,"Ġdesbremb":14158,"ĠGR":14159,"Ġentamen":14160,"andes":14161,"Ġcapa":14162,"assat":14163,"ĠJol":14164,"ogat":14165,"Ġprecon":14166,"onselh":14167,"Ġresc":14168,"ĠavÃ³":14169,"ĠavÃ¨va":14170,"ĠhÃ¨t":14171,"Ġhab":14172,"Ġhial":14173,"ĠespÃ¨ra":14174,"Ġ1884":14175,"ifÃ¨r":14176,"ĠtempÃ¨sta":14177,"ĠAnne":14178,"Ġfranco":14179,"Ġmesas":14180,"557":14181,"ĠluÃ²nh":14182,"881":14183,"887":14184,"Ã²ps":14185,"ĠKub":14186,"ĠinsÃ¨ctes":14187,"ĠÃĢ":14188,"Ġestapa":14189,"Ġconfusion":14190,"Ġpossibles":14191,"Ġmetres":14192,"Ġmenim":14193,"Ġrespec":14194,"ĠscÃ¨nas":14195,"Ġ57":14196,"ĠRouss":14197,"Ġsubrevis":14198,"Ġclassicas":14199,"ografics":14200,"Ġprofe":14201,"Ġdecret":14202,"Ġepid":14203,"alhac":14204,"Ġsegondaris":14205,"Ġdobertura":14206,"Ġmotiu":14207,"Ġfondators":14208,"Ġbiografia":14209,"ĠvÃ²ls":14210,"arrÃ¨st":14211,"Ġequilibri":14212,"ĠestabliguÃ¨t":14213,"ĠReiau":14214,"ĠfenÃ¨stra":14215,"Ġesperant":14216,"radura":14217,"cinas":14218,"Ġpetits":14219,"verd":14220,"Ġiniciala":14221,"Ġquimicas":14222,"Ġescrichs":14223,"Ġcreaturas":14224,"Ġdestrucha":14225,"romagnet":14226,"ĠgrÃ¨vas":14227,"ĠGeneralament":14228,"Ġgarant":14229,"ĠJack":14230,"Ġanglesas":14231,"Ġdeterminada":14232,"Ġsovietics":14233,"Ġquadres":14234,"rocarb":14235,"Ġremembre":14236,"ĠprumÃ¨ra":14237,"Ġparladas":14238,"ĠperseguÃŃs":14239,"ĠdanÃ©s":14240,"Ġestela":14241,"Ġconfirma":14242,"ĠsequÃ©ncias":14243,"Ġacademica":14244,"ĠcratÃ¨rs":14245,"ĠPopulara":14246,"Ġibn":14247,"Ġannexat":14248,"ĠCarnaval":14249,"ĠTibet":14250,"Ġfeud":14251,"Ġartesan":14252,"ĠLocalizacion":14253,"Ġdisponibles":14254,"Illa":14255,"ĠvisigÃ²ts":14256,"ĠneerlandÃ©s":14257,"Ġitiner":14258,"Ġconsultar":14259,"Ġbailliage":14260,"ĠSantiago":14261,"ĠMeurthe":14262,"312":14263,"Aut":14264,"Irlanda":14265,"Vall":14266,"eqÃ¼ator":14267,"fit":14268,"fant":14269,"hada":14270,"jam":14271,"nascuda":14272,"Ðº":14273,"Ġ68":14274,"Ġ64":14275,"Ġdetect":14276,"Ġph":14277,"antiquitat":14278,"Ġcurs":14279,"cient":14280,
[...]
