{"<|endoftext|>":0,"!":1,"\"":2,"#":3,"$":4,"%":5,"&":6,"'":7,"(":8,")":9,"*":10,"+":11,",":12,"-":13,".":14,"/":15,"0":16,"1":17,"2":18,"3":19,"4":20,"5":21,"6":22,"7":23,"8":24,"9":25,":":26,";":27,"<":28,"=":29,">":30,"?":31,"@":32,"A":33,"B":34,"C":35,"D":36,"E":37,"F":38,"G":39,"H":40,"I":41,"J":42,"K":43,"L":44,"M":45,"N":46,"O":47,"P":48,"Q":49,"R":50,"S":51,"T":52,"U":53,"V":54,"W":55,"X":56,"Y":57,"Z":58,"[":59,"\\":60,"]":61,"^":62,"_":63,"`":64,"a":65,"b":66,"c":67,"d":68,"e":69,"f":70,"g":71,"h":72,"i":73,"j":74,"k":75,"l":76,"m":77,"n":78,"o":79,"p":80,"q":81,"r":82,"s":83,"t":84,"u":85,"v":86,"w":87,"x":88,"y":89,"z":90,"{":91,"|":92,"}":93,"~":94,"¡":95,"¢":96,"£":97,"¤":98,"¥":99,"¦":100,"§":101,"¨":102,"©":103,"ª":104,"«":105,"¬":106,"®":107,"¯":108,"°":109,"±":110,"²":111,"³":112,"´":113,"µ":114,"¶":115,"·":116,"¸":117,"¹":118,"º":119,"»":120,"¼":121,"½":122,"¾":123,"¿":124,"À":125,"Á":126,"Â":127,"Ã":128,"Ä":129,"Å":130,"Æ":131,"Ç":132,"È":133,"É":134,"Ê":135,"Ë":136,"Ì":137,"Í":138,"Î":139,"Ï":140,"Ð":141,"Ñ":142,"Ò":143,"Ó":144,"Ô":145,"Õ":146,"Ö":147,"×":148,"Ø":149,"Ù":150,"Ú":151,"Û":152,"Ü":153,"Ý":154,"Þ":155,"ß":156,"à":157,"á":158,"â":159,"ã":160,"ä":161,"å":162,"æ":163,"ç":164,"è":165,"é":166,"ê":167,"ë":168,"ì":169,"í":170,"î":171,"ï":172,"ð":173,"ñ":174,"ò":175,"ó":176,"ô":177,"õ":178,"ö":179,"÷":180,"ø":181,"ù":182,"ú":183,"û":184,"ü":185,"ý":186,"þ":187,"ÿ":188,"Ā":189,"ā":190,"Ă":191,"ă":192,"Ą":193,"ą":194,"Ć":195,"ć":196,"Ĉ":197,"ĉ":198,"Ċ":199,"ċ":200,"Č":201,"č":202,"Ď":203,"ď":204,"Đ":205,"đ":206,"Ē":207,"ē":208,"Ĕ":209,"ĕ":210,"Ė":211,"ė":212,"Ę":213,"ę":214,"Ě":215,"ě":216,"Ĝ":217,"ĝ":218,"Ğ":219,"ğ":220,"Ġ":221,"ġ":222,"Ģ":223,"ģ":224,"Ĥ":225,"ĥ":226,"Ħ":227,"ħ":228,"Ĩ":229,"ĩ":230,"Ī":231,"ī":232,"Ĭ":233,"ĭ":234,"Į":235,"į":236,"İ":237,"ı":238,"Ĳ":239,"ĳ":240,"Ĵ":241,"ĵ":242,"Ķ":243,"ķ":244,"ĸ":245,"Ĺ":246,"ĺ":247,"Ļ":248,"ļ":249,"Ľ":250,"ľ":251,"Ŀ":252,"ŀ":253,"Ł":254,"ł":255,"Ń":256,"Ġd":257,"en":258,"Ġl":259,"Ġde":260,"on":261,"te":262,"Ġp":263,"Ġa":264,"as":265,"Ã¨":266,"an":267,"es":268,"end":269,"Ġs":270,"of":271,"xt":272,"text":273,"<|":274,"|>":275,"endof":276,"endoftext":277,".<|":278,"Ġc":279,"ar":280,"er":281,"at":282,"qu":283,"ci":284,"in":285,"re":286,"Ġe":287,"Ġm":288,"Ġla":289,"al":290,"un":291,"or":292,"Ã²":293,"ent":294,"is":295,"ra":296,"Ġlo":297,"Ġf":298,"it":299,"Ġqu":300,"ic":301,"Ġt":302,"om":303,"Ġun":304,"au":305,"cion":306,"Ġes":307,"da":308,"ri":309,"Ġv":310,"Ġen":311,"Ġper":312,"am":313,"Ġn":314,"gu":315,"os":316,"Ã¨r":317,"Ã¨t":318,"us":319,"Ġque":320,"el":321,"Ġdel":322,"ta":323,"il":324,"ol":325,"Ġre":326,"res":327,"Ġse":328,"Ġb":329,"Ġg":330,"ins":331,"ai":332,"Ġ1":333,"Ġcom":334,"ro":335,"le":336,"ti":337,"ant":338,"Ġcon":339,"Ġ(":340,"Ã§":341,"âĢ":342,"acion":343,"ĠC":344,"âĢĻ":345,"Ġlas":346,"ament":347,"im":348,"Ġuna":349,"Ã©":350,"ul":351,"ei":352,"ia":353,"Ġo":354,"ran":355,"mb":356,"Ġson":357,"ada":358,"et":359,"Ġal":360,"Ġr":361,"ut":362,"ĠM":363,"Ġdins":364,"Ã²r":365,"ĠS":366,"ad":367,"ur":368,"ĠP":369,"guÃ¨t":370,"ion":371,"Ãł":372,"Ġlos":373,"Lo":374,"st":375,"ats":376,"ist":377,"ch":378,"Ġpar":379,"la":380,"ica":381,"ap":382,"Ġpas":383,"ĠA":384,"ot":385,"Ġan":386,"di":387,"La":388,"ens":389,"ÃŃ":390,"ala":391,"mp":392,"ĠB":393,"Ġj":394,"itat":395,"ir":396,"Ġmai":397,"quel":398,"iss":399,"av":400,"ct":401,"iv":402,"ter":403,"Ã¡":404,"ab":405,"ig":406,"id":407,"Ã§a":408,"Ġdes":409,"Ã¨s":410,"Ġin":411,"Ġpro":412,"aus":413,"Ġamb":414,"ĠR":415,"cia":416,"Ġpr":417,"ge":418,"ha":419,"Ġdels":420,"ĠG":421,"Ġsu":422,"Ġ2":423,"Ã¨ra":424,"tan":425,"ment":426,"Ġ19":427,"iz":428,"ĠF":429,"ĠT":430,"ac":431,"itu":432,"ici":433,"ov":434,"ont":435,"ĠL":436,"Ġfo":437,"iÃ¡":438,"ans":439,"Ã¨ron":440,"Ġpo":441,"Ġsus":442,"tat":443,"ĠE":444,"orn":445,"Ġcoma":446,"bl":447,").<|":448,"Ġent":449,"ÃŃs":450,"Ã©n":451,"me":452,"and":453,"una":454,"Ġte":455,"ma":456,"ga":457,"Ġcap":458,"ca":459,"ors":460,"Ġdi":461,"ĠV":462,"ura":463,"Ġlei":464,"ass":465,"Ã¯":466,"Ġnom":467,"mi":468,"adas":469,"Ġtra":470,"cci":471,"tes":472,"Ġdau":473,"ques":474,"Ġap":475,"ĠN":476,"ĠD":477,"eu":478,"ben":479,"Ã¨l":480,"En":481,"ara":482,"00":483,"Ã©s":484,"imp":485,"Ġar":486,"de":487,"ari":488,"atge":489,"Ġtan":490,"Ġme":491,"Ġau":492,"ort":493,"ob":494,"Ġcomp":495,"ĠfoguÃ¨t":496,"eg":497,"ana":498,"og":499,"ec":500,"ĠÂ":501,"Ġli":502,"op":503,"Ġcont":504,"Ġaquel":505,"Ġvil":506,"aut":507,"ers":508,"Ġsi":509,"Un":510,"ĠJ":511,"Ã¨rs":512,"ĠI":513,"Es":514,"Ġi":515,"Ġpl":516,"um":517,"Ġfa":518,"Ġtanben":519,"ond":520,"ccitan":521,"ce":522,"Ġpre":523,"Ġtot":524,"Ġsa":525,"Ġpres":526,"Ã©ncia":527,"ons":528,"Ġex":529,"ria":530,"Ġres":531,"em":532,"Ġ:":533,"ag":534,"Ġpri":535,"orm":536,"Ġav":537,"Ġh":538,"Ġab":539,"ida":540,"uc":541,"Ġesp":542,"Ã²t":543,"Ġentre":544,"ras":545,"Ã¨i":546,"ina":547,"Ġpel":548,"ĠfÃ²r":549,"oc":550,"ĠcÃ²":551,"Ġmar":552,"Ġac":553,"Ã¨g":554,"ich":555,"Ã³":556,"Ġreg":557,"eis":558,"Ġven":559,"art":560,"aire":561,"cions":562,"Ġlen":563,"Ġparti":564,"ess":565,"rit":566,"ost":567,"Ġaut":568,"alitat":569,"Ġest":570,"Ġimp":571,"alh":572,"rop":573,"Ã¨u":574,"Ġcar":575,"Ġsitu":576,"Ã¨c":577,"les":578,"Ġesc":579,"est":580,"Ġra":581,"Ġgran":582,"Ġcons":583,"Qu":584,"Ġ18":585,"if":586,"va":587,"bre":588,"Ã²c":589,"ast":590,"guÃ¨ron":591,"Ġpart":592,"ranc":593,"ista":594,"als":595,"alament":596,"per":597,"Los":598,"Ġmas":599,"Ġor":600,"que":601,"Ã²l":602,"ics":603,"ants":604,"Ġser":605,"acions":606,"Ġdei":607,"das":608,"icas":609,"cip":610,"esc":611,"era":612,"Ġu":613,"alas":614,"oci":615,"Ġpu":616,"na":617,"ĠO":618,"Ġ\"":619,"ard":620,"),":621,"Ġdon":622,"elh":623,"od":624,"Ġcam":625,"Ġmon":626,"Ġdem":627,"ents":628,"rat":629,"ĠÃ¨ra":630,"Ġpa":631,"Ġter":632,"Ġgen":633,"Ġfin":634,"ex":635,"Ġprimi":636,"ud":637,"Ġrec":638,"ss":639,"ult":640,"ĠH":641,"Ġdeu":642,"ib":643,"ĠfÃ²rÃ§a":644,"Ã¨st":645,"Ã²b":646,"vol":647,"Ġoccitan":648,"ed":649,"enc":650,"Ġtr":651,"Ġcl":652,"ip":653,"unici":654,"unicip":655,"Ã¨rra":656,"egu":657,"Ġtemp":658,"th":659,"Ġri":660,"fer":661,"ĠX":662,"Ġrep":663,"enh":664,"Ġmunicip":665,"Ã¨ss":666,"emp":667,"Ġne":668,"ona":669,"Ġma":670,"ions":671,"Ġ-":672,"ru":673,"Ġpol":674,"Ġsol":675,"ena":676,"Aquel":677,"Ã¨m":678,"ĠsÃ¨g":679,"Ġcol":680,"oss":681,"Ġplan":682,"iu":683,"Ġbas":684,"int":685,"Ã²rt":686,"Ġfranc":687,"Ãłn":688,"ĠÂ«":689,"ava":690,"its":691,"Ġtres":692,"Ġaqu":693,"Ġlenga":694,"Ġcre":695,"Ã²rd":696,"ne":697,"aquel":698,"Ġpus":699,"Ġpass":700,"Ġform":701,"Ġmes":702,"ĠÂ»":703,"iliz":704,"Ġvila":705,"iÃ¨r":706,"Ġans":707,"rÃ¨s":708,"Â¿":709,"Â½":710,"Ġto":711,"Ġ20":712,"II":713,"rib":714,"cias":715,"osa":716,"Ġ)":717,"ilh":718,"Ġprin":719,"ven":720,"all":721,"ep":722,"enta":723,"gon":724,"Ġ3":725,"Ã¨n":726,"ĠsÃ¨gle":727,"Ã²n":728,"Ġmunicipalitat":729,"rÃ¨":730,"Ġlu":731,"Ġch":732,"ric":733,"ges":734,"Ġenc":735,"ie":736,"Ġcaus":737,"Ġgu":738,"gan":739,"Se":740,"ing":741,"Ġam":742,"Ġdiv":743,"ĠCh":744,"ou":745,"Ġ200":746,"Ġprincip":747,"Ġpers":748,"Ġman":749,"Ã²p":750,"ill":751,"Ġrel":752,"Ġsul":753,"Ġpod":754,"lu":755,"ron":756,"con":757,"Ã§Ã²":758,"Ġdos":759,"Ġsens":760,"Las":761,"ĠLa":762,"esa":763,"Ġdis":764,"Ġleis":765,"isme":766,"teri":767,"Ġtorn":768,"auc":769,"Ġdo":770,"Ġregion":771,"ust":772,"met":773,"mens":774,"ong":775,"aliz":776,"Ġaquela":777,"Ġcent":778,"pul":779,"Ġfar":780,"Ġcor":781,"olog":782,"ian":783,"man":784,"ev":785,"ert":786,"Ġua":787,"ĠLo":788,"ĠpÃ²t":789,"Ã³s":790,"rar":791,"Ġcomun":792,"Ġfam":793,"Per":794,"endent":795,"itats":796,"utiliz":797,"ren":798,"up":799,"Ġgener":800,"anta":801,"Ġvi":802,"Ġk":803,"Ġrom":804,"lar":805,"ire":806,"Ġsegu":807,"Ġmil":808,"Ġtemps":809,"ĠcÃ²p":810,"ine":811,"ts":812,"Ġele":813,"Ġsud":814,"ign":815,"mbre":816,"esti":817,"ĠSant":818,"ora":819,"Ġcal":820,"anh":821,"An":822,"Ġass":823,"Ġdep":824,"Ġad":825,"ĠFran":826,"Ġpopul":827,"Ġfins":828,"Ã¨sser":829,"ĠAn":830,"ĠÃ§Ã²":831,"cha":832,"Ġimport":833,"Ġdef":834,"atal":835,"ier":836,"Ġnov":837,"ub":838,"Ġals":839,"esp":840,"Ġpolit":841,"ĠK":842,"Ġterrit":843,"Ġpartida":844,"cas":845,"Ġvilatge":846,"Ġfon":847,"Ġsos":848,"Ġob":849,"Ġqui":850,"Ġdemp":851,"Ã²st":852,"ja":853,"Ġpubl":854,"Ã¼":855,"De":856,"Ġcapit":857,"Ġso":858,"Ġro":859,"Ġat":860,"ĠMar":861,"Ġcas":862,"amb":863,"lan":864,"rans":865,"ilha":866,"Ġfor":867,"Ã¨rn":868,"Ã¨ri":869,"Al":870,"erv":871,"icion":872,"Ã¨ma":873,"Ã²ria":874,"Ġdempu":875,"ita":876,"Ġ*":877,"Ġconst":878,"fic":879,"19":880,"inas":881,"tiv":882,"Ġmus":883,"Ġdesc":884,"Ġont":885,"Ġpermet":886,"Ġrev":887,"Ã²m":888,"ĠprimiÃ¨r":889,"Ġ4":890,"Ã¨cte":891,"ement":892,"enÃ§a":893,"Ġcult":894,"rob":895,"Ġpauc":896,"unh":897,"arri":898,"tel":899,"aci":900,"ctu":901,"paus":902,"Ã²s":903,"Ġann":904,"Dins":905,"ĠGu":906,"ros":907,"Ġprod":908,"Ġdire":909,"Ġinter":910,"ĠpaÃŃs":911,"eb":912,"our":913,"Ġlor":914,"uda":915,"Ġins":916,"isa":917,"Ã§as":918,"isson":919,"Pas":920,"iment":921,"lic":922,"Ġjorn":923,"Ġsuper":924,"Ġrei":925,"rada":926,"ress":927,"Ġpels":928,"ern":929,"Ġ17":930,"Ġkm":931,"Ġvol":932,"Ġsituat":933,"dicion":934,"ori":935,"ucion":936,"don":937,"Ġ5":938,"erc":939,"ident":940,"Ġqual":941,"par":942,"rech":943,"Ġpich":944,"itar":945,"Ġsegon":946,"volop":947,"Ġmin":948,"balh":949,"ĠfoguÃ¨ron":950,"oma":951,"Ġtrans":952,"Ġaf":953,"Ġesta":954,"Ġsoci":955,"Ġsieu":956,"cl":957,"ific":958,"Ã¨ran":959,"Ġst":960,"Aqu":961,"Ġperson":962,"Ġpla":963,"Ġaques":964,"Ġdom":965,"Ġconf":966,"ital":967,"Ġestat":968,"Ġcos":969,"gas":970,"ĠPar":971,"Ġdoas":972,"ĠW":973,"ĠEs":974,"Pasmens":975,"Ġpoder":976,"min":977,"Ġgr":978,"Ġgrand":979,"raf":980,"Ġcan":981,"Ġdeis":982,"Ġanci":983,"atura":984,"Ġtrabalh":985,"gi":986,"Ġgrop":987,"iva":988,"Una":989,"itants":990,"omp":991,"istas":992,"Ġnon":993,"ĠÃ¨sser":994,"Ġencara":995,"Ãº":996,"Ġmod":997,"Ġdesvolop":998,"ĠAl":999,"Ã²ri":1000,"Son":1001,"uras":1002,"Ġja":1003,"Ġimportant":1004,"uccion":1005,"Ġ15":1006,"Ġdifer":1007,"ĠpÃ²":1008,"Ġ12":1009,"ĠfrancÃ©s":1010,"Ã¨a":1011,"ctor":1012,"etat":1013,"Ġver":1014,"bi":1015,"ccion":1016,"ger":1017,"Ġel":1018,"Ġutiliz":1019,"Ġtrob":1020,"gut":1021,"Ġposs":1022,"lo":1023,"Ġgl":1024,"Ã¨la":1025,"Ġemp":1026,"enÃ§":1027,"Ġcamp":1028,"Ġca":1029,"aqu":1030,"ĠsiÃ¡":1031,"Ġof":1032,"Ã¨us":1033,"Ã²ca":1034,"ganiz":1035,"tra":1036,"ĠMont":1037,"Ġdens":1038,"Ġon":1039,"Ġgov":1040,"Ġsov":1041,"Ġ201":1042,"assa":1043,"Ġ6":1044,"Ġrepres":1045,"ten":1046,"arc":1047,"Ġmete":1048,"atre":1049,"Ġben":1050,"Ġdeb":1051,"amp":1052,"eci":1053,"ish":1054,"Ġconegu":1055,"Ap":1056,"ba":1057,"Ġprov":1058,"Ġsas":1059,"las":1060,"ĠAr":1061,"Ġmet":1062,"udi":1063,"Ġfil":1064,"urant":1065,"Ġvida":1066,"Ġag":1067,"Ġserv":1068,"aris":1069,"Ġabitants":1070,"ĠaquÃ²":1071,"ĠFranÃ§a":1072,"emple":1073,"Ġco":1074,"Ġdarri":1075,"Ġz":1076,"Ġera":1077,"tacion":1078,"Ġ).<|":1079,"ars":1080,"Ġquand":1081,"atges":1082,"inc":1083,"Ġleg":1084,"Ġconc":1085,"Ġlong":1086,"Ġpendent":1087,"mat":1088,"Ġlim":1089,"Ġperi":1090,"ments":1091,"Ġ16":1092,"oguÃ¨t":1093,"Ġcontra":1094,"ĠâĢ":1095,"Ġsuc":1096,"eus":1097,"Ġcomuna":1098,"ira":1099,"Ġer":1100,"Ġdab":1101,"ĠnÃ²rd":1102,"cis":1103,"Que":1104,"enci":1105,"ord":1106,"Ã²de":1107,"ĠaviÃ¡":1108,"Ġeth":1109,"occitan":1110,"ef":1111,"Ġconsid":1112,"ĠaprÃ¨s":1113,"eta":1114,"cep":1115,"Ġnos":1116,"Ġref":1117,"Ġdest":1118,"Ġfach":1119,"Ġvis":1120,"quÃ¨t":1121,"Ġloc":1122,"Ġmen":1123,"Ġpopulacion":1124,"Ġresp":1125,"Ġrd":1126,"lament":1127,"arm":1128,"Aquela":1129,"icul":1130,"ure":1131,"utat":1132,"ĠUn":1133,"Ġens":1134,"Ġpat":1135,"Ġpublic":1136,"Ġdev":1137,"ĠÃ²b":1138,"Ġras":1139,"ber":1140,"Ġ199":1141,"Ġjos":1142,"Ġcr":1143,"Ġpren":1144,"aires":1145,"Ġval":1146,"Ġ7":1147,"Ġfamilha":1148,"Ġ8":1149,"avan":1150,"Ã¯n":1151,"Ġist":1152,"Ġexp":1153,"ĠguÃ¨rra":1154,"Ġsc":1155,"Ġgranda":1156,"Ġbasti":1157,"osicion":1158,"artament":1159,"ang":1160,"Ã²la":1161,"lat":1162,"ret":1163,"Ġdrech":1164,"jorn":1165,"Ãłria":1166,"Ġpartir":1167,"Ġcostat":1168,"Ġlin":1169,"teg":1170,"Ġdesp":1171,"riÃ¡":1172,"uss":1173,"Ġcada":1174,"Ġforma":1175,"tiu":1176,"emb":1177,"ĠmÃ²rt":1178,"Ġbia":1179,"Ġcausa":1180,"ĠÃ¨ran":1181,"ĠcÃ²n":1182,"ĠTol":1183,"ĠEst":1184,"ivers":1185,"ĠJo":1186,"aiss":1187,"Ġoccitana":1188,"itud":1189,"Ã¯s":1190,"Ġdist":1191,"mes":1192,"omb":1193,"ĠcomenÃ§":1194,"riv":1195,"ius":1196,"Ġsist":1197,"Ġqualques":1198,"Ġmant":1199,"dic":1200,"Ġpresent":1201,"arn":1202,"Ġsub":1203,"ois":1204,"tot":1205,"Ġinf":1206,"Ġum":1207,"volucion":1208,"Ġannadas":1209,"Ġbiais":1210,"18":1211,"Aques":1212,"Ġmal":1213,"ĠmÃł":1214,"Ġtotes":1215,"Ġdeus":1216,"Ġabans":1217,"FoguÃ¨t":1218,"Ġnacion":1219,"anas":1220,"ell":1221,"ect":1222,"Est":1223,"ubl":1224,"tas":1225,"Ġara":1226,"Ġespeci":1227,"conom":1228,"rÃ¨p":1229,"Ġlig":1230,"Lei":1231,"ulh":1232,"Ġneg":1233,"Ġinst":1234,"he":1235,"Ġrepresent":1236,"Ġmond":1237,"Ġ;":1238,"Ġcompaus":1239,"Ã¨x":1240,"ej":1241,"ias":1242,"ĠCom":1243,"Ġart":1244,"Ã²u":1245,"'s":1246,"enat":1247,"Ġdepartament":1248,"ĠdempuÃ¨i":1249,"urop":1250,"Ġ10":1251,"atur":1252,"Ġsuperf":1253,"Ġdemor":1254,"Ã©ncias":1255,"ĠgovÃ¨rn":1256,"Ġconstitu":1257,"eire":1258,"eric":1259,"Ġconsider":1260,"ille":1261,"Ġ14":1262,"Mas":1263,"Ġba":1264,"Ġno":1265,"Ġsovent":1266,"autor":1267,"Ġtrav":1268,"Ġrap":1269,"aquela":1270,"ral":1271,"racion":1272,"Ġci":1273,"Ġai":1274,"Ġcultura":1275,"ann":1276,"Ġmens":1277,"Ġmaj":1278,"ĠcÃ²r":1279,"af":1280,"Ġeconom":1281,"Ġmi":1282,"Ġsubre":1283,"Ġ196":1284,"igina":1285,"Ġ9":1286,"ĠvenguÃ¨t":1287,"Ġpolitica":1288,"Ġtota":1289,"Ar":1290,"Ġ198":1291,"Ġclass":1292,"entre":1293,"idas":1294,"ĠTolosa":1295,"..<|":1296,"ĠtÃ¨r":1297,"Ġ197":1298,"Ġva":1299,"ĠXV":1300,"ograf":1301,"ĠRo":1302,"aur":1303,"anda":1304,"Ġsign":1305,"gond":1306,"ĠnÃ²st":1307,"Sa":1308,"cul":1309,"Ġsenh":1310,"Ã²ra":1311,"Ġmot":1312,"Ġlengas":1313,"Ġliter":1314,"Ġten":1315,"Ã¨tz":1316,"ĠdivÃ¨rs":1317,"Ġmei":1318,"Ġdurant":1319,"Ġfu":1320,"Ġ13":1321,"ologia":1322,"Ġactu":1323,"Ġprop":1324,"Ġ194":1325,"Ġarm":1326,"erg":1327,"tada":1328,"Ġparticul":1329,"Ġimpor":1330,"ĠambÃ©":1331,"Ġagu":1332,"Ġdess":1333,"jÃ¨cte":1334,"Ġsei":1335,"Ġrelig":1336,"Ġcentre":1337,"Ġnomb":1338,"Ġbar":1339,"Ġroman":1340,"Ġrealiz":1341,"Ã¨ls":1342,"ĠmÃłger":1343,"In":1344,"jar":1345,"arg":1346,"aud":1347,"Ġnombre":1348,"has":1349,"ĠperiÃ²de":1350,"tanta":1351,"aiga":1352,"Ġmej":1353,"Ġprof":1354,"iÃ¡n":1355,"Ã²tle":1356,"Ġsab":1357,"\".<|":1358,"exp":1359,"entas":1360,"ĠCon":1361,"Ġim":1362,"Ġniv":1363,"vi":1364,"Ġdec":1365,"ĠCar":1366,"ĠXI":1367,"Ġcast":1368,"Ġdonc":1369,"rig":1370,"Ġfl":1371,"Ġgaire":1372,"Ġdefin":1373,"Ġapar":1374,"Ġmom":1375,"Ġpremi":1376,"Ġren":1377,"Ġsucc":1378,"ĠcÃ²ntra":1379,"Ġet":1380,"ingÃ¼":1381,"Ã¨sta":1382,"lÃ¨u":1383,"Ġpens":1384,"Ġexemple":1385,"Ġcomb":1386,"estat":1387,"anha":1388,"Ãºs":1389,"Ġautre":1390,"Ġsim":1391,"Ġfas":1392,"ila":1393,"Ġpun":1394,"Ġmov":1395,"ĠIn":1396,"Ġas":1397,"Ãłnia":1398,"esta":1399,"Ġrecon":1400,"Ġimportanta":1401,"Ġret":1402,"etz":1403,"asc":1404,"ua":1405,"Ġep":1406,"ĠsistÃ¨ma":1407,"anÃ§a":1408,"Ã¨p":1409,"Ġcontunh":1410,"cup":1411,"rÃł":1412,"ÃŃcia":1413,"ata":1414,"li":1415,"Ã¨rt":1416,"bles":1417,"dent":1418,"aments":1419,"ission":1420,"ÃĴ":1421,"able":1422,"Ġfem":1423,"Ã¨ctes":1424,"Ġsemb":1425,"grat":1426,"Ġpresident":1427,"Ġnatur":1428,"Ġcarri":1429,"Ġcer":1430,"mpÃ¨ri":1431,"tac":1432,"Au":1433,"Ġ11":1434,"reg":1435,"origina":1436,"Ġint":1437,"Ġale":1438,"rim":1439,"Ġtip":1440,"Ġbast":1441,"Ġgra":1442,"mand":1443,"Ġble":1444,"anÃ§":1445,"Ġprog":1446,"nacion":1447,"inf":1448,"Ġtradicion":1449,"Ġmoment":1450,"ĠU":1451,"ĠII":1452,"raÃ¯n":1453,"Ġdoncas":1454,"Ġsci":1455,"ador":1456,"anci":1457,"Ġorganiz":1458,"Ġfi":1459,"Ġind":1460,"Ġalara":1461,"ĠplaÃ§a":1462,"entorn":1463,"ĠpÃ²don":1464,"eiss":1465,"dep":1466,"aques":1467,"tar":1468,"can":1469,"ĠMa":1470,"issa":1471,"autres":1472,"20":1473,"iguÃ¨t":1474,"AquÃ²":1475,"cs":1476,"aras":1477,"ĠfaguÃ¨t":1478,"Ġef":1479,"antas":1480,"orti":1481,"Ġmajor":1482,"ÃŃn":1483,"Ġpichon":1484,"Ġmelh":1485,"Ġang":1486,"Ġestats":1487,"dat":1488,"Ġsoa":1489,"Ġfra":1490,"laÃ§":1491,"Ġfonda":1492,"des":1493,"Ġlat":1494,"Ġmovement":1495,"Ġdera":1496,"ug":1497,"arÃł":1498,"Ġtotjorn":1499,"ĠÃ²":1500,"Ġrs":1501,"Ġdeth":1502,"alha":1503,"Ġcarac":1504,"Ġmeteis":1505,"Ġcad":1506,"eth":1507,"ĠÂ».<|":1508,"Ġport":1509,"ĠMon":1510,"ĠluÃ²c":1511,"endre":1512,"ĠjÃ²c":1513,"Ġfoncion":1514,"rica":1515,"equ":1516,"Ã¨ct":1517,"Ġeg":1518,"Ãłncia":1519,"Ġvic":1520,"cn":1521,"Ġ193":1522,"ĠGran":1523,"Ġciutat":1524,"Ġves":1525,"iÃ¨rs":1526,"Ġpon":1527,"Ġtre":1528,"Ġarrib":1529,"Ġofici":1530,"Ġid":1531,"ĠVal":1532,"vas":1533,"terior":1534,"Ġtotas":1535,"Ġfrancesa":1536,"itz":1537,"inat":1538,"Ġlibre":1539,"ĠpaÃ¯s":1540,"iÃ¨ra":1541,"000":1542,"Ġsitua":1543,"Ġvari":1544,"isi":1545,"eng":1546,"istica":1547,"ilitat":1548,"Ã¨mas":1549,"Ã²pa":1550,"Ġsimp":1551,"III":1552,"ible":1553,"ĠcomenÃ§ament":1554,"dia":1555,"Ġcatal":1556,"ĠcÃ²ps":1557,"Ġlimit":1558,"ĠpuÃ¨i":1559,"Ġdint":1560,"ĠRe":1561,"Ġautor":1562,"Ġcambi":1563,"icament":1564,"Ġpra":1565,"Ġsituada":1566,"Ġtecn":1567,"rich":1568,"mas":1569,"ession":1570,"fa":1571,"bor":1572,"Ġho":1573,"qui":1574,"Ġle":1575,"Ġsegond":1576,"Ġparticip":1577,"Ġistor":1578,"ÃĪ":1579,"Ã¨isa":1580,"eni":1581,"atz":1582,"50":1583,"Ġsost":1584,"arti":1585,"minist":1586,"illa":1587,"urÃ²pa":1588,"ĠMi":1589,"Ã¨lh":1590,"jec":1591,"Ġpag":1592,"Ã¨stre":1593,"ble":1594,"mer":1595,"AprÃ¨s":1596,"Ġve":1597,"ĠpÃ¨":1598,"ale":1599,"ariÃ¡":1600,"isti":1601,"che":1602,"Ġmemb":1603,"Ġcel":1604,"rias":1605,"egon":1606,"Ġais":1607,"ĠEstats":1608,"Ġprote":1609,"Ġtant":1610,"ĠZ":1611,"ula":1612,"ĠvÃ¨rs":1613,"Ġexist":1614,"lia":1615,"ĠentraÃ¯n":1616,"fin":1617,"uts":1618,"aj":1619,"Ãłs":1620,"rÃ¨t":1621,"Ġcres":1622,"Ġmena":1623,"istÃ²ria":1624,"acab":1625,"oni":1626,"Ġriu":1627,"Ġdu":1628,"Ġquatre":1629,"Ġautres":1630,"Ġcontin":1631,"ĠterritÃ²ri":1632,"ze":1633,"Ġsonque":1634,"ĠPro":1635,"ativ":1636,"Ġmonde":1637,"dicions":1638,"Ġev":1639,"Ġconegut":1640,"Ġcors":1641,"Ġocup":1642,"eracion":1643,"Ġeurop":1644,"Ġdesvolopament":1645,"Ġconv":1646,"ien":1647,"uta":1648,"Ġlinha":1649,"uÃ¨i":1650,"Ġmol":1651,"Ġregions":1652,"du":1653,"Ġdescob":1654,"ublica":1655,"Ġpor":1656,"leg":1657,"inter":1658,"eri":1659,"ĠentÃł":1660,"Ġaver":1661,"Ġjunh":1662,"ĠEn":1663,"ĠÃ²bra":1664,"temp":1665,"ĠaprÃ¨p":1666,"autre":1667,"ay":1668,"Ġost":1669,"Ġtrop":1670,"ril":1671,"ĠCons":1672,"Ġjov":1673,"Ã¨las":1674,"Ġaquesta":1675,"Ġvos":1676,"fici":1677,"rala":1678,"Ġdob":1679,"Ġnav":1680,"ĠJoan":1681,"eau":1682,"ĠprimiÃ¨ra":1683,"Ġmau":1684,"Ġdisc":1685,"tell":1686,"ression":1687,"Ġmembres":1688,"ator":1689,"Ġtornar":1690,"Ġmusica":1691,"Ġdic":1692,"ind":1693,"Ġorig":1694,"apar":1695,"Ġsec":1696,"Ġfis":1697,"Ġvall":1698,"Ġcamin":1699,"Ġpersonas":1700,"Ġsal":1701,"Ġmag":1702,"encÃ¨t":1703,"Ġdisp":1704,"Ġnombros":1705,"Ġext":1706,"amor":1707,"Ġindi":1708,"ĠY":1709,"Ġaj":1710,"Ġsup":1711,"erci":1712,"ĠsÃ¨t":1713,"avant":1714,"ĠFranc":1715,"Ġess":1716,"Ġpos":1717,"gue":1718,"Ã¨th":1719,"Ġjam":1720,"Ġperque":1721,"van":1722,"Ġmilitar":1723,"rip":1724,"Ġni":1725,"Ġsieus":1726,"Ġactiv":1727,"Ġpaire":1728,"Ġveire":1729,"Ġconqu":1730,"Ġmor":1731,"Ġsolament":1732,"ve":1733,"ima":1734,"Ġparticular":1735,"inst":1736,"Ã²rta":1737,"Ġpes":1738,"Ġmo":1739,"ĠserÃł":1740,"let":1741,"Ġciv":1742,"ccident":1743,"ieu":1744,"ĠSe":1745,"sin":1746,"ĠQu":1747,"ĠRep":1748,"Â«":1749,"Ġtract":1750,"Ġprodu":1751,"Ã¨ras":1752,"mar":1753,"inh":1754,"Ġmat":1755,"Ġfond":1756,"Ġcapitala":1757,"tia":1758,"Ġsegonda":1759,"guda":1760,"Ġmelhor":1761,"ient":1762,"iversitat":1763,"az":1764,"avor":1765,"ceb":1766,"EmpÃ¨ri":1767,"Ġnec":1768,"ĠLe":1769,"Amb":1770,"ĠÃ²m":1771,"Ġquesti":1772,"Ġmerc":1773,"Ġfilh":1774,"Ġtor":1775,"Ġsocietat":1776,"Ġprepaus":1777,"ĠlingÃ¼":1778,"Ġtard":1779,"ĠtrÃ²b":1780,"Ġfre":1781,"tadi":1782,"Ġcorr":1783,"itan":1784,"Ġbi":1785,"Ġparlar":1786,"aume":1787,"Ġmarc":1788,"titud":1789,"Ġend":1790,"tim":1791,"udis":1792,"ĠOccitan":1793,"tol":1794,"arr":1795,"uri":1796,"Ã¨rta":1797,"sa":1798,"ĠvÃ²l":1799,"Ġdeban":1800,"rÃ²":1801,"Ġfeb":1802,"ean":1803,"ĠAle":1804,"Ġdeci":1805,"Ġjog":1806,"eish":1807,"ruct":1808,"eraqu":1809,"Ġminist":1810,"Ġei":1811,"Ġ),":1812,"Ġquil":1813,"aval":1814,"\",":1815,"tz":1816,"atalha":1817,"alais":1818,"Tot":1819,"ires":1820,"urb":1821,"ritan":1822,"ĠâĢĵ":1823,"aul":1824,"Ġge":1825,"armada":1826,"rem":1827,"iet":1828,"Ġcolle":1829,"Ġfan":1830,"Ġaqueste":1831,"Ġliber":1832,"Ġestudi":1833,"Ġgeneralament":1834,"Ġjulh":1835,"Ġcul":1836,"Ġfus":1837,"ches":1838,"Ġncia":1839,"ourg":1840,"Ġdece":1841,"Ã³n":1842,"Ġcau":1843,"ĠCatal":1844,"Ġblan":1845,"ĠrÃ²tle":1846,"Ġquau":1847,"Estat":1848,"onh":1849,"Ġnecess":1850,"Ġcant":1851,"Ġjamai":1852,"ccit":1853,"Ġpract":1854,"Ġcat":1855,"Ġfavor":1856,"ets":1857,"Ansin":1858,"Ġassoci":1859,"mon":1860,"oÃ¨st":1861,"Ġaital":1862,"Ġmand":1863,"oria":1864,"Ġinternacion":1865,"alitats":1866,"isser":1867,"Ġmedi":1868,"Ġanim":1869,"Ġformacion":1870,"Ġeleg":1871,"her":1872,"Ġservici":1873,"Ġisa":1874,"tembre":1875,"ĠnÃ²":1876,"istÃ©ncia":1877,"ĠRom":1878,"Ġrra":1879,"Ġis":1880,"Ġtrib":1881,"ision":1882,"Ġvertadi":1883,"Ġcompl":1884,"alista":1885,"Ġmontan":1886,"EO":1887,"Ġsorti":1888,"Ġquilom":1889,"Ġrefer":1890,"Ġavi":1891,"Ġbasa":1892,"ccitÃłnia":1893,"Ġequ":1894,"Ġ187":1895,"Ġsembla":1896,"Ġdirig":1897,"Ã²bra":1898,"Ġdich":1899,"osas":1900,"ĠSud":1901,"Ġ195":1902,"ĠGuÃ¨rra":1903,"Ġcreacion":1904,"urs":1905,"lÃ©s":1906,"vir":1907,"ĠPa":1908,"Ġestabl":1909,"eses":1910,"Ġcontrar":1911,"Ġdecembre":1912,"iana":1913,"anc":1914,"Ġmondi":1915,"Com":1916,"Ġameric":1917,"pa":1918,"essor":1919,"Ġpropri":1920,"Â²":1921,"Ã¨tres":1922,"Ġop":1923,"ĠespÃ¨":1924,"Ġsetembre":1925,"izacion":1926,"co":1927,"ĠtÃ¨x":1928,"ĠfÃ²rÃ§as":1929,"ĠmarÃ§":1930,"Ġsituacion":1931,"Ġlors":1932,"Ġimportantas":1933,"ĠXIX":1934,"onha":1935,"Ġenf":1936,"Demp":1937,"enhament":1938,"jat":1939,"lor":1940,"Ġaqueles":1941,"ced":1942,"Ġterr":1943,"ik":1944,"Ġvers":1945,"ument":1946,"ĠsuperfÃŃcia":1947,"Ġcin":1948,"ĠPer":1949,"ĠParÃŃs":1950,"auta":1951,"Ġsubretot":1952,"embre":1953,"Ġbl":1954,"tiva":1955,"ĠCal":1956,"Ġlib":1957,"oct":1958,"Ġ192":1959,"Ġtravers":1960,"Ġinc":1961,"ustri":1962,"Ġvia":1963,"Ġproduccion":1964,"depend":1965,"iments":1966,"Ġespanh":1967,"Ġorigin":1968,"Ġ191":1969,"Ġliteratura":1970,"xim":1971,"Ġcir":1972,"obre":1973,"Ġ30":1974,"Coma":1975,"Ġdaiss":1976,"Ġcara":1977,"ĠRei":1978,"uÃ¨":1979,"ÃŃtol":1980,"Ġviu":1981,"Ġproc":1982,"âĢ¦":1983,"Ġrest":1984,"Ġdomin":1985,"Ġreligi":1986,"organiz":1987,"eraire":1988,"Ġapr":1989,"ore":1990,"Ġescriv":1991,"diguÃ¨t":1992,"Ġcultur":1993,"Ġbatalha":1994,"Ġlatin":1995,"ĠConselh":1996,"ĠÃ²bras":1997,"ĠRepublica":1998,"Ġvend":1999,"Ġnomen":2000,"Ġvenir":2001,"Ġgaireben":2002,"onci":2003,"Ġfab":2004,"riu":2005,"Ãłrias":2006,"Ġsent":2007,"Ġpremier":2008,"ĠcÃ²s":2009,"ifica":2010,"ĠprovÃŃn":2011,"Ã¨is":2012,"Ġcrit":2013,"Ġviv":2014,"utz":2015,"Ġobten":2016,"Ġdamb":2017,"Ġmont":2018,"andon":2019,"Ġcompren":2020,"Ġtu":2021,"Ġsin":2022,"Ġremp":2023,"ctors":2024,"Ġtrobar":2025,"Ġconflic":2026,"ĠgrÃł":2027,"ĠseriÃ¡":2028,"elle":2029,"ĠÂ»,":2030,"Ã²ni":2031,"tre":2032,"Ġpap":2033,"Ã¨as":2034,"ruccion":2035,"Ġbon":2036,"Ġgeneral":2037,"aria":2038,"ili":2039,"Ġant":2040,"ris":2041,"Ġmilions":2042,"Ġnum":2043,"ativa":2044,"Ġalemand":2045,"ath":2046,"Ġpunt":2047,"Ġcinc":2048,"omia":2049,"Ġgas":2050,"Ġponch":2051,"Ġ25":2052,"Ġquit":2053,"lam":2054,"Ġreb":2055,"eda":2056,"uei":2057,"pre":2058,"Ġem":2059,"Ġtal":2060,"Ġscient":2061,"ais":2062,"Ġrota":2063,"Ġsimb":2064,"ye":2065,"sus":2066,"Ġfinala":2067,"adors":2068,"edi":2069,"Ġjorns":2070,"avetz":2071,"Ġus":2072,"arda":2073,"Ġfen":2074,"ĠcÃ²rs":2075,"rin":2076,"ĠÃ":2077,"tius":2078,"ĠUnits":2079,"Ġpresenta":2080,"30":2081,"ugu":2082,"ĠCas":2083,"ausa":2084,"Ã¨sse":2085,"Ġjulhet":2086,"ĠIII":2087,"pl":2088,"riÃ¨r":2089,"etas":2090,"Ã²ris":2091,"Ġjol":2092,"Ġvict":2093,"Ġcerc":2094,"jÃ¨ctes":2095,"serv":2096,"enn":2097,"Ġposicion":2098,"Ã²g":2099,"Ġtipe":2100,"issi":2101,"ach":2102,"Ġtes":2103,"Av":2104,"Ġinv":2105,"hi":2106,"Ġnaut":2107,"Ġalavetz":2108,"Ã²ble":2109,"Ġvin":2110,"Ġenter":2111,"aquÃ²":2112,"Ã¨ire":2113,"Ġmass":2114,"ĠprÃ²":2115,"ĠnovÃ¨la":2116,"enari":2117,"ĠaquÃŃ":2118,"Ġnovembre":2119,"org":2120,"iren":2121,"ide":2122,"Ġconten":2123,"ribu":2124,"vencion":2125,"Ġadminist":2126,"ĠBo":2127,"idament":2128,"Ġdir":2129,"eccion":2130,"duccion":2131,"Ġlev":2132,"resp":2133,"etats":2134,"ems":2135,"andi":2136,"Ġ190":2137,"Ġital":2138,"Ġpen":2139,"rir":2140,"Ġsuls":2141,"Ġsuperi":2142,"itas":2143,"Ġbo":2144,"Ġprom":2145,"ĠCol":2146,"accion":2147,"alizacion":2148,"Ġancian":2149,"Ġagric":2150,"arb":2151,"Ã²ta":2152,"Ġdoc":2153,"Ġdim":2154,"Ġrt":2155,"iga":2156,"Ġpint":2157,"ĠuÃ¨i":2158,"Aquesta":2159,"Ġ186":2160,"luÃ©ncia":2161,"lada":2162,"mont":2163,"ix":2164,"ĠgrÃ¨c":2165,"ĠsuccÃ¨s":2166,"ĠpaÃ¯ses":2167,"Ġfont":2168,"ĠVi":2169,"Ġesper":2170,"Ġconserv":2171,"Ġcoll":2172,"ivas":2173,"Ġdomeni":2174,"Ġsosten":2175,"apon":2176,"tern":2177,"mun":2178,"ĠgrÃłcias":2179,"land":2180,"Ġemb":2181,"gular":2182,"Ġprim":2183,"Ġrason":2184,"pres":2185,"essa":2186,"ultura":2187,"Ġanciana":2188,"ografia":2189,"ĠprÃ²p":2190,"At":2191,"Ġill":2192,"ĠXX":2193,"sol":2194,"unas":2195,"ĠcanÃ§":2196,"Ġbastit":2197,"ĠaguÃ¨t":2198,"tific":2199,"Ġpassat":2200,"ĠtÃ¨rme":2201,"Ġquestion":2202,"Ex":2203,"Era":2204,"ise":2205,"ĠSa":2206,"ensa":2207,"Ġtemper":2208,"ĠnÃ²stra":2209,"ificacion":2210,"icle":2211,"tad":2212,"ĠmÃ¨s":2213,"Ġprobl":2214,"ĠprojÃ¨cte":2215,"Aqueste":2216,"10":2217,"Ġsepar":2218,"Ġcomunas":2219,"ĠtÃ¨rra":2220,"Ġnorm":2221,"isc":2222,"arqu":2223,"form":2224,"Ã¨rna":2225,"Ġdemand":2226,"Ġ'":2227,"rad":2228,"ils":2229,"Ġpassa":2230,"Ã²na":2231,"Ġprincipala":2232,"Ã¨ira":2233,"merica":2234,"Ġdinas":2235,"enca":2236,"ela":2237,"ĠÃ²mes":2238,"Ġditz":2239,"ation":2240,"Ġpichona":2241,"ĠGrand":2242,"han":2243,"Ġacc":2244,"dus":2245,"ĠCor":2246,"ĠCap":2247,"ton":2248,"cin":2249,"ĠAb":2250,"ĠJos":2251,"pelh":2252,"Ġdecis":2253,"ĠCl":2254,"Ġdial":2255,"Ġaquelas":2256,"Ã²las":2257,"Ã²rdre":2258,"iÃ¨":2259,"Ġjust":2260,"17":2261,"lant":2262,"Ã¨ria":2263,"Ġmer":2264,"Ġaperaqu":2265,"ccions":2266,"Ġcob":2267,"issiÃ¡":2268,"Ġvilas":2269,"Quand":2270,"Ġcolor":2271,"ĠEsp":2272,"Pendent":2273,"enda":2274,"Ġmitat":2275,"Ġperd":2276,"Esc":2277,"ĠSal":2278,"io":2279,"itucion":2280,"teriz":2281,"Ġtotala":2282,"arrib":2283,"ĠcapitÃ¨t":2284,"Ġgrands":2285,"tÃł":2286,"Ġnas":2287,"Ġnatura":2288,"ĠpermetÃ¨t":2289,"Ġdet":2290,"Ġacab":2291,"Ġ189":2292,"utats":2293,"Ġ22":2294,"Ġpolitic":2295,"var":2296,"Ġpet":2297,"Ġpur":2298,"Ġpot":2299,"Enfin":2300,"Ġbra":2301,"ÃĪra":2302,"ener":2303,"Ã¨ta":2304,"ĠGl":2305,"pe":2306,"ĠSol":2307,"Ġada":2308,"elha":2309,"ronti":2310,"ĠtrÃ²p":2311,"dit":2312,"autras":2313,"Ġprogra":2314,"Â»":2315,"oses":2316,"ensenhament":2317,"ĠtrÃ²ba":2318,"alisme":2319,"Ġquarti":2320,"ĠtÃŃtol":2321,"tava":2322,"ultat":2323,"ĠIs":2324,"Ġgent":2325,"urg":2326,"rats":2327,"ĠJean":2328,"cepcion":2329,"Ġcort":2330,"Ġbes":2331,"ĠnivÃ¨l":2332,"Ġmajoritat":2333,"iat":2334,"icions":2335,"Ġsenhor":2336,"Ġbritan":2337,"Ġespaci":2338,"ĠcarriÃ¨ra":2339,"Ġcertan":2340,"Ġprev":2341,"Ġviol":2342,"Ġesqu":2343,"Ãłcia":2344,"ĠTÃ¨rra":2345,"los":2346,"vat":2347,"Ġcomerci":2348,"Ġaqueu":2349,"ĠRevolucion":2350,"Ġnuc":2351,"Ġ179":2352,"Ġdiferents":2353,"Ġcaracteriz":2354,"iste":2355,"omat":2356,"ĠavC":2357,"Ġautra":2358,"Ġdistin":2359,"ĠSanta":2360,"ĠEurÃ²pa":2361,"ĠpresÃ©ncia":2362,"Ġfronti":2363,"ey":2364,"Ġcombat":2365,"ĠReg":2366,"ĠglÃ¨isa":2367,"gat":2368,"ville":2369,"esas":2370,"ĠrÃ¨i":2371,"Ġproven":2372,"ĠprÃ¨p":2373,"ĠTh":2374,"estudi":2375,"ĠlÃ¨u":2376,"Ġveg":2377,"ĠNacion":2378,"Ġfilos":2379,"atiu":2380,"Ã²ls":2381,"Ġrespons":2382,"ĠNÃ²rd":2383,"12":2384,"aula":2385,"Ġcomunic":2386,"to":2387,"Ġfot":2388,"Ġobl":2389,"Ġnomenat":2390,"ry":2391,"Ġaus":2392,"abla":2393,"ĠcomencÃ¨t":2394,"ĠsÃ¨gles":2395,"Ġcorrent":2396,"Ġpan":2397,"arra":2398,"Ġorient":2399,"Ġdub":2400,"Ġmarid":2401,"Ġ188":2402,"ilhas":2403,"iers":2404,"se":2405,"ĠtÃł":2406,"Ġseu":2407,"jas":2408,"esper":2409,"unes":2410,"Ġfer":2411,"Ġmembre":2412,"Ġdireccion":2413,"Ġfaci":2414,"Ġautras":2415,"Ġsau":2416,"Ġcost":2417,"ĠAng":2418,"ver":2419,"Ġfons":2420,"Ġtropas":2421,"Ġreti":2422,"Ġparte":2423,"manha":2424,"air":2425,"Ġmanif":2426,"Segon":2427,"vid":2428,"ĠpÃ¨r":2429,"Ġseis":2430,"ĠRoma":2431,"Ġteatre":2432,"ultats":2433,"viron":2434,"Ġdinastia":2435,"Ġconeiss":2436,"terran":2437,"Ġcontr":2438,"Ã²li":2439,"jectiu":2440,"Ġcresti":2441,"aux":2442,"ension":2443,"Ġcu":2444,"Ġdemanda":2445,"Ġsen":2446,"uns":2447,"Ġbal":2448,"Ġmateri":2449,"Ch":2450,"Ã¨si":2451,"Ġconselh":2452,"Ġquitament":2453,"15":2454,"do":2455,"Ġdia":2456,"Ã²stra":2457,"Ġdata":2458,"Ġgraf":2459,"ĠCan":2460,"Ġparla":2461,"Ã©ner":2462,"ĠdarriÃ¨r":2463,"Ġcop":2464,"Ġbalh":2465,"rÃ¨mi":2466,"Ġnatural":2467,"lin":2468,"Ġela":2469,"ĠOr":2470,"epÃ²ca":2471,"Ġsegur":2472,"gn":2473,"ables":2474,"Ġset":2475,"Ġcorresp":2476,"eguÃ¨t":2477,"asi":2478,"clus":2479,"Ġbat":2480,"Ġges":2481,"ĠConst":2482,"Con":2483,"uis":2484,"Ġprob":2485,"Ġmeteissa":2486,"ison":2487,"Ġvoc":2488,"ician":2489,"Ġimportants":2490,"Ġmaire":2491,"Ġganh":2492,"itura":2493,"ĠVer":2494,"ocup":2495,"Ġministre":2496,"iri":2497,"Ġcatalan":2498,"duc":2499,"Ġcolon":2500,"Ġdiferentas":2501,"annada":2502,"ĠanglÃ©s":2503,"Ġbesonh":2504,"rom":2505,"Ġlet":2506,"altitud":2507,"otar":2508,"Ġutilizat":2509,"guts":2510,"ĠterritÃ²ris":2511,"der":2512,"21":2513,"Ġmanten":2514,"200":2515,"gar":2516,"ves":2517,"Ġvan":2518,"Ġvista":2519,"Ġreceb":2520,"issenÃ§a":2521,"ĠFel":2522,"nas":2523,"Ġinici":2524,"ĠPart":2525,"Ã¨it":2526,"ades":2527,"ĠPrÃ¨mi":2528,"Ġpossed":2529,"ĠMontpelh":2530,"ĠpÃ²rta":2531,"esia":2532,"Ã²me":2533,"activ":2534,"onda":2535,"Ġquim":2536,"lex":2537,"ĠpÃ²ble":2538,"ostal":2539,"ĠpÃ²rt":2540,"itor":2541,"osf":2542,"Ġpasmens":2543,"ĠDe":2544,"ĠIV":2545,"Ġleng":2546,"Ġdesign":2547,"Ġaument":2548,"Ġadop":2549,"ĠPol":2550,"Ġcausas":2551,"ĠremplaÃ§":2552,"ront":2553,"Ġmilit":2554,"ĠespÃ¨cias":2555,"tÃłlia":2556,"Ġdavant":2557,"istÃŃs":2558,"ĠChar":2559,"Ġrapidament":2560,"ĠCo":2561,"Ġescrich":2562,"astre":2563,"Sant":2564,"Ġcros":2565,"ativament":2566,"blas":2567,"ructura":2568,"16":2569,"oti":2570,"Ġru":2571,"chas":2572,"ĠgeniÃ¨r":2573,"ians":2574,"Ġsant":2575,"Ġmost":2576,"Ġchin":2577,"eti":2578,"Ã¨rca":2579,"Ġsota":2580,"Ġfigu":2581,"riguÃ¨t":2582,"Universitat":2583,"Ġelect":2584,"Ġatal":2585,"Ġcaser":2586,"Ġcomte":2587,"Ġpassar":2588,"Ġcaracter":2589,"Ġdif":2590,"agost":2591,"Ġseguida":2592,"frica":2593,"ok":2594,"ĠprimiÃ¨rs":2595,"ĠbenlÃ¨u":2596,"onomia":2597,"Ġvir":2598,"Ġpron":2599,"Ġcreat":2600,"temps":2601,"aument":2602,"Ġpodi":2603,"Ġaccep":2604,"ĠOccitÃłnia":2605,"origuÃ¨t":2606,"fÃ²r":2607,"tÃ¨t":2608,"Ġdre":2609,"Ġsob":2610,"Ã¡n":2611,"Ġom":2612,"Ġcanta":2613,"ols":2614,"issent":2615,"arcel":2616,"Ġconeguda":2617,"ĠCr":2618,"ĠvictÃ²ria":2619,"Ġdus":2620,"Ġ24":2621,"Ġdin":2622,"lav":2623,"Ġprecis":2624,"Ġestada":2625,"Ġnacionala":2626,"dre":2627,"Ġsons":2628,"ĠtÃ¨xtes":2629,"Ab":2630,"Ġsom":2631,"Ġconsequ":2632,"Ġ23":2633,"Esp":2634,"rap":2635,"Ġarmada":2636,"dific":2637,"aviÃ¡":2638,"ama":2639,"ĠTr":2640,"Ã²ts":2641,"Ġempleg":2642,"Ġespecialament":2643,"chs":2644,"ĠBel":2645,"andre":2646,"ĠâĢĶ":2647,"emble":2648,"Ġgle":2649,"Ġ184":2650,"Ġmesura":2651,"igu":2652,"orb":2653,"Ġbourg":2654,"Ġgrandas":2655,"Ġcamb":2656,"ourt":2657,"riure":2658,"Ã©isser":2659,"Ġoccident":2660,"aricion":2661,"ique":2662,"ue":2663,"rament":2664,"istic":2665,"ĠfÃ²rt":2666,"Ġvalor":2667,"Cal":2668,"ces":2669,"Ġunivers":2670,"Ġprodus":2671,"Ġdat":2672,"Ġast":2673,"ilici":2674,"Ġancians":2675,"Ġcontinent":2676,"Sus":2677,"Ġlarg":2678,"cian":2679,"Ã²cs":2680,"ĠÃ²me":2681,"ĠMontpelhiÃ¨r":2682,"Ġfai":2683,"ola":2684,"Ac":2685,"Eth":2686,"ĠSt":2687,"Ġtele":2688,"Ġdific":2689,"Ġligam":2690,"acabÃ¨t":2691,"Ġ26":2692,"Ġpresid":2693,"ritz":2694,"Ġpossib":2695,"Ġpossible":2696,"Ġgovern":2697,"red":2698,"ĠBe":2699,"Ġpartit":2700,"Ġegalament":2701,"Ġconflicte":2702,"Ġcontun":2703,"jada":2704,"lica":2705,"Ġdiss":2706,"Ġtri":2707,"ĠEurop":2708,"inacion":2709,"Ġsenhors":2710,"gent":2711,"oy":2712,"ĠLu":2713,"Ġdebuta":2714,"den":2715,"Ġdura":2716,"Ġclar":2717,"Ġformat":2718,"ota":2719,"Ġregim":2720,"Ġdestru":2721,"ĠMart":2722,"termin":2723,"Ġlic":2724,"Ġvei":2725,"AprÃ¨p":2726,"Ġress":2727,"Ġonte":2728,"ĠcontrarÃ²tle":2729,"Ġamerican":2730,"Ġcorrespond":2731,"uf":2732,"Ġpont":2733,"baye":2734,"ines":2735,"tion":2736,"Ġassegu":2737,"ĠnÃ²stre":2738,"Ġmondiala":2739,"Ġcaract":2740,"Â°":2741,"onas":2742,"igas":2743,"aquesta":2744,"Ã²des":2745,"autat":2746,"Ġformas":2747,"Ġgrops":2748,"Ġindustri":2749,"ĠfebriÃ¨r":2750,"ĠCatalonha":2751,"Ġcontrari":2752,"rotz":2753,"Ġoccitans":2754,"Ġpersona":2755,"Tan":2756,"alme":2757,"Ara":2758,"22":2759,"icÃŃ":2760,"ĠgrÃ¨":2761,"Ġsola":2762,"Ass":2763,"Ġcab":2764,"encs":2765,"ĠProven":2766,"Ġnombroses":2767,"Ġpau":2768,"ĠtÃ²ca":2769,"ĠAm":2770,"Ġ21":2771,"ĠdivÃ¨rsas":2772,"ds":2773,"Ġinte":2774,"alhas":2775,"ierre":2776,"Ġrefus":2777,"Ġta":2778,"ĠepÃ²ca":2779,"Ġnoms":2780,"egut":2781,"dependÃ©ncia":2782,"irenÃ¨us":2783,"Ġflu":2784,"rimi":2785,"isticas":2786,"ĠRob":2787,"ĠLos":2788,"Ġcompausat":2789,"Ġdessenh":2790,"entament":2791,"Ġtol":2792,"Ã§ar":2793,"Ġaquelei":2794,"Ġpurm":2795,"Ġgentilici":2796,"via":2797,"ivament":2798,"ile":2799,"Ġrecu":2800,"car":2801,"ĠdeguÃ¨t":2802,"ales":2803,"ĠPr":2804,"ĠBer":2805,"autra":2806,"Ġdona":2807,"Ġadministrat":2808,"ĠPartit":2809,"Ġvolont":2810,"efÃ¨ct":2811,"Ġbr":2812,"ablament":2813,"Ġtransform":2814,"Ġconsiderat":2815,"Durant":2816,"Ġurb":2817,"Ġgar":2818,"aver":2819,"estacion":2820,"Ġger":2821,"Ġgenre":2822,"iar":2823,"Ġpal":2824,"itacion":2825,"Ġban":2826,"Ġrend":2827,"apa":2828,"Qual":2829,"EurÃ²pa":2830,"uments":2831,"Ġcommun":2832,"Ġparr":2833,"13":2834,"icia":2835,"Ġsac":2836,"ĠMo":2837,"Ġjut":2838,"matica":2839,"Ġ%":2840,"orma":2841,"Ġrealitat":2842,"Ġabandon":2843,"Ġfemna":2844,"ys":2845,"tadas":2846,"Ġelegit":2847,"ĠprovÃŃncia":2848,"cle":2849,"Ġlon":2850,"ani":2851,"Ġfru":2852,"omÃ¨n":2853,"Ġgard":2854,"emperaire":2855,"Ġcollec":2856,"14":2857,"Mal":2858,"ox":2859,"tats":2860,"Ġria":2861,"Ġder":2862,"tect":2863,"Ġmentre":2864,"acc":2865,"Ġestran":2866,"Ġbe":2867,"Ġfrequ":2868,"ompanh":2869,"Ġquant":2870,"Ġ28":2871,"Ġprincipalament":2872,"qÃ¼":2873,"els":2874,"Ġvengut":2875,"Ġleu":2876,"Ġmunicipalitats":2877,"Ġprincipalas":2878,"Ġrelacions":2879,"ĠmÃ©s":2880,"ĠGe":2881,"escÃ²la":2882,"ĠdemÃ²ra":2883,"Ġnombrosas":2884,"arcelona":2885,"ak":2886,"Ġbona":2887,"Ġconquista":2888,"Ġrevolucion":2889,"ĠBr":2890,"Ġsustot":2891,"Ġieu":2892,"Ġmul":2893,"Ġpriv":2894,"peri":2895,"Ġaur":2896,"Ġtir":2897,"Ġanar":2898,"Ġensenh":2899,"men":2900,"manda":2901,"estiu":2902,"itut":2903,"eder":2904,"ĠLoÃŃs":2905,"Ġpref":2906,"Ġ000":2907,"Ã¨rras":2908,"Ġinstall":2909,"edicion":2910,"Ġles":2911,"Ġps":2912,"Ġ27":2913,"ĠdemorÃ¨t":2914,"ole":2915,"ĠMan":2916,"Ġorgan":2917,"ieus":2918,"espaci":2919,"Ġpichons":2920,"Ġcrisi":2921,"ĠrÃ¨sta":2922,"Ġmejans":2923,"CO":2924,"Ã¨va":2925,"Ġcamps":2926,"com":2927,"tip":2928,"Ġplana":2929,"Ġmejana":2930,"Ġsuf":2931,"Ġsite":2932,"ext":2933,"Ġident":2934,"tei":2935,"osfÃ¨ra":2936,"net":2937,"Ġpaus":2938,"Ġtend":2939,"Ġ185":2940,"Ġpassatge":2941,"Ġprincipi":2942,"Ġuman":2943,"ĠentraÃ¯nÃ¨t":2944,"nom":2945,"sion":2946,"Ġmit":2947,"Ġqualitat":2948,"Ġbil":2949,"Ġproteg":2950,"Ġtransp":2951,"Puei":2952,"Ġfaire":2953,"ĠGar":2954,"Ġformar":2955,"Ġumana":2956,"Ġtractat":2957,"Fa":2958,"ritura":2959,"inar":2960,"olit":2961,"Ã¨stra":2962,"Ġbastida":2963,"Ġdefinit":2964,"Ġsap":2965,"Ġtalh":2966,"Ġjo":2967,"isses":2968,"Ġtraversat":2969,"udas":2970,"vers":2971,"Ġmission":2972,"Ġcondicions":2973,"Aqueles":2974,"ĠnovÃ¨las":2975,"Ġrevista":2976,"DempuÃ¨i":2977,"onc":2978,"Ġlog":2979,"Ġfe":2980,"ĠPÃ¨ire":2981,"ĠJac":2982,"Ġeconomica":2983,"Cap":2984,"bla":2985,"Ġut":2986,"Ġmitan":2987,"Ġnaiss":2988,"tiÃ¡":2989,"gues":2990,"Ġrem":2991,"ĠMus":2992,"Cada":2993,"ĠBar":2994,"Ġcomple":2995,"Ġmanca":2996,"Ġequip":2997,"gip":2998,"Ġcav":2999,"ustria":3000,"aqueste":3001,"Ġlista":3002,"ĠrÃ¨":3003,"Ġpobl":3004,"queta":3005,"Ġaflu":3006,"Ã²us":3007,"Ġmusic":3008,"Ġpeu":3009,"Ġvist":3010,"iras":3011,"Ġdeves":3012,"Ġprene":3013,"ascut":3014,"ociacion":3015,"Ġpuei":3016,"Ġessenci":3017,"ĠGlÃ¨isa":3018,"Ġmesc":3019,"Ġfilha":3020,"Ġroma":3021,"Ġromana":3022,"ĠtravÃ¨rs":3023,"ĠXVIII":3024,"ajuda":3025,"Ġfabric":3026,"atÃ²ri":3027,"ĠEl":3028,"ĠNob":3029,"rient":3030,"Ġpresa":3031,"Ġ50":3032,"Leis":3033,"Ã¨rts":3034,"ĠcomÃ¨r":3035,"Ġmate":3036,"Ġrelativament":3037,"Ġmots":3038,"Ġgal":3039,"Ġcaps":3040,"aqueles":3041,"Ġobserv":3042,"ĠMars":3043,"Ġpatz":3044,"Ġbastiment":3045,"Ã§ada":3046,"Ġapert":3047,"exic":3048,"Ġbastir":3049,"Ġinform":3050,"install":3051,"Ġversion":3052,"Qualques":3053,"Ven":3054,"enis":3055,"anim":3056,"ĠCent":3057,"rand":3058,"Ġ29":3059,"ĠMaria":3060,"Ġconstitucion":3061,"octobre":3062,"Ġsh":3063,"ulas":3064,"Ġsaber":3065,"ah":3066,"eras":3067,"orat":3068,"rau":3069,"Ġdonar":3070,"Ġdivers":3071,"emblada":3072,"ergia":3073,"establ":3074,"Ġjove":3075,"ĠfenomÃ¨n":3076,"ĠmÃ¨tres":3077,"laci":3078,"ĠBarcelona":3079,"ĠXVI":3080,"ripcion":3081,"iqu":3082,"ĠMej":3083,"Ġmusul":3084,"Ġnau":3085,"cean":3086,"Ġmeses":3087,"Ġw":3088,"anÃ§as":3089,"ators":3090,"Ġtalha":3091,"ĠTe":3092,"import":3093,"Union":3094,"Ġprepar":3095,"Ġdicha":3096,"tor":3097,"tet":3098,"Ġquasi":3099,"ĠPort":3100,"ĠBu":3101,"Ġmaugrat":3102,"Tanben":3103,"val":3104,"ĠPl":3105,"Ġabbaye":3106,"Ġacom":3107,"Ġcrear":3108,"Ġgenerau":3109,"ĠaviÃ¡n":3110,"Ġreligion":3111,"Dem":3112,"Ġ0":3113,"Ġvac":3114,"rog":3115,"Ġparlament":3116,"Ġteoria":3117,"Ġestudis":3118,"udar":3119,"ĠMol":3120,"ĠBas":3121,"ĠtornÃ¨t":3122,"ĠdivÃ¨rsei":3123,"Ġrestau":3124,"ruc":3125,"Ã¨ca":3126,"Ġregular":3127,"ĠSan":3128,"Ġmain":3129,"Ġmencion":3130,"Ġseuna":3131,"Ġdesfa":3132,"Ġpractica":3133,"Ġprograma":3134,"ĠEdat":3135,"ards":3136,"iquÃ¨t":3137,"ka":3138,"ĠSh":3139,"Ã¨stas":3140,"Ġistoric":3141,"Ġfilosof":3142,"Ġquin":3143,"Ġbor":3144,"ular":3145,"Ġoper":3146,"ocrat":3147,"oÃ¯":3148,"Ġeven":3149,"ĠCong":3150,"ĠGener":3151,"izar":3152,"ĠhÃ¨":3153,"Ġlutz":3154,"Ġdecl":3155,"rac":3156,"Ġresc":3157,"enf":3158,"ino":3159,"rel":3160,"Ġconta":3161,"Ġcarb":3162,"ĠAnd":3163,"ĠmoriguÃ¨t":3164,"ĠtÃ¨":3165,"Ġvint":3166,"tanha":3167,"Ġoras":3168,"ĠcollÃ¨g":3169,"unitat":3170,"radas":3171,"ĠSegon":3172,"ĠRoman":3173,"activitat":3174,"ĠNobel":3175,"Or":3176,"ite":3177,"sia":3178,"alis":3179,"ids":3180,"Ġcompte":3181,"Ġ2007":3182,"Ġscenari":3183,"ĠlingÃ¼istica":3184,"Ġoblig":3185,"IEO":3186,"actu":3187,"Ãĩ":3188,"are":3189,"oran":3190,"Ġvel":3191,"usion":3192,"char":3193,"Ġcompanh":3194,"Ġpublica":3195,"Ġprofessor":3196,"Ġviure":3197,"Ġtomb":3198,"Ġ100":3199,"Ġescol":3200,"licacion":3201,"Ġmejan":3202,"Ġcadun":3203,"ĠdebanÃ¨t":3204,"Ġmontanha":3205,"Ġitalian":3206,"esqu":3207,"eron":3208,"Ġvent":3209,"ĠProvenÃ§a":3210,"Ġpe":3211,"ĠfÃ²ra":3212,"Ġquia":3213,"Ġmed":3214,"Ġangles":3215,"ĠreferÃ©ncia":3216,"Ġmecan":3217,"escriv":3218,"Ġdempuei":3219,"Ġenfants":3220,"gipte":3221,"ini":3222,"ĠnÃ²u":3223,"ĠPe":3224,"ĠNi":3225,"ĠChina":3226,"Ġconstruccion":3227,"mana":3228,"Ġdetermin":3229,"itucions":3230,"Ġmarge":3231,"existÃ©ncia":3232,"ilizacion":3233,"Ġelements":3234,"Ġindivid":3235,"lom":3236,"ĠrÃ¨g":3237,"Ġsatell":3238,"Ġannada":3239,"Ġath":3240,"Ġcompos":3241,"Ġquauqu":3242,"Ġdeg":3243,"otz":3244,"Ġcarga":3245,"ĠnovÃ¨l":3246,"Ġnegre":3247,"Am":3248,"ĠsÃ²n":3249,"ĠDieu":3250,"Ġavent":3251,"Ġregional":3252,"ĠmodÃ¨l":3253,"engad":3254,"Ġsortida":3255,"ki":3256,"vis":3257,"ĠpÃ²s":3258,"Ġmassa":3259,"Ġvesti":3260,"Ġvaria":3261,"stitut":3262,"ĠRam":3263,"Ġdepend":3264,"Ġmediev":3265,"25":3266,"Ost":3267,"gis":3268,"Ġsigu":3269,"estend":3270,"Ġlibres":3271,"organizacion":3272,"Ġmilitara":3273,"ĠcomÃ¨rci":3274,"iriÃ¡":3275,"ler":3276,"antin":3277,"Ġrta":3278,"labor":3279,"ĠBern":3280,"Ġmantun":3281,"ĠtÃ¨rras":3282,"Ġfix":3283,"Ġactivitats":3284,"11":3285,"?<|":3286,"iguÃ¨ron":3287,"Ġlac":3288,"etica":3289,"ĠNe":3290,"Ġromans":3291,"ĠParlament":3292,"Ġfraire":3293,"ĠnasquÃ¨t":3294,"Ġenviron":3295,"Ġsuperficia":3296,"Åĵ":3297,"Ġsia":3298,"Ġfut":3299,"ĠSoci":3300,"Ġatau":3301,"Ġsoviet":3302,"Ġlegis":3303,"Ġactivitat":3304,"El":3305,"dats":3306,"Ġ/":3307,"Ġgall":3308,"Ġamor":3309,"pausa":3310,"utas":3311,"dir":3312,"Ġplaneta":3313,"Ġcandi":3314,"go":3315,"rÃ©s":3316,"vÃ¨rs":3317,"Ġcaval":3318,"Ġ2000":3319,"Ġpopular":3320,"Ġsignifica":3321,"Ġprofession":3322,"ya":3323,"Ġeles":3324,"ĠfÃłcia":3325,"itari":3326,"Ġena":3327,"urar":3328,"regist":3329,"ĠprovenÃ§":3330,"America":3331,"Situ":3332,"Ġcri":3333,"ĠfamÃ³s":3334,"Ġreiaume":3335,"Fin":3336,"dor":3337,"hn":3338,"esque":3339,"armai":3340,"len":3341,"Ġden":3342,"istral":3343,"ĠBre":3344,"Ġ2006":3345,"Ġfondament":3346,"Ġessent":3347,"Ġdaus":3348,"Ġata":3349,"une":3350,"dio":3351,"Ġ2008":3352,"aquÃŃ":3353,"ublic":3354,"ĠCarles":3355,"eur":3356,"Ġcompta":3357,"Ġpersonatge":3358,"dependent":3359,"Ġdintre":3360,"40":3361,"Mar":3362,"unt":3363,"Ã²tas":3364,"Ġdonat":3365,"ĠAlb":3366,"Ġtemperatura":3367,"ate":3368,"Ġect":3369,"ĠPau":3370,"ival":3371,"dem":3372,"Ġ2009":3373,"Ġconcent":3374,"Ġdeclar":3375,"Ã²va":3376,"igna":3377,"ĠVI":3378,"Ġinstru":3379,"influÃ©ncia":3380,"Ġblanc":3381,"ies":3382,"Ġsta":3383,"ĠMor":3384,"abril":3385,"ĠTra":3386,"Ġoccitanas":3387,"ĠXIII":3388,"iÃ¨ras":3389,"ĠSegonda":3390,"'m":3391,"Ġmob":3392,"Ġtornarmai":3393,"licar":3394,"ĠistÃ²ria":3395,"Ġpremiera":3396,"za":3397,"itacions":3398,"osc":3399,"ĠCast":3400,"Ġcatol":3401,"Ġperf":3402,"Ġpoesia":3403,"Ġdipl":3404,"Ġrepresenta":3405,"ĠFrancÃ©s":3406,"ck":3407,"jament":3408,"onia":3409,"Ġinteg":3410,"Ġcapaci":3411,"Ġminor":3412,"Ġtrabalhs":3413,"Ġcomenc":3414,"Ġescrivan":3415,"ratge":3416,"Ġfran":3417,"idÃ¨a":3418,"Ġaper":3419,"Ġamass":3420,"Aqueu":3421,"Ġsimil":3422,"ĠMin":3423,"Entre":3424,"Ã²nt":3425,"Ġrelacion":3426,"Ġlonga":3427,"Ġrre":3428,"Ġinfer":3429,"Ġcampanha":3430,"Ġdocument":3431,"EL":3432,"irada":3433,"tt":3434,"Ġglaci":3435,"Ġorb":3436,"Ġmodific":3437,"Ġgascon":3438,"fica":3439,"ps":3440,"ĠmÃ²stra":3441,"alistas":3442,"Ġmesa":3443,"ĠXIV":3444,"60":3445,"Ġment":3446,"Ã¨tre":3447,"Ġcontemp":3448,"Ġrus":3449,"Ġfogu":3450,"Ġfort":3451,"iada":3452,"ĠsiÃ¨is":3453,"Ġhar":3454,"ĠAnt":3455,"aqueu":3456,"Ġ2010":3457,"Ġsel":3458,"Ġeng":3459,"Ã¨ro":3460,"ĠCros":3461,"ivÃ¨rs":3462,"ibla":3463,"Ġeconomic":3464,"inform":3465,"Ã¨mia":3466,"ief":3467,"Ã²sa":3468,"Ġvolcan":3469,"ÃĴc":3470,"ĠcanÃ§on":3471,"Ġcomunicacion":3472,"onn":3473,"Ã¨b":3474,"Ã²ma":3475,"Ġexec":3476,"ucs":3477,"Ġpersonatges":3478,"Ġnegoci":3479,"Ġactuala":3480,"Ġretorn":3481,"quitect":3482,"Ġostal":3483,"Ġcertanei":3484,"oul":3485,"Ã²i":3486,"itim":3487,"Ġ2005":3488,"ĠnivÃ¨u":3489,"Ġsector":3490,"ĠOl":3491,"encÃ²p":3492,"Ġalemanda":3493,"vel":3494,"enas":3495,"ondre":3496,"Ġclima":3497,"iutad":3498,"Ã¼n":3499,"ificar":3500,"Ġostals":3501,"Atal":3502,"jan":3503,"Ġda":3504,"Ġmur":3505,"Ġquad":3506,"ĠcastÃ¨l":3507,"Ġmort":3508,"ĠCR":3509,"ĠRegion":3510,"engadÃ²c":3511,"cionari":3512,"Ġdivision":3513,"ĠGuilh":3514,"latÃ¨rra":3515,"Ġ1980":3516,"ĠlÃ²n":3517,"Ã§at":3518,"urat":3519,"Ġindependent":3520,"economia":3521,"Ġtruc":3522,"Ġelement":3523,"Ġ1960":3524,"Malgrat":3525,"amin":3526,"Ġcollabor":3527,"Ġprincipal":3528,"ologic":3529,"Ġassai":3530,"ĠCongrÃ¨s":3531,"Ġectaras":3532,"ivÃ¨rn":3533,"ogra":3534,"Ġ1970":3535,"ĠdecidiguÃ¨t":3536,"!<|":3537,"onim":3538,"Ġtrap":3539,"Aquelas":3540,"Ã²nia":3541,"ĠguÃ¨rras":3542,"ĠMarc":3543,"Ġ40":3544,"Ġutilizada":3545,"ĠPaÃŃs":3546,"Ġcircul":3547,"\"<|":3548,"Sos":3549,"ĠbÃ¨l":3550,"ocar":3551,"ĠXII":3552,"Ġmalau":3553,"ĠdivÃ¨rses":3554,"ĠDi":3555,"arcass":3556,"ĠmatÃ¨ria":3557,"Is":3558,"cles":3559,"Ġ2012":3560,"Ġfilm":3561,"Ġfel":3562,"icles":3563,"ĠMal":3564,"ĠMag":3565,"Ġseria":3566,"ologica":3567,"Ġdefensa":3568,"Ġsubst":3569,"ĠXVII":3570,"Ġsuperior":3571,"Ã¨re":3572,"Ġjus":3573,"Ġclassa":3574,"aquelas":3575,"199":3576,"Ġinflu":3577,"Ġmovements":3578,"Ġfusion":3579,"Ġprobablament":3580,"ĠlanÃ§":3581,"inte":3582,"Ġvad":3583,"roc":3584,"ĠGal":3585,"ĠmiÃ¨g":3586,"Ġetc":3587,"arribada":3588,"quia":3589,"Ġpert":3590,"Ġalb":3591,"ĠSent":3592,"Ġimperi":3593,"Ġeleccions":3594,"Aital":3595,"Ġquic":3596,"Ġseus":3597,"ĠEmpÃ¨ri":3598,"Ã²rts":3599,"Ġculturas":3600,"olh":3601,"Ã²rma":3602,"ĠPal":3603,"Ġjapon":3604,"ĠThe":3605,"Ġplas":3606,"Ġ180":3607,"odon":3608,"Ġensems":3609,"Ġsala":3610,"Ã¨ris":3611,"Ġarb":3612,"Ġarch":3613,"Ġprincipaus":3614,"ĠMondi":3615,"Ġrur":3616,"issas":3617,"Ġlongor":3618,"Ġdreches":3619,"anciana":3620,"itiu":3621,"use":3622,"Ġbassa":3623,"Ġseguent":3624,"ificat":3625,"Ġactual":3626,"Ġinferi":3627,"Ġdol":3628,"enne":3629,"Ġsur":3630,"Ġtop":3631,"ilas":3632,"ĠvenguÃ¨ron":3633,"Ġdestin":3634,"Ġadap":3635,"rus":3636,"ĠauriÃ¡":3637,"ĠhÃ¨ra":3638,"Ġfilme":3639,"Ġinstitucions":3640,"Ġcombats":3641,"din":3642,"iam":3643,"ĠbÃ¨th":3644,"adura":3645,"administ":3646,"ĠrecÃ¨rca":3647,"ĠvertadiÃ¨ra":3648,"Ġdificultats":3649,"ux":3650,"dam":3651,"Ġligat":3652,"Ġmatemat":3653,"ucions":3654,"Ġdinc":3655,"Ġ2004":3656,"ĠsÃ¨tge":3657,"Ã¨dia":3658,"Ġcell":3659,"ĠGra":3660,"cta":3661,"Ã¨mi":3662,"Ġna":3663,"Ã¨rb":3664,"usa":3665,"tida":3666,"Ġparaula":3667,"ĠLengadÃ²c":3668,"Ġprec":3669,"Ġsensa":3670,"Ġpatrim":3671,"Ġflor":3672,"Ġafluent":3673,"rof":3674,"Ġnautor":3675,"gul":3676,"imon":3677,"Ġcontinu":3678,"ĠAlemanha":3679,"Ġsobei":3680,"Ġciutad":3681,"ĠtiÃ¨ra":3682,"ĠCarcass":3683,"ĠMau":3684,"Ġguer":3685,"Ġcentrala":3686,"ectura":3687,"ĠproblÃ¨ma":3688,"ĠdÃ¨tz":3689,"Ġquan":3690,"olÃ²g":3691,"ĠcomenÃ§a":3692,"rasil":3693,"uv":3694,"Ġaltitud":3695,"ĠBeau":3696,"ctament":3697,"escritura":3698,"Ã¨lhs":3699,"Ġsort":3700,"cina":3701,"ismes":3702,"Ġdesapar":3703,"ace":3704,"ĠpoÃ¨ta":3705,"medi":3706,"Ġpoliticas":3707,"Ġcanal":3708,"Ġconquist":3709,"ĠrÃ¨ine":3710,"ĠtÃ¨xt":3711,"rÃŃs":3712,"ual":3713,"onne":3714,"ĠGr":3715,"ĠTer":3716,"obten":3717,"ĠpuslÃ¨u":3718,"Ġamassa":3719,"ĠpÃ²bles":3720,"Ġ2011":3721,"ĠsistÃ¨mas":3722,"Ġaperten":3723,"AR":3724,"este":3725,"Ġvo":3726,"tacions":3727,"ĠFer":3728,"Ġ183":3729,"ĠmodÃ¨rna":3730,"Ġarmadas":3731,"Ġoficiala":3732,"29":3733,"Ġran":3734,"Ã¨na":3735,"unid":3736,"abs":3737,"Ġfamilhas":3738,"ĠvÃ²":3739,"Ġcontac":3740,"ĠAra":3741,"ĠBes":3742,"ĠRuss":3743,"ĠLi":3744,"ĠfÃ²rta":3745,"ĠEspanha":3746,"Ġpi":3747,"Ġagut":3748,"indi":3749,"Ġrras":3750,"Ġresid":3751,"ĠconcÃ¨p":3752,"Ġclassica":3753,"ĠdirÃ¨ct":3754,"Ġir":3755,"tir":3756,"ĠSch":3757,"Ġcapt":3758,"Ã¯na":3759,"Ġmonument":3760,"ederacion":3761,"Ġpopulacions":3762,"Ġproteccion":3763,"son":3764,"rieu":3765,"ĠpoiriÃ¡":3766,"Ġpartidas":3767,"Ġfinanci":3768,"Ġ1990":3769,"ĠprocÃ¨s":3770,"del":3771,"ante":3772,"Ġnauta":3773,"âĢĿ":3774,"ĠLen":3775,"ĠItÃłlia":3776,"Ġprotest":3777,"âĢ¦<|":3778,"Ġnucle":3779,"pol":3780,"ser":3781,"resent":3782,"Ã¨lhas":3783,"autita":3784,"ĠpassÃ¨t":3785,"Ġactualament":3786,"Ġmolec":3787,"Ġgrafia":3788,"Ã²rÃ§a":3789,"Ġcomplet":3790,"ĠJul":3791,"Ġasp":3792,"Ġservicis":3793,"ĠcomplÃ¨x":3794,"iÃ¨ch":3795,"ĠquicÃ²m":3796,"Ġdr":3797,"Ġmalais":3798,"alit":3799,"Ã¨rne":3800,"imat":3801,"Ġtotalament":3802,"Ġmarca":3803,"Ġmetre":3804,"Ġveloci":3805,"Ġcontemporan":3806,"Ã¨rtas":3807,"Ġopaus":3808,"Ġfacha":3809,"Ã²nas":3810,"Ġsoas":3811,"Ġillas":3812,"80":3813,"ĠBal":3814,"ĠserÃłn":3815,"ĠfasiÃ¡":3816,"ĠaperaquÃŃ":3817,"ardi":3818,"Ġvert":3819,"Ġperman":3820,"irm":3821,"isseau":3822,"ĠVII":3823,"ĠâĢľ":3824,"ĠcinÃ¨ma":3825,"ĠcanÃ§ons":3826,"roma":3827,"ĠÃ¨stre":3828,"quit":3829,"independÃ©ncia":3830,"Ġaqueth":3831,"Ġsociala":3832,"Ġportar":3833,"Ġide":3834,"ĠmalautiÃ¡":3835,"26":3836,"Ne":3837,"hon":3838,"erie":3839,"Ġevolucion":3840,"omet":3841,"Ġcomtat":3842,"ĠCort":3843,"acte":3844,"ĠLor":3845,"ĠLib":3846,"Ġjoves":3847,"Ġnumer":3848,"Ġdistincion":3849,"EN":3850,"arca":3851,"Ġseg":3852,"Ġpoiss":3853,"ĠNav":3854,"ĠresistÃ©ncia":3855,"espÃ¨":3856,"Ġprogress":3857,"ĠpÃ¨Ã§as":3858,"uish":3859,"Ġpression":3860,"Ġvenc":3861,"Ġpublicat":3862,"ancian":3863,"ĠproblÃ¨mas":3864,"89":3865,"Ġsques":3866,"telle":3867,"ĠdesplaÃ§":3868,"Ġlibertat":3869,"vent":3870,"Ġol":3871,"ĠCamp":3872,"Ġplen":3873,"ums":3874,"Ġconsci":3875,"Ġviatge":3876,"Ġ60":3877,"ĠCarcassona":3878,"insula":3879,"ĠAt":3880,"ĠpoguÃ¨t":3881,"Ġcateg":3882,"Ġtecnicas":3883,"Ġbibl":3884,"Ġfigura":3885,"70":3886,"ow":3887,"Ġtotei":3888,"ĠLouis":3889,"annadas":3890,"Ġeiss":3891,"Ã²ss":3892,"Ġvit":3893,"gudas":3894,"ĠRod":3895,"ements":3896,"ĠsimbÃ²l":3897,"Ġinteress":3898,"oz":3899,"icol":3900,"ĠreÃ¼n":3901,"Ġparc":3902,"ĠTur":3903,"ĠDom":3904,"Ġ31":3905,"ĠEsc":3906,"Ġumans":3907,"Ġnaturala":3908,"ĠEuropÃ¨a":3909,"//":3910,"://":3911,"Ġcoss":3912,"ĠPirenÃ¨us":3913,"ĠLas":3914,"ĠdonÃ¨t":3915,"ertura":3916,"Ġancianas":3917,"Ġzona":3918,"ĠexistÃŃs":3919,"Rec":3920,"oire":3921,"uala":3922,"Ġestan":3923,"ĠMai":3924,"ĠfaguÃ¨ron":3925,"Ġestra":3926,"Ġcolors":3927,"teriora":3928,"Ġseguir":3929,"Ġtipes":3930,"OccitÃłnia":3931,"ph":3932,"lement":3933,"tier":3934,"ensemble":3935,"Ġprincipau":3936,"Ġegip":3937,"Ġruisseau":3938,"citat":3939,"dada":3940,"Ġgau":3941,"Ġprigond":3942,"ocra":3943,"Ġcarn":3944,"Ġfinalament":3945,"Ġdarrier":3946,"ĠprenguÃ¨t":3947,"Comuna":3948,"Ġproprietat":3949,"Ġromaine":3950,"Ġpic":3951,"Ġcondicion":3952,"Ġcompet":3953,"ĠavanÃ§":3954,"Ġautors":3955,"ĠlÃ²c":3956,"eren":3957,"quÃ¨ron":3958,"iti":3959,"Ġsep":3960,"ĠSu":3961,"adÃ¨mia":3962,"ĠPrimi":3963,"Ġdesb":3964,"Ġexc":3965,"elhs":3966,"Ġtransm":3967,"Ġmalgrat":3968,"Institut":3969,"Ġdrecha":3970,"Jo":3971,"Ġlar":3972,"Ã²rdi":3973,"ensions":3974,"ff":3975,"pir":3976,"tiÃ¨r":3977,"Ã©nher":3978,"ĠDel":3979,"Ġ80":3980,"ĠflÃ²ta":3981,"Ġtestim":3982,"Ġcommunal":3983,"Ġvelocitat":3984,"hil":3985,"Ã¨rre":3986,"Ġcomanda":3987,"ĠprimiÃ¨ras":3988,"Ġrasons":3989,"Ġdesfacha":3990,"ance":3991,"adem":3992,"ĠPre":3993,"ĠFa":3994,"Ġarres":3995,"Ġtots":3996,"Ġprima":3997,"ĠmodÃ¨rn":3998,"ĠinfluÃ©ncia":3999,"ĠInter":4000,"ativas":4001,"24":4002,"mosfÃ¨ra":4003,"ocion":4004,"tica":4005,"Äĥ":4006,"apel":4007,"ensems":4008,"ĠFlor":4009,"Ġliura":4010,"Ġrib":4011,"Ġforman":4012,"Ġlegir":4013,"ĠnÃ²va":4014,"Ġscientif":4015,"Le":4016,"įn":4017,"Ġcrotz":4018,"osament":4019,"tiqu":4020,"Ġand":4021,"Ġterren":4022,"Ġmaqu":4023,"Ġmaxim":4024,"Ġlucha":4025,"Ġrescont":4026,"uma":4027,"Ġair":4028,"Ġcron":4029,"ĠPres":4030,"avi":4031,"ablas":4032,"associacion":4033,"ĠJapon":4034,"Ġvenon":4035,"Ġauton":4036,"udats":4037,"ĠfuÃ²c":4038,"ĠLeon":4039,"Ġatac":4040,"anal":4041,"ĠsÃ²l":4042,"ĠCA":4043,"Ġpros":4044,"ĠVen":4045,"Ġdesvolopar":4046,"ĠquartiÃ¨r":4047,"Ġcaseriu":4048,"Ġmultip":4049,"ĠnaissenÃ§a":4050,"bia":4051,"ĠpÃ¨ira":4052,"Ġreme":4053,"ĠPat":4054,"Ġdesigna":4055,"Ġreform":4056,"Ġfraires":4057,"Ġvolontat":4058,"Ġaigas":4059,"rach":4060,"Ġris":4061,"ĠBlan":4062,"ĠVic":4063,"Ġapel":4064,"Ġaten":4065,"Ġservir":4066,"ĠsubjÃ¨cte":4067,"Ġpensar":4068,"Ġgrav":4069,"ĠpodiÃ¡":4070,"eisson":4071,"Ġort":4072,"Ġmess":4073,"Ġric":4074,"Ġpreced":4075,"utilizacion":4076,"ĠcapitÃ¨ron":4077,"Ã²rias":4078,"ĠpÃ²u":4079,"Ġdefinicion":4080,"ĠCharles":4081,"ĠconsequÃ©ncia":4082,"iats":4083,"ĠÃł":4084,"enÃ§as":4085,"arre":4086,"quet":4087,"ĠPont":4088,"Ġsuu":4089,"Ġrius":4090,"Ġcomunitat":4091,"Ġcomunautat":4092,"Ġpermetre":4093,"Ġmodern":4094,"Ġportugu":4095,"Ġlegislat":4096,"administracion":4097,"uel":4098,"Ġlit":4099,"Ġpeus":4100,"Ġtur":4101,"rid":4102,"gua":4103,"Ġcong":4104,"ĠPu":4105,"ĠNÃ²va":4106,"Ġdonadas":4107,"Ġcentral":4108,"Ġpaginas":4109,"ĠreligiÃ³s":4110,"Ġgallo":4111,"rant":4112,"Ġcart":4113,"ĠCentre":4114,"ĠprojÃ¨ctes":4115,"icians":4116,"ocat":4117,"Ġmoneda":4118,"Ġapareis":4119,"Ġanimals":4120,"ĠAd":4121,"idar":4122,"eux":4123,"Ġmem":4124,"ichel":4125,"Ġpichonas":4126,"iot":4127,"xa":4128,"Ġsil":4129,"rier":4130,"Ġtrabalhar":4131,"Ġlinhas":4132,"Ġdesserv":4133,"ĠpÃ¨Ã§a":4134,"istir":4135,"Ġfisica":4136,"Ġcivila":4137,"Ġculturala":4138,"Ġdocuments":4139,"ĠGarona":4140,"cripcion":4141,"oas":4142,"Ġdra":4143,"aira":4144,"Ġcomen":4145,"aca":4146,"Ġcontribu":4147,"ferÃ©ncia":4148,"Ġ2021":4149,"utiliza":4150,"Ġdescub":4151,"ĠtÃ¨xte":4152,"Espanha":4153,"Ã²bre":4154,"Ġbur":4155,"ĠMedi":4156,"ĠPaul":4157,"ĠAv":4158,"Ġdesir":4159,"Ġsua":4160,"eguda":4161,"Ġgenerala":4162,"ĠzÃ²na":4163,"ĠeuropÃ¨us":4164,"ĠprovÃŃncias":4165,"har":4166,"ng":4167,"tom":4168,"Ġpair":4169,"utar":4170,"emos":4171,"Ġpolitics":4172,"Ġbenef":4173,"ografica":4174,"ĠcÃ²sta":4175,"edag":4176,"ĠcaractÃ¨r":4177,"fÃ²rt":4178,"laus":4179,"ĠBra":4180,"izant":4181,"Ġabs":4182,"Ġfemnas":4183,"Ġfusta":4184,"lomeracion":4185,"Par":4186,"agu":4187,"xe":4188,"anar":4189,"eria":4190,"Ã²f":4191,"Ġforn":4192,"Ġnascut":4193,"Ġ2020":4194,"Ġregionalas":4195,"Ġlocala":4196,"berg":4197,"Ġmandat":4198,"ĠCREO":4199,"ly":4200,"obl":4201,"rÃ©":4202,"ĠprÃ¨s":4203,"Ġuei":4204,"alizada":4205,"Ġocupat":4206,"ĠMondiala":4207,"Pr":4208,"even":4209,"mans":4210,"nes":4211,"Ġmic":4212,"ĠmÃ¨stre":4213,"aulas":4214,"ĠCat":4215,"aparicion":4216,"Ġarr":4217,"Ġpoders":4218,"Ġfortific":4219,"Ġflors":4220,"Ġpropriet":4221,"Ġaprof":4222,"27":4223,"Ġduc":4224,"Ã¨ren":4225,"iris":4226,"asses":4227,"Ġterm":4228,"clam":4229,"Ġimm":4230,"Ġsimple":4231,"quitectura":4232,"ES":4233,"To":4234,"for":4235,"hs":4236,"ĠsÃ²r":4237,"Ġcreada":4238,"ĠdarriÃ¨ra":4239,"angle":4240,"Ġrepresentant":4241,"Ġnomenada":4242,"Ġcapacitat":4243,"ELCO":4244,"Ġsang":4245,"usatge":4246,"uls":4247,"ĠMari":4248,"Ġ2002":4249,"Ġtorna":4250,"ianas":4251,"Ġdomenis":4252,"Ġrealizar":4253,"Ġcadena":4254,"vision":4255,"ĠÃ¯":4256,"ĠsÃ²":4257,"ĠFor":4258,"Ã¨lha":4259,"Ġgrana":4260,"Ġreialme":4261,"ĠdeviÃ¡":4262,"ures":4263,"Ġfol":4264,"Ġpertot":4265,"Ġ(\"":4266,"Ã§on":4267,"ĠCab":4268,"ĠAmerica":4269,"ĠAfrica":4270,"ianÃ§a":4271,"Ġcalcul":4272,"Ġpopulara":4273,"ĠRomans":4274,"Comp":4275,"Ġdig":4276,"inici":4277,"Ġunei":4278,"ĠGer":4279,"Ġteor":4280,"Ġtraduccion":4281,"Ġconstru":4282,"Ġlongtemps":4283,"Ġvisc":4284,"Ġtecnica":4285,"presa":4286,"ĠRussia":4287,"Mai":4288,"Ġedicion":4289,"ulg":4290,"ĠFELCO":4291,"assegu":4292,"Ġescamb":4293,"Ġconsac":4294,"ĠJohn":4295,"Ġcompausada":4296,"Ġculmin":4297,"Ġletras":4298,"fÃ²rÃ§":4299,"Ġvestigis":4300,"vin":4301,"Ġlongitud":4302,"Ġdemorar":4303,"Ġquantitat":4304,"Lor":4305,"dis":4306,"gers":4307,"Ġmans":4308,"Ġperc":4309,"apor":4310,"Ġtotun":4311,"Ġestar":4312,"rup":4313,"Ãłncias":4314,"Ġsuccess":4315,"Ġfondat":4316,"ĠquilomÃ¨tres":4317,"Ġurban":4318,"Del":4319,"lau":4320,"rÃ¨ron":4321,"enge":4322,"Ġpedag":4323,"rion":4324,"tigi":4325,"ĠBen":4326,"Ang":4327,"ĠjÃ²cs":4328,"Ġmercat":4329,"Ġpapa":4330,"ĠMarselha":4331,"ĠmÃ¨t":4332,"isf":4333,"ĠMad":4334,"Ġpermetent":4335,"ĠdiferÃ©ncia":4336,"autrei":4337,"Ġfilosofia":4338,"Ġpost":4339,"Ġperme":4340,"Ġbot":4341,"rot":4342,"roduccion":4343,"Ġcontes":4344,"ĠMistral":4345,"Ãłri":4346,"Ġindepend":4347,"Ġacompanh":4348,"Ġorigina":4349,"Ġplanta":4350,"Ġsimbol":4351,"Ġinvent":4352,"gin":4353,"ted":4354,"Ġmest":4355,"Ġcomand":4356,"Ġciutats":4357,"Ġfondada":4358,"Ġistorica":4359,"ĠremplaÃ§at":4360,"importÃłncia":4361,"Er":4362,"fon":4363,"Ġfeder":4364,"Ġvas":4365,"Ġvid":4366,"ĠMe":4367,"Ġamic":4368,"Ġconeguts":4369,"ĠEstat":4370,"Ġmontanhas":4371,"ĠdirÃ¨ctament":4372,"tellectu":4373,"ĠQue":4374,"Ġfiu":4375,"objectiu":4376,"Ġsuperfici":4377,"Ġfasent":4378,"Åĵur":4379,"Ġnu":4380,"Ġbre":4381,"ensiva":4382,"ctat":4383,"Ġhtt":4384,"Ġprincipals":4385,"Ġdirector":4386,"ĠParc":4387,"ĠluÃ²cs":4388,"Ġajuda":4389,"ĠconeissenÃ§a":4390,"ĠGuilhÃ¨m":4391,"Ġdot":4392,"ith":4393,"ĠnuÃ¨":4394,"ilib":4395,"Ġbles":4396,"Ã©c":4397,"etic":4398,"issions":4399,"Ġ2003":4400,"Ġrevirada":4401,"Ġpagina":4402,"Ġcinqu":4403,"75":4404,"oi":4405,"adop":4406,"Ã¯cul":4407,"ectiv":4408,"Ġplat":4409,"ĠOrient":4410,"encastre":4411,"Ġempach":4412,"ĠUnit":4413,"Ġarticle":4414,"Ã²uta":4415,"Ġcatalana":4416,"Ġlevat":4417,"Ġsiguec":4418,"Ã²ga":4419,"ĠSav":4420,"lac":4421,"Ġprestigi":4422,"Ġavans":4423,"ĠdessÃºs":4424,"ĠeuropÃ¨u":4425,"ĠsÃ¨ti":4426,"ĠCrist":4427,"Li":4428,"bis":4429,"ĠÃ§":4430,"energia":4431,"Ã¨bre":4432,"ĠsÃ¨m":4433,"Ġmos":4434,"ĠbÃ²s":4435,"ĠCre":4436,"Ġanti":4437,"dian":4438,"Ġapro":4439,"Ġmesuras":4440,"ĠOccitans":4441,"Ġjogar":4442,"tiquitat":4443,"FÃ²rÃ§a":4444,"ĠÃ§a":4445,"ĠCam":4446,"ĠEr":4447,"Ġutilizar":4448,"ĠrespÃ¨cte":4449,"Ġefica":4450,"Ġestatsunid":4451,"Ġfondacion":4452,"ĠnumÃ¨ro":4453,"Africa":4454,"Ã¢":4455,"ĠcÃ¨l":4456,"Ġmam":4457,"Ġtz":4458,"Ġdescon":4459,"Ġprum":4460,"ĠTor":4461,"Ġresultat":4462,"ĠescÃ²las":4463,"Ġ2001":4464,"Ġarmas":4465,"Ġceleb":4466,"Ġinternacionala":4467,"Ġpossibilitat":4468,"Ġleugi":4469,"ografic":4470,"jats":4471,"onÃ©s":4472,"anisme":4473,"ĠComp":4474,"adi":4475,"aperaqu":4476,"ĠVIII":4477,"ĠrapÃ²rt":4478,"ĠsostÃ¨n":4479,"Ġdurada":4480,"ĠMejana":4481,"cid":4482,"ali":4483,"Ġenem":4484,"Ġsemp":4485,"ĠSp":4486,"Ġproced":4487,"ĠRai":4488,"accions":4489,"Ġavant":4490,"Ġpensada":4491,"arquia":4492,"23":4493,"Ser":4494,"oun":4495,"ĠÎ":4496,"Ġton":4497,"Ġtit":4498,"irs":4499,"Ġvenent":4500,"richa":4501,"Ġinterpre":4502,"Ġconsiderada":4503,"Ġ1944":4504,"Ġsimplament":4505,"Ġsecret":4506,"Ġquestions":4507,"Ġdecision":4508,"ĠNacionala":4509,"Ġastron":4510,"Aragon":4511,"ĠgrÃ¨ga":4512,"įndia":4513,"fab":4514,"Ġlexic":4515,"racions":4516,"Ġnotar":4517,"olf":4518,"ette":4519,"adoci":4520,"ĠBor":4521,"Ġplantas":4522,"Ġobjectiu":4523,"ĠSeine":4524,"ĠConstitucion":4525,"nat":4526,"umi":4527,"Ġpreson":4528,"agÃŃs":4529,"alhs":4530,"edat":4531,"Ã²stre":4532,"Ġmenar":4533,"Ġmilitaras":4534,"Ġillust":4535,"ke":4536,"usta":4537,"ĠSimon":4538,"Ġparall":4539,"Ġdesen":4540,"Ġproxim":4541,"Ġcausida":4542,"ĠfuÃ¨lhas":4543,"ructuras":4544,"Ġcultiv":4545,"Ġelegits":4546,"ĠprÃ²che":4547,"Ist":4548,"ll":4549,"enri":4550,"Ġaiga":4551,"Ġfid":4552,"Ġvotz":4553,"ĠRh":4554,"ĠGas":4555,"Ġ1950":4556,"oviet":4557,"arten":4558,"Ġneut":4559,"Ġpunts":4560,"Ġcivilizacion":4561,"Ġlengadoci":4562,"andreta":4563,"Cont":4564,"Ã«":4565,"Ġcaire":4566,"organ":4567,"Ġbord":4568,"ansion":4569,"Ġtrauc":4570,"Ġargent":4571,"Ġip":4572,"agric":4573,"estil":4574,"ĠsciÃ©ncia":4575,"ĠRamon":4576,"evolucion":4577,"ĠpÃ²r":4578,"amica":4579,"eires":4580,"Ġrit":4581,"Ġparl":4582,"Ġestructura":4583,"Ã¨cta":4584,"AquÃŃ":4585,"ĠdistÃłncia":4586,"Ġmarcat":4587,"ĠOccitana":4588,"ĠAlemand":4589,"ĠespÃ¨cia":4590,"ectu":4591,"Ġsat":4592,"erb":4593,"Ġunic":4594,"abil":4595,"estructura":4596,"encont":4597,"Ã¨nh":4598,"ĠAlex":4599,"ĠespanhÃ²l":4600,"Ġcaserius":4601,"Ġcontacte":4602,"Ġsempre":4603,"Ġbens":4604,"Ġjuri":4605,"Ġproclam":4606,"Ġdiscip":4607,"alizat":4608,"Ġconstituit":4609,"Ġduas":4610,"Ġscientific":4611,"Ġpedagog":4612,"Ġproximitat":4613,"Des":4614,"ez":4615,"rÃ³s":4616,"uan":4617,"Ġfes":4618,"Ã¨gjorn":4619,"Ġtresena":4620,"Ġviat":4621,"ĠsiÃ¡s":4622,"Ġdensitat":4623,"Ġ1999":4624,"Ġnacional":4625,"Ġcambiament":4626,"ĠveÃ¯cul":4627,"Ġdiccionari":4628,"AS":4629,"jon":4630,"ui":4631,"ĠÃ²rdre":4632,"esca":4633,"ulacion":4634,"ĠSam":4635,"Ġparents":4636,"ĠBon":4637,"assas":4638,"ectac":4639,"enaissenÃ§a":4640,"aquelei":4641,"autoritat":4642,"ĠidÃ¨as":4643,"Ġcritica":4644,"ĠobtenguÃ¨t":4645,"Ostal":4646,"45":4647,"ĠdeguÃ¨ron":4648,"Ġpin":4649,"ĠaicÃŃ":4650,"Ġlaiss":4651,"Ġfoss":4652,"ĠCamb":4653,"Ġruss":4654,"Ġpresents":4655,"Ġpersegu":4656,"Ġlegenda":4657,"Estudis":4658,"Ġvarietat":4659,"Ġnaviris":4660,"ĠCastel":4661,"Ġprivil":4662,"Ġdeclin":4663,"dins":4664,"Ġy":4665,"Ġdedic":4666,"Ġthe":4667,"aia":4668,"ley":4669,"ĠPierre":4670,"ĠBord":4671,"ĠmarquÃ¨t":4672,"Aquelei":4673,"Ġremarc":4674,"Ale":4675,"Car":4676,"Mau":4677,"ĠBi":4678,"Ġarque":4679,"Ġroge":4680,"Ġsason":4681,"Ġvision":4682,"Ġcultural":4683,"Ġsobeiran":4684,"ĠconcÃ¨pte":4685,"Rep":4686,"ergue":4687,"resa":4688,"Ġconvencion":4689,"Ġprem":4690,"Ġcarta":4691,"iech":4692,"illy":4693,"Ġpermeton":4694,"ĠeuropÃ¨a":4695,"Ġcolleccion":4696,"lanta":4697,"ns":4698,"pes":4699,"Ġcm":4700,"Ġcaud":4701,"interior":4702,"Ġprendre":4703,"ĠLes":4704,"Ġdemen":4705,"ribucion":4706,"Ġjornada":4707,"encial":4708,"expression":4709,"ĠtrÃ²ban":4710,"pira":4711,"Ġenregist":4712,"Ġgarn":4713,"ĠCes":4714,"ranca":4715,"Ġprefer":4716,"Ġvenguda":4717,"Ã²cas":4718,"Ġcastel":4719,"Ġ2013":4720,"Ġdistric":4721,"ĠComun":4722,"ĠReiaume":4723,"ĠnuclÃ¨u":4724,"ĠFelip":4725,"Ġdarr":4726,"Ġfront":4727,"ĠMass":4728,"ĠpoÃ¨mas":4729,"ibilitat":4730,"oux":4731,"Ġminim":4732,"Ġparticularament":4733,"Ġendavant":4734,"ĠrecebÃ¨t":4735,"cÃ²p":4736,"iques":4737,"Ġperm":4738,"ĠdelÃł":4739,"ulta":4740,"Ġaliment":4741,"idor":4742,"assinat":4743,"Ġplus":4744,"Ġaccion":4745,"estudis":4746,"Ġatribu":4747,"Ġ2014":4748,"Ġarribar":4749,"ĠJosep":4750,"Ġcaracteristicas":4751,"ĠpoissanÃ§a":4752,"ItÃłlia":4753,"uas":4754,"ĠQ":4755,"ente":4756,"tabl":4757,"ĠglaÃ§":4758,"issement":4759,"ĠprÃ¨mi":4760,"ĠNov":4761,"ĠNarb":4762,"Ġsoudats":4763,"Ġ500":4764,"Ġafric":4765,"ampa":4766,"ĠcÃ²nsol":4767,"Ġrses":4768,"Totun":4769,"Ġlengatge":4770,"Ġgerman":4771,"periÃ©ncia":4772,"Ġrememb":4773,"Ag":4774,"rer":4775,"Ġpil":4776,"ĠaC":4777,"ĠSenat":4778,"ĠLond":4779,"decina":4780,"Ġtresen":4781,"Ġlocalas":4782,"Ġtractament":4783,"Ġcostats":4784,"48":4785,"oa":4786,"Ġlun":4787,"irÃł":4788,"ĠprÃ¨tz":4789,"ĠEgipte":4790,"Ġdiam":4791,"ĠviÃ¨lh":4792,"Ġdesvolopat":4793,"ĠfuguÃ¨t":4794,"Ġreconst":4795,"Ġorganizacion":4796,"Ġcambiar":4797,"Ġdescobrir":4798,"Ġsuperiora":4799,"ĠBearn":4800,"28":4801,"Emp":4802,"por":4803,"Ã£":4804,"ĠfÃ¨rre":4805,"Ã¨tas":4806,"Ġintellectu":4807,"tany":4808,"uman":4809,"ologicas":4810,"Ġrotacion":4811,"Ġcompausa":4812,"ĠespanhÃ²la":4813,"Ġfonts":4814,"ĠFelib":4815,"ĠCrosada":4816,"iran":4817,"endas":4818,"Ġcs":4819,"itÃłria":4820,"Ġuns":4821,"imm":4822,"ÃŃa":4823,"ĠIX":4824,"Ġestend":4825,"Ġmasatge":4826,"Ã²bras":4827,"ĠLoire":4828,"estion":4829,"espand":4830,"Ġdiversitat":4831,"ĠlÃ²ng":4832,"ĠpatrimÃ²ni":4833,"Tra":4834,"ibles":4835,"Ġsan":4836,"atius":4837,"Ġestim":4838,"Ġnot":4839,"ĠBa":4840,"ĠLin":4841,"Ġauta":4842,"exist":4843,"Ġencont":4844,"Ã²mas":4845,"Ġzonas":4846,"Ġ70":4847,"ĠcomenÃ§ar":4848,"Ġisol":4849,"Ġorbita":4850,"Fran":4851,"Ġmill":4852,"Ġune":4853,"ames":4854,"ele":4855,"ĠBritan":4856,"ĠTarn":4857,"Ġclub":4858,"gonda":4859,"ĠnovÃ¨u":4860,"ĠobjÃ¨cte":4861,"ĠWik":4862,"Ġpresentar":4863,"Ġimag":4864,"Ġparticipar":4865,"Ġextra":4866,"Ġproprietats":4867,"Ġcirc":4868,"EscÃ²la":4869,"terranÃ¨a":4870,"Ġcrestians":4871,"ĠConstantin":4872,"Ġestrangi":4873,"ĠGeor":4874,"ĠBretanha":4875,"Jos":4876,"yn":4877,"asenÃ§a":4878,"Ġeduc":4879,"illes":4880,"Ġreaccion":4881,"ĠMos":4882,"lava":4883,"ĠAss":4884,"Ġindic":4885,"Ġarre":4886,"Ã¨stres":4887,"Ġtrobat":4888,"Ġdespari":4889,"ĠGranda":4890,"Ġnecessari":4891,"Ġligams":4892,"agricultura":4893,"ĠAlemands":4894,"ano":4895,"Ġsiste":4896,"isp":4897,"Ġgig":4898,"ĠPo":4899,"ĠAut":4900,"ĠavÃ¨m":4901,"Ġestil":4902,"Ġrepublica":4903,"ĠcreÃ¨t":4904,"Ġamics":4905,"ĠLaf":4906,"Ġdeputats":4907,"Ġ150":4908,"ĠMontfÃ²rt":4909,"Ġliterari":4910,"Ġpractic":4911,"Ġboca":4912,"Ġbritanic":4913,"Ġprononci":4914,"Abans":4915,"Ġanglesa":4916,"emosin":4917,"Ġlh":4918,"Ġcha":4919,"ides":4920,"ĠRen":4921,"orsas":4922,"Ġliqu":4923,"Ġterritori":4924,"ressa":4925,"Ġ2017":4926,"Ġproves":4927,"Ġautrei":4928,"equip":4929,"Ġdominacion":4930,"Ġmaterial":4931,"31":4932,"Dos":4933,"vre":4934,"Ġderiv":4935,"Ġament":4936,"ism":4937,"isans":4938,"ĠMat":4939,"ĠSer":4940,"ĠSoviet":4941,"ĠPic":4942,"ĠAc":4943,"ĠAugu":4944,"Ġcomposicion":4945,"Ġpuish":4946,"Ġpaci":4947,"udes":4948,"Ġtromp":4949,"ĠChamp":4950,"Ġprincipis":4951,"ĠmÃłgers":4952,"Ġsignific":4953,"Ġ1940":4954,"Ġvicti":4955,"ĠMiÃ¨gjorn":4956,"Ġfabricacion":4957,"Ġfutur":4958,"Ġinstrument":4959,"retat":4960,"Ġenl":4961,"izat":4962,"Ġaculh":4963,"article":4964,"Ġseri":4965,"Ã²ms":4966,"ĠdarriÃ¨rs":4967,"ĠliterÃłria":4968,"Ġblanca":4969,"Ġalemands":4970,"Ġoccidentala":4971,"Ġrecuper":4972,"ĠMinist":4973,"ĠInternacion":4974,"ham":4975,"Ġcomtes":4976,"Ġoct":4977,"ĠSi":4978,"aven":4979,"ĠNorm":4980,"Ġbasada":4981,"Ġgeneracion":4982,"Ġdepaus":4983,"Ġrenov":4984,"ĠpurmÃ¨r":4985,"ebl":4986,"pas":4987,"augu":4988,"ĠCI":4989,"Ġtotal":4990,"Ġhilh":4991,"ĠOccident":4992,"alizar":4993,"Ġdefend":4994,"ĠRobert":4995,"Ã±":4996,"erament":4997,"Ġfief":4998,"ĠbÃ¨la":4999,"Ġpartits":5000,"Ã¯nas":5001,"Ġeconomia":5002,"Ġquauques":5003,"Ġletra":5004,"ĠbilingÃ¼":5005,"Ġmusulmans":5006,"Ġeveniments":5007,"escrivan":5008,"Aran":5009,"Pre":5010,"ject":5011,"ww":5012,"Ġdur":5013,"Ġlum":5014,"Ġed":5015,"oric":5016,"Ã¨rva":5017,"Ġbu":5018,"Ġgents":5019,"Ġgrat":5020,"ĠMil":5021,"ĠAg":5022,"Ġriv":5023,"nect":5024,"Ġfamosa":5025,"Ġfoncions":5026,"ĠmetÃ²de":5027,"Ġeconomicas":5028,"Ġvarietats":5029,"Ġcanton":5030,"Ġ1914":5031,"Ġconflictes":5032,"Ġfacil":5033,"90":5034,"Edat":5035,"bol":5036,"rons":5037,"Ġamp":5038,"ane":5039,"anz":5040,"Ġfum":5041,"Ġengat":5042,"Ġron":5043,"ĠMas":5044,"istics":5045,"Ġjur":5046,"Ġproble":5047,"Ġcomport":5048,"Ã¨ni":5049,"ologics":5050,"igny":5051,"Ġcalend":5052,"Ġdespart":5053,"Ġclassas":5054,"Ġautoritats":5055,"Ġmatin":5056,"ĠvertadiÃ¨r":5057,"Ġsetman":5058,"Ġgardar":5059,"ĠcossÃŃ":5060,"Ġaer":5061,"Ġmad":5062,"Ġfla":5063,"Ġreven":5064,"Ġanonci":5065,"abandon":5066,"ĠGrÃ¨":5067,"Ġapren":5068,"observ":5069,"Ġriba":5070,"orias":5071,"Ġmetal":5072,"ĠcompanhiÃ¡":5073,"Ad":5074,"LO":5075,"lici":5076,"utiu":5077,"enos":5078,"estan":5079,"Ġrecep":5080,"Ġconeish":5081,"ĠMac":5082,"Ġpret":5083,"Ġregist":5084,"Ġclau":5085,"Ġclimat":5086,"Ġtemple":5087,"Ġsolelh":5088,"Ġsoldats":5089,"Ġfrancesas":5090,"And":5091,"ĠpubliquÃ¨t":5092,"ugal":5093,"Ġdintrada":5094,"Ġassociacion":5095,"Ġperdut":5096,"Ġassegurar":5097,"Ġairal":5098,".,":5099,"65":5100,"Mont":5101,"Ġcement":5102,"omba":5103,"Ġgras":5104,"ĠCa":5105,"iac":5106,"ĠAs":5107,"Ġcompar":5108,"cediguÃ¨t":5109,"ĠdeuriÃ¡":5110,"ĠluÃ¨nh":5111,"Ġdevon":5112,"Ġfug":5113,"argent":5114,"VenguÃ¨t":5115,"gica":5116,"kh":5117,"Ġx":5118,"Ġdont":5119,"Ġconeis":5120,"istan":5121,"Ġaccions":5122,"ĠescÃ²la":5123,"Ġvias":5124,"Ġfemen":5125,"Ġsortir":5126,"Ġescrivans":5127,"Ġcompositor":5128,"Ġquauquei":5129,"SS":5130,"tal":5131,"Ã¶":5132,"Ġmalh":5133,"ĠCant":5134,"eix":5135,"ĠLau":5136,"Ã¯st":5137,"ĠDav":5138,"Ġmars":5139,"ardin":5140,"matic":5141,"Ġdestruccion":5142,"Ġoficialament":5143,"Ġpeninsula":5144,"Ġestrateg":5145,"Ġculminant":5146,"ĠLondres":5147,".\"<|":5148,"35":5149,"Ġ&":5150,"ork":5151,"Ã²ran":5152,"raine":5153,"osicions":5154,"rodu":5155,"ĠAu":5156,"Ġabsol":5157,"illon":5158,"Ġdispaus":5159,"Ġ1945":5160,"Ġmagnet":5161,"Dempu":5162,"Ġreligiosa":5163,"ĠNavarra":5164,"bo":5165,"Ġpausa":5166,"erat":5167,"inari":5168,"Ġfau":5169,"urre":5170,"abte":5171,"ĠRog":5172,"estar":5173,"Ġriques":5174,"Ġformada":5175,"Ġjornal":5176,"ctorat":5177,"ĠperiÃ²des":5178,"Ġsemblan":5179,"Ġvesins":5180,"Ġmelhorar":5181,"presas":5182,"Ġbritanica":5183,"ĠPolonha":5184,"Ġdifusion":5185,"ĠBesiÃ¨rs":5186,"ĠGrÃ¨cia":5187,"gne":5188,"ous":5189,"Ġmis":5190,"elles":5191,"Ġremon":5192,"ime":5193,"ctritz":5194,"Ġplena":5195,"Ġvertat":5196,"Ġlimitat":5197,"ĠmÃ²rts":5198,"Ġligada":5199,"Ġrepresentacion":5200,"ĠtÃ¨rmes":5201,"Ġnombres":5202,"Ġmilitars":5203,"Ġtemperat":5204,"Assemblada":5205,"ĠRaimon":5206,"cer":5207,"rÃ¨m":5208,"tero":5209,"Ġquar":5210,"Ġvam":5211,"guet":5212,"Ġescrit":5213,"Ġescriure":5214,"vasion":5215,"borg":5216,"ĠCalandreta":5217,"Ġtolos":5218,"85":5219,"bas":5220,"ega":5221,"mada":5222,"oqu":5223,"Ġsobre":5224,"integ":5225,"Ġec":5226,"itant":5227,"Ġvass":5228,"ĠnÃ²rma":5229,"Ġcono":5230,"istÃ¨ma":5231,"ĠLuna":5232,"Ġmarit":5233,"inason":5234,"Ġutilizats":5235,"Ġemple":5236,"Ġemperaire":5237,"Ġfasa":5238,"octÃ²bre":5239,"ExistÃŃs":5240,"Ġessencialament":5241,"ĠacomencÃ¨t":5242,"Fins":5243,"ko":5244,"Ġlud":5245,"Ġpalais":5246,"Ġredus":5247,"Ġsex":5248,"Ġseccion":5249,"Ġgarda":5250,"ĠGir":5251,"ĠRoqueta":5252,"Ġchinesa":5253,"Agu":5254,"ech":5255,"fu":5256,"onor":5257,"Ġama":5258,"Ġactors":5259,"Ġvita":5260,"Ġnar":5261,"Ġconcepcion":5262,"ĠconÃ©isser":5263,"Ġcontre":5264,"ĠcÃ²st":5265,"ĠcreissenÃ§a":5266,"Alara":5267,"Ġvolum":5268,"Ġetn":5269,"ĠdescobÃ¨rta":5270,"Ġpartement":5271,"Ġplaser":5272,"Tre":5273,"Ua":5274,"Ġpena":5275,"americ":5276,"ĠFred":5277,"Ġdiu":5278,"Ġexcepcion":5279,"Ġparts":5280,"Ġdivis":5281,"ĠmercÃ©":5282,"Ġprepausa":5283,"Totes":5284,"mor":5285,"Ġsof":5286,"raccion":5287,"ĠtÃ¨n":5288,"rida":5289,"ĠSo":5290,"issiÃ¡n":5291,"izada":5292,"Ġliure":5293,"Ġresist":5294,"ages":5295,"nais":5296,"Ġdemest":5297,"iller":5298,"ĠimportÃłncia":5299,"Ġpresentacion":5300,"Ġbarr":5301,"Ġamericana":5302,"ĠReialme":5303,"Ġprevist":5304,"Ġmanifesta":5305,"ĠMartin":5306,"ocracia":5307,"ĠBordÃ¨u":5308,"36":5309,"74":5310,"Gu":5311,"Â·":5312,"ĠÃ¨":5313,"quÃ©":5314,"ald":5315,"unei":5316,"Ġgala":5317,"ĠLion":5318,"Ġdifici":5319,"ĠVil":5320,"autas":5321,"aglomeracion":5322,"encas":5323,"Ã¨nge":5324,"Ġproduc":5325,"ĠzÃ²nas":5326,"Ġreflex":5327,"Ġrealizat":5328,"tellig":5329,"Ġdecisions":5330,"Ġcontunha":5331,"Ai":5332,"ea":5333,"mai":5334,"Ġcot":5335,"Ġtaus":5336,"Ġtira":5337,"Ġunas":5338,"usc":5339,"Ġbomb":5340,"Ġrts":5341,"ado":5342,"ĠAp":5343,"Enc":5344,"Ġcompr":5345,"Ġsituats":5346,"intrada":5347,"Ġlimits":5348,"Ġlingu":5349,"oise":5350,"Ġdemandar":5351,"Ġpsic":5352,"\")":5353,"burg":5354,"fort":5355,"ĠcÅĵur":5356,"Ã¨rcas":5357,"ĠGen":5358,"iza":5359,"ĠEd":5360,"Ġracon":5361,"Ġtemptat":5362,"ĠrevÃ¨nge":5363,"Ġsucre":5364,"Ġdefinir":5365,"rÃłcia":5366,"Ġtradicionala":5367,"Ġexistisson":5368,"Ġpetr":5369,"Ġdistingu":5370,"ĠchinÃ©s":5371,"Ġcontuni":5372,"ĠPresident":5373,"Ġarrond":5374,"ER":5375,"jau":5376,"Ġdej":5377,"ĠaguÃ¨ron":5378,"Ġmir":5379,"Ġquat":5380,"dias":5381,"abilitat":5382,"igne":5383,"ĠFil":5384,"Ġsusp":5385,"ĠDu":5386,"ĠJer":5387,"ocas":5388,"Ġsolucion":5389,"Ġpublics":5390,"Ġcated":5391,"Ġassociacions":5392,"ĠconsciÃ©ncia":5393,"Don":5394,"cans":5395,"ni":5396,"och":5397,"Ġpilh":5398,"asp":5399,"Ġenqu":5400,"Ġbalha":5401,"imes":5402,"Ġrica":5403,"ĠMes":5404,"ĠFre":5405,"Ġresultats":5406,"Ġimpaus":5407,"escom":5408,"Ġmonast":5409,"Ġ2022":5410,"Ġsoi":5411,"Ġmusician":5412,"Ġsetmana":5413,"giÃ¨r":5414,"utacion":5415,"Ġdam":5416,"Ġdeven":5417,"adÃŃs":5418,"Ġdieu":5419,"Ġaplic":5420,"Ġarti":5421,"Ġdefens":5422,"ĠpoderÃ³s":5423,"Ġbastiments":5424,"Ġ90":5425,"Ġorientala":5426,"resentacion":5427,"Ġcia":5428,"arÃłn":5429,"ĠMer":5430,"laÃ§a":5431,"ĠBol":5432,"ĠIl":5433,"Ġ35":5434,"Ġensemble":5435,"Ġajudar":5436,"Ġretirada":5437,"Ġfruch":5438,"Ġsatellits":5439,"Ġcompletament":5440,"ĠdrÃ²l":5441,"88":5442,"raÃ¨l":5443,"tias":5444,"ĠpoguÃ¨ron":5445,"ogne":5446,"educ":5447,"Ġclaus":5448,"Ġcalc":5449,"anhas":5450,"ĠdefÃ²ra":5451,"Ġ45":5452,"ĠconsidÃ¨ra":5453,"ĠscÃ¨na":5454,"Ġgovernador":5455,"Ġaprofich":5456,"Aut":5457,"PuÃ¨i":5458,"cal":5459,"Ġactor":5460,"ania":5461,"atmosfÃ¨ra":5462,"isha":5463,"Ġtau":5464,"ulara":5465,"Ġdemost":5466,"Ġdison":5467,"Ġdefendre":5468,"Aqueth":5469,"Ġ120":5470,"ĠUr":5471,"Ġdirigit":5472,"Ġseparacion":5473,"ĠfilosÃ²f":5474,"ĠAnglatÃ¨rra":5475,"Ġscientifics":5476,"Pro":5477,"dich":5478,"Ġses":5479,"arch":5480,"Ã²da":5481,"ĠSau":5482,"ĠPhil":5483,"igat":5484,"Ġ1920":5485,"ĠTres":5486,"artin":5487,"Ġram":5488,"Ġcalor":5489,"ĠobjÃ¨ctes":5490,"Ġsocial":5491,"ÃĪst":5492,"Ġoriginas":5493,"Ġcritic":5494,"Ġantic":5495,"Ġantica":5496,"Ġscientifica":5497,"37":5498,"eguÃ¨ron":5499,"ricas":5500,"Î¿":5501,"Ġsser":5502,"omas":5503,"autes":5504,"amass":5505,"Ġju":5506,"isse":5507,"Ġdesf":5508,"ĠRos":5509,"Ġnomena":5510,"Ġprecip":5511,"pert":5512,"Ġcoloni":5513,"Ġmanjar":5514,"Ġrevel":5515,"Ġinterven":5516,"itaris":5517,"Ġconcors":5518,"Ġfrag":5519,"Ġextrem":5520,"Ġproduch":5521,"ĠSaint":5522,"Ġveget":5523,"Ġmaridatge":5524,"Ġdesignar":5525,"Ġtelevision":5526,"ĠCesar":5527,"bert":5528,"Ã¨ir":5529,"arres":5530,"Ġmac":5531,"Ġquora":5532,"Ġvau":5533,"amen":5534,"Ã§an":5535,"Ġrar":5536,"ĠPet":5537,"ĠDan":5538,"ĠDem":5539,"objÃ¨cte":5540,"Ġprigonda":5541,"Ã¨ncia":5542,"telas":5543,"Ã²si":5544,"Ġminutas":5545,"aqueth":5546,"Ġ1995":5547,"Ġsubrev":5548,"Ġclassic":5549,"Ġreconeiss":5550,"Ġorganizat":5551,"ĠparticipÃ¨t":5552,"Ġressorsas":5553,"Sul":5554,"ugi":5555,"uÃ¨lh":5556,"enha":5557,"ĠpÃ¨s":5558,"alt":5559,"itÃ¨t":5560,"Ġtos":5561,"ĠtÃ¨ma":5562,"Ġtaula":5563,"Ġesca":5564,"rici":5565,"Ġrat":5566,"abitants":5567,"ands":5568,"cebre":5569,"Ġprece":5570,"Ġvenguts":5571,"estÃ³":5572,"Ġconsom":5573,"astron":5574,"ĠmusÃ¨u":5575,"ĠrevÃ²uta":5576,"Ġpublicacion":5577,"Ġsuccession":5578,"Ġ1930":5579,"Ġcontengut":5580,"Exist":5581,"ÃĩÃ²":5582,"Ob":5583,"ner":5584,"ĠÃ²c":5585,"tem":5586,"Ġevol":5587,"Ġunica":5588,"eleccion":5589,"Ġbut":5590,"Ã²rs":5591,"ĠPan":5592,"Ġparaulas":5593,"ĠAires":5594,"icis":5595,"ĠDep":5596,"Ġmeta":5597,"Ġcomptar":5598,"Ġaval":5599,"Ġgranas":5600,"Ã¨sson":5601,"Ġminer":5602,"ĠmodÃ¨rne":5603,"ĠdesvolopÃ¨t":5604,"Ġdiferent":5605,"Ġconegudas":5606,"Ġcromp":5607,"Ġrealizacion":5608,"Ġorganizada":5609,"Ġfoncionament":5610,"ĠEnric":5611,"Ġtorre":5612,"ĠBuenos":5613,"Ġcollaboracion":5614,"Ġtransmission":5615,"Mon":5616,"Nos":5617,"gor":5618,"lon":5619,"uit":5620,"reu":5621,"raÃ¯na":5622,"Ġfres":5623,"Ġfac":5624,"Ġtuc":5625,"omin":5626,"ĠbÃ¨s":5627,"Ãłdio":5628,"ĠAsia":5629,"dida":5630,"ĠBrasil":5631,"avÃ¨m":5632,"Ġtrapa":5633,"oper":5634,"operacion":5635,"auts":5636,"ersion":5637,"Ġ300":5638,"ĠfarÃł":5639,"Ġcomunaut":5640,"Ġconcern":5641,"ĠarribÃ¨t":5642,"Ġestudiar":5643,"Ġfortal":5644,"ĠLenga":5645,"Ġcategoria":5646,"ĠGascon":5647,"Ã£o":5648,"Ġartifici":5649,"44":5650,"47":5651,"TA":5652,"iblas":5653,"elect":5654,"Ġbret":5655,"tien":5656,"ĠPen":5657,"Ġpast":5658,"avent":5659,"ĠLim":5660,"Ġdieus":5661,"ĠVill":5662,"Ġradi":5663,"Ġ2019":5664,"ĠpermetÃ¨ron":5665,"Ġsubs":5666,"rimir":5667,"Ġescolans":5668,"Ġsatellit":5669,"Ġdesservie":5670,"Ġsuperficie":5671,"Ġhttp":5672,"Alemanha":5673,"Ġgarnison":5674,"66":5675,"ror":5676,"Ġlitor":5677,"endres":5678,"Ġnat":5679,"Ġbel":5680,"Ġbaci":5681,"Ġalora":5682,"Ġparis":5683,"ĠAf":5684,"ĠEm":5685,"Ġplans":5686,"ĠacÃ²rd":5687,"Ġescal":5688,"Ġsols":5689,"Ġchar":5690,"Ġrevend":5691,"Ġinternacional":5692,"Ġfabrica":5693,"Ġcaracteristica":5694,"ĠdiamÃ¨tre":5695,"ky":5696,"tÃ¨ron":5697,"Ġmig":5698,"Ġtab":5699,"aude":5700,"Ġbol":5701,"ĠconeguÃ¨t":5702,"ĠpoÃ¨ma":5703,"Ġtradu":5704,"essors":5705,"Ġcamins":5706,"ĠtrÃ²":5707,"Ġfranceses":5708,"ĠRoergue":5709,"Ġporta":5710,"ĠprÃ²pri":5711,"Ġjustament":5712,"Ġmanifestacion":5713,".;":5714,"32":5715,"79":5716,"bÃ²l":5717,"Ġdan":5718,"tein":5719,"asa":5720,"aro":5721,"quis":5722,"ĠPi":5723,"ĠDon":5724,"ectiva":5725,"Ġsie":5726,"exion":5727,"ĠgrÃ²ss":5728,"Ġinstitucion":5729,"Ġnocion":5730,"ĠcelÃ¨b":5731,"ĠFrancesa":5732,"ĠMusÃ¨u":5733,"Ġshens":5734,"Ġcandidat":5735,"43":5736,"Parti":5737,"Torn":5738,"coma":5739,"oj":5740,"Ġpaur":5741,"unic":5742,"Ġtro":5743,"Ġeste":5744,"ots":5745,"ĠLei":5746,"Ġira":5747,"Ġsocietats":5748,"giguÃ¨t":5749,"Ġmajora":5750,"Ġarriba":5751,"ruccions":5752,"ĠcollÃ¨gi":5753,"Ġegipci":5754,"83":5755,"Pierre":5756,"bilitat":5757,"gÃ¨t":5758,"Ġlan":5759,"inv":5760,"universitat":5761,"oracion":5762,"Ġunitat":5763,"taine":5764,"ĠNeg":5765,"Ġcomptava":5766,"Ġexclus":5767,"essions":5768,"ritge":5769,"ĠmaniÃ¨ra":5770,"Ġcorre":5771,"ĠWill":5772,"ÃĴr":5773,"eisses":5774,"Ġdirigida":5775,"ĠprÃ²pria":5776,"Ġcrosada":5777,"ĠlicÃ¨u":5778,"informacion":5779,"63":5780,"64":5781,"OC":5782,"aw":5783,"col":5784,"nov":5785,"ĠfÃ²nt":5786,"itada":5787,"ice":5788,"usal":5789,"airal":5790,"apole":5791,"Ã¨sus":5792,"Ġacte":5793,"Ġrepublic":5794,"intÃ¨si":5795,"Ġlegitim":5796,"Ġpropor":5797,"ĠprogrÃ¨s":5798,"Ġlimitada":5799,"Ġajud":5800,"ĠpÃ¨rdas":5801,"ĠLafont":5802,"Ġenvi":5803,"Ġgestion":5804,"ade":5805,"chi":5806,"diguÃ¨ron":5807,"Ġinclus":5808,"Ġier":5809,"ocant":5810,"Ġmarch":5811,"oute":5812,"Ġromp":5813,"ĠsiÃ¡n":5814,"Ġ1998":5815,"Ġclassificacion":5816,"ĠsciÃ©ncias":5817,"rilh":5818,"instru":5819,"Ġtribun":5820,"Ġsufis":5821,"Ġutil":5822,"Ġregularament":5823,"Ġborges":5824,"apelan":5825,"Ol":5826,"jants":5827,"Ġdaval":5828,"encion":5829,"ony":5830,"atic":5831,"ĠfÃ¨sta":5832,"Ġtras":5833,"aviÃ¡n":5834,"abriu":5835,"Ġhon":5836,"Ġcarg":5837,"ĠrecÃ¨rcas":5838,"Ġprince":5839,"Ġchap":5840,"teriors":5841,"esple":5842,"Ġobri":5843,"Ġ1997":5844,"Ġarticles":5845,"Ġdepartaments":5846,"Ġsenhal":5847,"ĠMax":5848,"Ġ1870":5849,"ĠPortugal":5850,"Ġvaccin":5851,"Ġmedish":5852,"ĠvadÃ³":5853,"Ġciutadans":5854,"DN":5855,"cat":5856,"arma":5857,"Ġreis":5858,"Ġbranca":5859,"Ġgost":5860,"ulon":5861,"Ġalmens":5862,"Ġmascul":5863,"rÃ¨ma":5864,"ronze":5865,"Ġcentrau":5866,"Ġmili":5867,"190":5868,"Ġmarcada":5869,"Ġmandar":5870,"Ġtesti":5871,"ĠRobÃ¨rt":5872,"Situada":5873,"Ġnegociacions":5874,"84":5875,"Ġvide":5876,"Ã§ats":5877,"Ġparci":5878,"Ġapre":5879,"Ġpassej":5880,"ĠpodriÃ¡":5881,"Ġcentres":5882,"ĠKar":5883,"Ã¨rnas":5884,"Ġconfir":5885,"ĠnÃ²stres":5886,"teriorament":5887,"jectius":5888,"ĠentraÃ¯nant":5889,"Ġculte":5890,"romaine":5891,"PirenÃ¨us":5892,"fre":5893,"tic":5894,"velh":5895,"zo":5896,"Ġstat":5897,"Ã²di":5898,"Ġvri":5899,"ĠGi":5900,"Ã¨li":5901,"Ġautes":5902,"ichon":5903,"Ġcenten":5904,"ĠmodÃ¨ls":5905,"ĠidÃ¨a":5906,"ĠViena":5907,"Ġsantat":5908,"Tres":5909,"cte":5910,"rist":5911,"uelh":5912,"onica":5913,"orre":5914,"ĠtÃ²r":5915,"Ġvapor":5916,"Ġred":5917,"dig":5918,"ĠVall":5919,"Ġimposs":5920,"utilizar":5921,"Ġreiau":5922,"Ġafaires":5923,"Ġestadas":5924,"Ġaquestas":5925,"tenas":5926,"euse":5927,"Ġ1871":5928,"ĠfoguÃ¨sse":5929,"ĠjaponÃ©s":5930,"ban":5931,"iutat":5932,"lh":5933,"uk":5934,"Ġlectura":5935,"Ġmel":5936,"Ġbarri":5937,"Ġconte":5938,"ĠCos":5939,"Ġros":5940,"Ġrtas":5941,"ĠPlan":5942,"cher":5943,"ĠLan":5944,"Ġtanp":5945,"Ġexemp":5946,"Ġtempor":5947,"Ġquite":5948,"Ã²mes":5949,"Ġestacion":5950,"Ġglob":5951,"ĠconstituÃŃs":5952,"Ġ1973":5953,"ĠCarta":5954,"Ġdintrar":5955,"Ġocupa":5956,"Ġmolin":5957,"Ġsalv":5958,"Ġdisposicion":5959,"Ġoriginala":5960,"Ġcercle":5961,"AvÃ¨m":5962,"ĠjustÃŃcia":5963,"Ġ1790":5964,"Ġfaciar":5965,"ĠganhÃ¨t":5966,"Ġquadre":5967,"Sas":5968,"bs":5969,"atac":5970,"istes":5971,"Ġvai":5972,"imatge":5973,"ĠPas":5974,"ĠBou":5975,"abri":5976,"Ġincl":5977,"ĠJup":5978,"ĠJÃ²cs":5979,"Ġsolar":5980,"Ġchif":5981,"Ã²sta":5982,"Ġtorisme":5983,"Ġcantaire":5984,"Ġdiplomat":5985,"41":5986,"xi":5987,"Ġdil":5988,"atica":5989,"indic":5990,"auen":5991,"Ġvig":5992,"Ġnaz":5993,"ural":5994,"ĠPrin":5995,"Ġparlan":5996,"Ġtradicions":5997,"ĠJÃ¨sus":5998,"Ġescricha":5999,"ĠconsistÃŃs":6000,"ĠdemÃ²ran":6001,"Ġrepression":6002,"ĠmaridÃ¨t":6003,"esperit":6004,"apoleon":6005,"72":6006,"78":6007,"UÃ¨i":6008,"oca":6009,"pel":6010,"zi":6011,"Ġpeisses":6012,"Ġcen":6013,"Ġquita":6014,"Ġbanh":6015,"Ġconnect":6016,"ulat":6017,"Ġocean":6018,"ĠSab":6019,"ĠPel":6020,"idion":6021,"ovent":6022,"Ġexa":6023,"Ġrecens":6024,"Ã¨ns":6025,"ificada":6026,"Ġstra":6027,"ĠArgent":6028,"Ġpensa":6029,"ĠmercÃ©s":6030,"Ġusatge":6031,"Ġpresidenci":6032,"ĠaurÃł":6033,"33":6034,"76":6035,"gs":6036,"ht":6037,"hat":6038,"pus":6039,"vos":6040,"Ġcens":6041,"Ġedit":6042,"Ġesti":6043,"Ġvins":6044,"olet":6045,"Ġantany":6046,"Ġdesvel":6047,"Ġinterior":6048,"ĠVar":6049,"opaus":6050,"aston":6051,"Ġtren":6052,"Ġcolom":6053,"Ġreiala":6054,"ressions":6055,"Ġonor":6056,"diccion":6057,"Ġartistas":6058,"Ġ1989":6059,"Ġparticipacion":6060,"interÃ¨s":6061,"Ġnavig":6062,"Ġitaliana":6063,"Ġdialect":6064,"ĠfrontiÃ¨ra":6065,"Ġeveniment":6066,"ĠrÃ¨glas":6067,"ĠSocietat":6068,"ĠnuÃ¨ch":6069,"ĠJerusal":6070,"55":6071,"95":6072,"On":6073,"be":6074,"bon":6075,"dar":6076,"hes":6077,"rina":6078,"Î±":6079,"Ġsar":6080,"Ġsit":6081,"orica":6082,"ray":6083,"ĠRev":6084,"Ġarts":6085,"periment":6086,"escasenÃ§a":6087,"ĠpodÃ¨m":6088,"Ġseguit":6089,"elli":6090,"ĠComission":6091,"Ġbate":6092,"industria":6093,"Ġislam":6094,"tificat":6095,"Ġprotegir":6096,"ĠTractat":6097,"Ġseleccion":6098,"Ġmatematicas":6099,"Joan":6100,"ĠGasconha":6101,"69":6102,"Egipte":6103,"Orient":6104,"RD":6105,"mo":6106,"tu":6107,"Ġmult":6108,"itÃ¨r":6109,"Ġti":6110,"rian":6111,"Ġnad":6112,"Ġsequ":6113,"Ġconven":6114,"Ġcapable":6115,"Ġbasat":6116,"Ġcorona":6117,"Ġreial":6118,"Ġumanas":6119,"Ġsignat":6120,"Ġistorics":6121,"Ġobtenir":6122,"ĠconsequÃ©ncias":6123,"ĠLorraine":6124,"Ġdiscipl":6125,"Ģustria":6126,"ence":6127,"eson":6128,"Ġlot":6129,"ĠCop":6130,"ĠBan":6131,"mira":6132,"ĠNeu":6133,"ĠNicol":6134,"Ġpartisans":6135,"Ġgenier":6136,"Ġrotas":6137,"Ġtrobava":6138,"Ġcerem":6139,"Ġrsas":6140,"Ġgeomet":6141,"Ġcontrarot":6142,"Ġdaissar":6143,"Ġvivent":6144,"Ġpromocion":6145,"Ġconservat":6146,"Ġemplegat":6147,"Ġcarbon":6148,"ĠcollÃ¨gas":6149,"Situat":6150,"Ġmanifestacions":6151,"38":6152,"Val":6153,"cel":6154,"si":6155,"Ã¨ja":6156,"Ġcub":6157,"orta":6158,"Ġfras":6159,"leu":6160,"Ġaliats":6161,"utors":6162,"ĠAquit":6163,"ĠRD":6164,"ĠRec":6165,"icitat":6166,"Ġentorn":6167,"Ġvilatges":6168,"Ã¨sses":6169,"Ġencausa":6170,"Ġfamili":6171,"ĠnovÃ¨ls":6172,"Ġroc":6173,"Ġqualqu":6174,"Ġfilmes":6175,"Ġrefugi":6176,"ĠComuna":6177,"Ġrapid":6178,"Ġ1962":6179,"Aude":6180,"Ġcorses":6181,"Ġportada":6182,"Ġposicions":6183,"Ġlargament":6184,"absÃ©ncia":6185,"iotÃ¨ca":6186,"ĠNarbona":6187,"ho":6188,"ls":6189,"Ġcic":6190,"oras":6191,"Ġfara":6192,"Ġbanc":6193,"Ġconn":6194,"urr":6195,"apr":6196,"tatge":6197,"ogen":6198,"ĠpluÃ¨":6199,"Ġdivid":6200,"Ġinsc":6201,"udici":6202,"Ġmantuna":6203,"Ġrepresentants":6204,"ĠintÃ¨rna":6205,"ĠsupÃ²rt":6206,"Ġjogaire":6207,"Ġaccess":6208,"ĠpurmÃ¨ra":6209,"ĠFrederic":6210,"Ben":6211,"Ma":6212,"Ġls":6213,"arquitectura":6214,"Ġlach":6215,"ilitats":6216,"mbia":6217,"ĠSeg":6218,"izont":6219,"acÃ²rd":6220,"blament":6221,"Ã¨gi":6222,"escal":6223,"escriure":6224,"Ġdeputat":6225,"Ġcasuda":6226,"Ġverd":6227,"ĠdemorÃ¨ron":6228,"ĠcastÃ¨th":6229,"organizar":6230,"lantic":6231,"Ġtirar":6232,"Ġestand":6233,"Ġcatedrala":6234,"87":6235,"Af":6236,"ial":6237,"Ġpp":6238,"Ġcicle":6239,"Ġmm":6240,"Ġts":6241,"Ġtam":6242,"guer":6243,"elements":6244,"ulari":6245,"ĠMed":6246,"ĠPalais":6247,"otic":6248,"ĠNo":6249,"Ġreserv":6250,"Ġactes":6251,"ĠescriguÃ¨t":6252,"Ã¨stras":6253,"ĠformÃ¨t":6254,"Ġaquestes":6255,"ĠpÃ²den":6256,"Ġlimitrop":6257,"Ġproduchs":6258,"ĠlingÃ¼istic":6259,"ĠdialÃ¨ctes":6260,"eticion":6261,"Ġdificultat":6262,"ĠNew":6263,"ĠcomencÃ¨ron":6264,"62":6265,"cap":6266,"Ãª":6267,"ĠdÃŃs":6268,"Ã¨ga":6269,"Ġclav":6270,"ical":6271,"Ġtub":6272,"dad":6273,"Ġvescom":6274,"Ġperilh":6275,"Ġsem":6276,"airon":6277,"Ġconj":6278,"hac":6279,"Ġacadem":6280,"const":6281,"Ġvalors":6282,"Ġnobl":6283,"ĠteniÃ¡":6284,"ĠConf":6285,"Ġmelhora":6286,"Ġportat":6287,"Ġdiscors":6288,"ennes":6289,"Ġalbum":6290,"ĠvÃ²te":6291,"ilibri":6292,"fabet":6293,"Ġsetmanas":6294,"Ġgalax":6295,"56":6296,"Aur":6297,"mos":6298,"vo":6299,"âĤ":6300,"ash":6301,"Ġcerv":6302,"Ġedicions":6303,"alla":6304,"rai":6305,"Ġfreg":6306,"Ġperp":6307,"ĠSte":6308,"ondas":6309,"Ġactiu":6310,"Ġradic":6311,"Ġdemocrat":6312,"exec":6313,"Ġtrenta":6314,"epar":6315,"Ġdebat":6316,"bach":6317,"Ġmetrop":6318,"occitanisme":6319,"Ġdrechs":6320,"Ġrsa":6321,"Ġsimpla":6322,"ĠeuropÃ¨as":6323,"Ġmediterran":6324,"ĠtribÃºs":6325,"ĠCalif":6326,"Ġelabor":6327,"Ġclarament":6328,"Ġindustriala":6329,"Ġdegun":6330,"Ġfelib":6331,"Ġconquistar":6332,"Ġreflexion":6333,"42":6334,"49":6335,"68":6336,"71":6337,"Ur":6338,"enatge":6339,"Ġdeh":6340,"Ġpent":6341,"Ġple":6342,"osau":6343,"Ġconceb":6344,"eira":6345,"uros":6346,"Ġanc":6347,"Ġprot":6348,"ĠVila":6349,"ortar":6350,"Ġhe":6351,"Ġabitu":6352,"Ġcargat":6353,"Ġdonada":6354,"Ġmonuments":6355,"orians":6356,"Ġtransc":6357,"Ġtransfer":6358,"ĠAls":6359,"Ġpossession":6360,"ĠcÃ²rdas":6361,"ÃĴC":6362,"Ġ1939":6363,"ĠveguÃ¨t":6364,"Ġevitar":6365,"ĠterrÃ¨stra":6366,"ĠpodiÃ¡n":6367,"Ġcollectiv":6368,"ĠBernat":6369,"ĠassaiÃ¨t":6370,"obtenir":6371,"ĠcalendiÃ¨r":6372,"59":6373,"jadas":6374,"km":6375,"environ":6376,"Ġaga":6377,"Ġeu":6378,"Ġreina":6379,"ĠCors":6380,"ĠCrotz":6381,"Ġparelh":6382,"irat":6383,"Ġsupaus":6384,"ĠTrans":6385,"Ġapond":6386,"ĠHer":6387,"Ġchic":6388,"Ġdiferenta":6389,"Ġrespect":6390,"Ġ1982":6391,"Ġcambiaments":6392,"Ġestablit":6393,"Ġdissabte":6394,"espÃ¨cia":6395,"teroÃ¯":6396,"âĤ¬":6397,"gra":6398,"rol":6399,"Ġsor":6400,"Ġbau":6401,"Ġconfer":6402,"Ġcondem":6403,"Ġanal":6404,"ĠBodon":6405,"ĠGov":6406,"tanben":6407,"Ġabb":6408,"empÃ¨ri":6409,"Ġseguenta":6410,"Ġ2018":6411,"Ġlocal":6412,"Ġnegra":6413,"Ã¨xte":6414,"ergÃ©ncia":6415,"Ġmagn":6416,"Ġmagerament":6417,"ĠdebanÃ¨ron":6418,"ĠNacional":6419,"olitic":6420,"Ġmedievala":6421,"ĠmÃ¨tge":6422,"ectivament":6423,"ĠPhilip":6424,"Ġha":6425,"ĠsÃ¨r":6426,"ung":6427,"Ġlou":6428,"Ġvore":6429,"ĠbÃ²rd":6430,"rod":6431,"iadas":6432,"ĠMerc":6433,"adin":6434,"Ġ1918":6435,"ĠentiÃ¨r":6436,"mida":6437,"ĠDic":6438,"eman":6439,"agne":6440,"Ġesple":6441,"Ġdivin":6442,"ĠAns":6443,"ĠinterÃ¨s":6444,"Ġcrom":6445,"Ġpresentan":6446,"estatut":6447,"ascuda":6448,"Ġvesin":6449,"Ġanimal":6450,"Ġcercar":6451,"Ġcaracteriza":6452,"Ġrestauracion":6453,"Ġtrucat":6454,"educacion":6455,"Ġprecedent":6456,"Cons":6457,"ON":6458,"rava":6459,"Ġfr":6460,"eles":6461,"ull":6462,"ĠSistÃ¨ma":6463,"Loire":6464,"ĠBourg":6465,"Ġtracta":6466,"Ġesposa":6467,"Ġrai":6468,"maticas":6469,"Ġlocalizacion":6470,"ĠMiqu":6471,"Ġdoble":6472,"Ġdisparicion":6473,"ĠYork":6474,"Ġpintura":6475,"ĠpÃ¨rda":6476,"Ġganhar":6477,"Ġbearn":6478,"Ġdefinitivament":6479,"ĠCentrala":6480,"assegurar":6481,"ĠvidÃ¨":6482,"Ġlengadocian":6483,"ĠpetrÃ²li":6484,"77":6485,"Si":6486,"dal":6487,"ÏĤ":6488,"Ġdents":6489,"ĠsintÃ¨si":6490,"quista":6491,"Ġtala":6492,"ĠvÃ²u":6493,"Ġaltern":6494,"ĠMichel":6495,"ĠPÃ¨rs":6496,"ensenh":6497,"ĠBur":6498,"ĠGo":6499,"ĠFab":6500,"ĠTal":6501,"ĠJan":6502,"ock":6503,"Ġgrans":6504,"Ġpersp":6505,"ĠdoÃ§":6506,"ologias":6507,"landa":6508,"Ġdescend":6509,"Ġensag":6510,"Ġ1993":6511,"Ġmantuns":6512,"ĠfondÃ¨t":6513,"Ġdecid":6514,"ternet":6515,"Ġbalhar":6516,"Ġcolonia":6517,"Ġbesonhs":6518,"ĠmemÃ²ria":6519,"ĠAugust":6520,"34":6521,"82":6522,"Occitan":6523,"Pod":6524,"ason":6525,"Ġeta":6526,"audi":6527,"elim":6528,"Ġcomarca":6529,"ĠCha":6530,"ĠClar":6531,"ĠSar":6532,"istoc":6533,"Ġestre":6534,"astic":6535,"Ã¨nas":6536,"Ġcausit":6537,"ington":6538,"Ġsultan":6539,"Ġcampanhas":6540,"Ġ1968":6541,"Ġimatge":6542,"Ġdecenn":6543,"ĠUc":6544,"Ġpagar":6545,"ĠÃįndia":6546,"Ġdubertura":6547,"Ġelectron":6548,"Ġreformas":6549,"Ġdotze":6550,"Ã¤":6551,"ĠpÃ¨l":6552,"ella":6553,"olat":6554,"Ġseunas":6555,"ĠMel":6556,"Ã²rmas":6557,"ĠBour":6558,"ĠEx":6559,"Ġarma":6560,"Ġfait":6561,"ĠcÃ²la":6562,"Ġsituadas":6563,"ĠuÃ¨lhs":6564,"ĠHenri":6565,"Ġpassant":6566,"Ã¯sme":6567,"Ġnota":6568,"Ġimatges":6569,"ĠProv":6570,"Ġemai":6571,"Ġcollectiu":6572,"ĠOlimp":6573,"AnglatÃ¨rra":6574,"Maugrat":6575,"Ġpremsa":6576,"piracion":6577,"ĠJupitÃ¨r":6578,"aost":6579,"far":6580,"hu":6581,"Ġlis":6582,"ati":6583,"orar":6584,"Ġvon":6585,"ĠBru":6586,"ĠNauta":6587,"Ġespandi":6588,"Ã²ple":6589,"Ġeconomics":6590,"Ġmotor":6591,"ĠnivÃ¨ls":6592,"Ġdobte":6593,"ault":6594,"Ġincend":6595,"hique":6596,"landÃ©s":6597,"ĠviolÃ©ncia":6598,"ĠesquÃ¨rra":6599,"Ġcaracterizat":6600,"Ġcrestiana":6601,"Ġinicialament":6602,"ĠrefusÃ¨t":6603,"Ġbrut":6604,"ĠfenomÃ¨ns":6605,"Ġmainatges":6606,"ĠMediterranÃ¨a":6607,"ĠdÃŃser":6608,"\").<|":6609,"61":6610,"Sol":6611,"Ġtensions":6612,"rie":6613,"Ġretra":6614,"Ġot":6615,"Ã¨stes":6616,"Ġarbre":6617,"Ġhas":6618,"Ġautomat":6619,"escamb":6620,"anglÃ©s":6621,"Ġconsiderar":6622,"Ġcontunhar":6623,"region":6624,"Ġdetalh":6625,"ĠpotÃ©ncia":6626,"Ġdestruit":6627,"Ġfortalesa":6628,"ĠAquitÃłnia":6629,"mond":6630,"ĠÐ":6631,"Ġur":6632,"Ġfic":6633,"ity":6634,"ĠperquÃ©":6635,"Ġbaiss":6636,"Ġrti":6637,"ĠMur":6638,"ĠPlat":6639,"igracion":6640,"ĠFon":6641,"ĠJust":6642,"Ġexterior":6643,"Ã¨gle":6644,"Ġconflu":6645,"ĠjaÃ§":6646,"ĠprenguÃ¨ron":6647,"Ġfasi":6648,"Ġlatitud":6649,"Ġmostrar":6650,"ĠMejan":6651,"esquÃ¨rra":6652,"ĠsÃ²ns":6653,"ĠvertadiÃ¨rament":6654,"ĠRodÃ©s":6655,"adopcion":6656,"Jean":6657,"bar":6658,"lig":6659,"Ġcte":6660,"att":6661,"Ġlabor":6662,"aprÃ¨s":6663,"abans":6664,"umas":6665,"Ġregard":6666,"Ġbasas":6667,"Ġ1996":6668,"Ġvesina":6669,"Ġoficial":6670,"Ġministres":6671,"Ġtribalh":6672,"Ġdifus":6673,"Ġtax":6674,"Ġoperacions":6675,"ĠcarbÃ²ni":6676,"67":6677,"Martin":6678,"yl":6679,"Ġpend":6680,"quer":6681,"Ġeire":6682,"Ġga":6683,"Ã©l":6684,"ĠSen":6685,"ĠRich":6686,"ĠRou":6687,"ograp":6688,"Ġvilla":6689,"Ã¨cs":6690,"ĠmestiÃ¨r":6691,"Ġseguents":6692,"ĠatÃ©nher":6693,"Ġ400":6694,"Ġtransmet":6695,"Ġutilizadas":6696,"Ġnosautres":6697,"armas":6698,"Ġ1991":6699,"Ġ75":6700,"engat":6701,"Ġcatalans":6702,"rador":6703,"Ġvocacion":6704,"ocupacion":6705,"ĠpossedÃŃs":6706,"Receb":6707,"ĠPremi":6708,"IstÃ²ria":6709,"Dens":6710,"Me":6711,"rena":6712,"vament":6713,"onic":6714,"cit":6715,"aliment":6716,"Ġgre":6717,"rois":6718,"ĠSci":6719,"Ġjonh":6720,"iditat":6721,"ĠLet":6722,"ĠVol":6723,"Ġtrapar":6724,"oposicion":6725,"Ġraub":6726,"ĠHar":6727,"Ã²ns":6728,"Ġmusicians":6729,"Ġtrobador":6730,"Ġlimitar":6731,"Ġsuplement":6732,"Ġendrech":6733,"Ġenfant":6734,"AcadÃ¨mia":6735,"lov":6736,"vada":6737,"ĠÃ¨st":6738,"Ġaustri":6739,"ĠcÃ¨rca":6740,"ĠmÃ²st":6741,"Ġunitats":6742,"Ġredu":6743,"otÃ¨si":6744,"ĠBert":6745,"ĠFois":6746,"ĠHu":6747,"Semb":6748,"ĠdempÃºs":6749,"Ġstas":6750,"Ġ600":6751,"emplec":6752,"ĠUnion":6753,"Ġconstituisson":6754,"Art":6755,"Ġefectu":6756,"Ġcorrents":6757,"Ġcomprene":6758,"ĠSolelh":6759,"ĠBelgica":6760,"ĠrecuÃ¨lh":6761,"ĠÃ§ai":6762,"ĠCastelha":6763,"Sab":6764,"iel":6765,"lip":6766,"Ġmira":6767,"ĠvÃ²stre":6768,"ositat":6769,"Ġ118":6770,"rou":6771,"adama":6772,"istoire":6773,"ĠAust":6774,"Ã¨sis":6775,"ĠRenaissenÃ§a":6776,"Ġexerci":6777,"Ġestrech":6778,"Ġsolet":6779,"ĠnovÃ¨us":6780,"heim":6781,"ĠComtat":6782,"Ġretrob":6783,"Ġfotograf":6784,"Ġtriangle":6785,"ĠtranspÃ²rt":6786,"interess":6787,"OP":6788,"jos":6789,"rÃłn":6790,"ĠÃĴ":6791,"Ġdal":6792,"ange":6793,"Ġmut":6794,"ampar":6795,"antar":6796,"ĠoÃ¨st":6797,"ĠPaci":6798,"gaz":6799,"Ġpreserv":6800,"Ġcases":6801,"Ġtrobadors":6802,"Ġdestinat":6803,"Ġarabi":6804,"Ġ1972":6805,"Ġtradicional":6806,"ĠefÃ¨cte":6807,"Ġreligiosas":6808,"AviÃ¡":6809,"ĠgrÃ¨cs":6810,"Ġesperar":6811,"ĠOrl":6812,"ĠBerlin":6813,"Ġtoponim":6814,"Ġtrompeta":6815,"ĠenlÃł":6816,"ĠWilliam":6817,"ĠJerusalÃ¨m":6818,"39":6819,"54":6820,"AL":6821,"bal":6822,"iner":6823,"Ġreda":6824,"Ġbac":6825,"Ġcondam":6826,"adÃł":6827,"cho":6828,"Ġsuber":6829,"Ġora":6830,"Ġrecentament":6831,"Ġluchar":6832,"Ġguitar":6833,"Ġdoct":6834,"Ġassassinat":6835,"Ġinspir":6836,"Ġensenhament":6837,"Ã¯ses":6838,"Ġparticulara":6839,"ĠapareguÃ¨t":6840,"Ġepis":6841,"Ġblau":6842,"Ġsingular":6843,"Ġfrequent":6844,"Ġmoleculas":6845,"Ãłriament":6846,"Ġtemperaturas":6847,"Alex":6848,"pr":6849,"Ġcitat":6850,"Ġcrat":6851,"Ġvest":6852,"Ġenergia":6853,"olon":6854,"Ã©der":6855,"ĠBressa":6856,"Ġrestabl":6857,"Ġprieur":6858,"Ġreglament":6859,"ifÃ¨rs":6860,"ĠOs":6861,"ratz":6862,"ĠvoliÃ¡":6863,"Ġdevath":6864,"Ġcompausats":6865,"Ġsignatura":6866,"Ġimmedi":6867,"Ġsuccessor":6868,"Ġresponsa":6869,"Ġcolonizacion":6870,"ĠcaractÃ¨rs":6871,"espÃ¨cias":6872,"Lu":6873,"Po":6874,"ms":6875,"oie":6876,"uga":6877,"Ġaim":6878,"Ġaran":6879,"ĠcÃł":6880,"cili":6881,"Ġmari":6882,"icala":6883,"adap":6884,"ĠMen":6885,"adre":6886,"issatge":6887,"avel":6888,"idat":6889,"Ġtest":6890,"ĠDes":6891,"Ġarc":6892,"Ġespel":6893,"ĠOtom":6894,"Ġrecamp":6895,"Ġencarg":6896,"Ġmetall":6897,"Ġcoa":6898,"Ġmenada":6899,"Ġpatron":6900,"Ġ1994":6901,"ĠaiÃ§Ã²":6902,"istian":6903,"Ġfilhs":6904,"Ġparlars":6905,"Ġmontanh":6906,"Ġvegadas":6907,"Ġindependenta":6908,"Ġbordure":6909,"ĠFelibritge":6910,"Re":6911,"out":6912,"erta":6913,"itors":6914,"ick":6915,"omic":6916,"Ã¨rgi":6917,"Ġbud":6918,"Ġparlat":6919,"ĠdiguÃ¨t":6920,"Ġdioc":6921,"ĠVern":6922,"Ġaparten":6923,"ĠIÃ¨r":6924,"cedir":6925,"ĠhÃ©":6926,"ĠOst":6927,"Ã¨mis":6928,"Ġreforma":6929,"Ġ1967":6930,"ĠnÃ²stras":6931,"ĠrealizÃ¨t":6932,"Ġposit":6933,"Ġfondator":6934,"Ġdominant":6935,"ĠpÃ²rtas":6936,"Ġcellulas":6937,"Ġrevendic":6938,"53":6939,"fr":6940,"ote":6941,"Ġdit":6942,"invasion":6943,"Ġflan":6944,"Ġsed":6945,"Ġconca":6946,"eir":6947,"arais":6948,"Ġmedecina":6949,"Ġentrepresas":6950,"ratges":6951,"ĠcausÃ¨t":6952,"Ġrespond":6953,"Ġligadas":6954,"ralha":6955,"Ġrealizada":6956,"expansion":6957,"ĠpÃ¨iras":6958,"Ġdiscuss":6959,"Ġmorf":6960,"Ã³ncia":6961,"Ġvivon":6962,"Ġtuat":6963,"ĠagricÃ²la":6964,"Ġagricultura":6965,"Ġadministrativa":6966,"Ġbenefici":6967,"ĠprumÃ¨r":6968,"Ġcastelhan":6969,"Ġfemenin":6970,"Ġvriulon":6971,"98":6972,"Actu":6973,"Pel":6974,"aja":6975,"zar":6976,"Ġpale":6977,"Ġmapa":6978,"univÃ¨rs":6979,"Ġvast":6980,"Ġband":6981,"ĠCass":6982,"ĠSil":6983,"otte":6984,"difici":6985,"auss":6986,"Ġambe":6987,"ĠGÃł":6988,"ĠGard":6989,"Ġtel":6990,"Ġsag":6991,"Ġresistir":6992,"Ġhens":6993,"essus":6994,"Ġpassan":6995,"Ġadul":6996,"Ġobratge":6997,"Ġroja":6998,"ĠArn":6999,"Ġexplica":7000,"Ġrapida":7001,"ĠdefinÃŃs":7002,"Ġcaduna":7003,"Ġautoroute":7004,"Ġevident":7005,"Ġpetit":7006,"Ġresponsable":7007,"Ġsacri":7008,"Ġinstallat":7009,"Ġsovietica":7010,"Ġlumin":7011,"Ġproporcion":7012,"58":7013,"nada":7014,"uran":7015,"ĠUna":7016,"Ġaja":7017,"inet":7018,"Ġfib":7019,"Ġviva":7020,"ĠSc":7021,"ĠLiga":7022,"ĠLemosin":7023,"Ġauri":7024,"Ġiran":7025,"ĠcÃ²m":7026,"esten":7027,"ĠseriÃ¡n":7028,"Ġrecom":7029,"lub":7030,"Ġdispar":7031,"Ġcentr":7032,"iano":7033,"ĠviÃ¨lha":7034,"Ġafebl":7035,"Ġexplor":7036,"Ġvariacions":7037,"legar":7038,"inhon":7039,"Ġoriginal":7040,"Ġmeridion":7041,"Ġmescla":7042,"rogÃ¨n":7043,"Ġmencionat":7044,"ĠPeit":7045,"Ġarbres":7046,"Ġpartementale":7047,".-":7048,"51":7049,"Ã¨ch":7050,"Ã¨rem":7051,"Ġsai":7052,"Ġeb":7053,"Ġquoti":7054,"guÃ¨sse":7055,"Ġgasc":7056,"lain":7057,"ave":7058,"ĠLis":7059,"Ġexpaus":7060,"ocada":7061,"Ġacamp":7062,"eguts":7063,"empach":7064,"Ġmila":7065,"Ġcapitada":7066,"Ã²se":7067,"ĠGuill":7068,"Ġestatut":7069,"ĠParis":7070,"Ġlocaus":7071,"Ġ1992":7072,"Aquestes":7073,"Ġespecif":7074,"Ġnegres":7075,"ejar":7076,"ergat":7077,"ĠnombrÃ³s":7078,"ĠpaÃ¯sans":7079,"fach":7080,"ĠcelÃ¨bre":7081,"ĠproteÃ¯nas":7082,"ĠvÃ²lon":7083,"Ġsentiment":7084,"Ġ1793":7085,"Ġcolonias":7086,"ectacle":7087,"Ġexactament":7088,"RecebÃ¨t":7089,"86":7090,"92":7091,"Ais":7092,"Ret":7093,"gier":7094,"jant":7095,"lob":7096,"rics":7097,"entes":7098,"Ġcur":7099,"Ġfun":7100,"Ġtas":7101,"Ġbronze":7102,"ĠMexic":7103,"iver":7104,"ĠTom":7105,"accep":7106,"objÃ¨ctes":7107,"Ġib":7108,"Ġresol":7109,"rits":7110,"Albi":7111,"orient":7112,"ĠtrobÃ¨t":7113,"arck":7114,"Apr":7115,"Ġjosie":7116,"Ġefec":7117,"Ġcantar":7118,"ĠsortiguÃ¨t":7119,"ĠmassÃŃs":7120,"ĠGeorg":7121,"Ġmitologia":7122,"ĠPeter":7123,"Ġsecretari":7124,"ĠdarrÃ¨r":7125,"Ġlududes":7126,"Ġtostemps":7127,"Ġmiliards":7128,"46":7129,"nia":7130,"ĠÃ¨ss":7131,"ĠlÃ¨i":7132,"ĠtÃ¨mas":7133,"Ġved":7134,"Ġbranc":7135,"Ġbizant":7136,"ĠconoguÃ¨t":7137,"Ġparets":7138,"Ġ1919":7139,"ĠLat":7140,"Ġtraces":7141,"opia":7142,"ĠJuan":7143,"Ġpresas":7144,"emat":7145,"ĠhÃ¨it":7146,"Ġrecer":7147,"Ġrecors":7148,"Ġcausir":7149,"Ġvielh":7150,"Anjau":7151,"ĠFrance":7152,"Ġ1789":7153,"donn":7154,"Ġdiferenci":7155,"Ġcampion":7156,"Ġespecific":7157,"Ġ1974":7158,"Ġsignes":7159,"Ġpremiers":7160,"Ġindica":7161,"Ġmarcar":7162,"ĠnÃ²ta":7163,"ĠprÃ²va":7164,"ĠfÃ²rtament":7165,"Ġdatant":7166,"Ġpossibla":7167,"ĠJacme":7168,"Ġoperacion":7169,"ĠNiÃ§a":7170,"Ġrural":7171,"Ġcontinuament":7172,"Ġproprietari":7173,"Ġviscut":7174,"ĠJoseph":7175,"81":7176,"Th":7177,"fis":7178,"ium":7179,"onesa":7180,"orig":7181,"iles":7182,"Ġ1900":7183,"Ġprivat":7184,"ssa":7185,"Ġplanetas":7186,"eval":7187,"Ġcalif":7188,"ours":7189,"giÃ¨rs":7190,"Ġcrist":7191,"Ġ1948":7192,"explor":7193,"Ġrenfor":7194,"Ġoposicion":7195,"Ġespaciala":7196,"Ġcomercial":7197,"Ġrecebut":7198,"Ġadoptat":7199,"Ġbilin":7200,"actuala":7201,"Ġcirculacion":7202,"Ġmestre":7203,"Ġmalhum":7204,"ĠDavid":7205,"Encara":7206,"99":7207,"Fo":7208,"Il":7209,"PÃ²t":7210,"ker":7211,"ĠdanÃ§":7212,"anne":7213,"orian":7214,"ĠtÃ¨sta":7215,"Ġeneb":7216,"rodus":7217,"âĢ¢":7218,"imb":7219,"apren":7220,"Ġinaugu":7221,"ĠRN":7222,"ĠGaston":7223,"Ã¨rament":7224,"Ġcapables":7225,"ĠDau":7226,"Ġarron":7227,"dec":7228,"ĠhÃ¨r":7229,"esse":7230,"Ġtermin":7231,"Ġreputacion":7232,"Ġpassion":7233,"Ġcomunista":7234,"Ġdebana":7235,"ĠservÃŃs":7236,"Ġ1986":7237,"Ġactuau":7238,"ĠrenfÃ²rÃ§":7239,"Ġassociat":7240,"Ġcobr":7241,"Ġindividu":7242,"Ġinstruments":7243,"ARN":7244,"isfÃ¨ri":7245,"aperaquÃŃ":7246,"Ġcomportament":7247,"cada":7248,"dica":7249,"java":7250,"lacion":7251,"ĠÅ":7252,"antes":7253,"Ġsp":7254,"Ġsop":7255,"Ġcima":7256,"Ġcuri":7257,"und":7258,"entin":7259,"rov":7260,"tig":7261,"Ġmairala":7262,"izats":7263,"Ġteles":7264,"ĠDou":7265,"Ġauc":7266,"ĠÂ°":7267,"Ã¨rsa":7268,"Ġexperiment":7269,"Ġresulta":7270,"rast":7271,"Ġpeleg":7272,"Ġansin":7273,"ĠrelÃ¨u":7274,"Ġcald":7275,"Ġsocialas":7276,"ĠgrÃ²s":7277,"Ġprovis":7278,"ĠUniversitat":7279,"Ġpublicar":7280,"Ġreconegut":7281,"Ġnaturalas":7282,"ienne":7283,"Ġporg":7284,"Ġdispon":7285,"ComencÃ¨t":7286,"andie":7287,"ĠColl":7288,"Ġprimit":7289,"ĠCorÃ¨a":7290,"Ġprobable":7291,"Ġquimia":7292,"analisi":7293,"Ġenemics":7294,"Ġritme":7295,"Ġnoblesa":7296,"Col":7297,"Ev":7298,"IB":7299,"wa":7300,"enaris":7301,"Ġcit":7302,"inci":7303,"Ġmissions":7304,"alicion":7305,"ĠquÃ©":7306,"Ġenfin":7307,"gust":7308,"Ġrepert":7309,"Ġbul":7310,"ĠalianÃ§a":7311,"ĠMond":7312,"ĠAub":7313,"Ġprojec":7314,"ĠVir":7315,"ĠDr":7316,"agn":7317,"Ġestructuras":7318,"alhon":7319,"ardo":7320,"Ġmonarquia":7321,"ĠHo":7322,"ĠHan":7323,"Ġclara":7324,"Ġregionala":7325,"Ġvien":7326,"ĠFrancis":7327,"Ġexplicar":7328,"Ġnacionalas":7329,"Ġartistica":7330,"Ġ1985":7331,"Ġreng":7332,"Ġportant":7333,"Ġ1936":7334,"Ġocupada":7335,"Ġdispos":7336,"Â».<|":7337,"ĠJacques":7338,"Ġobligat":7339,"ĠprovenÃ§au":7340,"ĠAlbert":7341,"iniciativa":7342,"Ġriquesa":7343,"ĠProvÃŃn":7344,"Sens":7345,"gger":7346,"erd":7347,"inada":7348,"omo":7349,"amer":7350,"Ġcoment":7351,"imas":7352,"ĠMans":7353,"ider":7354,"Enter":7355,"ĠformÃ¨ron":7356,"Ġpersec":7357,"Ġconfirm":7358,"Ġelim":7359,"Ġ160":7360,"ejatz":7361,"Ġculturau":7362,"Ġbarris":7363,"ĠmenaÃ§a":7364,"Totas":7365,"Ġestudiants":7366,"Ġvinha":7367,"FaguÃ¨t":7368,"establiment":7369,"Ġsovietic":7370,"umanitat":7371,"Non":7372,"gen":7373,"inats":7374,"Ġtucs":7375,"aup":7376,"Ġ1000":7377,"rana":7378,"ranqu":7379,"Ġsonat":7380,"Ã²rra":7381,"ĠPop":7382,"otam":7383,"ĠRa":7384,"Ġdiri":7385,"Ã©ser":7386,"Ġconstell":7387,"licat":7388,"Ġsoven":7389,"Ġlocals":7390,"Ġprenon":7391,"Ġbastidas":7392,"Ġdemorava":7393,"Ġ1983":7394,"Ġparticulas":7395,"Ġasiat":7396,"Ġintens":7397,"inhan":7398,"Ġdaissa":7399,"Ġretirar":7400,"Ġdinam":7401,"Ġlogici":7402,"Ġconcentracion":7403,"Ġinferiora":7404,"ĠsÃ²rre":7405,"52":7406,"As":7407,"fas":7408,"uca":7409,"enter":7410,"Ã¨ia":7411,"Ġlab":7412,"Ã²ia":7413,"entr":7414,"Ġfals":7415,"Ġrect":7416,"Ġsectors":7417,"ĠCir":7418,"ĠPass":7419,"ĠFin":7420,"ĠcÃ²de":7421,"Ã¨cas":7422,"egudas":7423,"Ġmanusc":7424,"Ġgris":7425,"Ġprovo":7426,"ombra":7427,"Ġrepresentan":7428,"Ġrepresentar":7429,"Ġ1975":7430,"Ġoficiau":7431,"ĠentraÃ¯nar":7432,"acaba":7433,"Ġnecessitat":7434,"Ġdirigir":7435,"Ġversions":7436,"Ġnomenats":7437,"Ġataca":7438,"olÃ²gs":7439,"96":7440,"nis":7441,"ski":7442,"Î¹":7443,"Ġdors":7444,"teb":7445,"Ġunes":7446,"Ġrej":7447,"Ġbru":7448,"ultan":7449,"Ġrisc":7450,"ĠSel":7451,"aper":7452,"ĠRÃ²ca":7453,"ĠDo":7454,"Enric":7455,"Ġpreci":7456,"arts":7457,"estats":7458,"Ġrecomp":7459,"encÃ¨ron":7460,"Ġamont":7461,"lars":7462,"ĠtrabalhÃ¨t":7463,"Ġjosieus":7464,"retz":7465,"Ġligats":7466,"ĠrenfÃ²r":7467,"Ġrestaur":7468,"ĠÃī":7469,"Ġdevesit":7470,"Ġrussa":7471,"Desc":7472,"Mapa":7473,"UR":7474,"lai":7475,"anti":7476,"ito":7477,"Ġestelas":7478,"Ġregul":7479,"Ġbandi":7480,"Ġcondu":7481,"Ã©e":7482,"ĠrÃ¨stas":7483,"ĠMic":7484,"Ġjardin":7485,"Ġespand":7486,"Ã²lta":7487,"edic":7488,"Ġreparti":7489,"ĠpolonÃ©s":7490,"Ġvira":7491,"Ġinterp":7492,"Ġutiliza":7493,"ĠcaÃ§a":7494,"Ġvisita":7495,"Estudi":7496,"Ġ1979":7497,"Ġtenir":7498,"Ġprofiech":7499,"Ġtradicionalas":7500,"Ġtecnologia":7501,"Ġjogaires":7502,"Ġpracticas":7503,"Ġculturalas":7504,"Ġrebat":7505,"ĠdialÃ²g":7506,"ĠCanadÃł":7507,"Ġpausar":7508,"Ġcandidats":7509,"Ġimperiala":7510,"ĠmodÃ¨rnes":7511,"ĠAlexandre":7512,"ismarck":7513,"ĠCIRD":7514,"Ġprecipitacions":7515,"57":7516,"hÃ¨":7517,"tament":7518,"vern":7519,"we":7520,"zon":7521,"Ġail":7522,"union":7523,"isan":7524,"itÃłnia":7525,"auriÃ¡":7526,"olar":7527,"Ġremont":7528,"Ġreaccions":7529,"Ã§ois":7530,"ĠCarn":7531,"ĠCiutat":7532,"adiÃ¡":7533,"apt":7534,"ĠAst":7535,"ĠEdicions":7536,"ĠDec":7537,"ecta":7538,"ings":7539,"Ġcoron":7540,"Ġromanas":7541,"especi":7542,"Ġrob":7543,"Ġ800":7544,"Ġ1964":7545,"Ġ1965":7546,"Ġdiscu":7547,"Ġproduches":7548,"ĠpapiÃ¨r":7549,"ĠdemandÃ¨t":7550,"Ġprecision":7551,"accÃ¨s":7552,"ĠbÃ²sc":7553,"ĠÃ§aquel":7554,"''":7555,"97":7556,"rut":7557,"ĠdÃ¯":7558,"Ġmori":7559,"ortacion":7560,"entu":7561,"Ġquina":7562,"Ġtamb":7563,"dadas":7564,"Ġnh":7565,"tagon":7566,"rovi":7567,"Ã§ament":7568,"ĠCorn":7569,"istat":7570,"ensis":7571,"Ġteiss":7572,"Ġprior":7573,"Ġgenres":7574,"experiÃ©ncia":7575,"Ġtornat":7576,"Ġrevira":7577,"Ġannex":7578,"ĠMonts":7579,"Ġ2016":7580,"Ġcoord":7581,"Ġaragon":7582,"Ġ1981":7583,"ĠnÃ²vas":7584,"gny":7585,"Ġomenatge":7586,"Ġcambra":7587,"ĠcomencÃ¨":7588,"ĠGeorge":7589,"Ġextremitat":7590,"Ġbacin":7591,"NC":7592,"by":7593,"dors":7594,"Ãī":7595,"Ð°":7596,"ĠÃ©s":7597,"raire":7598,"Ġfec":7599,"ico":7600,"Ġbod":7601,"Ġbrasil":7602,"ĠNad":7603,"Ens":7604,"egar":7605,"ĠcontÃ¨xte":7606,"ĠpreÃ¯st":7607,"estra":7608,"Ġchaus":7609,"ingo":7610,"Ġpublicas":7611,"Ã¨rias":7612,"Ġestatjants":7613,"Ġlongas":7614,"efÃ¨cte":7615,"Ġvalent":7616,"Ġistorians":7617,"embl":7618,"ĠJoana":7619,"Ġnotada":7620,"afond":7621,"Ġ1969":7622,"ĠnecessÃłria":7623,"ĠdirÃ¨cte":7624,"Ġurbana":7625,"ĠtendÃ©ncia":7626,"Ġaperat":7627,"informacions":7628,"ngria":7629,"Ġdesvelop":7630,"ĠPhilippe":7631,"nois":7632,"rÃŃ":7633,"Î½":7634,"engu":7635,"Ġculh":7636,"unica":7637,"orv":7638,"rag":7639,"Ġnim":7640,"ilatge":7641,"Ġredig":7642,"Ġblat":7643,"Ġbois":7644,"antat":7645,"abat":7646,"orsa":7647,"ĠVel":7648,"europ":7649,"edia":7650,"ipÃ¨dia":7651,"Ãłndia":7652,"Ġvolcans":7653,"Ġelas":7654,"efi":7655,"Ġlocutors":7656,"ajudar":7657,"ĠdescobÃ¨rt":7658,"Ġfebrier":7659,"ĠprÃ²cha":7660,"ĠbraÃ§":7661,"ĠfotbÃ²l":7662,"ĠacceptÃ¨t":7663,"Ġadministratiu":7664,"ĠMolin":7665,"Ġirre":7666,"Particip":7667,"ĠPacific":7668,"AP":7669,"lad":7670,"rs":7671,"Ġdedins":7672,"Ġped":7673,"unta":7674,"isla":7675,"Ġty":7676,"Ġtardi":7677,"ĠenqÃ¼":7678,"Ġpera":7679,"Ġnaus":7680,"gument":7681,"osta":7682,"Ġborg":7683,"ĠTar":7684,"ĠpoÃ«":7685,"ĠNapoleon":7686,"Ġexig":7687,"emont":7688,"Ġord":7689,"ĠfinanÃ§":7690,"ney":7691,"Ġelevat":7692,"Anautita":7693,"Ġerig":7694,"ĠmenÃ¨t":7695,"Ġvege":7696,"Ġmorir":7697,"Ġbonas":7698,"Ġinvesti":7699,"ĠAntoni":7700,"Ġempachar":7701,"ĠMoselle":7702,"ĠtrÃ²Ã§":7703,"Ġapreci":7704,"Bas":7705,"Cer":7706,"Doas":7707,"balha":7708,"je":7709,"my":7710,"uari":7711,"Ġcro":7712,"Ġedifici":7713,"elev":7714,"ĠconferÃ©ncia":7715,"Ġsona":7716,"Ãłbia":7717,"diana":7718,"ĠBig":7719,"ĠprÃ²sa":7720,"ĠEmp":7721,"ĠVille":7722,"Ġhem":7723,"exterior":7724,"ept":7725,"ĠseguÃŃs":7726,"Ġrevistas":7727,"Ġels":7728,"Ġ1976":7729,"ĠRoch":7730,"rÃłlia":7731,"ÃĴme":7732,"Ġdobla":7733,"ĠministÃ¨ri":7734,"Ġinternacionau":7735,"Ġdimenge":7736,"Ġweb":7737,"ĠGeneralitat":7738,"Ġrurala":7739,"ĠportuguÃ©s":7740,"ĠBritanics":7741,"telligÃ©ncia":7742,"ĠCorsega":7743,"ĠGovÃ¨rn":7744,"Ext":7745,"Mes":7746,"bus":7747,"uz":7748,"xemb":7749,"enar":7750,"ortat":7751,"old":7752,"ĠBay":7753,"Ġdestac":7754,"ĠRoss":7755,"ĠNig":7756,"ĠNimes":7757,"emisfÃ¨ri":7758,"manhe":7759,"Ġmilion":7760,"Ġ170":7761,"Ġpersonala":7762,"ĠmetÃ²des":7763,"ĠpresentÃ¨t":7764,"Ġmite":7765,"Ġ1961":7766,"Ġ1932":7767,"Ġ1933":7768,"vasions":7769,"Ġpesca":7770,"Ġtraversada":7771,"Ġtuar":7772,"Ġ1901":7773,"Ġnormalament":7774,"ĠJosÃ©":7775,"ĠSoleu":7776,"Ġadaigat":7777,"Ġferrovi":7778,"enfant":7779,"ĠindividÃºs":7780,"individ":7781,"ĠcongrÃ¨s":7782,"Ġsieuna":7783,"Ġmasculin":7784,"Ġestandard":7785,"Ġbrancas":7786,"ADN":7787,"hen":7788,"iera":7789,"ode":7790,"ĠsÃ¯":7791,"ciÃ³":7792,"Ġfich":7793,"italh":7794,"Ġnacions":7795,"Ġnue":7796,"Ġbanda":7797,"Ġgel":7798,"Ġgles":7799,"ĠAqu":7800,"ĠBismarck":7801,"Ġdespar":7802,"Ġsued":7803,"ĠVia":7804,"impaus":7805,"ostau":7806,"Ġcarr":7807,"Ġgranja":7808,"osse":7809,"Ġaquer":7810,"upcion":7811,"Ġrock":7812,"Ġdescripcion":7813,"pausÃ¨t":7814,"ĠArt":7815,"Ġfaches":7816,"Ġbaish":7817,"Ġdessepar":7818,"ĠcarriÃ¨ras":7819,"ĠMay":7820,"Ġsindic":7821,"Ġacabar":7822,"Ġmaterials":7823,"Ġmobiliz":7824,"Ġcatolica":7825,"Ġrenovel":7826,"Ġdivisions":7827,"91":7828,"Cre":7829,"run":7830,"Ġong":7831,"ĠdanÃ§a":7832,"Ġpit":7833,"Ġaccident":7834,"Ã¨cia":7835,"ero":7836,"quÃ¨stra":7837,"alar":7838,"Ã²qui":7839,"isca":7840,"riga":7841,"ĠnÃ¨u":7842,"Ġparet":7843,"otat":7844,"ĠdesÃ¨rt":7845,"ĠindependÃ©ncia":7846,"ĠGau":7847,"ĠGren":7848,"Ġsugger":7849,"izÃ¨t":7850,"ĠLuc":7851,"ĠJames":7852,"Ġabond":7853,"Ġactiva":7854,"Ġgeni":7855,"Ġoccitanista":7856,"ĠtrÃ²n":7857,"Ġbasco":7858,"Ġintermedi":7859,"ĠUnivers":7860,"Ġconstituida":7861,"Ġimmens":7862,"Ġbastits":7863,"Ġvariantas":7864,"Ġfilhas":7865,"Ġequival":7866,"ĠterrÃ¨stre":7867,"Ġdimension":7868,"Ġseparat":7869,"Ġacabat":7870,"ondacion":7871,"Ġacceptar":7872,"Ġcomplement":7873,"Ġexecutiu":7874,"Ġmolecula":7875,"Ġvitic":7876,"Ġcomandament":7877,"ĠBlanc":7878,"Ġlegislatiu":7879,"ĠArgentina":7880,"Actualament":7881,"ĠÃ§aquelÃł":7882,"Aub":7883,"Asia":7884,"Man":7885,"ae":7886,"gÃ¨l":7887,"jaments":7888,"zac":7889,"Ð¾":7890,"Ġdign":7891,"ĠpÃ²l":7892,"ĠmÃ²de":7893,"riz":7894,"Ġperpaus":7895,"gus":7896,"Ġdeleg":7897,"ilat":7898,"oling":7899,"Ġ(Â«":7900,"Ã§adas":7901,"ĠCD":7902,"ĠCultura":7903,"Ã©t":7904,"ĠpariÃ¨r":7905,"ĠAquel":7906,"Ġjudici":7907,"ĠRes":7908,"Ġprumi":7909,"ĠTib":7910,"ĠViv":7911,"ĠVers":7912,"Ġhaut":7913,"Ġimpression":7914,"Ġdemocracia":7915,"Ġrecob":7916,"sses":7917,"Permet":7918,"utilizan":7919,"Ġjornalista":7920,"Ãºst":7921,"ĠdiferÃ©ncias":7922,"ĠempÃ¨ri":7923,"Ġaguest":7924,"ĠfasiÃ¡n":7925,"Ġfisician":7926,"Ġmontar":7927,"edifici":7928,"ĠCastell":7929,"Ġcercaires":7930,"ĠdialÃ¨cte":7931,"ĠSaladin":7932,"ĠSolar":7933,"Ġpossibilitats":7934,"Ostau":7935,"Ġinfluenci":7936,"Ġmaquina":7937,"ĠreconeissenÃ§a":7938,"ĠcelÃ¨bra":7939,"Ġtanpauc":7940,"Ġlimitrophe":7941,"Sembla":7942,"ĠtelescÃ²p":7943,"73":7944,"nam":7945,"yd":7946,"Ġdegut":7947,"Ġpeth":7948,"Ġsigne":7949,"quist":7950,"Ġlai":7951,"ordi":7952,"Ġvaiss":7953,"ĠvÃ¨rb":7954,"ĠCiv":7955,"ĠrÃłdio":7956,"ĠPap":7957,"ĠBulg":7958,"ĠLar":7959,"ĠVau":7960,"associ":7961,"Ġaplicacion":7962,"ĠIst":7963,"Ġmaritim":7964,"Ġestric":7965,"Ġmascle":7966,"exc":7967,"the":7968,"Ġformats":7969,"Antiquitat":7970,"ĠAnn":7971,"ourn":7972,"Ġpublicada":7973,"Ġ130":7974,"asco":7975,"ĠmandÃ¨t":7976,"Ġterrens":7977,"Ġlogica":7978,"Ġinformacions":7979,"ĠAntÃ²ni":7980,"Ġaproxim":7981,"Ġfrasa":7982,"Ġvegetacion":7983,"94":7984,"Plan":7985,"bat":7986,"pren":7987,"Ġilla":7988,"Ġaci":7989,"Ġaust":7990,"Ã²cia":7991,"Ġfeu":7992,"Ġquilh":7993,"Ġvre":7994,"imag":7995,"Ġalunh":7996,"Ġmair":7997,"Ġpogut":7998,"Ġsusvelh":7999,"Ġartes":8000,"ĠcomprÃ©s":8001,"ĠJaume":8002,"Ġfactors":8003,"Ġprep":8004,"arth":8005,"elhon":8006,"edura":8007,"egur":8008,"Ġformant":8009,"Ġche":8010,"ronta":8011,"ups":8012,"Ġelector":8013,"Ġobjectius":8014,"Ġexpedicion":8015,"ĠportÃ¨t":8016,"Ġistoricas":8017,"Ġblancs":8018,"ĠPaÃ¯ses":8019,"Ġ1921":8020,"Ġlevar":8021,"Ġpintor":8022,"ĠCapit":8023,"ĠAbC":8024,"Ġfrontiera":8025,"ĠvegÃ¨t":8026,"Ġfluvi":8027,"Ġdeterminar":8028,"Ġdestinada":8029,"equipa":8030,"Ġcomunautats":8031,"Ġbreton":8032,"Ġconnectant":8033,"OPLO":8034,"NS":8035,"Vos":8036,"lÃ¨us":8037,"uro":8038,"Ġolog":8039,"Ġmiss":8040,"ises":8041,"ram":8042,"Ġvess":8043,"Ġsemi":8044,"Ġbrilh":8045,"Ġotom":8046,"ĠparÃ§an":8047,"ĠBlu":8048,"abulari":8049,"idors":8050,"izadas":8051,"acci":8052,"assan":8053,"Ġaucup":8054,"Ġautas":8055,"ĠHe":8056,"Ġclergat":8057,"ĠpodÃ¨tz":8058,"aucup":8059,"ĠKh":8060,"Ġafir":8061,"efiÃ¨ch":8062,"Ġlocalit":8063,"ĠrespÃ¨ct":8064,"Ġ1978":8065,"Ġpropag":8066,"Ġ1947":8067,"Ġapareisson":8068,"Ġcombus":8069,"Ġfemin":8070,"Ġvesinas":8071,"Ġautoritat":8072,"ĠentraÃ¯nÃ¨ron":8073,"Ã¨ths":8074,"Ġfebla":8075,"ĠestudiÃ¨t":8076,"aumentacion":8077,"orbita":8078,"Ġensenhaires":8079,"Ġinferior":8080,"Ġprotestants":8081,"Ġcronica":8082,"Ġtamben":8083,"ĠÃ¨ssers":8084,"acha":8085,"edicions":8086,"jÃ²us":8087,"ĠivÃ¨rn":8088,"Ġlus":8089,"Ã¨ne":8090,"Ġsenat":8091,"Ġedat":8092,"alb":8093,"isar":8094,"isis":8095,"ĠvÃ¨s":8096,"Ġreal":8097,"roch":8098,"tici":8099,"ĠSatur":8100,"ĠPEN":8101,"ĠAmb":8102,"otica":8103,"mias":8104,"egalitat":8105,"Ġhont":8106,"ĠfÃ²rma":8107,"Ã³r":8108,"Quau":8109,"Ġdemora":8110,"Ġreculh":8111,"enay":8112,"Ġencorat":8113,"ĠdisiÃ¡":8114,"puls":8115,"Ancian":8116,"Ġpresentas":8117,"Ġrepresentava":8118,"ĠComunitat":8119,"Ġ1966":8120,"Ġtengut":8121,"Ġ110":8122,"interpre":8123,"Ġtractats":8124,"ĠnÃ²us":8125,"Ġ1860":8126,"ĠperdÃ¨t":8127,"ĠIsraÃ¨l":8128,"Ġfrontieras":8129,"ĠVerd":8130,"ĠremplaÃ§ar":8131,"Ġescriches":8132,"ĠfaiÃ§on":8133,"ĠglaciÃ¨r":8134,"ĠcompetÃ©ncias":8135,"Ġlarga":8136,"eveniment":8137,"Ġdistricte":8138,"Ġremonta":8139,"ĠcontuniÃ¨t":8140,"Ġnimai":8141,"Sei":8142,"aga":8143,"fÃ³s":8144,"iens":8145,"ks":8146,"ĠÏ":8147,"tec":8148,"Ġpig":8149,"itler":8150,"Ġtonas":8151,"Ġvents":8152,"ilia":8153,"Ġrecebre":8154,"insc":8155,"tian":8156,"aplicacion":8157,"Ġteat":8158,"opotam":8159,"Ġconsag":8160,"Ġpartenari":8161,"nay":8162,"Ġpolida":8163,"iure":8164,"Ġbasc":8165,"ĠÂ»<|":8166,"Ġgeneracions":8167,"casion":8168,"Ġcapitani":8169,"Als":8170,"ĠrevÃ²":8171,"Ġafars":8172,"Ġpossessions":8173,"Ġnoir":8174,"Ġbarb":8175,"ĠasteroÃ¯":8176,"ĠcambiÃ¨t":8177,"Ġconver":8178,"eriana":8179,"Ġgeograf":8180,"Ġdichas":8181,"Ġoriginari":8182,"Ġvendut":8183,"ational":8184,"ĠTrenc":8185,"ĠManuel":8186,"Ġpreparar":8187,"ĠaspÃ¨cte":8188,"Ġmessatge":8189,"Ġsilenci":8190,"ĠCatol":8191,"Ġfossils":8192,"Representacion":8193,"ĠOccidentala":8194,"ocasion":8195,"Ġconsomacion":8196,"aventura":8197,"ĠgrÃ²ssa":8198,"Ġfaraon":8199,"FoguÃ¨ron":8200,"EP":8201,"Merc":8202,"rlanda":8203,"endeman":8204,"inÃ¨t":8205,"Ġtun":8206,"ilica":8207,"oll":8208,"Ġreten":8209,"ĠClub":8210,"ĠSÃ¨rgi":8211,"ĠPIB":8212,"ĠApol":8213,"ĠBat":8214,"ive":8215,"izantin":8216,"Ġaute":8217,"exemple":8218,"Ġaquera":8219,"ĠChal":8220,"Ġadvers":8221,"clop":8222,"ĠcaÃ§":8223,"ĠArd":8224,"ĠdarriÃ¨ras":8225,"Ġlongs":8226,"Aquestas":8227,"entrepresa":8228,"Ġ1946":8229,"ÃĴm":8230,"ortir":8231,"Ġlibert":8232,"ĠespanhÃ²u":8233,"Ġdetlo":8234,"Ġcaracterizada":8235,"Ġvirar":8236,"installacion":8237,"Ġmecanica":8238,"ĠCastÃ¨l":8239,"ĠpÃ²rtan":8240,"ĠSovietica":8241,"Ġvictimas":8242,"Ġraconte":8243,"Ġdehens":8244,"Ġperspectiva":8245,"fiqu":8246,"loc":8247,"zz":8248,"Ïģ":8249,"enau":8250,"erva":8251,"ĠtÃ²c":8252,"omob":8253,"Ġunicament":8254,"Ġenes":8255,"ami":8256,"ĠSants":8257,"assada":8258,"eure":8259,"ĠveniÃ¡":8260,"Ġescamp":8261,"Ġesclaus":8262,"estin":8263,"oder":8264,"Ã¼r":8265,"Ã²sc":8266,"Ġdomina":8267,"ĠgovÃ¨rns":8268,"Ġconsiderats":8269,"Ġ1987":8270,"auds":8271,"ĠConvencion":8272,"rÃłcias":8273,"Ġegala":8274,"Ġdimensions":8275,"Atau":8276,"Ġcorts":8277,"Ġaumentacion":8278,"ĠacomencÃ¨ron":8279,"Ġmedieval":8280,"Ġdolor":8281,"ĠbibliotÃ¨ca":8282,"Ġsept":8283,"Ġcartas":8284,"ĠburÃ¨u":8285,"Ġproprietaris":8286,"Ġconstellacion":8287,"OM":8288,"Vi":8289,"rÃ²b":8290,"Åį":8291,"esques":8292,"quÃ©s":8293,"Ġmendre":8294,"ordon":8295,"aute":8296,"Ġvinh":8297,"Ġenvir":8298,"usat":8299,"ilar":8300,"oli":8301,"Ġremar":8302,"Ġconclus":8303,"ĠMess":8304,"ÃŃpol":8305,"Ġsues":8306,"ĠFont":8307,"ĠcapÃŃtol":8308,"urada":8309,"asse":8310,"assar":8311,"ĠNautor":8312,"ĠJorn":8313,"astica":8314,"escad":8315,"Ġrire":8316,"alizats":8317,"Ġcomunistas":8318,"Ġconstat":8319,"Ġagost":8320,"emplega":8321,"expedicion":8322,"Ġevid":8323,"Ġcaulet":8324,"Ġcambis":8325,"ĠlicÃ©ncia":8326,"Ġpreparacion":8327,"relh":8328,"ĠpÃ²ste":8329,"ĠdurÃ¨t":8330,"Ġregistres":8331,"ashington":8332,"Ġdoctrina":8333,"ĠGuillaume":8334,"Suc":8335,"franc":8336,"pin":8337,"ses":8338,"xic":8339,"Ġos":8340,"Ġdar":8341,"Ġsou":8342,"cies":8343,"uni":8344,"olia":8345,"Ġconcep":8346,"ĠSec":8347,"ĠSicÃŃ":8348,"Ġanat":8349,"igÃ¨n":8350,"Ġtotalitat":8351,"Ġmascles":8352,"edo":8353,"Ġrepren":8354,"Ġmanc":8355,"Ġseguentas":8356,"Ġsosmar":8357,"tivas":8358,"Ġdescrich":8359,"AquitÃłnia":8360,"Ġplaca":8361,"Ġutilizacion":8362,"encian":8363,"Ġmiei":8364,"ĠRoja":8365,"Ġromanica":8366,"Ġprofessors":8367,"Ã¨isas":8368,"ĠagricÃ²las":8369,"Ġrestaurar":8370,"ĠrÃ¨gla":8371,"Ġprivileg":8372,"ispens":8373,"instrument":8374,"Ġvigor":8375,"Di":8376,"Educ":8377,"Jac":8378,"MoriguÃ¨t":8379,"RN":8380,"ajar":8381,"ek":8382,"jo":8383,"rins":8384,"Âº":8385,"encia":8386,"Ġpura":8387,"Ġcran":8388,"Ã¨res":8389,"ilacion":8390,"Ġbons":8391,"istori":8392,"Ġprotagon":8393,"ĠFr":8394,"ĠLomb":8395,"ĠVit":8396,"Ġradio":8397,"Ġfinal":8398,"Ġprimier":8399,"Ġpassada":8400,"Ġviatges":8401,"Ġtransf":8402,"Ġcanon":8403,"Ġdesvolopada":8404,"ĠprovÃ²ca":8405,"Ġsasons":8406,"ĠArch":8407,"Ġconcurr":8408,"equilibri":8409,"Ġaisit":8410,"ripcions":8411,"ĠXXI":8412,"arquit":8413,"Ġprogramas":8414,"Ġindustrial":8415,"animals":8416,"Ġmaquinas":8417,"ĠOrientala":8418,"Ġfacultat":8419,"'<|":8420,"Cast":8421,"Div":8422,"Pren":8423,"Reg":8424,"Ġorn":8425,"enregist":8426,"Ġluna":8427,"teaux":8428,"Ġpesc":8429,"esi":8430,"Ġsanc":8431,"Ġminas":8432,"Ġlacs":8433,"entrada":8434,"Ġnerv":8435,"ĠnÃ²rmas":8436,"elab":8437,"Ġgo":8438,"Ġcond":8439,"ĠCres":8440,"ĠPla":8441,"ĠBl":8442,"ĠVinc":8443,"rasburg":8444,"Ġescritura":8445,"geria":8446,"Ġfachs":8447,"Ġrepresentat":8448,"Ġreligions":8449,"ariÃ¡s":8450,"Ġfavorable":8451,"Ġ1958":8452,"Ġpinturas":8453,"Ġsostenir":8454,"ĠEspanh":8455,"Ġcomerciala":8456,"Ġvocabulari":8457,"Ġquimica":8458,"Ġmusulman":8459,"Ãĩa":8460,"ĠCarlesmanhe":8461,"Ġengenh":8462,"Ġnucleara":8463,"Ġprogressivament":8464,"rupcion":8465,"Ġnarrat":8466,"Ġimpossible":8467,"Ġnotadament":8468,"AG":8469,"fan":8470,"ji":8471,"po":8472,"Ġul":8473,"ĠlÃ¨is":8474,"arbre":8475,"inion":8476,"entat":8477,"rael":8478,"Ġfant":8479,"dava":8480,"riva":8481,"ĠnÃ²tas":8482,"ush":8483,"Ġgara":8484,"Ġoc":8485,"etics":8486,"Ġrug":8487,"Ġrendre":8488,"ĠBau":8489,"irass":8490,"Ġdesemp":8491,"Ã¨ste":8492,"ĠTot":8493,"ĠpoÃ¨tas":8494,"ĠVent":8495,"Ġauia":8496,"ĠhÃ¨n":8497,"Ġabitat":8498,"Ġmarins":8499,"Ã¨gas":8500,"Ġcare":8501,"Ġracion":8502,"Ġorizont":8503,"ibal":8504,"Ġrepaus":8505,"Ġcreire":8506,"rick":8507,"ĠLac":8508,"erto":8509,"Ġsosterran":8510,"Ġsocials":8511,"Ġplaja":8512,"ĠAlbi":8513,"Ġagra":8514,"ejada":8515,"Ġ1971":8516,"Ġindispens":8517,"Ġlatina":8518,"Ġpagament":8519,"Ġdictat":8520,"Ġmarcant":8521,"ĠcomplÃ¨t":8522,"Ġmondial":8523,"Ġdinamica":8524,"ĠmodÃ¨rnas":8525,"Ġprosp":8526,"ĠdescubÃ¨rta":8527,"ĠMadrid":8528,"Ġliquid":8529,"Ġvictima":8530,"Retrach":8531,"ĠprovoquÃ¨t":8532,"Ge":8533,"GrÃłcias":8534,"Ja":8535,"OÃ¨st":8536,"Ofici":8537,"Pauc":8538,"bourg":8539,"gans":8540,"Ã¬":8541,"Ġtext":8542,"ene":8543,"ĠmÃ¨":8544,"itÃłrias":8545,"Ġquitar":8546,"Ġtic":8547,"Ġtomba":8548,"aua":8549,"ricitat":8550,"eleg":8551,"Ġbesti":8552,"Ã²ras":8553,"urats":8554,"lap":8555,"lack":8556,"ĠjÃ²ga":8557,"ĠGall":8558,"ĠTa":8559,"ĠTre":8560,"ĠEug":8561,"ĠVend":8562,"Ã¯c":8563,"Ã¯t":8564,"Ġtraject":8565,"Ġmedic":8566,"Ġcompeticion":8567,"eccions":8568,"Ã²tges":8569,"Ġmarci":8570,"Ġautent":8571,"Ġescand":8572,"escala":8573,"Ġrecenta":8574,"Ã¨ssus":8575,"Ġrelativa":8576,"Ġpoderosa":8577,"Ġcoalicion":8578,"Ġdarriera":8579,"Ġ1984":8580,"Ġbarra":8581,"Ġorganizar":8582,"Ġindo":8583,"intervencion":8584,"Ġ1951":8585,"Ġincor":8586,"ĠprocÃ¨ssus":8587,"Ġreligioses":8588,"Ġnautas":8589,"Ġtransformacion":8590,"actual":8591,"Ġsimilara":8592,"Ġsortit":8593,"ĠAragon":8594,"Ġpermanent":8595,"ĠparallÃ¨l":8596,"Ġjuris":8597,"Ġdisciplina":8598,"ĠConfederacion":8599,".)":8600,"Vilatge":8601,"get":8602,"iÃ¯":8603,"vill":8604,"one":8605,"Ġsoma":8606,"Ġcai":8607,"quim":8608,"olo":8609,"ĠbrÃ¨":8610,"Ġbrica":8611,"ĠPon":8612,"ĠPers":8613,"ĠPomp":8614,"ĠAves":8615,"ĠAtenas":8616,"abitat":8617,"Ġdesvol":8618,"Ġdesira":8619,"acs":8620,"Ġnomat":8621,"opÃ²rt":8622,"ĠexperiÃ©ncia":8623,"Ġmarina":8624,"artista":8625,"Ġeston":8626,"ropri":8627,"estre":8628,"escol":8629,"Ġtermi":8630,"Ġtruf":8631,"Ġrigor":8632,"Ã¨ssa":8633,"Ã²rdres":8634,"ĠChau":8635,"uba":8636,"Ġcapitar":8637,"ĠconcÃ¨rt":8638,"ĠrefÃºs":8639,"Ġfachas":8640,"ĠvisquÃ¨t":8641,"ĠUnidas":8642,"Ġrepresentacions":8643,"Ġ1963":8644,"Ġ1942":8645,"Ġdecor":8646,"Ġasc":8647,"Ġangl":8648,"ĠdintrÃ¨t":8649,"ĠexistÃ©ncia":8650,"Ġmolins":8651,"Ġextension":8652,"activitats":8653,"Ġemplegada":8654,"Ġregime":8655,"installÃ¨t":8656,"ĠBernard":8657,"Ġminoritat":8658,"ĠcontemporanÃ¨a":8659,"Ġgaulo":8660,"ĠmamifÃ¨rs":8661,"Ġsatisf":8662,"Ġquaranta":8663,"Ġarrondissement":8664,"Existisson":8665,"Ġrompedura":8666,"ĠCIRDÃĴC":8667,"Cl":8668,"aer":8669,"ny":8670,"tres":8671,"ule":8672,"Å£":8673,"Ġoss":8674,"Ġdang":8675,"Ġpec":8676,"esias":8677,"endrech":8678,"Ġsorn":8679,"ere":8680,"orf":8681,"entraÃ¯n":8682,"Ġquas":8683,"Ġtrip":8684,"ĠCÃ²r":8685,"uritat":8686,"ĠBai":8687,"ĠRib":8688,"Ġtrabalha":8689,"Ġplu":8690,"Ġpred":8691,"ĠpartenÃ§a":8692,"eguida":8693,"Ġtransicion":8694,"Ġsocialista":8695,"Ġutilizant":8696,"Ġprovocar":8697,"Ġdistribu":8698,"Ġdistribucion":8699,"Ġ1949":8700,"Ġbaron":8701,"Ġmoments":8702,"Ġpunta":8703,"Ġgramatica":8704,"aquestas":8705,"Ġnaviri":8706,"Ġdisponi":8707,"Ġmorala":8708,"Ġpintre":8709,"ĠconeissenÃ§as":8710,"Ġmantenir":8711,"Ġprecisa":8712,"Ġemplegats":8713,"ĠprecÃŃs":8714,"ĠvÃ²tes":8715,"Ġescambis":8716,"Ġestatsunidenca":8717,"Ġestimada":8718,"www":8719,"observacion":8720,"ĠPrincip":8721,"ĠAlsace":8722,"Ġjosieva":8723,"Gal":8724,"Oise":8725,"Va":8726,"Vista":8727,"eim":8728,"lt":8729,"matge":8730,"Äı":8731,"Å¼":8732,"enon":8733,"unificacion":8734,"Ġtalament":8735,"olin":8736,"Ġbenda":8737,"ranÃ§a":8738,"util":8739,"ĠMong":8740,"ĠSoma":8741,"ĠAuv":8742,"ÃŃvol":8743,"ĠBro":8744,"ĠBess":8745,"ĠFo":8746,"ĠDuc":8747,"ĠItal":8748,"Ġaven":8749,"Ġlengua":8750,"alhar":8751,"Ġcarrat":8752,"Ġordon":8753,"Ġorden":8754,"naise":8755,"Ġcolons":8756,"Ġformula":8757,"gonha":8758,"Ġdispausa":8759,"Ġatenh":8760,"Alb":8761,"ebas":8762,"Ġofensiva":8763,"berica":8764,"Ġ1977":8765,"ĠdivÃ¨rseis":8766,"rÃłs":8767,"Ġmelhors":8768,"acabar":8769,"Ġestabliments":8770,"Ġ1917":8771,"Ġespacis":8772,"Ġequipa":8773,"ASA":8774,"ectacles":8775,"ĠWikipÃ¨dia":8776,"Ġstation":8777,"ĠvidÃ¨o":8778,"istocrÃłcia":8779,"Educacion":8780,"93":8781,"AguÃ¨t":8782,"Madama":8783,"Tota":8784,"court":8785,"noc":8786,"rent":8787,"Ġdans":8788,"teur":8789,"ofici":8790,"rez":8791,"icar":8792,"uses":8793,"ĠSr":8794,"ĠPed":8795,"Ġparca":8796,"abol":8797,"Ã¨ster":8798,"ĠLand":8799,"ĠNacions":8800,"Ġcompres":8801,"ogÃ¨u":8802,"Ġhor":8803,"Ġordin":8804,"escrich":8805,"Ġsolucions":8806,"ouv":8807,"terie":8808,"Ġdependent":8809,"Ġader":8810,"ĠMarna":8811,"Ġcosm":8812,"Ġmoder":8813,"tencion":8814,"isher":8815,"Ġdestri":8816,"Ġnacionau":8817,"Ġ1988":8818,"Ġ1941":8819,"Ġliberacion":8820,"Ġinternacionalas":8821,"Ġ1905":8822,"Ġvocala":8823,"ocupar":8824,"Ġprecisament":8825,"qÃ¼ator":8826,"ĠBrun":8827,"Ġpoblacion":8828,"Ġmedisha":8829,"ĠSavoie":8830,"Ġjuridic":8831,"Ġabsoluda":8832,"Ġtemptativa":8833,"EstudiÃ¨t":8834,"AN":8835,"EC":8836,"gel":8837,"jac":8838,"lus":8839,"pan":8840,"unitats":8841,"ridas":8842,"Ġber":8843,"Ġblas":8844,"Ã©g":8845,"ĠSenh":8846,"ĠBarb":8847,"issÃ¨m":8848,"Ġdesl":8849,"ĠRu":8850,"ĠEt":8851,"obratge":8852,"Ġespir":8853,"ĠHol":8854,"Ġsolid":8855,"Ġchival":8856,"Ġstre":8857,"Ġgrope":8858,"Ġeths":8859,"Ġarabis":8860,"Ġartista":8861,"Ġproposicion":8862,"Ġnombr":8863,"Ġcontinents":8864,"Ġcivil":8865,"Ġdecidit":8866,"ixe":8867,"Ġesperit":8868,"Ġcomunicacions":8869,"Ġcuirass":8870,"Ġpaure":8871,"ĠrendÃ¨tz":8872,"periÃ©ncias":8873,"establir":8874,"Ġquinze":8875,"ĠRomania":8876,"Ġtombar":8877,"Ġatacas":8878,"Ġsimilar":8879,"Ġmaximala":8880,"ĠeficaÃ§":8881,"lantacion":8882,"espandÃŃs":8883,"ĠRogiÃ¨r":8884,"ĠtÃ²rna":8885,"ĠconferÃ©ncias":8886,"Ġimmediat":8887,"Ġadultes":8888,"ĠSicÃŃlia":8889,"Aper":8890,"DivÃ¨rs":8891,"Pa":8892,"Ut":8893,"hin":8894,"xes":8895,"Ġdrap":8896,"Ġsatge":8897,"cil":8898,"Ã²is":8899,"entrion":8900,"ĠvÃ¨n":8901,"Ġrevol":8902,"Ġgav":8903,"inspiracion":8904,"ĠCro":8905,"Ã©r":8906,"Ġois":8907,"ĠSeu":8908,"ĠSuÃ¨":8909,"ĠPatz":8910,"ĠAir":8911,"ĠRus":8912,"acÃ²m":8913,"Ġtex":8914,"ĠdijÃ²us":8915,"Ã¯da":8916,"Ġcomparas":8917,"Ġcomplex":8918,"ĠHam":8919,"Ġsosl":8920,"Ġobt":8921,"Ġqualque":8922,"Ġdomest":8923,"Ġcosina":8924,"Ġemper":8925,"Ġlocau":8926,"ĠMontanha":8927,"Ġindig":8928,"ĠtribÃº":8929,"Ġ1954":8930,"Ġbloc":8931,"Ġtestificat":8932,"Ġbraces":8933,"Ġdatan":8934,"ĠgrÃ¨va":8935,"Ġdessenhs":8936,"Ġsufra":8937,"Ġmusicala":8938,"ĠpÃ²sca":8939,"ĠresidÃ©ncia":8940,"ĠdesplaÃ§ament":8941,"ĠAtlantic":8942,"Ġtestimoni":8943,"Ġpretend":8944,"Ġmagnetic":8945,"integracion":8946,"ĠcÃ²stas":8947,"Ġrarament":8948,"Ġdiluns":8949,"ĠRichard":8950,"Ġsacrifici":8951,"Paul":8952,"Uc":8953,"actor":8954,"vila":8955,"Ð¸":8956,"ĠâĤ¬":8957,"enada":8958,"Ġsinc":8959,"Ġcana":8960,"quin":8961,"Ġmurs":8962,"unya":8963,"Ã²via":8964,"ĠvÃ©der":8965,"guÃ¨ri":8966,"eli":8967,"Ġinvasions":8968,"ĠLeg":8969,"Ġteorias":8970,"Ġarquitectura":8971,"oph":8972,"Ġcontar":8973,"Ġhom":8974,"ichona":8975,"Ġcargas":8976,"exerci":8977,"ipÃ¨la":8978,"Ġpassava":8979,"Ã²nts":8980,"Ġluenh":8981,"Ġamai":8982,"ĠChamb":8983,"Ġdobl":8984,"Ġsegurament":8985,"ĠAnton":8986,"tivitat":8987,"acid":8988,"identitat":8989,"Ġafar":8990,"ificats":8991,"Ġpersonalitat":8992,"Ġcooperacion":8993,"ĠsuccediguÃ¨t":8994,"Ġeren":8995,"Ġvisig":8996,"Ġpresentava":8997,"Ġactualas":8998,"Ġsabon":8999,"ĠintÃ¨rnas":9000,"Ġbastissa":9001,"aquestes":9002,"Ġ1934":9003,"istique":9004,"Ġciviliz":9005,"Ġfeble":9006,"ĠdecidiguÃ¨ron":9007,"ĠdaissÃ¨t":9008,"ĠÃĢustria":9009,"ĠdirÃ¨cta":9010,"Ġitalians":9011,"Ġdecisiu":9012,"Const":9013,"Ġabandonat":9014,"Ġprivada":9015,"Ġorganismes":9016,"Ġnegociar":9017,"ĠmalautiÃ¡s":9018,"Ġarrestat":9019,"Ġdedicat":9020,"Ġgigant":9021,"Ġlitoral":9022,"Ġflanc":9023,"AC":9024,"Deu":9025,"Nas":9026,"bra":9027,"gia":9028,"idi":9029,"pro":9030,"rants":9031,"Äģ":9032,"ËĿ":9033,"off":9034,"ĠmÃ²da":9035,"Ġtim":9036,"cionaris":9037,"Ġperif":9038,"ĠCle":9039,"ĠCont":9040,"Ã©m":9041,"Ã©p":9042,"eton":9043,"etar":9044,"chu":9045,"ĠBri":9046,"ĠGil":9047,"Ġsuus":9048,"mentacion":9049,"ĠFou":9050,"acÃ²rdi":9051,"ĠentiÃ¨ra":9052,"Ã©ncer":9053,"ĠabC":9054,"Ġescap":9055,"Ġmong":9056,"ĠpolÃŃcia":9057,"ingen":9058,"Ġkg":9059,"Ġseguretat":9060,"Ant":9061,"espandi":9062,"Ġpersonal":9063,"Ġaquest":9064,"Ġjaune":9065,"Ġservisson":9066,"Ġcodific":9067,"Ġpatri":9068,"Ġ1943":9069,"Ġparticulars":9070,"Ġintrodu":9071,"ativitat":9072,"ĠCatalans":9073,"Ġ1926":9074,"Ġtuats":9075,"ĠsimbÃ²ls":9076,"Ġusat":9077,"Ġvinhas":9078,"Ġcertaneis":9079,"Ġprevista":9080,"Char":9081,"Ġpaures":9082,"Ġafluents":9083,"actualitat":9084,"ĠveÃ¯culs":9085,"Ġeducacion":9086,"ĠdrÃ²lles":9087,"investi":9088,"Ġcencha":9089,"ĠmÃ²stran":9090,"ĠcÃ²mte":9091,"ÄıÅ¼":9092,"EE":9093,"Sal":9094,"Uei":9095,"kin":9096,"vari":9097,"Ãįndia":9098,"ĠlÃ¯":9099,"Ġaz":9100,"Ġcra":9101,"Ġcru":9102,"Ġmia":9103,"Ġquate":9104,"ĠvÃ²stra":9105,"Ġnsol":9106,"tiers":9107,"anto":9108,"ĠCerc":9109,"Ġalent":9110,"Ġrics":9111,"ĠMir":9112,"chat":9113,"ĠAz":9114,"igÃ©s":9115,"ĠGre":9116,"ĠTri":9117,"acu":9118,"Ġsituacions":9119,"Ġneb":9120,"Ġcrei":9121,"Ġcorta":9122,"Ġcomunica":9123,"Ġrevisc":9124,"Ġ2015":9125,"ĠconcÃ¨rts":9126,"Ġexpansion":9127,"retas":9128,"Ġdemorat":9129,"ĠInternet":9130,"rimÃ²ni":9131,"istiguÃ¨t":9132,"Ġaisidament":9133,"Ġtropa":9134,"Ġmotiv":9135,"ĠlingÃ¼istas":9136,"Dempuei":9137,"Ġculturals":9138,"Ġobtengut":9139,"Ġnaturau":9140,"Ġresponsabilitat":9141,"Ġorientalas":9142,"Ġprefectura":9143,"ĠprovenÃ§al":9144,"Ġciutadan":9145,"ĠLibre":9146,"ĠaspÃ¨ctes":9147,"Ġsegle":9148,"Ġegipcian":9149,"Ġatacar":9150,"ĠSovietics":9151,"ĠMinistre":9152,"Ġoctobre":9153,"Ġmaritima":9154,"Ġetapa":9155,"Certan":9156,"Oc":9157,"PS":9158,"Pus":9159,"hann":9160,"lÃłndia":9161,"rum":9162,"zacion":9163,"Ðµ":9164,"Ġpeis":9165,"Ġactritz":9166,"Ġaeriana":9167,"Ġssa":9168,"aran":9169,"ituras":9170,"Ġtin":9171,"Ġenquia":9172,"Ġreag":9173,"Ġreduccion":9174,"lev":9175,"ulada":9176,"Ġox":9177,"etre":9178,"ĠSon":9179,"ĠPale":9180,"Ãłment":9181,"ĠBizant":9182,"issen":9183,"ivern":9184,"Ġdesena":9185,"Ġpropaus":9186,"ĠRic":9187,"Ġprat":9188,"ĠTo":9189,"Ġsiu":9190,"Ġfactor":9191,"emia":9192,"ago":9193,"Ġescriu":9194,"estran":9195,"Ġgranjas":9196,"Ġ1830":9197,"ĠOn":9198,"ardia":9199,"Ġtrent":9200,"Ġrepart":9201,"Ġmunicipal":9202,"illas":9203,"evesque":9204,"Ġassemblada":9205,"ĠFranÃ§ois":9206,"Ġpopularas":9207,"Ġtranscripcion":9208,"Ġ1500":9209,"Ġpublicats":9210,"ĠComitat":9211,"Ġpensava":9212,"ĠcontunhÃ¨t":9213,"Ġnaturalament":9214,"Ġtradicionalament":9215,"Ġfrac":9216,"Ġportava":9217,"Ġpositiu":9218,"arry":9219,"Ġestablida":9220,"ĠThomas":9221,"Ġcrestian":9222,"ĠadoptÃ¨t":9223,"Ġpoblada":9224,"Ġmusulmana":9225,"Ġenvironat":9226,"Ġprotestant":9227,"Ġnumerica":9228,"Ġprigondor":9229,"ĠpermetiÃ¡":9230,"ĠChampagne":9231,"ĠNormandie":9232,"Ġproduccions":9233,"Ġgalaxias":9234,"ĠCollÃ¨gi":9235,"ĠBizantins":9236,"Ei":9237,"Ocup":9238,"cont":9239,"cÃ²l":9240,"evol":9241,"fÃ¨ra":9242,"lats":9243,"no":9244,"Ġdret":9245,"teau":9246,"Ġpira":9247,"Ġaig":9248,"anÃ¨t":9249,"ĠsÃ²rt":9250,"ofensiva":9251,"isas":9252,"rain":9253,"Ġth":9254,"ĠtÃ¨si":9255,"Ġnord":9256,"ĠnÃŃvol":9257,"ĠCult":9258,"ĠCour":9259,"Ġsonada":9260,"ĠrÃ²":9261,"Ġritu":9262,"ĠMira":9263,"chen":9264,"Ġparat":9265,"avitalh":9266,"Ġ250":9267,"ĠTemp":9268,"icicle":9269,"ĠLang":9270,"Ġpoiri":9271,"ĠNaz":9272,"ĠNASA":9273,"Ġarist":9274,"emin":9275,"Ġhu":9276,"Ġher":9277,"Ġmarcha":9278,"Ġreproduccion":9279,"Ġmagaz":9280,"ossed":9281,"introduccion":9282,"ĠdoÃ§a":9283,"aliza":9284,"alizadas":9285,"mann":9286,"Ġadm":9287,"Ġ65":9288,"Ġlegendas":9289,"Ġumor":9290,"Ġrealizadas":9291,"Ġcadenas":9292,"Ġnavala":9293,"Ġdiccionaris":9294,"Ã³nher":9295,"Ġ1956":9296,"ĠcontrarÃ²t":9297,"Ġ1910":9298,"Ġquartier":9299,"ĠLuxemb":9300,"Ġabandonar":9301,"ĠparlamentÃłria":9302,"Ġmainats":9303,"ĠGeneral":9304,"ĠGenerala":9305,"Ġmecanisme":9306,"ĠpÃ²stes":9307,"ĠassaiÃ¨ron":9308,"ĠlanÃ§ar":9309,"Ġrandonn":9310,"ĠcomplÃ¨xe":9311,"ĠcontemporanÃ¨us":9312,"ĠautonÃ²m":9313,"Compren":9314,"Ġcomandant":9315,"ĠInternacionala":9316,"Ġquatren":9317,"Ġcrompar":9318,"ĠPremiera":9319,"ĠrepertÃ²ri":9320,"fiquen":9321,"Dels":9322,"Pres":9323,"ood":9324,"ocean":9325,"sc":9326,"sh":9327,"ĠcÃ¨r":9328,"Ġcou":9329,"arisme":9330,"ery":9331,"Ġlater":9332,"entar":9333,"ĠfÃ¨stas":9334,"Ġnes":9335,"Ġnascuda":9336,"element":9337,"ĠbÃ²n":9338,"Ġbaia":9339,"Ġcomm":9340,"ĠSir":9341,"chel":9342,"irar":9343,"avesque":9344,"ĠFland":9345,"Ġpoesias":9346,"Ġtrau":9347,"ĠDins":9348,"Ġsaun":9349,"Ġresult":9350,"Ġconsol":9351,"odin":9352,"odÃ²":9353,"exans":9354,"Ġrecent":9355,"ibÃ¨rt":9356,"ossa":9357,"ĠChin":9358,"luÃ²c":9359,"ologicament":9360,"espanh":9361,"Ġplacas":9362,"Ġdominat":9363,"Ġgropes":9364,"Ġempres":9365,"Ġfils":9366,"Ġmenadas":9367,"Ġexplic":9368,"Ġpresentat":9369,"Inici":9370,"ĠcastÃ¨u":9371,"Ġconquistas":9372,"Ġfavorizar":9373,"Ġ1959":9374,"Ġmonts":9375,"Ġponchs":9376,"ĠdubÃ¨rt":9377,"Ġaumentar":9378,"Ġadoptada":9379,"ĠpresidÃ©ncia":9380,"Ġfruches":9381,"Ġcollectiva":9382,"Ġfolcl":9383,"Ġescambi":9384,"ĠBibl":9385,"american":9386,"ĠbearnÃ©s":9387,"Ġbaissa":9388,"Ġredaccion":9389,"ĠdirigiguÃ¨t":9390,"ĠAntonio":9391,"aucupacion":9392,"Apar":9393,"Cad":9394,"PÃ¨ire":9395,"Te":9396,"fi":9397,"ii":9398,"rors":9399,"Ġlect":9400,"test":9401,"ĠpÃ¯":9402,"ĠcrÃ¨":9403,"eros":9404,"erÃł":9405,"ortacions":9406,"omica":9407,"amo":9408,"gui":9409,"Ġbuta":9410,"anth":9411,"âĢĵ":9412,"Ġog":9413,"ĠrÃ²cas":9414,"utÃ¨t":9415,"ĠAis":9416,"ott":9417,"dians":9418,"ÃŃcias":9419,"avÃ³":9420,"ĠTrib":9421,"acadÃ¨mia":9422,"Ġpoetica":9423,"ĠDa":9424,"Ġarriu":9425,"deish":9426,"Ġtang":9427,"Ġcomprom":9428,"Ġdonan":9429,"Ġdemission":9430,"Ġdoctor":9431,"Ġrot":9432,"rosament":9433,"Ġdirectament":9434,"Ġvoler":9435,"Ġstres":9436,"ĠdomÃ¨ni":9437,"Ġtroba":9438,"Ġmeteor":9439,"Ġcore":9440,"ĠcrÃ©isser":9441,"Ġinfin":9442,"aurent":9443,"argar":9444,"ÃĪran":9445,"ĠFrancs":9446,"Ġliberat":9447,"Ġestablir":9448,"Ġ1929":9449,"Ġmassas":9450,"Ġsuperiors":9451,"Ġfiguras":9452,"Ġcompleta":9453,"Ġadaptat":9454,"Ġsobeirans":9455,"âĢĿ.<|":9456,"ĠVenÃ¨cia":9457,"Ġcinquanta":9458,"ĠPeninsula":9459,"Ġcicl":9460,"Ġagach":9461,"IS":9462,"cÃ¨t":9463,"eme":9464,"loss":9465,"Ã´":9466,"enry":9467,"onst":9468,"Ġaic":9469,"Ã¨its":9470,"Ã¨van":9471,"any":9472,"Ġsaut":9473,"Ġcants":9474,"inal":9475,"Ġfert":9476,"Ġvendre":9477,"ame":9478,"Ġcomitat":9479,"tiÃ¨rs":9480,"ims":9481,"Ġraras":9482,"ĠMu":9483,"ĠMunicip":9484,"ĠSev":9485,"Ġanterior":9486,"ensas":9487,"ĠRab":9488,"ĠRed":9489,"ĠGaul":9490,"ĠLev":9491,"iÃ¡s":9492,"Ġentau":9493,"ĠcapÃ¨la":9494,"ĠNelli":9495,"Ġliuras":9496,"Ġpretz":9497,"idae":9498,"Ġmarrit":9499,"Ã²lis":9500,"Ġplanas":9501,"Ġfrancs":9502,"Ġtresaur":9503,"Ã²nis":9504,"ĠLab":9505,"ĠLou":9506,"Ġdescriu":9507,"ĠWashington":9508,"aquia":9509,"Ġoncle":9510,"Ġvisit":9511,"Ġrespondre":9512,"Ġliga":9513,"Arrib":9514,"Inter":9515,"ĠapareguÃ¨ron":9516,"Ġnaturals":9517,"Ġtreb":9518,"Ġarribat":9519,"Ġblancas":9520,"Ġdichs":9521,"Ġ1955":9522,"Ġalemandas":9523,"ĠtÃŃtols":9524,"Ġbritanics":9525,"Ġviolonc":9526,"Ġmateriaus":9527,"ĠconselhiÃ¨r":9528,"Ġparlava":9529,"Ġcrosats":9530,"ĠfrequÃ©ncia":9531,"installar":9532,"Ġdenom":9533,"organisme":9534,"ĠCambra":9535,"Ġsobeiranetat":9536,"Ġevolu":9537,"ĠDepartament":9538,"Ġcolomnas":9539,"Ġcollectivitats":9540,"environament":9541,"Ġconfluisson":9542,"Ġrecerca":9543,"interpretacion":9544,"arquitÃ¨cte":9545,"'.<|":9546,"Az":9547,"Cas":9548,"Les":9549,"Santa":9550,"Vol":9551,"edas":9552,"non":9553,"pat":9554,"tant":9555,"Ġ+":9556,"Ġuc":9557,"anes":9558,"Ġsir":9559,"Ġcov":9560,"invent":9561,"ĠmÃ¨stres":9562,"Ġestet":9563,"Ġnol":9564,"guÃ©s":9565,"Ġbro":9566,"Ġbuf":9567,"Ġcomission":9568,"tique":9569,"ĠCin":9570,"ului":9571,"ĠrenaissenÃ§a":9572,"ĠMons":9573,"ĠMosc":9574,"Ġparad":9575,"aplica":9576,"ĠanÃ¨t":9577,"Ġincon":9578,"ĠLong":9579,"ande":9580,"main":9581,"Ġcapabla":9582,"ĠNic":9583,"ogia":9584,"Ġrestac":9585,"emergÃ©ncia":9586,"Ġpartiment":9587,"Ġcarris":9588,"Ġ1850":9589,"escriu":9590,"odat":9591,"existÃŃs":9592,"venir":9593,"ĠChart":9594,"Ġconstruccions":9595,"ĠrevÃ²lta":9596,"Ġcaf":9597,"Ġagrada":9598,"Ġensaj":9599,"ĠsubjÃ¨ctes":9600,"explica":9601,"ingÃ¼istica":9602,"Ġreconeguda":9603,"Ġjovent":9604,"Ġfisic":9605,"Ġinternacionalament":9606,"Ġ1953":9607,"ĠcritÃ¨ris":9608,"Ġbrave":9609,"Ġcombatents":9610,"Ġmaridar":9611,"Ġcostuma":9612,"ĠMartÃŃ":9613,"ĠdeclarÃ¨t":9614,"Ġamassada":9615,"ĠbÃ¨lga":9616,"Ġpermanenta":9617,"Ġcategorias":9618,"ĠGerman":9619,"Ġmadeish":9620,"Ġtestifiquen":9621,"Ġcentenats":9622,"ĠpluÃ¨ja":9623,"Ġebrieu":9624,"Ġreviradas":9625,"afondrament":9626,"ĠenqÃ¼Ã¨ra":9627,"Ġseptentrion":9628,"SuccediguÃ¨t":9629,"ĠAvesnois":9630,"AM":9631,"Aust":9632,"Ger":9633,"IC":9634,"The":9635,"Ver":9636,"VaquÃŃ":9637,"comp":9638,"dan":9639,"dau":9640,"gal":9641,"jol":9642,"vador":9643,"endissatge":9644,"alianÃ§a":9645,"Ã²ure":9646,"oman":9647,"aure":9648,"ĠvÃ²st":9649,"olis":9650,"tible":9651,"imatges":9652,"Ã©isher":9653,"aduras":9654,"alava":9655,"idats":9656,"ĠFeb":9657,"ĠLÃ©":9658,"Ġpoir":9659,"ĠVath":9660,"Ġtram":9661,"Ġapondre":9662,"Ġsites":9663,"Ġavia":9664,"Ġmarrida":9665,"Ã³isser":9666,"Ġimplant":9667,"Ġneer":9668,"venÃ§":9669,"Ġ36":9670,"Ġcanad":9671,"ordin":9672,"Ġrespectivament":9673,"ejaire":9674,"Armada":9675,"Ġorganizacions":9676,"ĠpaÃ¯satge":9677,"Ġindiana":9678,"ĠFrancesc":9679,"ĠCatalunya":9680,"ĠterrÃ¨stres":9681,"Ġ1924":9682,"Ġincomp":9683,"Ġpremierei":9684,"ĠacabÃ¨t":9685,"Ġ1890":9686,"Ġprevei":9687,"ĠaumentÃ¨t":9688,"Ġcantaira":9689,"Demest":9690,"Ġenvironament":9691,"Ġcapacitats":9692,"ĠcompetÃ©ncia":9693,"escais":9694,"Ġremarcar":9695,"FranÃ§a":9696,"Ġtemptativas":9697,"ĠNegra":9698,"Ġchifras":9699,"Ġgeometria":9700,"ĠrevÃ²utas":9701,"MÃ¨s":9702,"bona":9703,"jor":9704,"nascut":9705,"uil":9706,"wan":9707,"yr":9708,"Ġilh":9709,"enz":9710,"atia":9711,"ataca":9712,"alfabet":9713,"itament":9714,"Ġvib":9715,"Ġnis":9716,"elin":9717,"Ġdelim":9718,"adament":9719,"ĠMit":9720,"ĠPapa":9721,"apas":9722,"Ġanava":9723,"Ġanalis":9724,"ÃŃder":9725,"Ġproto":9726,"tanh":9727,"ĠFra":9728,"ĠLam":9729,"ĠtraÃ§as":9730,"Ġtradus":9731,"impression":9732,"Ġmeme":9733,"ĠJu":9734,"Ġautoct":9735,"Ã¨cres":9736,"estina":9737,"exili":9738,"sse":9739,"Ġcreiss":9740,"Ġvius":9741,"ĠcaliÃ¡":9742,"Ġcapita":9743,"Ã²ste":9744,"Ġmodul":9745,"Ġverteb":9746,"ĠTolon":9747,"Ġsubt":9748,"Ġaguesta":9749,"Ġveitura":9750,"Ġproductor":9751,"ĠprepausÃ¨t":9752,"Ġcinemat":9753,"Ġcriticas":9754,"Ġ1907":9755,"ĠColle":9756,"ĠJosÃ¨p":9757,"Ġacabada":9758,"Ġpetita":9759,"Ġpotenci":9760,"Ġsauv":9761,"Conf":9762,"Ġelectrica":9763,"Ġdusau":9764,"Ġtelefon":9765,"Ġdissol":9766,"Ġbeutat":9767,"Ġorganisme":9768,"ocratica":9769,"Organiz":9770,"Marna":9771,"Ġdeclaracion":9772,"Ġintegrat":9773,"ĠGram":9774,"Ġinteressant":9775,"idaritat":9776,"Ġvasta":9777,"ĠMedecina":9778,"ĠMinistÃ¨ri":9779,"ĠMesopotam":9780,"Ġegipciana":9781,"Ġvideoj":9782,"ĠNicolas":9783,"ĠOlimpics":9784,"ĠPeitieus":9785,"Ġdispositiu":9786,"ĠtrajectÃ²ria":9787,"Ġcivilizacions":9788,"NES":9789,"Pass":9790,"long":9791,"ubre":9792,"ufa":9793,"ward":9794,"onat":9795,"Ġpist":9796,"alem":9797,"alien":9798,"Ġtap":9799,"guai":9800,"Ġrencont":9801,"aderia":9802,"Ġparlada":9803,"oto":9804,"ensivas":9805,"ĠBaud":9806,"Ġambed":9807,"ĠGaud":9808,"Ġsuici":9809,"ĠEv":9810,"ĠVan":9811,"ĠDra":9812,"Ġcontribucion":9813,"Ġtotau":9814,"emarc":9815,"Ġabst":9816,"Ġabril":9817,"idacion":9818,"Ġacad":9819,"Ġcarre":9820,"Ġrac":9821,"ĠuÃ¨it":9822,"Ġreclam":9823,"Ġrelief":9824,"renÃ§":9825,"Ġelev":9826,"Ġadre":9827,"ĠadvÃ¨rs":9828,"Ġ55":9829,"Ġmeteisses":9830,"Ġrdre":9831,"Ġcristi":9832,"Ġarticul":9833,"Ġconstituissi":9834,"ĠtÃ¨rÃ§":9835,"Ġtenon":9836,"ĠMaine":9837,"ĠarribÃ¨ron":9838,"Ġ1925":9839,"Ġcirconst":9840,"Ġvenda":9841,"Ġnumeric":9842,"ĠprÃ²pris":9843,"ĠRegim":9844,"Ġsaupre":9845,"Ġpartejat":9846,"Ġ1848":9847,"Ġpresidents":9848,"Ġquantitats":9849,"Ġquinz":9850,"Ġcatolic":9851,"Ġcatolics":9852,"Ġfranci":9853,"ĠCrosats":9854,"Ġfilms":9855,"ĠsubstÃłncia":9856,"Ġjustific":9857,"Ġcapturat":9858,"Ġscientificas":9859,"Ġrescontre":9860,"Ġprecedents":9861,"Ġlunar":9862,"ĠConstantinÃ²ple":9863,"ĠGeorges":9864,"Ġdificil":9865,"aspÃ¨cte":9866,"ĠborgesiÃ¡":9867,"osaures":9868,"Ãºstria":9869,"):":9870,"Em":9871,"uals":9872,"veire":9873,"estes":9874,"ĠsÃ²m":9875,"arem":9876,"aristocrÃłcia":9877,"atj":9878,"alia":9879,"Ġfal":9880,"itima":9881,"ĠesfÃ²rÃ§":9882,"Ġncias":9883,"guÃ¨":9884,"Ġgor":9885,"ĠMÃ©":9886,"ĠSag":9887,"ĠPichon":9888,"ĠBabil":9889,"Ġjac":9890,"Ã¡s":9891,"ĠRio":9892,"ĠDal":9893,"ĠhÃ²rt":9894,"Ġhusta":9895,"Ã¨gis":9896,"Ġestud":9897,"Ġraion":9898,"Ġorala":9899,"Ġoccitanistas":9900,"Ġmesurar":9901,"Ġvirada":9902,"Ġelei":9903,"Ġassist":9904,"Ġpopulars":9905,"ieras":9906,"Ġobs":9907,"Ġcapitan":9908,"Ġprodutz":9909,"ĠplaÃ§as":9910,"ĠAlf":9911,"Ġverda":9912,"ĠglÃ²b":9913,"Ġofr":9914,"Ġcoer":9915,"Ġensajar":9916,"ĠdeviÃ¡n":9917,"riÃ¡n":9918,"ĠcomenÃ§at":9919,"Ġmantuas":9920,"Ġartistic":9921,"ĠsabÃ¨m":9922,"Ġ1931":9923,"Ġ1937":9924,"Ġ1938":9925,"Ġsimpl":9926,"Ġsimples":9927,"ĠsecrÃ¨t":9928,"Ġajust":9929,"eishen":9930,"urban":9931,"plomb":9932,"Ġsostengut":9933,"Ġvegada":9934,"Ġ1880":9935,"ĠTrÃŃpol":9936,"Associacion":9937,"Ġabandonada":9938,"Ġdevesida":9939,"Ġpopularitat":9940,"Ġarbit":9941,"ctav":9942,"ĠLiber":9943,"ĠdesplaÃ§ar":9944,"Ġprosper":9945,"ĠVict":9946,"ĠdejÃ³s":9947,"Ġmarchands":9948,"Ġtestifica":9949,"leuve":9950,"ĠmediterranÃ¨u":9951,"ĠrenfÃ²rÃ§ar":9952,"Ten":9953,"axe":9954,"latge":9955,"ualas":9956,"vetz":9957,"Îµ":9958,"Ïĥ":9959,"Ġ×":9960,"onf":9961,"ĠcÃ¨rt":9962,"arde":9963,"Ġfat":9964,"Ġfantas":9965,"icalas":9966,"amassa":9967,"Ġnost":9968,"Ġnais":9969,"ĠCÃ²n":9970,"randa":9971,"ĠMet":9972,"ĠMalh":9973,"ĠSul":9974,"diu":9975,"ĠGor":9976,"ĠFol":9977,"ĠTorn":9978,"acum":9979,"ĠIb":9980,"ocats":9981,"articles":9982,"intura":9983,"Ġchuc":9984,"Ġcausar":9985,"Ġfamosas":9986,"ĠviÃ¨lhs":9987,"Ġdefug":9988,"ĠatmosfÃ¨ra":9989,"Ġafront":9990,"Ġtrobam":9991,"Ġmenat":9992,"ĠComm":9993,"ĠComte":9994,"Ġbarre":9995,"Ġrealizats":9996,"Ġflam":9997,"Ġfasas":9998,"Ġfial":9999,"inator":10000,"Ġveituras":10001,"Ġposterior":10002,"Ġprepausat":10003,"Ġamericans":10004,"Ġsinta":10005,"Ġtalent":10006,"Ġconservacion":10007,"Ġdetalhs":10008,"Ġbritanicas":10009,"Ġresponsables":10010,"ĠbalhÃ¨t":10011,"Ġdesignat":10012,"Ġmilitant":10013,"Ġelectric":10014,"Ġjutjament":10015,"oxid":10016,"Ġmusical":10017,"ĠTeod":10018,"Ġmainatge":10019,"Ġdesaparegut":10020,"Ġlegislativas":10021,"Ġmicro":10022,"Ġestatsunidenc":10023,"Ġinterpretacion":10024,"Ġdedicada":10025,"ĠComunautat":10026,"Ġcircons":10027,"Ġcoton":10028,"Ġmiralh":10029,"Ġpentru":10030,"ĠvÃ¨spre":10031,"ĠTrencavel":10032,"ĠGaulle":10033,"ĠMesopotamia":10034,"Dev":10035,"Grand":10036,"Ro":10037,"age":10038,"cf":10039,"sas":10040,"ugas":10041,"utada":10042,"ÏĦ":10043,"Ġit":10044,"ĠâĢĻ":10045,"Ġlir":10046,"esu":10047,"Ġmosa":10048,"Ġlava":10049,"Ġfederacion":10050,"oms":10051,"riment":10052,"amon":10053,"tain":10054,"roit":10055,"Ġconcili":10056,"Ġod":10057,"Ġov":10058,"eto":10059,"ĠrÃ²ca":10060,"ĠSNC":10061,"Ġparas":10062,"Ġpastor":10063,"ĠBoss":10064,"ĠBatalha":10065,"ĠBasses":10066,"Ġintra":10067,"ĠVilla":10068,"ĠViet":10069,"Ġtrach":10070,"ĠDani":10071,"Ġcompat":10072,"Ġpredic":10073,"Ġpress":10074,"Ġdonant":10075,"exemp":10076,"Ġrecents":10077,"Ġtrenc":10078,"Ġpolici":10079,"Ġpolem":10080,"Ġbasca":10081,"ĠmiliÃ¨rs":10082,"estim":10083,"ĠKhan":10084,"Ã²sts":10085,"Ġlimita":10086,"Ġsucced":10087,"cisme":10088,"Ġvisibla":10089,"ureccion":10090,"lation":10091,"ĠRoy":10092,"Ġrenonci":10093,"Ġseccions":10094,"ĠCatalana":10095,"Ġ1922":10096,"Ġsentir":10097,"Ġadministracion":10098,"Ġparteja":10099,"Ġbatalh":10100,"Ġcavals":10101,"Ġaperteni":10102,"ĠacomenÃ§":10103,"Ġaventura":10104,"Ġperfeccion":10105,"clesi":10106,"ĠsÃ²cis":10107,"Ġacompanhat":10108,"SerÃł":10109,"Ġestenduda":10110,"ĠCantal":10111,"Ġprigondament":10112,"Ġtribunal":10113,"Ġparcialament":10114,"Ġdividit":10115,"execucion":10116,"ĠotÃŃs":10117,"Ġguitarra":10118,"Ġdiscussion":10119,"ParticipÃ¨t":10120,"Ġlibertats":10121,"Ġenvirons":10122,"Denis":10123,"eit":10124,"zat":10125,"ĠÃ©":10126,"Ġdetz":10127,"Ġeca":10128,"isat":10129,"Ã¨ti":10130,"olesc":10131,"Ġremira":10132,"ĠSet":10133,"ione":10134,"chev":10135,"lab":10136,"ĠBell":10137,"ĠBorb":10138,"Ġinnov":10139,"ĠRÃ²se":10140,"ĠTÃ¨r":10141,"Ġentitat":10142,"assion":10143,"Ã¯ca":10144,"Ġtracha":10145,"ĠDun":10146,"ĠDrech":10147,"ogl":10148,"Ġaqueleis":10149,"ĠresÃ¨r":10150,"Ġabitacions":10151,"Ġespor":10152,"ocantas":10153,"ĠcÃ²l":10154,"Ġimplic":10155,"Ġescala":10156,"Quan":10157,"ilhariÃ¡":10158,"ologie":10159,"parta":10160,"Ġconfondre":10161,"Ġutilizan":10162,"tenguÃ¨t":10163,"ĠconsidÃ¨ran":10164,"Ġcrisis":10165,"Ġexprim":10166,"Ġexpression":10167,"Ġexplos":10168,"ĠmantÃ©ner":10169,"Ġconsiderable":10170,"Ġnoiri":10171,"Ġveson":10172,"Ġarriban":10173,"isiologia":10174,"Ġistoricament":10175,"eaux":10176,"ĠmatÃ¨rias":10177,"Ġpracticament":10178,"Ġ1913":10179,"Ġdominanta":10180,"ĠcollÃ²qui":10181,"ĠaccÃ¨s":10182,"ĠClaudi":10183,"Ġbalhat":10184,"Ġ1840":10185,"Ġjutges":10186,"Ġobservar":10187,"ĠTeatre":10188,"Ġfutura":10189,"Ġmodificacions":10190,"ĠreÃ¼nion":10191,"Ġfortificacions":10192,"Ġbotan":10193,"Ġindependents":10194,"Ġreconstru":10195,"Emperaire":10196,"Ġestendut":10197,"Ġabsolut":10198,"Ġdiuers":10199,"Doncas":10200,"ĠbÃ¨stias":10201,"Ġnazi":10202,"Ġvescomte":10203,"Ġrespectar":10204,"Ġdecenni":10205,"ĠcratÃ¨r":10206,"Ġencargat":10207,"empachar":10208,"Ast":10209,"cor":10210,"dura":10211,"fel":10212,"iÃ³s":10213,"llia":10214,"oir":10215,"Ġdou":10216,"Ġderiva":10217,"Ġaire":10218,"Ã¨des":10219,"endi":10220,"ister":10221,"Ġloa":10222,"Ġfina":10223,"Ġfleuve":10224,"Ġnautres":10225,"Ã¨rba":10226,"Ġbassas":10227,"Ġall":10228,"ĠSm":10229,"Ġanteriora":10230,"Ġprol":10231,"gey":10232,"orna":10233,"autors":10234,"ĠIt":10235,"Ġpellic":10236,"ostals":10237,"alhors":10238,"bremb":10239,"Ġdonava":10240,"edit":10241,"intens":10242,"Ġformacions":10243,"ilhat":10244,"epres":10245,"Ġ33":10246,"ĠChap":10247,"ĠAndre":10248,"ĠAncian":10249,"Ġdescriure":10250,"Ġ48":10251,"Ġsociau":10252,"Ġerror":10253,"retze":10254,"meses":10255,"Ġbail":10256,"estatua":10257,"August":10258,"Ġtradicionals":10259,"Ġdintra":10260,"Ġleon":10261,"Ġlector":10262,"Ġvallon":10263,"Ġparticularitat":10264,"Ġfondar":10265,"Ġprepausar":10266,"ĠdebanarÃł":10267,"remont":10268,"Ġestabliment":10269,"Ġemble":10270,"arriba":10271,"Ġesquich":10272,"Ġcomercialas":10273,"Ġquimic":10274,"Ġescrichas":10275,"Ġoccidental":10276,"Ġuniversitats":10277,"Ġgovernament":10278,"Ġmitans":10279,"Ġdefinitiu":10280,"Ġjaponesa":10281,"Ã¨mias":10282,"ĠconcÃ¨ptes":10283,"ĠavanÃ§ada":10284,"ĠPrimiÃ¨ra":10285,"Ġmaximum":10286,"Ġgravitacion":10287,"ĠErn":10288,"Ġargentin":10289,"ĠSiria":10290,"Ġfacilitar":10291,"Ġproblema":10292,"Ġrevenge":10293,"Î¿ÏĤ":10294,"ĠsequÃ©ncia":10295,"Ġefectius":10296,"ĠGeorgia":10297,"Ġnuech":10298,"Ġpartenariat":10299,"ĠtÃ²cat":10300,"ĠLuxemborg":10301,"Cor":10302,"Ed":10303,"FA":10304,"OpausÃ¨t":10305,"Pers":10306,"biliz":10307,"dits":10308,"ford":10309,"gl":10310,"hr":10311,"ÑĢ":10312,"ĠÃ²rdres":10313,"ĠdÃ¨u":10314,"Ġlemosin":10315,"ones":10316,"tea":10317,"Ġpav":10318,"atori":10319,"inÃ¨a":10320,"Ã²dis":10321,"Ġcometa":10322,"roy":10323,"Ġou":10324,"Ãłisser":10325,"Ġpargue":10326,"ĠARN":10327,"ctitud":10328,"ĠRay":10329,"ĠFederacion":10330,"iciana":10331,"ĠLem":10332,"assemblada":10333,"ĠDar":10334,"ĠJaur":10335,"Ġpluma":10336,"Ġcardin":10337,"Ġescri":10338,"Ġconsist":10339,"Ã²lh":10340,"Ġrecampa":10341,"ĠHitler":10342,"Ġreplegar":10343,"Ġsolara":10344,"Ġprinc":10345,"Ã¨nus":10346,"Ġsense":10347,"Ġtempses":10348,"Ġadult":10349,"Ġconstanta":10350,"Ġmusicas":10351,"Ġcosin":10352,"Ġellip":10353,"amps":10354,"ĠmetÃ¨t":10355,"Ġperiod":10356,"Ġpublicacions":10357,"Ġespecial":10358,"ĠmiÃ¨ja":10359,"Ġtennis":10360,"ĠefiÃ¨ch":10361,"Ġtrebol":10362,"Ġcambiat":10363,"Ġostau":10364,"Ġproduire":10365,"Ġgeografia":10366,"Ġ1912":10367,"Ġenterrat":10368,"Ġcontenon":10369,"Ġcostumas":10370,"duccions":10371,"ĠmostrÃ¨t":10372,"Ġtact":10373,"Ġrevolucionari":10374,"Ġequipas":10375,"Ġobservacions":10376,"oÃ¯ssa":10377,"ĠobligatÃ²ri":10378,"Ġportuguesa":10379,"Ġfrontal":10380,"ĠWikim":10381,"ĠcementÃ¨ri":10382,"Aguest":10383,"ĠbÃ¨stia":10384,"ĠBourgogne":10385,"Ġdescendents":10386,"ĠLetras":10387,"Ġinspirat":10388,"ĠFrancisco":10389,"Ġvessant":10390,"avitalhament":10391,"UE":10392,"odi":10393,"rÃ²c":10394,"sÃ¨gle":10395,"uy":10396,"Ġdeguda":10397,"Ġpion":10398,"ĠsÃ¨rra":10399,"Ġce":10400,"alu":10401,"Ġenj":10402,"Ġnion":10403,"Ġnaf":10404,"antic":10405,"Ġrena":10406,"uth":10407,"ĠMc":10408,"ĠSens":10409,"ĠSup":10410,"lay":10411,"apond":10412,"oth":10413,"terre":10414,"ĠRi":10415,"ĠprÃ¨mis":10416,"ĠFar":10417,"ĠForm":10418,"ĠTy":10419,"med":10420,"Ã¨rsas":10421,"ĠIEO":10422,"ĠresÃ¨rva":10423,"emission":10424,"agar":10425,"Ġabit":10426,"leses":10427,"Ġrais":10428,"Ġconsul":10429,"Ġorgans":10430,"ardins":10431,"Ġcamba":10432,"ĠHistoire":10433,"Ġmunicipi":10434,"Ġsolide":10435,"Ġcrem":10436,"Ġcreish":10437,"Ġchimp":10438,"rice":10439,"Ġmandada":10440,"Ġcentenat":10441,"Ġcorrupcion":10442,"espel":10443,"ĠKen":10444,"Ġ44":10445,"Ġafect":10446,"italian":10447,"Ġtrabalhan":10448,"gio":10449,"Ġcontracte":10450,"Ġvisible":10451,"Ġprenent":10452,"Ġactuals":10453,"ĠInstitut":10454,"Ġbastissas":10455,"ĠValÃ©ncia":10456,"Ġindian":10457,"ĠlingÃ¼ista":10458,"Ġsostenguda":10459,"ĠpÃ¨rdre":10460,"ĠCanal":10461,"Ġcrosta":10462,"Ġjutge":10463,"Ġidentitat":10464,"Ġmusicau":10465,"Ġconstitucional":10466,"Ġcontact":10467,"Ġminoritats":10468,"Ġmodificar":10469,"Ġmalaisada":10470,"Ġopausat":10471,"Ġprocediment":10472,"ĠInternacional":10473,"ĠmonastÃ¨ri":10474,"Ġfotografias":10475,"ĠaucÃ¨ls":10476,"Ġinterpret":10477,"NasquÃ¨t":10478,"ĠVietnam":10479,"ĠtÃ²catocantas":10480,"Ath":10481,"Vila":10482,"ater":10483,"junt":10484,"mina":10485,"pic":10486,"vera":10487,"zer":10488,"®n":10489,"Ġiras":10490,"Ġdorm":10491,"Ġlent":10492,"Ġpenda":10493,"Ġcans":10494,"Ġcents":10495,"atas":10496,"atra":10497,"Ġmilh":10498,"aub":10499,"Ġvals":10500,"Ġreci":10501,"Ġbicicle":10502,"ĠCic":10503,"Ġsonda":10504,"ĠSom":10505,"ĠPri":10506,"ĠAran":10507,"acas":10508,"ova":10509,"ĠLon":10510,"Ent":10511,"ariat":10512,"onduda":10513,"Ġentrepresa":10514,"Ġactius":10515,"Ġautonomia":10516,"Ġestamp":10517,"Ġfinau":10518,"Ã¨ssen":10519,"Ġcausada":10520,"ganistan":10521,"alizÃ¨t":10522,"ĠgrÃ¨gas":10523,"Ġdebit":10524,"Ġlegend":10525,"Ġlimitats":10526,"Ġnacionalisme":10527,"Ġrepresentada":10528,"Ġconsideradas":10529,"Ġ140":10530,"afar":10531,"Ġrenom":10532,"Ġfoncionaris":10533,"Ġ1935":10534,"oniers":10535,"Ġfusada":10536,"Ġcantons":10537,"Ġcatast":10538,"Ġ1928":10539,"Ġsentiments":10540,"edir":10541,"Ġprimari":10542,"ĠquartiÃ¨rs":10543,"Ġcomerciaus":10544,"Ġbatalhas":10545,"2007":10546,"Ġpossedisson":10547,"Ġvirus":10548,"Ġdenonci":10549,"IsraÃ¨l":10550,"Ġcellula":10551,"gulara":10552,"ĠGrÃ¨cs":10553,"ĠipotÃ¨si":10554,"ĠÃ¨uros":10555,"Ġramaderia":10556,"arrestar":10557,"atacar":10558,"ĠCopa":10559,"ĠCalifat":10560,"exploracion":10561,"Ġdignitat":10562,"ĠCapitÃ²li":10563,"Ã³rrer":10564,"Ġcomparason":10565,"ĠSNCF":10566,"\"),":10567,"'\"":10568,"Franc":10569,"Mor":10570,"Pens":10571,"cut":10572,"sen":10573,"Ġisser":10574,"enqu":10575,"Ġlhi":10576,"Ġpomp":10577,"ĠcÃ¯":10578,"incl":10579,"Ġvul":10580,"Ġvern":10581,"Ġengan":10582,"guec":10583,"uscul":10584,"Ġdelic":10585,"olas":10586,"Ġbos":10587,"levat":10588,"ĠCompanh":10589,"ett":10590,"urn":10591,"Ġparam":10592,"dire":10593,"ĠBelle":10594,"idrogÃ¨n":10595,"geois":10596,"hael":10597,"ĠFern":10598,"ĠFeder":10599,"ĠTel":10600,"ĠThi":10601,"ĠpoirÃł":10602,"Ġtematica":10603,"Ġcapitat":10604,"assassinat":10605,"ĠDia":10606,"ĠDiv":10607,"euf":10608,"Ġarquitect":10609,"Ġarquit":10610,"Ġpreses":10611,"Ġavesque":10612,"Ġrament":10613,"esclaus":10614,"ĠpuÃ¨g":10615,"Ġpais":10616,"ferica":10617,"aquelÃł":10618,"Ġchal":10619,"pulsion":10620,"Anti":10621,"ĠAnat":10622,"Ġroges":10623,"Ġcasa":10624,"Ġ47":10625,"acids":10626,"ĠinterÃ©s":10627,"Ġliteraris":10628,"Ġtradicionau":10629,"Ġorganiza":10630,"Ġorganizats":10631,"ĠReich":10632,"Ġtecnologias":10633,"Ġparticipa":10634,"ĠConserv":10635,"ĠextrÃ¨m":10636,"Ġindians":10637,"Ġjogat":10638,"Ġblind":10639,"Ġemig":10640,"ĠprÃ²prias":10641,"urgia":10642,"isteix":10643,"Ġbanl":10644,"Ġdefinitiva":10645,"ĠcavalariÃ¡":10646,"ĠprovenÃ§ala":10647,"Ġeissits":10648,"Ġgravitat":10649,"Ġjuridica":10650,"ĠQing":10651,"ĠanonciÃ¨t":10652,"ĠMaced":10653,"Ġparisenc":10654,"Ġreiaumes":10655,"ĠGÃłllia":10656,"URSS":10657,"ĠtelescÃ²pi":10658,"Ġemperaires":10659,"',":10660,"Desp":10661,"Gener":10662,"Mari":10663,"Ocean":10664,"mal":10665,"nar":10666,"pos":10667,"pols":10668,"rÃ¯":10669,"rdia":10670,"uch":10671,"ĠdÃ¨":10672,"Ġcla":10673,"ĠcÃ¨rta":10674,"Ġmist":10675,"Ġmud":10676,"Ġmistral":10677,"univers":10678,"Ġunif":10679,"riÃ¨rs":10680,"elas":10681,"taire":10682,"Ġbis":10683,"Ġgolf":10684,"Ġalt":10685,"Ġalas":10686,"ĠPor":10687,"Ãłm":10688,"ĠBos":10689,"ivier":10690,"ters":10691,"ĠRad":10692,"ĠentrÃ²":10693,"euil":10694,"Ġcomplic":10695,"autonomia":10696,"Ġresum":10697,"ĠresÃ²l":10698,"ĠespÃ²rt":10699,"Ġregent":10700,"Ġconsens":10701,"ĠuÃ²us":10702,"ĠOcean":10703,"Ġcreis":10704,"ĠÂ»).<|":10705,"Ġdivessa":10706,"espectacle":10707,"ĠvolÃ¨tz":10708,"Ġconform":10709,"enÃ§ament":10710,"ĠerÃ¡":10711,"Ġ700":10712,"Ġespeciala":10713,"Ġmajoras":10714,"Ġtecnic":10715,"acabÃ¨ron":10716,"ĠdobÃ¨rta":10717,"Ġfisicas":10718,"Ġtorres":10719,"ĠlingÃ¼isticas":10720,"Ġnecessaris":10721,"Ġmondiau":10722,"Ġnautors":10723,"ĠprÃ²ches":10724,"Ġmerav":10725,"Ġpotz":10726,"Ġespacial":10727,"Ġviolon":10728,"ĠNacionau":10729,"Ġfotografia":10730,"Ġaumenta":10731,"Ġcontuniar":10732,"Ġgaran":10733,"accent":10734,"Ġmulti":10735,"Ġprefaci":10736,"extension":10737,"ĠtalhiÃ¨r":10738,"CapitÃ¨t":10739,"Ġvolcanica":10740,"ĠArabis":10741,"Ġexcell":10742,"Ġcontribucions":10743,"Ġconsacrat":10744,"ĠÃ§o":10745,"ĠpermÃ©s":10746,"Ġafrican":10747,"Ġmarselh":10748,"icisme":10749,"operacions":10750,"Ġexclusivament":10751,"Ġrepublican":10752,"Ġvorejat":10753,"Ġficcion":10754,"Ġbacteri":10755,"estenal":10756,"Ġrecomanda":10757,"ĠCatolica":10758,"Ġindoeurop":10759,"%.<|":10760,"Ari":10761,"Bern":10762,"Beau":10763,"Imp":10764,"Jul":10765,"Sovent":10766,"eja":10767,"ristian":10768,"uau":10769,"ving":10770,"Ø§":10771,"Ġic":10772,"Ġign":10773,"enem":10774,"teti":10775,"ĠaÃ§Ã²":10776,"Ġsav":10777,"quen":10778,"Ġmina":10779,"oro":10780,"raments":10781,"itt":10782,"Ġtien":10783,"Ġvign":10784,"Ġgotic":10785,"inspir":10786,"ĠSus":10787,"Ãłvia":10788,"ĠAri":10789,"Ġproj":10790,"Ġproject":10791,"Ġprend":10792,"ĠprÃ©ner":10793,"ĠFlam":10794,"ĠTan":10795,"acta":10796,"ĠentraÃ¯na":10797,"ĠJau":10798,"Ġmarges":10799,"Ġacus":10800,"Ġacost":10801,"Ġregiment":10802,"ĠpartiguÃ¨t":10803,"Ġserada":10804,"elhas":10805,"ĠfinanÃ§as":10806,"Ġcomuns":10807,"Ġassim":10808,"Ġassass":10809,"Ġdefun":10810,"ĠforÃ§ada":10811,"Ġqualitats":10812,"Ġafirm":10813,"Ġcanons":10814,"Ġvisitar":10815,"arnacion":10816,"Ġcompausan":10817,"ĠcÃ²rda":10818,"Arn":10819,"Ġsignificacion":10820,"Ġmoviment":10821,"Ġintrodus":10822,"influ":10823,"Ġfoncionar":10824,"Ġvicepres":10825,"Ġarribada":10826,"Ġvariats":10827,"Ġlimitadas":10828,"Ġparticipat":10829,"ĠdescobÃ¨rtas":10830,"indica":10831,"Ġcivilas":10832,"timologia":10833,"Ġmandats":10834,"ĠterrÃ¨stras":10835,"Ġoriginau":10836,"ĠGrands":10837,"Ġperduda":10838,"Ġ1891":10839,"Ġsaup":10840,"Ġquimics":10841,"ĠpÃ²rts":10842,"Ġpresidenta":10843,"ÃĩaquelÃł":10844,"Ġsigueren":10845,"ĠlÃ²nga":10846,"ĠmiÃ¨gjorn":10847,"rofich":10848,"Ġvenceires":10849,"ademia":10850,"ĠMarie":10851,"Premi":10852,"Ġfugir":10853,"Ġracontes":10854,"ĠaprofichÃ¨t":10855,"ĠFabre":10856,"Ġespandida":10857,"Alexandre":10858,"ĠOtoman":10859,"ĠOstal":10860,"ĠProvÃŃncia":10861,"ĠApollo":10862,"elaboracion":10863,"ĠJaurÃ©s":10864,"Marc":10865,"Ongria":10866,"Pels":10867,"Rob":10868,"camin":10869,"ibre":10870,"Â´":10871,"Ã¹":10872,"Ġond":10873,"Ġille":10874,"Ġdets":10875,"onada":10876,"Ġpiren":10877,"Ã¨iras":10878,"Ġsanta":10879,"ĠcuÃ¨":10880,"inu":10881,"Ġquala":10882,"ĠquÃ¯":10883,"Ġtria":10884,"aule":10885,"Ġestiu":10886,"rige":10887,"ĠreÃ¯n":10888,"ĠbÃ¨las":10889,"Ġbotar":10890,"Ġgat":10891,"aix":10892,"ĠComb":10893,"ĠSara":10894,"Ġmaites":10895,"Ġinteriora":10896,"ĠRaf":10897,"ĠRiver":10898,"Ġsupausa":10899,"icit":10900,"mete":10901,"andas":10902,"ĠNam":10903,"ĠNos":10904,"oba":10905,"autit":10906,"Esper":10907,"Ġpresoniers":10908,"ocal":10909,"Ġacor":10910,"Ġacarn":10911,"ĠpuÃ²i":10912,"excepcion":10913,"Ġtemples":10914,"Ġneol":10915,"Ġpolim":10916,"Ġpassatges":10917,"Ġtoti":10918,"Ġencreu":10919,"Ġdivendres":10920,"ĠChab":10921,"Ann":10922,"ĠFrank":10923,"ierat":10924,"ĠatÃ²ms":10925,"Ã¨rnes":10926,"ĠWal":10927,"Ġmeteissas":10928,"ĠefÃ¨it":10929,"ĠMonte":10930,"avantatge":10931,"inhar":10932,"Ġgeografica":10933,"Ġvictori":10934,"Ġ1908":10935,"Ġdimars":10936,"Ġ1866":10937,"Ġdemandas":10938,"iÃ¨re":10939,"Ġprogram":10940,"toine":10941,"ĠdubÃ¨rta":10942,"Ġemplegar":10943,"Ġvariadas":10944,"Isla":10945,"ĠGalil":10946,"ĠpoiriÃ¡n":10947,"Ġliurament":10948,"Ġprecedenta":10949,"Ġpercors":10950,"ĠprivilÃ¨gis":10951,"ĠestrangiÃ¨rs":10952,"Ġderivat":10953,"Ġengatjament":10954,"ĠDanemarc":10955,"Ġcharte":10956,"Ġregardant":10957,"alimentacion":10958,"Ġgascona":10959,"Ġbizantina":10960,"ĠbrasiliÃ¨r":10961,"Ġaucupacion":10962,"francÃ©s":10963,"Ġdenominacion":10964,"Ba":10965,"LA":10966,"Michel":10967,"Vic":10968,"von":10969,"Ġondas":10970,"enadas":10971,"encha":10972,"tela":10973,"anava":10974,"arp":10975,"aret":10976,"ato":10977,"rey":10978,"Ġmie":10979,"orl":10980,"Ã²re":10981,"ĠfÃ²nts":10982,"Ġquart":10983,"Ġesquel":10984,"rific":10985,"Ġvot":10986,"Ġenro":10987,"amina":10988,"ĠCer":10989,"ĠCalais":10990,"etÃ¨t":10991,"ĠMeuse":10992,"ĠServ":10993,"ĠparrÃ²":10994,"aba":10995,"actes":10996,"ĠNatur":10997,"ĠDam":10998,"opro":10999,"opinion":11000,"Ġfauna":11001,"Ġexpuls":11002,"agnet":11003,"Ġhra":11004,"ultors":11005,"ipp":11006,"Ġpassats":11007,"Ġluchas":11008,"Seine":11009,"Ġamino":11010,"Ġcomunitats":11011,"Ġseguisson":11012,"ĠAnautita":11013,"Ġquias":11014,"Ġdesvolopa":11015,"Ġdebats":11016,"ĠbastiguÃ¨t":11017,"ĠRoan":11018,"Ġmotors":11019,"Ġdefinida":11020,"Ġcombinason":11021,"ĠZh":11022,"eries":11023,"Ġactivament":11024,"Ġ1957":11025,"Ġnomenar":11026,"ĠClaude":11027,"ĠcobÃ¨rta":11028,"Ġganhat":11029,"ocupÃ¨t":11030,"Ġmantenement":11031,"Ġpossedissi":11032,"Ġacceptat":11033,"Ġuniversitari":11034,"Ġcaptura":11035,"ĠSuperi":11036,"Ġribas":11037,"Ġribos":11038,"ĠVictor":11039,"Ġapelada":11040,"oblig":11041,"Ġfortificada":11042,"ĠbÃ²sques":11043,"SeriÃ¡":11044,"Ġflaca":11045,"ĠdejÃł":11046,"Ġnavigacion":11047,"ĠpluÃ¨jas":11048,"Ġespecificas":11049,"ĠresÃ¨rvas":11050,"Ġprincessa":11051,"Ġchimpanz":11052,"Ġencreuament":11053,"Gl":11054,"eÃ§":11055,"fe":11056,"gada":11057,"nan":11058,"pt":11059,"romp":11060,"ster":11061,"Å¡":11062,"Ġdent":11063,"Ġaxe":11064,"Ġcod":11065,"Ġeuc":11066,"Ġlaus":11067,"ores":11068,"isica":11069,"rav":11070,"Ġlop":11071,"Ġtar":11072,"ĠtÃ¯":11073,"Ġtort":11074,"Ġvath":11075,"Ġperdon":11076,"amilha":11077,"Ġnan":11078,"Ġberb":11079,"Ġcomer":11080,"leans":11081,"ĠStan":11082,"ĠPequ":11083,"LoÃŃs":11084,"Ġparelhs":11085,"terr":11086,"idÃ¨as":11087,"Ġtematicas":11088,"ĠNaut":11089,"Ġaup":11090,"Ġcontro":11091,"emen":11092,"Ġmarin":11093,"Ġmarques":11094,"Ġautomob":11095,"Ġimper":11096,"ĠuÃ¨ch":11097,"iber":11098,"Ġchau":11099,"ĠLag":11100,"ignon":11101,"Ġadonc":11102,"amba":11103,"Ġrevision":11104,"Ġestadi":11105,"Ġgross":11106,"Ġverai":11107,"ĠâĢ¢":11108,"Ġdestrus":11109,"ĠJohann":11110,"Ġnacionalistas":11111,"Int":11112,"exprim":11113,"Ġretard":11114,"Ġretorica":11115,"ĠefÃ¨ctes":11116,"Ġparticipants":11117,"Ġconvert":11118,"institucion":11119,"Ġende":11120,"ĠendacÃ²m":11121,"Ġcatars":11122,"Ġ1878":11123,"Ġ1952":11124,"Ġ1923":11125,"Ġrebell":11126,"ĠvictÃ²rias":11127,"Ġnauts":11128,"Ġ1906":11129,"estudiar":11130,"ocupa":11131,"Ġacceptada":11132,"Ġponts":11133,"Ġprotegit":11134,"Ġpoblat":11135,"Ġinformacion":11136,"esquina":11137,"Ġprofessionala":11138,"ĠglaciÃ¨rs":11139,"Ġsuperioras":11140,"ĠpoissanÃ§as":11141,"ĠDomin":11142,"Ġapelats":11143,"ĠbilingÃ¼e":11144,"Ġeditat":11145,"oquim":11146,"Ġartificiala":11147,"espleitacion":11148,"Ġceremonia":11149,"Ġperpet":11150,"Aisne":11151,"Ġpelegrin":11152,"Ġremontar":11153,"ĠFebus":11154,"ĠBabilÃ²nia":11155,"Clau":11156,"MI":11157,"No":11158,"Occident":11159,"Tant":11160,"cy":11161,"fes":11162,"fond":11163,"hal":11164,"iografia":11165,"mad":11166,"oda":11167,"pid":11168,"sud":11169,"zy":11170,"ĠÃ¨ster":11171,"ontan":11172,"Ġcorn":11173,"Ġcoc":11174,"Ġcitar":11175,"quier":11176,"reta":11177,"Ġeclesi":11178,"Ġloas":11179,"Ġquista":11180,"Ġuniversitat":11181,"aue":11182,"ĠSta":11183,"ĠSib":11184,"ĠSegu":11185,"urt":11186,"urala":11187,"ĠjÃ²":11188,"Ġjaci":11189,"igre":11190,"Ġdesert":11191,"ĠFl":11192,"ĠVÃ¨nus":11193,"Ġmexic":11194,"ĠcompÃ²rta":11195,"Ġliures":11196,"ĠfÃ²rts":11197,"artistas":11198,"articul":11199,"sson":11200,"ĠHenry":11201,"Ġ32":11202,"Ġcheval":11203,"Ġatmos":11204,"ĠGuy":11205,"Ġinternet":11206,"ĠplaÃ§ar":11207,"Ãºss":11208,"ĠglÃ¨isas":11209,"Ġfilogen":11210,"ĠzÃ¨ro":11211,"ĠerÃ²i":11212,"ĠliterÃłrias":11213,"ĠtenguÃ¨t":11214,"Ġsable":11215,"Ġdecr":11216,"ĠfasÃ¨m":11217,"ĠfemÃ¨la":11218,"Ġsimplas":11219,"Ġsegondas":11220,"ĠvÃ¨rses":11221,"Ġmotius":11222,"Ġmercats":11223,"Ġassociada":11224,"Ġisrael":11225,"ĠcomplÃ²t":11226,"ĠcomplÃ¨ta":11227,"Ġ1876":11228,"Ġ1911":11229,"2006":11230,"Ġoccidentalas":11231,"ĠEuropÃ¨u":11232,"ĠcorrespondÃ©ncia":11233,"Ġtransformat":11234,"Ġfrequenta":11235,"Ġpseu":11236,"Ġquauqueis":11237,"ĠsiaguÃ¨t":11238,"Ġcandid":11239,"Ġcrida":11240,"Ġmuralhas":11241,"Ġimperiau":11242,"ĠauriÃ¡n":11243,"ĠLengas":11244,"ĠTurquia":11245,"Ġruisseaux":11246,"ocrates":11247,"ĠPuÃ¨g":11248,"Ġsuccessors":11249,"Ġhttps":11250,"Ġpedagogica":11251,"Ġarrondiment":11252,"Ġpassejada":11253,"Ġexemples":11254,"ĠrapidÃłment":11255,"ĠMiquÃ¨l":11256,"Ġprotagonista":11257,"Ġjurisdiccion":11258,"ĠucraÃ¯n":11259,"Form":11260,"Primi":11261,"Serv":11262,"cons":11263,"dos":11264,"fÃłcia":11265,"gre":11266,"Ġsiti":11267,"invencion":11268,"alin":11269,"Ġfos":11270,"Ġquals":11271,"Ġtretze":11272,"riguÃ¨ron":11273,"ild":11274,"olada":11275,"Ġgi":11276,"Ġ119":11277,"Ġ(.<|":11278,"ĠCel":11279,"range":11280,"eticas":11281,"utor":11282,"ĠSoÃ¯ssa":11283,"adiÃ¨r":11284,"Ãłcias":11285,"ĠBassa":11286,"Ġinde":11287,"Ġpruss":11288,"acle":11289,"acompanh":11290,"ĠLl":11291,"ĠVas":11292,"ĠVars":11293,"Ġappel":11294,"ĠNil":11295,"dez":11296,"opt":11297,"Ã²tles":11298,"Ġvengudas":11299,"arthe":11300,"aireben":11301,"Ġconsult":11302,"Ġpays":11303,"Ġterra":11304,"ĠHel":11305,"thur":11306,"Ġneur":11307,"Ġ34":11308,"Ġchas":11309,"ĠtornÃ¨":11310,"Ġfonccion":11311,"ĠpermetrÃł":11312,"volopament":11313,"Ġconfond":11314,"Ġestatua":11315,"ĠglÃ²ria":11316,"Ġvisibles":11317,"angel":11318,"Ġproposicions":11319,"ĠnivÃ¨us":11320,"ĠCarl":11321,"ĠCarcin":11322,"Ġreconquist":11323,"ĠorganizÃ¨t":11324,"Ġpontan":11325,"Ġpradas":11326,"Ġconversion":11327,"Ġsalvar":11328,"rÃ²va":11329,"Ġdirigits":11330,"Ġsentier":11331,"Ġnormal":11332,"ĠJosieus":11333,"Ġdecisiva":11334,"ĠAnglÃ©s":11335,"Ġchinesas":11336,"Ġuniversala":11337,"Ġflume":11338,"Ġensenhar":11339,"Ġdiplom":11340,"ĠcomplÃ¨xes":11341,"Ġmodernizacion":11342,"Ġneutre":11343,"Ġrevenguts":11344,"Ġsubsisteix":11345,"Ġierarquia":11346,"UrgÃ¨l":11347,"ĠDiccionari":11348,"ĠMiquÃ¨u":11349,"ĠcÃłmbia":11350,"ĠbandiÃ¨ra":11351,"ĠNadal":11352,"ĠsuedÃ©s":11353,"ĠSuÃ¨cia":11354,"ĠCercle":11355,"Ãºssia":11356,"%)":11357,"Bel":11358,"Dint":11359,"Segu":11360,"Tol":11361,"aun":11362,"actors":11363,"hÃ¨r":11364,"nos":11365,"win":11366,"ÃĢustria":11367,"ĠÃ¨re":11368,"Ġdralha":11369,"Ã¨ve":11370,"anges":11371,"ĠsÃ¨ria":11372,"cians":11373,"intelligÃ©ncia":11374,"ĠmÃ¨tre":11375,"Ġtua":11376,"ome":11377,"Ġvue":11378,"ĠvÃ©ser":11379,"ams":11380,"Ġregu":11381,"Ġbri":11382,"Ġbendas":11383,"lets":11384,"ĠCau":11385,"eia":11386,"ĠSha":11387,"Ġparo":11388,"otin":11389,"ĠBaz":11390,"ĠGav":11391,"ĠVis":11392,"assic":11393,"Ġtrag":11394,"Ġaparicion":11395,"eum":11396,"Ġtangs":11397,"Ġauien":11398,"ĠImp":11399,"ocacion":11400,"Ġescura":11401,"Ġpujada":11402,"ĠOp":11403,"Ġmonta":11404,"ĠHal":11405,"ĠHomo":11406,"Ġ37":11407,"Ġforest":11408,"Ġpersonalitats":11409,"ĠAlpes":11410,"Ġcampanal":11411,"ĠArts":11412,"Ġdarriers":11413,"Ġeras":11414,"Ġnacionalista":11415,"Ġnegatiu":11416,"Ġnoi":11417,"Ġsimet":11418,"ĠMonde":11419,"Ġvariacion":11420,"ĠentraÃ¯nada":11421,"Ġevesque":11422,"ĠdobÃ¨rt":11423,"Ġmagist":11424,"ĠlingÃ¼istics":11425,"Ġ1927":11426,"Ġdaissi":11427,"Ġdaissant":11428,"Ġpremiereis":11429,"Ġdemandat":11430,"Ġdinastias":11431,"ĠAbb":11432,"Ġquimista":11433,"Ġcontinentala":11434,"Ġrefusa":11435,"Ġessenciala":11436,"Ġconstitucionala":11437,"Ġcontinuitat":11438,"Ġeissida":11439,"ĠPrimiÃ¨r":11440,"Ġplataf":11441,"Ġdistrictes":11442,"Ġgermanique":11443,"abandonar":11444,"Ġcalcaire":11445,"ÃĴrdre":11446,"ĠlaboratÃ²ri":11447,"eptun":11448,"Ġsufragi":11449,"ctavius":11450,"AF":11451,"CR":11452,"Norm":11453,"Pl":11454,"fins":11455,"gh":11456,"king":11457,"uat":11458,"vista":11459,"willer":11460,"Ġult":11461,"ĠpÃ©":11462,"ĠpÃ¨rsa":11463,"Ġainat":11464,"ĠaqÃ¼":11465,"Ġsalas":11466,"ĠsÃ²u":11467,"isacion":11468,"itans":11469,"auracion":11470,"ried":11471,"amant":11472,"eler":11473,"Ġgaus":11474,"ĠCond":11475,"ĠCaval":11476,"Ã²rda":11477,"ĠSala":11478,"adia":11479,"ĠPÃ©":11480,"Loc":11481,"Ġjardins":11482,"igh":11483,"Ġdesta":11484,"ĠGa":11485,"ĠGabri":11486,"ĠFay":11487,"acamp":11488,"ĠEra":11489,"Ġnominacion":11490,"ĠDie":11491,"implantacion":11492,"Ġarro":11493,"Ġcompens":11494,"ogun":11495,"opausa":11496,"Ġville":11497,"Ġsiam":11498,"ĠIberica":11499,"umor":11500,"Ġavions":11501,"Ġhorn":11502,"Ġhistori":11503,"Ġescoc":11504,"ĠserÃ¡":11505,"ĠOb":11506,"Ġmonedas":11507,"ratrem":11508,"ulturas":11509,"Ġclin":11510,"egue":11511,"oule":11512,"metre":11513,"Ġcentri":11514,"Ġobratges":11515,"1918":11516,"ificadas":11517,"Ġconfigu":11518,"Ġcancel":11519,"Ġcoire":11520,"ordan":11521,"Ġfuguet":11522,"Ġsimultan":11523,"Ġoficialas":11524,"engenh":11525,"veja":11526,"Ġendroit":11527,"Ġgeografic":11528,"âĢ¦âĢ¦":11529,"Ġmontpelh":11530,"ĠÃ®n":11531,"Ġ1868":11532,"ternitat":11533,"ĠCorb":11534,"Ġpanor":11535,"Ġcopa":11536,"ĠVerge":11537,"aumentar":11538,"Ġcambia":11539,"Ġuniversal":11540,"Ġflueix":11541,"ĠPrÃºssia":11542,"Ġdesfachas":11543,"Amassada":11544,"ĠcavaliÃ¨rs":11545,"Ġprofessionals":11546,"Ġmobilizacion":11547,"Ġtopony":11548,"ĠJuli":11549,"Ġoland":11550,"Ġdesbarc":11551,"ĠFlorenÃ§a":11552,"Ġairals":11553,"Ġpermeti":11554,"Ġdotat":11555,"Ġenemic":11556,"Ġfidel":11557,"Ġremembra":11558,"ĠLaura":11559,"Ġlinguistica":11560,"Ġsubreviv":11561,"Ġescais":11562,"BenlÃ¨u":11563,"Ġprotoc":11564,"ĠPlaton":11565,"Ġtransmetre":11566,"Ġreparticion":11567,"Ġerigit":11568,"AT":11569,"EM":11570,"Fer":11571,"aguÃ¨t":11572,"mita":11573,"Ġion":11574,"Ġdav":11575,"Ġates":11576,"artes":11577,"ciclop":11578,"inn":11579,"inatge":11580,"itius":11581,"Ġperceb":11582,"Ã¨rma":11583,"olitan":11584,"Ġrede":11585,"Ġgam":11586,"ĠCarm":11587,"ĠCuba":11588,"ulars":11589,"Ġalfabet":11590,"ĠPeire":11591,"Ġpartat":11592,"ensag":11593,"ĠFal":11594,"ĠTrob":11595,"ĠTemple":11596,"ĠLhÃ¨":11597,"Ġnomadas":11598,"Ġtanh":11599,"ĠexperiÃ©ncias":11600,"essas":11601,"Ã²can":11602,"Ã²ces":11603,"ĠOt":11604,"ĠOu":11605,"ĠdonÃ¨ron":11606,"ĠHug":11607,"Ġ3000":11608,"Ġluta":11609,"Ġluch":11610,"Ġchamb":11611,"Ġmilitants":11612,"ĠplaÃ§at":11613,"ompanha":11614,"Ãºdia":11615,"Sonque":11616,"ĠserviguÃ¨t":11617,"ĠistÃ²rias":11618,"ĠnegÃ²":11619,"Ġcompausadas":11620,"Ġconsiderabla":11621,"afebl":11622,"Arc":11623,"ergÃłs":11624,"Ġromanicas":11625,"ĠvesÃ¨m":11626,"ĠproteÃ¯na":11627,"Ġcorsa":11628,"aparelh":11629,"azhon":11630,"Ġfrema":11631,"Ġcolleccions":11632,"Ġlibe":11633,"Ġincap":11634,"Ġprocessus":11635,"ĠgrÃłcia":11636,"Ġpenet":11637,"Ġboti":11638,"Ġ1861":11639,"Ġcomunicar":11640,"Ġ1888":11641,"ĠprodusÃŃs":11642,"ĠLuci":11643,"Ġresson":11644,"ĠAmeric":11645,"Ġcompletar":11646,"Ġessencial":11647,"Ġfabricar":11648,"Ġaventuras":11649,"ated":11650,"Ġindependentas":11651,"Ġtrapan":11652,"ĠPalestina":11653,"Ġdolars":11654,"Ġmatematician":11655,"ĠtestimÃ²ni":11656,"ĠleugiÃ¨rament":11657,"Ġneutr":11658,"Ġminimum":11659,"urreccion":11660,"Ġmisteri":11661,"Ġcomprendre":11662,"Ġsesilha":11663,"Ġparisenca":11664,"instruments":11665,"Ġdavalada":11666,"Ġaccessible":11667,"Ġdivinitat":11668,"Ġvestits":11669,"ĠaranÃ©s":11670,"Ġespandit":11671,"Ġdesempuish":11672,"ĠPaleolitic":11673,"Ġmagazine":11674,"Ġdefugir":11675,"Ġpendait":11676,"ĠLhÃ¨ida":11677,"Et":11678,"Emai":11679,"Ieu":11680,"Mant":11681,"Rev":11682,"SÃ¨m":11683,"fs":11684,"posicion":11685,"ĠÃ²li":11686,"Łi":11687,"Ġlentament":11688,"Ġcil":11689,"ciana":11690,"inha":11691,"orges":11692,"Ġfesti":11693,"icut":11694,"Ġtension":11695,"ĠunivÃ¨rs":11696,"Ġenv":11697,"amar":11698,"oland":11699,"olina":11700,"Ġ(âĢ":11701,"ĠCad":11702,"ules":11703,"ĠSob":11704,"ury":11705,"ĠPra":11706,"Ġparent":11707,"Ġjon":11708,"Ġjura":11709,"Ġdesli":11710,"ĠTang":11711,"mie":11712,"ĠapuÃ¨i":11713,"ĠNÃ²u":11714,"ĠJÃ²rdi":11715,"Ġavion":11716,"idada":11717,"Ġestent":11718,"Ġescur":11719,"Ġconson":11720,"Ġclimas":11721,"intrar":11722,"epid":11723,"luÃŃs":11724,"ĠtornÃ¨ron":11725,"Ġcapital":11726,"Ġvolums":11727,"Ġtranspar":11728,"Ġdesvolopats":11729,"Ġvertad":11730,"matics":11731,"efica":11732,"angles":11733,"Estats":11734,"Ġnegras":11735,"Ġ900":11736,"Ġcombatre":11737,"Ġceramica":11738,"anÃ§ant":11739,"autreis":11740,"Ġfebri":11741,"Ġnecessita":11742,"Ġmediat":11743,"ĠnÃ²bles":11744,"Ġdirigidas":11745,"ancy":11746,"Ġ1916":11747,"Ġdominada":11748,"ĠvendrÃł":11749,"ĠobtenguÃ¨ron":11750,"Ġcompreneson":11751,"Ġsinonim":11752,"Ġantrop":11753,"ĠquitÃ¨t":11754,"Ġenterin":11755,"Ġ1867":11756,"Ġconservar":11757,"Ġnormala":11758,"ĠCorona":11759,"Ġmerce":11760,"Ġausir":11761,"Ġdreta":11762,"ĠabandonÃ¨t":11763,"animal":11764,"ĠCentral":11765,"Ġfondamentala":11766,"Ġaperada":11767,"Ġsurplomb":11768,"ĠautonÃ²ma":11769,"Ġsuccessius":11770,"ĠnuÃ¨it":11771,"Ġprocedura":11772,"Ġprononciacion":11773,"Ġrecuperar":11774,"ĠMilan":11775,"ĠcompanhiÃ¡s":11776,"estand":11777,"ĠmisÃ¨ria":11778,"Ġdistinguir":11779,"Ġcargada":11780,"Ġinscrich":11781,"ĠAustrÃłlia":11782,"Ġresolucion":11783,"ĠaragonÃ©s":11784,"Ġjudiciari":11785,"associacions":11786,"Ġcuirassats":11787,"Ġprosperitat":11788,"ID":11789,"NT":11790,"cla":11791,"ladas":11792,"nÃ²u":11793,"rari":11794,"ralh":11795,"yer":11796,"onias":11797,"Ġpom":11798,"Ġpista":11799,"Ġpiano":11800,"Ġati":11801,"arcas":11802,"eret":11803,"atencion":11804,"quÃ¨":11805,"quets":11806,"quetas":11807,"rec":11808,"ĠmÃ¨i":11809,"ĠmÃ²rta":11810,"unal":11811,"unch":11812,"Ã²bles":11813,"riament":11814,"ĠnÃłisser":11815,"Ġdelh":11816,"olles":11817,"ĠbÃ¯":11818,"Ġblava":11819,"ĠCou":11820,"Ġrn":11821,"ĠPlaÃ§a":11822,"icago":11823,"abu":11824,"ĠRef":11825,"ĠEle":11826,"impacte":11827,"ĠarÃłbia":11828,"arida":11829,"Ġaux":11830,"Ġiper":11831,"ceans":11832,"Ġhum":11833,"ĠfÃ²rtas":11834,"ĠcÃ²las":11835,"Ġautob":11836,"Ġcaras":11837,"Ġsituan":11838,"Ġescad":11839,"estrech":11840,"estructuras":11841,"Ġ1800":11842,"Ġ1815":11843,"escap":11844,"Ġmonges":11845,"Ġdemai":11846,"editor":11847,"Ġpolonesa":11848,"Ġsoleta":11849,"Ġcreats":11850,"Ġdivi":11851,"ĠLav":11852,"Ġtornava":11853,"Ġfarina":11854,"ĠcalguÃ¨t":11855,"Ġ46":11856,"Ġ49":11857,"ĠplaÃ§ada":11858,"Ġempl":11859,"ĠcoÃ¯n":11860,"ordat":11861,"Ġdestruccions":11862,"Ġexpressions":11863,"ĠComenge":11864,"Ġconstituir":11865,"Ġmajors":11866,"Ġclassificat":11867,"Ġrealizator":11868,"Ġsabi":11869,"exposicion":11870,"explos":11871,"Ġflum":11872,"liquÃ¨t":11873,"Ġcarriera":11874,"Ġaisina":11875,"Ġconvent":11876,"Ġmolt":11877,"aza":11878,"ĠvÃ²li":11879,"eishenÃ§a":11880,"Ġestudiant":11881,"Ġterror":11882,"ĠvendriÃ¡":11883,"landesa":11884,"ĠcobÃ¨rt":11885,"Ġassegura":11886,"ĠtransformÃ¨t":11887,"oxigÃ¨n":11888,"Ġshogun":11889,"ĠSocialista":11890,"Ġsimilaras":11891,"Ġmodificacion":11892,"Ġrusca":11893,"Ã¨bres":11894,"Ġexecutat":11895,"ĠDioc":11896,"1998":11897,"Ġ1801":11898,"ĠsortÃŃs":11899,"estela":11900,"Ġcontactes":11901,"Ġprogressiu":11902,"ĠavanÃ§adas":11903,"ĠTorre":11904,"Ġcauds":11905,"avenidor":11906,"ĠbilingÃ¼isme":11907,"Ġaprene":11908,"Ġemplec":11909,"Ġaplicacions":11910,"ĠBanca":11911,"aprendissatge":11912,"ĠPÃ¨rsia":11913,"Ġincendi":11914,"ĠOtomans":11915,"Ġbudget":11916,"ĠcaldrÃł":11917,"Ġprojeccion":11918,"ĠMichael":11919,"Ġferroviaire":11920,"Quauques":11921,"ĠconcurrÃ©ncia":11922,"ĠPedro":11923,"ĠSenhor":11924,"Ġcristianisme":11925,"Ġraionament":11926,"Dau":11927,"Ni":11928,"Nicol":11929,"Res":11930,"TC":11931,"cop":11932,"his":11933,"mus":11934,"renh":11935,"yes":11936,"Ð²":11937,"ĠÃĪ":11938,"Ġdavan":11939,"onar":11940,"tera":11941,"Ġah":11942,"asta":11943,"Ġcy":11944,"arque":11945,"ciÃ¨r":11946,"inÃ²":11947,"rets":11948,"Ġmapas":11949,"isia":11950,"Ġtranqu":11951,"Ġenri":11952,"ĠreÃ§":11953,"Ġbatre":11954,"Ġbien":11955,"tifica":11956,"Ã§ant":11957,"Ã§ons":11958,"ĠPle":11959,"chet":11960,"aparten":11961,"Ġpasta":11962,"ĠBab":11963,"ĠBerg":11964,"avia":11965,"ĠEp":11966,"Ġteologia":11967,"mians":11968,"ĠNu":11969,"Ġarg":11970,"Ġarren":11971,"ecs":11972,"umul":11973,"Ġfagu":11974,"Ġexili":11975,"Ġespecta":11976,"Ġespectacles":11977,"Ġregrop":11978,"Ġregarda":11979,"ĠveniÃ¡n":11980,"Ġescotar":11981,"ĠHall":11982,"Ġtrens":11983,"ipotÃ¨si":11984,"enheim":11985,"Ġsolidaritat":11986,"Ġmanip":11987,"Ġtorneg":11988,"eville":11989,"Ġassembl":11990,"Ġadob":11991,"ĠAntiquitat":11992,"espital":11993,"ĠKy":11994,"Ã¼es":11995,"ĠGuinÃ¨a":11996,"ĠAlps":11997,"enciala":11998,"ordar":11999,"urel":12000,"Ġpatas":12001,"Ġdever":12002,"Ġcromat":12003,"Ġexplici":12004,"Ã¨xes":12005,"audan":12006,"Ġsegondari":12007,"ĠparticipÃ¨ron":12008,"ĠcresenÃ§a":12009,"ĠocupÃ¨t":12010,"ĠfisanÃ§a":12011,"ĠsÃ¨tis":12012,"Ġmoral":12013,"vey":12014,"Ġestudiat":12015,"ĠnecessÃłrias":12016,"Ġfavorables":12017,"Ġassociats":12018,"Ġreferend":12019,"enni":12020,"Ġseparadas":12021,"ĠcobrÃŃs":12022,"Ġ1894":12023,"Ġcertans":12024,"Ġ1882":12025,"2004":12026,"Ġcabuss":12027,"Ġ1854":12028,"Ġ1859":12029,"Ġcompletat":12030,"Demor":12031,"Ġdeterminat":12032,"ĠLiter":12033,"Ġvenceire":12034,"Ġsepara":12035,"Ġinventat":12036,"ĠFelibrige":12037,"Trabalh":12038,"Ġvassaus":12039,"Ġconoiss":12040,"ĠPetit":12041,"TAN":12042,"Ġrecensement":12043,"Ġreialmes":12044,"eliminar":12045,"ĠepisÃ²di":12046,"Ġcalifa":12047,"Jacques":12048,"Ġdestriar":12049,"ĠCÃ²ngo":12050,"ĠBossÃ²st":12051,"Din":12052,"GV":12053,"PR":12054,"Pont":12055,"aicÃŃ":12056,"cre":12057,"ju":12058,"vÃ¨rn":12059,"well":12060,"Ð½":12061,"ĠÃĴc":12062,"Ġpleg":12063,"ĠlaÃ¼":12064,"Ġturb":12065,"omenat":12066,"dab":12067,"Ġnor":12068,"guel":12069,"Ã¨ros":12070,"Ġgess":12071,"Ġcondus":12072,"Ġaliat":12073,"ĠMod":12074,"Ã²rnia":12075,"ĠPC":12076,"Ġanautita":12077,"ÃŃbl":12078,"abar":12079,"abadiÃ¡":12080,"ĠReis":12081,"ĠFL":12082,"Ġtela":12083,"ĠVes":12084,"ĠVerc":12085,"Ġapp":12086,"Enaut":12087,"ego":12088,"umat":12089,"Ġfact":12090,"Ġresta":12091,"ocs":12092,"Ġregents":12093,"Ġrab":12094,"ĠraÃ§a":12095,"Ġterrador":12096,"Ãłnd":12097,"ilhs":12098,"vencions":12099,"illust":12100,"Ġdisques":12101,"Ġcorpor":12102,"renca":12103,"ĠMarÃŃa":12104,"Ġrevers":12105,"Ġintervencion":12106,"Ġ56":12107,"Ġestacions":12108,"Ġongan":12109,"ishen":12110,"Ġzo":12111,"ordinari":12112,"Ġexple":12113,"Ġexposicion":12114,"Ġespecifica":12115,"Ġneglig":12116,"Ġbaill":12117,"Ġrecono":12118,"Ġponches":12119,"Ġvarianta":12120,"Ġprotectorat":12121,"ajud":12122,"ĠnavÃ¨th":12123,"Ġsuprimir":12124,"ĠmorÃŃ":12125,"ĠQuint":12126,"Ġdaissat":12127,"Ġ1864":12128,"Ġesperits":12129,"Ġprimordi":12130,"Ġseparats":12131,"ĠAbbaye":12132,"ĠsenhoriÃ¡":12133,"Ġoriental":12134,"eticions":12135,"Ġgardat":12136,"Ġestrang":12137,"Ġromain":12138,"Ġcomposicions":12139,"Ġmobil":12140,"onnie":12141,"ĠsubstÃłncias":12142,"Ġprecurs":12143,"ĠcomplÃ¨xa":12144,"Ġeissit":12145,"ĠavanÃ§ar":12146,"Ġtermodin":12147,"ĠCabard":12148,"Ġvidanta":12149,"Ġdesconeguda":12150,"Ġdesenant":12151,"organismes":12152,"Ġterritorialas":12153,"ĠAugus":12154,"Aguesta":12155,"ĠIllas":12156,"Ġegipcians":12157,"ĠKarl":12158,"Ġpresidenciala":12159,"ĠcervÃ¨l":12160,"eliminacion":12161,"ĠClarmont":12162,"escambis":12163,"ĠTomÃłs":12164,"Ġdisponible":12165,"Ġasiatic":12166,"ĠVersalhas":12167,"Ġaustral":12168,"ĠasteroÃ¯de":12169,"Ġremarca":12170,"Ġograp":12171,"NESCO":12172,"ĠGaudÃŃ":12173,"ĠacadÃ¨mias":12174,"Ġpontannada":12175,"Ġparoissi":12176,"Alav":12177,"Mos":12178,"Mentre":12179,"Texans":12180,"plan":12181,"vira":12182,"Î¼":12183,"ÑĤ":12184,"ĠÃ²s":12185,"ĠdanÃ§as":12186,"enga":12187,"Ġdeur":12188,"ĠpÃ²st":12189,"ase":12190,"ofÃ²n":12191,"ĠcÃ¨u":12192,"Ġcicles":12193,"arar":12194,"Ġmeu":12195,"ory":12196,"raccions":12197,"ĠfÃ¨us":12198,"Ġtib":12199,"amic":12200,"elat":12201,"Ġreala":12202,"Ġredre":12203,"ĠbÃ¨u":12204,"Ġconeisson":12205,"Ã©li":12206,"ulaire":12207,"eiro":12208,"ĠrÃ²da":12209,"adora":12210,"Louis":12211,"aplic":12212,"ĠAh":12213,"otÃŃs":12214,"Ġdesvi":12215,"Ġintellig":12216,"ovis":12217,"Ġpop":12218,"ĠEconom":12219,"Ġcapablas":12220,"ortal":12221,"oble":12222,"Ġmargin":12223,"escapar":12224,"ĠHub":12225,"Ġrig":12226,"Ġcreator":12227,"aqueleis":12228,"ĠChicago":12229,"Ġsensible":12230,"Ġsensibilitat":12231,"Ġtorns":12232,"Ġatl":12233,"ĠMarg":12234,"ambi":12235,"Ġ42":12236,"orial":12237,"Ġdebut":12238,"ĠdevÃ¨m":12239,"ĠTolos":12240,"ĠdistÃłncias":12241,"Ġespecialistas":12242,"Ã¨xe":12243,"Ġnotacion":12244,"ĠrapÃ²rts":12245,"Ġorganizadas":12246,"ĠMao":12247,"Ġangle":12248,"Ġpraub":12249,"ĠConseu":12250,"Ġfisc":12251,"Ġmodi":12252,"Ġtoristas":12253,"Ġliberar":12254,"Ġvertadier":12255,"Ġcomplir":12256,"ĠenfanÃ§a":12257,"Ġsentit":12258,"Ġjols":12259,"Ġmassac":12260,"ĠSax":12261,"Ġacaba":12262,"Ġ1896":12263,"Ġ1791":12264,"ĠretirÃ¨t":12265,"ĠPolit":12266,"Ġtoler":12267,"Ġfruchs":12268,"ĠtalhiÃ¨rs":12269,"ĠGenerau":12270,"ĠAndrieu":12271,"Ġmecanismes":12272,"ĠindividÃº":12273,"lenga":12274,"Ġamassat":12275,"Ġverticala":12276,"Ġdesconegut":12277,"Ġargentina":12278,"Ġviatjar":12279,"Ġdemenir":12280,"ĠComunista":12281,"Ġrecuperacion":12282,"Ġsexuala":12283,"ĠdrÃ²lle":12284,"Ġcontest":12285,"Ġdisciplinas":12286,"Ġgalaxia":12287,"Ġabitualament":12288,"ĠUcraÃ¯na":12289,"escambi":12290,"acceptar":12291,"Ġmanuscrit":12292,"ĠmoriguÃ¨ron":12293,"ĠLarzac":12294,"ĠSaturne":12295,"Ġcomplexitat":12296,"ĠentiÃ¨rament":12297,"ĠnÃŃvols":12298,"intensitat":12299,"orld":12300,"Tolosa":12301,"Aj":12302,"Dab":12303,"Eure":12304,"MÃ²rt":12305,"nt":12306,"oin":12307,"risson":12308,"sens":12309,"segon":12310,"zan":12311,"Ã¥":12312,"Å«":12313,"Îº":12314,"Î»":12315,"ĠdÃ©":12316,"Ġaeron":12317,"anca":12318,"Ġcine":12319,"Ġcendres":12320,"eres":12321,"erupcion":12322,"riana":12323,"Ġvejaire":12324,"Ġnada":12325,"osar":12326,"ello":12327,"Ġseiss":12328,"antica":12329,"antariÃ¡":12330,"ĠCu":12331,"Ġalu":12332,"Ġalong":12333,"ĠMire":12334,"ĠSur":12335,"aden":12336,"ĠPh":12337,"ĠPingo":12338,"ivi":12339,"ivitat":12340,"ĠGasc":12341,"ĠFe":12342,"ĠFront":12343,"ĠTun":12344,"ĠTour":12345,"Ġentend":12346,"Ġentaus":12347,"ando":12348,"ander":12349,"ĠDur":12350,"impic":12351,"Ġaub":12352,"Ġaudi":12353,"auton":12354,"Ġhilha":12355,"ĠestÃ¨la":12356,"Ġcaroling":12357,"Ġesclat":12358,"ifiquÃ¨t":12359,"Ġrecentas":12360,"ĠHay":12361,"ency":12362,"ĠtrÃ¨va":12363,"ĠtrÃ²ces":12364,"Ġrites":12365,"Ġmunicipala":12366,"ĠÂ»)":12367,"Ġencastre":12368,"Ġmani":12369,"Ġfargar":12370,"Ġeleccion":12371,"ĠroÃ¯nas":12372,"ĠvolÃ¨m":12373,"Ġvolgut":12374,"Ġsociol":12375,"Aquin":12376,"Ġpersones":12377,"Ġ1200":12378,"bias":12379,"biguÃ¨t":12380,"ĠempÃ¨ris":12381,"Ġaglomeracion":12382,"Ġerb":12383,"ĠrefÃ²rma":12384,"Ġ85":12385,"ejat":12386,"illet":12387,"ĠRota":12388,"aurus":12389,"explicar":12390,"exportacion":12391,"Ġaparar":12392,"ĠepÃ²cas":12393,"Ġcere":12394,"ĠUl":12395,"ĠUru":12396,"ĠpaÃ¯satges":12397,"Ġcaminar":12398,"ĠFranceses":12399,"Ġdebanament":12400,"rÃ²fas":12401,"Ġtribut":12402,"Ġ1915":12403,"ĠnomenÃ¨t":12404,"Ġ1903":12405,"Ġ1869":12406,"Ġnormalizacion":12407,"EscriguÃ¨t":12408,"Ġdetlos":12409,"Ġ1892":12410,"Ġconselhs":12411,"Ġcantaires":12412,"ĠBelf":12413,"iguec":12414,"Ġcambras":12415,"terminacion":12416,"Ġcorrespondent":12417,"Ġrevolucionaris":12418,"ĠtranspÃ²rts":12419,"ĠtravÃ¨rsa":12420,"Ġrestaurat":12421,"Ġregulars":12422,"Ġvintena":12423,"Ġlegislacion":12424,"ĠMagdal":12425,"ĠinfluÃ©ncias":12426,"Ġdestinats":12427,"ĠcontemporanÃ¨u":12428,"Ġarrestar":12429,"Ġcronicas":12430,"Ġapelat":12431,"ĠortodÃ²":12432,"Ġabsorb":12433,"Ġdigloss":12434,"Ġcelebrar":12435,"Ġipot":12436,"ĠproclamÃ¨t":12437,"Ġsignificant":12438,"Ġaculhir":12439,"Ġestrategica":12440,"ObtenguÃ¨t":12441,"Ġcrompa":12442,"Ġierogl":12443,"ĠPelop":12444,"Ġcolomna":12445,"Ġretrach":12446,"ĠSciÃ©ncias":12447,"Ġinaugurat":12448,"ĠprovisÃ²ri":12449,"Ġedificis":12450,"Ġhemna":12451,"ĠÏĢ":12452,"escadenÃ§a":12453,"ĠmÃ¨dias":12454,"Ġimmediatament":12455,"Cadun":12456,"ĠDaniel":12457,"ĠConservatÃ²ri":12458,"Ġfidelitat":12459,"ÃŃblia":12460,");":12461,".).<|":12462,"Cau":12463,"Camp":12464,"Dieu":12465,"LR":12466,"NO":12467,"VÃ¨rs":12468,"fat":12469,"fra":12470,"fran":12471,"kal":12472,"uti":12473,"way":12474,"Ġducs":12475,"Ġlanc":12476,"teurs":12477,"Ġsot":12478,"ĠcÃ¨rtas":12479,"arab":12480,"inent":12481,"Ġmim":12482,"isab":12483,"icacion":12484,"omen":12485,"Ġenerg":12486,"usar":12487,"elar":12488,"Ġcomme":12489,"Ġcometas":12490,"ĠCru":12491,"ĠCaux":12492,"iage":12493,"etari":12494,"Ġalfab":12495,"Ġrup":12496,"ĠrÃ²tles":12497,"ĠSard":12498,"Ġpareis":12499,"ĠAul":12500,"Ġange":12501,"Ġanarqu":12502,"dieu":12503,"ĠBasc":12504,"ctas":12505,"ctic":12506,"Ã¨sa":12507,"ĠGolf":12508,"izan":12509,"ĠFla":12510,"ĠFisiologia":12511,"ĠTou":12512,"ĠLus":12513,"Ġcapel":12514,"Ã¯r":12515,"ĠNeptun":12516,"ĠDos":12517,"ĠDire":12518,"Ġcontorn":12519,"Ġvillatge":12520,"Ġplant":12521,"Ġexteriora":12522,"Ġmarcas":12523,"Ġramp":12524,"Ġconsum":12525,"Ġmonarca":12526,"Ã¨sts":12527,"Ġmais":12528,"Aqueleis":12529,"Ġtresau":12530,"Ġcausidas":12531,"Ġmandad":12532,"Ġrelatiu":12533,"ĠLoir":12534,"Ġadara":12535,"Ġroving":12536,"ĠMarrÃ²c":12537,"ĠWeb":12538,"Ġtrabalhadors":12539,"gias":12540,"Ġjazz":12541,"Ġexportacions":12542,"ĠEstrasburg":12543,"diccions":12544,"180":12545,"Ġnacionals":12546,"Ġconsiderablament":12547,"Ġclassics":12548,"cular":12549,"ĠmejanÃ§ant":12550,"exple":12551,"ĠCarlos":12552,"Ġpensat":12553,"ĠreconÃ©isser":12554,"regacion":12555,"anÃ§on":12556,"Ġexistissi":12557,"ĠexistissiÃ¡":12558,"Ġnaveg":12559,"Ġmagma":12560,"Ġtractar":12561,"Ġvertadiera":12562,"Ġequilib":12563,"Ġnomenan":12564,"Ġcercles":12565,"Avairon":12566,"ĠpromÃ²ure":12567,"ĠdimÃ¨cres":12568,"Ġmostrant":12569,"Ġvirtu":12570,"Ġprodusir":12571,"Ġlargor":12572,"Ġtelef":12573,"Ġtrionf":12574,"ĠPruss":12575,"Ġleugier":12576,"ĠtendrÃł":12577,"Ġjoen":12578,"ĠMolac":12579,"Ġcontaire":12580,"Ġangleses":12581,"escrivans":12582,"Ġfixat":12583,"Ġcrimin":12584,"Ġcircular":12585,"ĠlanÃ§ament":12586,"Ġmessat":12587,"Ġportugueses":12588,"ĠBorgonha":12589,"Ġlunara":12590,"Ġcomparar":12591,"americana":12592,"Guilh":12593,"Ġevolucions":12594,"Ġajudat":12595,"Ġconcebut":12596,"ĠFontaine":12597,"Ġevidentament":12598,"Ġcentralas":12599,"Ġquotidian":12600,"Ġeliminar":12601,"Ġlogicial":12602,"ĠRÃ²cafu":12603,"NSEE":12604,"Ġsenators":12605,"Ġconclusion":12606,"escolans":12607,"Germain":12608,"Ġimplantat":12609,"ĠracÃ²n":12610,"Soi":12611,"Trob":12612,"Vall":12613,"eter":12614,"fal":12615,"lÃ²c":12616,"yon":12617,"ĠdrÃ²":12618,"ĠdÃ²na":12619,"Ġline":12620,"Ġpai":12621,"Ġpeg":12622,"Ġcog":12623,"Ġcert":12624,"erÃ²i":12625,"cio":12626,"inhac":12627,"Ġmons":12628,"alona":12629,"oricament":12630,"Ġfosf":12631,"Ġvar":12632,"ĠreinÃ¨t":12633,"Ġbess":12634,"ĠCra":12635,"ĠCarri":12636,"Ã²rca":12637,"Ġanient":12638,"ĠBir":12639,"ĠBac":12640,"ĠBrion":12641,"avÃ¨tz":12642,"idd":12643,"ido":12644,"ĠRÃłdio":12645,"ĠGol":12646,"ĠGro":12647,"ĠLun":12648,"ĠLud":12649,"Ġtraucs":12650,"tessa":12651,"Ġargument":12652,"Ġpartenaris":12653,"ĠserÃ©":12654,"Ġmonop":12655,"udit":12656,"ultor":12657,"ips":12658,"Ġrepet":12659,"Ġbasilica":12660,"Ġcreacions":12661,"Ġ350":12662,"Ġcausat":12663,"Ġdiverg":12664,"Ġtornada":12665,"Ġgeneraus":12666,"estima":12667,"Ġdepression":12668,"Ġadolesc":12669,"ĠAnna":12670,"espÃ¨r":12671,"Ġpoliticament":12672,"Ġsosc":12673,"Ġatomic":12674,"ambient":12675,"ĠvolguÃ¨t":12676,"Ġ52":12677,"ĠdesvolopÃ¨ron":12678,"ĠMontb":12679,"Ġcooper":12680,"Ġconclu":12681,"ĠconcrÃ¨t":12682,"ĠâĢĺ":12683,"ĠtÃ¨rratrem":12684,"Internet":12685,"Ġpensan":12686,"Ġsemblar":12687,"Ġtipic":12688,"Ġgrad":12689,"ĠZel":12690,"Ġconvida":12691,"Ġvoses":12692,"Ġdobrir":12693,"Ġsecuritat":12694,"Ġjamei":12695,"Ġmelhorament":12696,"Ġbiologia":12697,"Ġcatarisme":12698,"Ġisla":12699,"Ġterrenh":12700,"Ġvivents":12701,"Ġusatges":12702,"ĠBoca":12703,"ĠColomb":12704,"arbres":12705,"urgÃ©ncia":12706,"Ġ1885":12707,"ĠsomÃ©s":12708,"Ġdessenhada":12709,"Ġadministrativas":12710,"Ġjutjar":12711,"ĠgardÃ¨t":12712,"comun":12713,"ĠPortugu":12714,"ĠrÃ¨gne":12715,"Ġsimilars":12716,"Ġfortuna":12717,"ĠMaurici":12718,"ĠTurcs":12719,"ĠAdorna":12720,"ĠabsÃ©ncia":12721,"Ãłrius":12722,"ectivas":12723,"lacÃ¨t":12724,"Ġinterpretat":12725,"Ġviatj":12726,"ĠBritanic":12727,"Ġsistematica":12728,"Ġfugida":12729,"ĠRoger":12730,"Ġescrits":12731,"ĠbarrÃ²c":12732,"Ġminerals":12733,"Ġsufisenta":12734,"ĠCalifÃ²rnia":12735,"ĠPlata":12736,"Ġespecifics":12737,"Ġrecompens":12738,"Ġconverti":12739,"rÃ²ba":12740,"ĠKenya":12741,"Ġreconquistar":12742,"2000":12743,"Coss":12744,"carri":12745,"dessus":12746,"lÃ¨t":12747,"ling":12748,"Ġil":12749,"Ġdotz":12750,"ĠlanÃ§a":12751,"Ġput":12752,"Ġaun":12753,"Ġacid":12754,"ĠsÃ²us":12755,"ĠcÃ¨rts":12756,"inus":12757,"Ġmala":12758,"Ġmarais":12759,"Ġlomb":12760,"Ġfle":12761,"ĠfÃ²t":12762,"Ġtocat":12763,"Ġunion":12764,"aust":12765,"amai":12766,"guier":12767,"elm":12768,"Ġrets":12769,"Ġseca":12770,"Ġbus":12771,"ĠgÃ²r":12772,"anton":12773,"Ġ(-":12774,"Ġry":12775,"ĠMam":12776,"ĠMoss":12777,"ĠMarais":12778,"ĠSep":12779,"aprÃ¨p":12780,"otics":12781,"dier":12782,"dial":12783,"ĠRiv":12784,"ĠGN":12785,"ĠTru":12786,"assat":12787,"Ġaplicar":12788,"ortÃ¨t":12789,"ecus":12790,"Ġsigue":12791,"Ġplantat":12792,"agan":12793,"uck":12794,"Ġespital":12795,"ocadas":12796,"Ġmarbre":12797,"Ġmarridas":12798,"Ġreglar":12799,"astics":12800,"escat":12801,"Ġpujar":12802,"ĠrecÃ²rd":12803,"Ġtox":12804,"Ġtour":12805,"osax":12806,"Ġpodent":12807,"Ġtornan":12808,"Ġcorreg":12809,"ĠKer":12810,"ĠinterÃ¨sses":12811,"Ġinser":12812,"ĠPargue":12813,"ĠWest":12814,"ĠgrÃ¨u":12815,"Ġposse":12816,"Ġpossiblas":12817,"Ġrds":12818,"Ġjosieu":12819,"Ġdespuish":12820,"Ġinstitu":12821,"Ġbachel":12822,"afir":12823,"afront":12824,"Ġbarrat":12825,"estabilitat":12826,"Ġsemblant":12827,"Ġfondador":12828,"Ġfonciona":12829,"ĠdobrÃŃs":12830,"ĠRepublic":12831,"Ġproductors":12832,"Ġquauque":12833,"Ġ1904":12834,"ĠViaur":12835,"hannaise":12836,"Ġperduts":12837,"ĠIsab":12838,"Ġcortas":12839,"Ġfacilament":12840,"manhac":12841,"ĠOrt":12842,"Ġprecisar":12843,"Ġdatas":12844,"ĠlicÃ¨us":12845,"Ġtransformar":12846,"ĠMoul":12847,"ĠAndrÃ©":12848,"Ġfixa":12849,"ĠataquÃ¨t":12850,"eurthe":12851,"Ġmuralha":12852,"Ġperturb":12853,"Ġatencion":12854,"aguest":12855,"eveniments":12856,"ĠeficaÃ§a":12857,"Ġastronautas":12858,"Ġintellectuala":12859,"immigracion":12860,"ĠBaish":12861,"existisson":12862,"Ġmillenari":12863,"ĠseriÃ³s":12864,"Ġbombarda":12865,"Ġquatrena":12866,"ĠBolÃŃ":12867,"ĠfilosÃ²fs":12868,"quisicion":12869,"Ġrocass":12870,"Ġfelibres":12871,"Ġcondemnat":12872,"Ġestrecha":12873,"Ġcristall":12874,"ĠÅŁi":12875,"Ġtyp":12876,"ĠdangiÃ¨r":12877,"Confronta":12878,"juntament":12879,"ĠVarsÃ²via":12880,"Ġ(âĢł":12881,"ĠCabardÃ©s":12882,"PO":12883,"PÃ²":12884,"Presentacion":12885,"lie":12886,"nil":12887,"vem":12888,"vejatz":12889,"zet":12890,"Ġá":12891,"ĠdÃŃder":12892,"onicas":12893,"onian":12894,"ĠsÃ¨rva":12895,"arte":12896,"inta":12897,"Ġmu":12898,"orizont":12899,"itals":12900,"icus":12901,"Ġesm":12902,"Ġventre":12903,"aim":12904,"Ã©ry":12905,"Ġocasion":12906,"Ġoceans":12907,"ĠMala":12908,"Ã²rme":12909,"ados":12910,"ĠPublic":12911,"istorian":12912,"chn":12913,"ĠAur":12914,"Ġanant":12915,"ÃŃst":12916,"ĠBart":12917,"abitacion":12918,"Ġambici":12919,"Ġambicions":12920,"ize":12921,"ĠFac":12922,"ĠTim":12923,"ĠTors":12924,"Ġpoetic":12925,"ĠVik":12926,"urau":12927,"asset":12928,"aragon":12929,"Ġaud":12930,"Ġsiatz":12931,"ĠIran":12932,"Esqu":12933,"Ġsaque":12934,"Ġespontan":12935,"ĠacÃ²rdi":12936,"Ã¨gia":12937,"ĠregÃ©ncia":12938,"Ġestant":12939,"Ġimplica":12940,"Ġraja":12941,"astr":12942,"Ġserral":12943,"ĠHy":12944,"ĠXav":12945,"Ġformadas":12946,"Ġ38":12947,"Ã¨nis":12948,"Ã²nh":12949,"Ġdivina":12950,"ologista":12951,"iang":12952,"Ġgeneraument":12953,"Ġelevada":12954,"ĠFranca":12955,"Ġpubliqu":12956,"Ġsojorn":12957,"Ġ41":12958,"ĠGui":12959,"itarisme":12960,"Ġestabla":12961,"ĠcampÃ¨stre":12962,"Ġmenats":12963,"ĠRoazhon":12964,"Ġsignar":12965,"Ġsignada":12966,"Ġetrus":12967,"rimit":12968,"Ġdeths":12969,"Ġocupar":12970,"ĠmolhÃ¨r":12971,"aparar":12972,"Ġmatrim":12973,"Ġmelhoras":12974,"Ġfavorabla":12975,"ĠblÃ²ts":12976,"Ġrempla":12977,"Ġemissions":12978,"ĠSalvador":12979,"arribar":12980,"Ġ1897":12981,"Ġ1886":12982,"esperel":12983,"linha":12984,"Ġpauretat":12985,"ĠutÃŃs":12986,"Ġinformat":12987,"Ġparlamentaris":12988,"enfanÃ§a":12989,"Ġescolar":12990,"Ġitalianas":12991,"ĠcavaliÃ¨r":12992,"Ġcapturats":12993,"ĠfinanciÃ¨ra":12994,"ĠcomplÃ¨xas":12995,"Ġopausats":12996,"Ġfortificat":12997,"Ġsimbolica":12998,"Ġafricans":12999,"ĠdistinguÃŃs":13000,"archipÃ¨la":13001,"astronomia":13002,"ĠVillers":13003,"Ġmigracions":13004,"Ġlegitimitat":13005,"ĠCartage":13006,"Ġmagnitud":13007,"Ġlouhannaise":13008,"ĠCassini":13009,"ĠongrÃ©s":13010,"ĠBulgars":13011,"Ġtransforma":13012,"Ġpredomin":13013,"Ġredrei":13014,"%).<|":13015,"'Â«":13016,"AD":13017,"Aus":13018,"AÃ§Ã²":13019,"Bo":13020,"Bar":13021,"Fond":13022,"Gaireben":13023,"Long":13024,"Maria":13025,"Nascut":13026,"Pichon":13027,"Rom":13028,"cus":13029,"ete":13030,"gran":13031,"hÃ¨it":13032,"javan":13033,"naire":13034,"ĠÃ²r":13035,"Ġluc":13036,"tejar":13037,"Ġpter":13038,"andiguÃ¨t":13039,"anautita":13040,"Ġsorg":13041,"cient":13042,"Ġtent":13043,"Ġtocant":13044,"rimin":13045,"Ġvu":13046,"Ġblack":13047,"Ġgama":13048,"antena":13049,"ĠCrim":13050,"Ġrin":13051,"Ġrub":13052,"ĠrÃ¨ire":13053,"ader":13054,"lavas":13055,"ĠAy":13056,"ĠAups":13057,"ĠBÃŃblia":13058,"itatge":13059,"Ġdesesper":13060,"Ġineg":13061,"Ġined":13062,"ĠRap":13063,"ĠRiu":13064,"ĠEti":13065,"Ġtraduccions":13066,"ĠNon":13067,"ĠDesc":13068,"Ġaurel":13069,"erson":13070,"onder":13071,"Ġespessa":13072,"Ġaccedir":13073,"Quitament":13074,"odia":13075,"Ġmonarqu":13076,"Ġdeman":13077,"Ġrecorre":13078,"ĠHaut":13079,"Ġrepr":13080,"Ġreprodu":13081,"Ġsolida":13082,"evitar":13083,"rariÃ¡":13084,"Ġfamoses":13085,"Ġsegura":13086,"Ġasset":13087,"ĠAnfÃ³s":13088,"espÃ¨ra":13089,"Ġdirec":13090,"Ġtransit":13091,"Ġafort":13092,"Ġonze":13093,"Ġlegeire":13094,"Ġconcer":13095,"Ġeret":13096,"Ġmenas":13097,"Ġexpedicions":13098,"Ġumid":13099,"Ġartisticas":13100,"Ġconsiderava":13101,"annexion":13102,"Ġdecoracion":13103,"Ġaparelhs":13104,"ÃĴlt":13105,"Ġprogression":13106,"ĠMaxim":13107,"Ġmajoritari":13108,"ĠValadas":13109,"Ġaisida":13110,"Ġdisposicions":13111,"Ġ1872":13112,"Ġ1879":13113,"ika":13114,"Ġtraversar":13115,"Ġinclu":13116,"orel":13117,"Ġobtenguda":13118,"Ġdimin":13119,"Ġ1865":13120,"Ġfaciada":13121,"Ġdiable":13122,"Ġprecisas":13123,"Ġcambas":13124,"Ġoccidentau":13125,"Ġressor":13126,"Ġflux":13127,"ĠleugiÃ¨r":13128,"Ġensenhaments":13129,"Ġprefond":13130,"Ġcompositors":13131,"Ġprofessional":13132,"ĠataquÃ¨ron":13133,"ĠdiplÃ²ma":13134,"Ġadaptacion":13135,"ĠJules":13136,"Ġmalaisit":13137,"ventÃ©s":13138,"Ġlittor":13139,"ĠPuy":13140,"Ġdrama":13141,"Ġimmob":13142,"ĠsÃ²mi":13143,"ithecus":13144,"ĠSpace":13145,"Ġperseguir":13146,"Ġprovesit":13147,"Ġrivalitat":13148,"estanh":13149,"Ġnarracion":13150,"Ġchifra":13151,"Ġcontrarotlar":13152,"ONU":13153,"Ġfibras":13154,"ĠLisbona":13155,"Illa":13156,"aptiste":13157,"ĠBigÃ²rra":13158,"Ġaproximativament":13159,"Ġpropaganda":13160,"Ġadversari":13161,"ĠCÃ²rdas":13162,"Certanei":13163,"Ġcovid":13164,"alienacion":13165,"ĠcirconstÃłncias":13166,"Ġcirconscripcion":13167,"ĠforÃ§adament":13168,"Ġvicepresident":13169,"Ġrebellion":13170,"eficacitat":13171,"Alavetz":13172,"Cres":13173,"DF":13174,"Damb":13175,"IN":13176,"Ives":13177,"LE":13178,"Public":13179,"gÃ³":13180,"mir":13181,"nau":13182,"pi":13183,"ritat":13184,"sec":13185,"ualament":13186,"vet":13187,"ĠlÃ²cs":13188,"ĠpÃ²ls":13189,"estelas":13190,"Ġsans":13191,"atÃ²ris":13192,"rea":13193,"Ġmy":13194,"Ã²ct":13195,"islam":13196,"raq":13197,"raina":13198,"Ġflex":13199,"Ġtocar":13200,"Ġenciclop":13201,"Ġpermeses":13202,"amics":13203,"osp":13204,"osex":13205,"ilo":13206,"Ġredon":13207,"Ġrector":13208,"Ġbov":13209,"Ġalinh":13210,"ĠMy":13211,"ĠMill":13212,"ĠSw":13213,"ĠPÃ²rt":13214,"chy":13215,"otas":13216,"ĠRif":13217,"ĠGai":13218,"ĠTro":13219,"ĠTest":13220,"ove":13221,"ĠNev":13222,"Ġplural":13223,"umiditat":13224,"ĠestÃ¨las":13225,"Ġgranit":13226,"rancament":13227,"udat":13228,"ibar":13229,"Ġtrin":13230,"Ġclor":13231,"Ġribi":13232,"emper":13233,"epis":13234,"Ġcausadas":13235,"inger":13236,"Ġpersist":13237,"Ġassum":13238,"Ġ57":13239,"ĠEsper":13240,"ĠAll":13241,"ĠelÃ¨its":13242,"tencions":13243,"Ġprovinci":13244,"Ġservar":13245,"incourt":13246,"Ġpublicadas":13247,"Ġ72":13248,"retot":13249,"ĠdespuÃ¨i":13250,"embla":13251,"iversari":13252,"ograficas":13253,"ĠfuguÃ¨ron":13254,"ĠInd":13255,"rÃłriament":13256,"Ġindustria":13257,"laÃ§ament":13258,"ĠValenci":13259,"ĠZÃ¨us":13260,"industri":13261,"aparte":13262,"Ġmagia":13263,"ĠniÃ§":13264,"ĠjulhÃ¨t":13265,"ĠfavorizÃ¨t":13266,"ĠreferÃ©ncias":13267,"Ġsemblava":13268,"Ġfabricas":13269,"Ġ1902":13270,"Ġseparada":13271,"Ġresponsas":13272,"ĠAngleses":13273,"Ġcrestianas":13274,"Ġvolontaris":13275,"ĠManch":13276,"extrem":13277,"ĠSanti":13278,"Ġmodificat":13279,"ĠRegional":13280,"ĠGuilhem":13281,"Ġassaiar":13282,"ĠmÃ¨tro":13283,"ĠempachÃ¨t":13284,"Ġavantatge":13285,"ĠRhin":13286,"ĠlaissÃ¨t":13287,"ĠprÃ¨tzfach":13288,"Ġisolat":13289,"Ġterritoriala":13290,"Ġestrategic":13291,"ĠFilip":13292,"Proven":13293,"Ġintervencions":13294,"Ġestere":13295,"Ġreservat":13296,"osaure":13297,"Ġnotables":13298,"ĠhasÃ³":13299,"Ġexterioras":13300,"Ġrestablir":13301,"Ġdiscussions":13302,"Ġfuner":13303,"Ġespecificament":13304,"ĠRosselhon":13305,"Ġintermediari":13306,"Ġmissils":13307,"ĠnerviÃ³s":13308,"Ġanglosax":13309,"ĠobtÃ©ner":13310,"Inicialament":13311,"Ġilleg":13312,"Ġcilind":13313,"Nicolas":13314,"Ġreferendum":13315,"Air":13316,"Br":13317,"Fot":13318,"Iran":13319,"Irlanda":13320,"OR":13321,"Os":13322,"Pan":13323,"carnacion":13324,"hl":13325,"iblament":13326,"vÃ¨l":13327,"wood":13328,"Ġ>":13329,"Ġ@":13330,"Ġpir":13331,"Ġsinf":13332,"ofÃ²ns":13333,"Ġcourt":13334,"ary":13335,"arga":13336,"arina":13337,"inÃłria":13338,"unda":13339,"Ġfeste":13340,"Ġperform":13341,"olha":13342,"Ġbev":13343,"Ġbanas":13344,"insureccion":13345,"aigas":13346,"airitz":13347,"Ġcomedi":13348,"tif":13349,"tions":13350,"ĠCamin":13351,"Ã©u":13352,"ulosa":13353,"Ġross":13354,"ĠrÃ¨is":13355,"ĠMend":13356,"ĠMich":13357,"urm":13358,"urÃ¨t":13359,"apro":13360,"ĠBizantin":13361,"issons":13362,"avion":13363,"igÃ¼":13364,"idal":13365,"Ġdesbremb":13366,"ĠRock":13367,"ĠGR":13368,"ĠFu":13369,"ĠFen":13370,"ĠTai":13371,"ĠLanas":13372,"ĠLuis":13373,"iÃ¡i":13374,"Ġentamen":13375,"Ġcapa":13376,"Ġapres":13377,"ĠDÃ²na":13378,"ogat":13379,"ĠJun":13380,"ĠIrlanda":13381,"Ġprecon":13382,"ĠavÃ³":13383,"ĠavÃ¨va":13384,"ĠhÃ¨t":13385,"Ġhab":13386,"Ġhial":13387,"ĠespÃ¨ra":13388,"Quatre":13389,"Ġ1814":13390,"ifÃ¨r":13391,"ĠtempÃ¨sta":13392,"Ġfranco":13393,"Ġmesas":13394,"ĠluÃ²nh":13395,"ĠChrist":13396,"Ã²ps":13397,"ĠinsÃ¨ctes":13398,"Ġestapa":13399,"Ġconfusion":13400,"Ġpossibles":13401,"Ġmetres":13402,"Ġmenim":13403,"Ġrespec":13404,"ĠscÃ¨nas":13405,"ĠEstre":13406,"Ġsubrevis":13407,"Ġclassicas":13408,"ografics":13409,"Ġprofe":13410,"Ġdecret":13411,"Ġepid":13412,"alhac":13413,"Ġsegondaris":13414,"Ġdobertura":13415,"Ġmotiu":13416,"Ġfondators":13417,"Ġbiografia":13418,"arrÃ¨st":13419,"ĠvÃ²ls":13420,"Ġequilibri":13421,"Ġ1873":13422,"Ġ1875":13423,"ĠestabliguÃ¨t":13424,"ĠPerÃ³":13425,"ĠfenÃ¨stra":13426,"Avinhon":13427,"Ġ1863":13428,"Ġesperant":13429,"Ġ''":13430,"radura":13431,"cinas":13432,"Ġ1893":13433,"Ġpetits":13434,"Ġ1889":13435,"verd":13436,"romagnet":13437,"2005":13438,"Ġiniciala":13439,"Ġquimicas":13440,"Ġescrichs":13441,"Ġcreaturas":13442,"Ġ1842":13443,"Ġdestrucha":13444,"ĠgrÃ¨vas":13445,"Ġgarant":13446,"Ġanglesas":13447,"Ġdeterminada":13448,"Ġsovietics":13449,"Ġquadres":13450,"rocarb":13451,"ĠBesan":13452,"ĠTurin":13453,"Ġremembre":13454,"ĠAvinhon":13455,"ĠprumÃ¨ra":13456,"Ġparladas":13457,"ĠperseguÃŃs":13458,"Carles":13459,"ĠdanÃ©s":13460,"Ġestela":13461,"Ġconfirma":13462,"ĠsequÃ©ncias":13463,"Ġacademica":13464,"ograph":13465,"ĠcratÃ¨rs":13466,"Ġibn":13467,"ĠProvÃŃncias":13468,"ĠPopulara":13469,"Ġannexat":13470,"ĠTibet":13471,"Ġfeud":13472,"Ġartesan":13473,"Ġdisponibles":13474,"ĠvisigÃ²ts":13475,"ĠneerlandÃ©s":13476,"Ġitiner":13477,"Generalament":13478,"Ġconsultar":13479,"Ġbailliage":13480,"Tr":13481,"Ves":13482,"bes":13483,"eqÃ¼ator":13484,"fant":13485,"hada":13486,"nascuda":13487,"vÃ¨rb":13488,"Ðº":13489,"env":13490,"Ġdetect":13491,"onament":13492,"antiquitat":13493,"Ġcurs":13494,"ciÃ³n":13495,"ĠeqÃ¼":13496,"orquÃ¨stra":13497,"Ã²Ã§a":13498,"entend":13499,"ĠvÃ²t":13500,"Ġvotar":13501,"Ġenz":13502,"Ġnet":13503,"Ġreiv":13504,"Ġbeure":13505,"Ġgarr":13506,"aig":13507,"lem":13508,"tima":13509,"Ã©ter":13510,"ĠMilh":13511,"ĠMing":13512,"ĠPall":13513,"Ãłder":13514,"aplicar":13515,"ĠAjuntament":13516,"ĠBot":13517,"issy":13518,"ivement":13519,"Ġdesenc":13520,"ĠRel":13521,"ĠTarra":13522,"ituir":13523,"Ġsusci":13524,"ĠEdo":13525,"tesa":13526,"ĠDis":13527,"ĠDol":13528,"euc":13529,"autitas":13530,"Ġplur":13531,"Ġexacta":13532,"ager":13533,"Ġabat":13534,"Ġimplanta":13535,"ĠescasenÃ§a":13536,"Ġconsent":13537,"Ġdemografica":13538,"ĠHa":13539,"Ġbasadas":13540,"Ġformular":13541,"ĠcalÃ§":13542,"Ġsosp":13543,"Ġcapitalisme":13544,"Ã¨rns":13545,"Alf":13546,"Ġ43":13547,"Ġcosti":13548,"Ġdeishar":13549,"ĠmodÃ¨sta":13550,"Ġdesvolopadas":13551,"Ġempacha":13552,"irac":13553,"Ġereti":13554,"eff":13555,"ĠÃ²bres":13556,"ĠmantÃ¨u":13557,"Ġpresentada":13558,"oises":13559,"Ġespeciau":13560,"Ġrepresentats":13561,"Ġmieg":13562,"ĠsignÃ¨t":13563,"Ġbarons":13564,"Ġrealiza":13565,"ĠConc":13566,"ĠIndian":13567,"Ġreconeis":13568,"Ġgramatic":13569,"Ġvariar":13570,"ĠReina":13571,"ĠsegondÃłria":13572,"ĠentraÃ¯nat":13573,"Ġconviv":13574,"interÃ©s":13575,"Ġsalvat":13576,"Ġposteriora":13577,"Ġpesuc":13578,"letin":13579,"ĠLee":13580,"Ġtoristica":13581,"ĠOccitania":13582,"ĠPere":13583,"ĠespanhÃ²ls":13584,"ĠReiau":13585,"Ġrestric":13586,"ĠBoul":13587,"Ġ1899":13588,"ĠJeanne":13589,"Ġ1887":13590,"Ġpartejar":13591,"Ġgrafica":13592,"2008":13593,"ĠTrenta":13594,"Ġuniversitaris":13595,"ĠrefusÃ¨ron":13596,"Ġurbans":13597,"ĠrÃ¨ina":13598,"ĠPlana":13599,"ĠvacanÃ§as":13600,"ĠBastida":13601,"enfants":13602,"ĠcollÃ¨gis":13603,"Ġmedalha":13604,"Ġfondamentals":13605,"ograma":13606,"Ġmultiplicacion":13607,"Ġsilex":13608,"Ġrussas":13609,"ĠdemeniguÃ¨t":13610,"ĠcÃ²nsols":13611,"ĠpilÃ²t":13612,"ĠLinha":13613,"Ġclubs":13614,"Ġestrangiers":13615,"Ġampl":13616,"Ġremontan":13617,"astronÃ²m":13618,"ĠobriÃ¨rs":13619,"Ġpresidencialas":13620,"Ġcromos":13621,"ĠFontan":13622,"ĠBertrand":13623,"orientacion":13624,"Ġprioritat":13625,"ĠMontsegur":13626,"Ġfecond":13627,"Ġpedof":13628,"Ġsosmarins":13629,"Ġincorpor":13630,"ĠPrincipat":13631,"espanhÃ²l":13632,"ĠMoscÃ²u":13633,"Ġdissolucion":13634,"Ġcandidatura":13635,"Ġappellation":13636,"Ġographique":13637,"ĠSantiago":13638,"Fel":13639,"Lev":13640,"Mil":13641,"Sh":13642,"St":13643,"VD":13644,"Wik":13645,"dÃ¨t":13646,"fament":13647,"fug":13648,"gment":13649,"hara":13650,"port":13651,"ualitat":13652,"wig":13653,"yo":13654,"zada":13655,"ÅŁ":13656,"Î·":13657,"Ġpei":13658,"esfÃ¨ra":13659,"Ġsing":13660,"quias":13661,"inaugu":13662,"reux":13663,"unificar":13664,"entatge":13665,"Ġflo":13666,"Ġfauta":13667,"itau":13668,"Ġquaus":13669,"Ġtai":13670,"Ġtust":13671,"Ġtiran":13672,"omicas":13673,"Ġveus":13674,"Ġpercepcion":13675,"amistat":13676,"Ã¨rme":13677,"eleccions":13678,"ĠbÃ²ria":13679,"Ġbizantin":13680,"lei":13681,"tidas":13682,"ĠCoc":13683,"eid":13684,"ranus":13685,"Ġallu":13686,"ĠMem":13687,"ĠMeurthe":13688,"ĠSy":13689,"ĠSem":13690,"ĠPom":13691,"isto":13692,"ĠAten":13693,"ĠBec":13694,"igrants":13695,"tanhas":13696,"acost":13697,"ĠLap":13698,"ĠLille":13699,"Ġdioxid":13700,"ĠapogÃ¨u":13701,"ĠNor":13702,"Ġauie":13703,"obs":13704,"Ġcontent":13705,"Estiu":13706,"Ġplomb":13707,"Ġpredec":13708,"Ġexistir":13709,"agon":13710,"essencial":13711,"Ġestruct":13712,"vais":13713,"Ġdemonst":13714,"exig":13715,"Ġrepausa":13716,"Ġformigas":13717,"Ġprinces":13718,"rican":13719,"ologne":13720,"Ġfamilh":13721,"upcions":13722,"ĠAntoine":13723,"Ġnoveme":13724,"Ġsoscar":13725,"Alpes":13726,"acitat":13727,"Ã²sis":13728,"Ġjornadas":13729,"Ġstria":13730,"ĠtrobÃ¨ron":13731,"Ġcauna":13732,"Ġdestinacion":13733,"Ġcompausant":13734,"ĠmiÃ¨":13735,"Ġclassament":13736,"ĠromanÃ©s":13737,"argam":13738,"Ġsabla":13739,"viol":13740,"Ġdefinidas":13741,"Ã¨ctre":13742,"Ġtecnics":13743,"Ġprotector":13744,"oniana":13745,"Ġdues":13746,"Ġcontinua":13747,"ĠdescobriguÃ¨t":13748,"Ġmoiss":13749,"arrond":13750,"ĠreferÃŃs":13751,"DempÃºs":13752,"Ġvivas":13753,"Ġinvers":13754,"Ġlevant":13755,"Ġpromot":13756,"Ġdimen":13757,"Ġdemandan":13758,"Ġ1895":13759,"Ġbravament":13760,"Â»,":13761,"Ġdubrir":13762,"Ġcopar":13763,"Ġ1841":13764,"Ġprodusit":13765,"Ġindustrialas":13766,"Ġpaura":13767,"olitana":13768,"Ġmatematica":13769,"Ġconcentrar":13770,"Ġprogressiva":13771,"Ġbibliot":13772,"Ġeissidas":13773,"ĠAvairon":13774,"aguesta":13775,"ĠsÃ²rres":13776,"Ġjurid":13777,"Ġlaissar":13778,"Ġpracticar":13779,"Ġpacific":13780,"ĠGirard":13781,"ĠcontuniÃ¨ron":13782,"amassada":13783,"Observ":13784,"Ġrecensament":13785,"Ġcensura":13786,"Ġlotjaments":13787,"Ġmetropolitan":13788,"Ġanalisi":13789,"PodÃ¨tz":13790,"Ġquotidiana":13791,"Ġsovenir":13792,"Ġrestaurant":13793,"Ġregulacion":13794,"ĠNigÃ¨ria":13795,"ĠBulgaria":13796,"Ġologiques":13797,"Ġdictatura":13798,"Utiliz":13799,"ĠRicard":13800,"Ġtrentena":13801,"Ġpiramida":13802,"ĠTribunal":13803,"AustrÃłlia":13804,"Ġsubtrop":13805,"ĠMalhÃ²rca":13806,"ĠMacedÃ²nia":13807,"ĠparrÃ²quia":13808,"Ġaminoacids":13809,"ĠGabriel":13810,"atedrala":13811,"ĠmandadÃŃs":13812,"100":13813,"AU":13814,"Atenas":13815,"Be":13816,"Luc":13817,"Viv":13818,"det":13819,"iqui":13820,"jam":13821,"kk":13822,"mic":13823,"tura":13824,"Ïħ":13825,"Ġdor":13826,"asas":13827,"Ġsals":13828,"argument":13829,"Ġmun":13830,"ĠmÃ²t":13831,"orom":13832,"elada":13833,"Ġbosc":13834,"timent":13835,"Ġconeg":13836,"ĠCÃ²sta":13837,"ĠCerd":13838,"iman":13839,"ulÃ¨t":13840,"Ġalp":13841,"ĠMot":13842,"ĠMov":13843,"ĠMand":13844,"ĠMou":13845,"ĠSim":13846,"ĠPrim":13847,"ĠPÃ¨ir":13848,"ĠBav":13849,"ĠBrit":13850,"ĠBach":13851,"ĠjÃ²ia":13852,"igan":13853,"Ġdesm":13854,"ĠRon":13855,"ĠGod":13856,"izacions":13857,"aculh":13858,"Ġentitats":13859,"andes":13860,"Ġtrac":13861,"ĠaprÃ²":13862,"ĠNÃ²stre":13863,"ĠarÃł":13864,"Ġarca":13865,"orth":13866,"ĠIm":13867,"Ġpreg":13868,"Ġpreocup":13869,"Ġespectacle":13870,"Ã³mbia":13871,"astres":13872,"ĠcamÃ¨ra":13873,"Ġtruca":13874,"Ġrival":13875,"Ġpassadas":13876,"rÃ¨sta":13877,"Ġregionau":13878,"Ġcorred":13879,"erts":13880,"Ġrompre":13881,"espessor":13882,"ĠKo":13883,"Ġrojas":13884,"Ġcasc":13885,"Ġdescendent":13886,"roses":13887,"Aquera":13888,"giguÃ¨ron":13889,"Ġtrobats":13890,"Ġ64":13891,"ĠArm":13892,"Ġmenaire":13893,"armonia":13894,"uretat":13895,"Ġpatir":13896,"usse":13897,"Ġbiaisses":13898,"ituds":13899,"Ġnacionalitat":13900,"Ġnegar":13901,"ralop":13902,"Ġaguda":13903,"Ġbarrada":13904,"argat":13905,"Ġsabent":13906,"ĠcastÃ¨ls":13907,"ĠflÃ²tas":13908,"estadi":13909,"Ġreconquista":13910,"ĠintÃ¨rne":13911,"equival":13912,"Ġidro":13913,"Ġduch":13914,"interp":13915,"Ġsecada":13916,"Ġdecidir":13917,"Ġinternacionals":13918,"ĠblÃ²t":13919,"organiza":13920,"Ġnomenava":13921,"ĠviviÃ¡n":13922,"aisha":13923,"ĠÃģ":13924,"arbit":13925,"Ġespacialas":13926,"ĠfrontiÃ¨ras":13927,"Ġparlavan":13928,"adesion":13929,"ufis":13930,"Ġassegurada":13931,"Ġinstallar":13932,"ĠsufÃŃs":13933,"Ġpausada":13934,"Ġ1851":13935,"ĠJack":13936,"Ġparlamentari":13937,"Ġdeclinason":13938,"Ġvintenat":13939,"Ġcompanhs":13940,"ĠtombÃ¨t":13941,"Ġfondamental":13942,"Ġvadut":13943,"Ġpertocant":13944,"Ġarchius":13945,"dinand":13946,"Ã²ssa":13947,"aviacion":13948,"ĠLeonardo":13949,"ĠPatrimÃ²ni":13950,"Ġprecedentas":13951,"iniciacion":13952,"Ġteorica":13953,"Ġsuccessivament":13954,"ĠfidÃ¨us":13955,"Ġlengadociana":13956,"Ġimaginar":13957,"Ġfiefs":13958,"Ġample":13959,"ĠGironda":13960,"ĠbarrÃ²ca":13961,"Ġfresca":13962,"ĠtablÃ¨u":13963,"Ġtraductor":13964,"Ġconnexion":13965,"Ġtransferiment":13966,"ĠMercuri":13967,"ĠJustÃŃcia":13968,"ographique":13969,"ĠOscar":13970,"Ġtestament":13971,"Ġmeridionala":13972,"Ġcampionat":13973,"ĠCarnaval":13974,"Ġdesvelopament":13975,"enguarda":13976,"orveg":13977,"ĠCivila":13978,"ĠevidÃ©ncia":13979,"Ġvisitaires":13980,"ubretot":13981,"urbanizacion":13982,"Ġgarantir":13983,"Ġpelegrinatge":13984,"Ġconfiguracion":13985,"ĠLauraguÃ©s":13986,"Ġcommemor":13987,"ĠRÃ²cafuÃ²lh":13988,"PÃ²don":13989,"Ã²cten":13990,"ĠAtenencs":13991,"ET":13992,"Ou":13993,"Orig":13994,"Publ":13995,"Possed":13996,"dÃ©":13997,"het":13998,"jÃ¨t":13999,"lend":14000,"Ġq":14001,"Ġlenta":14002,"Ġlistas":14003,"Ġpirat":14004,"esion":14005,"endra":14006,"Ġsilla":14007,"Ġsarr":14008,"ofia":14009,"Ġcass":14010,"ermont":14011,"atri":14012,"quir":14013,"cie":14014,"reuse":14015,"ĠmÃ¯":14016,"orics":14017,"entru":14018,"itava":14019,"icat":14020,"davan":14021,"Ġente":14022,"ĠnÂº":14023,"ilis":14024,"Ġbras":14025,"Ġboc":14026,"ĠbÃ¨c":14027,"Ġbutar":14028,"leta":14029,"Ġconced":14030,"ĠClam":14031,"Ã©cia":14032,"Ġsont":14033,"Ġalh":14034,"Ġali":14035,"ĠMath":14036,"ĠSed":14037,"stre":14038,"ĠBul":14039,"ĠjÃ³nher":14040,"issat":14041,"issari":14042,"igar":14043,"igada":14044,"igeses":14045,"ĠRud":14046,"Ġprolet":14047,"ĠGusta":14048,"ĠGPS":14049,"ĠTen":14050,"ĠTrip":14051,"Ġpodem":14052,"Ġentra":14053,"andia":14054,"Ġdies":14055,"questa":14056,"ĠDev":14057,"ĠDomb":14058,"Entra":14059,"ogÃ¨n":14060,"ceau":14061,"Ġentrepren":14062,"ocadura":14063,"ĠcÃ²di":14064,"Ġmarx":14065,"Ġgenetica":14066,"encara":14067,"Ġclan":14068,"Ġsoldat":14069,"intencion":14070,"ilhats":14071,"Ġamar":14072,"luent":14073,"ĠtornarÃł":14074,"ĠfarÃłn":14075,"ubi":14076,"ubÃ¨rta":14077,"Ġsostien":14078,"Ġ51":14079,"Ġ54":14080,"Ġ68":14081,"maticament":14082,"armament":14083,"Ġdevisa":14084,"Ġdespensas":14085,"Ġdistint":14086,"Ġmantunas":14087,"ublicas":14088,"Ġespecialista":14089,"Ġespecializats":14090,"Ġligason":14091,"anni":14092,"Ġeconomista":14093,"ĠRouss":14094,"Ġsignificat":14095,"Ġautreis":14096,"inators":14097,"ĠpaÃ¯san":14098,"Ġparticipan":14099,"onians":14100,"Ġeventu":14101,"ĠconvÃ©ncer":14102,"Ġmolon":14103,"Ġsalari":14104,"Ġcivils":14105,"Ġbioquim":14106,"Ġcauda":14107,"Ġmondialas":14108,"Ġoptim":14109,"iscop":14110,"Ġ1898":14111,"Ġbrava":14112,"Ġcaracterizats":14113,"airons":14114,"ĠRomains":14115,"Ġbalhan":14116,
[...]
